<?xml version="1.0"?>
<MethodSetup Method="BDT::BDTG">
  <GeneralInfo>
    <Info name="TMVA Release" value="4.2.0 [262656]"/>
    <Info name="ROOT Release" value="6.02/05 [393733]"/>
    <Info name="Creator" value="kelmorab"/>
    <Info name="Date" value="Sat Apr  1 12:09:20 2017"/>
    <Info name="Host" value="Linux cmsbuild12.cern.ch 2.6.32-573.7.1.el6.x86_64 #1 SMP Wed Sep 23 10:12:03 CEST 2015 x86_64 x86_64 x86_64 GNU/Linux"/>
    <Info name="Dir" value="/nfs/dust/cms/user/kelmorab/Spring17Training/3makeHistosAndCards"/>
    <Info name="Training events" value="4167"/>
    <Info name="TrainingTime" value="3.89120507e+00"/>
    <Info name="AnalysisType" value="Classification"/>
  </GeneralInfo>
  <Options>
    <Option name="V" modified="Yes">False</Option>
    <Option name="VerbosityLevel" modified="No">Default</Option>
    <Option name="VarTransform" modified="No">None</Option>
    <Option name="H" modified="Yes">False</Option>
    <Option name="CreateMVAPdfs" modified="No">False</Option>
    <Option name="IgnoreNegWeightsInTraining" modified="No">False</Option>
    <Option name="NTrees" modified="Yes">878</Option>
    <Option name="MaxDepth" modified="Yes">2</Option>
    <Option name="MinNodeSize" modified="No">5%</Option>
    <Option name="nCuts" modified="Yes">22</Option>
    <Option name="BoostType" modified="Yes">Grad</Option>
    <Option name="AdaBoostR2Loss" modified="No">quadratic</Option>
    <Option name="UseBaggedBoost" modified="Yes">True</Option>
    <Option name="Shrinkage" modified="Yes">8.000000e-03</Option>
    <Option name="AdaBoostBeta" modified="No">5.000000e-01</Option>
    <Option name="UseRandomisedTrees" modified="No">False</Option>
    <Option name="UseNvars" modified="No">3</Option>
    <Option name="UsePoissonNvars" modified="No">True</Option>
    <Option name="BaggedSampleFraction" modified="No">3.100000e-01</Option>
    <Option name="UseYesNoLeaf" modified="No">True</Option>
    <Option name="NegWeightTreatment" modified="Yes">ignorenegweightsintraining</Option>
    <Option name="Css" modified="No">1.000000e+00</Option>
    <Option name="Cts_sb" modified="No">1.000000e+00</Option>
    <Option name="Ctb_ss" modified="No">1.000000e+00</Option>
    <Option name="Cbb" modified="No">1.000000e+00</Option>
    <Option name="NodePurityLimit" modified="No">5.000000e-01</Option>
    <Option name="SeparationType" modified="No">giniindex</Option>
    <Option name="DoBoostMonitor" modified="No">False</Option>
    <Option name="UseFisherCuts" modified="No">False</Option>
    <Option name="MinLinCorrForFisher" modified="No">8.000000e-01</Option>
    <Option name="UseExclusiveVars" modified="No">False</Option>
    <Option name="DoPreselection" modified="No">False</Option>
    <Option name="SigToBkgFraction" modified="No">1.000000e+00</Option>
    <Option name="PruneMethod" modified="No">nopruning</Option>
    <Option name="PruneStrength" modified="No">0.000000e+00</Option>
    <Option name="PruningValFraction" modified="No">5.000000e-01</Option>
    <Option name="nEventsMin" modified="No">0</Option>
    <Option name="UseBaggedGrad" modified="No">False</Option>
    <Option name="GradBaggingFraction" modified="Yes">3.100000e-01</Option>
    <Option name="UseNTrainEvents" modified="No">0</Option>
    <Option name="NNodesMax" modified="No">0</Option>
  </Options>
  <Variables NVar="7">
    <Variable VarIndex="0" Expression="HT" Label="HT" Title="HT" Unit="" Internal="HT" Type="F" Min="1.33580292e+02" Max="2.08139062e+03"/>
    <Variable VarIndex="1" Expression="Evt_Deta_TaggedJetsAverage" Label="Evt_Deta_TaggedJetsAverage" Title="Evt_Deta_TaggedJetsAverage" Unit="" Internal="Evt_Deta_TaggedJetsAverage" Type="F" Min="6.37547076e-02" Max="2.77736449e+00"/>
    <Variable VarIndex="2" Expression="avg_btag_disc_btags" Label="avg_btag_disc_btags" Title="avg_btag_disc_btags" Unit="" Internal="avg_btag_disc_btags" Type="F" Min="8.67031634e-01" Max="9.97834206e-01"/>
    <Variable VarIndex="3" Expression="M3" Label="M3" Title="M3" Unit="" Internal="M3" Type="F" Min="6.03459740e+01" Max="1.70474707e+03"/>
    <Variable VarIndex="4" Expression="all_sum_pt_with_met" Label="all_sum_pt_with_met" Title="all_sum_pt_with_met" Unit="" Internal="all_sum_pt_with_met" Type="F" Min="2.03006622e+02" Max="2.22509595e+03"/>
    <Variable VarIndex="5" Expression="first_jet_pt" Label="first_jet_pt" Title="first_jet_pt" Unit="" Internal="first_jet_pt" Type="F" Min="3.56840858e+01" Max="1.17843616e+03"/>
    <Variable VarIndex="6" Expression="maxeta_tag_tag" Label="maxeta_tag_tag" Title="maxeta_tag_tag" Unit="" Internal="maxeta_tag_tag" Type="F" Min="3.98631692e-02" Max="1.59011328e+00"/>
  </Variables>
  <Spectators NSpec="0"/>
  <Classes NClass="2">
    <Class Name="Signal" Index="0"/>
    <Class Name="Background" Index="1"/>
  </Classes>
  <Transformations NTransformations="0"/>
  <MVAPdfs/>
  <Weights NTrees="878" AnalysisType="1">
    <BinaryTree type="DecisionTree" boostWeight="1.0000000000000000e+00" itree="0">
      <Node pos="s" depth="0" NCoef="0" IVar="2" Cut="9.5363473892211914e-01" cType="1" res="3.0196320265531540e-02" rms="4.9908736348152161e-01" purity="5.3019630908966064e-01" nType="0">
        <Node pos="l" depth="1" NCoef="0" IVar="4" Cut="6.3556408691406250e+02" cType="1" res="-1.1810336261987686e-01" rms="4.8585140705108643e-01" purity="3.8189661502838135e-01" nType="0">
          <Node pos="l" depth="2" NCoef="0" IVar="-1" Cut="0.0000000000000000e+00" cType="1" res="-2.4770770687609911e-03" rms="4.7066748142242432e-01" purity="3.3126315474510193e-01" nType="-99"/>
          <Node pos="r" depth="2" NCoef="0" IVar="-1" Cut="0.0000000000000000e+00" cType="1" res="2.1458449773490429e-03" rms="4.7665727138519287e-01" purity="6.5098959207534790e-01" nType="-99"/>
        </Node>
        <Node pos="r" depth="1" NCoef="0" IVar="1" Cut="1.1959443092346191e+00" cType="1" res="2.3871070146560669e-01" rms="4.3933722376823425e-01" purity="7.3871076107025146e-01" nType="0">
          <Node pos="l" depth="2" NCoef="0" IVar="-1" Cut="0.0000000000000000e+00" cType="1" res="4.0117735043168068e-03" rms="4.0065878629684448e-01" purity="7.9911965131759644e-01" nType="-99"/>
          <Node pos="r" depth="2" NCoef="0" IVar="-1" Cut="0.0000000000000000e+00" cType="1" res="-2.7520797448232770e-04" rms="4.9965196847915649e-01" purity="4.8134744167327881e-01" nType="-99"/>
        </Node>
      </Node>
    </BinaryTree>
    <BinaryTree type="DecisionTree" boostWeight="1.0000000000000000e+00" itree="1">
      <Node pos="s" depth="0" NCoef="0" IVar="2" Cut="9.5258551836013794e-01" cType="1" res="-2.5334255769848824e-02" rms="4.9892261624336243e-01" purity="4.7477331757545471e-01" nType="0">
        <Node pos="l" depth="1" NCoef="0" IVar="4" Cut="4.0640551757812500e+02" cType="1" res="-1.3827715814113617e-01" rms="4.8011946678161621e-01" purity="3.6085456609725952e-01" nType="0">
          <Node pos="l" depth="2" NCoef="0" IVar="-1" Cut="0.0000000000000000e+00" cType="1" res="-3.9046793244779110e-03" rms="4.2394077777862549e-01" purity="2.3490713536739349e-01" nType="-99"/>
          <Node pos="r" depth="2" NCoef="0" IVar="-1" Cut="0.0000000000000000e+00" cType="1" res="-7.7972240978851914e-04" rms="4.9694132804870605e-01" purity="4.4571328163146973e-01" nType="-99"/>
        </Node>
        <Node pos="r" depth="1" NCoef="0" IVar="1" Cut="7.6686704158782959e-01" cType="1" res="1.2149342894554138e-01" rms="4.8447331786155701e-01" purity="6.2286955118179321e-01" nType="0">
          <Node pos="l" depth="2" NCoef="0" IVar="-1" Cut="0.0000000000000000e+00" cType="1" res="3.3944507595151663e-03" rms="4.3398320674896240e-01" purity="7.4833327531814575e-01" nType="-99"/>
          <Node pos="r" depth="2" NCoef="0" IVar="-1" Cut="0.0000000000000000e+00" cType="1" res="6.6764076473191381e-04" rms="4.9771147966384888e-01" purity="5.4590725898742676e-01" nType="-99"/>
        </Node>
      </Node>
    </BinaryTree>
    <BinaryTree type="DecisionTree" boostWeight="1.0000000000000000e+00" itree="2">
      <Node pos="s" depth="0" NCoef="0" IVar="2" Cut="9.5233768224716187e-01" cType="1" res="-2.7590954676270485e-02" rms="4.9824672937393188e-01" purity="4.7233626246452332e-01" nType="0">
        <Node pos="l" depth="1" NCoef="0" IVar="1" Cut="1.0595824718475342e+00" cType="1" res="-1.7901106178760529e-01" rms="4.6591392159461975e-01" purity="3.1906521320343018e-01" nType="0">
          <Node pos="l" depth="2" NCoef="0" IVar="-1" Cut="0.0000000000000000e+00" cType="1" res="-1.3829842209815979e-03" rms="4.9005669355392456e-01" purity="4.0171623229980469e-01" nType="-99"/>
          <Node pos="r" depth="2" NCoef="0" IVar="-1" Cut="0.0000000000000000e+00" cType="1" res="-4.3628513813018799e-03" rms="4.1081410646438599e-01" purity="2.1522952616214752e-01" nType="-99"/>
        </Node>
        <Node pos="r" depth="1" NCoef="0" IVar="4" Cut="3.9310705566406250e+02" cType="1" res="1.7333635687828064e-01" rms="4.6778202056884766e-01" purity="6.7571967840194702e-01" nType="0">
          <Node pos="l" depth="2" NCoef="0" IVar="-1" Cut="0.0000000000000000e+00" cType="1" res="3.2157145324163139e-04" rms="4.9905461072921753e-01" purity="5.2388858795166016e-01" nType="-99"/>
          <Node pos="r" depth="2" NCoef="0" IVar="-1" Cut="0.0000000000000000e+00" cType="1" res="3.3422859851270914e-03" rms="4.3538978695869446e-01" purity="7.4541139602661133e-01" nType="-99"/>
        </Node>
      </Node>
    </BinaryTree>
    <BinaryTree type="DecisionTree" boostWeight="1.0000000000000000e+00" itree="3">
      <Node pos="s" depth="0" NCoef="0" IVar="2" Cut="9.5252054929733276e-01" cType="1" res="3.8565555587410927e-03" rms="4.9859204888343811e-01" purity="5.0363284349441528e-01" nType="0">
        <Node pos="l" depth="1" NCoef="0" IVar="1" Cut="1.0182981491088867e+00" cType="1" res="-1.2466223537921906e-01" rms="4.8288607597351074e-01" purity="3.7215700745582581e-01" nType="0">
          <Node pos="l" depth="2" NCoef="0" IVar="-1" Cut="0.0000000000000000e+00" cType="1" res="-2.1964285406284034e-04" rms="4.9936419725418091e-01" purity="4.8206636309623718e-01" nType="-99"/>
          <Node pos="r" depth="2" NCoef="0" IVar="-1" Cut="0.0000000000000000e+00" cType="1" res="-3.9253793656826019e-03" rms="4.2358046770095825e-01" purity="2.3471103608608246e-01" nType="-99"/>
        </Node>
        <Node pos="r" depth="1" NCoef="0" IVar="2" Cut="9.6231466531753540e-01" cType="1" res="1.7356324195861816e-01" rms="4.6726700663566589e-01" purity="6.7724430561065674e-01" nType="0">
          <Node pos="l" depth="2" NCoef="0" IVar="-1" Cut="0.0000000000000000e+00" cType="1" res="7.4761768337339163e-04" rms="4.9655362963676453e-01" purity="5.5610924959182739e-01" nType="-99"/>
          <Node pos="r" depth="2" NCoef="0" IVar="-1" Cut="0.0000000000000000e+00" cType="1" res="3.1873981934040785e-03" rms="4.4250738620758057e-01" purity="7.3241180181503296e-01" nType="-99"/>
        </Node>
      </Node>
    </BinaryTree>
    <BinaryTree type="DecisionTree" boostWeight="1.0000000000000000e+00" itree="4">
      <Node pos="s" depth="0" NCoef="0" IVar="2" Cut="9.4908010959625244e-01" cType="1" res="-1.1430059559643269e-02" rms="4.9821433424949646e-01" purity="4.8823612928390503e-01" nType="0">
        <Node pos="l" depth="1" NCoef="0" IVar="1" Cut="1.5261486768722534e+00" cType="1" res="-1.5236485004425049e-01" rms="4.7446736693382263e-01" purity="3.4338569641113281e-01" nType="0">
          <Node pos="l" depth="2" NCoef="0" IVar="-1" Cut="0.0000000000000000e+00" cType="1" res="-1.7738090828061104e-03" rms="4.8342216014862061e-01" purity="3.7335461378097534e-01" nType="-99"/>
          <Node pos="r" depth="2" NCoef="0" IVar="-1" Cut="0.0000000000000000e+00" cType="1" res="-5.7977945543825626e-03" rms="3.3870518207550049e-01" purity="1.3214655220508575e-01" nType="-99"/>
        </Node>
        <Node pos="r" depth="1" NCoef="0" IVar="2" Cut="9.6806609630584717e-01" cType="1" res="1.3837268948554993e-01" rms="4.7876495122909546e-01" purity="6.4220094680786133e-01" nType="0">
          <Node pos="l" depth="2" NCoef="0" IVar="-1" Cut="0.0000000000000000e+00" cType="1" res="7.4638426303863525e-04" rms="4.9661931395530701e-01" purity="5.5498027801513672e-01" nType="-99"/>
          <Node pos="r" depth="2" NCoef="0" IVar="-1" Cut="0.0000000000000000e+00" cType="1" res="3.4279779065400362e-03" rms="4.3063566088676453e-01" purity="7.5357705354690552e-01" nType="-99"/>
        </Node>
      </Node>
    </BinaryTree>
    <BinaryTree type="DecisionTree" boostWeight="1.0000000000000000e+00" itree="5">
      <Node pos="s" depth="0" NCoef="0" IVar="2" Cut="9.5257580280303955e-01" cType="1" res="1.3220320688560605e-03" rms="4.9771991372108459e-01" purity="5.0087296962738037e-01" nType="0">
        <Node pos="l" depth="1" NCoef="0" IVar="1" Cut="1.3262665271759033e+00" cType="1" res="-1.2757489085197449e-01" rms="4.8133838176727295e-01" purity="3.6732560396194458e-01" nType="0">
          <Node pos="l" depth="2" NCoef="0" IVar="-1" Cut="0.0000000000000000e+00" cType="1" res="-9.3110918533056974e-04" rms="4.9483558535575867e-01" purity="4.3112498521804810e-01" nType="-99"/>
          <Node pos="r" depth="2" NCoef="0" IVar="-1" Cut="0.0000000000000000e+00" cType="1" res="-5.7252179831266403e-03" rms="3.3502313494682312e-01" purity="1.2912571430206299e-01" nType="-99"/>
        </Node>
        <Node pos="r" depth="1" NCoef="0" IVar="4" Cut="4.1868533325195312e+02" cType="1" res="1.7817372083663940e-01" rms="4.6439033746719360e-01" purity="6.8410521745681763e-01" nType="0">
          <Node pos="l" depth="2" NCoef="0" IVar="-1" Cut="0.0000000000000000e+00" cType="1" res="8.0592033918946981e-04" rms="4.9568539857864380e-01" purity="5.6071943044662476e-01" nType="-99"/>
          <Node pos="r" depth="2" NCoef="0" IVar="-1" Cut="0.0000000000000000e+00" cType="1" res="3.3942174632102251e-03" rms="4.2926469445228577e-01" purity="7.5621581077575684e-01" nType="-99"/>
        </Node>
      </Node>
    </BinaryTree>
    <BinaryTree type="DecisionTree" boostWeight="1.0000000000000000e+00" itree="6">
      <Node pos="s" depth="0" NCoef="0" IVar="2" Cut="9.5197546482086182e-01" cType="1" res="-1.3356990180909634e-02" rms="4.9695751070976257e-01" purity="4.8635938763618469e-01" nType="0">
        <Node pos="l" depth="1" NCoef="0" IVar="1" Cut="1.3436608314514160e+00" cType="1" res="-1.4848762750625610e-01" rms="4.7436735033988953e-01" purity="3.4537401795387268e-01" nType="0">
          <Node pos="l" depth="2" NCoef="0" IVar="-1" Cut="0.0000000000000000e+00" cType="1" res="-1.2445346219465137e-03" rms="4.9116683006286621e-01" purity="4.0916499495506287e-01" nType="-99"/>
          <Node pos="r" depth="2" NCoef="0" IVar="-1" Cut="0.0000000000000000e+00" cType="1" res="-6.2300879508256912e-03" rms="2.9231274127960205e-01" purity="9.4576843082904816e-02" nType="-99"/>
        </Node>
        <Node pos="r" depth="1" NCoef="0" IVar="6" Cut="1.0295553207397461e+00" cType="1" res="1.5133413672447205e-01" rms="4.7363612055778503e-01" purity="6.5818607807159424e-01" nType="0">
          <Node pos="l" depth="2" NCoef="0" IVar="-1" Cut="0.0000000000000000e+00" cType="1" res="2.5796033442020416e-03" rms="4.6007245779037476e-01" purity="6.9442498683929443e-01" nType="-99"/>
          <Node pos="r" depth="2" NCoef="0" IVar="-1" Cut="0.0000000000000000e+00" cType="1" res="-2.1206727251410484e-03" rms="4.8394891619682312e-01" purity="3.7446704506874084e-01" nType="-99"/>
        </Node>
      </Node>
    </BinaryTree>
    <BinaryTree type="DecisionTree" boostWeight="1.0000000000000000e+00" itree="7">
      <Node pos="s" depth="0" NCoef="0" IVar="2" Cut="9.5449090003967285e-01" cType="1" res="1.8192853778600693e-02" rms="4.9633434414863586e-01" purity="5.1758009195327759e-01" nType="0">
        <Node pos="l" depth="1" NCoef="0" IVar="4" Cut="6.2498083496093750e+02" cType="1" res="-1.1568465083837509e-01" rms="4.8370131850242615e-01" purity="3.7751173973083496e-01" nType="0">
          <Node pos="l" depth="2" NCoef="0" IVar="-1" Cut="0.0000000000000000e+00" cType="1" res="-2.4269137065857649e-03" rms="4.6915394067764282e-01" purity="3.2884076237678528e-01" nType="-99"/>
          <Node pos="r" depth="2" NCoef="0" IVar="-1" Cut="0.0000000000000000e+00" cType="1" res="1.5142599586397409e-03" rms="4.8824721574783325e-01" purity="6.0316371917724609e-01" nType="-99"/>
        </Node>
        <Node pos="r" depth="1" NCoef="0" IVar="1" Cut="8.8605093955993652e-01" cType="1" res="2.1048378944396973e-01" rms="4.4878876209259033e-01" purity="7.1876299381256104e-01" nType="0">
          <Node pos="l" depth="2" NCoef="0" IVar="-1" Cut="0.0000000000000000e+00" cType="1" res="4.2558987624943256e-03" rms="3.7803861498832703e-01" purity="8.2698959112167358e-01" nType="-99"/>
          <Node pos="r" depth="2" NCoef="0" IVar="-1" Cut="0.0000000000000000e+00" cType="1" res="1.1918569216504693e-03" rms="4.9117100238800049e-01" purity="5.8965826034545898e-01" nType="-99"/>
        </Node>
      </Node>
    </BinaryTree>
    <BinaryTree type="DecisionTree" boostWeight="1.0000000000000000e+00" itree="8">
      <Node pos="s" depth="0" NCoef="0" IVar="2" Cut="9.4082611799240112e-01" cType="1" res="-2.8544789529405534e-04" rms="4.9668624997138977e-01" purity="4.9899342656135559e-01" nType="0">
        <Node pos="l" depth="1" NCoef="0" IVar="0" Cut="4.8484915161132812e+02" cType="1" res="-1.7620393633842468e-01" rms="4.6378561854362488e-01" purity="3.1546595692634583e-01" nType="0">
          <Node pos="l" depth="2" NCoef="0" IVar="-1" Cut="0.0000000000000000e+00" cType="1" res="-3.1439280137419701e-03" rms="4.4721648097038269e-01" purity="2.7757808566093445e-01" nType="-99"/>
          <Node pos="r" depth="2" NCoef="0" IVar="-1" Cut="0.0000000000000000e+00" cType="1" res="8.8852655608206987e-04" rms="4.9619829654693604e-01" purity="5.5767893791198730e-01" nType="-99"/>
        </Node>
        <Node pos="r" depth="1" NCoef="0" IVar="2" Cut="9.7045874595642090e-01" cType="1" res="1.0669103264808655e-01" rms="4.8543819785118103e-01" purity="6.1059689521789551e-01" nType="0">
          <Node pos="l" depth="2" NCoef="0" IVar="-1" Cut="0.0000000000000000e+00" cType="1" res="5.1263801287859678e-04" rms="4.9731972813606262e-01" purity="5.3690791130065918e-01" nType="-99"/>
          <Node pos="r" depth="2" NCoef="0" IVar="-1" Cut="0.0000000000000000e+00" cType="1" res="3.9929477497935295e-03" rms="3.9547047019004822e-01" purity="8.0513143539428711e-01" nType="-99"/>
        </Node>
      </Node>
    </BinaryTree>
    <BinaryTree type="DecisionTree" boostWeight="1.0000000000000000e+00" itree="9">
      <Node pos="s" depth="0" NCoef="0" IVar="2" Cut="9.5479774475097656e-01" cType="1" res="7.8722331672906876e-03" rms="4.9570041894912720e-01" purity="5.0737082958221436e-01" nType="0">
        <Node pos="l" depth="1" NCoef="0" IVar="4" Cut="6.5755847167968750e+02" cType="1" res="-1.1844486743211746e-01" rms="4.8203468322753906e-01" purity="3.7345457077026367e-01" nType="0">
          <Node pos="l" depth="2" NCoef="0" IVar="-1" Cut="0.0000000000000000e+00" cType="1" res="-2.3104560095816851e-03" rms="4.7047629952430725e-01" purity="3.3489474654197693e-01" nType="-99"/>
          <Node pos="r" depth="2" NCoef="0" IVar="-1" Cut="0.0000000000000000e+00" cType="1" res="1.8221887294203043e-03" rms="4.8353114724159241e-01" purity="6.2801998853683472e-01" nType="-99"/>
        </Node>
        <Node pos="r" depth="1" NCoef="0" IVar="1" Cut="1.1295425891876221e+00" cType="1" res="1.9723655283451080e-01" rms="4.5383980870246887e-01" purity="7.0812708139419556e-01" nType="0">
          <Node pos="l" depth="2" NCoef="0" IVar="-1" Cut="0.0000000000000000e+00" cType="1" res="3.3845570869743824e-03" rms="4.2655819654464722e-01" purity="7.6020318269729614e-01" nType="-99"/>
          <Node pos="r" depth="2" NCoef="0" IVar="-1" Cut="0.0000000000000000e+00" cType="1" res="4.9909384688362479e-04" rms="4.9795702099800110e-01" purity="5.4123681783676147e-01" nType="-99"/>
        </Node>
      </Node>
    </BinaryTree>
    <BinaryTree type="DecisionTree" boostWeight="1.0000000000000000e+00" itree="10">
      <Node pos="s" depth="0" NCoef="0" IVar="2" Cut="9.4489437341690063e-01" cType="1" res="1.4080791734158993e-02" rms="4.9528628587722778e-01" purity="5.1331681013107300e-01" nType="0">
        <Node pos="l" depth="1" NCoef="0" IVar="1" Cut="1.1825397014617920e+00" cType="1" res="-1.4514125883579254e-01" rms="4.7354510426521301e-01" purity="3.4450635313987732e-01" nType="0">
          <Node pos="l" depth="2" NCoef="0" IVar="-1" Cut="0.0000000000000000e+00" cType="1" res="-8.9491601102054119e-04" rms="4.9440836906433105e-01" purity="4.2950108647346497e-01" nType="-99"/>
          <Node pos="r" depth="2" NCoef="0" IVar="-1" Cut="0.0000000000000000e+00" cType="1" res="-4.8391516320407391e-03" rms="3.7107506394386292e-01" purity="1.6615512967109680e-01" nType="-99"/>
        </Node>
        <Node pos="r" depth="1" NCoef="0" IVar="1" Cut="8.2151001691818237e-01" cType="1" res="1.3864091038703918e-01" rms="4.7585567831993103e-01" purity="6.4537811279296875e-01" nType="0">
          <Node pos="l" depth="2" NCoef="0" IVar="-1" Cut="0.0000000000000000e+00" cType="1" res="3.2748295925557613e-03" rms="4.3133813142776489e-01" purity="7.4971061944961548e-01" nType="-99"/>
          <Node pos="r" depth="2" NCoef="0" IVar="-1" Cut="0.0000000000000000e+00" cType="1" res="7.4919813778251410e-04" rms="4.9447908997535706e-01" purity="5.5677330493927002e-01" nType="-99"/>
        </Node>
      </Node>
    </BinaryTree>
    <BinaryTree type="DecisionTree" boostWeight="1.0000000000000000e+00" itree="11">
      <Node pos="s" depth="0" NCoef="0" IVar="2" Cut="9.5233768224716187e-01" cType="1" res="-1.4920877292752266e-02" rms="4.9467906355857849e-01" purity="4.8497804999351501e-01" nType="0">
        <Node pos="l" depth="1" NCoef="0" IVar="1" Cut="1.1715428829193115e+00" cType="1" res="-1.5500083565711975e-01" rms="4.7009566426277161e-01" purity="3.3450391888618469e-01" nType="0">
          <Node pos="l" depth="2" NCoef="0" IVar="-1" Cut="0.0000000000000000e+00" cType="1" res="-1.2379704276099801e-03" rms="4.9015271663665771e-01" purity="4.0573754906654358e-01" nType="-99"/>
          <Node pos="r" depth="2" NCoef="0" IVar="-1" Cut="0.0000000000000000e+00" cType="1" res="-4.7171697951853275e-03" rms="3.7954545021057129e-01" purity="1.7514829337596893e-01" nType="-99"/>
        </Node>
        <Node pos="r" depth="1" NCoef="0" IVar="4" Cut="3.9560440063476562e+02" cType="1" res="1.5284322202205658e-01" rms="4.7060275077819824e-01" purity="6.6519051790237427e-01" nType="0">
          <Node pos="l" depth="2" NCoef="0" IVar="-1" Cut="0.0000000000000000e+00" cType="1" res="-4.5505072921514511e-04" rms="4.9840256571769714e-01" purity="4.7859469056129456e-01" nType="-99"/>
          <Node pos="r" depth="2" NCoef="0" IVar="-1" Cut="0.0000000000000000e+00" cType="1" res="2.9761507175862789e-03" rms="4.4435012340545654e-01" purity="7.2744673490524292e-01" nType="-99"/>
        </Node>
      </Node>
    </BinaryTree>
    <BinaryTree type="DecisionTree" boostWeight="1.0000000000000000e+00" itree="12">
      <Node pos="s" depth="0" NCoef="0" IVar="2" Cut="9.5330780744552612e-01" cType="1" res="4.1654813685454428e-04" rms="4.9454009532928467e-01" purity="4.9976751208305359e-01" nType="0">
        <Node pos="l" depth="1" NCoef="0" IVar="4" Cut="6.3864562988281250e+02" cType="1" res="-1.2949411571025848e-01" rms="4.7787669301033020e-01" purity="3.5933896899223328e-01" nType="0">
          <Node pos="l" depth="2" NCoef="0" IVar="-1" Cut="0.0000000000000000e+00" cType="1" res="-2.5074433069676161e-03" rms="4.6461328864097595e-01" purity="3.1869137287139893e-01" nType="-99"/>
          <Node pos="r" depth="2" NCoef="0" IVar="-1" Cut="0.0000000000000000e+00" cType="1" res="1.4807712286710739e-03" rms="4.8849454522132874e-01" purity="6.0084515810012817e-01" nType="-99"/>
        </Node>
        <Node pos="r" depth="1" NCoef="0" IVar="1" Cut="1.3252879381179810e+00" cType="1" res="1.7609435319900513e-01" rms="4.6129935979843140e-01" purity="6.8966871500015259e-01" nType="0">
          <Node pos="l" depth="2" NCoef="0" IVar="-1" Cut="0.0000000000000000e+00" cType="1" res="3.1834372784942389e-03" rms="4.3575367331504822e-01" purity="7.4423164129257202e-01" nType="-99"/>
          <Node pos="r" depth="2" NCoef="0" IVar="-1" Cut="0.0000000000000000e+00" cType="1" res="-1.5649904962629080e-03" rms="4.8915165662765503e-01" purity="4.0409499406814575e-01" nType="-99"/>
        </Node>
      </Node>
    </BinaryTree>
    <BinaryTree type="DecisionTree" boostWeight="1.0000000000000000e+00" itree="13">
      <Node pos="s" depth="0" NCoef="0" IVar="2" Cut="9.4096350669860840e-01" cType="1" res="6.4520328305661678e-03" rms="4.9460959434509277e-01" purity="5.0549811124801636e-01" nType="0">
        <Node pos="l" depth="1" NCoef="0" IVar="1" Cut="1.5131118297576904e+00" cType="1" res="-1.5572240948677063e-01" rms="4.6857345104217529e-01" purity="3.3044296503067017e-01" nType="0">
          <Node pos="l" depth="2" NCoef="0" IVar="-1" Cut="0.0000000000000000e+00" cType="1" res="-1.7501630354672670e-03" rms="4.8093169927597046e-01" purity="3.6697357892990112e-01" nType="-99"/>
          <Node pos="r" depth="2" NCoef="0" IVar="-1" Cut="0.0000000000000000e+00" cType="1" res="-5.8993925340473652e-03" rms="2.9761844873428345e-01" purity="9.8563268780708313e-02" nType="-99"/>
        </Node>
        <Node pos="r" depth="1" NCoef="0" IVar="1" Cut="1.3319599628448486e+00" cType="1" res="1.0651937127113342e-01" rms="4.8360165953636169e-01" purity="6.1351323127746582e-01" nType="0">
          <Node pos="l" depth="2" NCoef="0" IVar="-1" Cut="0.0000000000000000e+00" cType="1" res="2.1430305205285549e-03" rms="4.7074884176254272e-01" purity="6.6235762834548950e-01" nType="-99"/>
          <Node pos="r" depth="2" NCoef="0" IVar="-1" Cut="0.0000000000000000e+00" cType="1" res="-2.1727324929088354e-03" rms="4.7457417845726013e-01" purity="3.5313636064529419e-01" nType="-99"/>
        </Node>
      </Node>
    </BinaryTree>
    <BinaryTree type="DecisionTree" boostWeight="1.0000000000000000e+00" itree="14">
      <Node pos="s" depth="0" NCoef="0" IVar="2" Cut="9.5501703023910522e-01" cType="1" res="1.9264541566371918e-02" rms="4.9328589439392090e-01" purity="5.1890045404434204e-01" nType="0">
        <Node pos="l" depth="1" NCoef="0" IVar="1" Cut="1.5198339223861694e+00" cType="1" res="-1.1645072698593140e-01" rms="4.8131424188613892e-01" purity="3.7182810902595520e-01" nType="0">
          <Node pos="l" depth="2" NCoef="0" IVar="-1" Cut="0.0000000000000000e+00" cType="1" res="-1.2142537161707878e-03" rms="4.9014607071876526e-01" purity="4.0733212232589722e-01" nType="-99"/>
          <Node pos="r" depth="2" NCoef="0" IVar="-1" Cut="0.0000000000000000e+00" cType="1" res="-5.2289078012108803e-03" rms="3.5456001758575439e-01" purity="1.4894741773605347e-01" nType="-99"/>
        </Node>
        <Node pos="r" depth="1" NCoef="0" IVar="1" Cut="1.1205954551696777e+00" cType="1" res="2.1731759607791901e-01" rms="4.4074249267578125e-01" purity="7.3352718353271484e-01" nType="0">
          <Node pos="l" depth="2" NCoef="0" IVar="-1" Cut="0.0000000000000000e+00" cType="1" res="3.5580333787947893e-03" rms="4.1283625364303589e-01" purity="7.8133893013000488e-01" nType="-99"/>
          <Node pos="r" depth="2" NCoef="0" IVar="-1" Cut="0.0000000000000000e+00" cType="1" res="1.0383808985352516e-03" rms="4.9242863059043884e-01" purity="5.8062517642974854e-01" nType="-99"/>
        </Node>
      </Node>
    </BinaryTree>
    <BinaryTree type="DecisionTree" boostWeight="1.0000000000000000e+00" itree="15">
      <Node pos="s" depth="0" NCoef="0" IVar="2" Cut="9.5341217517852783e-01" cType="1" res="-1.5914060175418854e-02" rms="4.9302116036415100e-01" purity="4.8273566365242004e-01" nType="0">
        <Node pos="l" depth="1" NCoef="0" IVar="1" Cut="1.6432422399520874e+00" cType="1" res="-1.3623182475566864e-01" rms="4.7478064894676208e-01" purity="3.5026353597640991e-01" nType="0">
          <Node pos="l" depth="2" NCoef="0" IVar="-1" Cut="0.0000000000000000e+00" cType="1" res="-1.5994365094229579e-03" rms="4.8341944813728333e-01" purity="3.7836837768554688e-01" nType="-99"/>
          <Node pos="r" depth="2" NCoef="0" IVar="-1" Cut="0.0000000000000000e+00" cType="1" res="-6.8331304937601089e-03" rms="2.3185513913631439e-01" purity="5.7484686374664307e-02" nType="-99"/>
        </Node>
        <Node pos="r" depth="1" NCoef="0" IVar="1" Cut="1.2366201877593994e+00" cType="1" res="1.6654279828071594e-01" rms="4.6324607729911804e-01" purity="6.8362402915954590e-01" nType="0">
          <Node pos="l" depth="2" NCoef="0" IVar="-1" Cut="0.0000000000000000e+00" cType="1" res="3.0436702072620392e-03" rms="4.3653893470764160e-01" purity="7.4274444580078125e-01" nType="-99"/>
          <Node pos="r" depth="2" NCoef="0" IVar="-1" Cut="0.0000000000000000e+00" cType="1" res="-1.5483809402212501e-03" rms="4.9019676446914673e-01" purity="4.0750584006309509e-01" nType="-99"/>
        </Node>
      </Node>
    </BinaryTree>
    <BinaryTree type="DecisionTree" boostWeight="1.0000000000000000e+00" itree="16">
      <Node pos="s" depth="0" NCoef="0" IVar="2" Cut="9.4823700189590454e-01" cType="1" res="-3.8106106221675873e-03" rms="4.9324023723602295e-01" purity="4.9508935213088989e-01" nType="0">
        <Node pos="l" depth="1" NCoef="0" IVar="1" Cut="1.4993222951889038e+00" cType="1" res="-1.4947618544101715e-01" rms="4.7018158435821533e-01" purity="3.3487632870674133e-01" nType="0">
          <Node pos="l" depth="2" NCoef="0" IVar="-1" Cut="0.0000000000000000e+00" cType="1" res="-1.8041831208392978e-03" rms="4.8002806305885315e-01" purity="3.6336687207221985e-01" nType="-99"/>
          <Node pos="r" depth="2" NCoef="0" IVar="-1" Cut="0.0000000000000000e+00" cType="1" res="-5.3861155174672604e-03" rms="3.4396830201148987e-01" purity="1.3737821578979492e-01" nType="-99"/>
        </Node>
        <Node pos="r" depth="1" NCoef="0" IVar="1" Cut="1.1266211271286011e+00" cType="1" res="1.3978695869445801e-01" rms="4.7291463613510132e-01" purity="6.5302783250808716e-01" nType="0">
          <Node pos="l" depth="2" NCoef="0" IVar="-1" Cut="0.0000000000000000e+00" cType="1" res="2.7696925681084394e-03" rms="4.4899043440818787e-01" purity="7.1683531999588013e-01" nType="-99"/>
          <Node pos="r" depth="2" NCoef="0" IVar="-1" Cut="0.0000000000000000e+00" cType="1" res="-3.7994678132236004e-04" rms="4.9711909890174866e-01" purity="4.7713470458984375e-01" nType="-99"/>
        </Node>
      </Node>
    </BinaryTree>
    <BinaryTree type="DecisionTree" boostWeight="1.0000000000000000e+00" itree="17">
      <Node pos="s" depth="0" NCoef="0" IVar="2" Cut="9.5256668329238892e-01" cType="1" res="2.0036907866597176e-02" rms="4.9223265051841736e-01" purity="5.1945120096206665e-01" nType="0">
        <Node pos="l" depth="1" NCoef="0" IVar="4" Cut="4.3264309692382812e+02" cType="1" res="-1.1271654069423676e-01" rms="4.8092204332351685e-01" purity="3.7219095230102539e-01" nType="0">
          <Node pos="l" depth="2" NCoef="0" IVar="-1" Cut="0.0000000000000000e+00" cType="1" res="-3.4201701637357473e-03" rms="4.3230563402175903e-01" purity="2.5045561790466309e-01" nType="-99"/>
          <Node pos="r" depth="2" NCoef="0" IVar="-1" Cut="0.0000000000000000e+00" cType="1" res="-2.1934452524874359e-04" rms="4.9663048982620239e-01" purity="4.7217279672622681e-01" nType="-99"/>
        </Node>
        <Node pos="r" depth="1" NCoef="0" IVar="1" Cut="7.3870331048965454e-01" cType="1" res="1.9812652468681335e-01" rms="4.4911134243011475e-01" purity="7.1700173616409302e-01" nType="0">
          <Node pos="l" depth="2" NCoef="0" IVar="-1" Cut="0.0000000000000000e+00" cType="1" res="4.1135568171739578e-03" rms="3.7024292349815369e-01" purity="8.3597838878631592e-01" nType="-99"/>
          <Node pos="r" depth="2" NCoef="0" IVar="-1" Cut="0.0000000000000000e+00" cType="1" res="1.7576902173459530e-03" rms="4.7895753383636475e-01" purity="6.4058673381805420e-01" nType="-99"/>
        </Node>
      </Node>
    </BinaryTree>
    <BinaryTree type="DecisionTree" boostWeight="1.0000000000000000e+00" itree="18">
      <Node pos="s" depth="0" NCoef="0" IVar="2" Cut="9.3581044673919678e-01" cType="1" res="4.6501881442964077e-03" rms="4.9310854077339172e-01" purity="5.0375938415527344e-01" nType="0">
        <Node pos="l" depth="1" NCoef="0" IVar="2" Cut="9.1829520463943481e-01" cType="1" res="-1.8847903609275818e-01" rms="4.5371627807617188e-01" purity="2.9304647445678711e-01" nType="0">
          <Node pos="l" depth="2" NCoef="0" IVar="-1" Cut="0.0000000000000000e+00" cType="1" res="-4.6614087186753750e-03" rms="3.8108542561531067e-01" purity="1.7906503379344940e-01" nType="-99"/>
          <Node pos="r" depth="2" NCoef="0" IVar="-1" Cut="0.0000000000000000e+00" cType="1" res="-1.9209054298698902e-03" rms="4.7576564550399780e-01" purity="3.4994399547576904e-01" nType="-99"/>
        </Node>
        <Node pos="r" depth="1" NCoef="0" IVar="1" Cut="1.5151714086532593e+00" cType="1" res="9.5022343099117279e-02" rms="4.8475590348243713e-01" purity="6.0235959291458130e-01" nType="0">
          <Node pos="l" depth="2" NCoef="0" IVar="-1" Cut="0.0000000000000000e+00" cType="1" res="1.8579619936645031e-03" rms="4.7620138525962830e-01" purity="6.4266419410705566e-01" nType="-99"/>
          <Node pos="r" depth="2" NCoef="0" IVar="-1" Cut="0.0000000000000000e+00" cType="1" res="-3.8131552282720804e-03" rms="4.2670097947120667e-01" purity="2.4328987300395966e-01" nType="-99"/>
        </Node>
      </Node>
    </BinaryTree>
    <BinaryTree type="DecisionTree" boostWeight="1.0000000000000000e+00" itree="19">
      <Node pos="s" depth="0" NCoef="0" IVar="2" Cut="9.5485311746597290e-01" cType="1" res="8.4907980635762215e-03" rms="4.9178007245063782e-01" purity="5.0768071413040161e-01" nType="0">
        <Node pos="l" depth="1" NCoef="0" IVar="5" Cut="9.1038879394531250e+01" cType="1" res="-1.0712210834026337e-01" rms="4.8158887028694153e-01" purity="3.7748226523399353e-01" nType="0">
          <Node pos="l" depth="2" NCoef="0" IVar="-1" Cut="0.0000000000000000e+00" cType="1" res="-4.3285223655402660e-03" rms="3.9579111337661743e-01" purity="1.9611270725727081e-01" nType="-99"/>
          <Node pos="r" depth="2" NCoef="0" IVar="-1" Cut="0.0000000000000000e+00" cType="1" res="-6.2867888482287526e-04" rms="4.9384638667106628e-01" purity="4.4319984316825867e-01" nType="-99"/>
        </Node>
        <Node pos="r" depth="1" NCoef="0" IVar="2" Cut="9.6607178449630737e-01" cType="1" res="1.8783876299858093e-01" rms="4.5203471183776855e-01" purity="7.0965486764907837e-01" nType="0">
          <Node pos="l" depth="2" NCoef="0" IVar="-1" Cut="0.0000000000000000e+00" cType="1" res="1.0654461802914739e-03" rms="4.8926106095314026e-01" purity="5.9599530696868896e-01" nType="-99"/>
          <Node pos="r" depth="2" NCoef="0" IVar="-1" Cut="0.0000000000000000e+00" cType="1" res="3.8207073230296373e-03" rms="3.9814916253089905e-01" purity="8.0036884546279907e-01" nType="-99"/>
        </Node>
      </Node>
    </BinaryTree>
    <BinaryTree type="DecisionTree" boostWeight="1.0000000000000000e+00" itree="20">
      <Node pos="s" depth="0" NCoef="0" IVar="2" Cut="9.3187582492828369e-01" cType="1" res="2.0429799333214760e-02" rms="4.9093937873840332e-01" purity="5.2009433507919312e-01" nType="0">
        <Node pos="l" depth="1" NCoef="0" IVar="0" Cut="2.8128463745117188e+02" cType="1" res="-2.2429579496383667e-01" rms="4.3234992027282715e-01" purity="2.5389462709426880e-01" nType="0">
          <Node pos="l" depth="2" NCoef="0" IVar="-1" Cut="0.0000000000000000e+00" cType="1" res="-5.1529519259929657e-03" rms="3.3694177865982056e-01" purity="1.3129422068595886e-01" nType="-99"/>
          <Node pos="r" depth="2" NCoef="0" IVar="-1" Cut="0.0000000000000000e+00" cType="1" res="-1.8662163056433201e-03" rms="4.7546002268791199e-01" purity="3.5410848259925842e-01" nType="-99"/>
        </Node>
        <Node pos="r" depth="1" NCoef="0" IVar="1" Cut="1.4023255109786987e+00" cType="1" res="9.6641570329666138e-02" rms="4.8312357068061829e-01" purity="6.0299348831176758e-01" nType="0">
          <Node pos="l" depth="2" NCoef="0" IVar="-1" Cut="0.0000000000000000e+00" cType="1" res="1.9321469590067863e-03" rms="4.7301083803176880e-01" purity="6.4851552248001099e-01" nType="-99"/>
          <Node pos="r" depth="2" NCoef="0" IVar="-1" Cut="0.0000000000000000e+00" cType="1" res="-2.7052641380578279e-03" rms="4.5682016015052795e-01" purity="3.0844983458518982e-01" nType="-99"/>
        </Node>
      </Node>
    </BinaryTree>
    <BinaryTree type="DecisionTree" boostWeight="1.0000000000000000e+00" itree="21">
      <Node pos="s" depth="0" NCoef="0" IVar="2" Cut="9.5195657014846802e-01" cType="1" res="-4.6517159789800644e-03" rms="4.9221602082252502e-01" purity="4.9437519907951355e-01" nType="0">
        <Node pos="l" depth="1" NCoef="0" IVar="4" Cut="7.1978588867187500e+02" cType="1" res="-1.1679143458604813e-01" rms="4.7927159070968628e-01" purity="3.6474326252937317e-01" nType="0">
          <Node pos="l" depth="2" NCoef="0" IVar="-1" Cut="0.0000000000000000e+00" cType="1" res="-2.0882126409560442e-03" rms="4.7193723917007446e-01" purity="3.3888837695121765e-01" nType="-99"/>
          <Node pos="r" depth="2" NCoef="0" IVar="-1" Cut="0.0000000000000000e+00" cType="1" res="1.4481510734185576e-03" rms="4.8899182677268982e-01" purity="5.9677106142044067e-01" nType="-99"/>
        </Node>
        <Node pos="r" depth="1" NCoef="0" IVar="2" Cut="9.7562158107757568e-01" cType="1" res="1.4263316988945007e-01" rms="4.6966356039047241e-01" purity="6.6463440656661987e-01" nType="0">
          <Node pos="l" depth="2" NCoef="0" IVar="-1" Cut="0.0000000000000000e+00" cType="1" res="1.2197162723168731e-03" rms="4.8674601316452026e-01" purity="6.0537481307983398e-01" nType="-99"/>
          <Node pos="r" depth="2" NCoef="0" IVar="-1" Cut="0.0000000000000000e+00" cType="1" res="4.0026721544563770e-03" rms="3.8303843140602112e-01" purity="8.1915658712387085e-01" nType="-99"/>
        </Node>
      </Node>
    </BinaryTree>
    <BinaryTree type="DecisionTree" boostWeight="1.0000000000000000e+00" itree="22">
      <Node pos="s" depth="0" NCoef="0" IVar="2" Cut="9.3351453542709351e-01" cType="1" res="5.1988656632602215e-03" rms="4.9125841259956360e-01" purity="5.0429672002792358e-01" nType="0">
        <Node pos="l" depth="1" NCoef="0" IVar="4" Cut="4.7644464111328125e+02" cType="1" res="-2.0470903813838959e-01" rms="4.4200706481933594e-01" purity="2.7194076776504517e-01" nType="0">
          <Node pos="l" depth="2" NCoef="0" IVar="-1" Cut="0.0000000000000000e+00" cType="1" res="-4.3067121878266335e-03" rms="3.8552013039588928e-01" purity="1.8324556946754456e-01" nType="-99"/>
          <Node pos="r" depth="2" NCoef="0" IVar="-1" Cut="0.0000000000000000e+00" cType="1" res="-7.5358647154644132e-04" rms="4.9308270215988159e-01" purity="4.3163242936134338e-01" nType="-99"/>
        </Node>
        <Node pos="r" depth="1" NCoef="0" IVar="1" Cut="1.0255287885665894e+00" cType="1" res="8.9153960347175598e-02" rms="4.8481705784797668e-01" purity="5.9723013639450073e-01" nType="0">
          <Node pos="l" depth="2" NCoef="0" IVar="-1" Cut="0.0000000000000000e+00" cType="1" res="2.3816025350242853e-03" rms="4.6070814132690430e-01" purity="6.8647146224975586e-01" nType="-99"/>
          <Node pos="r" depth="2" NCoef="0" IVar="-1" Cut="0.0000000000000000e+00" cType="1" res="-5.4923567222431302e-04" rms="4.9420127272605896e-01" purity="4.5931822061538696e-01" nType="-99"/>
        </Node>
      </Node>
    </BinaryTree>
    <BinaryTree type="DecisionTree" boostWeight="1.0000000000000000e+00" itree="23">
      <Node pos="s" depth="0" NCoef="0" IVar="2" Cut="9.5485311746597290e-01" cType="1" res="1.2758131197188050e-04" rms="4.8982989788055420e-01" purity="4.9955296516418457e-01" nType="0">
        <Node pos="l" depth="1" NCoef="0" IVar="1" Cut="1.5097924470901489e+00" cType="1" res="-1.1631035804748535e-01" rms="4.7728174924850464e-01" purity="3.6610281467437744e-01" nType="0">
          <Node pos="l" depth="2" NCoef="0" IVar="-1" Cut="0.0000000000000000e+00" cType="1" res="-1.1102592106908560e-03" rms="4.8875558376312256e-01" purity="4.0876725316047668e-01" nType="-99"/>
          <Node pos="r" depth="2" NCoef="0" IVar="-1" Cut="0.0000000000000000e+00" cType="1" res="-6.0956906527280807e-03" rms="2.6993876695632935e-01" purity="8.0933079123497009e-02" nType="-99"/>
        </Node>
        <Node pos="r" depth="1" NCoef="0" IVar="2" Cut="9.6611022949218750e-01" cType="1" res="1.8003986775875092e-01" rms="4.5317456126213074e-01" purity="7.0575141906738281e-01" nType="0">
          <Node pos="l" depth="2" NCoef="0" IVar="-1" Cut="0.0000000000000000e+00" cType="1" res="9.1268820688128471e-04" rms="4.9057230353355408e-01" purity="5.8595007658004761e-01" nType="-99"/>
          <Node pos="r" depth="2" NCoef="0" IVar="-1" Cut="0.0000000000000000e+00" cType="1" res="3.3412175253033638e-03" rms="4.1867530345916748e-01" purity="7.7020263671875000e-01" nType="-99"/>
        </Node>
      </Node>
    </BinaryTree>
    <BinaryTree type="DecisionTree" boostWeight="1.0000000000000000e+00" itree="24">
      <Node pos="s" depth="0" NCoef="0" IVar="2" Cut="9.5817220211029053e-01" cType="1" res="1.0498060844838619e-02" rms="4.8893171548843384e-01" purity="5.0926607847213745e-01" nType="0">
        <Node pos="l" depth="1" NCoef="0" IVar="2" Cut="9.2315018177032471e-01" cType="1" res="-1.0095366835594177e-01" rms="4.8071205615997314e-01" purity="3.8208758831024170e-01" nType="0">
          <Node pos="l" depth="2" NCoef="0" IVar="-1" Cut="0.0000000000000000e+00" cType="1" res="-3.8809394463896751e-03" rms="4.0588262677192688e-01" purity="2.1354594826698303e-01" nType="-99"/>
          <Node pos="r" depth="2" NCoef="0" IVar="-1" Cut="0.0000000000000000e+00" cType="1" res="-7.0637196768075228e-04" rms="4.9182394146919250e-01" purity="4.3727752566337585e-01" nType="-99"/>
        </Node>
        <Node pos="r" depth="1" NCoef="0" IVar="1" Cut="1.1648209095001221e+00" cType="1" res="2.1352931857109070e-01" rms="4.3557268381118774e-01" purity="7.4094676971435547e-01" nType="0">
          <Node pos="l" depth="2" NCoef="0" IVar="-1" Cut="0.0000000000000000e+00" cType="1" res="3.7310756742954254e-03" rms="3.9547005295753479e-01" purity="8.0566108226776123e-01" nType="-99"/>
          <Node pos="r" depth="2" NCoef="0" IVar="-1" Cut="0.0000000000000000e+00" cType="1" res="-3.7622419768013060e-04" rms="4.9861681461334229e-01" purity="4.8737767338752747e-01" nType="-99"/>
        </Node>
      </Node>
    </BinaryTree>
    <BinaryTree type="DecisionTree" boostWeight="1.0000000000000000e+00" itree="25">
      <Node pos="s" depth="0" NCoef="0" IVar="2" Cut="9.5782059431076050e-01" cType="1" res="1.8533948808908463e-02" rms="4.8920792341232300e-01" purity="5.1785802841186523e-01" nType="0">
        <Node pos="l" depth="1" NCoef="0" IVar="1" Cut="1.6026917695999146e+00" cType="1" res="-8.5515603423118591e-02" rms="4.8466566205024719e-01" purity="3.9753165841102600e-01" nType="0">
          <Node pos="l" depth="2" NCoef="0" IVar="-1" Cut="0.0000000000000000e+00" cType="1" res="-8.1807008245959878e-04" rms="4.9119091033935547e-01" purity="4.2823797464370728e-01" nType="-99"/>
          <Node pos="r" depth="2" NCoef="0" IVar="-1" Cut="0.0000000000000000e+00" cType="1" res="-6.2412777915596962e-03" rms="2.8490120172500610e-01" purity="8.9114569127559662e-02" nType="-99"/>
        </Node>
        <Node pos="r" depth="1" NCoef="0" IVar="2" Cut="9.6652162075042725e-01" cType="1" res="2.0890583097934723e-01" rms="4.3745669722557068e-01" purity="7.3801028728485107e-01" nType="0">
          <Node pos="l" depth="2" NCoef="0" IVar="-1" Cut="0.0000000000000000e+00" cType="1" res="1.3819317100569606e-03" rms="4.8343548178672791e-01" purity="6.1915224790573120e-01" nType="-99"/>
          <Node pos="r" depth="2" NCoef="0" IVar="-1" Cut="0.0000000000000000e+00" cType="1" res="3.6219309549778700e-03" rms="4.0125882625579834e-01" purity="7.9668682813644409e-01" nType="-99"/>
        </Node>
      </Node>
    </BinaryTree>
    <BinaryTree type="DecisionTree" boostWeight="1.0000000000000000e+00" itree="26">
      <Node pos="s" depth="0" NCoef="0" IVar="2" Cut="9.4140374660491943e-01" cType="1" res="2.4978211149573326e-02" rms="4.8845148086547852e-01" purity="5.2334302663803101e-01" nType="0">
        <Node pos="l" depth="1" NCoef="0" IVar="3" Cut="2.2020135498046875e+02" cType="1" res="-1.5682660043239594e-01" rms="4.6162790060043335e-01" purity="3.1713524460792542e-01" nType="0">
          <Node pos="l" depth="2" NCoef="0" IVar="-1" Cut="0.0000000000000000e+00" cType="1" res="-3.7595145404338837e-03" rms="4.1631588339805603e-01" purity="2.2520330548286438e-01" nType="-99"/>
          <Node pos="r" depth="2" NCoef="0" IVar="-1" Cut="0.0000000000000000e+00" cType="1" res="-7.5310771353542805e-04" rms="4.8704040050506592e-01" purity="4.2132073640823364e-01" nType="-99"/>
        </Node>
        <Node pos="r" depth="1" NCoef="0" IVar="2" Cut="9.6814131736755371e-01" cType="1" res="1.4059586822986603e-01" rms="4.6947231888771057e-01" purity="6.5447962284088135e-01" nType="0">
          <Node pos="l" depth="2" NCoef="0" IVar="-1" Cut="0.0000000000000000e+00" cType="1" res="1.2077949941158295e-03" rms="4.8747345805168152e-01" purity="5.9073930978775024e-01" nType="-99"/>
          <Node pos="r" depth="2" NCoef="0" IVar="-1" Cut="0.0000000000000000e+00" cType="1" res="3.5686627961695194e-03" rms="4.0293809771537781e-01" purity="7.9278641939163208e-01" nType="-99"/>
        </Node>
      </Node>
    </BinaryTree>
    <BinaryTree type="DecisionTree" boostWeight="1.0000000000000000e+00" itree="27">
      <Node pos="s" depth="0" NCoef="0" IVar="2" Cut="9.5238804817199707e-01" cType="1" res="2.0793562754988670e-02" rms="4.8798650503158569e-01" purity="5.2032226324081421e-01" nType="0">
        <Node pos="l" depth="1" NCoef="0" IVar="2" Cut="9.3057203292846680e-01" cType="1" res="-1.0177265107631683e-01" rms="4.8021432757377625e-01" purity="3.7536561489105225e-01" nType="0">
          <Node pos="l" depth="2" NCoef="0" IVar="-1" Cut="0.0000000000000000e+00" cType="1" res="-2.8673319611698389e-03" rms="4.4513711333274841e-01" purity="2.7800869941711426e-01" nType="-99"/>
          <Node pos="r" depth="2" NCoef="0" IVar="-1" Cut="0.0000000000000000e+00" cType="1" res="-3.9135091356001794e-04" rms="4.9484282732009888e-01" purity="4.5540887117385864e-01" nType="-99"/>
        </Node>
        <Node pos="r" depth="1" NCoef="0" IVar="1" Cut="1.2406344413757324e+00" cType="1" res="1.8410018086433411e-01" rms="4.4885653257369995e-01" purity="7.1346175670623779e-01" nType="0">
          <Node pos="l" depth="2" NCoef="0" IVar="-1" Cut="0.0000000000000000e+00" cType="1" res="3.1036427244544029e-03" rms="4.2468693852424622e-01" purity="7.6130533218383789e-01" nType="-99"/>
          <Node pos="r" depth="2" NCoef="0" IVar="-1" Cut="0.0000000000000000e+00" cType="1" res="-2.2254169743973762e-04" rms="4.9911865592002869e-01" purity="4.9608847498893738e-01" nType="-99"/>
        </Node>
      </Node>
    </BinaryTree>
    <BinaryTree type="DecisionTree" boostWeight="1.0000000000000000e+00" itree="28">
      <Node pos="s" depth="0" NCoef="0" IVar="2" Cut="9.3179935216903687e-01" cType="1" res="9.4219669699668884e-03" rms="4.8910757899284363e-01" purity="5.0793498754501343e-01" nType="0">
        <Node pos="l" depth="1" NCoef="0" IVar="0" Cut="2.8923196411132812e+02" cType="1" res="-1.8926700949668884e-01" rms="4.4646820425987244e-01" purity="2.8016924858093262e-01" nType="0">
          <Node pos="l" depth="2" NCoef="0" IVar="-1" Cut="0.0000000000000000e+00" cType="1" res="-4.7502052038908005e-03" rms="3.5756510496139526e-01" purity="1.5158455073833466e-01" nType="-99"/>
          <Node pos="r" depth="2" NCoef="0" IVar="-1" Cut="0.0000000000000000e+00" cType="1" res="-1.3073395239189267e-03" rms="4.8450750112533569e-01" purity="3.8353490829467773e-01" nType="-99"/>
        </Node>
        <Node pos="r" depth="1" NCoef="0" IVar="1" Cut="1.4151207208633423e+00" cType="1" res="8.2361876964569092e-02" rms="4.8379579186439514e-01" purity="5.9154909849166870e-01" nType="0">
          <Node pos="l" depth="2" NCoef="0" IVar="-1" Cut="0.0000000000000000e+00" cType="1" res="1.8733643228188157e-03" rms="4.7279760241508484e-01" purity="6.4831751585006714e-01" nType="-99"/>
          <Node pos="r" depth="2" NCoef="0" IVar="-1" Cut="0.0000000000000000e+00" cType="1" res="-3.9997296407818794e-03" rms="4.1665631532669067e-01" purity="2.2621989250183105e-01" nType="-99"/>
        </Node>
      </Node>
    </BinaryTree>
    <BinaryTree type="DecisionTree" boostWeight="1.0000000000000000e+00" itree="29">
      <Node pos="s" depth="0" NCoef="0" IVar="2" Cut="9.6499478816986084e-01" cType="1" res="-6.4285555854439735e-03" rms="4.8778173327445984e-01" purity="4.9230635166168213e-01" nType="0">
        <Node pos="l" depth="1" NCoef="0" IVar="1" Cut="1.0174120664596558e+00" cType="1" res="-7.8864894807338715e-02" rms="4.8360866308212280e-01" purity="4.0847262740135193e-01" nType="0">
          <Node pos="l" depth="2" NCoef="0" IVar="-1" Cut="0.0000000000000000e+00" cType="1" res="3.4179820795543492e-04" rms="4.9403548240661621e-01" purity="5.1944273710250854e-01" nType="-99"/>
          <Node pos="r" depth="2" NCoef="0" IVar="-1" Cut="0.0000000000000000e+00" cType="1" res="-3.4775373060256243e-03" rms="4.2752087116241455e-01" purity="2.5036296248435974e-01" nType="-99"/>
        </Node>
        <Node pos="r" depth="1" NCoef="0" IVar="1" Cut="9.9262052774429321e-01" cType="1" res="2.2152663767337799e-01" rms="4.2686307430267334e-01" purity="7.5612890720367432e-01" nType="0">
          <Node pos="l" depth="2" NCoef="0" IVar="-1" Cut="0.0000000000000000e+00" cType="1" res="3.8482490926980972e-03" rms="3.7866461277008057e-01" purity="8.2612091302871704e-01" nType="-99"/>
          <Node pos="r" depth="2" NCoef="0" IVar="-1" Cut="0.0000000000000000e+00" cType="1" res="1.7379237106069922e-03" rms="4.7720515727996826e-01" purity="6.4482218027114868e-01" nType="-99"/>
        </Node>
      </Node>
    </BinaryTree>
    <BinaryTree type="DecisionTree" boostWeight="1.0000000000000000e+00" itree="30">
      <Node pos="s" depth="0" NCoef="0" IVar="2" Cut="9.5545727014541626e-01" cType="1" res="5.4841833189129829e-03" rms="4.8814159631729126e-01" purity="5.0589126348495483e-01" nType="0">
        <Node pos="l" depth="1" NCoef="0" IVar="2" Cut="9.2466378211975098e-01" cType="1" res="-1.0278432071208954e-01" rms="4.7963985800743103e-01" purity="3.7632358074188232e-01" nType="0">
          <Node pos="l" depth="2" NCoef="0" IVar="-1" Cut="0.0000000000000000e+00" cType="1" res="-3.6044896114617586e-03" rms="4.1645449399948120e-01" purity="2.2773100435733795e-01" nType="-99"/>
          <Node pos="r" depth="2" NCoef="0" IVar="-1" Cut="0.0000000000000000e+00" cType="1" res="-7.3243549559265375e-04" rms="4.9164682626724243e-01" purity="4.3283128738403320e-01" nType="-99"/>
        </Node>
        <Node pos="r" depth="1" NCoef="0" IVar="4" Cut="4.1097561645507812e+02" cType="1" res="1.7250902950763702e-01" rms="4.5276305079460144e-01" purity="7.0577418804168701e-01" nType="0">
          <Node pos="l" depth="2" NCoef="0" IVar="-1" Cut="0.0000000000000000e+00" cType="1" res="6.2700005946680903e-04" rms="4.9216172099113464e-01" purity="5.7157450914382935e-01" nType="-99"/>
          <Node pos="r" depth="2" NCoef="0" IVar="-1" Cut="0.0000000000000000e+00" cType="1" res="3.3819659147411585e-03" rms="4.1045004129409790e-01" purity="7.8299283981323242e-01" nType="-99"/>
        </Node>
      </Node>
    </BinaryTree>
    <BinaryTree type="DecisionTree" boostWeight="1.0000000000000000e+00" itree="31">
      <Node pos="s" depth="0" NCoef="0" IVar="2" Cut="9.5479589700698853e-01" cType="1" res="-3.7222113460302353e-03" rms="4.8708155751228333e-01" purity="4.9296829104423523e-01" nType="0">
        <Node pos="l" depth="1" NCoef="0" IVar="0" Cut="2.9826950073242188e+02" cType="1" res="-1.1336846649646759e-01" rms="4.7604617476463318e-01" purity="3.6244389414787292e-01" nType="0">
          <Node pos="l" depth="2" NCoef="0" IVar="-1" Cut="0.0000000000000000e+00" cType="1" res="-3.4461542963981628e-03" rms="4.2253386974334717e-01" purity="2.3834779858589172e-01" nType="-99"/>
          <Node pos="r" depth="2" NCoef="0" IVar="-1" Cut="0.0000000000000000e+00" cType="1" res="-1.0636417573550716e-04" rms="4.9649450182914734e-01" purity="4.7474104166030884e-01" nType="-99"/>
        </Node>
        <Node pos="r" depth="1" NCoef="0" IVar="2" Cut="9.8085403442382812e-01" cType="1" res="1.9313205778598785e-01" rms="4.4271260499954224e-01" purity="7.2730624675750732e-01" nType="0">
          <Node pos="l" depth="2" NCoef="0" IVar="-1" Cut="0.0000000000000000e+00" cType="1" res="2.0440968219190836e-03" rms="4.6540340781211853e-01" purity="6.7821574211120605e-01" nType="-99"/>
          <Node pos="r" depth="2" NCoef="0" IVar="-1" Cut="0.0000000000000000e+00" cType="1" res="4.8642372712492943e-03" rms="3.0193394422531128e-01" purity="8.9613765478134155e-01" nType="-99"/>
        </Node>
      </Node>
    </BinaryTree>
    <BinaryTree type="DecisionTree" boostWeight="1.0000000000000000e+00" itree="32">
      <Node pos="s" depth="0" NCoef="0" IVar="2" Cut="9.4278299808502197e-01" cType="1" res="9.8974499851465225e-03" rms="4.8703446984291077e-01" purity="5.0898545980453491e-01" nType="0">
        <Node pos="l" depth="1" NCoef="0" IVar="4" Cut="6.3868774414062500e+02" cType="1" res="-1.5034846961498260e-01" rms="4.6088764071464539e-01" purity="3.1791138648986816e-01" nType="0">
          <Node pos="l" depth="2" NCoef="0" IVar="-1" Cut="0.0000000000000000e+00" cType="1" res="-2.7574284467846155e-03" rms="4.4600036740303040e-01" purity="2.8195688128471375e-01" nType="-99"/>
          <Node pos="r" depth="2" NCoef="0" IVar="-1" Cut="0.0000000000000000e+00" cType="1" res="8.1311870599165559e-04" rms="4.9707135558128357e-01" purity="5.4187923669815063e-01" nType="-99"/>
        </Node>
        <Node pos="r" depth="1" NCoef="0" IVar="1" Cut="9.0048527717590332e-01" cType="1" res="1.2530204653739929e-01" rms="4.7248363494873047e-01" purity="6.4659166336059570e-01" nType="0">
          <Node pos="l" depth="2" NCoef="0" IVar="-1" Cut="0.0000000000000000e+00" cType="1" res="2.8703142888844013e-03" rms="4.3515282869338989e-01" purity="7.3937535285949707e-01" nType="-99"/>
          <Node pos="r" depth="2" NCoef="0" IVar="-1" Cut="0.0000000000000000e+00" cType="1" res="4.1084364056587219e-04" rms="4.9488002061843872e-01" purity="5.3889018297195435e-01" nType="-99"/>
        </Node>
      </Node>
    </BinaryTree>
    <BinaryTree type="DecisionTree" boostWeight="1.0000000000000000e+00" itree="33">
      <Node pos="s" depth="0" NCoef="0" IVar="2" Cut="9.5550251007080078e-01" cType="1" res="-4.2944651795551181e-05" rms="4.8388373851776123e-01" purity="5.0109100341796875e-01" nType="0">
        <Node pos="l" depth="1" NCoef="0" IVar="2" Cut="9.2788112163543701e-01" cType="1" res="-1.4411441981792450e-01" rms="4.6484863758087158e-01" purity="3.3178502321243286e-01" nType="0">
          <Node pos="l" depth="2" NCoef="0" IVar="-1" Cut="0.0000000000000000e+00" cType="1" res="-4.3352316133677959e-03" rms="3.8148394227027893e-01" purity="1.8020097911357880e-01" nType="-99"/>
          <Node pos="r" depth="2" NCoef="0" IVar="-1" Cut="0.0000000000000000e+00" cType="1" res="-1.1144152376800776e-03" rms="4.8681777715682983e-01" purity="4.0685930848121643e-01" nType="-99"/>
        </Node>
        <Node pos="r" depth="1" NCoef="0" IVar="6" Cut="8.5591959953308105e-01" cType="1" res="2.0727163553237915e-01" rms="4.3276166915893555e-01" purity="7.4471718072891235e-01" nType="0">
          <Node pos="l" depth="2" NCoef="0" IVar="-1" Cut="0.0000000000000000e+00" cType="1" res="3.4626305568963289e-03" rms="4.0359485149383545e-01" purity="7.9290682077407837e-01" nType="-99"/>
          <Node pos="r" depth="2" NCoef="0" IVar="-1" Cut="0.0000000000000000e+00" cType="1" res="6.5879162866622210e-04" rms="4.9165341258049011e-01" purity="5.7042574882507324e-01" nType="-99"/>
        </Node>
      </Node>
    </BinaryTree>
    <BinaryTree type="DecisionTree" boostWeight="1.0000000000000000e+00" itree="34">
      <Node pos="s" depth="0" NCoef="0" IVar="2" Cut="9.5258551836013794e-01" cType="1" res="-8.7855597957968712e-03" rms="4.8528230190277100e-01" purity="4.9103784561157227e-01" nType="0">
        <Node pos="l" depth="1" NCoef="0" IVar="1" Cut="1.3615680932998657e+00" cType="1" res="-1.3470323383808136e-01" rms="4.6704995632171631e-01" purity="3.3718395233154297e-01" nType="0">
          <Node pos="l" depth="2" NCoef="0" IVar="-1" Cut="0.0000000000000000e+00" cType="1" res="-1.2656914768740535e-03" rms="4.8409569263458252e-01" purity="3.9003971219062805e-01" nType="-99"/>
          <Node pos="r" depth="2" NCoef="0" IVar="-1" Cut="0.0000000000000000e+00" cType="1" res="-5.1110005006194115e-03" rms="3.3404704928398132e-01" purity="1.3055804371833801e-01" nType="-99"/>
        </Node>
        <Node pos="r" depth="1" NCoef="0" IVar="1" Cut="1.1742211580276489e+00" cType="1" res="1.4857956767082214e-01" rms="4.6110710501670837e-01" purity="6.8331617116928101e-01" nType="0">
          <Node pos="l" depth="2" NCoef="0" IVar="-1" Cut="0.0000000000000000e+00" cType="1" res="2.7872328646481037e-03" rms="4.3519404530525208e-01" purity="7.4368894100189209e-01" nType="-99"/>
          <Node pos="r" depth="2" NCoef="0" IVar="-1" Cut="0.0000000000000000e+00" cType="1" res="-4.1568072629161179e-04" rms="4.9791601300239563e-01" purity="4.8570320010185242e-01" nType="-99"/>
        </Node>
      </Node>
    </BinaryTree>
    <BinaryTree type="DecisionTree" boostWeight="1.0000000000000000e+00" itree="35">
      <Node pos="s" depth="0" NCoef="0" IVar="2" Cut="9.5229572057723999e-01" cType="1" res="9.3923471868038177e-03" rms="4.8507094383239746e-01" purity="5.0733405351638794e-01" nType="0">
        <Node pos="l" depth="1" NCoef="0" IVar="1" Cut="1.1739954948425293e+00" cType="1" res="-1.0429143905639648e-01" rms="4.7543227672576904e-01" purity="3.6613309383392334e-01" nType="0">
          <Node pos="l" depth="2" NCoef="0" IVar="-1" Cut="0.0000000000000000e+00" cType="1" res="-3.5887159174308181e-04" rms="4.9426224827766418e-01" purity="4.5318019390106201e-01" nType="-99"/>
          <Node pos="r" depth="2" NCoef="0" IVar="-1" Cut="0.0000000000000000e+00" cType="1" res="-4.2479801923036575e-03" rms="3.7935116887092590e-01" purity="1.7875070869922638e-01" nType="-99"/>
        </Node>
        <Node pos="r" depth="1" NCoef="0" IVar="1" Cut="1.3705825805664062e+00" cType="1" res="1.6237206757068634e-01" rms="4.5492610335350037e-01" purity="6.9734245538711548e-01" nType="0">
          <Node pos="l" depth="2" NCoef="0" IVar="-1" Cut="0.0000000000000000e+00" cType="1" res="2.7316499035805464e-03" rms="4.3834272027015686e-01" purity="7.3633855581283569e-01" nType="-99"/>
          <Node pos="r" depth="2" NCoef="0" IVar="-1" Cut="0.0000000000000000e+00" cType="1" res="-5.5474357213824987e-04" rms="4.9723741412162781e-01" purity="4.6858352422714233e-01" nType="-99"/>
        </Node>
      </Node>
    </BinaryTree>
    <BinaryTree type="DecisionTree" boostWeight="1.0000000000000000e+00" itree="36">
      <Node pos="s" depth="0" NCoef="0" IVar="2" Cut="9.5233768224716187e-01" cType="1" res="1.3436139561235905e-02" rms="4.8535543680191040e-01" purity="5.1431024074554443e-01" nType="0">
        <Node pos="l" depth="1" NCoef="0" IVar="4" Cut="7.0180346679687500e+02" cType="1" res="-9.7680926322937012e-02" rms="4.7841173410415649e-01" purity="3.7265393137931824e-01" nType="0">
          <Node pos="l" depth="2" NCoef="0" IVar="-1" Cut="0.0000000000000000e+00" cType="1" res="-1.9149597501382232e-03" rms="4.6952059864997864e-01" purity="3.3937528729438782e-01" nType="-99"/>
          <Node pos="r" depth="2" NCoef="0" IVar="-1" Cut="0.0000000000000000e+00" cType="1" res="2.1187653765082359e-03" rms="4.7492155432701111e-01" purity="6.3811951875686646e-01" nType="-99"/>
        </Node>
        <Node pos="r" depth="1" NCoef="0" IVar="1" Cut="6.9500964879989624e-01" cType="1" res="1.4837320148944855e-01" rms="4.5879706740379333e-01" purity="6.8633323907852173e-01" nType="0">
          <Node pos="l" depth="2" NCoef="0" IVar="-1" Cut="0.0000000000000000e+00" cType="1" res="3.9081717841327190e-03" rms="3.6859267950057983e-01" purity="8.3556330204010010e-01" nType="-99"/>
          <Node pos="r" depth="2" NCoef="0" IVar="-1" Cut="0.0000000000000000e+00" cType="1" res="1.0911551071330905e-03" rms="4.8386660218238831e-01" purity="6.0886079072952271e-01" nType="-99"/>
        </Node>
      </Node>
    </BinaryTree>
    <BinaryTree type="DecisionTree" boostWeight="1.0000000000000000e+00" itree="37">
      <Node pos="s" depth="0" NCoef="0" IVar="2" Cut="9.4483077526092529e-01" cType="1" res="-1.3420867733657360e-02" rms="4.8267188668251038e-01" purity="4.8578757047653198e-01" nType="0">
        <Node pos="l" depth="1" NCoef="0" IVar="0" Cut="2.8523834228515625e+02" cType="1" res="-1.7755846679210663e-01" rms="4.4698244333267212e-01" purity="2.8745597600936890e-01" nType="0">
          <Node pos="l" depth="2" NCoef="0" IVar="-1" Cut="0.0000000000000000e+00" cType="1" res="-4.7797174192965031e-03" rms="3.5036465525627136e-01" purity="1.4550150930881500e-01" nType="-99"/>
          <Node pos="r" depth="2" NCoef="0" IVar="-1" Cut="0.0000000000000000e+00" cType="1" res="-1.0954749304801226e-03" rms="4.8458275198936462e-01" purity="3.9720875024795532e-01" nType="-99"/>
        </Node>
        <Node pos="r" depth="1" NCoef="0" IVar="1" Cut="1.1732389926910400e+00" cType="1" res="1.2625052034854889e-01" rms="4.6773067116737366e-01" purity="6.5455609560012817e-01" nType="0">
          <Node pos="l" depth="2" NCoef="0" IVar="-1" Cut="0.0000000000000000e+00" cType="1" res="2.6329807005822659e-03" rms="4.4293645024299622e-01" purity="7.2245115041732788e-01" nType="-99"/>
          <Node pos="r" depth="2" NCoef="0" IVar="-1" Cut="0.0000000000000000e+00" cType="1" res="-1.4327431563287973e-03" rms="4.8838341236114502e-01" purity="4.0872883796691895e-01" nType="-99"/>
        </Node>
      </Node>
    </BinaryTree>
    <BinaryTree type="DecisionTree" boostWeight="1.0000000000000000e+00" itree="38">
      <Node pos="s" depth="0" NCoef="0" IVar="2" Cut="9.5423805713653564e-01" cType="1" res="8.2781305536627769e-03" rms="4.8437830805778503e-01" purity="5.0879323482513428e-01" nType="0">
        <Node pos="l" depth="1" NCoef="0" IVar="4" Cut="3.7884048461914062e+02" cType="1" res="-1.0264243930578232e-01" rms="4.7608119249343872e-01" purity="3.6761179566383362e-01" nType="0">
          <Node pos="l" depth="2" NCoef="0" IVar="-1" Cut="0.0000000000000000e+00" cType="1" res="-4.1091553866863251e-03" rms="3.8995254039764404e-01" purity="1.9134923815727234e-01" nType="-99"/>
          <Node pos="r" depth="2" NCoef="0" IVar="-1" Cut="0.0000000000000000e+00" cType="1" res="-4.2412133188918233e-04" rms="4.9217236042022705e-01" purity="4.4588351249694824e-01" nType="-99"/>
        </Node>
        <Node pos="r" depth="1" NCoef="0" IVar="2" Cut="9.7285240888595581e-01" cType="1" res="1.6360460221767426e-01" rms="4.5213553309440613e-01" purity="7.0649522542953491e-01" nType="0">
          <Node pos="l" depth="2" NCoef="0" IVar="-1" Cut="0.0000000000000000e+00" cType="1" res="1.5232618898153305e-03" rms="4.7484791278839111e-01" purity="6.4660781621932983e-01" nType="-99"/>
          <Node pos="r" depth="2" NCoef="0" IVar="-1" Cut="0.0000000000000000e+00" cType="1" res="3.5490517038851976e-03" rms="3.9774876832962036e-01" purity="8.0142533779144287e-01" nType="-99"/>
        </Node>
      </Node>
    </BinaryTree>
    <BinaryTree type="DecisionTree" boostWeight="1.0000000000000000e+00" itree="39">
      <Node pos="s" depth="0" NCoef="0" IVar="2" Cut="9.5022958517074585e-01" cType="1" res="-7.1517317555844784e-03" rms="4.8341664671897888e-01" purity="4.9309459328651428e-01" nType="0">
        <Node pos="l" depth="1" NCoef="0" IVar="2" Cut="9.2781096696853638e-01" cType="1" res="-1.5242847800254822e-01" rms="4.5912224054336548e-01" purity="3.1440654397010803e-01" nType="0">
          <Node pos="l" depth="2" NCoef="0" IVar="-1" Cut="0.0000000000000000e+00" cType="1" res="-3.9263530634343624e-03" rms="3.9413195848464966e-01" purity="1.9599148631095886e-01" nType="-99"/>
          <Node pos="r" depth="2" NCoef="0" IVar="-1" Cut="0.0000000000000000e+00" cType="1" res="-1.2163623468950391e-03" rms="4.8401287198066711e-01" purity="3.9123752713203430e-01" nType="-99"/>
        </Node>
        <Node pos="r" depth="1" NCoef="0" IVar="2" Cut="9.7686362266540527e-01" cType="1" res="1.4815105497837067e-01" rms="4.5987990498542786e-01" purity="6.8411451578140259e-01" nType="0">
          <Node pos="l" depth="2" NCoef="0" IVar="-1" Cut="0.0000000000000000e+00" cType="1" res="1.5703185927122831e-03" rms="4.7459739446640015e-01" purity="6.4319193363189697e-01" nType="-99"/>
          <Node pos="r" depth="2" NCoef="0" IVar="-1" Cut="0.0000000000000000e+00" cType="1" res="3.6000825930386782e-03" rms="3.9257586002349854e-01" purity="8.0745065212249756e-01" nType="-99"/>
        </Node>
      </Node>
    </BinaryTree>
    <BinaryTree type="DecisionTree" boostWeight="1.0000000000000000e+00" itree="40">
      <Node pos="s" depth="0" NCoef="0" IVar="2" Cut="9.6353214979171753e-01" cType="1" res="3.1618850771337748e-03" rms="4.8351705074310303e-01" purity="5.0101673603057861e-01" nType="0">
        <Node pos="l" depth="1" NCoef="0" IVar="2" Cut="9.3834882974624634e-01" cType="1" res="-8.1100843846797943e-02" rms="4.8130255937576294e-01" purity="3.9835959672927856e-01" nType="0">
          <Node pos="l" depth="2" NCoef="0" IVar="-1" Cut="0.0000000000000000e+00" cType="1" res="-2.6669385842978954e-03" rms="4.4510459899902344e-01" purity="2.8148639202117920e-01" nType="-99"/>
          <Node pos="r" depth="2" NCoef="0" IVar="-1" Cut="0.0000000000000000e+00" cType="1" res="1.4785124221816659e-04" rms="4.9644368886947632e-01" purity="5.0959557294845581e-01" nType="-99"/>
        </Node>
        <Node pos="r" depth="1" NCoef="0" IVar="1" Cut="1.0209491252899170e+00" cType="1" res="2.2982491552829742e-01" rms="4.1116994619369507e-01" purity="7.7715986967086792e-01" nType="0">
          <Node pos="l" depth="2" NCoef="0" IVar="-1" Cut="0.0000000000000000e+00" cType="1" res="4.0078028105199337e-03" rms="3.5299703478813171e-01" purity="8.5269510746002197e-01" nType="-99"/>
          <Node pos="r" depth="2" NCoef="0" IVar="-1" Cut="0.0000000000000000e+00" cType="1" res="1.3946703402325511e-03" rms="4.8027861118316650e-01" purity="6.2656986713409424e-01" nType="-99"/>
        </Node>
      </Node>
    </BinaryTree>
    <BinaryTree type="DecisionTree" boostWeight="1.0000000000000000e+00" itree="41">
      <Node pos="s" depth="0" NCoef="0" IVar="2" Cut="9.6567440032958984e-01" cType="1" res="-3.2555809593759477e-04" rms="4.8525068163871765e-01" purity="4.9803495407104492e-01" nType="0">
        <Node pos="l" depth="1" NCoef="0" IVar="0" Cut="2.8850238037109375e+02" cType="1" res="-6.4803123474121094e-02" rms="4.8467934131622314e-01" purity="4.1697695851325989e-01" nType="0">
          <Node pos="l" depth="2" NCoef="0" IVar="-1" Cut="0.0000000000000000e+00" cType="1" res="-2.3764672223478556e-03" rms="4.5635223388671875e-01" purity="3.1250825524330139e-01" nType="-99"/>
          <Node pos="r" depth="2" NCoef="0" IVar="-1" Cut="0.0000000000000000e+00" cType="1" res="8.3890212408732623e-05" rms="4.9337041378021240e-01" purity="4.9573659896850586e-01" nType="-99"/>
        </Node>
        <Node pos="r" depth="1" NCoef="0" IVar="1" Cut="1.1559219360351562e+00" cType="1" res="2.0142140984535217e-01" rms="4.2835980653762817e-01" purity="7.5166124105453491e-01" nType="0">
          <Node pos="l" depth="2" NCoef="0" IVar="-1" Cut="0.0000000000000000e+00" cType="1" res="3.3282325603067875e-03" rms="3.9984032511711121e-01" purity="7.9876792430877686e-01" nType="-99"/>
          <Node pos="r" depth="2" NCoef="0" IVar="-1" Cut="0.0000000000000000e+00" cType="1" res="8.6707761511206627e-04" rms="4.9122762680053711e-01" purity="5.8470785617828369e-01" nType="-99"/>
        </Node>
      </Node>
    </BinaryTree>
    <BinaryTree type="DecisionTree" boostWeight="1.0000000000000000e+00" itree="42">
      <Node pos="s" depth="0" NCoef="0" IVar="2" Cut="9.5446902513504028e-01" cType="1" res="-1.4257770031690598e-02" rms="4.8212563991546631e-01" purity="4.8527717590332031e-01" nType="0">
        <Node pos="l" depth="1" NCoef="0" IVar="4" Cut="7.1011895751953125e+02" cType="1" res="-1.2840558588504791e-01" rms="4.6732792258262634e-01" purity="3.4017693996429443e-01" nType="0">
          <Node pos="l" depth="2" NCoef="0" IVar="-1" Cut="0.0000000000000000e+00" cType="1" res="-2.4343002587556839e-03" rms="4.5458933711051941e-01" purity="3.0378371477127075e-01" nType="-99"/>
          <Node pos="r" depth="2" NCoef="0" IVar="-1" Cut="0.0000000000000000e+00" cType="1" res="2.0923628471791744e-03" rms="4.7795718908309937e-01" purity="6.3728040456771851e-01" nType="-99"/>
        </Node>
        <Node pos="r" depth="1" NCoef="0" IVar="1" Cut="1.1451795101165771e+00" cType="1" res="1.5420925617218018e-01" rms="4.5339766144752502e-01" purity="6.9942593574523926e-01" nType="0">
          <Node pos="l" depth="2" NCoef="0" IVar="-1" Cut="0.0000000000000000e+00" cType="1" res="2.7618126478046179e-03" rms="4.3039417266845703e-01" purity="7.5182408094406128e-01" nType="-99"/>
          <Node pos="r" depth="2" NCoef="0" IVar="-1" Cut="0.0000000000000000e+00" cType="1" res="-1.6566104022786021e-04" rms="4.9527093768119812e-01" purity="5.0748425722122192e-01" nType="-99"/>
        </Node>
      </Node>
    </BinaryTree>
    <BinaryTree type="DecisionTree" boostWeight="1.0000000000000000e+00" itree="43">
      <Node pos="s" depth="0" NCoef="0" IVar="2" Cut="9.5452719926834106e-01" cType="1" res="1.4446163550019264e-03" rms="4.8349928855895996e-01" purity="5.0184261798858643e-01" nType="0">
        <Node pos="l" depth="1" NCoef="0" IVar="1" Cut="1.1677448749542236e+00" cType="1" res="-1.0846959054470062e-01" rms="4.7300687432289124e-01" purity="3.5843732953071594e-01" nType="0">
          <Node pos="l" depth="2" NCoef="0" IVar="-1" Cut="0.0000000000000000e+00" cType="1" res="-6.3800887437537313e-04" rms="4.9089077115058899e-01" purity="4.3141594529151917e-01" nType="-99"/>
          <Node pos="r" depth="2" NCoef="0" IVar="-1" Cut="0.0000000000000000e+00" cType="1" res="-3.8071998860687017e-03" rms="4.0086844563484192e-01" purity="2.0559814572334290e-01" nType="-99"/>
        </Node>
        <Node pos="r" depth="1" NCoef="0" IVar="1" Cut="9.8511600494384766e-01" cType="1" res="1.4835797250270844e-01" rms="4.5766201615333557e-01" purity="6.9352084398269653e-01" nType="0">
          <Node pos="l" depth="2" NCoef="0" IVar="-1" Cut="0.0000000000000000e+00" cType="1" res="2.7099456638097763e-03" rms="4.3226435780525208e-01" purity="7.5053232908248901e-01" nType="-99"/>
          <Node pos="r" depth="2" NCoef="0" IVar="-1" Cut="0.0000000000000000e+00" cType="1" res="1.0597946820780635e-03" rms="4.8605394363403320e-01" purity="6.0335773229598999e-01" nType="-99"/>
        </Node>
      </Node>
    </BinaryTree>
    <BinaryTree type="DecisionTree" boostWeight="1.0000000000000000e+00" itree="44">
      <Node pos="s" depth="0" NCoef="0" IVar="2" Cut="9.4650262594223022e-01" cType="1" res="2.0385839045047760e-02" rms="4.8051229119300842e-01" purity="5.1951688528060913e-01" nType="0">
        <Node pos="l" depth="1" NCoef="0" IVar="2" Cut="9.2917644977569580e-01" cType="1" res="-1.4429697394371033e-01" rms="4.5925408601760864e-01" purity="3.1430959701538086e-01" nType="0">
          <Node pos="l" depth="2" NCoef="0" IVar="-1" Cut="0.0000000000000000e+00" cType="1" res="-3.4696485381573439e-03" rms="4.1245412826538086e-01" purity="2.2217726707458496e-01" nType="-99"/>
          <Node pos="r" depth="2" NCoef="0" IVar="-1" Cut="0.0000000000000000e+00" cType="1" res="-5.8731739409267902e-04" rms="4.9063369631767273e-01" purity="4.2640519142150879e-01" nType="-99"/>
        </Node>
        <Node pos="r" depth="1" NCoef="0" IVar="1" Cut="1.0379992723464966e+00" cType="1" res="1.5749719738960266e-01" rms="4.5403271913528442e-01" purity="6.9036805629730225e-01" nType="0">
          <Node pos="l" depth="2" NCoef="0" IVar="-1" Cut="0.0000000000000000e+00" cType="1" res="3.1569972634315491e-03" rms="4.1562032699584961e-01" purity="7.7334380149841309e-01" nType="-99"/>
          <Node pos="r" depth="2" NCoef="0" IVar="-1" Cut="0.0000000000000000e+00" cType="1" res="4.5496551319956779e-04" rms="4.8983913660049438e-01" purity="5.4426652193069458e-01" nType="-99"/>
        </Node>
      </Node>
    </BinaryTree>
    <BinaryTree type="DecisionTree" boostWeight="1.0000000000000000e+00" itree="45">
      <Node pos="s" depth="0" NCoef="0" IVar="2" Cut="9.5952153205871582e-01" cType="1" res="1.6341511160135269e-02" rms="4.8266434669494629e-01" purity="5.1721554994583130e-01" nType="0">
        <Node pos="l" depth="1" NCoef="0" IVar="0" Cut="2.8350366210937500e+02" cType="1" res="-7.1492806077003479e-02" rms="4.8286813497543335e-01" purity="4.0102595090866089e-01" nType="0">
          <Node pos="l" depth="2" NCoef="0" IVar="-1" Cut="0.0000000000000000e+00" cType="1" res="-2.6234621182084084e-03" rms="4.4795233011245728e-01" purity="2.8673186898231506e-01" nType="-99"/>
          <Node pos="r" depth="2" NCoef="0" IVar="-1" Cut="0.0000000000000000e+00" cType="1" res="2.3109962512535276e-06" rms="4.9311509728431702e-01" purity="4.8028594255447388e-01" nType="-99"/>
        </Node>
        <Node pos="r" depth="1" NCoef="0" IVar="1" Cut="1.1641317605972290e+00" cType="1" res="1.7746652662754059e-01" rms="4.3873718380928040e-01" purity="7.3035615682601929e-01" nType="0">
          <Node pos="l" depth="2" NCoef="0" IVar="-1" Cut="0.0000000000000000e+00" cType="1" res="3.1796828843653202e-03" rms="4.0702062845230103e-01" purity="7.8877031803131104e-01" nType="-99"/>
          <Node pos="r" depth="2" NCoef="0" IVar="-1" Cut="0.0000000000000000e+00" cType="1" res="-5.2935304120182991e-04" rms="4.9681448936462402e-01" purity="4.9004822969436646e-01" nType="-99"/>
        </Node>
      </Node>
    </BinaryTree>
    <BinaryTree type="DecisionTree" boostWeight="1.0000000000000000e+00" itree="46">
      <Node pos="s" depth="0" NCoef="0" IVar="2" Cut="9.4828814268112183e-01" cType="1" res="-7.7769579365849495e-03" rms="4.8066115379333496e-01" purity="4.8991206288337708e-01" nType="0">
        <Node pos="l" depth="1" NCoef="0" IVar="4" Cut="4.7329830932617188e+02" cType="1" res="-1.3531826436519623e-01" rms="4.6134737133979797e-01" purity="3.2195398211479187e-01" nType="0">
          <Node pos="l" depth="2" NCoef="0" IVar="-1" Cut="0.0000000000000000e+00" cType="1" res="-3.0423372518271208e-03" rms="4.2592567205429077e-01" purity="2.4601216614246368e-01" nType="-99"/>
          <Node pos="r" depth="2" NCoef="0" IVar="-1" Cut="0.0000000000000000e+00" cType="1" res="-3.1815076363272965e-04" rms="4.9453538656234741e-01" purity="4.4843724370002747e-01" nType="-99"/>
        </Node>
        <Node pos="r" depth="1" NCoef="0" IVar="1" Cut="1.2126790285110474e+00" cType="1" res="1.2368661165237427e-01" rms="4.6447685360908508e-01" purity="6.6303533315658569e-01" nType="0">
          <Node pos="l" depth="2" NCoef="0" IVar="-1" Cut="0.0000000000000000e+00" cType="1" res="2.5120899081230164e-03" rms="4.4140765070915222e-01" purity="7.2889488935470581e-01" nType="-99"/>
          <Node pos="r" depth="2" NCoef="0" IVar="-1" Cut="0.0000000000000000e+00" cType="1" res="-1.1254096170887351e-03" rms="4.8863345384597778e-01" purity="4.3196329474449158e-01" nType="-99"/>
        </Node>
      </Node>
    </BinaryTree>
    <BinaryTree type="DecisionTree" boostWeight="1.0000000000000000e+00" itree="47">
      <Node pos="s" depth="0" NCoef="0" IVar="2" Cut="9.6353214979171753e-01" cType="1" res="1.5869652852416039e-02" rms="4.8159015178680420e-01" purity="5.1413494348526001e-01" nType="0">
        <Node pos="l" depth="1" NCoef="0" IVar="4" Cut="3.4409466552734375e+02" cType="1" res="-5.6247003376483917e-02" rms="4.8301544785499573e-01" purity="4.2226982116699219e-01" nType="0">
          <Node pos="l" depth="2" NCoef="0" IVar="-1" Cut="0.0000000000000000e+00" cType="1" res="-4.0648956783115864e-03" rms="3.8907352089881897e-01" purity="1.9783842563629150e-01" nType="-99"/>
          <Node pos="r" depth="2" NCoef="0" IVar="-1" Cut="0.0000000000000000e+00" cType="1" res="-8.2562539319042116e-05" rms="4.8945641517639160e-01" purity="4.7573295235633850e-01" nType="-99"/>
        </Node>
        <Node pos="r" depth="1" NCoef="0" IVar="2" Cut="9.7547787427902222e-01" cType="1" res="2.2383877635002136e-01" rms="4.1196486353874207e-01" purity="7.7905464172363281e-01" nType="0">
          <Node pos="l" depth="2" NCoef="0" IVar="-1" Cut="0.0000000000000000e+00" cType="1" res="2.1413397043943405e-03" rms="4.5440024137496948e-01" purity="7.0327162742614746e-01" nType="-99"/>
          <Node pos="r" depth="2" NCoef="0" IVar="-1" Cut="0.0000000000000000e+00" cType="1" res="4.3141022324562073e-03" rms="3.2645806670188904e-01" purity="8.7846148014068604e-01" nType="-99"/>
        </Node>
      </Node>
    </BinaryTree>
    <BinaryTree type="DecisionTree" boostWeight="1.0000000000000000e+00" itree="48">
      <Node pos="s" depth="0" NCoef="0" IVar="2" Cut="9.5257580280303955e-01" cType="1" res="1.0032485239207745e-02" rms="4.8079970479011536e-01" purity="5.0783932209014893e-01" nType="0">
        <Node pos="l" depth="1" NCoef="0" IVar="3" Cut="2.2317137145996094e+02" cType="1" res="-1.0155888646841049e-01" rms="4.7352269291877747e-01" purity="3.6077746748924255e-01" nType="0">
          <Node pos="l" depth="2" NCoef="0" IVar="-1" Cut="0.0000000000000000e+00" cType="1" res="-2.9465497937053442e-03" rms="4.3756064772605896e-01" purity="2.6423990726470947e-01" nType="-99"/>
          <Node pos="r" depth="2" NCoef="0" IVar="-1" Cut="0.0000000000000000e+00" cType="1" res="3.1796324765309691e-04" rms="4.8958379030227661e-01" purity="4.8569130897521973e-01" nType="-99"/>
        </Node>
        <Node pos="r" depth="1" NCoef="0" IVar="1" Cut="1.2830011844635010e+00" cType="1" res="1.6766338050365448e-01" rms="4.4557869434356689e-01" purity="7.1557486057281494e-01" nType="0">
          <Node pos="l" depth="2" NCoef="0" IVar="-1" Cut="0.0000000000000000e+00" cType="1" res="2.8870536480098963e-03" rms="4.2330509424209595e-01" purity="7.6208603382110596e-01" nType="-99"/>
          <Node pos="r" depth="2" NCoef="0" IVar="-1" Cut="0.0000000000000000e+00" cType="1" res="-5.9491809224709868e-04" rms="4.9746584892272949e-01" purity="4.7365209460258484e-01" nType="-99"/>
        </Node>
      </Node>
    </BinaryTree>
    <BinaryTree type="DecisionTree" boostWeight="1.0000000000000000e+00" itree="49">
      <Node pos="s" depth="0" NCoef="0" IVar="2" Cut="9.5952153205871582e-01" cType="1" res="2.0856005139648914e-03" rms="4.8247101902961731e-01" purity="5.0156724452972412e-01" nType="0">
        <Node pos="l" depth="1" NCoef="0" IVar="1" Cut="9.3956148624420166e-01" cType="1" res="-8.2767620682716370e-02" rms="4.7958889603614807e-01" purity="3.8748151063919067e-01" nType="0">
          <Node pos="l" depth="2" NCoef="0" IVar="-1" Cut="0.0000000000000000e+00" cType="1" res="7.3151233664248139e-05" rms="4.9201563000679016e-01" purity="4.8681688308715820e-01" nType="-99"/>
          <Node pos="r" depth="2" NCoef="0" IVar="-1" Cut="0.0000000000000000e+00" cType="1" res="-2.5676419027149677e-03" rms="4.4991430640220642e-01" purity="2.8797638416290283e-01" nType="-99"/>
        </Node>
        <Node pos="r" depth="1" NCoef="0" IVar="6" Cut="8.3197402954101562e-01" cType="1" res="1.6406807303428650e-01" rms="4.4507122039794922e-01" purity="7.1935385465621948e-01" nType="0">
          <Node pos="l" depth="2" NCoef="0" IVar="-1" Cut="0.0000000000000000e+00" cType="1" res="2.9651110526174307e-03" rms="4.1535201668739319e-01" purity="7.7421188354492188e-01" nType="-99"/>
          <Node pos="r" depth="2" NCoef="0" IVar="-1" Cut="0.0000000000000000e+00" cType="1" res="4.9125804798677564e-04" rms="4.9081930518150330e-01" purity="5.7660347223281860e-01" nType="-99"/>
        </Node>
      </Node>
    </BinaryTree>
    <BinaryTree type="DecisionTree" boostWeight="1.0000000000000000e+00" itree="50">
      <Node pos="s" depth="0" NCoef="0" IVar="2" Cut="9.5121401548385620e-01" cType="1" res="-9.3530295416712761e-03" rms="4.8158323764801025e-01" purity="4.8821842670440674e-01" nType="0">
        <Node pos="l" depth="1" NCoef="0" IVar="1" Cut="1.4197149276733398e+00" cType="1" res="-1.0339084267616272e-01" rms="4.7166195511817932e-01" purity="3.5468444228172302e-01" nType="0">
          <Node pos="l" depth="2" NCoef="0" IVar="-1" Cut="0.0000000000000000e+00" cType="1" res="-8.2176359137520194e-04" rms="4.8731008172035217e-01" purity="4.0809673070907593e-01" nType="-99"/>
          <Node pos="r" depth="2" NCoef="0" IVar="-1" Cut="0.0000000000000000e+00" cType="1" res="-5.3444863297045231e-03" rms="2.9215443134307861e-01" purity="9.5455020666122437e-02" nType="-99"/>
        </Node>
        <Node pos="r" depth="1" NCoef="0" IVar="4" Cut="3.4612094116210938e+02" cType="1" res="1.1054351925849915e-01" rms="4.6725845336914062e-01" purity="6.5847188234329224e-01" nType="0">
          <Node pos="l" depth="2" NCoef="0" IVar="-1" Cut="0.0000000000000000e+00" cType="1" res="-2.5273393839597702e-03" rms="4.7516319155693054e-01" purity="3.6659449338912964e-01" nType="-99"/>
          <Node pos="r" depth="2" NCoef="0" IVar="-1" Cut="0.0000000000000000e+00" cType="1" res="2.1721282973885536e-03" rms="4.5132181048393250e-01" purity="7.0480847358703613e-01" nType="-99"/>
        </Node>
      </Node>
    </BinaryTree>
    <BinaryTree type="DecisionTree" boostWeight="1.0000000000000000e+00" itree="51">
      <Node pos="s" depth="0" NCoef="0" IVar="2" Cut="9.6008080244064331e-01" cType="1" res="-1.5309751965105534e-02" rms="4.7969186305999756e-01" purity="4.8335626721382141e-01" nType="0">
        <Node pos="l" depth="1" NCoef="0" IVar="1" Cut="1.1582472324371338e+00" cType="1" res="-9.9244713783264160e-02" rms="4.7249445319175720e-01" purity="3.7099716067314148e-01" nType="0">
          <Node pos="l" depth="2" NCoef="0" IVar="-1" Cut="0.0000000000000000e+00" cType="1" res="-4.2296361061744392e-04" rms="4.8909798264503479e-01" purity="4.5111852884292603e-01" nType="-99"/>
          <Node pos="r" depth="2" NCoef="0" IVar="-1" Cut="0.0000000000000000e+00" cType="1" res="-3.7670193705707788e-03" rms="3.9835566282272339e-01" purity="2.0398563146591187e-01" nType="-99"/>
        </Node>
        <Node pos="r" depth="1" NCoef="0" IVar="3" Cut="1.7623866271972656e+02" cType="1" res="1.5801420807838440e-01" rms="4.4684118032455444e-01" purity="7.1537542343139648e-01" nType="0">
          <Node pos="l" depth="2" NCoef="0" IVar="-1" Cut="0.0000000000000000e+00" cType="1" res="5.7607423514127731e-04" rms="4.8736697435379028e-01" purity="6.0114634037017822e-01" nType="-99"/>
          <Node pos="r" depth="2" NCoef="0" IVar="-1" Cut="0.0000000000000000e+00" cType="1" res="3.0121661256998777e-03" rms="4.1376069188117981e-01" purity="7.7109330892562866e-01" nType="-99"/>
        </Node>
      </Node>
    </BinaryTree>
    <BinaryTree type="DecisionTree" boostWeight="1.0000000000000000e+00" itree="52">
      <Node pos="s" depth="0" NCoef="0" IVar="2" Cut="9.3832337856292725e-01" cType="1" res="1.1422564275562763e-02" rms="4.8179984092712402e-01" purity="5.1178008317947388e-01" nType="0">
        <Node pos="l" depth="1" NCoef="0" IVar="1" Cut="1.2601755857467651e+00" cType="1" res="-1.2089502066373825e-01" rms="4.6407109498977661e-01" purity="3.2966095209121704e-01" nType="0">
          <Node pos="l" depth="2" NCoef="0" IVar="-1" Cut="0.0000000000000000e+00" cType="1" res="-1.0258367983624339e-03" rms="4.8363265395164490e-01" purity="3.8641923666000366e-01" nType="-99"/>
          <Node pos="r" depth="2" NCoef="0" IVar="-1" Cut="0.0000000000000000e+00" cType="1" res="-5.2406927570700645e-03" rms="2.9918363690376282e-01" purity="1.0090694576501846e-01" nType="-99"/>
        </Node>
        <Node pos="r" depth="1" NCoef="0" IVar="1" Cut="1.3713418245315552e+00" cType="1" res="8.8883720338344574e-02" rms="4.7507715225219727e-01" purity="6.1839598417282104e-01" nType="0">
          <Node pos="l" depth="2" NCoef="0" IVar="-1" Cut="0.0000000000000000e+00" cType="1" res="1.7317387973889709e-03" rms="4.6661084890365601e-01" purity="6.5830832719802856e-01" nType="-99"/>
          <Node pos="r" depth="2" NCoef="0" IVar="-1" Cut="0.0000000000000000e+00" cType="1" res="-2.5256113149225712e-03" rms="4.5903876423835754e-01" purity="3.2037749886512756e-01" nType="-99"/>
        </Node>
      </Node>
    </BinaryTree>
    <BinaryTree type="DecisionTree" boostWeight="1.0000000000000000e+00" itree="53">
      <Node pos="s" depth="0" NCoef="0" IVar="2" Cut="9.4371622800827026e-01" cType="1" res="1.5360505320131779e-02" rms="4.8060753941535950e-01" purity="5.1685667037963867e-01" nType="0">
        <Node pos="l" depth="1" NCoef="0" IVar="0" Cut="2.2965678405761719e+02" cType="1" res="-1.2854628264904022e-01" rms="4.6184900403022766e-01" purity="3.2319730520248413e-01" nType="0">
          <Node pos="l" depth="2" NCoef="0" IVar="-1" Cut="0.0000000000000000e+00" cType="1" res="-4.5303762890398502e-03" rms="3.4791162610054016e-01" purity="1.4242671430110931e-01" nType="-99"/>
          <Node pos="r" depth="2" NCoef="0" IVar="-1" Cut="0.0000000000000000e+00" cType="1" res="-1.2664833338931203e-03" rms="4.7831511497497559e-01" purity="3.7087512016296387e-01" nType="-99"/>
        </Node>
        <Node pos="r" depth="1" NCoef="0" IVar="3" Cut="1.8048486328125000e+02" cType="1" res="1.1484333872795105e-01" rms="4.6796590089797974e-01" purity="6.5073347091674805e-01" nType="0">
          <Node pos="l" depth="2" NCoef="0" IVar="-1" Cut="0.0000000000000000e+00" cType="1" res="-5.6761293672025204e-04" rms="4.8965883255004883e-01" purity="5.0023347139358521e-01" nType="-99"/>
          <Node pos="r" depth="2" NCoef="0" IVar="-1" Cut="0.0000000000000000e+00" cType="1" res="2.6464643888175488e-03" rms="4.3889388442039490e-01" purity="7.2243547439575195e-01" nType="-99"/>
        </Node>
      </Node>
    </BinaryTree>
    <BinaryTree type="DecisionTree" boostWeight="1.0000000000000000e+00" itree="54">
      <Node pos="s" depth="0" NCoef="0" IVar="2" Cut="9.4665056467056274e-01" cType="1" res="1.6001882031559944e-02" rms="4.8083850741386414e-01" purity="5.1450121402740479e-01" nType="0">
        <Node pos="l" depth="1" NCoef="0" IVar="1" Cut="1.3615680932998657e+00" cType="1" res="-1.1275772005319595e-01" rms="4.6706098318099976e-01" purity="3.3828380703926086e-01" nType="0">
          <Node pos="l" depth="2" NCoef="0" IVar="-1" Cut="0.0000000000000000e+00" cType="1" res="-1.0709982598200440e-03" rms="4.8300346732139587e-01" purity="3.8514029979705811e-01" nType="-99"/>
          <Node pos="r" depth="2" NCoef="0" IVar="-1" Cut="0.0000000000000000e+00" cType="1" res="-3.9231870323419571e-03" rms="3.7501302361488342e-01" purity="1.7239640653133392e-01" nType="-99"/>
        </Node>
        <Node pos="r" depth="1" NCoef="0" IVar="2" Cut="9.6670496463775635e-01" cType="1" res="1.2697099149227142e-01" rms="4.6460565924644470e-01" purity="6.6637092828750610e-01" nType="0">
          <Node pos="l" depth="2" NCoef="0" IVar="-1" Cut="0.0000000000000000e+00" cType="1" res="8.8449055328965187e-04" rms="4.9072074890136719e-01" purity="5.8089828491210938e-01" nType="-99"/>
          <Node pos="r" depth="2" NCoef="0" IVar="-1" Cut="0.0000000000000000e+00" cType="1" res="2.9996149241924286e-03" rms="4.1098183393478394e-01" purity="7.8102988004684448e-01" nType="-99"/>
        </Node>
      </Node>
    </BinaryTree>
    <BinaryTree type="DecisionTree" boostWeight="1.0000000000000000e+00" itree="55">
      <Node pos="s" depth="0" NCoef="0" IVar="2" Cut="9.6330130100250244e-01" cType="1" res="-4.5196684077382088e-03" rms="4.7774088382720947e-01" purity="4.9354588985443115e-01" nType="0">
        <Node pos="l" depth="1" NCoef="0" IVar="2" Cut="9.2562901973724365e-01" cType="1" res="-8.4384672343730927e-02" rms="4.7462344169616699e-01" purity="3.9006248116493225e-01" nType="0">
          <Node pos="l" depth="2" NCoef="0" IVar="-1" Cut="0.0000000000000000e+00" cType="1" res="-3.6849947646260262e-03" rms="3.9670956134796143e-01" purity="2.0037715137004852e-01" nType="-99"/>
          <Node pos="r" depth="2" NCoef="0" IVar="-1" Cut="0.0000000000000000e+00" cType="1" res="-4.7363049816340208e-04" rms="4.8707807064056396e-01" purity="4.5403963327407837e-01" nType="-99"/>
        </Node>
        <Node pos="r" depth="1" NCoef="0" IVar="6" Cut="8.4135627746582031e-01" cType="1" res="2.1185740828514099e-01" rms="4.1494587063789368e-01" purity="7.7391195297241211e-01" nType="0">
          <Node pos="l" depth="2" NCoef="0" IVar="-1" Cut="0.0000000000000000e+00" cType="1" res="3.7047732621431351e-03" rms="3.6837044358253479e-01" purity="8.3676183223724365e-01" nType="-99"/>
          <Node pos="r" depth="2" NCoef="0" IVar="-1" Cut="0.0000000000000000e+00" cType="1" res="6.5300374990329146e-04" rms="4.9041140079498291e-01" purity="5.9082472324371338e-01" nType="-99"/>
        </Node>
      </Node>
    </BinaryTree>
    <BinaryTree type="DecisionTree" boostWeight="1.0000000000000000e+00" itree="56">
      <Node pos="s" depth="0" NCoef="0" IVar="2" Cut="9.4096350669860840e-01" cType="1" res="4.4988542795181274e-03" rms="4.7892892360687256e-01" purity="5.0128233432769775e-01" nType="0">
        <Node pos="l" depth="1" NCoef="0" IVar="0" Cut="3.1335772705078125e+02" cType="1" res="-1.5289118885993958e-01" rms="4.4882631301879883e-01" purity="2.9491409659385681e-01" nType="0">
          <Node pos="l" depth="2" NCoef="0" IVar="-1" Cut="0.0000000000000000e+00" cType="1" res="-4.1808681562542915e-03" rms="3.6976206302642822e-01" purity="1.6563285887241364e-01" nType="-99"/>
          <Node pos="r" depth="2" NCoef="0" IVar="-1" Cut="0.0000000000000000e+00" cType="1" res="-3.9721350185573101e-04" rms="4.9040675163269043e-01" purity="4.3411529064178467e-01" nType="-99"/>
        </Node>
        <Node pos="r" depth="1" NCoef="0" IVar="1" Cut="1.2846463918685913e+00" cType="1" res="1.0792966187000275e-01" rms="4.6983951330184937e-01" purity="6.3689965009689331e-01" nType="0">
          <Node pos="l" depth="2" NCoef="0" IVar="-1" Cut="0.0000000000000000e+00" cType="1" res="2.0691996905952692e-03" rms="4.5466768741607666e-01" purity="6.8911337852478027e-01" nType="-99"/>
          <Node pos="r" depth="2" NCoef="0" IVar="-1" Cut="0.0000000000000000e+00" cType="1" res="-6.2297936528921127e-04" rms="4.9367490410804749e-01" purity="4.4538673758506775e-01" nType="-99"/>
        </Node>
      </Node>
    </BinaryTree>
    <BinaryTree type="DecisionTree" boostWeight="1.0000000000000000e+00" itree="57">
      <Node pos="s" depth="0" NCoef="0" IVar="2" Cut="9.5785564184188843e-01" cType="1" res="-1.3834314420819283e-02" rms="4.8098027706146240e-01" purity="4.8416140675544739e-01" nType="0">
        <Node pos="l" depth="1" NCoef="0" IVar="1" Cut="1.3364925384521484e+00" cType="1" res="-8.8432006537914276e-02" rms="4.7547730803489685e-01" purity="3.7721303105354309e-01" nType="0">
          <Node pos="l" depth="2" NCoef="0" IVar="-1" Cut="0.0000000000000000e+00" cType="1" res="-6.3369137933477759e-04" rms="4.8809796571731567e-01" purity="4.3082046508789062e-01" nType="-99"/>
          <Node pos="r" depth="2" NCoef="0" IVar="-1" Cut="0.0000000000000000e+00" cType="1" res="-3.9714276790618896e-03" rms="3.8913956284523010e-01" purity="1.8782345950603485e-01" nType="-99"/>
        </Node>
        <Node pos="r" depth="1" NCoef="0" IVar="1" Cut="8.0913770198822021e-01" cType="1" res="1.2827636301517487e-01" rms="4.5888155698776245e-01" purity="6.8790096044540405e-01" nType="0">
          <Node pos="l" depth="2" NCoef="0" IVar="-1" Cut="0.0000000000000000e+00" cType="1" res="2.9413551092147827e-03" rms="4.0530422329902649e-01" purity="7.8814494609832764e-01" nType="-99"/>
          <Node pos="r" depth="2" NCoef="0" IVar="-1" Cut="0.0000000000000000e+00" cType="1" res="9.8971521947532892e-04" rms="4.8389956355094910e-01" purity="6.1891478300094604e-01" nType="-99"/>
        </Node>
      </Node>
    </BinaryTree>
    <BinaryTree type="DecisionTree" boostWeight="1.0000000000000000e+00" itree="58">
      <Node pos="s" depth="0" NCoef="0" IVar="2" Cut="9.5278924703598022e-01" cType="1" res="5.6924251839518547e-03" rms="4.7889894247055054e-01" purity="5.0366586446762085e-01" nType="0">
        <Node pos="l" depth="1" NCoef="0" IVar="3" Cut="2.1147880554199219e+02" cType="1" res="-9.5220722258090973e-02" rms="4.7381708025932312e-01" purity="3.5918563604354858e-01" nType="0">
          <Node pos="l" depth="2" NCoef="0" IVar="-1" Cut="0.0000000000000000e+00" cType="1" res="-2.2797889541834593e-03" rms="4.5456027984619141e-01" purity="2.9959201812744141e-01" nType="-99"/>
          <Node pos="r" depth="2" NCoef="0" IVar="-1" Cut="0.0000000000000000e+00" cType="1" res="-4.4156212243251503e-04" rms="4.8614346981048584e-01" purity="4.2562615871429443e-01" nType="-99"/>
        </Node>
        <Node pos="r" depth="1" NCoef="0" IVar="2" Cut="9.6648782491683960e-01" cType="1" res="1.4204162359237671e-01" rms="4.5114895701408386e-01" purity="6.9888091087341309e-01" nType="0">
          <Node pos="l" depth="2" NCoef="0" IVar="-1" Cut="0.0000000000000000e+00" cType="1" res="5.6923256488516927e-04" rms="4.8891523480415344e-01" purity="5.8206295967102051e-01" nType="-99"/>
          <Node pos="r" depth="2" NCoef="0" IVar="-1" Cut="0.0000000000000000e+00" cType="1" res="3.2158629037439823e-03" rms="3.9256399869918823e-01" purity="8.0328536033630371e-01" nType="-99"/>
        </Node>
      </Node>
    </BinaryTree>
    <BinaryTree type="DecisionTree" boostWeight="1.0000000000000000e+00" itree="59">
      <Node pos="s" depth="0" NCoef="0" IVar="2" Cut="9.5550251007080078e-01" cType="1" res="-5.5713771143928170e-04" rms="4.7905099391937256e-01" purity="5.0060933828353882e-01" nType="0">
        <Node pos="l" depth="1" NCoef="0" IVar="1" Cut="7.8275167942047119e-01" cType="1" res="-8.3750687539577484e-02" rms="4.7543120384216309e-01" purity="3.7691661715507507e-01" nType="0">
          <Node pos="l" depth="2" NCoef="0" IVar="-1" Cut="0.0000000000000000e+00" cType="1" res="5.4754875600337982e-04" rms="4.9239224195480347e-01" purity="5.1151031255722046e-01" nType="-99"/>
          <Node pos="r" depth="2" NCoef="0" IVar="-1" Cut="0.0000000000000000e+00" cType="1" res="-2.3064927663654089e-03" rms="4.5052129030227661e-01" purity="2.9927557706832886e-01" nType="-99"/>
        </Node>
        <Node pos="r" depth="1" NCoef="0" IVar="1" Cut="1.1896786689758301e+00" cType="1" res="1.2587958574295044e-01" rms="4.5632863044738770e-01" purity="6.8859630823135376e-01" nType="0">
          <Node pos="l" depth="2" NCoef="0" IVar="-1" Cut="0.0000000000000000e+00" cType="1" res="2.4070297367870808e-03" rms="4.3392604589462280e-01" purity="7.4435180425643921e-01" nType="-99"/>
          <Node pos="r" depth="2" NCoef="0" IVar="-1" Cut="0.0000000000000000e+00" cType="1" res="-1.1349038686603308e-03" rms="4.9366390705108643e-01" purity="4.4904726743698120e-01" nType="-99"/>
        </Node>
      </Node>
    </BinaryTree>
    <BinaryTree type="DecisionTree" boostWeight="1.0000000000000000e+00" itree="60">
      <Node pos="s" depth="0" NCoef="0" IVar="2" Cut="9.5294773578643799e-01" cType="1" res="1.0293880477547646e-02" rms="4.7848659753799438e-01" purity="5.1101142168045044e-01" nType="0">
        <Node pos="l" depth="1" NCoef="0" IVar="1" Cut="1.6194308996200562e+00" cType="1" res="-8.9206643402576447e-02" rms="4.7479680180549622e-01" purity="3.6565259099006653e-01" nType="0">
          <Node pos="l" depth="2" NCoef="0" IVar="-1" Cut="0.0000000000000000e+00" cType="1" res="-9.6990505699068308e-04" rms="4.8258918523788452e-01" purity="3.9194050431251526e-01" nType="-99"/>
          <Node pos="r" depth="2" NCoef="0" IVar="-1" Cut="0.0000000000000000e+00" cType="1" res="-4.8880320973694324e-03" rms="3.1880283355712891e-01" purity="1.1176103353500366e-01" nType="-99"/>
        </Node>
        <Node pos="r" depth="1" NCoef="0" IVar="1" Cut="1.2981762886047363e+00" cType="1" res="1.3677848875522614e-01" rms="4.5258939266204834e-01" purity="6.9579094648361206e-01" nType="0">
          <Node pos="l" depth="2" NCoef="0" IVar="-1" Cut="0.0000000000000000e+00" cType="1" res="2.4567786604166031e-03" rms="4.3418887257575989e-01" purity="7.4084246158599854e-01" nType="-99"/>
          <Node pos="r" depth="2" NCoef="0" IVar="-1" Cut="0.0000000000000000e+00" cType="1" res="-8.2591356476768851e-04" rms="4.9547180533409119e-01" purity="4.6202728152275085e-01" nType="-99"/>
        </Node>
      </Node>
    </BinaryTree>
    <BinaryTree type="DecisionTree" boostWeight="1.0000000000000000e+00" itree="61">
      <Node pos="s" depth="0" NCoef="0" IVar="2" Cut="9.3687719106674194e-01" cType="1" res="-7.5709051452577114e-04" rms="4.7857296466827393e-01" purity="4.9949905276298523e-01" nType="0">
        <Node pos="l" depth="1" NCoef="0" IVar="4" Cut="5.7961413574218750e+02" cType="1" res="-1.6891151666641235e-01" rms="4.3719393014907837e-01" purity="2.7318167686462402e-01" nType="0">
          <Node pos="l" depth="2" NCoef="0" IVar="-1" Cut="0.0000000000000000e+00" cType="1" res="-3.7137097679078579e-03" rms="3.8995829224586487e-01" purity="1.9194214046001434e-01" nType="-99"/>
          <Node pos="r" depth="2" NCoef="0" IVar="-1" Cut="0.0000000000000000e+00" cType="1" res="6.0546630993485451e-04" rms="4.9261847138404846e-01" purity="5.0514274835586548e-01" nType="-99"/>
        </Node>
        <Node pos="r" depth="1" NCoef="0" IVar="1" Cut="1.5841904878616333e+00" cType="1" res="7.1943812072277069e-02" rms="4.7739377617835999e-01" purity="5.9734648466110229e-01" nType="0">
          <Node pos="l" depth="2" NCoef="0" IVar="-1" Cut="0.0000000000000000e+00" cType="1" res="1.4194882242009044e-03" rms="4.7237452864646912e-01" purity="6.3087445497512817e-01" nType="-99"/>
          <Node pos="r" depth="2" NCoef="0" IVar="-1" Cut="0.0000000000000000e+00" cType="1" res="-3.5488263238221407e-03" rms="4.2702984809875488e-01" purity="2.4517633020877838e-01" nType="-99"/>
        </Node>
      </Node>
    </BinaryTree>
    <BinaryTree type="DecisionTree" boostWeight="1.0000000000000000e+00" itree="62">
      <Node pos="s" depth="0" NCoef="0" IVar="2" Cut="9.5343106985092163e-01" cType="1" res="-1.1008338071405888e-02" rms="4.7736039757728577e-01" purity="4.8732402920722961e-01" nType="0">
        <Node pos="l" depth="1" NCoef="0" IVar="1" Cut="1.1132644414901733e+00" cType="1" res="-1.0113777220249176e-01" rms="4.6978712081909180e-01" purity="3.5336419939994812e-01" nType="0">
          <Node pos="l" depth="2" NCoef="0" IVar="-1" Cut="0.0000000000000000e+00" cType="1" res="-6.2662834534421563e-04" rms="4.8873543739318848e-01" purity="4.2274397611618042e-01" nType="-99"/>
          <Node pos="r" depth="2" NCoef="0" IVar="-1" Cut="0.0000000000000000e+00" cType="1" res="-3.3623587805777788e-03" rms="4.0541517734527588e-01" purity="2.1460735797882080e-01" nType="-99"/>
        </Node>
        <Node pos="r" depth="1" NCoef="0" IVar="1" Cut="1.1896786689758301e+00" cType="1" res="1.1466284841299057e-01" rms="4.5908021926879883e-01" purity="6.7410981655120850e-01" nType="0">
          <Node pos="l" depth="2" NCoef="0" IVar="-1" Cut="0.0000000000000000e+00" cType="1" res="2.5710866320878267e-03" rms="4.2631796002388000e-01" purity="7.5663274526596069e-01" nType="-99"/>
          <Node pos="r" depth="2" NCoef="0" IVar="-1" Cut="0.0000000000000000e+00" cType="1" res="-1.7133667133748531e-03" rms="4.8665684461593628e-01" purity="4.1089311242103577e-01" nType="-99"/>
        </Node>
      </Node>
    </BinaryTree>
    <BinaryTree type="DecisionTree" boostWeight="1.0000000000000000e+00" itree="63">
      <Node pos="s" depth="0" NCoef="0" IVar="2" Cut="9.5185220241546631e-01" cType="1" res="-1.7970674671232700e-03" rms="4.7965037822723389e-01" purity="4.9475643038749695e-01" nType="0">
        <Node pos="l" depth="1" NCoef="0" IVar="4" Cut="4.1293789672851562e+02" cType="1" res="-8.8648833334445953e-02" rms="4.7272399067878723e-01" purity="3.6189937591552734e-01" nType="0">
          <Node pos="l" depth="2" NCoef="0" IVar="-1" Cut="0.0000000000000000e+00" cType="1" res="-2.8398891445249319e-03" rms="4.2511686682701111e-01" purity="2.4826240539550781e-01" nType="-99"/>
          <Node pos="r" depth="2" NCoef="0" IVar="-1" Cut="0.0000000000000000e+00" cType="1" res="-2.5063427165150642e-04" rms="4.9169263243675232e-01" purity="4.4320777058601379e-01" nType="-99"/>
        </Node>
        <Node pos="r" depth="1" NCoef="0" IVar="2" Cut="9.7157561779022217e-01" cType="1" res="1.1489612609148026e-01" rms="4.6386981010437012e-01" purity="6.7326182126998901e-01" nType="0">
          <Node pos="l" depth="2" NCoef="0" IVar="-1" Cut="0.0000000000000000e+00" cType="1" res="8.3927850937470794e-04" rms="4.8535466194152832e-01" purity="6.0687065124511719e-01" nType="-99"/>
          <Node pos="r" depth="2" NCoef="0" IVar="-1" Cut="0.0000000000000000e+00" cType="1" res="3.2823565416038036e-03" rms="3.9185860753059387e-01" purity="8.0883544683456421e-01" nType="-99"/>
        </Node>
      </Node>
    </BinaryTree>
    <BinaryTree type="DecisionTree" boostWeight="1.0000000000000000e+00" itree="64">
      <Node pos="s" depth="0" NCoef="0" IVar="2" Cut="9.4625186920166016e-01" cType="1" res="1.0597884654998779e-02" rms="4.7538995742797852e-01" purity="5.0844579935073853e-01" nType="0">
        <Node pos="l" depth="1" NCoef="0" IVar="0" Cut="2.8523834228515625e+02" cType="1" res="-1.0849120467901230e-01" rms="4.6358123421669006e-01" purity="3.3585190773010254e-01" nType="0">
          <Node pos="l" depth="2" NCoef="0" IVar="-1" Cut="0.0000000000000000e+00" cType="1" res="-3.3133076503872871e-03" rms="4.0414279699325562e-01" purity="2.1226118505001068e-01" nType="-99"/>
          <Node pos="r" depth="2" NCoef="0" IVar="-1" Cut="0.0000000000000000e+00" cType="1" res="-4.5000080717727542e-04" rms="4.8683801293373108e-01" purity="4.2363014817237854e-01" nType="-99"/>
        </Node>
        <Node pos="r" depth="1" NCoef="0" IVar="1" Cut="1.5267460346221924e+00" cType="1" res="1.1714670807123184e-01" rms="4.6029838919639587e-01" purity="6.6286528110504150e-01" nType="0">
          <Node pos="l" depth="2" NCoef="0" IVar="-1" Cut="0.0000000000000000e+00" cType="1" res="2.1359100937843323e-03" rms="4.4868877530097961e-01" purity="7.0355248451232910e-01" nType="-99"/>
          <Node pos="r" depth="2" NCoef="0" IVar="-1" Cut="0.0000000000000000e+00" cType="1" res="-3.0575438868254423e-03" rms="4.4665285944938660e-01" purity="2.9727318882942200e-01" nType="-99"/>
        </Node>
      </Node>
    </BinaryTree>
    <BinaryTree type="DecisionTree" boostWeight="1.0000000000000000e+00" itree="65">
      <Node pos="s" depth="0" NCoef="0" IVar="2" Cut="9.5152068138122559e-01" cType="1" res="-1.1254990473389626e-02" rms="4.7761014103889465e-01" purity="4.8596373200416565e-01" nType="0">
        <Node pos="l" depth="1" NCoef="0" IVar="1" Cut="1.0426445007324219e+00" cType="1" res="-1.0902281105518341e-01" rms="4.6556130051612854e-01" purity="3.3848085999488831e-01" nType="0">
          <Node pos="l" depth="2" NCoef="0" IVar="-1" Cut="0.0000000000000000e+00" cType="1" res="-5.4751883726567030e-04" rms="4.8887273669242859e-01" purity="4.2257100343704224e-01" nType="-99"/>
          <Node pos="r" depth="2" NCoef="0" IVar="-1" Cut="0.0000000000000000e+00" cType="1" res="-3.3181165345013142e-03" rms="4.0987110137939453e-01" purity="2.1902616322040558e-01" nType="-99"/>
        </Node>
        <Node pos="r" depth="1" NCoef="0" IVar="2" Cut="9.8226481676101685e-01" cType="1" res="1.0835493355989456e-01" rms="4.6477296948432922e-01" purity="6.6639548540115356e-01" nType="0">
          <Node pos="l" depth="2" NCoef="0" IVar="-1" Cut="0.0000000000000000e+00" cType="1" res="1.0363823967054486e-03" rms="4.7810968756675720e-01" purity="6.2660318613052368e-01" nType="-99"/>
          <Node pos="r" depth="2" NCoef="0" IVar="-1" Cut="0.0000000000000000e+00" cType="1" res="4.1893594898283482e-03" rms="3.1788408756256104e-01" purity="8.8473558425903320e-01" nType="-99"/>
        </Node>
      </Node>
    </BinaryTree>
    <BinaryTree type="DecisionTree" boostWeight="1.0000000000000000e+00" itree="66">
      <Node pos="s" depth="0" NCoef="0" IVar="2" Cut="9.5238804817199707e-01" cType="1" res="-6.4901108853518963e-03" rms="4.7556230425834656e-01" purity="4.9150028824806213e-01" nType="0">
        <Node pos="l" depth="1" NCoef="0" IVar="1" Cut="7.7165293693542480e-01" cType="1" res="-1.0812649875879288e-01" rms="4.6654039621353149e-01" purity="3.4177628159523010e-01" nType="0">
          <Node pos="l" depth="2" NCoef="0" IVar="-1" Cut="0.0000000000000000e+00" cType="1" res="1.4092976925894618e-04" rms="4.9367928504943848e-01" purity="4.7559258341789246e-01" nType="-99"/>
          <Node pos="r" depth="2" NCoef="0" IVar="-1" Cut="0.0000000000000000e+00" cType="1" res="-2.6154075749218464e-03" rms="4.3866935372352600e-01" purity="2.7054461836814880e-01" nType="-99"/>
        </Node>
        <Node pos="r" depth="1" NCoef="0" IVar="1" Cut="1.1576217412948608e+00" cType="1" res="1.3188597559928894e-01" rms="4.5223832130432129e-01" purity="6.9534683227539062e-01" nType="0">
          <Node pos="l" depth="2" NCoef="0" IVar="-1" Cut="0.0000000000000000e+00" cType="1" res="2.3502288386225700e-03" rms="4.3320000171661377e-01" purity="7.4366140365600586e-01" nType="-99"/>
          <Node pos="r" depth="2" NCoef="0" IVar="-1" Cut="0.0000000000000000e+00" cType="1" res="-2.8124116943217814e-04" rms="4.9281266331672668e-01" purity="5.0365906953811646e-01" nType="-99"/>
        </Node>
      </Node>
    </BinaryTree>
    <BinaryTree type="DecisionTree" boostWeight="1.0000000000000000e+00" itree="67">
      <Node pos="s" depth="0" NCoef="0" IVar="4" Cut="3.5089636230468750e+02" cType="1" res="-2.5020698085427284e-03" rms="4.7909721732139587e-01" purity="4.8995235562324524e-01" nType="0">
        <Node pos="l" depth="1" NCoef="0" IVar="4" Cut="3.2815597534179688e+02" cType="1" res="-2.1054182946681976e-01" rms="4.1881287097930908e-01" purity="2.5490295886993408e-01" nType="0">
          <Node pos="l" depth="2" NCoef="0" IVar="-1" Cut="0.0000000000000000e+00" cType="1" res="-4.3405173346400261e-03" rms="3.6684852838516235e-01" purity="1.7550835013389587e-01" nType="-99"/>
          <Node pos="r" depth="2" NCoef="0" IVar="-1" Cut="0.0000000000000000e+00" cType="1" res="-1.1222903849557042e-03" rms="4.6873709559440613e-01" purity="3.9692321419715881e-01" nType="-99"/>
        </Node>
        <Node pos="r" depth="1" NCoef="0" IVar="1" Cut="1.4860556125640869e+00" cType="1" res="4.6024974435567856e-02" rms="4.7928068041801453e-01" purity="5.4477965831756592e-01" nType="0">
          <Node pos="l" depth="2" NCoef="0" IVar="-1" Cut="0.0000000000000000e+00" cType="1" res="1.1843594256788492e-03" rms="4.7725728154182434e-01" purity="5.8942347764968872e-01" nType="-99"/>
          <Node pos="r" depth="2" NCoef="0" IVar="-1" Cut="0.0000000000000000e+00" cType="1" res="-3.6476599052548409e-03" rms="4.0013086795806885e-01" purity="2.1951331198215485e-01" nType="-99"/>
        </Node>
      </Node>
    </BinaryTree>
    <BinaryTree type="DecisionTree" boostWeight="1.0000000000000000e+00" itree="68">
      <Node pos="s" depth="0" NCoef="0" IVar="2" Cut="9.5419949293136597e-01" cType="1" res="-9.6394558204337955e-04" rms="4.7542238235473633e-01" purity="4.9816417694091797e-01" nType="0">
        <Node pos="l" depth="1" NCoef="0" IVar="1" Cut="1.2680100202560425e+00" cType="1" res="-8.8477566838264465e-02" rms="4.7117546200752258e-01" purity="3.6486127972602844e-01" nType="0">
          <Node pos="l" depth="2" NCoef="0" IVar="-1" Cut="0.0000000000000000e+00" cType="1" res="-6.0180563014000654e-04" rms="4.8744061589241028e-01" purity="4.2347434163093567e-01" nType="-99"/>
          <Node pos="r" depth="2" NCoef="0" IVar="-1" Cut="0.0000000000000000e+00" cType="1" res="-3.8851769641041756e-03" rms="3.7448599934577942e-01" purity="1.7408613860607147e-01" nType="-99"/>
        </Node>
        <Node pos="r" depth="1" NCoef="0" IVar="1" Cut="1.1295425891876221e+00" cType="1" res="1.2901268899440765e-01" rms="4.5136296749114990e-01" purity="6.9614773988723755e-01" nType="0">
          <Node pos="l" depth="2" NCoef="0" IVar="-1" Cut="0.0000000000000000e+00" cType="1" res="2.5848748628050089e-03" rms="4.1998687386512756e-01" purity="7.6860761642456055e-01" nType="-99"/>
          <Node pos="r" depth="2" NCoef="0" IVar="-1" Cut="0.0000000000000000e+00" cType="1" res="-1.1368351988494396e-03" rms="4.9222749471664429e-01" purity="4.5174670219421387e-01" nType="-99"/>
        </Node>
      </Node>
    </BinaryTree>
    <BinaryTree type="DecisionTree" boostWeight="1.0000000000000000e+00" itree="69">
      <Node pos="s" depth="0" NCoef="0" IVar="1" Cut="1.4985703229904175e+00" cType="1" res="-1.2396905804052949e-03" rms="4.7663530707359314e-01" purity="4.9459728598594666e-01" nType="0">
        <Node pos="l" depth="1" NCoef="0" IVar="2" Cut="9.6895247697830200e-01" cType="1" res="3.6484111100435257e-02" rms="4.7937858104705811e-01" purity="5.4135209321975708e-01" nType="0">
          <Node pos="l" depth="2" NCoef="0" IVar="-1" Cut="0.0000000000000000e+00" cType="1" res="-1.1634987458819523e-04" rms="4.8804974555969238e-01" purity="4.7579795122146606e-01" nType="-99"/>
          <Node pos="r" depth="2" NCoef="0" IVar="-1" Cut="0.0000000000000000e+00" cType="1" res="2.9688554350286722e-03" rms="3.9858207106590271e-01" purity="7.9753077030181885e-01" nType="-99"/>
        </Node>
        <Node pos="r" depth="1" NCoef="0" IVar="1" Cut="1.7399086952209473e+00" cType="1" res="-2.8323370218276978e-01" rms="3.4266304969787598e-01" purity="1.4509420096874237e-01" nType="0">
          <Node pos="l" depth="2" NCoef="0" IVar="-1" Cut="0.0000000000000000e+00" cType="1" res="-3.0444844160228968e-03" rms="4.2049658298492432e-01" purity="2.4120829999446869e-01" nType="-99"/>
          <Node pos="r" depth="2" NCoef="0" IVar="-1" Cut="0.0000000000000000e+00" cType="1" res="-6.4729615114629269e-03" rms="2.0515678822994232e-01" purity="4.8933386802673340e-02" nType="-99"/>
        </Node>
      </Node>
    </BinaryTree>
    <BinaryTree type="DecisionTree" boostWeight="1.0000000000000000e+00" itree="70">
      <Node pos="s" depth="0" NCoef="0" IVar="2" Cut="9.4817632436752319e-01" cType="1" res="-8.2721206126734614e-04" rms="4.7971260547637939e-01" purity="4.9602931737899780e-01" nType="0">
        <Node pos="l" depth="1" NCoef="0" IVar="3" Cut="1.8742483520507812e+02" cType="1" res="-8.6585499346256256e-02" rms="4.7149682044982910e-01" purity="3.5933074355125427e-01" nType="0">
          <Node pos="l" depth="2" NCoef="0" IVar="-1" Cut="0.0000000000000000e+00" cType="1" res="-3.7340105045586824e-03" rms="3.9724314212799072e-01" purity="1.9832661747932434e-01" nType="-99"/>
          <Node pos="r" depth="2" NCoef="0" IVar="-1" Cut="0.0000000000000000e+00" cType="1" res="3.4675237839110196e-04" rms="4.8736301064491272e-01" purity="4.7145527601242065e-01" nType="-99"/>
        </Node>
        <Node pos="r" depth="1" NCoef="0" IVar="1" Cut="7.9050427675247192e-01" cType="1" res="8.7447263300418854e-02" rms="4.7202306985855103e-01" purity="6.3673865795135498e-01" nType="0">
          <Node pos="l" depth="2" NCoef="0" IVar="-1" Cut="0.0000000000000000e+00" cType="1" res="2.5199980009347200e-03" rms="4.2555299401283264e-01" purity="7.5118106603622437e-01" nType="-99"/>
          <Node pos="r" depth="2" NCoef="0" IVar="-1" Cut="0.0000000000000000e+00" cType="1" res="2.7183492784388363e-04" rms="4.9135261774063110e-01" purity="5.5449873208999634e-01" nType="-99"/>
        </Node>
      </Node>
    </BinaryTree>
    <BinaryTree type="DecisionTree" boostWeight="1.0000000000000000e+00" itree="71">
      <Node pos="s" depth="0" NCoef="0" IVar="2" Cut="9.5238804817199707e-01" cType="1" res="1.4996728859841824e-02" rms="4.7394186258316040e-01" purity="5.1485186815261841e-01" nType="0">
        <Node pos="l" depth="1" NCoef="0" IVar="4" Cut="5.5951617431640625e+02" cType="1" res="-1.0122587531805038e-01" rms="4.6713313460350037e-01" purity="3.4483563899993896e-01" nType="0">
          <Node pos="l" depth="2" NCoef="0" IVar="-1" Cut="0.0000000000000000e+00" cType="1" res="-2.3264375049620867e-03" rms="4.4701400399208069e-01" purity="2.8284451365470886e-01" nType="-99"/>
          <Node pos="r" depth="2" NCoef="0" IVar="-1" Cut="0.0000000000000000e+00" cType="1" res="7.1341381408274174e-04" rms="4.8940667510032654e-01" purity="5.1998686790466309e-01" nType="-99"/>
        </Node>
        <Node pos="r" depth="1" NCoef="0" IVar="4" Cut="3.9310705566406250e+02" cType="1" res="1.5142060816287994e-01" rms="4.4460672140121460e-01" purity="7.1441948413848877e-01" nType="0">
          <Node pos="l" depth="2" NCoef="0" IVar="-1" Cut="0.0000000000000000e+00" cType="1" res="1.9113298912998289e-04" rms="4.8454415798187256e-01" purity="5.6168782711029053e-01" nType="-99"/>
          <Node pos="r" depth="2" NCoef="0" IVar="-1" Cut="0.0000000000000000e+00" cType="1" res="2.8459527529776096e-03" rms="4.1736680269241333e-01" purity="7.7099984884262085e-01" nType="-99"/>
        </Node>
      </Node>
    </BinaryTree>
    <BinaryTree type="DecisionTree" boostWeight="1.0000000000000000e+00" itree="72">
      <Node pos="s" depth="0" NCoef="0" IVar="2" Cut="9.4379395246505737e-01" cType="1" res="2.1027335897088051e-03" rms="4.7440055012702942e-01" purity="5.0199759006500244e-01" nType="0">
        <Node pos="l" depth="1" NCoef="0" IVar="5" Cut="1.9417089843750000e+02" cType="1" res="-1.4330987632274628e-01" rms="4.4668886065483093e-01" purity="2.9352495074272156e-01" nType="0">
          <Node pos="l" depth="2" NCoef="0" IVar="-1" Cut="0.0000000000000000e+00" cType="1" res="-2.8166188858449459e-03" rms="4.2642998695373535e-01" purity="2.4885176122188568e-01" nType="-99"/>
          <Node pos="r" depth="2" NCoef="0" IVar="-1" Cut="0.0000000000000000e+00" cType="1" res="1.2063310714438558e-03" rms="4.9001559615135193e-01" purity="5.4863399267196655e-01" nType="-99"/>
        </Node>
        <Node pos="r" depth="1" NCoef="0" IVar="2" Cut="9.6709996461868286e-01" cType="1" res="1.1014886200428009e-01" rms="4.6544227004051208e-01" purity="6.5689915418624878e-01" nType="0">
          <Node pos="l" depth="2" NCoef="0" IVar="-1" Cut="0.0000000000000000e+00" cType="1" res="8.2760635996237397e-04" rms="4.8866704106330872e-01" purity="5.7942509651184082e-01" nType="-99"/>
          <Node pos="r" depth="2" NCoef="0" IVar="-1" Cut="0.0000000000000000e+00" cType="1" res="2.5826040655374527e-03" rms="4.2006653547286987e-01" purity="7.6561099290847778e-01" nType="-99"/>
        </Node>
      </Node>
    </BinaryTree>
    <BinaryTree type="DecisionTree" boostWeight="1.0000000000000000e+00" itree="73">
      <Node pos="s" depth="0" NCoef="0" IVar="2" Cut="9.5550251007080078e-01" cType="1" res="-1.5686873346567154e-02" rms="4.7101476788520813e-01" purity="4.8071372509002686e-01" nType="0">
        <Node pos="l" depth="1" NCoef="0" IVar="2" Cut="9.2097336053848267e-01" cType="1" res="-1.1462943255901337e-01" rms="4.6191465854644775e-01" purity="3.3738526701927185e-01" nType="0">
          <Node pos="l" depth="2" NCoef="0" IVar="-1" Cut="0.0000000000000000e+00" cType="1" res="-4.0713325142860413e-03" rms="3.6167183518409729e-01" purity="1.5997472405433655e-01" nType="-99"/>
          <Node pos="r" depth="2" NCoef="0" IVar="-1" Cut="0.0000000000000000e+00" cType="1" res="-1.0489992564544082e-03" rms="4.7799694538116455e-01" purity="3.8864853978157043e-01" nType="-99"/>
        </Node>
        <Node pos="r" depth="1" NCoef="0" IVar="1" Cut="1.2941902875900269e+00" cType="1" res="1.4880220592021942e-01" rms="4.3890464305877686e-01" purity="7.1899306774139404e-01" nType="0">
          <Node pos="l" depth="2" NCoef="0" IVar="-1" Cut="0.0000000000000000e+00" cType="1" res="2.7836796361953020e-03" rms="4.1102471947669983e-01" purity="7.7888357639312744e-01" nType="-99"/>
          <Node pos="r" depth="2" NCoef="0" IVar="-1" Cut="0.0000000000000000e+00" cType="1" res="-1.0062265209853649e-03" rms="4.9235934019088745e-01" purity="4.4942730665206909e-01" nType="-99"/>
        </Node>
      </Node>
    </BinaryTree>
    <BinaryTree type="DecisionTree" boostWeight="1.0000000000000000e+00" itree="74">
      <Node pos="s" depth="0" NCoef="0" IVar="2" Cut="9.5550251007080078e-01" cType="1" res="1.9951427821069956e-03" rms="4.7246673703193665e-01" purity="5.0362187623977661e-01" nType="0">
        <Node pos="l" depth="1" NCoef="0" IVar="0" Cut="4.3689639282226562e+02" cType="1" res="-9.3821957707405090e-02" rms="4.6681892871856689e-01" purity="3.5767406225204468e-01" nType="0">
          <Node pos="l" depth="2" NCoef="0" IVar="-1" Cut="0.0000000000000000e+00" cType="1" res="-2.1288269199430943e-03" rms="4.5025143027305603e-01" purity="3.0644655227661133e-01" nType="-99"/>
          <Node pos="r" depth="2" NCoef="0" IVar="-1" Cut="0.0000000000000000e+00" cType="1" res="1.3959363568574190e-03" rms="4.8696717619895935e-01" purity="5.7353341579437256e-01" nType="-99"/>
        </Node>
        <Node pos="r" depth="1" NCoef="0" IVar="6" Cut="7.9776895046234131e-01" cType="1" res="1.4192304015159607e-01" rms="4.4495457410812378e-01" purity="7.1675878763198853e-01" nType="0">
          <Node pos="l" depth="2" NCoef="0" IVar="-1" Cut="0.0000000000000000e+00" cType="1" res="2.5021908804774284e-03" rms="4.2075264453887939e-01" purity="7.6185029745101929e-01" nType="-99"/>
          <Node pos="r" depth="2" NCoef="0" IVar="-1" Cut="0.0000000000000000e+00" cType="1" res="5.8695627376437187e-04" rms="4.8952540755271912e-01" purity="5.9637552499771118e-01" nType="-99"/>
        </Node>
      </Node>
    </BinaryTree>
    <BinaryTree type="DecisionTree" boostWeight="1.0000000000000000e+00" itree="75">
      <Node pos="s" depth="0" NCoef="0" IVar="2" Cut="9.2728763818740845e-01" cType="1" res="8.9677739888429642e-03" rms="4.7483330965042114e-01" purity="5.0971740484237671e-01" nType="0">
        <Node pos="l" depth="1" NCoef="0" IVar="2" Cut="9.1797727346420288e-01" cType="1" res="-2.2379687428474426e-01" rms="3.9753606915473938e-01" purity="2.0443280041217804e-01" nType="0">
          <Node pos="l" depth="2" NCoef="0" IVar="-1" Cut="0.0000000000000000e+00" cType="1" res="-4.6482314355671406e-03" rms="3.2894718647003174e-01" purity="1.2817193567752838e-01" nType="-99"/>
          <Node pos="r" depth="2" NCoef="0" IVar="-1" Cut="0.0000000000000000e+00" cType="1" res="-2.0179552957415581e-03" rms="4.5062822103500366e-01" purity="2.9556283354759216e-01" nType="-99"/>
        </Node>
        <Node pos="r" depth="1" NCoef="0" IVar="3" Cut="1.8793809509277344e+02" cType="1" res="6.9936759769916534e-02" rms="4.7457420825958252e-01" purity="5.8968180418014526e-01" nType="0">
          <Node pos="l" depth="2" NCoef="0" IVar="-1" Cut="0.0000000000000000e+00" cType="1" res="-4.1708402568474412e-04" rms="4.8300066590309143e-01" purity="4.9107712507247925e-01" nType="-99"/>
          <Node pos="r" depth="2" NCoef="0" IVar="-1" Cut="0.0000000000000000e+00" cType="1" res="1.8412448698654771e-03" rms="4.5925867557525635e-01" purity="6.4942800998687744e-01" nType="-99"/>
        </Node>
      </Node>
    </BinaryTree>
    <BinaryTree type="DecisionTree" boostWeight="1.0000000000000000e+00" itree="76">
      <Node pos="s" depth="0" NCoef="0" IVar="2" Cut="9.3933832645416260e-01" cType="1" res="-8.9508621022105217e-03" rms="4.7552326321601868e-01" purity="4.9056908488273621e-01" nType="0">
        <Node pos="l" depth="1" NCoef="0" IVar="1" Cut="9.8490083217620850e-01" cType="1" res="-1.4421574771404266e-01" rms="4.4637581706047058e-01" purity="2.8736570477485657e-01" nType="0">
          <Node pos="l" depth="2" NCoef="0" IVar="-1" Cut="0.0000000000000000e+00" cType="1" res="-1.2410954805091023e-03" rms="4.7497203946113586e-01" purity="3.5870155692100525e-01" nType="-99"/>
          <Node pos="r" depth="2" NCoef="0" IVar="-1" Cut="0.0000000000000000e+00" cType="1" res="-3.5687824711203575e-03" rms="3.9096644520759583e-01" purity="1.9118233025074005e-01" nType="-99"/>
        </Node>
        <Node pos="r" depth="1" NCoef="0" IVar="2" Cut="9.6705800294876099e-01" cType="1" res="7.0261344313621521e-02" rms="4.7420358657836914e-01" purity="6.0956668853759766e-01" nType="0">
          <Node pos="l" depth="2" NCoef="0" IVar="-1" Cut="0.0000000000000000e+00" cType="1" res="7.6915486715734005e-05" rms="4.9308630824089050e-01" purity="5.1578128337860107e-01" nType="-99"/>
          <Node pos="r" depth="2" NCoef="0" IVar="-1" Cut="0.0000000000000000e+00" cType="1" res="2.5010739918798208e-03" rms="4.2070180177688599e-01" purity="7.6238536834716797e-01" nType="-99"/>
        </Node>
      </Node>
    </BinaryTree>
    <BinaryTree type="DecisionTree" boostWeight="1.0000000000000000e+00" itree="77">
      <Node pos="s" depth="0" NCoef="0" IVar="2" Cut="9.5246231555938721e-01" cType="1" res="1.3047751039266586e-02" rms="4.7327005863189697e-01" purity="5.1063412427902222e-01" nType="0">
        <Node pos="l" depth="1" NCoef="0" IVar="1" Cut="1.0607640743255615e+00" cType="1" res="-7.8435562551021576e-02" rms="4.7067376971244812e-01" purity="3.6417505145072937e-01" nType="0">
          <Node pos="l" depth="2" NCoef="0" IVar="-1" Cut="0.0000000000000000e+00" cType="1" res="-3.6643938074121252e-05" rms="4.9228045344352722e-01" purity="4.5564672350883484e-01" nType="-99"/>
          <Node pos="r" depth="2" NCoef="0" IVar="-1" Cut="0.0000000000000000e+00" cType="1" res="-3.0945013277232647e-03" rms="4.0782961249351501e-01" purity="2.2196762263774872e-01" nType="-99"/>
        </Node>
        <Node pos="r" depth="1" NCoef="0" IVar="2" Cut="9.7191458940505981e-01" cType="1" res="1.3328853249549866e-01" rms="4.4916346669197083e-01" purity="7.0313221216201782e-01" nType="0">
          <Node pos="l" depth="2" NCoef="0" IVar="-1" Cut="0.0000000000000000e+00" cType="1" res="1.0032225400209427e-03" rms="4.7897362709045410e-01" purity="6.2570053339004517e-01" nType="-99"/>
          <Node pos="r" depth="2" NCoef="0" IVar="-1" Cut="0.0000000000000000e+00" cType="1" res="3.3585717901587486e-03" rms="3.7164789438247681e-01" purity="8.3054679632186890e-01" nType="-99"/>
        </Node>
      </Node>
    </BinaryTree>
    <BinaryTree type="DecisionTree" boostWeight="1.0000000000000000e+00" itree="78">
      <Node pos="s" depth="0" NCoef="0" IVar="2" Cut="9.4919574260711670e-01" cType="1" res="-1.0309745557606220e-02" rms="4.7479426860809326e-01" purity="4.8500373959541321e-01" nType="0">
        <Node pos="l" depth="1" NCoef="0" IVar="4" Cut="4.9296307373046875e+02" cType="1" res="-9.1011591255664825e-02" rms="4.6743538975715637e-01" purity="3.4757670760154724e-01" nType="0">
          <Node pos="l" depth="2" NCoef="0" IVar="-1" Cut="0.0000000000000000e+00" cType="1" res="-2.2932295687496662e-03" rms="4.4052755832672119e-01" purity="2.7500119805335999e-01" nType="-99"/>
          <Node pos="r" depth="2" NCoef="0" IVar="-1" Cut="0.0000000000000000e+00" cType="1" res="1.0727011249400675e-04" rms="4.9280014634132385e-01" purity="4.6622213721275330e-01" nType="-99"/>
        </Node>
        <Node pos="r" depth="1" NCoef="0" IVar="1" Cut="1.3300554752349854e+00" cType="1" res="8.2776695489883423e-02" rms="4.6610093116760254e-01" purity="6.4352047443389893e-01" nType="0">
          <Node pos="l" depth="2" NCoef="0" IVar="-1" Cut="0.0000000000000000e+00" cType="1" res="1.8483061576262116e-03" rms="4.5090195536613464e-01" purity="6.9967073202133179e-01" nType="-99"/>
          <Node pos="r" depth="2" NCoef="0" IVar="-1" Cut="0.0000000000000000e+00" cType="1" res="-2.7667155954986811e-03" rms="4.6365478634834290e-01" purity="3.3092734217643738e-01" nType="-99"/>
        </Node>
      </Node>
    </BinaryTree>
    <BinaryTree type="DecisionTree" boostWeight="1.0000000000000000e+00" itree="79">
      <Node pos="s" depth="0" NCoef="0" IVar="2" Cut="9.6371179819107056e-01" cType="1" res="1.9914094358682632e-02" rms="4.7233381867408752e-01" purity="5.2030885219573975e-01" nType="0">
        <Node pos="l" depth="1" NCoef="0" IVar="2" Cut="9.2587119340896606e-01" cType="1" res="-4.4963553547859192e-02" rms="4.7837930917739868e-01" purity="4.2189046740531921e-01" nType="0">
          <Node pos="l" depth="2" NCoef="0" IVar="-1" Cut="0.0000000000000000e+00" cType="1" res="-3.2204955350607634e-03" rms="4.0187919139862061e-01" purity="2.1288861334323883e-01" nType="-99"/>
          <Node pos="r" depth="2" NCoef="0" IVar="-1" Cut="0.0000000000000000e+00" cType="1" res="9.9505014077294618e-05" rms="4.8921966552734375e-01" purity="4.8884335160255432e-01" nType="-99"/>
        </Node>
        <Node pos="r" depth="1" NCoef="0" IVar="1" Cut="1.1184145212173462e+00" cType="1" res="1.8852964043617249e-01" rms="4.1084179282188416e-01" purity="7.7609610557556152e-01" nType="0">
          <Node pos="l" depth="2" NCoef="0" IVar="-1" Cut="0.0000000000000000e+00" cType="1" res="3.0748117715120316e-03" rms="3.8442051410675049e-01" purity="8.1863588094711304e-01" nType="-99"/>
          <Node pos="r" depth="2" NCoef="0" IVar="-1" Cut="0.0000000000000000e+00" cType="1" res="1.3252130011096597e-03" rms="4.7331809997558594e-01" purity="6.3999527692794800e-01" nType="-99"/>
        </Node>
      </Node>
    </BinaryTree>
    <BinaryTree type="DecisionTree" boostWeight="1.0000000000000000e+00" itree="80">
      <Node pos="s" depth="0" NCoef="0" IVar="2" Cut="9.4793242216110229e-01" cType="1" res="-7.6674446463584900e-03" rms="4.7284117341041565e-01" purity="4.8942565917968750e-01" nType="0">
        <Node pos="l" depth="1" NCoef="0" IVar="4" Cut="5.7956970214843750e+02" cType="1" res="-1.0488427430391312e-01" rms="4.6116998791694641e-01" purity="3.3013254404067993e-01" nType="0">
          <Node pos="l" depth="2" NCoef="0" IVar="-1" Cut="0.0000000000000000e+00" cType="1" res="-2.2294425871223211e-03" rms="4.4175899028778076e-01" purity="2.7988970279693604e-01" nType="-99"/>
          <Node pos="r" depth="2" NCoef="0" IVar="-1" Cut="0.0000000000000000e+00" cType="1" res="7.3024939047172666e-04" rms="4.9614167213439941e-01" purity="5.1250630617141724e-01" nType="-99"/>
        </Node>
        <Node pos="r" depth="1" NCoef="0" IVar="1" Cut="1.2858744859695435e+00" cType="1" res="8.8454455137252808e-02" rms="4.6451362967491150e-01" purity="6.4692467451095581e-01" nType="0">
          <Node pos="l" depth="2" NCoef="0" IVar="-1" Cut="0.0000000000000000e+00" cType="1" res="1.7764336662366986e-03" rms="4.5176544785499573e-01" purity="6.9368016719818115e-01" nType="-99"/>
          <Node pos="r" depth="2" NCoef="0" IVar="-1" Cut="0.0000000000000000e+00" cType="1" res="-2.2960782516747713e-03" rms="4.7427633404731750e-01" purity="3.5342592000961304e-01" nType="-99"/>
        </Node>
      </Node>
    </BinaryTree>
    <BinaryTree type="DecisionTree" boostWeight="1.0000000000000000e+00" itree="81">
      <Node pos="s" depth="0" NCoef="0" IVar="2" Cut="9.6933382749557495e-01" cType="1" res="1.0690724477171898e-02" rms="4.7290089726448059e-01" purity="5.0891351699829102e-01" nType="0">
        <Node pos="l" depth="1" NCoef="0" IVar="0" Cut="2.8302743530273438e+02" cType="1" res="-3.7945870310068130e-02" rms="4.7932612895965576e-01" purity="4.3638461828231812e-01" nType="0">
          <Node pos="l" depth="2" NCoef="0" IVar="-1" Cut="0.0000000000000000e+00" cType="1" res="-1.9918901380151510e-03" rms="4.5261159539222717e-01" purity="3.1923136115074158e-01" nType="-99"/>
          <Node pos="r" depth="2" NCoef="0" IVar="-1" Cut="0.0000000000000000e+00" cType="1" res="3.0232334393076599e-04" rms="4.8598828911781311e-01" purity="5.0901085138320923e-01" nType="-99"/>
        </Node>
        <Node pos="r" depth="1" NCoef="0" IVar="1" Cut="1.0040848255157471e+00" cType="1" res="2.0793224871158600e-01" rms="3.8771855831146240e-01" purity="8.0304819345474243e-01" nType="0">
          <Node pos="l" depth="2" NCoef="0" IVar="-1" Cut="0.0000000000000000e+00" cType="1" res="4.1792490519583225e-03" rms="2.8696402907371521e-01" purity="9.0863662958145142e-01" nType="-99"/>
          <Node pos="r" depth="2" NCoef="0" IVar="-1" Cut="0.0000000000000000e+00" cType="1" res="3.4810960642062128e-04" rms="4.8490983247756958e-01" purity="5.9201234579086304e-01" nType="-99"/>
        </Node>
      </Node>
    </BinaryTree>
    <BinaryTree type="DecisionTree" boostWeight="1.0000000000000000e+00" itree="82">
      <Node pos="s" depth="0" NCoef="0" IVar="2" Cut="9.3843764066696167e-01" cType="1" res="1.4936315827071667e-02" rms="4.7358396649360657e-01" purity="5.1286429166793823e-01" nType="0">
        <Node pos="l" depth="1" NCoef="0" IVar="4" Cut="5.3749157714843750e+02" cType="1" res="-1.1969663202762604e-01" rms="4.5133867859840393e-01" purity="3.0726206302642822e-01" nType="0">
          <Node pos="l" depth="2" NCoef="0" IVar="-1" Cut="0.0000000000000000e+00" cType="1" res="-2.6069486048072577e-03" rms="4.2262777686119080e-01" purity="2.4479319155216217e-01" nType="-99"/>
          <Node pos="r" depth="2" NCoef="0" IVar="-1" Cut="0.0000000000000000e+00" cType="1" res="4.6286330325528979e-04" rms="4.9415826797485352e-01" purity="4.8554775118827820e-01" nType="-99"/>
        </Node>
        <Node pos="r" depth="1" NCoef="0" IVar="1" Cut="9.6861958503723145e-01" cType="1" res="8.2433007657527924e-02" rms="4.7005727887153625e-01" purity="6.1594063043594360e-01" nType="0">
          <Node pos="l" depth="2" NCoef="0" IVar="-1" Cut="0.0000000000000000e+00" cType="1" res="2.1182952914386988e-03" rms="4.4838926196098328e-01" purity="7.0725280046463013e-01" nType="-99"/>
          <Node pos="r" depth="2" NCoef="0" IVar="-1" Cut="0.0000000000000000e+00" cType="1" res="-5.1086717576254159e-05" rms="4.8249617218971252e-01" purity="5.0084275007247925e-01" nType="-99"/>
        </Node>
      </Node>
    </BinaryTree>
    <BinaryTree type="DecisionTree" boostWeight="1.0000000000000000e+00" itree="83">
      <Node pos="s" depth="0" NCoef="0" IVar="2" Cut="9.2657637596130371e-01" cType="1" res="2.1817332133650780e-02" rms="4.7336348891258240e-01" purity="5.1691746711730957e-01" nType="0">
        <Node pos="l" depth="1" NCoef="0" IVar="4" Cut="5.4819750976562500e+02" cType="1" res="-1.4705446362495422e-01" rms="4.3331131339073181e-01" purity="2.6983803510665894e-01" nType="0">
          <Node pos="l" depth="2" NCoef="0" IVar="-1" Cut="0.0000000000000000e+00" cType="1" res="-3.5683079622685909e-03" rms="3.7498217821121216e-01" purity="1.7210698127746582e-01" nType="-99"/>
          <Node pos="r" depth="2" NCoef="0" IVar="-1" Cut="0.0000000000000000e+00" cType="1" res="1.3440861366689205e-03" rms="4.8981294035911560e-01" purity="5.4022949934005737e-01" nType="-99"/>
        </Node>
        <Node pos="r" depth="1" NCoef="0" IVar="1" Cut="8.5820317268371582e-01" cType="1" res="6.4848229289054871e-02" rms="4.7350612282752991e-01" purity="5.7987684011459351e-01" nType="0">
          <Node pos="l" depth="2" NCoef="0" IVar="-1" Cut="0.0000000000000000e+00" cType="1" res="2.2301690187305212e-03" rms="4.4729983806610107e-01" purity="7.0024210214614868e-01" nType="-99"/>
          <Node pos="r" depth="2" NCoef="0" IVar="-1" Cut="0.0000000000000000e+00" cType="1" res="-3.7877922295592725e-04" rms="4.7949919104576111e-01" purity="4.6744865179061890e-01" nType="-99"/>
        </Node>
      </Node>
    </BinaryTree>
    <BinaryTree type="DecisionTree" boostWeight="1.0000000000000000e+00" itree="84">
      <Node pos="s" depth="0" NCoef="0" IVar="2" Cut="9.6398973464965820e-01" cType="1" res="-3.4473310224711895e-03" rms="4.7294837236404419e-01" purity="4.9448755383491516e-01" nType="0">
        <Node pos="l" depth="1" NCoef="0" IVar="1" Cut="1.1366304159164429e+00" cType="1" res="-6.3682965934276581e-02" rms="4.7586923837661743e-01" purity="4.0247464179992676e-01" nType="0">
          <Node pos="l" depth="2" NCoef="0" IVar="-1" Cut="0.0000000000000000e+00" cType="1" res="4.1688985220389441e-05" rms="4.9056741595268250e-01" purity="4.8585748672485352e-01" nType="-99"/>
          <Node pos="r" depth="2" NCoef="0" IVar="-1" Cut="0.0000000000000000e+00" cType="1" res="-3.1030355021357536e-03" rms="4.1517993807792664e-01" purity="2.3782721161842346e-01" nType="-99"/>
        </Node>
        <Node pos="r" depth="1" NCoef="0" IVar="1" Cut="1.0298180580139160e+00" cType="1" res="1.6874815523624420e-01" rms="4.1920647025108337e-01" purity="7.5752466917037964e-01" nType="0">
          <Node pos="l" depth="2" NCoef="0" IVar="-1" Cut="0.0000000000000000e+00" cType="1" res="3.3133120741695166e-03" rms="3.6366960406303406e-01" purity="8.4158712625503540e-01" nType="-99"/>
          <Node pos="r" depth="2" NCoef="0" IVar="-1" Cut="0.0000000000000000e+00" cType="1" res="5.7841389207169414e-04" rms="4.8654094338417053e-01" purity="5.9095031023025513e-01" nType="-99"/>
        </Node>
      </Node>
    </BinaryTree>
    <BinaryTree type="DecisionTree" boostWeight="1.0000000000000000e+00" itree="85">
      <Node pos="s" depth="0" NCoef="0" IVar="2" Cut="9.2927610874176025e-01" cType="1" res="-2.4445286020636559e-02" rms="4.7375872731208801e-01" purity="4.7175568342208862e-01" nType="0">
        <Node pos="l" depth="1" NCoef="0" IVar="3" Cut="2.2098672485351562e+02" cType="1" res="-1.8522751331329346e-01" rms="4.1467252373695374e-01" purity="2.3197832703590393e-01" nType="0">
          <Node pos="l" depth="2" NCoef="0" IVar="-1" Cut="0.0000000000000000e+00" cType="1" res="-3.7302030250430107e-03" rms="3.7568360567092896e-01" purity="1.7399857938289642e-01" nType="-99"/>
          <Node pos="r" depth="2" NCoef="0" IVar="-1" Cut="0.0000000000000000e+00" cType="1" res="-1.6486600507050753e-03" rms="4.5501840114593506e-01" purity="3.1747081875801086e-01" nType="-99"/>
        </Node>
        <Node pos="r" depth="1" NCoef="0" IVar="6" Cut="8.5542666912078857e-01" cType="1" res="2.6111152023077011e-02" rms="4.7986355423927307e-01" purity="5.4715138673782349e-01" nType="0">
          <Node pos="l" depth="2" NCoef="0" IVar="-1" Cut="0.0000000000000000e+00" cType="1" res="1.0180916870012879e-03" rms="4.7320431470870972e-01" purity="5.9773784875869751e-01" nType="-99"/>
          <Node pos="r" depth="2" NCoef="0" IVar="-1" Cut="0.0000000000000000e+00" cType="1" res="-1.7834797035902739e-03" rms="4.7304993867874146e-01" purity="3.8887944817543030e-01" nType="-99"/>
        </Node>
      </Node>
    </BinaryTree>
    <BinaryTree type="DecisionTree" boostWeight="1.0000000000000000e+00" itree="86">
      <Node pos="s" depth="0" NCoef="0" IVar="2" Cut="9.5294773578643799e-01" cType="1" res="1.3209485041443259e-04" rms="4.6816140413284302e-01" purity="4.9784609675407410e-01" nType="0">
        <Node pos="l" depth="1" NCoef="0" IVar="0" Cut="2.0940931701660156e+02" cType="1" res="-1.0582314431667328e-01" rms="4.6121448278427124e-01" purity="3.3392119407653809e-01" nType="0">
          <Node pos="l" depth="2" NCoef="0" IVar="-1" Cut="0.0000000000000000e+00" cType="1" res="-6.2996610067784786e-03" rms="1.7557090520858765e-01" purity="3.2230023294687271e-02" nType="-99"/>
          <Node pos="r" depth="2" NCoef="0" IVar="-1" Cut="0.0000000000000000e+00" cType="1" res="-1.0927743278443813e-03" rms="4.7396618127822876e-01" purity="3.7013134360313416e-01" nType="-99"/>
        </Node>
        <Node pos="r" depth="1" NCoef="0" IVar="1" Cut="1.2360992431640625e+00" cType="1" res="1.4422146975994110e-01" rms="4.3809396028518677e-01" purity="7.2076880931854248e-01" nType="0">
          <Node pos="l" depth="2" NCoef="0" IVar="-1" Cut="0.0000000000000000e+00" cType="1" res="2.5598087813705206e-03" rms="4.1371908783912659e-01" purity="7.7245163917541504e-01" nType="-99"/>
          <Node pos="r" depth="2" NCoef="0" IVar="-1" Cut="0.0000000000000000e+00" cType="1" res="-2.7109877555631101e-04" rms="4.9461179971694946e-01" purity="5.0834935903549194e-01" nType="-99"/>
        </Node>
      </Node>
    </BinaryTree>
    <BinaryTree type="DecisionTree" boostWeight="1.0000000000000000e+00" itree="87">
      <Node pos="s" depth="0" NCoef="0" IVar="2" Cut="9.1823440790176392e-01" cType="1" res="2.7192100882530212e-02" rms="4.7537943720817566e-01" purity="5.2582710981369019e-01" nType="0">
        <Node pos="l" depth="1" NCoef="0" IVar="6" Cut="7.1207201480865479e-01" cType="1" res="-2.1403053402900696e-01" rms="3.8953438401222229e-01" purity="1.9515776634216309e-01" nType="0">
          <Node pos="l" depth="2" NCoef="0" IVar="-1" Cut="0.0000000000000000e+00" cType="1" res="-3.7707476876676083e-03" rms="3.7272709608078003e-01" purity="1.7236723005771637e-01" nType="-99"/>
          <Node pos="r" depth="2" NCoef="0" IVar="-1" Cut="0.0000000000000000e+00" cType="1" res="-2.8622734826058149e-03" rms="4.0292444825172424e-01" purity="2.1738666296005249e-01" nType="-99"/>
        </Node>
        <Node pos="r" depth="1" NCoef="0" IVar="1" Cut="1.2790151834487915e+00" cType="1" res="5.4673831909894943e-02" rms="4.7650820016860962e-01" purity="5.6349927186965942e-01" nType="0">
          <Node pos="l" depth="2" NCoef="0" IVar="-1" Cut="0.0000000000000000e+00" cType="1" res="1.3544869143515825e-03" rms="4.7043970227241516e-01" purity="6.1996668577194214e-01" nType="-99"/>
          <Node pos="r" depth="2" NCoef="0" IVar="-1" Cut="0.0000000000000000e+00" cType="1" res="-1.4957401435822248e-03" rms="4.6860849857330322e-01" purity="3.5243844985961914e-01" nType="-99"/>
        </Node>
      </Node>
    </BinaryTree>
    <BinaryTree type="DecisionTree" boostWeight="1.0000000000000000e+00" itree="88">
      <Node pos="s" depth="0" NCoef="0" IVar="4" Cut="4.0719067382812500e+02" cType="1" res="-9.1915763914585114e-03" rms="4.7273439168930054e-01" purity="4.8428496718406677e-01" nType="0">
        <Node pos="l" depth="1" NCoef="0" IVar="2" Cut="9.5233768224716187e-01" cType="1" res="-1.4478753507137299e-01" rms="4.4044864177703857e-01" purity="3.2038727402687073e-01" nType="0">
          <Node pos="l" depth="2" NCoef="0" IVar="-1" Cut="0.0000000000000000e+00" cType="1" res="-3.2859679777175188e-03" rms="4.0082424879074097e-01" purity="2.0544734597206116e-01" nType="-99"/>
          <Node pos="r" depth="2" NCoef="0" IVar="-1" Cut="0.0000000000000000e+00" cType="1" res="-2.2023325436748564e-04" rms="4.8272311687469482e-01" purity="5.4292368888854980e-01" nType="-99"/>
        </Node>
        <Node pos="r" depth="1" NCoef="0" IVar="2" Cut="9.2911493778228760e-01" cType="1" res="6.7923061549663544e-02" rms="4.7311925888061523e-01" purity="5.7749509811401367e-01" nType="0">
          <Node pos="l" depth="2" NCoef="0" IVar="-1" Cut="0.0000000000000000e+00" cType="1" res="-1.7208753852173686e-03" rms="4.5880788564682007e-01" purity="3.1831675767898560e-01" nType="-99"/>
          <Node pos="r" depth="2" NCoef="0" IVar="-1" Cut="0.0000000000000000e+00" cType="1" res="1.6349549405276775e-03" rms="4.6576702594757080e-01" purity="6.4318740367889404e-01" nType="-99"/>
        </Node>
      </Node>
    </BinaryTree>
    <BinaryTree type="DecisionTree" boostWeight="1.0000000000000000e+00" itree="89">
      <Node pos="s" depth="0" NCoef="0" IVar="2" Cut="9.5495444536209106e-01" cType="1" res="-1.5556282596662641e-03" rms="4.6680194139480591e-01" purity="4.9724259972572327e-01" nType="0">
        <Node pos="l" depth="1" NCoef="0" IVar="1" Cut="1.4074281454086304e+00" cType="1" res="-1.0010885447263718e-01" rms="4.6119472384452820e-01" purity="3.4139320254325867e-01" nType="0">
          <Node pos="l" depth="2" NCoef="0" IVar="-1" Cut="0.0000000000000000e+00" cType="1" res="-8.3632540190592408e-04" rms="4.7974285483360291e-01" purity="3.9584732055664062e-01" nType="-99"/>
          <Node pos="r" depth="2" NCoef="0" IVar="-1" Cut="0.0000000000000000e+00" cType="1" res="-4.6553094871342182e-03" rms="3.1614175438880920e-01" purity="1.1659090965986252e-01" nType="-99"/>
        </Node>
        <Node pos="r" depth="1" NCoef="0" IVar="1" Cut="9.5081573724746704e-01" cType="1" res="1.4074392616748810e-01" rms="4.3720021843910217e-01" purity="7.2227120399475098e-01" nType="0">
          <Node pos="l" depth="2" NCoef="0" IVar="-1" Cut="0.0000000000000000e+00" cType="1" res="3.0341548845171928e-03" rms="3.8411951065063477e-01" purity="8.1709814071655273e-01" nType="-99"/>
          <Node pos="r" depth="2" NCoef="0" IVar="-1" Cut="0.0000000000000000e+00" cType="1" res="1.2485610204748809e-04" rms="4.8868334293365479e-01" purity="5.5857348442077637e-01" nType="-99"/>
        </Node>
      </Node>
    </BinaryTree>
    <BinaryTree type="DecisionTree" boostWeight="1.0000000000000000e+00" itree="90">
      <Node pos="s" depth="0" NCoef="0" IVar="2" Cut="9.5884269475936890e-01" cType="1" res="-2.2096350789070129e-02" rms="4.6922475099563599e-01" purity="4.7302156686782837e-01" nType="0">
        <Node pos="l" depth="1" NCoef="0" IVar="1" Cut="1.1581150293350220e+00" cType="1" res="-9.5347605645656586e-02" rms="4.6393966674804688e-01" purity="3.5157895088195801e-01" nType="0">
          <Node pos="l" depth="2" NCoef="0" IVar="-1" Cut="0.0000000000000000e+00" cType="1" res="-6.4189214026555419e-04" rms="4.8226347565650940e-01" purity="4.1874599456787109e-01" nType="-99"/>
          <Node pos="r" depth="2" NCoef="0" IVar="-1" Cut="0.0000000000000000e+00" cType="1" res="-3.2626634929329157e-03" rms="4.0128025412559509e-01" purity="2.0999400317668915e-01" nType="-99"/>
        </Node>
        <Node pos="r" depth="1" NCoef="0" IVar="3" Cut="2.0304110717773438e+02" cType="1" res="1.1512852460145950e-01" rms="4.4780388474464417e-01" purity="7.0052564144134521e-01" nType="0">
          <Node pos="l" depth="2" NCoef="0" IVar="-1" Cut="0.0000000000000000e+00" cType="1" res="2.9107998125255108e-04" rms="4.7954508662223816e-01" purity="6.1220937967300415e-01" nType="-99"/>
          <Node pos="r" depth="2" NCoef="0" IVar="-1" Cut="0.0000000000000000e+00" cType="1" res="2.7778495568782091e-03" rms="4.0265226364135742e-01" purity="7.7391207218170166e-01" nType="-99"/>
        </Node>
      </Node>
    </BinaryTree>
    <BinaryTree type="DecisionTree" boostWeight="1.0000000000000000e+00" itree="91">
      <Node pos="s" depth="0" NCoef="0" IVar="2" Cut="9.5441663265228271e-01" cType="1" res="-4.2847520671784878e-03" rms="4.7046184539794922e-01" purity="4.9145320057868958e-01" nType="0">
        <Node pos="l" depth="1" NCoef="0" IVar="4" Cut="4.2832403564453125e+02" cType="1" res="-8.0240465700626373e-02" rms="4.6637582778930664e-01" purity="3.6167663335800171e-01" nType="0">
          <Node pos="l" depth="2" NCoef="0" IVar="-1" Cut="0.0000000000000000e+00" cType="1" res="-3.2925307750701904e-03" rms="4.0046843886375427e-01" purity="2.1249251067638397e-01" nType="-99"/>
          <Node pos="r" depth="2" NCoef="0" IVar="-1" Cut="0.0000000000000000e+00" cType="1" res="4.4684045133180916e-04" rms="4.8954752087593079e-01" purity="4.8912209272384644e-01" nType="-99"/>
        </Node>
        <Node pos="r" depth="1" NCoef="0" IVar="2" Cut="9.7863513231277466e-01" cType="1" res="1.1696849018335342e-01" rms="4.5114624500274658e-01" purity="6.9862431287765503e-01" nType="0">
          <Node pos="l" depth="2" NCoef="0" IVar="-1" Cut="0.0000000000000000e+00" cType="1" res="1.0590010788291693e-03" rms="4.7255876660346985e-01" purity="6.4808744192123413e-01" nType="-99"/>
          <Node pos="r" depth="2" NCoef="0" IVar="-1" Cut="0.0000000000000000e+00" cType="1" res="3.9204470813274384e-03" rms="3.1645756959915161e-01" purity="8.8145041465759277e-01" nType="-99"/>
        </Node>
      </Node>
    </BinaryTree>
    <BinaryTree type="DecisionTree" boostWeight="1.0000000000000000e+00" itree="92">
      <Node pos="s" depth="0" NCoef="0" IVar="2" Cut="9.5443552732467651e-01" cType="1" res="-2.1895945537835360e-03" rms="4.7018435597419739e-01" purity="4.9770987033843994e-01" nType="0">
        <Node pos="l" depth="1" NCoef="0" IVar="4" Cut="3.7884048461914062e+02" cType="1" res="-9.5803841948509216e-02" rms="4.6426868438720703e-01" purity="3.4371727705001831e-01" nType="0">
          <Node pos="l" depth="2" NCoef="0" IVar="-1" Cut="0.0000000000000000e+00" cType="1" res="-3.8002517540007830e-03" rms="3.8248303532600403e-01" purity="1.7998783290386200e-01" nType="-99"/>
          <Node pos="r" depth="2" NCoef="0" IVar="-1" Cut="0.0000000000000000e+00" cType="1" res="-6.2549317954108119e-04" rms="4.8147189617156982e-01" purity="4.0682202577590942e-01" nType="-99"/>
        </Node>
        <Node pos="r" depth="1" NCoef="0" IVar="6" Cut="9.6083515882492065e-01" cType="1" res="1.2658640742301941e-01" rms="4.4725719094276428e-01" purity="7.0954245328903198e-01" nType="0">
          <Node pos="l" depth="2" NCoef="0" IVar="-1" Cut="0.0000000000000000e+00" cType="1" res="2.2678258828818798e-03" rms="4.3232226371765137e-01" purity="7.4630624055862427e-01" nType="-99"/>
          <Node pos="r" depth="2" NCoef="0" IVar="-1" Cut="0.0000000000000000e+00" cType="1" res="-7.8546669101342559e-04" rms="4.8640081286430359e-01" purity="5.0418359041213989e-01" nType="-99"/>
        </Node>
      </Node>
    </BinaryTree>
    <BinaryTree type="DecisionTree" boostWeight="1.0000000000000000e+00" itree="93">
      <Node pos="s" depth="0" NCoef="0" IVar="2" Cut="9.5343106985092163e-01" cType="1" res="5.1276958547532558e-03" rms="4.7140303254127502e-01" purity="5.0623017549514771e-01" nType="0">
        <Node pos="l" depth="1" NCoef="0" IVar="4" Cut="3.7884048461914062e+02" cType="1" res="-7.5882412493228912e-02" rms="4.6952825784683228e-01" purity="3.6472576856613159e-01" nType="0">
          <Node pos="l" depth="2" NCoef="0" IVar="-1" Cut="0.0000000000000000e+00" cType="1" res="-2.9861400835216045e-03" rms="4.0852373838424683e-01" purity="2.1754311025142670e-01" nType="-99"/>
          <Node pos="r" depth="2" NCoef="0" IVar="-1" Cut="0.0000000000000000e+00" cType="1" res="-3.3238306059502065e-04" rms="4.8519194126129150e-01" purity="4.3103164434432983e-01" nType="-99"/>
        </Node>
        <Node pos="r" depth="1" NCoef="0" IVar="3" Cut="1.7634921264648438e+02" cType="1" res="1.1515397578477859e-01" rms="4.5121803879737854e-01" purity="6.9841855764389038e-01" nType="0">
          <Node pos="l" depth="2" NCoef="0" IVar="-1" Cut="0.0000000000000000e+00" cType="1" res="2.4147985095623881e-04" rms="4.8650157451629639e-01" purity="5.9864115715026855e-01" nType="-99"/>
          <Node pos="r" depth="2" NCoef="0" IVar="-1" Cut="0.0000000000000000e+00" cType="1" res="2.2730221971869469e-03" rms="4.2666062712669373e-01" purity="7.4385327100753784e-01" nType="-99"/>
        </Node>
      </Node>
    </BinaryTree>
    <BinaryTree type="DecisionTree" boostWeight="1.0000000000000000e+00" itree="94">
      <Node pos="s" depth="0" NCoef="0" IVar="2" Cut="9.3836927413940430e-01" cType="1" res="1.4274149201810360e-02" rms="4.6944776177406311e-01" purity="5.1426982879638672e-01" nType="0">
        <Node pos="l" depth="1" NCoef="0" IVar="4" Cut="3.6155639648437500e+02" cType="1" res="-1.2295220047235489e-01" rms="4.4599387049674988e-01" purity="2.9204741120338440e-01" nType="0">
          <Node pos="l" depth="2" NCoef="0" IVar="-1" Cut="0.0000000000000000e+00" cType="1" res="-3.9098132401704788e-03" rms="3.4637999534606934e-01" purity="1.4338013529777527e-01" nType="-99"/>
          <Node pos="r" depth="2" NCoef="0" IVar="-1" Cut="0.0000000000000000e+00" cType="1" res="-1.2060186127200723e-03" rms="4.6940511465072632e-01" purity="3.4624913334846497e-01" nType="-99"/>
        </Node>
        <Node pos="r" depth="1" NCoef="0" IVar="1" Cut="1.2790151834487915e+00" cType="1" res="8.1230446696281433e-02" rms="4.6603217720985413e-01" purity="6.2269788980484009e-01" nType="0">
          <Node pos="l" depth="2" NCoef="0" IVar="-1" Cut="0.0000000000000000e+00" cType="1" res="1.7841745866462588e-03" rms="4.5363441109657288e-01" purity="6.8251615762710571e-01" nType="-99"/>
          <Node pos="r" depth="2" NCoef="0" IVar="-1" Cut="0.0000000000000000e+00" cType="1" res="-1.7028849106281996e-03" rms="4.7149750590324402e-01" purity="3.6454269289970398e-01" nType="-99"/>
        </Node>
      </Node>
    </BinaryTree>
    <BinaryTree type="DecisionTree" boostWeight="1.0000000000000000e+00" itree="95">
      <Node pos="s" depth="0" NCoef="0" IVar="2" Cut="9.4629490375518799e-01" cType="1" res="3.9780642837285995e-03" rms="4.6958890557289124e-01" purity="5.0277662277221680e-01" nType="0">
        <Node pos="l" depth="1" NCoef="0" IVar="1" Cut="1.2817441225051880e+00" cType="1" res="-1.0229272395372391e-01" rms="4.5679849386215210e-01" purity="3.2413384318351746e-01" nType="0">
          <Node pos="l" depth="2" NCoef="0" IVar="-1" Cut="0.0000000000000000e+00" cType="1" res="-8.6495687719434500e-04" rms="4.7817564010620117e-01" purity="3.7990537285804749e-01" nType="-99"/>
          <Node pos="r" depth="2" NCoef="0" IVar="-1" Cut="0.0000000000000000e+00" cType="1" res="-4.5195175334811211e-03" rms="3.0883356928825378e-01" purity="1.0835214704275131e-01" nType="-99"/>
        </Node>
        <Node pos="r" depth="1" NCoef="0" IVar="2" Cut="9.7734028100967407e-01" cType="1" res="9.2680789530277252e-02" rms="4.6163746714591980e-01" purity="6.5188723802566528e-01" nType="0">
          <Node pos="l" depth="2" NCoef="0" IVar="-1" Cut="0.0000000000000000e+00" cType="1" res="6.9374090526252985e-04" rms="4.8055863380432129e-01" purity="5.9193539619445801e-01" nType="-99"/>
          <Node pos="r" depth="2" NCoef="0" IVar="-1" Cut="0.0000000000000000e+00" cType="1" res="3.4851857926696539e-03" rms="3.5627448558807373e-01" purity="8.4683740139007568e-01" nType="-99"/>
        </Node>
      </Node>
    </BinaryTree>
    <BinaryTree type="DecisionTree" boostWeight="1.0000000000000000e+00" itree="96">
      <Node pos="s" depth="0" NCoef="0" IVar="2" Cut="9.5258551836013794e-01" cType="1" res="-5.1300786435604095e-04" rms="4.6407550573348999e-01" purity="4.9649646878242493e-01" nType="0">
        <Node pos="l" depth="1" NCoef="0" IVar="4" Cut="5.5951617431640625e+02" cType="1" res="-1.0703805834054947e-01" rms="4.5603054761886597e-01" purity="3.2428556680679321e-01" nType="0">
          <Node pos="l" depth="2" NCoef="0" IVar="-1" Cut="0.0000000000000000e+00" cType="1" res="-2.4006832391023636e-03" rms="4.3191769719123840e-01" purity="2.6386892795562744e-01" nType="-99"/>
          <Node pos="r" depth="2" NCoef="0" IVar="-1" Cut="0.0000000000000000e+00" cType="1" res="6.2239589169621468e-04" rms="4.9332943558692932e-01" purity="5.0722622871398926e-01" nType="-99"/>
        </Node>
        <Node pos="r" depth="1" NCoef="0" IVar="1" Cut="1.2744629383087158e+00" cType="1" res="1.4034669101238251e-01" rms="4.3624258041381836e-01" purity="7.2421348094940186e-01" nType="0">
          <Node pos="l" depth="2" NCoef="0" IVar="-1" Cut="0.0000000000000000e+00" cType="1" res="2.5567698758095503e-03" rms="4.1512739658355713e-01" purity="7.7324700355529785e-01" nType="-99"/>
          <Node pos="r" depth="2" NCoef="0" IVar="-1" Cut="0.0000000000000000e+00" cType="1" res="-9.8608958069235086e-04" rms="4.9122875928878784e-01" purity="4.4971543550491333e-01" nType="-99"/>
        </Node>
      </Node>
    </BinaryTree>
    <BinaryTree type="DecisionTree" boostWeight="1.0000000000000000e+00" itree="97">
      <Node pos="s" depth="0" NCoef="0" IVar="2" Cut="9.4665056467056274e-01" cType="1" res="-4.4244481250643730e-03" rms="4.6833828091621399e-01" purity="4.9043598771095276e-01" nType="0">
        <Node pos="l" depth="1" NCoef="0" IVar="1" Cut="1.1474260091781616e+00" cType="1" res="-1.0080324113368988e-01" rms="4.5525506138801575e-01" purity="3.2190668582916260e-01" nType="0">
          <Node pos="l" depth="2" NCoef="0" IVar="-1" Cut="0.0000000000000000e+00" cType="1" res="-3.0956318369135261e-04" rms="4.8562416434288025e-01" purity="4.2019507288932800e-01" nType="-99"/>
          <Node pos="r" depth="2" NCoef="0" IVar="-1" Cut="0.0000000000000000e+00" cType="1" res="-3.5202177241444588e-03" rms="3.7552464008331299e-01" purity="1.7541731894016266e-01" nType="-99"/>
        </Node>
        <Node pos="r" depth="1" NCoef="0" IVar="1" Cut="1.3186705112457275e+00" cType="1" res="8.7684050202369690e-02" rms="4.6209052205085754e-01" purity="6.5149807929992676e-01" nType="0">
          <Node pos="l" depth="2" NCoef="0" IVar="-1" Cut="0.0000000000000000e+00" cType="1" res="1.6851620748639107e-03" rms="4.5242649316787720e-01" purity="6.9374477863311768e-01" nType="-99"/>
          <Node pos="r" depth="2" NCoef="0" IVar="-1" Cut="0.0000000000000000e+00" cType="1" res="-1.2107921065762639e-03" rms="4.8018264770507812e-01" purity="4.1449913382530212e-01" nType="-99"/>
        </Node>
      </Node>
    </BinaryTree>
    <BinaryTree type="DecisionTree" boostWeight="1.0000000000000000e+00" itree="98">
      <Node pos="s" depth="0" NCoef="0" IVar="1" Cut="1.3694025278091431e+00" cType="1" res="1.4258320443332195e-02" rms="4.6934789419174194e-01" purity="5.1361817121505737e-01" nType="0">
        <Node pos="l" depth="1" NCoef="0" IVar="2" Cut="9.1799789667129517e-01" cType="1" res="5.4282382130622864e-02" rms="4.7196909785270691e-01" purity="5.7040244340896606e-01" nType="0">
          <Node pos="l" depth="2" NCoef="0" IVar="-1" Cut="0.0000000000000000e+00" cType="1" res="-3.1244137790054083e-03" rms="3.9998623728752136e-01" purity="2.0893941819667816e-01" nType="-99"/>
          <Node pos="r" depth="2" NCoef="0" IVar="-1" Cut="0.0000000000000000e+00" cType="1" res="1.1740841437131166e-03" rms="4.7077977657318115e-01" purity="6.0880118608474731e-01" nType="-99"/>
        </Node>
        <Node pos="r" depth="1" NCoef="0" IVar="2" Cut="9.4211173057556152e-01" cType="1" res="-1.7033956944942474e-01" rms="4.0919753909111023e-01" purity="2.5171929597854614e-01" nType="0">
          <Node pos="l" depth="2" NCoef="0" IVar="-1" Cut="0.0000000000000000e+00" cType="1" res="-5.0257681868970394e-03" rms="2.6756241917610168e-01" purity="7.9436361789703369e-02" nType="-99"/>
          <Node pos="r" depth="2" NCoef="0" IVar="-1" Cut="0.0000000000000000e+00" cType="1" res="-6.5138016361743212e-04" rms="4.8324495553970337e-01" purity="4.2755776643753052e-01" nType="-99"/>
        </Node>
      </Node>
    </BinaryTree>
    <BinaryTree type="DecisionTree" boostWeight="1.0000000000000000e+00" itree="99">
      <Node pos="s" depth="0" NCoef="0" IVar="2" Cut="9.4403862953186035e-01" cType="1" res="1.1163388378918171e-02" rms="4.6919676661491394e-01" purity="5.0824952125549316e-01" nType="0">
        <Node pos="l" depth="1" NCoef="0" IVar="4" Cut="6.7162115478515625e+02" cType="1" res="-8.8078178465366364e-02" rms="4.5732679963111877e-01" purity="3.3342698216438293e-01" nType="0">
          <Node pos="l" depth="2" NCoef="0" IVar="-1" Cut="0.0000000000000000e+00" cType="1" res="-1.9918002653867006e-03" rms="4.4129630923271179e-01" purity="2.8358760476112366e-01" nType="-99"/>
          <Node pos="r" depth="2" NCoef="0" IVar="-1" Cut="0.0000000000000000e+00" cType="1" res="2.9044905677437782e-03" rms="4.5546168088912964e-01" purity="6.7695373296737671e-01" nType="-99"/>
        </Node>
        <Node pos="r" depth="1" NCoef="0" IVar="1" Cut="1.1295425891876221e+00" cType="1" res="8.3212681114673615e-02" rms="4.6453052759170532e-01" purity="6.3517045974731445e-01" nType="0">
          <Node pos="l" depth="2" NCoef="0" IVar="-1" Cut="0.0000000000000000e+00" cType="1" res="1.9098320044577122e-03" rms="4.4440403580665588e-01" purity="7.0681905746459961e-01" nType="-99"/>
          <Node pos="r" depth="2" NCoef="0" IVar="-1" Cut="0.0000000000000000e+00" cType="1" res="-9.3306001508608460e-04" rms="4.8751682043075562e-01" purity="4.3770819902420044e-01" nType="-99"/>
        </Node>
      </Node>
    </BinaryTree>
    <BinaryTree type="DecisionTree" boostWeight="1.0000000000000000e+00" itree="100">
      <Node pos="s" depth="0" NCoef="0" IVar="2" Cut="9.4268107414245605e-01" cType="1" res="1.7693033441901207e-02" rms="4.6667718887329102e-01" purity="5.1912415027618408e-01" nType="0">
        <Node pos="l" depth="1" NCoef="0" IVar="4" Cut="5.6031378173828125e+02" cType="1" res="-1.0754686594009399e-01" rms="4.4828027486801147e-01" purity="3.0882123112678528e-01" nType="0">
          <Node pos="l" depth="2" NCoef="0" IVar="-1" Cut="0.0000000000000000e+00" cType="1" res="-2.6653709355741739e-03" rms="4.1582027077674866e-01" purity="2.3516291379928589e-01" nType="-99"/>
          <Node pos="r" depth="2" NCoef="0" IVar="-1" Cut="0.0000000000000000e+00" cType="1" res="1.3880574842914939e-03" rms="4.8932009935379028e-01" purity="5.4919075965881348e-01" nType="-99"/>
        </Node>
        <Node pos="r" depth="1" NCoef="0" IVar="2" Cut="9.6637809276580811e-01" cType="1" res="9.7298003733158112e-02" rms="4.6062991023063660e-01" purity="6.5279692411422729e-01" nType="0">
          <Node pos="l" depth="2" NCoef="0" IVar="-1" Cut="0.0000000000000000e+00" cType="1" res="6.4035749528557062e-04" rms="4.8676896095275879e-01" purity="5.6809073686599731e-01" nType="-99"/>
          <Node pos="r" depth="2" NCoef="0" IVar="-1" Cut="0.0000000000000000e+00" cType="1" res="2.5993196759372950e-03" rms="4.0148210525512695e-01" purity="7.8750365972518921e-01" nType="-99"/>
        </Node>
      </Node>
    </BinaryTree>
    <BinaryTree type="DecisionTree" boostWeight="1.0000000000000000e+00" itree="101">
      <Node pos="s" depth="0" NCoef="0" IVar="0" Cut="2.1695343017578125e+02" cType="1" res="2.3997869342565536e-02" rms="4.7232046723365784e-01" purity="5.2321308851242065e-01" nType="0">
        <Node pos="l" depth="1" NCoef="0" IVar="-1" Cut="0.0000000000000000e+00" cType="1" res="-3.1916671432554722e-03" rms="3.8957655429840088e-01" purity="2.4167153239250183e-01" nType="-99"/>
        <Node pos="r" depth="1" NCoef="0" IVar="2" Cut="9.2365431785583496e-01" cType="1" res="4.7776617109775543e-02" rms="4.7386217117309570e-01" purity="5.5259388685226440e-01" nType="0">
          <Node pos="l" depth="2" NCoef="0" IVar="-1" Cut="0.0000000000000000e+00" cType="1" res="-1.6741224098950624e-03" rms="4.4907090067863464e-01" purity="2.9996684193611145e-01" nType="-99"/>
          <Node pos="r" depth="2" NCoef="0" IVar="-1" Cut="0.0000000000000000e+00" cType="1" res="1.1211492819711566e-03" rms="4.7259381413459778e-01" purity="5.9969496726989746e-01" nType="-99"/>
        </Node>
      </Node>
    </BinaryTree>
    <BinaryTree type="DecisionTree" boostWeight="1.0000000000000000e+00" itree="102">
      <Node pos="s" depth="0" NCoef="0" IVar="2" Cut="9.4158875942230225e-01" cType="1" res="1.1204815469682217e-02" rms="4.6730947494506836e-01" purity="5.0950169563293457e-01" nType="0">
        <Node pos="l" depth="1" NCoef="0" IVar="2" Cut="9.0992438793182373e-01" cType="1" res="-1.1857550591230392e-01" rms="4.4618713855743408e-01" purity="2.9570966958999634e-01" nType="0">
          <Node pos="l" depth="2" NCoef="0" IVar="-1" Cut="0.0000000000000000e+00" cType="1" res="-4.6140206977725029e-03" rms="2.9569390416145325e-01" purity="1.0784992575645447e-01" nType="-99"/>
          <Node pos="r" depth="2" NCoef="0" IVar="-1" Cut="0.0000000000000000e+00" cType="1" res="-1.2348976451903582e-03" rms="4.6389847993850708e-01" purity="3.3582732081413269e-01" nType="-99"/>
        </Node>
        <Node pos="r" depth="1" NCoef="0" IVar="2" Cut="9.7568023204803467e-01" cType="1" res="9.1150388121604919e-02" rms="4.6205785870552063e-01" purity="6.4119905233383179e-01" nType="0">
          <Node pos="l" depth="2" NCoef="0" IVar="-1" Cut="0.0000000000000000e+00" cType="1" res="6.7868607584387064e-04" rms="4.8283025622367859e-01" purity="5.7771295309066772e-01" nType="-99"/>
          <Node pos="r" depth="2" NCoef="0" IVar="-1" Cut="0.0000000000000000e+00" cType="1" res="3.5054106265306473e-03" rms="3.4112226963043213e-01" purity="8.5867339372634888e-01" nType="-99"/>
        </Node>
      </Node>
    </BinaryTree>
    <BinaryTree type="DecisionTree" boostWeight="1.0000000000000000e+00" itree="103">
      <Node pos="s" depth="0" NCoef="0" IVar="2" Cut="9.5343106985092163e-01" cType="1" res="-7.5379217742010951e-04" rms="4.6749472618103027e-01" purity="4.9763679504394531e-01" nType="0">
        <Node pos="l" depth="1" NCoef="0" IVar="5" Cut="8.8529579162597656e+01" cType="1" res="-8.0980606377124786e-02" rms="4.6523252129554749e-01" purity="3.5117563605308533e-01" nType="0">
          <Node pos="l" depth="2" NCoef="0" IVar="-1" Cut="0.0000000000000000e+00" cType="1" res="-3.5125459544360638e-03" rms="3.7689590454101562e-01" purity="1.8226435780525208e-01" nType="-99"/>
          <Node pos="r" depth="2" NCoef="0" IVar="-1" Cut="0.0000000000000000e+00" cType="1" res="-6.5330346114933491e-04" rms="4.7952646017074585e-01" purity="3.9674073457717896e-01" nType="-99"/>
        </Node>
        <Node pos="r" depth="1" NCoef="0" IVar="1" Cut="1.3034954071044922e+00" cType="1" res="1.0893842577934265e-01" rms="4.4788801670074463e-01" purity="6.9788974523544312e-01" nType="0">
          <Node pos="l" depth="2" NCoef="0" IVar="-1" Cut="0.0000000000000000e+00" cType="1" res="2.1157108712941408e-03" rms="4.2991909384727478e-01" purity="7.4750715494155884e-01" nType="-99"/>
          <Node pos="r" depth="2" NCoef="0" IVar="-1" Cut="0.0000000000000000e+00" cType="1" res="-2.1507171913981438e-03" rms="4.8008829355239868e-01" purity="3.8333445787429810e-01" nType="-99"/>
        </Node>
      </Node>
    </BinaryTree>
    <BinaryTree type="DecisionTree" boostWeight="1.0000000000000000e+00" itree="104">
      <Node pos="s" depth="0" NCoef="0" IVar="2" Cut="9.3698811531066895e-01" cType="1" res="1.3269489631056786e-02" rms="4.6639698743820190e-01" purity="5.1455873250961304e-01" nType="0">
        <Node pos="l" depth="1" NCoef="0" IVar="4" Cut="5.7034185791015625e+02" cType="1" res="-1.3553409278392792e-01" rms="4.3456736207008362e-01" purity="2.7327826619148254e-01" nType="0">
          <Node pos="l" depth="2" NCoef="0" IVar="-1" Cut="0.0000000000000000e+00" cType="1" res="-3.0054927337914705e-03" rms="3.9902022480964661e-01" purity="2.0579594373703003e-01" nType="-99"/>
          <Node pos="r" depth="2" NCoef="0" IVar="-1" Cut="0.0000000000000000e+00" cType="1" res="1.1533481301739812e-03" rms="4.9350789189338684e-01" purity="5.2771937847137451e-01" nType="-99"/>
        </Node>
        <Node pos="r" depth="1" NCoef="0" IVar="4" Cut="4.1619625854492188e+02" cType="1" res="7.8433975577354431e-02" rms="4.6491020917892456e-01" purity="6.2022095918655396e-01" nType="0">
          <Node pos="l" depth="2" NCoef="0" IVar="-1" Cut="0.0000000000000000e+00" cType="1" res="-5.5842433357611299e-04" rms="4.7458156943321228e-01" purity="4.7726109623908997e-01" nType="-99"/>
          <Node pos="r" depth="2" NCoef="0" IVar="-1" Cut="0.0000000000000000e+00" cType="1" res="2.0663056056946516e-03" rms="4.4557222723960876e-01" purity="7.0353031158447266e-01" nType="-99"/>
        </Node>
      </Node>
    </BinaryTree>
    <BinaryTree type="DecisionTree" boostWeight="1.0000000000000000e+00" itree="105">
      <Node pos="s" depth="0" NCoef="0" IVar="2" Cut="9.5294773578643799e-01" cType="1" res="2.0989966287743300e-05" rms="4.6924602985382080e-01" purity="4.9819052219390869e-01" nType="0">
        <Node pos="l" depth="1" NCoef="0" IVar="2" Cut="9.2001193761825562e-01" cType="1" res="-7.1893215179443359e-02" rms="4.6700718998908997e-01" purity="3.5882571339607239e-01" nType="0">
          <Node pos="l" depth="2" NCoef="0" IVar="-1" Cut="0.0000000000000000e+00" cType="1" res="-3.5293209366500378e-03" rms="3.7589609622955322e-01" purity="1.7563061416149139e-01" nType="-99"/>
          <Node pos="r" depth="2" NCoef="0" IVar="-1" Cut="0.0000000000000000e+00" cType="1" res="-4.7987300786189735e-04" rms="4.8026633262634277e-01" purity="4.0688216686248779e-01" nType="-99"/>
        </Node>
        <Node pos="r" depth="1" NCoef="0" IVar="2" Cut="9.7832626104354858e-01" cType="1" res="9.5944665372371674e-02" rms="4.5484957098960876e-01" purity="6.8408399820327759e-01" nType="0">
          <Node pos="l" depth="2" NCoef="0" IVar="-1" Cut="0.0000000000000000e+00" cType="1" res="7.9356541391462088e-04" rms="4.7463622689247131e-01" purity="6.3371282815933228e-01" nType="-99"/>
          <Node pos="r" depth="2" NCoef="0" IVar="-1" Cut="0.0000000000000000e+00" cType="1" res="3.3920751884579659e-03" rms="3.4453168511390686e-01" purity="8.5603481531143188e-01" nType="-99"/>
        </Node>
      </Node>
    </BinaryTree>
    <BinaryTree type="DecisionTree" boostWeight="1.0000000000000000e+00" itree="106">
      <Node pos="s" depth="0" NCoef="0" IVar="2" Cut="9.5952153205871582e-01" cType="1" res="8.7146535515785217e-03" rms="4.6935781836509705e-01" purity="5.0463724136352539e-01" nType="0">
        <Node pos="l" depth="1" NCoef="0" IVar="1" Cut="6.3993525505065918e-01" cType="1" res="-4.8111796379089355e-02" rms="4.7203001379966736e-01" purity="3.9956104755401611e-01" nType="0">
          <Node pos="l" depth="2" NCoef="0" IVar="-1" Cut="0.0000000000000000e+00" cType="1" res="1.7997117247432470e-03" rms="4.6979534626007080e-01" purity="6.0952478647232056e-01" nType="-99"/>
          <Node pos="r" depth="2" NCoef="0" IVar="-1" Cut="0.0000000000000000e+00" cType="1" res="-1.4751673443242908e-03" rms="4.6086326241493225e-01" purity="3.4132012724876404e-01" nType="-99"/>
        </Node>
        <Node pos="r" depth="1" NCoef="0" IVar="2" Cut="9.7123831510543823e-01" cType="1" res="1.2964242696762085e-01" rms="4.3982735276222229e-01" purity="7.2824162244796753e-01" nType="0">
          <Node pos="l" depth="2" NCoef="0" IVar="-1" Cut="0.0000000000000000e+00" cType="1" res="9.0168154565617442e-04" rms="4.7434639930725098e-01" purity="6.4745873212814331e-01" nType="-99"/>
          <Node pos="r" depth="2" NCoef="0" IVar="-1" Cut="0.0000000000000000e+00" cType="1" res="2.7940429281443357e-03" rms="3.9447724819183350e-01" purity="8.0391532182693481e-01" nType="-99"/>
        </Node>
      </Node>
    </BinaryTree>
    <BinaryTree type="DecisionTree" boostWeight="1.0000000000000000e+00" itree="107">
      <Node pos="s" depth="0" NCoef="0" IVar="2" Cut="9.5217913389205933e-01" cType="1" res="6.0618678107857704e-03" rms="4.6409770846366882e-01" purity="5.0199854373931885e-01" nType="0">
        <Node pos="l" depth="1" NCoef="0" IVar="0" Cut="5.2500695800781250e+02" cType="1" res="-8.5312999784946442e-02" rms="4.6177506446838379e-01" purity="3.4272202849388123e-01" nType="0">
          <Node pos="l" depth="2" NCoef="0" IVar="-1" Cut="0.0000000000000000e+00" cType="1" res="-1.6859191237017512e-03" rms="4.5216569304466248e-01" purity="3.1216457486152649e-01" nType="-99"/>
          <Node pos="r" depth="2" NCoef="0" IVar="-1" Cut="0.0000000000000000e+00" cType="1" res="1.8664629897102714e-03" rms="4.8451599478721619e-01" purity="5.9840530157089233e-01" nType="-99"/>
        </Node>
        <Node pos="r" depth="1" NCoef="0" IVar="2" Cut="9.6610796451568604e-01" cType="1" res="1.3150632381439209e-01" rms="4.3719586730003357e-01" purity="7.2066199779510498e-01" nType="0">
          <Node pos="l" depth="2" NCoef="0" IVar="-1" Cut="0.0000000000000000e+00" cType="1" res="7.2349520632997155e-04" rms="4.8233032226562500e-01" purity="6.0963761806488037e-01" nType="-99"/>
          <Node pos="r" depth="2" NCoef="0" IVar="-1" Cut="0.0000000000000000e+00" cType="1" res="2.7843066491186619e-03" rms="3.8760191202163696e-01" purity="8.0564302206039429e-01" nType="-99"/>
        </Node>
      </Node>
    </BinaryTree>
    <BinaryTree type="DecisionTree" boostWeight="1.0000000000000000e+00" itree="108">
      <Node pos="s" depth="0" NCoef="0" IVar="2" Cut="9.6589064598083496e-01" cType="1" res="1.1074079200625420e-02" rms="4.6876904368400574e-01" purity="5.0802373886108398e-01" nType="0">
        <Node pos="l" depth="1" NCoef="0" IVar="1" Cut="1.1243695020675659e+00" cType="1" res="-3.5933151841163635e-02" rms="4.7548127174377441e-01" purity="4.2532834410667419e-01" nType="0">
          <Node pos="l" depth="2" NCoef="0" IVar="-1" Cut="0.0000000000000000e+00" cType="1" res="2.0037028298247606e-04" rms="4.8673719167709351e-01" purity="4.9493661522865295e-01" nType="-99"/>
          <Node pos="r" depth="2" NCoef="0" IVar="-1" Cut="0.0000000000000000e+00" cType="1" res="-2.1930867806077003e-03" rms="4.3356710672378540e-01" purity="2.8156346082687378e-01" nType="-99"/>
        </Node>
        <Node pos="r" depth="1" NCoef="0" IVar="5" Cut="9.4744773864746094e+01" cType="1" res="1.6091315448284149e-01" rms="4.1236662864685059e-01" purity="7.7162158489227295e-01" nType="0">
          <Node pos="l" depth="2" NCoef="0" IVar="-1" Cut="0.0000000000000000e+00" cType="1" res="3.7819948047399521e-03" rms="3.2729920744895935e-01" purity="8.7088143825531006e-01" nType="-99"/>
          <Node pos="r" depth="2" NCoef="0" IVar="-1" Cut="0.0000000000000000e+00" cType="1" res="1.8097012070938945e-03" rms="4.3127173185348511e-01" purity="7.3755621910095215e-01" nType="-99"/>
        </Node>
      </Node>
    </BinaryTree>
    <BinaryTree type="DecisionTree" boostWeight="1.0000000000000000e+00" itree="109">
      <Node pos="s" depth="0" NCoef="0" IVar="2" Cut="9.4064962863922119e-01" cType="1" res="7.4074030853807926e-03" rms="4.6470984816551208e-01" purity="5.0688689947128296e-01" nType="0">
        <Node pos="l" depth="1" NCoef="0" IVar="4" Cut="5.6592620849609375e+02" cType="1" res="-1.2064296007156372e-01" rms="4.4243505597114563e-01" purity="2.9245391488075256e-01" nType="0">
          <Node pos="l" depth="2" NCoef="0" IVar="-1" Cut="0.0000000000000000e+00" cType="1" res="-3.0076412949711084e-03" rms="3.9876899123191833e-01" purity="2.0824427902698517e-01" nType="-99"/>
          <Node pos="r" depth="2" NCoef="0" IVar="-1" Cut="0.0000000000000000e+00" cType="1" res="1.1528162285685539e-03" rms="4.9583891034126282e-01" purity="5.3020721673965454e-01" nType="-99"/>
        </Node>
        <Node pos="r" depth="1" NCoef="0" IVar="1" Cut="1.3091956377029419e+00" cType="1" res="8.4509178996086121e-02" rms="4.6076500415802002e-01" purity="6.3600152730941772e-01" nType="0">
          <Node pos="l" depth="2" NCoef="0" IVar="-1" Cut="0.0000000000000000e+00" cType="1" res="1.7013672040775418e-03" rms="4.5039349794387817e-01" purity="6.8380135297775269e-01" nType="-99"/>
          <Node pos="r" depth="2" NCoef="0" IVar="-1" Cut="0.0000000000000000e+00" cType="1" res="-1.3893203577026725e-03" rms="4.7437724471092224e-01" purity="3.8406804203987122e-01" nType="-99"/>
        </Node>
      </Node>
    </BinaryTree>
    <BinaryTree type="DecisionTree" boostWeight="1.0000000000000000e+00" itree="110">
      <Node pos="s" depth="0" NCoef="0" IVar="2" Cut="9.5294773578643799e-01" cType="1" res="4.1529675945639610e-03" rms="4.6721667051315308e-01" purity="5.0255352258682251e-01" nType="0">
        <Node pos="l" depth="1" NCoef="0" IVar="0" Cut="5.5044598388671875e+02" cType="1" res="-7.1085609495639801e-02" rms="4.6706393361091614e-01" purity="3.5651013255119324e-01" nType="0">
          <Node pos="l" depth="2" NCoef="0" IVar="-1" Cut="0.0000000000000000e+00" cType="1" res="-1.5257118502631783e-03" rms="4.5765292644500732e-01" purity="3.2150864601135254e-01" nType="-99"/>
          <Node pos="r" depth="2" NCoef="0" IVar="-1" Cut="0.0000000000000000e+00" cType="1" res="2.4061014410108328e-03" rms="4.7374460101127625e-01" purity="6.4600485563278198e-01" nType="-99"/>
        </Node>
        <Node pos="r" depth="1" NCoef="0" IVar="1" Cut="1.3261780738830566e+00" cType="1" res="1.0565066337585449e-01" rms="4.4782316684722900e-01" purity="6.9956767559051514e-01" nType="0">
          <Node pos="l" depth="2" NCoef="0" IVar="-1" Cut="0.0000000000000000e+00" cType="1" res="1.9131381995975971e-03" rms="4.3490007519721985e-01" purity="7.3764538764953613e-01" nType="-99"/>
          <Node pos="r" depth="2" NCoef="0" IVar="-1" Cut="0.0000000000000000e+00" cType="1" res="-1.1272475821897388e-03" rms="4.9168658256530762e-01" purity="4.3760064244270325e-01" nType="-99"/>
        </Node>
      </Node>
    </BinaryTree>
    <BinaryTree type="DecisionTree" boostWeight="1.0000000000000000e+00" itree="111">
      <Node pos="s" depth="0" NCoef="0" IVar="2" Cut="9.5449090003967285e-01" cType="1" res="-4.7405846416950226e-03" rms="4.6917435526847839e-01" purity="4.9067965149879456e-01" nType="0">
        <Node pos="l" depth="1" NCoef="0" IVar="1" Cut="1.2997380495071411e+00" cType="1" res="-6.6326692700386047e-02" rms="4.6649453043937683e-01" purity="3.6508116126060486e-01" nType="0">
          <Node pos="l" depth="2" NCoef="0" IVar="-1" Cut="0.0000000000000000e+00" cType="1" res="-2.8779430431313813e-04" rms="4.8414835333824158e-01" purity="4.2520081996917725e-01" nType="-99"/>
          <Node pos="r" depth="2" NCoef="0" IVar="-1" Cut="0.0000000000000000e+00" cType="1" res="-4.0937438607215881e-03" rms="3.4218409657478333e-01" purity="1.4159190654754639e-01" nType="-99"/>
        </Node>
        <Node pos="r" depth="1" NCoef="0" IVar="2" Cut="9.7870105504989624e-01" cType="1" res="8.9490927755832672e-02" rms="4.5746940374374390e-01" purity="6.8285501003265381e-01" nType="0">
          <Node pos="l" depth="2" NCoef="0" IVar="-1" Cut="0.0000000000000000e+00" cType="1" res="8.3272415213286877e-04" rms="4.7352233529090881e-01" purity="6.4199393987655640e-01" nType="-99"/>
          <Node pos="r" depth="2" NCoef="0" IVar="-1" Cut="0.0000000000000000e+00" cType="1" res="3.4133289009332657e-03" rms="3.4513086080551147e-01" purity="8.6023122072219849e-01" nType="-99"/>
        </Node>
      </Node>
    </BinaryTree>
    <BinaryTree type="DecisionTree" boostWeight="1.0000000000000000e+00" itree="112">
      <Node pos="s" depth="0" NCoef="0" IVar="2" Cut="9.5463919639587402e-01" cType="1" res="1.7750605940818787e-02" rms="4.6922162175178528e-01" purity="5.1184022426605225e-01" nType="0">
        <Node pos="l" depth="1" NCoef="0" IVar="1" Cut="1.1903741359710693e+00" cType="1" res="-4.4230457395315170e-02" rms="4.7377786040306091e-01" purity="3.8506484031677246e-01" nType="0">
          <Node pos="l" depth="2" NCoef="0" IVar="-1" Cut="0.0000000000000000e+00" cType="1" res="7.4822506576310843e-05" rms="4.8941487073898315e-01" purity="4.5235863327980042e-01" nType="-99"/>
          <Node pos="r" depth="2" NCoef="0" IVar="-1" Cut="0.0000000000000000e+00" cType="1" res="-2.6402785442769527e-03" rms="4.1097971796989441e-01" purity="2.2465057671070099e-01" nType="-99"/>
        </Node>
        <Node pos="r" depth="1" NCoef="0" IVar="6" Cut="8.8238579034805298e-01" cType="1" res="1.1706285178661346e-01" rms="4.4414660334587097e-01" purity="7.1497231721878052e-01" nType="0">
          <Node pos="l" depth="2" NCoef="0" IVar="-1" Cut="0.0000000000000000e+00" cType="1" res="2.0914978813380003e-03" rms="4.2441228032112122e-01" purity="7.5329464673995972e-01" nType="-99"/>
          <Node pos="r" depth="2" NCoef="0" IVar="-1" Cut="0.0000000000000000e+00" cType="1" res="3.3515214454382658e-04" rms="4.9123963713645935e-01" purity="5.9038937091827393e-01" nType="-99"/>
        </Node>
      </Node>
    </BinaryTree>
    <BinaryTree type="DecisionTree" boostWeight="1.0000000000000000e+00" itree="113">
      <Node pos="s" depth="0" NCoef="0" IVar="2" Cut="9.7049003839492798e-01" cType="1" res="6.2872683629393578e-03" rms="4.6545806527137756e-01" purity="5.0456440448760986e-01" nType="0">
        <Node pos="l" depth="1" NCoef="0" IVar="2" Cut="9.2018407583236694e-01" cType="1" res="-3.5844102501869202e-02" rms="4.7283831238746643e-01" purity="4.3358311057090759e-01" nType="0">
          <Node pos="l" depth="2" NCoef="0" IVar="-1" Cut="0.0000000000000000e+00" cType="1" res="-3.4207222051918507e-03" rms="3.7134444713592529e-01" purity="1.7632129788398743e-01" nType="-99"/>
          <Node pos="r" depth="2" NCoef="0" IVar="-1" Cut="0.0000000000000000e+00" cType="1" res="2.3900799988041399e-06" rms="4.8235920071601868e-01" purity="4.8446476459503174e-01" nType="-99"/>
        </Node>
        <Node pos="r" depth="1" NCoef="0" IVar="6" Cut="7.0317268371582031e-01" cType="1" res="1.8778407573699951e-01" rms="3.8240292668342590e-01" purity="8.1034314632415771e-01" nType="0">
          <Node pos="l" depth="2" NCoef="0" IVar="-1" Cut="0.0000000000000000e+00" cType="1" res="3.8006973918527365e-03" rms="3.0312260985374451e-01" purity="8.9509654045104980e-01" nType="-99"/>
          <Node pos="r" depth="2" NCoef="0" IVar="-1" Cut="0.0000000000000000e+00" cType="1" res="1.3764030300080776e-03" rms="4.5131763815879822e-01" purity="6.9551110267639160e-01" nType="-99"/>
        </Node>
      </Node>
    </BinaryTree>
    <BinaryTree type="DecisionTree" boostWeight="1.0000000000000000e+00" itree="114">
      <Node pos="s" depth="0" NCoef="0" IVar="2" Cut="9.4273155927658081e-01" cType="1" res="2.6771009434014559e-03" rms="4.6566024422645569e-01" purity="4.9878624081611633e-01" nType="0">
        <Node pos="l" depth="1" NCoef="0" IVar="4" Cut="5.8162158203125000e+02" cType="1" res="-1.0161895304918289e-01" rms="4.4690740108489990e-01" purity="3.0760383605957031e-01" nType="0">
          <Node pos="l" depth="2" NCoef="0" IVar="-1" Cut="0.0000000000000000e+00" cType="1" res="-2.3472846951335669e-03" rms="4.2043671011924744e-01" purity="2.4509444832801819e-01" nType="-99"/>
          <Node pos="r" depth="2" NCoef="0" IVar="-1" Cut="0.0000000000000000e+00" cType="1" res="1.6583648975938559e-03" rms="4.8899811506271362e-01" purity="5.6760525703430176e-01" nType="-99"/>
        </Node>
        <Node pos="r" depth="1" NCoef="0" IVar="1" Cut="9.3956148624420166e-01" cType="1" res="7.6457269489765167e-02" rms="4.6455034613609314e-01" purity="6.3403069972991943e-01" nType="0">
          <Node pos="l" depth="2" NCoef="0" IVar="-1" Cut="0.0000000000000000e+00" cType="1" res="2.1556199062615633e-03" rms="4.3326607346534729e-01" purity="7.4117821455001831e-01" nType="-99"/>
          <Node pos="r" depth="2" NCoef="0" IVar="-1" Cut="0.0000000000000000e+00" cType="1" res="-2.9563574935309589e-04" rms="4.8445811867713928e-01" purity="4.9878361821174622e-01" nType="-99"/>
        </Node>
      </Node>
    </BinaryTree>
    <BinaryTree type="DecisionTree" boostWeight="1.0000000000000000e+00" itree="115">
      <Node pos="s" depth="0" NCoef="0" IVar="2" Cut="9.4650262594223022e-01" cType="1" res="1.9127927720546722e-02" rms="4.6614676713943481e-01" purity="5.2145451307296753e-01" nType="0">
        <Node pos="l" depth="1" NCoef="0" IVar="3" Cut="1.7528332519531250e+02" cType="1" res="-8.0349154770374298e-02" rms="4.5804566144943237e-01" purity="3.3706140518188477e-01" nType="0">
          <Node pos="l" depth="2" NCoef="0" IVar="-1" Cut="0.0000000000000000e+00" cType="1" res="-3.1136006582528353e-03" rms="4.0533369779586792e-01" purity="2.1130135655403137e-01" nType="-99"/>
          <Node pos="r" depth="2" NCoef="0" IVar="-1" Cut="0.0000000000000000e+00" cType="1" res="-2.9650158830918372e-04" rms="4.7094526886940002e-01" purity="4.0053400397300720e-01" nType="-99"/>
        </Node>
        <Node pos="r" depth="1" NCoef="0" IVar="2" Cut="9.7539144754409790e-01" cType="1" res="9.8109133541584015e-02" rms="4.5732080936431885e-01" purity="6.6785597801208496e-01" nType="0">
          <Node pos="l" depth="2" NCoef="0" IVar="-1" Cut="0.0000000000000000e+00" cType="1" res="9.9703273735940456e-04" rms="4.7343143820762634e-01" purity="6.2363451719284058e-01" nType="-99"/>
          <Node pos="r" depth="2" NCoef="0" IVar="-1" Cut="0.0000000000000000e+00" cType="1" res="2.9890874866396189e-03" rms="3.7163943052291870e-01" purity="8.3263224363327026e-01" nType="-99"/>
        </Node>
      </Node>
    </BinaryTree>
    <BinaryTree type="DecisionTree" boostWeight="1.0000000000000000e+00" itree="116">
      <Node pos="s" depth="0" NCoef="0" IVar="2" Cut="9.6371179819107056e-01" cType="1" res="-2.2085350938141346e-03" rms="4.6470612287521362e-01" purity="4.9445390701293945e-01" nType="0">
        <Node pos="l" depth="1" NCoef="0" IVar="1" Cut="1.6146581172943115e+00" cType="1" res="-5.6091580539941788e-02" rms="4.6927452087402344e-01" purity="3.9548495411872864e-01" nType="0">
          <Node pos="l" depth="2" NCoef="0" IVar="-1" Cut="0.0000000000000000e+00" cType="1" res="-4.9517099978402257e-04" rms="4.7659835219383240e-01" purity="4.2348891496658325e-01" nType="-99"/>
          <Node pos="r" depth="2" NCoef="0" IVar="-1" Cut="0.0000000000000000e+00" cType="1" res="-5.4370621219277382e-03" rms="2.5614416599273682e-01" purity="7.3272794485092163e-02" nType="-99"/>
        </Node>
        <Node pos="r" depth="1" NCoef="0" IVar="1" Cut="1.0463144779205322e+00" cType="1" res="1.4047141373157501e-01" rms="4.2024740576744080e-01" purity="7.5651919841766357e-01" nType="0">
          <Node pos="l" depth="2" NCoef="0" IVar="-1" Cut="0.0000000000000000e+00" cType="1" res="2.7319602668285370e-03" rms="3.8021951913833618e-01" purity="8.2119649648666382e-01" nType="-99"/>
          <Node pos="r" depth="2" NCoef="0" IVar="-1" Cut="0.0000000000000000e+00" cType="1" res="4.4059156789444387e-04" rms="4.8693135380744934e-01" purity="5.9945362806320190e-01" nType="-99"/>
        </Node>
      </Node>
    </BinaryTree>
    <BinaryTree type="DecisionTree" boostWeight="1.0000000000000000e+00" itree="117">
      <Node pos="s" depth="0" NCoef="0" IVar="2" Cut="9.6375888586044312e-01" cType="1" res="1.0120305232703686e-02" rms="4.6240708231925964e-01" purity="5.1138359308242798e-01" nType="0">
        <Node pos="l" depth="1" NCoef="0" IVar="1" Cut="1.2304189205169678e+00" cType="1" res="-5.6177224963903427e-02" rms="4.6799471974372864e-01" purity="3.9933264255523682e-01" nType="0">
          <Node pos="l" depth="2" NCoef="0" IVar="-1" Cut="0.0000000000000000e+00" cType="1" res="-7.5004783866461366e-05" rms="4.8350304365158081e-01" purity="4.7147458791732788e-01" nType="-99"/>
          <Node pos="r" depth="2" NCoef="0" IVar="-1" Cut="0.0000000000000000e+00" cType="1" res="-3.4882165491580963e-03" rms="3.7770536541938782e-01" purity="1.8112722039222717e-01" nType="-99"/>
        </Node>
        <Node pos="r" depth="1" NCoef="0" IVar="6" Cut="6.7379915714263916e-01" cType="1" res="1.7471864819526672e-01" rms="4.0361881256103516e-01" purity="7.8957509994506836e-01" nType="0">
          <Node pos="l" depth="2" NCoef="0" IVar="-1" Cut="0.0000000000000000e+00" cType="1" res="1.8804284045472741e-03" rms="4.2336297035217285e-01" purity="7.5497323274612427e-01" nType="-99"/>
          <Node pos="r" depth="2" NCoef="0" IVar="-1" Cut="0.0000000000000000e+00" cType="1" res="3.3366014249622822e-03" rms="3.6704069375991821e-01" purity="8.3469563722610474e-01" nType="-99"/>
        </Node>
      </Node>
    </BinaryTree>
    <BinaryTree type="DecisionTree" boostWeight="1.0000000000000000e+00" itree="118">
      <Node pos="s" depth="0" NCoef="0" IVar="2" Cut="9.5196568965911865e-01" cType="1" res="4.9829618073999882e-03" rms="4.6421343088150024e-01" purity="5.0115126371383667e-01" nType="0">
        <Node pos="l" depth="1" NCoef="0" IVar="2" Cut="9.0760922431945801e-01" cType="1" res="-9.5284551382064819e-02" rms="4.5782095193862915e-01" purity="3.2464563846588135e-01" nType="0">
          <Node pos="l" depth="2" NCoef="0" IVar="-1" Cut="0.0000000000000000e+00" cType="1" res="-5.5552660487592220e-03" rms="2.0760233700275421e-01" purity="4.7788128256797791e-02" nType="-99"/>
          <Node pos="r" depth="2" NCoef="0" IVar="-1" Cut="0.0000000000000000e+00" cType="1" res="-1.0352779645472765e-03" rms="4.6995291113853455e-01" purity="3.5491624474525452e-01" nType="-99"/>
        </Node>
        <Node pos="r" depth="1" NCoef="0" IVar="3" Cut="2.1890345764160156e+02" cType="1" res="1.2876628339290619e-01" rms="4.4162964820861816e-01" purity="7.1905279159545898e-01" nType="0">
          <Node pos="l" depth="2" NCoef="0" IVar="-1" Cut="0.0000000000000000e+00" cType="1" res="8.9061108883470297e-04" rms="4.6707278490066528e-01" purity="6.5407699346542358e-01" nType="-99"/>
          <Node pos="r" depth="2" NCoef="0" IVar="-1" Cut="0.0000000000000000e+00" cType="1" res="2.9372118879109621e-03" rms="3.9727047085762024e-01" purity="7.9253250360488892e-01" nType="-99"/>
        </Node>
      </Node>
    </BinaryTree>
    <BinaryTree type="DecisionTree" boostWeight="1.0000000000000000e+00" itree="119">
      <Node pos="s" depth="0" NCoef="0" IVar="2" Cut="9.4082611799240112e-01" cType="1" res="-1.6831817338243127e-03" rms="4.6201753616333008e-01" purity="4.9671527743339539e-01" nType="0">
        <Node pos="l" depth="1" NCoef="0" IVar="1" Cut="1.0426445007324219e+00" cType="1" res="-1.3938513398170471e-01" rms="4.3081200122833252e-01" purity="2.6497259736061096e-01" nType="0">
          <Node pos="l" depth="2" NCoef="0" IVar="-1" Cut="0.0000000000000000e+00" cType="1" res="-1.3043996877968311e-03" rms="4.6608716249465942e-01" purity="3.3929595351219177e-01" nType="-99"/>
          <Node pos="r" depth="2" NCoef="0" IVar="-1" Cut="0.0000000000000000e+00" cType="1" res="-3.5679216962307692e-03" rms="3.6189535260200500e-01" purity="1.5977105498313904e-01" nType="-99"/>
        </Node>
        <Node pos="r" depth="1" NCoef="0" IVar="2" Cut="9.7790235280990601e-01" cType="1" res="8.3613805472850800e-02" rms="4.6010565757751465e-01" purity="6.4026415348052979e-01" nType="0">
          <Node pos="l" depth="2" NCoef="0" IVar="-1" Cut="0.0000000000000000e+00" cType="1" res="6.9174100644886494e-04" rms="4.7955366969108582e-01" purity="5.8567261695861816e-01" nType="-99"/>
          <Node pos="r" depth="2" NCoef="0" IVar="-1" Cut="0.0000000000000000e+00" cType="1" res="3.5618005786091089e-03" rms="3.1791642308235168e-01" purity="8.7751013040542603e-01" nType="-99"/>
        </Node>
      </Node>
    </BinaryTree>
    <BinaryTree type="DecisionTree" boostWeight="1.0000000000000000e+00" itree="120">
      <Node pos="s" depth="0" NCoef="0" IVar="1" Cut="1.4044135808944702e+00" cType="1" res="1.1484693735837936e-02" rms="4.6999326348304749e-01" purity="5.1184511184692383e-01" nType="0">
        <Node pos="l" depth="1" NCoef="0" IVar="3" Cut="1.9078671264648438e+02" cType="1" res="4.2710211127996445e-02" rms="4.7301483154296875e-01" purity="5.5601334571838379e-01" nType="0">
          <Node pos="l" depth="2" NCoef="0" IVar="-1" Cut="0.0000000000000000e+00" cType="1" res="-7.2920770617201924e-04" rms="4.7996380925178528e-01" purity="4.5071828365325928e-01" nType="-99"/>
          <Node pos="r" depth="2" NCoef="0" IVar="-1" Cut="0.0000000000000000e+00" cType="1" res="1.6372880199924111e-03" rms="4.5546117424964905e-01" purity="6.3671636581420898e-01" nType="-99"/>
        </Node>
        <Node pos="r" depth="1" NCoef="0" IVar="2" Cut="9.4334447383880615e-01" cType="1" res="-1.9966155290603638e-01" rms="3.8787940144538879e-01" purity="2.1318067610263824e-01" nType="0">
          <Node pos="l" depth="2" NCoef="0" IVar="-1" Cut="0.0000000000000000e+00" cType="1" res="-4.8463186249136925e-03" rms="2.5982880592346191e-01" purity="7.1314051747322083e-02" nType="-99"/>
          <Node pos="r" depth="2" NCoef="0" IVar="-1" Cut="0.0000000000000000e+00" cType="1" res="-1.8282331293448806e-03" rms="4.8131939768791199e-01" purity="3.7769475579261780e-01" nType="-99"/>
        </Node>
      </Node>
    </BinaryTree>
    <BinaryTree type="DecisionTree" boostWeight="1.0000000000000000e+00" itree="121">
      <Node pos="s" depth="0" NCoef="0" IVar="2" Cut="9.5935243368148804e-01" cType="1" res="2.4628076702356339e-02" rms="4.6906438469886780e-01" purity="5.2184504270553589e-01" nType="0">
        <Node pos="l" depth="1" NCoef="0" IVar="1" Cut="7.7650469541549683e-01" cType="1" res="-2.8713651001453400e-02" rms="4.7845309972763062e-01" purity="4.1053670644760132e-01" nType="0">
          <Node pos="l" depth="2" NCoef="0" IVar="-1" Cut="0.0000000000000000e+00" cType="1" res="8.9665723498910666e-04" rms="4.8585626482963562e-01" purity="5.2814114093780518e-01" nType="-99"/>
          <Node pos="r" depth="2" NCoef="0" IVar="-1" Cut="0.0000000000000000e+00" cType="1" res="-1.1991278734058142e-03" rms="4.6724730730056763e-01" purity="3.4837257862091064e-01" nType="-99"/>
        </Node>
        <Node pos="r" depth="1" NCoef="0" IVar="2" Cut="9.6435672044754028e-01" cType="1" res="1.2922500073909760e-01" rms="4.3134388327598572e-01" purity="7.4010771512985229e-01" nType="0">
          <Node pos="l" depth="2" NCoef="0" IVar="-1" Cut="0.0000000000000000e+00" cType="1" res="3.0396043439395726e-04" rms="4.8254403471946716e-01" purity="6.0345953702926636e-01" nType="-99"/>
          <Node pos="r" depth="2" NCoef="0" IVar="-1" Cut="0.0000000000000000e+00" cType="1" res="2.3681141901761293e-03" rms="4.0912604331970215e-01" purity="7.8123921155929565e-01" nType="-99"/>
        </Node>
      </Node>
    </BinaryTree>
    <BinaryTree type="DecisionTree" boostWeight="1.0000000000000000e+00" itree="122">
      <Node pos="s" depth="0" NCoef="0" IVar="2" Cut="9.5929837226867676e-01" cType="1" res="2.6736980304121971e-02" rms="4.5865574479103088e-01" purity="5.2751380205154419e-01" nType="0">
        <Node pos="l" depth="1" NCoef="0" IVar="4" Cut="5.3749157714843750e+02" cType="1" res="-4.8877570778131485e-02" rms="4.6889969706535339e-01" purity="3.9236256480216980e-01" nType="0">
          <Node pos="l" depth="2" NCoef="0" IVar="-1" Cut="0.0000000000000000e+00" cType="1" res="-1.7021056264638901e-03" rms="4.4915476441383362e-01" purity="3.1417450308799744e-01" nType="-99"/>
          <Node pos="r" depth="2" NCoef="0" IVar="-1" Cut="0.0000000000000000e+00" cType="1" res="1.4883616240695119e-03" rms="4.8179376125335693e-01" purity="5.8532708883285522e-01" nType="-99"/>
        </Node>
        <Node pos="r" depth="1" NCoef="0" IVar="1" Cut="5.4917073249816895e-01" cType="1" res="1.7097014188766479e-01" rms="4.0066352486610413e-01" purity="7.8531199693679810e-01" nType="0">
          <Node pos="l" depth="2" NCoef="0" IVar="-1" Cut="0.0000000000000000e+00" cType="1" res="4.3278159573674202e-03" rms="2.1376888453960419e-01" purity="9.5009762048721313e-01" nType="-99"/>
          <Node pos="r" depth="2" NCoef="0" IVar="-1" Cut="0.0000000000000000e+00" cType="1" res="2.0001826342195272e-03" rms="4.2941668629646301e-01" purity="7.4223428964614868e-01" nType="-99"/>
        </Node>
      </Node>
    </BinaryTree>
    <BinaryTree type="DecisionTree" boostWeight="1.0000000000000000e+00" itree="123">
      <Node pos="s" depth="0" NCoef="0" IVar="2" Cut="9.1821527481079102e-01" cType="1" res="3.2781746704131365e-03" rms="4.6736299991607666e-01" purity="4.9859240651130676e-01" nType="0">
        <Node pos="l" depth="1" NCoef="0" IVar="0" Cut="3.0463256835937500e+02" cType="1" res="-2.4977165460586548e-01" rms="3.3218118548393250e-01" purity="1.3432057201862335e-01" nType="0">
          <Node pos="l" depth="2" NCoef="0" IVar="-1" Cut="0.0000000000000000e+00" cType="1" res="-5.2040377631783485e-03" rms="1.9059367477893829e-01" purity="3.8074914366006851e-02" nType="-99"/>
          <Node pos="r" depth="2" NCoef="0" IVar="-1" Cut="0.0000000000000000e+00" cType="1" res="-2.8393804095685482e-03" rms="4.1972503066062927e-01" purity="2.3410038650035858e-01" nType="-99"/>
        </Node>
        <Node pos="r" depth="1" NCoef="0" IVar="3" Cut="2.0333737182617188e+02" cType="1" res="3.7583477795124054e-02" rms="4.7246479988098145e-01" purity="5.4797571897506714e-01" nType="0">
          <Node pos="l" depth="2" NCoef="0" IVar="-1" Cut="0.0000000000000000e+00" cType="1" res="-6.6524592693895102e-04" rms="4.8124763369560242e-01" purity="4.7158572077751160e-01" nType="-99"/>
          <Node pos="r" depth="2" NCoef="0" IVar="-1" Cut="0.0000000000000000e+00" cType="1" res="1.4593367232009768e-03" rms="4.5548817515373230e-01" purity="6.0736072063446045e-01" nType="-99"/>
        </Node>
      </Node>
    </BinaryTree>
    <BinaryTree type="DecisionTree" boostWeight="1.0000000000000000e+00" itree="124">
      <Node pos="s" depth="0" NCoef="0" IVar="3" Cut="1.2849398803710938e+02" cType="1" res="-8.2003707066178322e-03" rms="4.6506428718566895e-01" purity="4.8570030927658081e-01" nType="0">
        <Node pos="l" depth="1" NCoef="0" IVar="-1" Cut="0.0000000000000000e+00" cType="1" res="-5.0140777602791786e-03" rms="3.5645699501037598e-01" purity="1.7239722609519958e-01" nType="-99"/>
        <Node pos="r" depth="1" NCoef="0" IVar="1" Cut="1.1328227519989014e+00" cType="1" res="1.6947917640209198e-02" rms="4.6405917406082153e-01" purity="5.1155388355255127e-01" nType="0">
          <Node pos="l" depth="2" NCoef="0" IVar="-1" Cut="0.0000000000000000e+00" cType="1" res="1.2273569591343403e-03" rms="4.5937162637710571e-01" purity="6.0751104354858398e-01" nType="-99"/>
          <Node pos="r" depth="2" NCoef="0" IVar="-1" Cut="0.0000000000000000e+00" cType="1" res="-2.2041462361812592e-03" rms="4.3718543648719788e-01" purity="2.9535728693008423e-01" nType="-99"/>
        </Node>
      </Node>
    </BinaryTree>
    <BinaryTree type="DecisionTree" boostWeight="1.0000000000000000e+00" itree="125">
      <Node pos="s" depth="0" NCoef="0" IVar="2" Cut="9.3327945470809937e-01" cType="1" res="-1.1824687011539936e-02" rms="4.6496486663818359e-01" purity="4.9307012557983398e-01" nType="0">
        <Node pos="l" depth="1" NCoef="0" IVar="4" Cut="5.7956970214843750e+02" cType="1" res="-1.5645989775657654e-01" rms="4.1419640183448792e-01" purity="2.3751446604728699e-01" nType="0">
          <Node pos="l" depth="2" NCoef="0" IVar="-1" Cut="0.0000000000000000e+00" cType="1" res="-3.1812919769436121e-03" rms="3.7845119833946228e-01" purity="1.8119862675666809e-01" nType="-99"/>
          <Node pos="r" depth="2" NCoef="0" IVar="-1" Cut="0.0000000000000000e+00" cType="1" res="1.3160686648916453e-04" rms="4.9344828724861145e-01" purity="4.4897982478141785e-01" nType="-99"/>
        </Node>
        <Node pos="r" depth="1" NCoef="0" IVar="1" Cut="1.5038793087005615e+00" cType="1" res="3.5916581749916077e-02" rms="4.7089356184005737e-01" purity="5.7742404937744141e-01" nType="0">
          <Node pos="l" depth="2" NCoef="0" IVar="-1" Cut="0.0000000000000000e+00" cType="1" res="8.7070045992732048e-04" rms="4.6973800659179688e-01" purity="6.1270129680633545e-01" nType="-99"/>
          <Node pos="r" depth="2" NCoef="0" IVar="-1" Cut="0.0000000000000000e+00" cType="1" res="-2.9132638592272997e-03" rms="4.2487010359764099e-01" purity="2.5037214159965515e-01" nType="-99"/>
        </Node>
      </Node>
    </BinaryTree>
    <BinaryTree type="DecisionTree" boostWeight="1.0000000000000000e+00" itree="126">
      <Node pos="s" depth="0" NCoef="0" IVar="2" Cut="9.2602616548538208e-01" cType="1" res="-1.1235262354603037e-04" rms="4.6184745430946350e-01" purity="4.9374771118164062e-01" nType="0">
        <Node pos="l" depth="1" NCoef="0" IVar="1" Cut="1.2148766517639160e+00" cType="1" res="-1.7683608829975128e-01" rms="3.9239841699600220e-01" purity="2.0517924427986145e-01" nType="0">
          <Node pos="l" depth="2" NCoef="0" IVar="-1" Cut="0.0000000000000000e+00" cType="1" res="-2.1535635460168123e-03" rms="4.2787039279937744e-01" purity="2.5594747066497803e-01" nType="-99"/>
          <Node pos="r" depth="2" NCoef="0" IVar="-1" Cut="0.0000000000000000e+00" cType="1" res="-4.3898723088204861e-03" rms="2.7370893955230713e-01" purity="8.4522701799869537e-02" nType="-99"/>
        </Node>
        <Node pos="r" depth="1" NCoef="0" IVar="1" Cut="1.5663689374923706e+00" cType="1" res="4.6529445797204971e-02" rms="4.6748548746109009e-01" purity="5.6990808248519897e-01" nType="0">
          <Node pos="l" depth="2" NCoef="0" IVar="-1" Cut="0.0000000000000000e+00" cType="1" res="1.0044592199847102e-03" rms="4.6602302789688110e-01" purity="6.0116654634475708e-01" nType="-99"/>
          <Node pos="r" depth="2" NCoef="0" IVar="-1" Cut="0.0000000000000000e+00" cType="1" res="-3.0971362721174955e-03" rms="4.1441497206687927e-01" purity="2.3965387046337128e-01" nType="-99"/>
        </Node>
      </Node>
    </BinaryTree>
    <BinaryTree type="DecisionTree" boostWeight="1.0000000000000000e+00" itree="127">
      <Node pos="s" depth="0" NCoef="0" IVar="1" Cut="1.3199888467788696e+00" cType="1" res="-9.2230184236541390e-04" rms="4.6313372254371643e-01" purity="4.9730476737022400e-01" nType="0">
        <Node pos="l" depth="1" NCoef="0" IVar="3" Cut="2.1051156616210938e+02" cType="1" res="4.0685821324586868e-02" rms="4.6457293629646301e-01" purity="5.5896854400634766e-01" nType="0">
          <Node pos="l" depth="2" NCoef="0" IVar="-1" Cut="0.0000000000000000e+00" cType="1" res="-8.1579614197835326e-04" rms="4.5978772640228271e-01" purity="4.4941943883895874e-01" nType="-99"/>
          <Node pos="r" depth="2" NCoef="0" IVar="-1" Cut="0.0000000000000000e+00" cType="1" res="2.3132325150072575e-03" rms="4.4210317730903625e-01" purity="6.9748330116271973e-01" nType="-99"/>
        </Node>
        <Node pos="r" depth="1" NCoef="0" IVar="1" Cut="1.6191537380218506e+00" cType="1" res="-1.8076895177364349e-01" rms="4.1096693277359009e-01" purity="2.3076950013637543e-01" nType="0">
          <Node pos="l" depth="2" NCoef="0" IVar="-1" Cut="0.0000000000000000e+00" cType="1" res="-1.3617823133245111e-03" rms="4.6441891789436340e-01" purity="3.3537223935127258e-01" nType="-99"/>
          <Node pos="r" depth="2" NCoef="0" IVar="-1" Cut="0.0000000000000000e+00" cType="1" res="-5.8094416745007038e-03" rms="2.4600079655647278e-01" purity="6.7281439900398254e-02" nType="-99"/>
        </Node>
      </Node>
    </BinaryTree>
    <BinaryTree type="DecisionTree" boostWeight="1.0000000000000000e+00" itree="128">
      <Node pos="s" depth="0" NCoef="0" IVar="4" Cut="4.1151611328125000e+02" cType="1" res="-4.0336122037842870e-04" rms="4.7295162081718445e-01" purity="4.9992653727531433e-01" nType="0">
        <Node pos="l" depth="1" NCoef="0" IVar="1" Cut="6.6297245025634766e-01" cType="1" res="-1.0649560391902924e-01" rms="4.6032661199569702e-01" purity="3.6010023951530457e-01" nType="0">
          <Node pos="l" depth="2" NCoef="0" IVar="-1" Cut="0.0000000000000000e+00" cType="1" res="6.6936388611793518e-04" rms="4.9340274930000305e-01" purity="5.6315493583679199e-01" nType="-99"/>
          <Node pos="r" depth="2" NCoef="0" IVar="-1" Cut="0.0000000000000000e+00" cType="1" res="-2.2239789832383394e-03" rms="4.4572213292121887e-01" purity="3.1555235385894775e-01" nType="-99"/>
        </Node>
        <Node pos="r" depth="1" NCoef="0" IVar="3" Cut="1.8333744812011719e+02" cType="1" res="6.1697471886873245e-02" rms="4.6918573975563049e-01" purity="5.8177351951599121e-01" nType="0">
          <Node pos="l" depth="2" NCoef="0" IVar="-1" Cut="0.0000000000000000e+00" cType="1" res="-1.6654470236971974e-03" rms="4.7473013401031494e-01" purity="3.9634612202644348e-01" nType="-99"/>
          <Node pos="r" depth="2" NCoef="0" IVar="-1" Cut="0.0000000000000000e+00" cType="1" res="1.6249433392658830e-03" rms="4.5533594489097595e-01" purity="6.3716268539428711e-01" nType="-99"/>
        </Node>
      </Node>
    </BinaryTree>
    <BinaryTree type="DecisionTree" boostWeight="1.0000000000000000e+00" itree="129">
      <Node pos="s" depth="0" NCoef="0" IVar="2" Cut="9.3188256025314331e-01" cType="1" res="2.6761950924992561e-02" rms="4.6824100613594055e-01" purity="5.2295255661010742e-01" nType="0">
        <Node pos="l" depth="1" NCoef="0" IVar="3" Cut="2.1019490051269531e+02" cType="1" res="-1.2541544437408447e-01" rms="4.3468019366264343e-01" purity="2.6524522900581360e-01" nType="0">
          <Node pos="l" depth="2" NCoef="0" IVar="-1" Cut="0.0000000000000000e+00" cType="1" res="-3.4431496169418097e-03" rms="3.7415555119514465e-01" purity="1.7021970450878143e-01" nType="-99"/>
          <Node pos="r" depth="2" NCoef="0" IVar="-1" Cut="0.0000000000000000e+00" cType="1" res="-3.8432545261457562e-04" rms="4.7442004084587097e-01" purity="3.7198641896247864e-01" nType="-99"/>
        </Node>
        <Node pos="r" depth="1" NCoef="0" IVar="1" Cut="1.2973062992095947e+00" cType="1" res="8.0326341092586517e-02" rms="4.6786254644393921e-01" purity="6.1366206407546997e-01" nType="0">
          <Node pos="l" depth="2" NCoef="0" IVar="-1" Cut="0.0000000000000000e+00" cType="1" res="1.6514143208041787e-03" rms="4.6193352341651917e-01" purity="6.6798293590545654e-01" nType="-99"/>
          <Node pos="r" depth="2" NCoef="0" IVar="-1" Cut="0.0000000000000000e+00" cType="1" res="-1.0697861434891820e-03" rms="4.6319514513015747e-01" purity="3.8546848297119141e-01" nType="-99"/>
        </Node>
      </Node>
    </BinaryTree>
    <BinaryTree type="DecisionTree" boostWeight="1.0000000000000000e+00" itree="130">
      <Node pos="s" depth="0" NCoef="0" IVar="1" Cut="1.1582472324371338e+00" cType="1" res="-1.2310409219935536e-03" rms="4.6600130200386047e-01" purity="4.9779742956161499e-01" nType="0">
        <Node pos="l" depth="1" NCoef="0" IVar="3" Cut="2.1660679626464844e+02" cType="1" res="4.4580988585948944e-02" rms="4.6816080808639526e-01" purity="5.7042580842971802e-01" nType="0">
          <Node pos="l" depth="2" NCoef="0" IVar="-1" Cut="0.0000000000000000e+00" cType="1" res="-5.8089406229555607e-04" rms="4.7119903564453125e-01" purity="4.6667566895484924e-01" nType="-99"/>
          <Node pos="r" depth="2" NCoef="0" IVar="-1" Cut="0.0000000000000000e+00" cType="1" res="2.3844689130783081e-03" rms="4.3672397732734680e-01" purity="7.1915090084075928e-01" nType="-99"/>
        </Node>
        <Node pos="r" depth="1" NCoef="0" IVar="4" Cut="6.2435839843750000e+02" cType="1" res="-1.1359883844852448e-01" rms="4.4094768166542053e-01" purity="3.1965452432632446e-01" nType="0">
          <Node pos="l" depth="2" NCoef="0" IVar="-1" Cut="0.0000000000000000e+00" cType="1" res="-2.4475259706377983e-03" rms="4.1875681281089783e-01" purity="2.7289980649948120e-01" nType="-99"/>
          <Node pos="r" depth="2" NCoef="0" IVar="-1" Cut="0.0000000000000000e+00" cType="1" res="1.0105808032676578e-03" rms="4.9162542819976807e-01" purity="5.3422045707702637e-01" nType="-99"/>
        </Node>
      </Node>
    </BinaryTree>
    <BinaryTree type="DecisionTree" boostWeight="1.0000000000000000e+00" itree="131">
      <Node pos="s" depth="0" NCoef="0" IVar="2" Cut="9.4096350669860840e-01" cType="1" res="7.9103447496891022e-03" rms="4.6379587054252625e-01" purity="5.0629663467407227e-01" nType="0">
        <Node pos="l" depth="1" NCoef="0" IVar="1" Cut="9.8881012201309204e-01" cType="1" res="-1.1301276087760925e-01" rms="4.3782204389572144e-01" purity="2.8577476739883423e-01" nType="0">
          <Node pos="l" depth="2" NCoef="0" IVar="-1" Cut="0.0000000000000000e+00" cType="1" res="-3.3692570286802948e-04" rms="4.8249885439872742e-01" purity="4.0051001310348511e-01" nType="-99"/>
          <Node pos="r" depth="2" NCoef="0" IVar="-1" Cut="0.0000000000000000e+00" cType="1" res="-3.4967123065143824e-03" rms="3.5920566320419312e-01" purity="1.6213935613632202e-01" nType="-99"/>
        </Node>
        <Node pos="r" depth="1" NCoef="0" IVar="3" Cut="3.5897268676757812e+02" cType="1" res="8.2553975284099579e-02" rms="4.6364277601242065e-01" purity="6.4242070913314819e-01" nType="0">
          <Node pos="l" depth="2" NCoef="0" IVar="-1" Cut="0.0000000000000000e+00" cType="1" res="1.4939940301701427e-03" rms="4.5779660344123840e-01" purity="6.6567385196685791e-01" nType="-99"/>
          <Node pos="r" depth="2" NCoef="0" IVar="-1" Cut="0.0000000000000000e+00" cType="1" res="-1.2650581775233150e-03" rms="4.7767972946166992e-01" purity="4.5570948719978333e-01" nType="-99"/>
        </Node>
      </Node>
    </BinaryTree>
    <BinaryTree type="DecisionTree" boostWeight="1.0000000000000000e+00" itree="132">
      <Node pos="s" depth="0" NCoef="0" IVar="2" Cut="9.6518790721893311e-01" cType="1" res="2.8105517849326134e-03" rms="4.6227839589118958e-01" purity="5.0508499145507812e-01" nType="0">
        <Node pos="l" depth="1" NCoef="0" IVar="0" Cut="3.0597705078125000e+02" cType="1" res="-4.2030010372400284e-02" rms="4.6770220994949341e-01" purity="4.1579535603523254e-01" nType="0">
          <Node pos="l" depth="2" NCoef="0" IVar="-1" Cut="0.0000000000000000e+00" cType="1" res="-1.7382727237418294e-03" rms="4.4372355937957764e-01" purity="3.1994602084159851e-01" nType="-99"/>
          <Node pos="r" depth="2" NCoef="0" IVar="-1" Cut="0.0000000000000000e+00" cType="1" res="3.5497208591550589e-04" rms="4.8000150918960571e-01" purity="5.0619256496429443e-01" nType="-99"/>
        </Node>
        <Node pos="r" depth="1" NCoef="0" IVar="1" Cut="6.8072670698165894e-01" cType="1" res="1.3008925318717957e-01" rms="4.2127999663352966e-01" purity="7.5853133201599121e-01" nType="0">
          <Node pos="l" depth="2" NCoef="0" IVar="-1" Cut="0.0000000000000000e+00" cType="1" res="3.4152490552514791e-03" rms="3.2012683153152466e-01" purity="8.8209867477416992e-01" nType="-99"/>
          <Node pos="r" depth="2" NCoef="0" IVar="-1" Cut="0.0000000000000000e+00" cType="1" res="1.2637536274269223e-03" rms="4.5300042629241943e-01" purity="7.0215964317321777e-01" nType="-99"/>
        </Node>
      </Node>
    </BinaryTree>
    <BinaryTree type="DecisionTree" boostWeight="1.0000000000000000e+00" itree="133">
      <Node pos="s" depth="0" NCoef="0" IVar="1" Cut="1.0164887905120850e+00" cType="1" res="4.1125793941318989e-03" rms="4.6004882454872131e-01" purity="5.0378823280334473e-01" nType="0">
        <Node pos="l" depth="1" NCoef="0" IVar="3" Cut="1.7979666137695312e+02" cType="1" res="7.5920619070529938e-02" rms="4.5708313584327698e-01" purity="6.1143642663955688e-01" nType="0">
          <Node pos="l" depth="2" NCoef="0" IVar="-1" Cut="0.0000000000000000e+00" cType="1" res="-4.5250059338286519e-04" rms="4.6395623683929443e-01" purity="4.8144510388374329e-01" nType="-99"/>
          <Node pos="r" depth="2" NCoef="0" IVar="-1" Cut="0.0000000000000000e+00" cType="1" res="2.1813416387885809e-03" rms="4.3639743328094482e-01" purity="7.0503932237625122e-01" nType="-99"/>
        </Node>
        <Node pos="r" depth="1" NCoef="0" IVar="2" Cut="9.5839774608612061e-01" cType="1" res="-1.0524248331785202e-01" rms="4.4269171357154846e-01" purity="3.3985301852226257e-01" nType="0">
          <Node pos="l" depth="2" NCoef="0" IVar="-1" Cut="0.0000000000000000e+00" cType="1" res="-2.5491244159638882e-03" rms="4.1654622554779053e-01" purity="2.4621936678886414e-01" nType="-99"/>
          <Node pos="r" depth="2" NCoef="0" IVar="-1" Cut="0.0000000000000000e+00" cType="1" res="7.9466647002846003e-04" rms="4.8020204901695251e-01" purity="6.2290805578231812e-01" nType="-99"/>
        </Node>
      </Node>
    </BinaryTree>
    <BinaryTree type="DecisionTree" boostWeight="1.0000000000000000e+00" itree="134">
      <Node pos="s" depth="0" NCoef="0" IVar="1" Cut="1.5483950376510620e+00" cType="1" res="9.4084702432155609e-03" rms="4.6677777171134949e-01" purity="5.0696325302124023e-01" nType="0">
        <Node pos="l" depth="1" NCoef="0" IVar="3" Cut="1.9329119873046875e+02" cType="1" res="3.3939722925424576e-02" rms="4.6901553869247437e-01" purity="5.4272896051406860e-01" nType="0">
          <Node pos="l" depth="2" NCoef="0" IVar="-1" Cut="0.0000000000000000e+00" cType="1" res="-8.3822122542187572e-04" rms="4.6148315072059631e-01" purity="4.4099578261375427e-01" nType="-99"/>
          <Node pos="r" depth="2" NCoef="0" IVar="-1" Cut="0.0000000000000000e+00" cType="1" res="1.4800619101151824e-03" rms="4.6332588791847229e-01" purity="6.1878877878189087e-01" nType="-99"/>
        </Node>
        <Node pos="r" depth="1" NCoef="0" IVar="4" Cut="4.0524969482421875e+02" cType="1" res="-2.0716236531734467e-01" rms="3.8363835215568542e-01" purity="1.9121035933494568e-01" nType="0">
          <Node pos="l" depth="2" NCoef="0" IVar="-1" Cut="0.0000000000000000e+00" cType="1" res="-3.2896678894758224e-03" rms="3.8225200772285461e-01" purity="1.8760263919830322e-01" nType="-99"/>
          <Node pos="r" depth="2" NCoef="0" IVar="-1" Cut="0.0000000000000000e+00" cType="1" res="-3.6036872770637274e-03" rms="3.8462170958518982e-01" purity="1.9486725330352783e-01" nType="-99"/>
        </Node>
      </Node>
    </BinaryTree>
    <BinaryTree type="DecisionTree" boostWeight="1.0000000000000000e+00" itree="135">
      <Node pos="s" depth="0" NCoef="0" IVar="2" Cut="9.3566757440567017e-01" cType="1" res="-5.2737621590495110e-03" rms="4.6836400032043457e-01" purity="4.9014401435852051e-01" nType="0">
        <Node pos="l" depth="1" NCoef="0" IVar="4" Cut="4.1872421264648438e+02" cType="1" res="-1.0633669793605804e-01" rms="4.4094693660736084e-01" purity="2.8610625863075256e-01" nType="0">
          <Node pos="l" depth="2" NCoef="0" IVar="-1" Cut="0.0000000000000000e+00" cType="1" res="-2.8268871828913689e-03" rms="3.8574588298797607e-01" purity="1.8695057928562164e-01" nType="-99"/>
          <Node pos="r" depth="2" NCoef="0" IVar="-1" Cut="0.0000000000000000e+00" cType="1" res="-6.6716992296278477e-04" rms="4.7776386141777039e-01" purity="3.7751537561416626e-01" nType="-99"/>
        </Node>
        <Node pos="r" depth="1" NCoef="0" IVar="3" Cut="1.8079504394531250e+02" cType="1" res="4.3292064219713211e-02" rms="4.7336924076080322e-01" purity="5.8819454908370972e-01" nType="0">
          <Node pos="l" depth="2" NCoef="0" IVar="-1" Cut="0.0000000000000000e+00" cType="1" res="-7.9873343929648399e-04" rms="4.8449453711509705e-01" purity="4.8403003811836243e-01" nType="-99"/>
          <Node pos="r" depth="2" NCoef="0" IVar="-1" Cut="0.0000000000000000e+00" cType="1" res="1.3887264067307115e-03" rms="4.5943960547447205e-01" purity="6.4272177219390869e-01" nType="-99"/>
        </Node>
      </Node>
    </BinaryTree>
    <BinaryTree type="DecisionTree" boostWeight="1.0000000000000000e+00" itree="136">
      <Node pos="s" depth="0" NCoef="0" IVar="2" Cut="9.5929837226867676e-01" cType="1" res="1.7948370426893234e-02" rms="4.6170774102210999e-01" purity="5.1747483015060425e-01" nType="0">
        <Node pos="l" depth="1" NCoef="0" IVar="4" Cut="7.9350036621093750e+02" cType="1" res="-3.6269217729568481e-02" rms="4.6966004371643066e-01" purity="4.0230369567871094e-01" nType="0">
          <Node pos="l" depth="2" NCoef="0" IVar="-1" Cut="0.0000000000000000e+00" cType="1" res="-8.5239007603377104e-04" rms="4.6585139632225037e-01" purity="3.7679839134216309e-01" nType="-99"/>
          <Node pos="r" depth="2" NCoef="0" IVar="-1" Cut="0.0000000000000000e+00" cType="1" res="2.7309413999319077e-03" rms="4.5201939344406128e-01" purity="7.0017802715301514e-01" nType="-99"/>
        </Node>
        <Node pos="r" depth="1" NCoef="0" IVar="1" Cut="1.3008075952529907e+00" cType="1" res="1.2019512802362442e-01" rms="4.2802852392196655e-01" purity="7.3467141389846802e-01" nType="0">
          <Node pos="l" depth="2" NCoef="0" IVar="-1" Cut="0.0000000000000000e+00" cType="1" res="2.3686331696808338e-03" rms="4.0356659889221191e-01" purity="7.8910940885543823e-01" nType="-99"/>
          <Node pos="r" depth="2" NCoef="0" IVar="-1" Cut="0.0000000000000000e+00" cType="1" res="-1.6001695767045021e-03" rms="4.9024057388305664e-01" purity="4.2365920543670654e-01" nType="-99"/>
        </Node>
      </Node>
    </BinaryTree>
    <BinaryTree type="DecisionTree" boostWeight="1.0000000000000000e+00" itree="137">
      <Node pos="s" depth="0" NCoef="0" IVar="1" Cut="9.4307929277420044e-01" cType="1" res="-5.6717626284807920e-04" rms="4.6663787961006165e-01" purity="4.9855977296829224e-01" nType="0">
        <Node pos="l" depth="1" NCoef="0" IVar="3" Cut="1.8195060729980469e+02" cType="1" res="7.6007843017578125e-02" rms="4.6115681529045105e-01" purity="6.0930418968200684e-01" nType="0">
          <Node pos="l" depth="2" NCoef="0" IVar="-1" Cut="0.0000000000000000e+00" cType="1" res="-1.4814631140325218e-04" rms="4.7554928064346313e-01" purity="4.8832407593727112e-01" nType="-99"/>
          <Node pos="r" depth="2" NCoef="0" IVar="-1" Cut="0.0000000000000000e+00" cType="1" res="2.1564064081758261e-03" rms="4.3518257141113281e-01" purity="7.1265357732772827e-01" nType="-99"/>
        </Node>
        <Node pos="r" depth="1" NCoef="0" IVar="6" Cut="1.1435132026672363e+00" cType="1" res="-8.7016768753528595e-02" rms="4.5760083198547363e-01" purity="3.7353447079658508e-01" nType="0">
          <Node pos="l" depth="2" NCoef="0" IVar="-1" Cut="0.0000000000000000e+00" cType="1" res="-9.0655492385849357e-04" rms="4.6253642439842224e-01" purity="4.0287029743194580e-01" nType="-99"/>
          <Node pos="r" depth="2" NCoef="0" IVar="-1" Cut="0.0000000000000000e+00" cType="1" res="-4.3840613216161728e-03" rms="3.8183408975601196e-01" purity="1.9300793111324310e-01" nType="-99"/>
        </Node>
      </Node>
    </BinaryTree>
    <BinaryTree type="DecisionTree" boostWeight="1.0000000000000000e+00" itree="138">
      <Node pos="s" depth="0" NCoef="0" IVar="1" Cut="1.2085312604904175e+00" cType="1" res="-4.4078091159462929e-03" rms="4.6493357419967651e-01" purity="4.9646317958831787e-01" nType="0">
        <Node pos="l" depth="1" NCoef="0" IVar="3" Cut="2.1822964477539062e+02" cType="1" res="4.2983215302228928e-02" rms="4.6964347362518311e-01" purity="5.7216876745223999e-01" nType="0">
          <Node pos="l" depth="2" NCoef="0" IVar="-1" Cut="0.0000000000000000e+00" cType="1" res="-3.6828871816396713e-04" rms="4.7112670540809631e-01" purity="4.8607200384140015e-01" nType="-99"/>
          <Node pos="r" depth="2" NCoef="0" IVar="-1" Cut="0.0000000000000000e+00" cType="1" res="2.1474075037986040e-03" rms="4.4771027565002441e-01" purity="7.0501440763473511e-01" nType="-99"/>
        </Node>
        <Node pos="r" depth="1" NCoef="0" IVar="1" Cut="1.7086038589477539e+00" cType="1" res="-1.5218700468540192e-01" rms="4.1664755344390869e-01" purity="2.6039069890975952e-01" nType="0">
          <Node pos="l" depth="2" NCoef="0" IVar="-1" Cut="0.0000000000000000e+00" cType="1" res="-1.7441660165786743e-03" rms="4.4813936948776245e-01" purity="3.1704971194267273e-01" nType="-99"/>
          <Node pos="r" depth="2" NCoef="0" IVar="-1" Cut="0.0000000000000000e+00" cType="1" res="-5.3320885635912418e-03" rms="2.1832530200481415e-01" purity="5.8776650577783585e-02" nType="-99"/>
        </Node>
      </Node>
    </BinaryTree>
    <BinaryTree type="DecisionTree" boostWeight="1.0000000000000000e+00" itree="139">
      <Node pos="s" depth="0" NCoef="0" IVar="2" Cut="9.4091290235519409e-01" cType="1" res="2.0874148234724998e-02" rms="4.6036913990974426e-01" purity="5.2201092243194580e-01" nType="0">
        <Node pos="l" depth="1" NCoef="0" IVar="0" Cut="2.9667770385742188e+02" cType="1" res="-9.4148606061935425e-02" rms="4.4073411822319031e-01" purity="3.0444777011871338e-01" nType="0">
          <Node pos="l" depth="2" NCoef="0" IVar="-1" Cut="0.0000000000000000e+00" cType="1" res="-3.1270757317543030e-03" rms="3.7025749683380127e-01" purity="1.7644767463207245e-01" nType="-99"/>
          <Node pos="r" depth="2" NCoef="0" IVar="-1" Cut="0.0000000000000000e+00" cType="1" res="-1.7602025081941974e-06" rms="4.8049908876419067e-01" purity="4.2697370052337646e-01" nType="-99"/>
        </Node>
        <Node pos="r" depth="1" NCoef="0" IVar="3" Cut="1.8227204895019531e+02" cType="1" res="8.7592341005802155e-02" rms="4.5834168791770935e-01" purity="6.4820688962936401e-01" nType="0">
          <Node pos="l" depth="2" NCoef="0" IVar="-1" Cut="0.0000000000000000e+00" cType="1" res="-4.8864679411053658e-04" rms="4.8765373229980469e-01" purity="5.2193039655685425e-01" nType="-99"/>
          <Node pos="r" depth="2" NCoef="0" IVar="-1" Cut="0.0000000000000000e+00" cType="1" res="2.0811390131711960e-03" rms="4.3319016695022583e-01" purity="7.0599126815795898e-01" nType="-99"/>
        </Node>
      </Node>
    </BinaryTree>
    <BinaryTree type="DecisionTree" boostWeight="1.0000000000000000e+00" itree="140">
      <Node pos="s" depth="0" NCoef="0" IVar="1" Cut="1.2154786586761475e+00" cType="1" res="8.7045989930629730e-03" rms="4.5916315913200378e-01" purity="5.0828349590301514e-01" nType="0">
        <Node pos="l" depth="1" NCoef="0" IVar="2" Cut="9.3676096200942993e-01" cType="1" res="5.8380264788866043e-02" rms="4.5824223756790161e-01" purity="5.8110123872756958e-01" nType="0">
          <Node pos="l" depth="2" NCoef="0" IVar="-1" Cut="0.0000000000000000e+00" cType="1" res="-1.0816736612468958e-03" rms="4.6345290541648865e-01" purity="3.3655735850334167e-01" nType="-99"/>
          <Node pos="r" depth="2" NCoef="0" IVar="-1" Cut="0.0000000000000000e+00" cType="1" res="1.7290889518335462e-03" rms="4.4281843304634094e-01" purity="6.9530808925628662e-01" nType="-99"/>
        </Node>
        <Node pos="r" depth="1" NCoef="0" IVar="1" Cut="1.7125754356384277e+00" cType="1" res="-1.5260158479213715e-01" rms="4.2372342944145203e-01" purity="2.7183070778846741e-01" nType="0">
          <Node pos="l" depth="2" NCoef="0" IVar="-1" Cut="0.0000000000000000e+00" cType="1" res="-1.6166473506018519e-03" rms="4.5442357659339905e-01" purity="3.3433195948600769e-01" nType="-99"/>
          <Node pos="r" depth="2" NCoef="0" IVar="-1" Cut="0.0000000000000000e+00" cType="1" res="-6.2345550395548344e-03" rms="1.8793609738349915e-01" purity="4.1715409606695175e-02" nType="-99"/>
        </Node>
      </Node>
    </BinaryTree>
    <BinaryTree type="DecisionTree" boostWeight="1.0000000000000000e+00" itree="141">
      <Node pos="s" depth="0" NCoef="0" IVar="2" Cut="9.4371622800827026e-01" cType="1" res="-1.7472662730142474e-03" rms="4.6024757623672485e-01" purity="4.9648898839950562e-01" nType="0">
        <Node pos="l" depth="1" NCoef="0" IVar="4" Cut="6.3528405761718750e+02" cType="1" res="-9.7525641322135925e-02" rms="4.4492039084434509e-01" purity="3.0348974466323853e-01" nType="0">
          <Node pos="l" depth="2" NCoef="0" IVar="-1" Cut="0.0000000000000000e+00" cType="1" res="-2.1510499063879251e-03" rms="4.2797327041625977e-01" purity="2.5691935420036316e-01" nType="-99"/>
          <Node pos="r" depth="2" NCoef="0" IVar="-1" Cut="0.0000000000000000e+00" cType="1" res="2.3666741326451302e-03" rms="4.7236773371696472e-01" purity="6.3149660825729370e-01" nType="-99"/>
        </Node>
        <Node pos="r" depth="1" NCoef="0" IVar="4" Cut="3.4664492797851562e+02" cType="1" res="7.2841756045818329e-02" rms="4.5817539095878601e-01" purity="6.4679032564163208e-01" nType="0">
          <Node pos="l" depth="2" NCoef="0" IVar="-1" Cut="0.0000000000000000e+00" cType="1" res="-1.3914996525272727e-03" rms="4.8405402898788452e-01" purity="4.2700937390327454e-01" nType="-99"/>
          <Node pos="r" depth="2" NCoef="0" IVar="-1" Cut="0.0000000000000000e+00" cType="1" res="1.4731432311236858e-03" rms="4.4775685667991638e-01" purity="6.8493503332138062e-01" nType="-99"/>
        </Node>
      </Node>
    </BinaryTree>
    <BinaryTree type="DecisionTree" boostWeight="1.0000000000000000e+00" itree="142">
      <Node pos="s" depth="0" NCoef="0" IVar="2" Cut="9.4665056467056274e-01" cType="1" res="5.1375343464314938e-03" rms="4.5706737041473389e-01" purity="5.0416892766952515e-01" nType="0">
        <Node pos="l" depth="1" NCoef="0" IVar="0" Cut="4.8722152709960938e+02" cType="1" res="-9.6192345023155212e-02" rms="4.4425311684608459e-01" purity="3.0804744362831116e-01" nType="0">
          <Node pos="l" depth="2" NCoef="0" IVar="-1" Cut="0.0000000000000000e+00" cType="1" res="-1.9345474429428577e-03" rms="4.3000239133834839e-01" purity="2.7102556824684143e-01" nType="-99"/>
          <Node pos="r" depth="2" NCoef="0" IVar="-1" Cut="0.0000000000000000e+00" cType="1" res="1.5683533856645226e-03" rms="4.9127259850502014e-01" purity="5.8550065755844116e-01" nType="-99"/>
        </Node>
        <Node pos="r" depth="1" NCoef="0" IVar="3" Cut="3.1467520141601562e+02" cType="1" res="9.2975012958049774e-02" rms="4.4978490471839905e-01" purity="6.7417621612548828e-01" nType="0">
          <Node pos="l" depth="2" NCoef="0" IVar="-1" Cut="0.0000000000000000e+00" cType="1" res="1.8591909902170300e-03" rms="4.3576788902282715e-01" purity="7.1642714738845825e-01" nType="-99"/>
          <Node pos="r" depth="2" NCoef="0" IVar="-1" Cut="0.0000000000000000e+00" cType="1" res="-1.9322314765304327e-03" rms="4.7393065690994263e-01" purity="4.1819345951080322e-01" nType="-99"/>
        </Node>
      </Node>
    </BinaryTree>
    <BinaryTree type="DecisionTree" boostWeight="1.0000000000000000e+00" itree="143">
      <Node pos="s" depth="0" NCoef="0" IVar="1" Cut="1.3199888467788696e+00" cType="1" res="8.0290054902434349e-03" rms="4.6321445703506470e-01" purity="5.0362354516983032e-01" nType="0">
        <Node pos="l" depth="1" NCoef="0" IVar="3" Cut="1.9569165039062500e+02" cType="1" res="4.4388942420482635e-02" rms="4.6621605753898621e-01" purity="5.6165647506713867e-01" nType="0">
          <Node pos="l" depth="2" NCoef="0" IVar="-1" Cut="0.0000000000000000e+00" cType="1" res="-5.0000037299469113e-04" rms="4.6686312556266785e-01" purity="4.6237882971763611e-01" nType="-99"/>
          <Node pos="r" depth="2" NCoef="0" IVar="-1" Cut="0.0000000000000000e+00" cType="1" res="1.7462057294324040e-03" rms="4.5282736420631409e-01" purity="6.5822857618331909e-01" nType="-99"/>
        </Node>
        <Node pos="r" depth="1" NCoef="0" IVar="1" Cut="1.6208316087722778e+00" cType="1" res="-1.3200385868549347e-01" rms="4.2322877049446106e-01" purity="2.8012153506278992e-01" nType="0">
          <Node pos="l" depth="2" NCoef="0" IVar="-1" Cut="0.0000000000000000e+00" cType="1" res="-9.8149862606078386e-04" rms="4.5506319403648376e-01" purity="3.5814064741134644e-01" nType="-99"/>
          <Node pos="r" depth="2" NCoef="0" IVar="-1" Cut="0.0000000000000000e+00" cType="1" res="-4.2379712685942650e-03" rms="3.3570960164070129e-01" purity="1.5230549871921539e-01" nType="-99"/>
        </Node>
      </Node>
    </BinaryTree>
    <BinaryTree type="DecisionTree" boostWeight="1.0000000000000000e+00" itree="144">
      <Node pos="s" depth="0" NCoef="0" IVar="2" Cut="9.8051881790161133e-01" cType="1" res="-2.1485658362507820e-02" rms="4.6209865808486938e-01" purity="4.7626709938049316e-01" nType="0">
        <Node pos="l" depth="1" NCoef="0" IVar="2" Cut="9.4645690917968750e-01" cType="1" res="-4.7209579497575760e-02" rms="4.6624511480331421e-01" purity="4.3510043621063232e-01" nType="0">
          <Node pos="l" depth="2" NCoef="0" IVar="-1" Cut="0.0000000000000000e+00" cType="1" res="-1.5779321547597647e-03" rms="4.4876867532730103e-01" purity="3.0795949697494507e-01" nType="-99"/>
          <Node pos="r" depth="2" NCoef="0" IVar="-1" Cut="0.0000000000000000e+00" cType="1" res="2.4797194055281579e-04" rms="4.7807466983795166e-01" purity="5.8404934406280518e-01" nType="-99"/>
        </Node>
        <Node pos="r" depth="1" NCoef="0" IVar="-1" Cut="0.0000000000000000e+00" cType="1" res="3.3028295729309320e-03" rms="3.3558300137519836e-01" purity="8.6334478855133057e-01" nType="-99"/>
      </Node>
    </BinaryTree>
    <BinaryTree type="DecisionTree" boostWeight="1.0000000000000000e+00" itree="145">
      <Node pos="s" depth="0" NCoef="0" IVar="1" Cut="1.5975341796875000e+00" cType="1" res="-1.0745270177721977e-02" rms="4.6562105417251587e-01" purity="4.8932853341102600e-01" nType="0">
        <Node pos="l" depth="1" NCoef="0" IVar="2" Cut="9.1688191890716553e-01" cType="1" res="8.2296384498476982e-03" rms="4.7034907341003418e-01" purity="5.1830643415451050e-01" nType="0">
          <Node pos="l" depth="2" NCoef="0" IVar="-1" Cut="0.0000000000000000e+00" cType="1" res="-2.4015731178224087e-03" rms="4.0434765815734863e-01" purity="2.2418586909770966e-01" nType="-99"/>
          <Node pos="r" depth="2" NCoef="0" IVar="-1" Cut="0.0000000000000000e+00" cType="1" res="4.2219497845508158e-04" rms="4.7419920563697815e-01" purity="5.5522274971008301e-01" nType="-99"/>
        </Node>
        <Node pos="r" depth="1" NCoef="0" IVar="-1" Cut="0.0000000000000000e+00" cType="1" res="-4.1466210968792439e-03" rms="3.3232980966567993e-01" purity="1.4791332185268402e-01" nType="-99"/>
      </Node>
    </BinaryTree>
    <BinaryTree type="DecisionTree" boostWeight="1.0000000000000000e+00" itree="146">
      <Node pos="s" depth="0" NCoef="0" IVar="2" Cut="9.4828814268112183e-01" cType="1" res="-5.4997103288769722e-03" rms="4.5902797579765320e-01" purity="4.9500840902328491e-01" nType="0">
        <Node pos="l" depth="1" NCoef="0" IVar="3" Cut="2.1019490051269531e+02" cType="1" res="-9.6986278891563416e-02" rms="4.4680395722389221e-01" purity="3.1004643440246582e-01" nType="0">
          <Node pos="l" depth="2" NCoef="0" IVar="-1" Cut="0.0000000000000000e+00" cType="1" res="-2.3985062725841999e-03" rms="4.2371597886085510e-01" purity="2.4725706875324249e-01" nType="-99"/>
          <Node pos="r" depth="2" NCoef="0" IVar="-1" Cut="0.0000000000000000e+00" cType="1" res="-6.3932157354429364e-04" rms="4.6223104000091553e-01" purity="3.7319469451904297e-01" nType="-99"/>
        </Node>
        <Node pos="r" depth="1" NCoef="0" IVar="3" Cut="1.8048486328125000e+02" cType="1" res="8.3759233355522156e-02" rms="4.5318523049354553e-01" purity="6.7546665668487549e-01" nType="0">
          <Node pos="l" depth="2" NCoef="0" IVar="-1" Cut="0.0000000000000000e+00" cType="1" res="-5.5596872698515654e-04" rms="4.8244464397430420e-01" purity="5.5938118696212769e-01" nType="-99"/>
          <Node pos="r" depth="2" NCoef="0" IVar="-1" Cut="0.0000000000000000e+00" cType="1" res="2.1358274389058352e-03" rms="4.2288500070571899e-01" purity="7.3743200302124023e-01" nType="-99"/>
        </Node>
      </Node>
    </BinaryTree>
    <BinaryTree type="DecisionTree" boostWeight="1.0000000000000000e+00" itree="147">
      <Node pos="s" depth="0" NCoef="0" IVar="2" Cut="9.5021104812622070e-01" cType="1" res="-5.0968807190656662e-03" rms="4.6343842148780823e-01" purity="4.9286782741546631e-01" nType="0">
        <Node pos="l" depth="1" NCoef="0" IVar="3" Cut="1.6893058776855469e+02" cType="1" res="-7.5168125331401825e-02" rms="4.5901042222976685e-01" purity="3.3600202202796936e-01" nType="0">
          <Node pos="l" depth="2" NCoef="0" IVar="-1" Cut="0.0000000000000000e+00" cType="1" res="-2.4947207421064377e-03" rms="4.2500442266464233e-01" purity="2.3860235512256622e-01" nType="-99"/>
          <Node pos="r" depth="2" NCoef="0" IVar="-1" Cut="0.0000000000000000e+00" cType="1" res="-6.3024024711921811e-04" rms="4.6815112233161926e-01" purity="3.7658286094665527e-01" nType="-99"/>
        </Node>
        <Node pos="r" depth="1" NCoef="0" IVar="6" Cut="7.5304168462753296e-01" cType="1" res="7.4212558567523956e-02" rms="4.5557767152786255e-01" purity="6.7041480541229248e-01" nType="0">
          <Node pos="l" depth="2" NCoef="0" IVar="-1" Cut="0.0000000000000000e+00" cType="1" res="1.8009400228038430e-03" rms="4.3414181470870972e-01" purity="7.3295229673385620e-01" nType="-99"/>
          <Node pos="r" depth="2" NCoef="0" IVar="-1" Cut="0.0000000000000000e+00" cType="1" res="-2.2843263286631554e-04" rms="4.8072648048400879e-01" purity="5.5310857295989990e-01" nType="-99"/>
        </Node>
      </Node>
    </BinaryTree>
    <BinaryTree type="DecisionTree" boostWeight="1.0000000000000000e+00" itree="148">
      <Node pos="s" depth="0" NCoef="0" IVar="1" Cut="1.2502900362014771e+00" cType="1" res="4.0206848643720150e-03" rms="4.6866604685783386e-01" purity="5.0073397159576416e-01" nType="0">
        <Node pos="l" depth="1" NCoef="0" IVar="4" Cut="3.3442337036132812e+02" cType="1" res="3.8981307297945023e-02" rms="4.7299093008041382e-01" purity="5.6108552217483521e-01" nType="0">
          <Node pos="l" depth="2" NCoef="0" IVar="-1" Cut="0.0000000000000000e+00" cType="1" res="-1.9071571296080947e-03" rms="4.5060700178146362e-01" purity="3.2003453373908997e-01" nType="-99"/>
          <Node pos="r" depth="2" NCoef="0" IVar="-1" Cut="0.0000000000000000e+00" cType="1" res="8.7451282888650894e-04" rms="4.7169449925422668e-01" purity="5.9054708480834961e-01" nType="-99"/>
        </Node>
        <Node pos="r" depth="1" NCoef="0" IVar="3" Cut="3.7214907836914062e+02" cType="1" res="-1.1271160840988159e-01" rms="4.3398424983024597e-01" purity="2.9922208189964294e-01" nType="0">
          <Node pos="l" depth="2" NCoef="0" IVar="-1" Cut="0.0000000000000000e+00" cType="1" res="-1.2198474723845720e-03" rms="4.4878134131431580e-01" purity="3.3808195590972900e-01" nType="-99"/>
          <Node pos="r" depth="2" NCoef="0" IVar="-1" Cut="0.0000000000000000e+00" cType="1" res="-3.7923783529549837e-03" rms="3.6421871185302734e-01" purity="1.8289722502231598e-01" nType="-99"/>
        </Node>
      </Node>
    </BinaryTree>
    <BinaryTree type="DecisionTree" boostWeight="1.0000000000000000e+00" itree="149">
      <Node pos="s" depth="0" NCoef="0" IVar="2" Cut="9.6499478816986084e-01" cType="1" res="-1.8613621592521667e-02" rms="4.5991054177284241e-01" purity="4.7927471995353699e-01" nType="0">
        <Node pos="l" depth="1" NCoef="0" IVar="3" Cut="2.0702316284179688e+02" cType="1" res="-7.0208348333835602e-02" rms="4.6393376588821411e-01" purity="3.7867954373359680e-01" nType="0">
          <Node pos="l" depth="2" NCoef="0" IVar="-1" Cut="0.0000000000000000e+00" cType="1" res="-2.1907419431954622e-03" rms="4.4998636841773987e-01" purity="3.0209967494010925e-01" nType="-99"/>
          <Node pos="r" depth="2" NCoef="0" IVar="-1" Cut="0.0000000000000000e+00" cType="1" res="8.9059081801678985e-05" rms="4.6663555502891541e-01" purity="4.6094727516174316e-01" nType="-99"/>
        </Node>
        <Node pos="r" depth="1" NCoef="0" IVar="0" Cut="4.4119268798828125e+02" cType="1" res="1.2813934683799744e-01" rms="4.1453295946121216e-01" purity="7.6540154218673706e-01" nType="0">
          <Node pos="l" depth="2" NCoef="0" IVar="-1" Cut="0.0000000000000000e+00" cType="1" res="2.3387663532048464e-03" rms="3.9442700147628784e-01" purity="7.9252582788467407e-01" nType="-99"/>
          <Node pos="r" depth="2" NCoef="0" IVar="-1" Cut="0.0000000000000000e+00" cType="1" res="9.2342095740605146e-05" rms="4.6451756358146667e-01" purity="6.6064566373825073e-01" nType="-99"/>
        </Node>
      </Node>
    </BinaryTree>
    <BinaryTree type="DecisionTree" boostWeight="1.0000000000000000e+00" itree="150">
      <Node pos="s" depth="0" NCoef="0" IVar="1" Cut="1.0988034009933472e+00" cType="1" res="-5.5413497611880302e-03" rms="4.5828512310981750e-01" purity="4.8777630925178528e-01" nType="0">
        <Node pos="l" depth="1" NCoef="0" IVar="2" Cut="9.3853223323822021e-01" cType="1" res="6.0093082487583160e-02" rms="4.6072795987129211e-01" purity="5.8368426561355591e-01" nType="0">
          <Node pos="l" depth="2" NCoef="0" IVar="-1" Cut="0.0000000000000000e+00" cType="1" res="-7.8139931429177523e-04" rms="4.7149860858917236e-01" purity="3.6055442690849304e-01" nType="-99"/>
          <Node pos="r" depth="2" NCoef="0" IVar="-1" Cut="0.0000000000000000e+00" cType="1" res="1.7580488929525018e-03" rms="4.4324842095375061e-01" purity="7.0396995544433594e-01" nType="-99"/>
        </Node>
        <Node pos="r" depth="1" NCoef="0" IVar="2" Cut="9.6486175060272217e-01" cType="1" res="-1.3669320940971375e-01" rms="4.2394611239433289e-01" purity="2.9613122344017029e-01" nType="0">
          <Node pos="l" depth="2" NCoef="0" IVar="-1" Cut="0.0000000000000000e+00" cType="1" res="-3.0169114470481873e-03" rms="3.9419749379158020e-01" purity="2.1494919061660767e-01" nType="-99"/>
          <Node pos="r" depth="2" NCoef="0" IVar="-1" Cut="0.0000000000000000e+00" cType="1" res="3.3437320962548256e-04" rms="4.8399701714515686e-01" purity="5.8713865280151367e-01" nType="-99"/>
        </Node>
      </Node>
    </BinaryTree>
    <BinaryTree type="DecisionTree" boostWeight="1.0000000000000000e+00" itree="151">
      <Node pos="s" depth="0" NCoef="0" IVar="1" Cut="1.5483950376510620e+00" cType="1" res="-1.0521627264097333e-03" rms="4.5896759629249573e-01" purity="4.9437958002090454e-01" nType="0">
        <Node pos="l" depth="1" NCoef="0" IVar="2" Cut="9.3134349584579468e-01" cType="1" res="2.5234390050172806e-02" rms="4.6350359916687012e-01" purity="5.3480118513107300e-01" nType="0">
          <Node pos="l" depth="2" NCoef="0" IVar="-1" Cut="0.0000000000000000e+00" cType="1" res="-1.9256302621215582e-03" rms="4.2797172069549561e-01" purity="2.6720786094665527e-01" nType="-99"/>
          <Node pos="r" depth="2" NCoef="0" IVar="-1" Cut="0.0000000000000000e+00" cType="1" res="1.1083451099693775e-03" rms="4.6435952186584473e-01" purity="6.2633049488067627e-01" nType="-99"/>
        </Node>
        <Node pos="r" depth="1" NCoef="0" IVar="-1" Cut="0.0000000000000000e+00" cType="1" res="-4.1996873915195465e-03" rms="3.3433681726455688e-01" purity="1.3287168741226196e-01" nType="-99"/>
      </Node>
    </BinaryTree>
    <BinaryTree type="DecisionTree" boostWeight="1.0000000000000000e+00" itree="152">
      <Node pos="s" depth="0" NCoef="0" IVar="1" Cut="1.0998611450195312e+00" cType="1" res="-9.6683437004685402e-03" rms="4.6018803119659424e-01" purity="4.8337116837501526e-01" nType="0">
        <Node pos="l" depth="1" NCoef="0" IVar="3" Cut="1.9295951843261719e+02" cType="1" res="4.5244731009006500e-02" rms="4.6261382102966309e-01" purity="5.7117265462875366e-01" nType="0">
          <Node pos="l" depth="2" NCoef="0" IVar="-1" Cut="0.0000000000000000e+00" cType="1" res="-7.7498838072642684e-04" rms="4.6058490872383118e-01" purity="4.4847005605697632e-01" nType="-99"/>
          <Node pos="r" depth="2" NCoef="0" IVar="-1" Cut="0.0000000000000000e+00" cType="1" res="2.2372917737811804e-03" rms="4.4073998928070068e-01" purity="7.0652651786804199e-01" nType="-99"/>
        </Node>
        <Node pos="r" depth="1" NCoef="0" IVar="1" Cut="1.3771433830261230e+00" cType="1" res="-1.2133039534091949e-01" rms="4.3430522084236145e-01" purity="3.0483260750770569e-01" nType="0">
          <Node pos="l" depth="2" NCoef="0" IVar="-1" Cut="0.0000000000000000e+00" cType="1" res="-9.1655040159821510e-04" rms="4.7205856442451477e-01" purity="4.0289464592933655e-01" nType="-99"/>
          <Node pos="r" depth="2" NCoef="0" IVar="-1" Cut="0.0000000000000000e+00" cType="1" res="-3.2194210216403008e-03" rms="3.7774175405502319e-01" purity="1.9791583716869354e-01" nType="-99"/>
        </Node>
      </Node>
    </BinaryTree>
    <BinaryTree type="DecisionTree" boostWeight="1.0000000000000000e+00" itree="153">
      <Node pos="s" depth="0" NCoef="0" IVar="3" Cut="4.8042694091796875e+02" cType="1" res="-1.4418059960007668e-02" rms="4.6744000911712646e-01" purity="4.8396012187004089e-01" nType="0">
        <Node pos="l" depth="1" NCoef="0" IVar="2" Cut="9.1313052177429199e-01" cType="1" res="2.4723273236304522e-03" rms="4.6838912367820740e-01" purity="5.0306397676467896e-01" nType="0">
          <Node pos="l" depth="2" NCoef="0" IVar="-1" Cut="0.0000000000000000e+00" cType="1" res="-3.3657040912657976e-03" rms="3.6095720529556274e-01" purity="1.5716284513473511e-01" nType="-99"/>
          <Node pos="r" depth="2" NCoef="0" IVar="-1" Cut="0.0000000000000000e+00" cType="1" res="2.8436182765290141e-04" rms="4.7181206941604614e-01" purity="5.3001564741134644e-01" nType="-99"/>
        </Node>
        <Node pos="r" depth="1" NCoef="0" IVar="-1" Cut="0.0000000000000000e+00" cType="1" res="-5.8867428451776505e-03" rms="3.0938348174095154e-01" purity="1.2498591840267181e-01" nType="-99"/>
      </Node>
    </BinaryTree>
    <BinaryTree type="DecisionTree" boostWeight="1.0000000000000000e+00" itree="154">
      <Node pos="s" depth="0" NCoef="0" IVar="2" Cut="9.6632319688796997e-01" cType="1" res="1.4775318093597889e-02" rms="4.6742793917655945e-01" purity="5.1438444852828979e-01" nType="0">
        <Node pos="l" depth="1" NCoef="0" IVar="1" Cut="1.6199799776077271e+00" cType="1" res="-1.9428268074989319e-02" rms="4.7433692216873169e-01" purity="4.4090309739112854e-01" nType="0">
          <Node pos="l" depth="2" NCoef="0" IVar="-1" Cut="0.0000000000000000e+00" cType="1" res="2.0404670067364350e-05" rms="4.8122090101242065e-01" purity="4.7123602032661438e-01" nType="-99"/>
          <Node pos="r" depth="2" NCoef="0" IVar="-1" Cut="0.0000000000000000e+00" cType="1" res="-4.1326009668409824e-03" rms="3.2111993432044983e-01" purity="1.2124792486429214e-01" nType="-99"/>
        </Node>
        <Node pos="r" depth="1" NCoef="0" IVar="5" Cut="1.3672372436523438e+02" cType="1" res="1.2762284278869629e-01" rms="4.2476734519004822e-01" purity="7.5682055950164795e-01" nType="0">
          <Node pos="l" depth="2" NCoef="0" IVar="-1" Cut="0.0000000000000000e+00" cType="1" res="2.5965492241084576e-03" rms="3.8980662822723389e-01" purity="7.9979079961776733e-01" nType="-99"/>
          <Node pos="r" depth="2" NCoef="0" IVar="-1" Cut="0.0000000000000000e+00" cType="1" res="3.6858601379208267e-04" rms="4.7079294919967651e-01" purity="6.6995328664779663e-01" nType="-99"/>
        </Node>
      </Node>
    </BinaryTree>
    <BinaryTree type="DecisionTree" boostWeight="1.0000000000000000e+00" itree="155">
      <Node pos="s" depth="0" NCoef="0" IVar="1" Cut="1.5215884447097778e+00" cType="1" res="-8.1818411126732826e-03" rms="4.5891103148460388e-01" purity="4.8137047886848450e-01" nType="0">
        <Node pos="l" depth="1" NCoef="0" IVar="2" Cut="9.2111372947692871e-01" cType="1" res="1.9223276525735855e-02" rms="4.6406468749046326e-01" purity="5.2288478612899780e-01" nType="0">
          <Node pos="l" depth="2" NCoef="0" IVar="-1" Cut="0.0000000000000000e+00" cType="1" res="-2.8866599313914776e-03" rms="3.8911908864974976e-01" purity="1.9833879172801971e-01" nType="-99"/>
          <Node pos="r" depth="2" NCoef="0" IVar="-1" Cut="0.0000000000000000e+00" cType="1" res="7.3052285006269813e-04" rms="4.6732810139656067e-01" purity="5.7253926992416382e-01" nType="-99"/>
        </Node>
        <Node pos="r" depth="1" NCoef="0" IVar="1" Cut="1.7175897359848022e+00" cType="1" res="-2.3393617570400238e-01" rms="3.3802866935729980e-01" purity="1.3938909769058228e-01" nType="0">
          <Node pos="l" depth="2" NCoef="0" IVar="-1" Cut="0.0000000000000000e+00" cType="1" res="-3.2440365757793188e-03" rms="3.9189305901527405e-01" purity="1.9671472907066345e-01" nType="-99"/>
          <Node pos="r" depth="2" NCoef="0" IVar="-1" Cut="0.0000000000000000e+00" cType="1" res="-4.9133170396089554e-03" rms="2.7361062169075012e-01" purity="8.7099142372608185e-02" nType="-99"/>
        </Node>
      </Node>
    </BinaryTree>
    <BinaryTree type="DecisionTree" boostWeight="1.0000000000000000e+00" itree="156">
      <Node pos="s" depth="0" NCoef="0" IVar="2" Cut="9.2236101627349854e-01" cType="1" res="-2.0437918603420258e-02" rms="4.6339690685272217e-01" purity="4.7110468149185181e-01" nType="0">
        <Node pos="l" depth="1" NCoef="0" IVar="6" Cut="6.2658029794692993e-01" cType="1" res="-1.9419838488101959e-01" rms="3.7208735942840576e-01" purity="1.7248009145259857e-01" nType="0">
          <Node pos="l" depth="2" NCoef="0" IVar="-1" Cut="0.0000000000000000e+00" cType="1" res="-4.8056952655315399e-03" rms="2.9413339495658875e-01" purity="1.0138517618179321e-01" nType="-99"/>
          <Node pos="r" depth="2" NCoef="0" IVar="-1" Cut="0.0000000000000000e+00" cType="1" res="-2.2618283983319998e-03" rms="4.0685144066810608e-01" purity="2.2148349881172180e-01" nType="-99"/>
        </Node>
        <Node pos="r" depth="1" NCoef="0" IVar="1" Cut="1.1007227897644043e+00" cType="1" res="9.1036157682538033e-03" rms="4.7085106372833252e-01" purity="5.2187478542327881e-01" nType="0">
          <Node pos="l" depth="2" NCoef="0" IVar="-1" Cut="0.0000000000000000e+00" cType="1" res="8.3946174709126353e-04" rms="4.6989905834197998e-01" purity="6.0711765289306641e-01" nType="-99"/>
          <Node pos="r" depth="2" NCoef="0" IVar="-1" Cut="0.0000000000000000e+00" cType="1" res="-1.3736491091549397e-03" rms="4.5772582292556763e-01" purity="3.5091909766197205e-01" nType="-99"/>
        </Node>
      </Node>
    </BinaryTree>
    <BinaryTree type="DecisionTree" boostWeight="1.0000000000000000e+00" itree="157">
      <Node pos="s" depth="0" NCoef="0" IVar="2" Cut="9.6014529466629028e-01" cType="1" res="3.2567899674177170e-02" rms="4.6219468116760254e-01" purity="5.3088349103927612e-01" nType="0">
        <Node pos="l" depth="1" NCoef="0" IVar="1" Cut="7.5898307561874390e-01" cType="1" res="-2.3301502689719200e-02" rms="4.7594809532165527e-01" purity="4.1077536344528198e-01" nType="0">
          <Node pos="l" depth="2" NCoef="0" IVar="-1" Cut="0.0000000000000000e+00" cType="1" res="8.5255719022825360e-04" rms="4.8530000448226929e-01" purity="5.2490985393524170e-01" nType="-99"/>
          <Node pos="r" depth="2" NCoef="0" IVar="-1" Cut="0.0000000000000000e+00" cType="1" res="-1.0691422503441572e-03" rms="4.6457040309906006e-01" purity="3.4761953353881836e-01" nType="-99"/>
        </Node>
        <Node pos="r" depth="1" NCoef="0" IVar="3" Cut="2.7774890136718750e+02" cType="1" res="1.4296123385429382e-01" rms="4.1203770041465759e-01" purity="7.6820719242095947e-01" nType="0">
          <Node pos="l" depth="2" NCoef="0" IVar="-1" Cut="0.0000000000000000e+00" cType="1" res="2.5072928983718157e-03" rms="3.9790922403335571e-01" purity="7.9752033948898315e-01" nType="-99"/>
          <Node pos="r" depth="2" NCoef="0" IVar="-1" Cut="0.0000000000000000e+00" cType="1" res="5.9844716452062130e-04" rms="4.4825527071952820e-01" purity="6.5361511707305908e-01" nType="-99"/>
        </Node>
      </Node>
    </BinaryTree>
    <BinaryTree type="DecisionTree" boostWeight="1.0000000000000000e+00" itree="158">
      <Node pos="s" depth="0" NCoef="0" IVar="1" Cut="1.4267261028289795e+00" cType="1" res="5.7672224938869476e-03" rms="4.6100503206253052e-01" purity="4.9825838208198547e-01" nType="0">
        <Node pos="l" depth="1" NCoef="0" IVar="2" Cut="9.3514961004257202e-01" cType="1" res="3.7507053464651108e-02" rms="4.6438243985176086e-01" purity="5.5069005489349365e-01" nType="0">
          <Node pos="l" depth="2" NCoef="0" IVar="-1" Cut="0.0000000000000000e+00" cType="1" res="-1.0629297466948628e-03" rms="4.5630356669425964e-01" purity="3.2735529541969299e-01" nType="-99"/>
          <Node pos="r" depth="2" NCoef="0" IVar="-1" Cut="0.0000000000000000e+00" cType="1" res="1.2310488382354379e-03" rms="4.6024107933044434e-01" purity="6.4708793163299561e-01" nType="-99"/>
        </Node>
        <Node pos="r" depth="1" NCoef="0" IVar="1" Cut="1.6851575374603271e+00" cType="1" res="-1.6491813957691193e-01" rms="4.0145644545555115e-01" purity="2.1629975736141205e-01" nType="0">
          <Node pos="l" depth="2" NCoef="0" IVar="-1" Cut="0.0000000000000000e+00" cType="1" res="-1.6547027043998241e-03" rms="4.4879442453384399e-01" purity="2.8187590837478638e-01" nType="-99"/>
          <Node pos="r" depth="2" NCoef="0" IVar="-1" Cut="0.0000000000000000e+00" cType="1" res="-4.6083354391157627e-03" rms="2.9683256149291992e-01" purity="1.2053728848695755e-01" nType="-99"/>
        </Node>
      </Node>
    </BinaryTree>
    <BinaryTree type="DecisionTree" boostWeight="1.0000000000000000e+00" itree="159">
      <Node pos="s" depth="0" NCoef="0" IVar="2" Cut="9.3581777811050415e-01" cType="1" res="2.7858749032020569e-02" rms="4.6102231740951538e-01" purity="5.3225827217102051e-01" nType="0">
        <Node pos="l" depth="1" NCoef="0" IVar="3" Cut="1.8036866760253906e+02" cType="1" res="-8.0809749662876129e-02" rms="4.4445967674255371e-01" purity="2.9836118221282959e-01" nType="0">
          <Node pos="l" depth="2" NCoef="0" IVar="-1" Cut="0.0000000000000000e+00" cType="1" res="-2.7297828346490860e-03" rms="3.9593216776847839e-01" purity="2.0387780666351318e-01" nType="-99"/>
          <Node pos="r" depth="2" NCoef="0" IVar="-1" Cut="0.0000000000000000e+00" cType="1" res="-4.0323103894479573e-04" rms="4.6349340677261353e-01" purity="3.5714271664619446e-01" nType="-99"/>
        </Node>
        <Node pos="r" depth="1" NCoef="0" IVar="2" Cut="9.7590947151184082e-01" cType="1" res="7.1394480764865875e-02" rms="4.6035155653953552e-01" purity="6.2596422433853149e-01" nType="0">
          <Node pos="l" depth="2" NCoef="0" IVar="-1" Cut="0.0000000000000000e+00" cType="1" res="5.8783299755305052e-04" rms="4.7982886433601379e-01" purity="5.7359200716018677e-01" nType="-99"/>
          <Node pos="r" depth="2" NCoef="0" IVar="-1" Cut="0.0000000000000000e+00" cType="1" res="3.2147201709449291e-03" rms="3.2357743382453918e-01" purity="8.6139994859695435e-01" nType="-99"/>
        </Node>
      </Node>
    </BinaryTree>
    <BinaryTree type="DecisionTree" boostWeight="1.0000000000000000e+00" itree="160">
      <Node pos="s" depth="0" NCoef="0" IVar="4" Cut="3.2148724365234375e+02" cType="1" res="9.6778320148587227e-03" rms="4.6270823478698730e-01" purity="5.0692445039749146e-01" nType="0">
        <Node pos="l" depth="1" NCoef="0" IVar="-1" Cut="0.0000000000000000e+00" cType="1" res="-3.4145228564739227e-03" rms="4.1000342369079590e-01" purity="2.1172073483467102e-01" nType="-99"/>
        <Node pos="r" depth="1" NCoef="0" IVar="2" Cut="9.4985532760620117e-01" cType="1" res="3.1098220497369766e-02" rms="4.6215730905532837e-01" purity="5.3624641895294189e-01" nType="0">
          <Node pos="l" depth="2" NCoef="0" IVar="-1" Cut="0.0000000000000000e+00" cType="1" res="-5.5065075866878033e-04" rms="4.6892267465591431e-01" purity="3.7311303615570068e-01" nType="-99"/>
          <Node pos="r" depth="2" NCoef="0" IVar="-1" Cut="0.0000000000000000e+00" cType="1" res="1.4167847111821175e-03" rms="4.4572374224662781e-01" purity="6.9732767343521118e-01" nType="-99"/>
        </Node>
      </Node>
    </BinaryTree>
    <BinaryTree type="DecisionTree" boostWeight="1.0000000000000000e+00" itree="161">
      <Node pos="s" depth="0" NCoef="0" IVar="2" Cut="9.5952153205871582e-01" cType="1" res="1.8100913614034653e-02" rms="4.5710599422454834e-01" purity="5.2076983451843262e-01" nType="0">
        <Node pos="l" depth="1" NCoef="0" IVar="1" Cut="1.6193000078201294e+00" cType="1" res="-4.0626037865877151e-02" rms="4.6487241983413696e-01" purity="4.0094506740570068e-01" nType="0">
          <Node pos="l" depth="2" NCoef="0" IVar="-1" Cut="0.0000000000000000e+00" cType="1" res="-3.1589393620379269e-04" rms="4.7445228695869446e-01" purity="4.2982956767082214e-01" nType="-99"/>
          <Node pos="r" depth="2" NCoef="0" IVar="-1" Cut="0.0000000000000000e+00" cType="1" res="-5.1623559556901455e-03" rms="2.2278532385826111e-01" purity="5.5446024984121323e-02" nType="-99"/>
        </Node>
        <Node pos="r" depth="1" NCoef="0" IVar="4" Cut="6.0368548583984375e+02" cType="1" res="1.3994076848030090e-01" rms="4.1483721137046814e-01" purity="7.6936835050582886e-01" nType="0">
          <Node pos="l" depth="2" NCoef="0" IVar="-1" Cut="0.0000000000000000e+00" cType="1" res="1.6626656288281083e-03" rms="4.3546327948570251e-01" purity="7.3399430513381958e-01" nType="-99"/>
          <Node pos="r" depth="2" NCoef="0" IVar="-1" Cut="0.0000000000000000e+00" cType="1" res="3.7101635243743658e-03" rms="2.9854846000671387e-01" purity="9.0427404642105103e-01" nType="-99"/>
        </Node>
      </Node>
    </BinaryTree>
    <BinaryTree type="DecisionTree" boostWeight="1.0000000000000000e+00" itree="162">
      <Node pos="s" depth="0" NCoef="0" IVar="3" Cut="1.8242637634277344e+02" cType="1" res="1.7753515392541885e-02" rms="4.6177318692207336e-01" purity="5.1985639333724976e-01" nType="0">
        <Node pos="l" depth="1" NCoef="0" IVar="2" Cut="9.6934551000595093e-01" cType="1" res="-6.5445527434349060e-02" rms="4.5832809805870056e-01" purity="4.2890182137489319e-01" nType="0">
          <Node pos="l" depth="2" NCoef="0" IVar="-1" Cut="0.0000000000000000e+00" cType="1" res="-1.6721829306334257e-03" rms="4.5736610889434814e-01" purity="3.4957683086395264e-01" nType="-99"/>
          <Node pos="r" depth="2" NCoef="0" IVar="-1" Cut="0.0000000000000000e+00" cType="1" res="1.7923387931659818e-03" rms="4.1458785533905029e-01" purity="7.6628363132476807e-01" nType="-99"/>
        </Node>
        <Node pos="r" depth="1" NCoef="0" IVar="1" Cut="1.1507654190063477e+00" cType="1" res="6.3755378127098083e-02" rms="4.5721289515495300e-01" purity="5.7014644145965576e-01" nType="0">
          <Node pos="l" depth="2" NCoef="0" IVar="-1" Cut="0.0000000000000000e+00" cType="1" res="2.0192395895719528e-03" rms="4.4599235057830811e-01" purity="6.9488441944122314e-01" nType="-99"/>
          <Node pos="r" depth="2" NCoef="0" IVar="-1" Cut="0.0000000000000000e+00" cType="1" res="-1.0356255806982517e-03" rms="4.4748356938362122e-01" purity="3.5494434833526611e-01" nType="-99"/>
        </Node>
      </Node>
    </BinaryTree>
    <BinaryTree type="DecisionTree" boostWeight="1.0000000000000000e+00" itree="163">
      <Node pos="s" depth="0" NCoef="0" IVar="2" Cut="9.6353214979171753e-01" cType="1" res="-1.4252109453082085e-02" rms="4.5692124962806702e-01" purity="4.8408874869346619e-01" nType="0">
        <Node pos="l" depth="1" NCoef="0" IVar="1" Cut="1.0612733364105225e+00" cType="1" res="-7.2410114109516144e-02" rms="4.6180805563926697e-01" purity="3.6953869462013245e-01" nType="0">
          <Node pos="l" depth="2" NCoef="0" IVar="-1" Cut="0.0000000000000000e+00" cType="1" res="-4.3322404962964356e-04" rms="4.8287647962570190e-01" purity="4.5090731978416443e-01" nType="-99"/>
          <Node pos="r" depth="2" NCoef="0" IVar="-1" Cut="0.0000000000000000e+00" cType="1" res="-2.1897188853472471e-03" rms="4.2253124713897705e-01" purity="2.5362959504127502e-01" nType="-99"/>
        </Node>
        <Node pos="r" depth="1" NCoef="0" IVar="1" Cut="8.3097094297409058e-01" cType="1" res="1.2865987420082092e-01" rms="4.1110739111900330e-01" purity="7.6557320356369019e-01" nType="0">
          <Node pos="l" depth="2" NCoef="0" IVar="-1" Cut="0.0000000000000000e+00" cType="1" res="2.8208657167851925e-03" rms="3.5259911417961121e-01" purity="8.5297465324401855e-01" nType="-99"/>
          <Node pos="r" depth="2" NCoef="0" IVar="-1" Cut="0.0000000000000000e+00" cType="1" res="1.0079295607283711e-03" rms="4.5509788393974304e-01" purity="6.7651969194412231e-01" nType="-99"/>
        </Node>
      </Node>
    </BinaryTree>
    <BinaryTree type="DecisionTree" boostWeight="1.0000000000000000e+00" itree="164">
      <Node pos="s" depth="0" NCoef="0" IVar="1" Cut="1.2973062992095947e+00" cType="1" res="1.2294990941882133e-02" rms="4.5936450362205505e-01" purity="5.1260197162628174e-01" nType="0">
        <Node pos="l" depth="1" NCoef="0" IVar="3" Cut="2.0596708679199219e+02" cType="1" res="4.6001359820365906e-02" rms="4.6060833334922791e-01" purity="5.6945478916168213e-01" nType="0">
          <Node pos="l" depth="2" NCoef="0" IVar="-1" Cut="0.0000000000000000e+00" cType="1" res="-4.8251563566736877e-04" rms="4.6126458048820496e-01" purity="4.7468820214271545e-01" nType="-99"/>
          <Node pos="r" depth="2" NCoef="0" IVar="-1" Cut="0.0000000000000000e+00" cType="1" res="1.8232611473649740e-03" rms="4.4630283117294312e-01" purity="6.6510236263275146e-01" nType="-99"/>
        </Node>
        <Node pos="r" depth="1" NCoef="0" IVar="3" Cut="2.5288247680664062e+02" cType="1" res="-1.2969627976417542e-01" rms="4.2573207616806030e-01" purity="2.7310416102409363e-01" nType="0">
          <Node pos="l" depth="2" NCoef="0" IVar="-1" Cut="0.0000000000000000e+00" cType="1" res="-7.4096187017858028e-04" rms="4.6215182542800903e-01" purity="3.5863620042800903e-01" nType="-99"/>
          <Node pos="r" depth="2" NCoef="0" IVar="-1" Cut="0.0000000000000000e+00" cType="1" res="-3.4899802412837744e-03" rms="3.7120255827903748e-01" purity="1.9222772121429443e-01" nType="-99"/>
        </Node>
      </Node>
    </BinaryTree>
    <BinaryTree type="DecisionTree" boostWeight="1.0000000000000000e+00" itree="165">
      <Node pos="s" depth="0" NCoef="0" IVar="2" Cut="9.3488812446594238e-01" cType="1" res="1.1038771830499172e-02" rms="4.6271836757659912e-01" purity="5.1146638393402100e-01" nType="0">
        <Node pos="l" depth="1" NCoef="0" IVar="6" Cut="8.3147335052490234e-01" cType="1" res="-8.9021384716033936e-02" rms="4.4110527634620667e-01" purity="2.9562428593635559e-01" nType="0">
          <Node pos="l" depth="2" NCoef="0" IVar="-1" Cut="0.0000000000000000e+00" cType="1" res="-6.5194786293432117e-04" rms="4.6393460035324097e-01" purity="3.5093715786933899e-01" nType="-99"/>
          <Node pos="r" depth="2" NCoef="0" IVar="-1" Cut="0.0000000000000000e+00" cType="1" res="-3.5502184182405472e-03" rms="3.4740966558456421e-01" purity="1.5058368444442749e-01" nType="-99"/>
        </Node>
        <Node pos="r" depth="1" NCoef="0" IVar="1" Cut="6.6788393259048462e-01" cType="1" res="5.2527781575918198e-02" rms="4.6511858701705933e-01" purity="6.0096323490142822e-01" nType="0">
          <Node pos="l" depth="2" NCoef="0" IVar="-1" Cut="0.0000000000000000e+00" cType="1" res="2.1728125866502523e-03" rms="4.1913753747940063e-01" purity="7.4139451980590820e-01" nType="-99"/>
          <Node pos="r" depth="2" NCoef="0" IVar="-1" Cut="0.0000000000000000e+00" cType="1" res="2.2676370281260461e-04" rms="4.7628805041313171e-01" purity="5.4707080125808716e-01" nType="-99"/>
        </Node>
      </Node>
    </BinaryTree>
    <BinaryTree type="DecisionTree" boostWeight="1.0000000000000000e+00" itree="166">
      <Node pos="s" depth="0" NCoef="0" IVar="2" Cut="9.6439296007156372e-01" cType="1" res="-7.9598855227231979e-03" rms="4.6178570389747620e-01" purity="4.9276277422904968e-01" nType="0">
        <Node pos="l" depth="1" NCoef="0" IVar="1" Cut="8.4965229034423828e-01" cType="1" res="-5.4269872605800629e-02" rms="4.6828016638755798e-01" purity="3.9382612705230713e-01" nType="0">
          <Node pos="l" depth="2" NCoef="0" IVar="-1" Cut="0.0000000000000000e+00" cType="1" res="3.7714588688686490e-04" rms="4.8671996593475342e-01" purity="5.1672506332397461e-01" nType="-99"/>
          <Node pos="r" depth="2" NCoef="0" IVar="-1" Cut="0.0000000000000000e+00" cType="1" res="-1.9053322030231357e-03" rms="4.4209349155426025e-01" purity="2.9388234019279480e-01" nType="-99"/>
        </Node>
        <Node pos="r" depth="1" NCoef="0" IVar="5" Cut="1.5805630493164062e+02" cType="1" res="1.1551794409751892e-01" rms="4.1973280906677246e-01" purity="7.5656092166900635e-01" nType="0">
          <Node pos="l" depth="2" NCoef="0" IVar="-1" Cut="0.0000000000000000e+00" cType="1" res="2.5900055188685656e-03" rms="3.8368147611618042e-01" purity="8.0892604589462280e-01" nType="-99"/>
          <Node pos="r" depth="2" NCoef="0" IVar="-1" Cut="0.0000000000000000e+00" cType="1" res="1.0805150850501377e-05" rms="4.6071326732635498e-01" purity="6.5517723560333252e-01" nType="-99"/>
        </Node>
      </Node>
    </BinaryTree>
    <BinaryTree type="DecisionTree" boostWeight="1.0000000000000000e+00" itree="167">
      <Node pos="s" depth="0" NCoef="0" IVar="2" Cut="9.3728679418563843e-01" cType="1" res="6.6082742996513844e-03" rms="4.5741045475006104e-01" purity="5.0960600376129150e-01" nType="0">
        <Node pos="l" depth="1" NCoef="0" IVar="0" Cut="4.7280072021484375e+02" cType="1" res="-1.0622079670429230e-01" rms="4.2838004231452942e-01" purity="2.7529463171958923e-01" nType="0">
          <Node pos="l" depth="2" NCoef="0" IVar="-1" Cut="0.0000000000000000e+00" cType="1" res="-2.2518886253237724e-03" rms="4.0797740221023560e-01" purity="2.2695356607437134e-01" nType="-99"/>
          <Node pos="r" depth="2" NCoef="0" IVar="-1" Cut="0.0000000000000000e+00" cType="1" res="9.8534172866493464e-04" rms="4.8535510897636414e-01" purity="5.2451068162918091e-01" nType="-99"/>
        </Node>
        <Node pos="r" depth="1" NCoef="0" IVar="2" Cut="9.7635567188262939e-01" cType="1" res="5.9061523526906967e-02" rms="4.6098735928535461e-01" purity="6.1853533983230591e-01" nType="0">
          <Node pos="l" depth="2" NCoef="0" IVar="-1" Cut="0.0000000000000000e+00" cType="1" res="5.1846157293766737e-04" rms="4.7357931733131409e-01" purity="5.7519900798797607e-01" nType="-99"/>
          <Node pos="r" depth="2" NCoef="0" IVar="-1" Cut="0.0000000000000000e+00" cType="1" res="2.7197292074561119e-03" rms="3.7272161245346069e-01" purity="8.2836163043975830e-01" nType="-99"/>
        </Node>
      </Node>
    </BinaryTree>
    <BinaryTree type="DecisionTree" boostWeight="1.0000000000000000e+00" itree="168">
      <Node pos="s" depth="0" NCoef="0" IVar="4" Cut="4.3126892089843750e+02" cType="1" res="2.6461072266101837e-03" rms="4.5957198739051819e-01" purity="5.0009453296661377e-01" nType="0">
        <Node pos="l" depth="1" NCoef="0" IVar="2" Cut="9.6451061964035034e-01" cType="1" res="-8.7227575480937958e-02" rms="4.4083291292190552e-01" purity="3.7410259246826172e-01" nType="0">
          <Node pos="l" depth="2" NCoef="0" IVar="-1" Cut="0.0000000000000000e+00" cType="1" res="-2.1001254208385944e-03" rms="4.2952987551689148e-01" purity="2.8405788540840149e-01" nType="-99"/>
          <Node pos="r" depth="2" NCoef="0" IVar="-1" Cut="0.0000000000000000e+00" cType="1" res="1.2357938103377819e-03" rms="4.4054725766181946e-01" purity="7.0592409372329712e-01" nType="-99"/>
        </Node>
        <Node pos="r" depth="1" NCoef="0" IVar="3" Cut="1.9294639587402344e+02" cType="1" res="7.2828270494937897e-02" rms="4.6168085932731628e-01" purity="5.9848135709762573e-01" nType="0">
          <Node pos="l" depth="2" NCoef="0" IVar="-1" Cut="0.0000000000000000e+00" cType="1" res="-9.8796060774475336e-04" rms="4.7225281596183777e-01" purity="4.5233976840972900e-01" nType="-99"/>
          <Node pos="r" depth="2" NCoef="0" IVar="-1" Cut="0.0000000000000000e+00" cType="1" res="1.8029627390205860e-03" rms="4.4782471656799316e-01" purity="6.4944964647293091e-01" nType="-99"/>
        </Node>
      </Node>
    </BinaryTree>
    <BinaryTree type="DecisionTree" boostWeight="1.0000000000000000e+00" itree="169">
      <Node pos="s" depth="0" NCoef="0" IVar="2" Cut="9.4842708110809326e-01" cType="1" res="-3.9400521200150251e-04" rms="4.6075615286827087e-01" purity="4.9977174401283264e-01" nType="0">
        <Node pos="l" depth="1" NCoef="0" IVar="1" Cut="9.6716511249542236e-01" cType="1" res="-6.4180970191955566e-02" rms="4.5399150252342224e-01" purity="3.3599883317947388e-01" nType="0">
          <Node pos="l" depth="2" NCoef="0" IVar="-1" Cut="0.0000000000000000e+00" cType="1" res="9.5413770395680331e-06" rms="4.8324915766716003e-01" purity="4.3249833583831787e-01" nType="-99"/>
          <Node pos="r" depth="2" NCoef="0" IVar="-1" Cut="0.0000000000000000e+00" cType="1" res="-2.2707877214998007e-03" rms="4.0591397881507874e-01" purity="2.2638586163520813e-01" nType="-99"/>
        </Node>
        <Node pos="r" depth="1" NCoef="0" IVar="3" Cut="2.0146391296386719e+02" cType="1" res="6.0867443680763245e-02" rms="4.5888838171958923e-01" purity="6.5706044435501099e-01" nType="0">
          <Node pos="l" depth="2" NCoef="0" IVar="-1" Cut="0.0000000000000000e+00" cType="1" res="-3.9119250141084194e-04" rms="4.8616939783096313e-01" purity="5.7639831304550171e-01" nType="-99"/>
          <Node pos="r" depth="2" NCoef="0" IVar="-1" Cut="0.0000000000000000e+00" cType="1" res="1.8060918664559722e-03" rms="4.2667108774185181e-01" purity="7.1633052825927734e-01" nType="-99"/>
        </Node>
      </Node>
    </BinaryTree>
    <BinaryTree type="DecisionTree" boostWeight="1.0000000000000000e+00" itree="170">
      <Node pos="s" depth="0" NCoef="0" IVar="2" Cut="9.7548246383666992e-01" cType="1" res="1.2808035127818584e-02" rms="4.6114784479141235e-01" purity="5.0631362199783325e-01" nType="0">
        <Node pos="l" depth="1" NCoef="0" IVar="2" Cut="9.1694641113281250e-01" cType="1" res="-8.6127649992704391e-03" rms="4.6801951527595520e-01" purity="4.6591648459434509e-01" nType="0">
          <Node pos="l" depth="2" NCoef="0" IVar="-1" Cut="0.0000000000000000e+00" cType="1" res="-2.8031938709318638e-03" rms="3.8365346193313599e-01" purity="1.9448731839656830e-01" nType="-99"/>
          <Node pos="r" depth="2" NCoef="0" IVar="-1" Cut="0.0000000000000000e+00" cType="1" res="1.5184118819888681e-04" rms="4.7366368770599365e-01" purity="4.9839437007904053e-01" nType="-99"/>
        </Node>
        <Node pos="r" depth="1" NCoef="0" IVar="-1" Cut="0.0000000000000000e+00" cType="1" res="2.9362321365624666e-03" rms="3.4763640165328979e-01" purity="8.5101884603500366e-01" nType="-99"/>
      </Node>
    </BinaryTree>
    <BinaryTree type="DecisionTree" boostWeight="1.0000000000000000e+00" itree="171">
      <Node pos="s" depth="0" NCoef="0" IVar="2" Cut="9.4186997413635254e-01" cType="1" res="-2.2102920338511467e-02" rms="4.5744657516479492e-01" purity="4.7793322801589966e-01" nType="0">
        <Node pos="l" depth="1" NCoef="0" IVar="4" Cut="7.0089215087890625e+02" cType="1" res="-1.0773230344057083e-01" rms="4.3036413192749023e-01" purity="2.8256136178970337e-01" nType="0">
          <Node pos="l" depth="2" NCoef="0" IVar="-1" Cut="0.0000000000000000e+00" cType="1" res="-2.1831898484379053e-03" rms="4.1562557220458984e-01" purity="2.4165993928909302e-01" nType="-99"/>
          <Node pos="r" depth="2" NCoef="0" IVar="-1" Cut="0.0000000000000000e+00" cType="1" res="1.0573270265012980e-03" rms="4.7449144721031189e-01" purity="5.3702604770660400e-01" nType="-99"/>
        </Node>
        <Node pos="r" depth="1" NCoef="0" IVar="1" Cut="1.5535527467727661e+00" cType="1" res="3.2536059617996216e-02" rms="4.6576333045959473e-01" purity="6.0259747505187988e-01" nType="0">
          <Node pos="l" depth="2" NCoef="0" IVar="-1" Cut="0.0000000000000000e+00" cType="1" res="7.7949784463271499e-04" rms="4.6542116999626160e-01" purity="6.3565874099731445e-01" nType="-99"/>
          <Node pos="r" depth="2" NCoef="0" IVar="-1" Cut="0.0000000000000000e+00" cType="1" res="-2.6967225130647421e-03" rms="4.2097872495651245e-01" purity="2.6854175329208374e-01" nType="-99"/>
        </Node>
      </Node>
    </BinaryTree>
    <BinaryTree type="DecisionTree" boostWeight="1.0000000000000000e+00" itree="172">
      <Node pos="s" depth="0" NCoef="0" IVar="1" Cut="1.1665340662002563e+00" cType="1" res="3.8418062031269073e-02" rms="4.5612314343452454e-01" purity="5.3450274467468262e-01" nType="0">
        <Node pos="l" depth="1" NCoef="0" IVar="4" Cut="4.0877947998046875e+02" cType="1" res="8.0703832209110260e-02" rms="4.5373082160949707e-01" purity="6.0992681980133057e-01" nType="0">
          <Node pos="l" depth="2" NCoef="0" IVar="-1" Cut="0.0000000000000000e+00" cType="1" res="-5.1796616753563285e-04" rms="4.5884284377098083e-01" purity="4.4271838665008545e-01" nType="-99"/>
          <Node pos="r" depth="2" NCoef="0" IVar="-1" Cut="0.0000000000000000e+00" cType="1" res="1.9323676824569702e-03" rms="4.4190412759780884e-01" purity="6.8443739414215088e-01" nType="-99"/>
        </Node>
        <Node pos="r" depth="1" NCoef="0" IVar="2" Cut="9.3845874071121216e-01" cType="1" res="-6.9838948547840118e-02" rms="4.4421118497848511e-01" purity="3.4140741825103760e-01" nType="0">
          <Node pos="l" depth="2" NCoef="0" IVar="-1" Cut="0.0000000000000000e+00" cType="1" res="-2.9078295920044184e-03" rms="3.6562532186508179e-01" purity="1.5947653353214264e-01" nType="-99"/>
          <Node pos="r" depth="2" NCoef="0" IVar="-1" Cut="0.0000000000000000e+00" cType="1" res="-1.2315504136495292e-05" rms="4.8113858699798584e-01" purity="4.7173896431922913e-01" nType="-99"/>
        </Node>
      </Node>
    </BinaryTree>
    <BinaryTree type="DecisionTree" boostWeight="1.0000000000000000e+00" itree="173">
      <Node pos="s" depth="0" NCoef="0" IVar="2" Cut="9.3050456047058105e-01" cType="1" res="6.6170496866106987e-03" rms="4.5881843566894531e-01" purity="4.9929851293563843e-01" nType="0">
        <Node pos="l" depth="1" NCoef="0" IVar="3" Cut="2.2812545776367188e+02" cType="1" res="-1.3357670605182648e-01" rms="4.1108149290084839e-01" purity="2.3487405478954315e-01" nType="0">
          <Node pos="l" depth="2" NCoef="0" IVar="-1" Cut="0.0000000000000000e+00" cType="1" res="-3.0182891059666872e-03" rms="3.7387520074844360e-01" purity="1.7508529126644135e-01" nType="-99"/>
          <Node pos="r" depth="2" NCoef="0" IVar="-1" Cut="0.0000000000000000e+00" cType="1" res="-6.7452108487486839e-04" rms="4.5316085219383240e-01" purity="3.3690840005874634e-01" nType="-99"/>
        </Node>
        <Node pos="r" depth="1" NCoef="0" IVar="1" Cut="6.6978025436401367e-01" cType="1" res="5.2183240652084351e-02" rms="4.6427038311958313e-01" purity="5.8524256944656372e-01" nType="0">
          <Node pos="l" depth="2" NCoef="0" IVar="-1" Cut="0.0000000000000000e+00" cType="1" res="2.0716208964586258e-03" rms="4.2999753355979919e-01" purity="7.3658686876296997e-01" nType="-99"/>
          <Node pos="r" depth="2" NCoef="0" IVar="-1" Cut="0.0000000000000000e+00" cType="1" res="3.0773787875659764e-04" rms="4.7151774168014526e-01" purity="5.3234052658081055e-01" nType="-99"/>
        </Node>
      </Node>
    </BinaryTree>
    <BinaryTree type="DecisionTree" boostWeight="1.0000000000000000e+00" itree="174">
      <Node pos="s" depth="0" NCoef="0" IVar="2" Cut="9.2445904016494751e-01" cType="1" res="9.1712139546871185e-03" rms="4.5465657114982605e-01" purity="5.0612783432006836e-01" nType="0">
        <Node pos="l" depth="1" NCoef="0" IVar="6" Cut="5.0471854209899902e-01" cType="1" res="-1.8241795897483826e-01" rms="3.7501463294029236e-01" purity="1.7881503701210022e-01" nType="0">
          <Node pos="l" depth="2" NCoef="0" IVar="-1" Cut="0.0000000000000000e+00" cType="1" res="-4.7555556520819664e-03" rms="2.8144130110740662e-01" purity="9.1244950890541077e-02" nType="-99"/>
          <Node pos="r" depth="2" NCoef="0" IVar="-1" Cut="0.0000000000000000e+00" cType="1" res="-2.1972367540001869e-03" rms="4.0384966135025024e-01" purity="2.2021956741809845e-01" nType="-99"/>
        </Node>
        <Node pos="r" depth="1" NCoef="0" IVar="2" Cut="9.6537852287292480e-01" cType="1" res="4.6345762908458710e-02" rms="4.5937940478324890e-01" purity="5.6963717937469482e-01" nType="0">
          <Node pos="l" depth="2" NCoef="0" IVar="-1" Cut="0.0000000000000000e+00" cType="1" res="8.7624910520389676e-05" rms="4.7691324353218079e-01" purity="4.8169150948524475e-01" nType="-99"/>
          <Node pos="r" depth="2" NCoef="0" IVar="-1" Cut="0.0000000000000000e+00" cType="1" res="2.2950812708586454e-03" rms="3.9136850833892822e-01" purity="7.9787921905517578e-01" nType="-99"/>
        </Node>
      </Node>
    </BinaryTree>
    <BinaryTree type="DecisionTree" boostWeight="1.0000000000000000e+00" itree="175">
      <Node pos="s" depth="0" NCoef="0" IVar="1" Cut="1.0607267618179321e+00" cType="1" res="1.1933806352317333e-02" rms="4.6081280708312988e-01" purity="5.1138073205947876e-01" nType="0">
        <Node pos="l" depth="1" NCoef="0" IVar="3" Cut="1.8355139160156250e+02" cType="1" res="6.1011008918285370e-02" rms="4.6210318803787231e-01" purity="5.9735190868377686e-01" nType="0">
          <Node pos="l" depth="2" NCoef="0" IVar="-1" Cut="0.0000000000000000e+00" cType="1" res="-3.9581517921760678e-04" rms="4.6382680535316467e-01" purity="4.8532721400260925e-01" nType="-99"/>
          <Node pos="r" depth="2" NCoef="0" IVar="-1" Cut="0.0000000000000000e+00" cType="1" res="2.0204258617013693e-03" rms="4.4641712307929993e-01" purity="6.9680392742156982e-01" nType="-99"/>
        </Node>
        <Node pos="r" depth="1" NCoef="0" IVar="2" Cut="9.6489846706390381e-01" cType="1" res="-8.0547682940959930e-02" rms="4.4386115670204163e-01" purity="3.4937599301338196e-01" nType="0">
          <Node pos="l" depth="2" NCoef="0" IVar="-1" Cut="0.0000000000000000e+00" cType="1" res="-2.0474148914217949e-03" rms="4.3073478341102600e-01" purity="2.7511027455329895e-01" nType="-99"/>
          <Node pos="r" depth="2" NCoef="0" IVar="-1" Cut="0.0000000000000000e+00" cType="1" res="1.7652119277045131e-03" rms="4.4816845655441284e-01" purity="6.9969528913497925e-01" nType="-99"/>
        </Node>
      </Node>
    </BinaryTree>
    <BinaryTree type="DecisionTree" boostWeight="1.0000000000000000e+00" itree="176">
      <Node pos="s" depth="0" NCoef="0" IVar="2" Cut="9.2390233278274536e-01" cType="1" res="1.7000339925289154e-02" rms="4.6193575859069824e-01" purity="5.1704257726669312e-01" nType="0">
        <Node pos="l" depth="1" NCoef="0" IVar="2" Cut="9.0905410051345825e-01" cType="1" res="-1.3180662691593170e-01" rms="4.0415170788764954e-01" purity="2.1839025616645813e-01" nType="0">
          <Node pos="l" depth="2" NCoef="0" IVar="-1" Cut="0.0000000000000000e+00" cType="1" res="-3.6013962235301733e-03" rms="3.1272149085998535e-01" purity="1.2585063278675079e-01" nType="-99"/>
          <Node pos="r" depth="2" NCoef="0" IVar="-1" Cut="0.0000000000000000e+00" cType="1" res="-1.4875343767926097e-03" rms="4.3668442964553833e-01" purity="2.6386436820030212e-01" nType="-99"/>
        </Node>
        <Node pos="r" depth="1" NCoef="0" IVar="1" Cut="1.1256020069122314e+00" cType="1" res="4.5169971883296967e-02" rms="4.6676886081695557e-01" purity="5.7357847690582275e-01" nType="0">
          <Node pos="l" depth="2" NCoef="0" IVar="-1" Cut="0.0000000000000000e+00" cType="1" res="1.2453102972358465e-03" rms="4.5818179845809937e-01" purity="6.4550668001174927e-01" nType="-99"/>
          <Node pos="r" depth="2" NCoef="0" IVar="-1" Cut="0.0000000000000000e+00" cType="1" res="-9.0288964565843344e-04" rms="4.7270905971527100e-01" purity="3.9253509044647217e-01" nType="-99"/>
        </Node>
      </Node>
    </BinaryTree>
    <BinaryTree type="DecisionTree" boostWeight="1.0000000000000000e+00" itree="177">
      <Node pos="s" depth="0" NCoef="0" IVar="2" Cut="9.6462380886077881e-01" cType="1" res="-2.1463060751557350e-02" rms="4.5666649937629700e-01" purity="4.7495326399803162e-01" nType="0">
        <Node pos="l" depth="1" NCoef="0" IVar="4" Cut="7.6410852050781250e+02" cType="1" res="-6.1991076916456223e-02" rms="4.5899718999862671e-01" purity="3.8718605041503906e-01" nType="0">
          <Node pos="l" depth="2" NCoef="0" IVar="-1" Cut="0.0000000000000000e+00" cType="1" res="-1.2967762304469943e-03" rms="4.5276263356208801e-01" purity="3.6022049188613892e-01" nType="-99"/>
          <Node pos="r" depth="2" NCoef="0" IVar="-1" Cut="0.0000000000000000e+00" cType="1" res="2.5140140205621719e-03" rms="4.5942100882530212e-01" purity="6.8936073780059814e-01" nType="-99"/>
        </Node>
        <Node pos="r" depth="1" NCoef="0" IVar="4" Cut="4.1829702758789062e+02" cType="1" res="1.0444139689207077e-01" rms="4.2539370059967041e-01" purity="7.4761104583740234e-01" nType="0">
          <Node pos="l" depth="2" NCoef="0" IVar="-1" Cut="0.0000000000000000e+00" cType="1" res="-3.9825332351028919e-05" rms="4.7612407803535461e-01" purity="6.1972969770431519e-01" nType="-99"/>
          <Node pos="r" depth="2" NCoef="0" IVar="-1" Cut="0.0000000000000000e+00" cType="1" res="2.3258263245224953e-03" rms="3.9138299226760864e-01" purity="8.0462771654129028e-01" nType="-99"/>
        </Node>
      </Node>
    </BinaryTree>
    <BinaryTree type="DecisionTree" boostWeight="1.0000000000000000e+00" itree="178">
      <Node pos="s" depth="0" NCoef="0" IVar="2" Cut="9.6667575836181641e-01" cType="1" res="3.0936831608414650e-02" rms="4.5795387029647827e-01" purity="5.2393215894699097e-01" nType="0">
        <Node pos="l" depth="1" NCoef="0" IVar="6" Cut="9.4635903835296631e-01" cType="1" res="-6.9278944283723831e-03" rms="4.7108769416809082e-01" purity="4.4170302152633667e-01" nType="0">
          <Node pos="l" depth="2" NCoef="0" IVar="-1" Cut="0.0000000000000000e+00" cType="1" res="3.0055927345529199e-04" rms="4.7729536890983582e-01" purity="4.8057946562767029e-01" nType="-99"/>
          <Node pos="r" depth="2" NCoef="0" IVar="-1" Cut="0.0000000000000000e+00" cType="1" res="-2.2398636210709810e-03" rms="4.1842424869537354e-01" purity="2.6062816381454468e-01" nType="-99"/>
        </Node>
        <Node pos="r" depth="1" NCoef="0" IVar="1" Cut="1.0149132013320923e+00" cType="1" res="1.6314443945884705e-01" rms="3.8030660152435303e-01" purity="8.1104159355163574e-01" nType="0">
          <Node pos="l" depth="2" NCoef="0" IVar="-1" Cut="0.0000000000000000e+00" cType="1" res="3.0391486361622810e-03" rms="3.3118078112602234e-01" purity="8.7356245517730713e-01" nType="-99"/>
          <Node pos="r" depth="2" NCoef="0" IVar="-1" Cut="0.0000000000000000e+00" cType="1" res="1.4824499376118183e-03" rms="4.4668596982955933e-01" purity="7.0233786106109619e-01" nType="-99"/>
        </Node>
      </Node>
    </BinaryTree>
    <BinaryTree type="DecisionTree" boostWeight="1.0000000000000000e+00" itree="179">
      <Node pos="s" depth="0" NCoef="0" IVar="2" Cut="9.4650262594223022e-01" cType="1" res="7.5960205867886543e-03" rms="4.5208692550659180e-01" purity="5.0140750408172607e-01" nType="0">
        <Node pos="l" depth="1" NCoef="0" IVar="4" Cut="4.2485433959960938e+02" cType="1" res="-7.8772932291030884e-02" rms="4.4397681951522827e-01" purity="3.1092932820320129e-01" nType="0">
          <Node pos="l" depth="2" NCoef="0" IVar="-1" Cut="0.0000000000000000e+00" cType="1" res="-2.8378039132803679e-03" rms="3.8015341758728027e-01" purity="1.8464052677154541e-01" nType="-99"/>
          <Node pos="r" depth="2" NCoef="0" IVar="-1" Cut="0.0000000000000000e+00" cType="1" res="2.3730554676149040e-04" rms="4.8292025923728943e-01" purity="4.3993023037910461e-01" nType="-99"/>
        </Node>
        <Node pos="r" depth="1" NCoef="0" IVar="6" Cut="6.3281482458114624e-01" cType="1" res="8.7378047406673431e-02" rms="4.4479173421859741e-01" purity="6.7735880613327026e-01" nType="0">
          <Node pos="l" depth="2" NCoef="0" IVar="-1" Cut="0.0000000000000000e+00" cType="1" res="2.2877494338899851e-03" rms="4.0280902385711670e-01" purity="7.7110391855239868e-01" nType="-99"/>
          <Node pos="r" depth="2" NCoef="0" IVar="-1" Cut="0.0000000000000000e+00" cType="1" res="3.0273411539383233e-04" rms="4.7367334365844727e-01" purity="5.8353596925735474e-01" nType="-99"/>
        </Node>
      </Node>
    </BinaryTree>
    <BinaryTree type="DecisionTree" boostWeight="1.0000000000000000e+00" itree="180">
      <Node pos="s" depth="0" NCoef="0" IVar="2" Cut="9.2452061176300049e-01" cType="1" res="1.3643363490700722e-03" rms="4.6288195252418518e-01" purity="4.9707463383674622e-01" nType="0">
        <Node pos="l" depth="1" NCoef="0" IVar="3" Cut="1.9677799987792969e+02" cType="1" res="-1.2655475735664368e-01" rms="4.0596970915794373e-01" purity="2.2637517750263214e-01" nType="0">
          <Node pos="l" depth="2" NCoef="0" IVar="-1" Cut="0.0000000000000000e+00" cType="1" res="-3.2989804167300463e-03" rms="3.5405942797660828e-01" purity="1.4581821858882904e-01" nType="-99"/>
          <Node pos="r" depth="2" NCoef="0" IVar="-1" Cut="0.0000000000000000e+00" cType="1" res="-8.9664611732587218e-04" rms="4.4284000992774963e-01" purity="3.1123650074005127e-01" nType="-99"/>
        </Node>
        <Node pos="r" depth="1" NCoef="0" IVar="2" Cut="9.6548205614089966e-01" cType="1" res="2.5046490132808685e-02" rms="4.6885392069816589e-01" purity="5.4719024896621704e-01" nType="0">
          <Node pos="l" depth="2" NCoef="0" IVar="-1" Cut="0.0000000000000000e+00" cType="1" res="-1.0085884423460811e-04" rms="4.8298266530036926e-01" purity="4.6842867136001587e-01" nType="-99"/>
          <Node pos="r" depth="2" NCoef="0" IVar="-1" Cut="0.0000000000000000e+00" cType="1" res="1.6787153435871005e-03" rms="4.1661438345909119e-01" purity="7.5935584306716919e-01" nType="-99"/>
        </Node>
      </Node>
    </BinaryTree>
    <BinaryTree type="DecisionTree" boostWeight="1.0000000000000000e+00" itree="181">
      <Node pos="s" depth="0" NCoef="0" IVar="2" Cut="9.5294773578643799e-01" cType="1" res="5.3978585638105869e-03" rms="4.5616671442985535e-01" purity="5.0191104412078857e-01" nType="0">
        <Node pos="l" depth="1" NCoef="0" IVar="3" Cut="2.1995507812500000e+02" cType="1" res="-5.8590214699506760e-02" rms="4.5829948782920837e-01" purity="3.5242670774459839e-01" nType="0">
          <Node pos="l" depth="2" NCoef="0" IVar="-1" Cut="0.0000000000000000e+00" cType="1" res="-2.0535839721560478e-03" rms="4.3375742435455322e-01" purity="2.6884731650352478e-01" nType="-99"/>
          <Node pos="r" depth="2" NCoef="0" IVar="-1" Cut="0.0000000000000000e+00" cType="1" res="4.9522350309416652e-04" rms="4.7128066420555115e-01" purity="4.5572933554649353e-01" nType="-99"/>
        </Node>
        <Node pos="r" depth="1" NCoef="0" IVar="0" Cut="2.6584973144531250e+02" cType="1" res="9.6806354820728302e-02" rms="4.3714687228202820e-01" purity="7.1545296907424927e-01" nType="0">
          <Node pos="l" depth="2" NCoef="0" IVar="-1" Cut="0.0000000000000000e+00" cType="1" res="-9.2920454335398972e-05" rms="4.7354060411453247e-01" purity="5.8351856470108032e-01" nType="-99"/>
          <Node pos="r" depth="2" NCoef="0" IVar="-1" Cut="0.0000000000000000e+00" cType="1" res="1.9439264433458447e-03" rms="4.1878929734230042e-01" purity="7.5933068990707397e-01" nType="-99"/>
        </Node>
      </Node>
    </BinaryTree>
    <BinaryTree type="DecisionTree" boostWeight="1.0000000000000000e+00" itree="182">
      <Node pos="s" depth="0" NCoef="0" IVar="1" Cut="1.3895497322082520e+00" cType="1" res="8.1025930121541023e-03" rms="4.5858845114707947e-01" purity="5.0528961420059204e-01" nType="0">
        <Node pos="l" depth="1" NCoef="0" IVar="2" Cut="9.5196568965911865e-01" cType="1" res="3.7476353347301483e-02" rms="4.6140626072883606e-01" purity="5.5942684412002563e-01" nType="0">
          <Node pos="l" depth="2" NCoef="0" IVar="-1" Cut="0.0000000000000000e+00" cType="1" res="-4.2179223964922130e-04" rms="4.7620564699172974e-01" purity="3.9616414904594421e-01" nType="-99"/>
          <Node pos="r" depth="2" NCoef="0" IVar="-1" Cut="0.0000000000000000e+00" cType="1" res="1.6268087783828378e-03" rms="4.3329605460166931e-01" purity="7.3940449953079224e-01" nType="-99"/>
        </Node>
        <Node pos="r" depth="1" NCoef="0" IVar="3" Cut="3.4160272216796875e+02" cType="1" res="-1.3936316967010498e-01" rms="4.1377660632133484e-01" purity="2.3350338637828827e-01" nType="0">
          <Node pos="l" depth="2" NCoef="0" IVar="-1" Cut="0.0000000000000000e+00" cType="1" res="-1.2572493869811296e-03" rms="4.3994328379631042e-01" purity="2.8903475403785706e-01" nType="-99"/>
          <Node pos="r" depth="2" NCoef="0" IVar="-1" Cut="0.0000000000000000e+00" cType="1" res="-5.0301295705139637e-03" rms="3.0387300252914429e-01" purity="1.1079426109790802e-01" nType="-99"/>
        </Node>
      </Node>
    </BinaryTree>
    <BinaryTree type="DecisionTree" boostWeight="1.0000000000000000e+00" itree="183">
      <Node pos="s" depth="0" NCoef="0" IVar="1" Cut="1.0529948472976685e+00" cType="1" res="1.3564650900661945e-02" rms="4.5676666498184204e-01" purity="5.1030874252319336e-01" nType="0">
        <Node pos="l" depth="1" NCoef="0" IVar="3" Cut="2.0427888488769531e+02" cType="1" res="6.8929411470890045e-02" rms="4.5430159568786621e-01" purity="6.0253798961639404e-01" nType="0">
          <Node pos="l" depth="2" NCoef="0" IVar="-1" Cut="0.0000000000000000e+00" cType="1" res="-3.2289203954860568e-04" rms="4.6362182497978210e-01" purity="4.8816120624542236e-01" nType="-99"/>
          <Node pos="r" depth="2" NCoef="0" IVar="-1" Cut="0.0000000000000000e+00" cType="1" res="2.9012716840952635e-03" rms="4.0628993511199951e-01" purity="7.6787191629409790e-01" nType="-99"/>
        </Node>
        <Node pos="r" depth="1" NCoef="0" IVar="4" Cut="4.0640551757812500e+02" cType="1" res="-8.2483194768428802e-02" rms="4.4495964050292969e-01" purity="3.5030770301818848e-01" nType="0">
          <Node pos="l" depth="2" NCoef="0" IVar="-1" Cut="0.0000000000000000e+00" cType="1" res="-3.0626440420746803e-03" rms="3.8872134685516357e-01" purity="2.1947570145130157e-01" nType="-99"/>
          <Node pos="r" depth="2" NCoef="0" IVar="-1" Cut="0.0000000000000000e+00" cType="1" res="-1.1225002526771277e-04" rms="4.7142246365547180e-01" purity="4.5385339856147766e-01" nType="-99"/>
        </Node>
      </Node>
    </BinaryTree>
    <BinaryTree type="DecisionTree" boostWeight="1.0000000000000000e+00" itree="184">
      <Node pos="s" depth="0" NCoef="0" IVar="3" Cut="2.1445574951171875e+02" cType="1" res="1.5584233216941357e-02" rms="4.5543530583381653e-01" purity="5.1797896623611450e-01" nType="0">
        <Node pos="l" depth="1" NCoef="0" IVar="2" Cut="9.6330130100250244e-01" cType="1" res="-5.7452656328678131e-02" rms="4.5465782284736633e-01" purity="4.3641442060470581e-01" nType="0">
          <Node pos="l" depth="2" NCoef="0" IVar="-1" Cut="0.0000000000000000e+00" cType="1" res="-1.7016397323459387e-03" rms="4.5123603940010071e-01" purity="3.2593312859535217e-01" nType="-99"/>
          <Node pos="r" depth="2" NCoef="0" IVar="-1" Cut="0.0000000000000000e+00" cType="1" res="1.4011993771418929e-03" rms="4.3047180771827698e-01" purity="7.4095535278320312e-01" nType="-99"/>
        </Node>
        <Node pos="r" depth="1" NCoef="0" IVar="1" Cut="1.0482903718948364e+00" cType="1" res="9.1146282851696014e-02" rms="4.4376224279403687e-01" purity="6.0236352682113647e-01" nType="0">
          <Node pos="l" depth="2" NCoef="0" IVar="-1" Cut="0.0000000000000000e+00" cType="1" res="2.6472036261111498e-03" rms="4.0992951393127441e-01" purity="7.6175212860107422e-01" nType="-99"/>
          <Node pos="r" depth="2" NCoef="0" IVar="-1" Cut="0.0000000000000000e+00" cType="1" res="-9.3691742222290486e-05" rms="4.5762157440185547e-01" purity="4.3251985311508179e-01" nType="-99"/>
        </Node>
      </Node>
    </BinaryTree>
    <BinaryTree type="DecisionTree" boostWeight="1.0000000000000000e+00" itree="185">
      <Node pos="s" depth="0" NCoef="0" IVar="2" Cut="9.1928291320800781e-01" cType="1" res="2.6408398523926735e-02" rms="4.4981771707534790e-01" purity="5.2662926912307739e-01" nType="0">
        <Node pos="l" depth="1" NCoef="0" IVar="3" Cut="1.9677799987792969e+02" cType="1" res="-1.8096117675304413e-01" rms="3.5642170906066895e-01" purity="1.6830189526081085e-01" nType="0">
          <Node pos="l" depth="2" NCoef="0" IVar="-1" Cut="0.0000000000000000e+00" cType="1" res="-4.3530352413654327e-03" rms="2.7533224225044250e-01" purity="8.0925844609737396e-02" nType="-99"/>
          <Node pos="r" depth="2" NCoef="0" IVar="-1" Cut="0.0000000000000000e+00" cType="1" res="-1.7110909102484584e-03" rms="4.1299939155578613e-01" purity="2.6432508230209351e-01" nType="-99"/>
        </Node>
        <Node pos="r" depth="1" NCoef="0" IVar="1" Cut="1.1732389926910400e+00" cType="1" res="5.7671450078487396e-02" rms="4.5412307977676392e-01" purity="5.8065068721771240e-01" nType="0">
          <Node pos="l" depth="2" NCoef="0" IVar="-1" Cut="0.0000000000000000e+00" cType="1" res="1.4350808924064040e-03" rms="4.4840478897094727e-01" purity="6.5587937831878662e-01" nType="-99"/>
          <Node pos="r" depth="2" NCoef="0" IVar="-1" Cut="0.0000000000000000e+00" cType="1" res="-1.0945949470624328e-03" rms="4.4923627376556396e-01" purity="3.4352749586105347e-01" nType="-99"/>
        </Node>
      </Node>
    </BinaryTree>
    <BinaryTree type="DecisionTree" boostWeight="1.0000000000000000e+00" itree="186">
      <Node pos="s" depth="0" NCoef="0" IVar="3" Cut="2.3131192016601562e+02" cType="1" res="-5.6176898069679737e-03" rms="4.6142953634262085e-01" purity="4.9146986007690430e-01" nType="0">
        <Node pos="l" depth="1" NCoef="0" IVar="3" Cut="1.9473852539062500e+02" cType="1" res="-5.9876840561628342e-02" rms="4.6456936001777649e-01" purity="4.3535095453262329e-01" nType="0">
          <Node pos="l" depth="2" NCoef="0" IVar="-1" Cut="0.0000000000000000e+00" cType="1" res="-1.7444682307541370e-03" rms="4.5938450098037720e-01" purity="3.7299031019210815e-01" nType="-99"/>
          <Node pos="r" depth="2" NCoef="0" IVar="-1" Cut="0.0000000000000000e+00" cType="1" res="8.1097689690068364e-04" rms="4.5542237162590027e-01" purity="5.7197672128677368e-01" nType="-99"/>
        </Node>
        <Node pos="r" depth="1" NCoef="0" IVar="1" Cut="1.3829323053359985e+00" cType="1" res="6.9818034768104553e-02" rms="4.4619658589363098e-01" purity="5.6949120759963989e-01" nType="0">
          <Node pos="l" depth="2" NCoef="0" IVar="-1" Cut="0.0000000000000000e+00" cType="1" res="2.1744954865425825e-03" rms="4.3640279769897461e-01" purity="6.9745945930480957e-01" nType="-99"/>
          <Node pos="r" depth="2" NCoef="0" IVar="-1" Cut="0.0000000000000000e+00" cType="1" res="-2.4903027806431055e-03" rms="4.0136930346488953e-01" purity="2.2986900806427002e-01" nType="-99"/>
        </Node>
      </Node>
    </BinaryTree>
    <BinaryTree type="DecisionTree" boostWeight="1.0000000000000000e+00" itree="187">
      <Node pos="s" depth="0" NCoef="0" IVar="1" Cut="1.2289303541183472e+00" cType="1" res="1.4547456055879593e-02" rms="4.5520171523094177e-01" purity="5.1421582698822021e-01" nType="0">
        <Node pos="l" depth="1" NCoef="0" IVar="3" Cut="2.0333737182617188e+02" cType="1" res="5.2425287663936615e-02" rms="4.5577400922775269e-01" purity="5.8483982086181641e-01" nType="0">
          <Node pos="l" depth="2" NCoef="0" IVar="-1" Cut="0.0000000000000000e+00" cType="1" res="-2.3811912978999317e-04" rms="4.6153190732002258e-01" purity="4.8193848133087158e-01" nType="-99"/>
          <Node pos="r" depth="2" NCoef="0" IVar="-1" Cut="0.0000000000000000e+00" cType="1" res="1.8792971968650818e-03" rms="4.3722575902938843e-01" purity="6.9848150014877319e-01" nType="-99"/>
        </Node>
        <Node pos="r" depth="1" NCoef="0" IVar="3" Cut="3.2200765991210938e+02" cType="1" res="-1.0380620509386063e-01" rms="4.3253782391548157e-01" purity="2.9354315996170044e-01" nType="0">
          <Node pos="l" depth="2" NCoef="0" IVar="-1" Cut="0.0000000000000000e+00" cType="1" res="-8.2303921226412058e-04" rms="4.5105946063995361e-01" purity="3.4497347474098206e-01" nType="-99"/>
          <Node pos="r" depth="2" NCoef="0" IVar="-1" Cut="0.0000000000000000e+00" cType="1" res="-3.6501723807305098e-03" rms="3.6929598450660706e-01" purity="1.8978573381900787e-01" nType="-99"/>
        </Node>
      </Node>
    </BinaryTree>
    <BinaryTree type="DecisionTree" boostWeight="1.0000000000000000e+00" itree="188">
      <Node pos="s" depth="0" NCoef="0" IVar="2" Cut="9.4064962863922119e-01" cType="1" res="1.6063688090071082e-03" rms="4.5629572868347168e-01" purity="5.0297719240188599e-01" nType="0">
        <Node pos="l" depth="1" NCoef="0" IVar="2" Cut="9.1824007034301758e-01" cType="1" res="-8.9128546416759491e-02" rms="4.3702593445777893e-01" purity="2.9165983200073242e-01" nType="0">
          <Node pos="l" depth="2" NCoef="0" IVar="-1" Cut="0.0000000000000000e+00" cType="1" res="-3.0358517542481422e-03" rms="3.5973927378654480e-01" purity="1.6858135163784027e-01" nType="-99"/>
          <Node pos="r" depth="2" NCoef="0" IVar="-1" Cut="0.0000000000000000e+00" cType="1" res="-8.7119027739390731e-04" rms="4.5730805397033691e-01" purity="3.3645778894424438e-01" nType="-99"/>
        </Node>
        <Node pos="r" depth="1" NCoef="0" IVar="3" Cut="1.3002929687500000e+02" cType="1" res="5.6696023792028427e-02" rms="4.5893782377243042e-01" purity="6.3127839565277100e-01" nType="0">
          <Node pos="l" depth="2" NCoef="0" IVar="-1" Cut="0.0000000000000000e+00" cType="1" res="-2.2566176485270262e-03" rms="4.9236989021301270e-01" purity="4.2102694511413574e-01" nType="-99"/>
          <Node pos="r" depth="2" NCoef="0" IVar="-1" Cut="0.0000000000000000e+00" cType="1" res="1.1511137709021568e-03" rms="4.5059695839881897e-01" purity="6.5181553363800049e-01" nType="-99"/>
        </Node>
      </Node>
    </BinaryTree>
    <BinaryTree type="DecisionTree" boostWeight="1.0000000000000000e+00" itree="189">
      <Node pos="s" depth="0" NCoef="0" IVar="2" Cut="9.6685540676116943e-01" cType="1" res="1.7281448468565941e-02" rms="4.5624509453773499e-01" purity="5.1840835809707642e-01" nType="0">
        <Node pos="l" depth="1" NCoef="0" IVar="1" Cut="1.3686639070510864e+00" cType="1" res="-1.9987784326076508e-02" rms="4.6689838171005249e-01" purity="4.3392360210418701e-01" nType="0">
          <Node pos="l" depth="2" NCoef="0" IVar="-1" Cut="0.0000000000000000e+00" cType="1" res="1.9046597299166024e-04" rms="4.7988030314445496e-01" purity="4.8787295818328857e-01" nType="-99"/>
          <Node pos="r" depth="2" NCoef="0" IVar="-1" Cut="0.0000000000000000e+00" cType="1" res="-3.0547776259481907e-03" rms="3.6163002252578735e-01" purity="1.7959447205066681e-01" nType="-99"/>
        </Node>
        <Node pos="r" depth="1" NCoef="0" IVar="2" Cut="9.8169547319412231e-01" cType="1" res="1.3955891132354736e-01" rms="3.9545452594757080e-01" purity="7.9559618234634399e-01" nType="0">
          <Node pos="l" depth="2" NCoef="0" IVar="-1" Cut="0.0000000000000000e+00" cType="1" res="1.5761707909405231e-03" rms="4.2708063125610352e-01" purity="7.5286138057708740e-01" nType="-99"/>
          <Node pos="r" depth="2" NCoef="0" IVar="-1" Cut="0.0000000000000000e+00" cType="1" res="3.2301121391355991e-03" rms="3.1916108727455139e-01" purity="8.7394887208938599e-01" nType="-99"/>
        </Node>
      </Node>
    </BinaryTree>
    <BinaryTree type="DecisionTree" boostWeight="1.0000000000000000e+00" itree="190">
      <Node pos="s" depth="0" NCoef="0" IVar="2" Cut="9.6978020668029785e-01" cType="1" res="-6.5725008025765419e-03" rms="4.5163837075233459e-01" purity="4.9076452851295471e-01" nType="0">
        <Node pos="l" depth="1" NCoef="0" IVar="1" Cut="7.3660105466842651e-01" cType="1" res="-4.2167317122220993e-02" rms="4.5889645814895630e-01" purity="4.1654160618782043e-01" nType="0">
          <Node pos="l" depth="2" NCoef="0" IVar="-1" Cut="0.0000000000000000e+00" cType="1" res="8.6614361498504877e-04" rms="4.7158846259117126e-01" purity="5.6896895170211792e-01" nType="-99"/>
          <Node pos="r" depth="2" NCoef="0" IVar="-1" Cut="0.0000000000000000e+00" cType="1" res="-1.4246300561353564e-03" rms="4.4496935606002808e-01" purity="3.4543350338935852e-01" nType="-99"/>
        </Node>
        <Node pos="r" depth="1" NCoef="0" IVar="6" Cut="7.6091790199279785e-01" cType="1" res="1.4564348757266998e-01" rms="3.8357269763946533e-01" purity="8.0816775560379028e-01" nType="0">
          <Node pos="l" depth="2" NCoef="0" IVar="-1" Cut="0.0000000000000000e+00" cType="1" res="2.9248697683215141e-03" rms="3.4226635098457336e-01" purity="8.6535906791687012e-01" nType="-99"/>
          <Node pos="r" depth="2" NCoef="0" IVar="-1" Cut="0.0000000000000000e+00" cType="1" res="9.6396630397066474e-04" rms="4.4008898735046387e-01" purity="6.9971746206283569e-01" nType="-99"/>
        </Node>
      </Node>
    </BinaryTree>
    <BinaryTree type="DecisionTree" boostWeight="1.0000000000000000e+00" itree="191">
      <Node pos="s" depth="0" NCoef="0" IVar="2" Cut="9.6438193321228027e-01" cType="1" res="-5.4435068741440773e-03" rms="4.5730510354042053e-01" purity="4.9192535877227783e-01" nType="0">
        <Node pos="l" depth="1" NCoef="0" IVar="2" Cut="9.1576486825942993e-01" cType="1" res="-4.5848406851291656e-02" rms="4.6489509940147400e-01" purity="3.9416363835334778e-01" nType="0">
          <Node pos="l" depth="2" NCoef="0" IVar="-1" Cut="0.0000000000000000e+00" cType="1" res="-3.5583190619945526e-03" rms="3.3495849370956421e-01" purity="1.3564008474349976e-01" nType="-99"/>
          <Node pos="r" depth="2" NCoef="0" IVar="-1" Cut="0.0000000000000000e+00" cType="1" res="-3.3750047441571951e-04" rms="4.7663694620132446e-01" purity="4.3231335282325745e-01" nType="-99"/>
        </Node>
        <Node pos="r" depth="1" NCoef="0" IVar="1" Cut="1.0539823770523071e+00" cType="1" res="1.0784145444631577e-01" rms="4.1484028100967407e-01" purity="7.6602405309677124e-01" nType="0">
          <Node pos="l" depth="2" NCoef="0" IVar="-1" Cut="0.0000000000000000e+00" cType="1" res="2.1305344998836517e-03" rms="3.8668459653854370e-01" purity="8.1595349311828613e-01" nType="-99"/>
          <Node pos="r" depth="2" NCoef="0" IVar="-1" Cut="0.0000000000000000e+00" cType="1" res="9.4936607638373971e-05" rms="4.8646530508995056e-01" purity="5.9363102912902832e-01" nType="-99"/>
        </Node>
      </Node>
    </BinaryTree>
    <BinaryTree type="DecisionTree" boostWeight="1.0000000000000000e+00" itree="192">
      <Node pos="s" depth="0" NCoef="0" IVar="1" Cut="1.6547156572341919e+00" cType="1" res="3.9922911673784256e-03" rms="4.6161267161369324e-01" purity="5.0161248445510864e-01" nType="0">
        <Node pos="l" depth="1" NCoef="0" IVar="3" Cut="1.9599314880371094e+02" cType="1" res="1.9553244113922119e-02" rms="4.6583947539329529e-01" purity="5.2798861265182495e-01" nType="0">
          <Node pos="l" depth="2" NCoef="0" IVar="-1" Cut="0.0000000000000000e+00" cType="1" res="-1.0053559672087431e-03" rms="4.7164022922515869e-01" purity="4.2041179537773132e-01" nType="-99"/>
          <Node pos="r" depth="2" NCoef="0" IVar="-1" Cut="0.0000000000000000e+00" cType="1" res="1.3503265799954534e-03" rms="4.4877886772155762e-01" purity="6.1763840913772583e-01" nType="-99"/>
        </Node>
        <Node pos="r" depth="1" NCoef="0" IVar="-1" Cut="0.0000000000000000e+00" cType="1" res="-4.0419860742986202e-03" rms="3.2466602325439453e-01" purity="1.2767426669597626e-01" nType="-99"/>
      </Node>
    </BinaryTree>
    <BinaryTree type="DecisionTree" boostWeight="1.0000000000000000e+00" itree="193">
      <Node pos="s" depth="0" NCoef="0" IVar="2" Cut="9.2464578151702881e-01" cType="1" res="5.2536958828568459e-03" rms="4.5407360792160034e-01" purity="5.0790840387344360e-01" nType="0">
        <Node pos="l" depth="1" NCoef="0" IVar="3" Cut="2.0338780212402344e+02" cType="1" res="-1.7302429676055908e-01" rms="3.6548247933387756e-01" purity="1.7918810248374939e-01" nType="0">
          <Node pos="l" depth="2" NCoef="0" IVar="-1" Cut="0.0000000000000000e+00" cType="1" res="-4.2592477984726429e-03" rms="2.7935072779655457e-01" purity="8.4837034344673157e-02" nType="-99"/>
          <Node pos="r" depth="2" NCoef="0" IVar="-1" Cut="0.0000000000000000e+00" cType="1" res="-1.6336777480319142e-03" rms="4.1803187131881714e-01" purity="2.6784178614616394e-01" nType="-99"/>
        </Node>
        <Node pos="r" depth="1" NCoef="0" IVar="0" Cut="2.9869934082031250e+02" cType="1" res="3.6246497184038162e-02" rms="4.6078094840049744e-01" purity="5.6505489349365234e-01" nType="0">
          <Node pos="l" depth="2" NCoef="0" IVar="-1" Cut="0.0000000000000000e+00" cType="1" res="-6.3859636429697275e-04" rms="4.6070924401283264e-01" purity="4.4011461734771729e-01" nType="-99"/>
          <Node pos="r" depth="2" NCoef="0" IVar="-1" Cut="0.0000000000000000e+00" cType="1" res="1.3281126739457250e-03" rms="4.5329272747039795e-01" purity="6.5080100297927856e-01" nType="-99"/>
        </Node>
      </Node>
    </BinaryTree>
    <BinaryTree type="DecisionTree" boostWeight="1.0000000000000000e+00" itree="194">
      <Node pos="s" depth="0" NCoef="0" IVar="2" Cut="9.6910858154296875e-01" cType="1" res="-9.2411339282989502e-03" rms="4.5143231749534607e-01" purity="4.9002805352210999e-01" nType="0">
        <Node pos="l" depth="1" NCoef="0" IVar="0" Cut="5.2061456298828125e+02" cType="1" res="-4.6458549797534943e-02" rms="4.5827338099479675e-01" purity="4.1031441092491150e-01" nType="0">
          <Node pos="l" depth="2" NCoef="0" IVar="-1" Cut="0.0000000000000000e+00" cType="1" res="-1.0263716103509068e-03" rms="4.5467779040336609e-01" purity="3.8404643535614014e-01" nType="-99"/>
          <Node pos="r" depth="2" NCoef="0" IVar="-1" Cut="0.0000000000000000e+00" cType="1" res="1.7763291252776980e-03" rms="4.5399126410484314e-01" purity="6.4284008741378784e-01" nType="-99"/>
        </Node>
        <Node pos="r" depth="1" NCoef="0" IVar="1" Cut="9.4499635696411133e-01" cType="1" res="1.2960073351860046e-01" rms="3.9513313770294189e-01" purity="7.8740459680557251e-01" nType="0">
          <Node pos="l" depth="2" NCoef="0" IVar="-1" Cut="0.0000000000000000e+00" cType="1" res="2.6636512484401464e-03" rms="3.4418457746505737e-01" purity="8.5978066921234131e-01" nType="-99"/>
          <Node pos="r" depth="2" NCoef="0" IVar="-1" Cut="0.0000000000000000e+00" cType="1" res="1.1073220521211624e-03" rms="4.5109003782272339e-01" purity="6.8536138534545898e-01" nType="-99"/>
        </Node>
      </Node>
    </BinaryTree>
    <BinaryTree type="DecisionTree" boostWeight="1.0000000000000000e+00" itree="195">
      <Node pos="s" depth="0" NCoef="0" IVar="1" Cut="7.9506754875183105e-01" cType="1" res="6.2775346450507641e-03" rms="4.6100741624832153e-01" purity="4.9762380123138428e-01" nType="0">
        <Node pos="l" depth="1" NCoef="0" IVar="2" Cut="9.2053937911987305e-01" cType="1" res="7.7713817358016968e-02" rms="4.5510485768318176e-01" purity="6.1548274755477905e-01" nType="0">
          <Node pos="l" depth="2" NCoef="0" IVar="-1" Cut="0.0000000000000000e+00" cType="1" res="-2.1794212516397238e-03" rms="4.0667742490768433e-01" purity="2.2842039167881012e-01" nType="-99"/>
          <Node pos="r" depth="2" NCoef="0" IVar="-1" Cut="0.0000000000000000e+00" cType="1" res="1.6092355363070965e-03" rms="4.5347118377685547e-01" purity="6.7184847593307495e-01" nType="-99"/>
        </Node>
        <Node pos="r" depth="1" NCoef="0" IVar="4" Cut="5.4635748291015625e+02" cType="1" res="-4.0153395384550095e-02" rms="4.5887881517410278e-01" purity="4.2101991176605225e-01" nType="0">
          <Node pos="l" depth="2" NCoef="0" IVar="-1" Cut="0.0000000000000000e+00" cType="1" res="-1.1809014249593019e-03" rms="4.4892668724060059e-01" purity="3.7139761447906494e-01" nType="-99"/>
          <Node pos="r" depth="2" NCoef="0" IVar="-1" Cut="0.0000000000000000e+00" cType="1" res="9.9625962320715189e-04" rms="4.7319498658180237e-01" purity="5.7346701622009277e-01" nType="-99"/>
        </Node>
      </Node>
    </BinaryTree>
    <BinaryTree type="DecisionTree" boostWeight="1.0000000000000000e+00" itree="196">
      <Node pos="s" depth="0" NCoef="0" IVar="3" Cut="1.8742483520507812e+02" cType="1" res="1.4012977480888367e-02" rms="4.5620936155319214e-01" purity="5.1196449995040894e-01" nType="0">
        <Node pos="l" depth="1" NCoef="0" IVar="5" Cut="8.8109146118164062e+01" cType="1" res="-7.1650147438049316e-02" rms="4.5596507191658020e-01" purity="4.0137854218482971e-01" nType="0">
          <Node pos="l" depth="2" NCoef="0" IVar="-1" Cut="0.0000000000000000e+00" cType="1" res="-2.3005561160971411e-05" rms="4.4568574428558350e-01" purity="4.5086455345153809e-01" nType="-99"/>
          <Node pos="r" depth="2" NCoef="0" IVar="-1" Cut="0.0000000000000000e+00" cType="1" res="-1.7308405367657542e-03" rms="4.5692116022109985e-01" purity="3.7307614088058472e-01" nType="-99"/>
        </Node>
        <Node pos="r" depth="1" NCoef="0" IVar="1" Cut="1.0813026428222656e+00" cType="1" res="7.0159323513507843e-02" rms="4.4756111502647400e-01" purity="5.8444607257843018e-01" nType="0">
          <Node pos="l" depth="2" NCoef="0" IVar="-1" Cut="0.0000000000000000e+00" cType="1" res="2.2924502845853567e-03" rms="4.2175468802452087e-01" purity="7.3181629180908203e-01" nType="-99"/>
          <Node pos="r" depth="2" NCoef="0" IVar="-1" Cut="0.0000000000000000e+00" cType="1" res="-8.1810634583234787e-04" rms="4.5568159222602844e-01" purity="3.7384521961212158e-01" nType="-99"/>
        </Node>
      </Node>
    </BinaryTree>
    <BinaryTree type="DecisionTree" boostWeight="1.0000000000000000e+00" itree="197">
      <Node pos="s" depth="0" NCoef="0" IVar="2" Cut="9.3514961004257202e-01" cType="1" res="1.7094140872359276e-02" rms="4.5439168810844421e-01" purity="5.1791971921920776e-01" nType="0">
        <Node pos="l" depth="1" NCoef="0" IVar="5" Cut="1.3579180908203125e+02" cType="1" res="-7.1643218398094177e-02" rms="4.3458202481269836e-01" purity="2.9348647594451904e-01" nType="0">
          <Node pos="l" depth="2" NCoef="0" IVar="-1" Cut="0.0000000000000000e+00" cType="1" res="-2.2996524348855019e-03" rms="3.9220824837684631e-01" purity="2.0584391057491302e-01" nType="-99"/>
          <Node pos="r" depth="2" NCoef="0" IVar="-1" Cut="0.0000000000000000e+00" cType="1" res="1.0370303643867373e-03" rms="4.8424023389816284e-01" purity="4.7814264893531799e-01" nType="-99"/>
        </Node>
        <Node pos="r" depth="1" NCoef="0" IVar="3" Cut="3.6122671508789062e+02" cType="1" res="5.5620536208152771e-02" rms="4.5739969611167908e-01" purity="6.1536014080047607e-01" nType="0">
          <Node pos="l" depth="2" NCoef="0" IVar="-1" Cut="0.0000000000000000e+00" cType="1" res="1.1015607742592692e-03" rms="4.5420297980308533e-01" purity="6.3933449983596802e-01" nType="-99"/>
          <Node pos="r" depth="2" NCoef="0" IVar="-1" Cut="0.0000000000000000e+00" cType="1" res="-1.5946226194500923e-03" rms="4.5462051033973694e-01" purity="4.0367624163627625e-01" nType="-99"/>
        </Node>
      </Node>
    </BinaryTree>
    <BinaryTree type="DecisionTree" boostWeight="1.0000000000000000e+00" itree="198">
      <Node pos="s" depth="0" NCoef="0" IVar="4" Cut="3.4111331176757812e+02" cType="1" res="1.2824413133785129e-03" rms="4.5839229226112366e-01" purity="4.9914708733558655e-01" nType="0">
        <Node pos="l" depth="1" NCoef="0" IVar="4" Cut="2.9970181274414062e+02" cType="1" res="-1.4104233682155609e-01" rms="4.1997638344764709e-01" purity="2.7610561251640320e-01" nType="0">
          <Node pos="l" depth="2" NCoef="0" IVar="-1" Cut="0.0000000000000000e+00" cType="1" res="-4.3941442854702473e-03" rms="3.0799224972724915e-01" purity="1.5330767631530762e-01" nType="-99"/>
          <Node pos="r" depth="2" NCoef="0" IVar="-1" Cut="0.0000000000000000e+00" cType="1" res="-1.2681935913860798e-03" rms="4.5889449119567871e-01" purity="3.4386643767356873e-01" nType="-99"/>
        </Node>
        <Node pos="r" depth="1" NCoef="0" IVar="2" Cut="9.4733697175979614e-01" cType="1" res="2.7787525206804276e-02" rms="4.6036145091056824e-01" purity="5.4068404436111450e-01" nType="0">
          <Node pos="l" depth="2" NCoef="0" IVar="-1" Cut="0.0000000000000000e+00" cType="1" res="-4.6062382170930505e-04" rms="4.6661913394927979e-01" purity="3.7111133337020874e-01" nType="-99"/>
          <Node pos="r" depth="2" NCoef="0" IVar="-1" Cut="0.0000000000000000e+00" cType="1" res="1.1276701698079705e-03" rms="4.4965642690658569e-01" purity="6.8014943599700928e-01" nType="-99"/>
        </Node>
      </Node>
    </BinaryTree>
    <BinaryTree type="DecisionTree" boostWeight="1.0000000000000000e+00" itree="199">
      <Node pos="s" depth="0" NCoef="0" IVar="2" Cut="9.6444457769393921e-01" cType="1" res="7.2220531292259693e-03" rms="4.5885390043258667e-01" purity="5.0461381673812866e-01" nType="0">
        <Node pos="l" depth="1" NCoef="0" IVar="4" Cut="3.3343463134765625e+02" cType="1" res="-3.0014485120773315e-02" rms="4.6981638669967651e-01" purity="4.1380763053894043e-01" nType="0">
          <Node pos="l" depth="2" NCoef="0" IVar="-1" Cut="0.0000000000000000e+00" cType="1" res="-3.0998892616480589e-03" rms="3.9109793305397034e-01" purity="1.7900398373603821e-01" nType="-99"/>
          <Node pos="r" depth="2" NCoef="0" IVar="-1" Cut="0.0000000000000000e+00" cType="1" res="-2.7211879569222219e-05" rms="4.7753888368606567e-01" purity="4.5693254470825195e-01" nType="-99"/>
        </Node>
        <Node pos="r" depth="1" NCoef="0" IVar="6" Cut="8.3484643697738647e-01" cType="1" res="1.1353586614131927e-01" rms="4.0769970417022705e-01" purity="7.6387399435043335e-01" nType="0">
          <Node pos="l" depth="2" NCoef="0" IVar="-1" Cut="0.0000000000000000e+00" cType="1" res="2.4622736964374781e-03" rms="3.6722734570503235e-01" purity="8.2505983114242554e-01" nType="-99"/>
          <Node pos="r" depth="2" NCoef="0" IVar="-1" Cut="0.0000000000000000e+00" cType="1" res="-2.3776073066983372e-04" rms="4.8226183652877808e-01" purity="5.9077662229537964e-01" nType="-99"/>
        </Node>
      </Node>
    </BinaryTree>
    <BinaryTree type="DecisionTree" boostWeight="1.0000000000000000e+00" itree="200">
      <Node pos="s" depth="0" NCoef="0" IVar="2" Cut="9.4158875942230225e-01" cType="1" res="2.2901382297277451e-02" rms="4.5030027627944946e-01" purity="5.2023309469223022e-01" nType="0">
        <Node pos="l" depth="1" NCoef="0" IVar="5" Cut="1.3554244995117188e+02" cType="1" res="-6.4225398004055023e-02" rms="4.4375002384185791e-01" purity="3.0676296353340149e-01" nType="0">
          <Node pos="l" depth="2" NCoef="0" IVar="-1" Cut="0.0000000000000000e+00" cType="1" res="-1.9821429159492254e-03" rms="4.0984898805618286e-01" purity="2.2685953974723816e-01" nType="-99"/>
          <Node pos="r" depth="2" NCoef="0" IVar="-1" Cut="0.0000000000000000e+00" cType="1" res="7.2698603617027402e-04" rms="4.8529270291328430e-01" purity="4.6586176753044128e-01" nType="-99"/>
        </Node>
        <Node pos="r" depth="1" NCoef="0" IVar="1" Cut="1.2731528282165527e+00" cType="1" res="7.9873189330101013e-02" rms="4.4541007280349731e-01" purity="6.5982025861740112e-01" nType="0">
          <Node pos="l" depth="2" NCoef="0" IVar="-1" Cut="0.0000000000000000e+00" cType="1" res="1.6198717057704926e-03" rms="4.3289023637771606e-01" purity="7.2062855958938599e-01" nType="-99"/>
          <Node pos="r" depth="2" NCoef="0" IVar="-1" Cut="0.0000000000000000e+00" cType="1" res="-6.8550294963642955e-04" rms="4.7625952959060669e-01" purity="3.9908334612846375e-01" nType="-99"/>
        </Node>
      </Node>
    </BinaryTree>
    <BinaryTree type="DecisionTree" boostWeight="1.0000000000000000e+00" itree="201">
      <Node pos="s" depth="0" NCoef="0" IVar="2" Cut="9.3187582492828369e-01" cType="1" res="1.8023902084678411e-03" rms="4.5627942681312561e-01" purity="5.0372135639190674e-01" nType="0">
        <Node pos="l" depth="1" NCoef="0" IVar="0" Cut="3.0210107421875000e+02" cType="1" res="-1.0675982385873795e-01" rms="4.1075700521469116e-01" purity="2.5403589010238647e-01" nType="0">
          <Node pos="l" depth="2" NCoef="0" IVar="-1" Cut="0.0000000000000000e+00" cType="1" res="-3.5865854006260633e-03" rms="3.1569316983222961e-01" purity="1.1826659739017487e-01" nType="-99"/>
          <Node pos="r" depth="2" NCoef="0" IVar="-1" Cut="0.0000000000000000e+00" cType="1" res="-1.8742018437478691e-04" rms="4.6518337726593018e-01" purity="3.8408735394477844e-01" nType="-99"/>
        </Node>
        <Node pos="r" depth="1" NCoef="0" IVar="1" Cut="8.2534545660018921e-01" cType="1" res="3.6604184657335281e-02" rms="4.6460127830505371e-01" purity="5.8376312255859375e-01" nType="0">
          <Node pos="l" depth="2" NCoef="0" IVar="-1" Cut="0.0000000000000000e+00" cType="1" res="1.5702935634180903e-03" rms="4.3739318847656250e-01" purity="7.0427906513214111e-01" nType="-99"/>
          <Node pos="r" depth="2" NCoef="0" IVar="-1" Cut="0.0000000000000000e+00" cType="1" res="-2.6449660072103143e-04" rms="4.7782212495803833e-01" purity="4.9009257555007935e-01" nType="-99"/>
        </Node>
      </Node>
    </BinaryTree>
    <BinaryTree type="DecisionTree" boostWeight="1.0000000000000000e+00" itree="202">
      <Node pos="s" depth="0" NCoef="0" IVar="2" Cut="9.7539097070693970e-01" cType="1" res="-5.6095072068274021e-03" rms="4.5155295729637146e-01" purity="4.8606497049331665e-01" nType="0">
        <Node pos="l" depth="1" NCoef="0" IVar="1" Cut="1.0679847002029419e+00" cType="1" res="-3.5985626280307770e-02" rms="4.6002450585365295e-01" purity="4.2769509553909302e-01" nType="0">
          <Node pos="l" depth="2" NCoef="0" IVar="-1" Cut="0.0000000000000000e+00" cType="1" res="2.0266807405278087e-04" rms="4.7029447555541992e-01" purity="5.2301049232482910e-01" nType="-99"/>
          <Node pos="r" depth="2" NCoef="0" IVar="-1" Cut="0.0000000000000000e+00" cType="1" res="-1.8653513398021460e-03" rms="4.3311479687690735e-01" purity="2.8243115544319153e-01" nType="-99"/>
        </Node>
        <Node pos="r" depth="1" NCoef="0" IVar="0" Cut="3.3687057495117188e+02" cType="1" res="1.9276195764541626e-01" rms="3.2877254486083984e-01" purity="8.6724966764450073e-01" nType="0">
          <Node pos="l" depth="2" NCoef="0" IVar="-1" Cut="0.0000000000000000e+00" cType="1" res="3.3769886940717697e-03" rms="3.1284430623054504e-01" purity="8.8136476278305054e-01" nType="-99"/>
          <Node pos="r" depth="2" NCoef="0" IVar="-1" Cut="0.0000000000000000e+00" cType="1" res="2.4420148693025112e-03" rms="3.4268787503242493e-01" purity="8.5049444437026978e-01" nType="-99"/>
        </Node>
      </Node>
    </BinaryTree>
    <BinaryTree type="DecisionTree" boostWeight="1.0000000000000000e+00" itree="203">
      <Node pos="s" depth="0" NCoef="0" IVar="2" Cut="9.7698086500167847e-01" cType="1" res="8.4307007491588593e-03" rms="4.5192182064056396e-01" purity="5.0366151332855225e-01" nType="0">
        <Node pos="l" depth="1" NCoef="0" IVar="2" Cut="9.0884697437286377e-01" cType="1" res="-2.2129151970148087e-02" rms="4.6235918998718262e-01" purity="4.4647803902626038e-01" nType="0">
          <Node pos="l" depth="2" NCoef="0" IVar="-1" Cut="0.0000000000000000e+00" cType="1" res="-3.7831519730389118e-03" rms="3.1565743684768677e-01" purity="1.1804482340812683e-01" nType="-99"/>
          <Node pos="r" depth="2" NCoef="0" IVar="-1" Cut="0.0000000000000000e+00" cType="1" res="-7.2639428253751248e-05" rms="4.6948236227035522e-01" purity="4.7612431645393372e-01" nType="-99"/>
        </Node>
        <Node pos="r" depth="1" NCoef="0" IVar="6" Cut="6.5124934911727905e-01" cType="1" res="2.1998012065887451e-01" rms="2.9488369822502136e-01" purity="8.9951199293136597e-01" nType="0">
          <Node pos="l" depth="2" NCoef="0" IVar="-1" Cut="0.0000000000000000e+00" cType="1" res="3.9831139147281647e-03" rms="2.1032986044883728e-01" purity="9.5216339826583862e-01" nType="-99"/>
          <Node pos="r" depth="2" NCoef="0" IVar="-1" Cut="0.0000000000000000e+00" cType="1" res="2.8150847647339106e-03" rms="3.6621612310409546e-01" purity="8.3846223354339600e-01" nType="-99"/>
        </Node>
      </Node>
    </BinaryTree>
    <BinaryTree type="DecisionTree" boostWeight="1.0000000000000000e+00" itree="204">
      <Node pos="s" depth="0" NCoef="0" IVar="2" Cut="9.5246231555938721e-01" cType="1" res="1.2295311898924410e-04" rms="4.5152193307876587e-01" purity="4.9802508950233459e-01" nType="0">
        <Node pos="l" depth="1" NCoef="0" IVar="4" Cut="7.0355981445312500e+02" cType="1" res="-5.9788696467876434e-02" rms="4.5150402188301086e-01" purity="3.4074458479881287e-01" nType="0">
          <Node pos="l" depth="2" NCoef="0" IVar="-1" Cut="0.0000000000000000e+00" cType="1" res="-1.3317760312929749e-03" rms="4.4372832775115967e-01" purity="3.0679672956466675e-01" nType="-99"/>
          <Node pos="r" depth="2" NCoef="0" IVar="-1" Cut="0.0000000000000000e+00" cType="1" res="2.2462944034487009e-03" rms="4.6312919259071350e-01" purity="6.4877885580062866e-01" nType="-99"/>
        </Node>
        <Node pos="r" depth="1" NCoef="0" IVar="3" Cut="1.8425517272949219e+02" cType="1" res="7.8642703592777252e-02" rms="4.3934455513954163e-01" purity="7.0415562391281128e-01" nType="0">
          <Node pos="l" depth="2" NCoef="0" IVar="-1" Cut="0.0000000000000000e+00" cType="1" res="-4.3511055991984904e-04" rms="4.8327073454856873e-01" purity="5.8124625682830811e-01" nType="-99"/>
          <Node pos="r" depth="2" NCoef="0" IVar="-1" Cut="0.0000000000000000e+00" cType="1" res="1.9727100152522326e-03" rms="4.0694463253021240e-01" purity="7.6271188259124756e-01" nType="-99"/>
        </Node>
      </Node>
    </BinaryTree>
    <BinaryTree type="DecisionTree" boostWeight="1.0000000000000000e+00" itree="205">
      <Node pos="s" depth="0" NCoef="0" IVar="1" Cut="1.3686639070510864e+00" cType="1" res="8.0522354692220688e-03" rms="4.5181295275688171e-01" purity="5.1510095596313477e-01" nType="0">
        <Node pos="l" depth="1" NCoef="0" IVar="3" Cut="2.0596708679199219e+02" cType="1" res="3.8846619427204132e-02" rms="4.5664131641387939e-01" purity="5.7268822193145752e-01" nType="0">
          <Node pos="l" depth="2" NCoef="0" IVar="-1" Cut="0.0000000000000000e+00" cType="1" res="-3.5864784149453044e-04" rms="4.6076673269271851e-01" purity="4.8368424177169800e-01" nType="-99"/>
          <Node pos="r" depth="2" NCoef="0" IVar="-1" Cut="0.0000000000000000e+00" cType="1" res="1.6236694063991308e-03" rms="4.4171386957168579e-01" purity="6.7208707332611084e-01" nType="-99"/>
        </Node>
        <Node pos="r" depth="1" NCoef="0" IVar="2" Cut="9.3553942441940308e-01" cType="1" res="-1.6393299400806427e-01" rms="3.8047629594802856e-01" purity="1.9347870349884033e-01" nType="0">
          <Node pos="l" depth="2" NCoef="0" IVar="-1" Cut="0.0000000000000000e+00" cType="1" res="-4.9788472242653370e-03" rms="2.0130385458469391e-01" purity="4.7152563929557800e-02" nType="-99"/>
          <Node pos="r" depth="2" NCoef="0" IVar="-1" Cut="0.0000000000000000e+00" cType="1" res="-1.9076461903750896e-03" rms="4.4734650850296021e-01" purity="2.7959269285202026e-01" nType="-99"/>
        </Node>
      </Node>
    </BinaryTree>
    <BinaryTree type="DecisionTree" boostWeight="1.0000000000000000e+00" itree="206">
      <Node pos="s" depth="0" NCoef="0" IVar="4" Cut="3.8003356933593750e+02" cType="1" res="3.1152183655649424e-03" rms="4.5675474405288696e-01" purity="5.0465071201324463e-01" nType="0">
        <Node pos="l" depth="1" NCoef="0" IVar="0" Cut="2.5614538574218750e+02" cType="1" res="-9.8774559795856476e-02" rms="4.4135341048240662e-01" purity="3.3533534407615662e-01" nType="0">
          <Node pos="l" depth="2" NCoef="0" IVar="-1" Cut="0.0000000000000000e+00" cType="1" res="-1.0725550819188356e-03" rms="4.4878754019737244e-01" purity="3.6179482936859131e-01" nType="-99"/>
          <Node pos="r" depth="2" NCoef="0" IVar="-1" Cut="0.0000000000000000e+00" cType="1" res="-3.7243610713630915e-03" rms="3.8629758358001709e-01" purity="2.3045469820499420e-01" nType="-99"/>
        </Node>
        <Node pos="r" depth="1" NCoef="0" IVar="1" Cut="1.1243585348129272e+00" cType="1" res="3.9004221558570862e-02" rms="4.5667526125907898e-01" purity="5.6428921222686768e-01" nType="0">
          <Node pos="l" depth="2" NCoef="0" IVar="-1" Cut="0.0000000000000000e+00" cType="1" res="1.1359461350366473e-03" rms="4.5512920618057251e-01" purity="6.3716137409210205e-01" nType="-99"/>
          <Node pos="r" depth="2" NCoef="0" IVar="-1" Cut="0.0000000000000000e+00" cType="1" res="-1.0427522938698530e-03" rms="4.4508033990859985e-01" purity="3.6014226078987122e-01" nType="-99"/>
        </Node>
      </Node>
    </BinaryTree>
    <BinaryTree type="DecisionTree" boostWeight="1.0000000000000000e+00" itree="207">
      <Node pos="s" depth="0" NCoef="0" IVar="2" Cut="9.5513051748275757e-01" cType="1" res="1.3561559841036797e-02" rms="4.5592257380485535e-01" purity="5.1053315401077271e-01" nType="0">
        <Node pos="l" depth="1" NCoef="0" IVar="0" Cut="5.1775262451171875e+02" cType="1" res="-3.9099954068660736e-02" rms="4.6385318040847778e-01" purity="3.7076553702354431e-01" nType="0">
          <Node pos="l" depth="2" NCoef="0" IVar="-1" Cut="0.0000000000000000e+00" cType="1" res="-9.0989260934293270e-04" rms="4.5960119366645813e-01" purity="3.4399589896202087e-01" nType="-99"/>
          <Node pos="r" depth="2" NCoef="0" IVar="-1" Cut="0.0000000000000000e+00" cType="1" res="2.1388055756688118e-03" rms="4.6267655491828918e-01" purity="6.3736814260482788e-01" nType="-99"/>
        </Node>
        <Node pos="r" depth="1" NCoef="0" IVar="3" Cut="2.9574063110351562e+02" cType="1" res="9.4334125518798828e-02" rms="4.3116056919097900e-01" purity="7.2490966320037842e-01" nType="0">
          <Node pos="l" depth="2" NCoef="0" IVar="-1" Cut="0.0000000000000000e+00" cType="1" res="2.0092979539185762e-03" rms="4.0872767567634583e-01" purity="7.6964169740676880e-01" nType="-99"/>
          <Node pos="r" depth="2" NCoef="0" IVar="-1" Cut="0.0000000000000000e+00" cType="1" res="-1.6060589114204049e-03" rms="4.8240682482719421e-01" purity="5.0798094272613525e-01" nType="-99"/>
        </Node>
      </Node>
    </BinaryTree>
    <BinaryTree type="DecisionTree" boostWeight="1.0000000000000000e+00" itree="208">
      <Node pos="s" depth="0" NCoef="0" IVar="1" Cut="1.4876629114151001e+00" cType="1" res="-5.6786672212183475e-03" rms="4.5723187923431396e-01" purity="4.9486923217773438e-01" nType="0">
        <Node pos="l" depth="1" NCoef="0" IVar="3" Cut="1.9503291320800781e+02" cType="1" res="1.4041014015674591e-02" rms="4.6185579895973206e-01" purity="5.2898025512695312e-01" nType="0">
          <Node pos="l" depth="2" NCoef="0" IVar="-1" Cut="0.0000000000000000e+00" cType="1" res="-1.0702461004257202e-03" rms="4.6400499343872070e-01" purity="4.1238510608673096e-01" nType="-99"/>
          <Node pos="r" depth="2" NCoef="0" IVar="-1" Cut="0.0000000000000000e+00" cType="1" res="1.2214261805638671e-03" rms="4.4901385903358459e-01" purity="6.2256795167922974e-01" nType="-99"/>
        </Node>
        <Node pos="r" depth="1" NCoef="0" IVar="-1" Cut="0.0000000000000000e+00" cType="1" res="-3.3224483486264944e-03" rms="3.6513143777847290e-01" purity="1.8061214685440063e-01" nType="-99"/>
      </Node>
    </BinaryTree>
    <BinaryTree type="DecisionTree" boostWeight="1.0000000000000000e+00" itree="209">
      <Node pos="s" depth="0" NCoef="0" IVar="2" Cut="9.3715107440948486e-01" cType="1" res="-1.1609226465225220e-02" rms="4.5678880810737610e-01" purity="4.8698717355728149e-01" nType="0">
        <Node pos="l" depth="1" NCoef="0" IVar="3" Cut="1.9145132446289062e+02" cType="1" res="-8.5481442511081696e-02" rms="4.3243286013603210e-01" purity="2.7861383557319641e-01" nType="0">
          <Node pos="l" depth="2" NCoef="0" IVar="-1" Cut="0.0000000000000000e+00" cType="1" res="-2.5993818417191505e-03" rms="3.8924264907836914e-01" purity="1.8950322270393372e-01" nType="-99"/>
          <Node pos="r" depth="2" NCoef="0" IVar="-1" Cut="0.0000000000000000e+00" cType="1" res="-3.8843683432787657e-04" rms="4.5615935325622559e-01" purity="3.5251176357269287e-01" nType="-99"/>
        </Node>
        <Node pos="r" depth="1" NCoef="0" IVar="2" Cut="9.8183524608612061e-01" cType="1" res="2.6078162714838982e-02" rms="4.6422064304351807e-01" purity="5.9329301118850708e-01" nType="0">
          <Node pos="l" depth="2" NCoef="0" IVar="-1" Cut="0.0000000000000000e+00" cType="1" res="1.1291967530269176e-04" rms="4.7344005107879639e-01" purity="5.6208813190460205e-01" nType="-99"/>
          <Node pos="r" depth="2" NCoef="0" IVar="-1" Cut="0.0000000000000000e+00" cType="1" res="2.9489016160368919e-03" rms="3.3045843243598938e-01" purity="8.6845856904983521e-01" nType="-99"/>
        </Node>
      </Node>
    </BinaryTree>
    <BinaryTree type="DecisionTree" boostWeight="1.0000000000000000e+00" itree="210">
      <Node pos="s" depth="0" NCoef="0" IVar="2" Cut="9.3853223323822021e-01" cType="1" res="2.4726718664169312e-02" rms="4.5445963740348816e-01" purity="5.2205693721771240e-01" nType="0">
        <Node pos="l" depth="1" NCoef="0" IVar="2" Cut="9.1610378026962280e-01" cType="1" res="-5.8841623365879059e-02" rms="4.4541314244270325e-01" purity="3.0561432242393494e-01" nType="0">
          <Node pos="l" depth="2" NCoef="0" IVar="-1" Cut="0.0000000000000000e+00" cType="1" res="-3.1623060349375010e-03" rms="3.4677183628082275e-01" purity="1.4331322908401489e-01" nType="-99"/>
          <Node pos="r" depth="2" NCoef="0" IVar="-1" Cut="0.0000000000000000e+00" cType="1" res="-3.3045231248252094e-04" rms="4.6618637442588806e-01" purity="3.5729986429214478e-01" nType="-99"/>
        </Node>
        <Node pos="r" depth="1" NCoef="0" IVar="4" Cut="3.4201296997070312e+02" cType="1" res="7.3722362518310547e-02" rms="4.5256087183952332e-01" purity="6.4895600080490112e-01" nType="0">
          <Node pos="l" depth="2" NCoef="0" IVar="-1" Cut="0.0000000000000000e+00" cType="1" res="-1.5415798407047987e-03" rms="4.8452383279800415e-01" purity="3.9736688137054443e-01" nType="-99"/>
          <Node pos="r" depth="2" NCoef="0" IVar="-1" Cut="0.0000000000000000e+00" cType="1" res="1.4436130877584219e-03" rms="4.4375285506248474e-01" purity="6.8031561374664307e-01" nType="-99"/>
        </Node>
      </Node>
    </BinaryTree>
    <BinaryTree type="DecisionTree" boostWeight="1.0000000000000000e+00" itree="211">
      <Node pos="s" depth="0" NCoef="0" IVar="1" Cut="1.0345797538757324e+00" cType="1" res="-1.5819571912288666e-02" rms="4.5280429720878601e-01" purity="4.8046845197677612e-01" nType="0">
        <Node pos="l" depth="1" NCoef="0" IVar="3" Cut="1.8242637634277344e+02" cType="1" res="3.3269938081502914e-02" rms="4.5497250556945801e-01" purity="5.6860935688018799e-01" nType="0">
          <Node pos="l" depth="2" NCoef="0" IVar="-1" Cut="0.0000000000000000e+00" cType="1" res="-9.6176448278129101e-04" rms="4.5919176936149597e-01" purity="4.2640510201454163e-01" nType="-99"/>
          <Node pos="r" depth="2" NCoef="0" IVar="-1" Cut="0.0000000000000000e+00" cType="1" res="1.8372378544881940e-03" rms="4.3219321966171265e-01" purity="7.0287829637527466e-01" nType="-99"/>
        </Node>
        <Node pos="r" depth="1" NCoef="0" IVar="1" Cut="1.6414639949798584e+00" cType="1" res="-1.0007665306329727e-01" rms="4.3636921048164368e-01" purity="3.2918366789817810e-01" nType="0">
          <Node pos="l" depth="2" NCoef="0" IVar="-1" Cut="0.0000000000000000e+00" cType="1" res="-8.6669001029804349e-04" rms="4.6417737007141113e-01" purity="3.9915809035301208e-01" nType="-99"/>
          <Node pos="r" depth="2" NCoef="0" IVar="-1" Cut="0.0000000000000000e+00" cType="1" res="-4.6584415249526501e-03" rms="2.7844747900962830e-01" purity="9.7992591559886932e-02" nType="-99"/>
        </Node>
      </Node>
    </BinaryTree>
    <BinaryTree type="DecisionTree" boostWeight="1.0000000000000000e+00" itree="212">
      <Node pos="s" depth="0" NCoef="0" IVar="2" Cut="9.2216140031814575e-01" cType="1" res="8.6130732670426369e-03" rms="4.5870241522789001e-01" purity="5.0784242153167725e-01" nType="0">
        <Node pos="l" depth="1" NCoef="0" IVar="1" Cut="8.7744385004043579e-01" cType="1" res="-1.4182727038860321e-01" rms="3.8171225786209106e-01" purity="1.8727889657020569e-01" nType="0">
          <Node pos="l" depth="2" NCoef="0" IVar="-1" Cut="0.0000000000000000e+00" cType="1" res="-3.7759479600936174e-03" rms="3.3257380127906799e-01" purity="1.3862447440624237e-01" nType="-99"/>
          <Node pos="r" depth="2" NCoef="0" IVar="-1" Cut="0.0000000000000000e+00" cType="1" res="-1.6333551611751318e-03" rms="3.9946645498275757e-01" purity="2.1590930223464966e-01" nType="-99"/>
        </Node>
        <Node pos="r" depth="1" NCoef="0" IVar="1" Cut="1.3787697553634644e+00" cType="1" res="3.4517880529165268e-02" rms="4.6581244468688965e-01" purity="5.6304121017456055e-01" nType="0">
          <Node pos="l" depth="2" NCoef="0" IVar="-1" Cut="0.0000000000000000e+00" cType="1" res="8.1233429955318570e-04" rms="4.6534103155136108e-01" purity="6.0340452194213867e-01" nType="-99"/>
          <Node pos="r" depth="2" NCoef="0" IVar="-1" Cut="0.0000000000000000e+00" cType="1" res="-1.4355931198224425e-03" rms="4.5016005635261536e-01" purity="3.1768497824668884e-01" nType="-99"/>
        </Node>
      </Node>
    </BinaryTree>
    <BinaryTree type="DecisionTree" boostWeight="1.0000000000000000e+00" itree="213">
      <Node pos="s" depth="0" NCoef="0" IVar="0" Cut="3.0295510864257812e+02" cType="1" res="1.4248276129364967e-02" rms="4.5478543639183044e-01" purity="5.1501590013504028e-01" nType="0">
        <Node pos="l" depth="1" NCoef="0" IVar="2" Cut="9.3215531110763550e-01" cType="1" res="-5.4401669651269913e-02" rms="4.4932532310485840e-01" purity="4.0513393282890320e-01" nType="0">
          <Node pos="l" depth="2" NCoef="0" IVar="-1" Cut="0.0000000000000000e+00" cType="1" res="-2.6861268561333418e-03" rms="3.6488839983940125e-01" purity="1.6538217663764954e-01" nType="-99"/>
          <Node pos="r" depth="2" NCoef="0" IVar="-1" Cut="0.0000000000000000e+00" cType="1" res="-1.8907072080764920e-04" rms="4.7361102700233459e-01" purity="5.0445401668548584e-01" nType="-99"/>
        </Node>
        <Node pos="r" depth="1" NCoef="0" IVar="3" Cut="1.9048048400878906e+02" cType="1" res="7.2637848556041718e-02" rms="4.5123246312141418e-01" purity="6.0847496986389160e-01" nType="0">
          <Node pos="l" depth="2" NCoef="0" IVar="-1" Cut="0.0000000000000000e+00" cType="1" res="-7.4692757334560156e-04" rms="4.8117807507514954e-01" purity="4.5165255665779114e-01" nType="-99"/>
          <Node pos="r" depth="2" NCoef="0" IVar="-1" Cut="0.0000000000000000e+00" cType="1" res="1.7000682419165969e-03" rms="4.3358197808265686e-01" purity="6.5997523069381714e-01" nType="-99"/>
        </Node>
      </Node>
    </BinaryTree>
    <BinaryTree type="DecisionTree" boostWeight="1.0000000000000000e+00" itree="214">
      <Node pos="s" depth="0" NCoef="0" IVar="4" Cut="3.8003356933593750e+02" cType="1" res="-1.1639554053544998e-02" rms="4.5124807953834534e-01" purity="4.9263918399810791e-01" nType="0">
        <Node pos="l" depth="1" NCoef="0" IVar="4" Cut="3.4253152465820312e+02" cType="1" res="-1.3039283454418182e-01" rms="4.2666766047477722e-01" purity="2.9919615387916565e-01" nType="0">
          <Node pos="l" depth="2" NCoef="0" IVar="-1" Cut="0.0000000000000000e+00" cType="1" res="-3.0518444254994392e-03" rms="4.0028598904609680e-01" purity="2.2968895733356476e-01" nType="-99"/>
          <Node pos="r" depth="2" NCoef="0" IVar="-1" Cut="0.0000000000000000e+00" cType="1" res="-1.1288996320217848e-03" rms="4.4987905025482178e-01" purity="3.8396376371383667e-01" nType="-99"/>
        </Node>
        <Node pos="r" depth="1" NCoef="0" IVar="2" Cut="9.4139587879180908e-01" cType="1" res="3.1645689159631729e-02" rms="4.5219090580940247e-01" purity="5.6314861774444580e-01" nType="0">
          <Node pos="l" depth="2" NCoef="0" IVar="-1" Cut="0.0000000000000000e+00" cType="1" res="-1.2401381973177195e-03" rms="4.4932460784912109e-01" purity="3.2074287533760071e-01" nType="-99"/>
          <Node pos="r" depth="2" NCoef="0" IVar="-1" Cut="0.0000000000000000e+00" cType="1" res="1.3177375076338649e-03" rms="4.4334682822227478e-01" purity="6.8664932250976562e-01" nType="-99"/>
        </Node>
      </Node>
    </BinaryTree>
    <BinaryTree type="DecisionTree" boostWeight="1.0000000000000000e+00" itree="215">
      <Node pos="s" depth="0" NCoef="0" IVar="3" Cut="1.9414985656738281e+02" cType="1" res="1.9721943885087967e-02" rms="4.4462120532989502e-01" purity="5.2090859413146973e-01" nType="0">
        <Node pos="l" depth="1" NCoef="0" IVar="2" Cut="9.3295216560363770e-01" cType="1" res="-6.2438193708658218e-02" rms="4.4791829586029053e-01" purity="4.1352310776710510e-01" nType="0">
          <Node pos="l" depth="2" NCoef="0" IVar="-1" Cut="0.0000000000000000e+00" cType="1" res="-3.3338516950607300e-03" rms="3.4591946005821228e-01" purity="1.3705134391784668e-01" nType="-99"/>
          <Node pos="r" depth="2" NCoef="0" IVar="-1" Cut="0.0000000000000000e+00" cType="1" res="-5.2721316023962572e-05" rms="4.7597801685333252e-01" purity="5.3988170623779297e-01" nType="-99"/>
        </Node>
        <Node pos="r" depth="1" NCoef="0" IVar="1" Cut="1.2512722015380859e+00" cType="1" res="7.8809268772602081e-02" rms="4.3269589543342590e-01" purity="5.9813731908798218e-01" nType="0">
          <Node pos="l" depth="2" NCoef="0" IVar="-1" Cut="0.0000000000000000e+00" cType="1" res="2.2781172301620245e-03" rms="4.2023292183876038e-01" purity="7.2358036041259766e-01" nType="-99"/>
          <Node pos="r" depth="2" NCoef="0" IVar="-1" Cut="0.0000000000000000e+00" cType="1" res="-1.7357012256979942e-03" rms="4.0840455889701843e-01" purity="2.9358583688735962e-01" nType="-99"/>
        </Node>
      </Node>
    </BinaryTree>
    <BinaryTree type="DecisionTree" boostWeight="1.0000000000000000e+00" itree="216">
      <Node pos="s" depth="0" NCoef="0" IVar="2" Cut="9.4822788238525391e-01" cType="1" res="7.3663750663399696e-03" rms="4.5127207040786743e-01" purity="5.1014053821563721e-01" nType="0">
        <Node pos="l" depth="1" NCoef="0" IVar="1" Cut="1.3897655010223389e+00" cType="1" res="-5.9041153639554977e-02" rms="4.4797974824905396e-01" purity="3.2817617058753967e-01" nType="0">
          <Node pos="l" depth="2" NCoef="0" IVar="-1" Cut="0.0000000000000000e+00" cType="1" res="-3.7036964204162359e-04" rms="4.7305765748023987e-01" purity="3.8536188006401062e-01" nType="-99"/>
          <Node pos="r" depth="2" NCoef="0" IVar="-1" Cut="0.0000000000000000e+00" cType="1" res="-3.8545792922377586e-03" rms="2.8305205702781677e-01" purity="9.3086488544940948e-02" nType="-99"/>
        </Node>
        <Node pos="r" depth="1" NCoef="0" IVar="3" Cut="1.5007348632812500e+02" cType="1" res="7.0252314209938049e-02" rms="4.4533064961433411e-01" purity="6.8245536088943481e-01" nType="0">
          <Node pos="l" depth="2" NCoef="0" IVar="-1" Cut="0.0000000000000000e+00" cType="1" res="-1.4735634904354811e-03" rms="4.9467357993125916e-01" purity="4.9466431140899658e-01" nType="-99"/>
          <Node pos="r" depth="2" NCoef="0" IVar="-1" Cut="0.0000000000000000e+00" cType="1" res="1.4726894441992044e-03" rms="4.3035218119621277e-01" purity="7.1372359991073608e-01" nType="-99"/>
        </Node>
      </Node>
    </BinaryTree>
    <BinaryTree type="DecisionTree" boostWeight="1.0000000000000000e+00" itree="217">
      <Node pos="s" depth="0" NCoef="0" IVar="3" Cut="1.3184167480468750e+02" cType="1" res="2.4750925600528717e-02" rms="4.5614957809448242e-01" purity="5.2119439840316772e-01" nType="0">
        <Node pos="l" depth="1" NCoef="0" IVar="-1" Cut="0.0000000000000000e+00" cType="1" res="-4.4720089063048363e-03" rms="3.8083213567733765e-01" purity="2.0598055422306061e-01" nType="-99"/>
        <Node pos="r" depth="1" NCoef="0" IVar="1" Cut="1.6625981330871582e+00" cType="1" res="5.0441265106201172e-02" rms="4.5310977101325989e-01" purity="5.4861325025558472e-01" nType="0">
          <Node pos="l" depth="2" NCoef="0" IVar="-1" Cut="0.0000000000000000e+00" cType="1" res="1.0349496733397245e-03" rms="4.5633611083030701e-01" purity="5.7725542783737183e-01" nType="-99"/>
          <Node pos="r" depth="2" NCoef="0" IVar="-1" Cut="0.0000000000000000e+00" cType="1" res="-4.1615925729274750e-03" rms="2.9173603653907776e-01" purity="1.1902026087045670e-01" nType="-99"/>
        </Node>
      </Node>
    </BinaryTree>
    <BinaryTree type="DecisionTree" boostWeight="1.0000000000000000e+00" itree="218">
      <Node pos="s" depth="0" NCoef="0" IVar="1" Cut="1.1928523778915405e+00" cType="1" res="3.3290132414549589e-03" rms="4.5635968446731567e-01" purity="5.0861185789108276e-01" nType="0">
        <Node pos="l" depth="1" NCoef="0" IVar="3" Cut="2.0508489990234375e+02" cType="1" res="4.6437822282314301e-02" rms="4.5618757605552673e-01" purity="5.8603882789611816e-01" nType="0">
          <Node pos="l" depth="2" NCoef="0" IVar="-1" Cut="0.0000000000000000e+00" cType="1" res="-2.1405128063634038e-04" rms="4.6082690358161926e-01" purity="4.9481764435768127e-01" nType="-99"/>
          <Node pos="r" depth="2" NCoef="0" IVar="-1" Cut="0.0000000000000000e+00" cType="1" res="1.7797844484448433e-03" rms="4.3927964568138123e-01" purity="6.9790410995483398e-01" nType="-99"/>
        </Node>
        <Node pos="r" depth="1" NCoef="0" IVar="4" Cut="4.4748040771484375e+02" cType="1" res="-1.2276050448417664e-01" rms="4.3288496136665344e-01" purity="2.8214478492736816e-01" nType="0">
          <Node pos="l" depth="2" NCoef="0" IVar="-1" Cut="0.0000000000000000e+00" cType="1" res="-3.0675800517201424e-03" rms="3.9261993765830994e-01" purity="2.0115688443183899e-01" nType="-99"/>
          <Node pos="r" depth="2" NCoef="0" IVar="-1" Cut="0.0000000000000000e+00" cType="1" res="-8.3088158862665296e-04" rms="4.7149088978767395e-01" purity="3.8900312781333923e-01" nType="-99"/>
        </Node>
      </Node>
    </BinaryTree>
    <BinaryTree type="DecisionTree" boostWeight="1.0000000000000000e+00" itree="219">
      <Node pos="s" depth="0" NCoef="0" IVar="1" Cut="1.2133768796920776e+00" cType="1" res="1.6682026907801628e-02" rms="4.5936816930770874e-01" purity="5.2484637498855591e-01" nType="0">
        <Node pos="l" depth="1" NCoef="0" IVar="3" Cut="1.9715476989746094e+02" cType="1" res="4.5016329735517502e-02" rms="4.6071085333824158e-01" purity="5.9054756164550781e-01" nType="0">
          <Node pos="l" depth="2" NCoef="0" IVar="-1" Cut="0.0000000000000000e+00" cType="1" res="-4.7119718510657549e-04" rms="4.7329896688461304e-01" purity="4.7215545177459717e-01" nType="-99"/>
          <Node pos="r" depth="2" NCoef="0" IVar="-1" Cut="0.0000000000000000e+00" cType="1" res="1.6711208736523986e-03" rms="4.3854603171348572e-01" purity="6.9545978307723999e-01" nType="-99"/>
        </Node>
        <Node pos="r" depth="1" NCoef="0" IVar="2" Cut="9.2597973346710205e-01" cType="1" res="-8.0462135374546051e-02" rms="4.4112828373908997e-01" purity="2.9958978295326233e-01" nType="0">
          <Node pos="l" depth="2" NCoef="0" IVar="-1" Cut="0.0000000000000000e+00" cType="1" res="-3.4209513105452061e-03" rms="3.0284097790718079e-01" purity="9.8382562398910522e-02" nType="-99"/>
          <Node pos="r" depth="2" NCoef="0" IVar="-1" Cut="0.0000000000000000e+00" cType="1" res="-8.8291132124140859e-04" rms="4.7028014063835144e-01" purity="3.5783734917640686e-01" nType="-99"/>
        </Node>
      </Node>
    </BinaryTree>
    <BinaryTree type="DecisionTree" boostWeight="1.0000000000000000e+00" itree="220">
      <Node pos="s" depth="0" NCoef="0" IVar="1" Cut="1.3694025278091431e+00" cType="1" res="-5.6085637770593166e-03" rms="4.5227792859077454e-01" purity="4.9289593100547791e-01" nType="0">
        <Node pos="l" depth="1" NCoef="0" IVar="2" Cut="9.7046798467636108e-01" cType="1" res="2.6056766510009766e-02" rms="4.6043285727500916e-01" purity="5.5334538221359253e-01" nType="0">
          <Node pos="l" depth="2" NCoef="0" IVar="-1" Cut="0.0000000000000000e+00" cType="1" res="-3.6393619666341692e-05" rms="4.7539469599723816e-01" purity="4.8954609036445618e-01" nType="-99"/>
          <Node pos="r" depth="2" NCoef="0" IVar="-1" Cut="0.0000000000000000e+00" cType="1" res="2.5124084204435349e-03" rms="3.5506865382194519e-01" purity="8.4867274761199951e-01" nType="-99"/>
        </Node>
        <Node pos="r" depth="1" NCoef="0" IVar="1" Cut="1.5534355640411377e+00" cType="1" res="-1.4692011475563049e-01" rms="3.8326978683471680e-01" purity="2.2313088178634644e-01" nType="0">
          <Node pos="l" depth="2" NCoef="0" IVar="-1" Cut="0.0000000000000000e+00" cType="1" res="-9.7681290935724974e-04" rms="4.5379579067230225e-01" purity="3.3513578772544861e-01" nType="-99"/>
          <Node pos="r" depth="2" NCoef="0" IVar="-1" Cut="0.0000000000000000e+00" cType="1" res="-3.5257998388260603e-03" rms="3.2701760530471802e-01" purity="1.5993629395961761e-01" nType="-99"/>
        </Node>
      </Node>
    </BinaryTree>
    <BinaryTree type="DecisionTree" boostWeight="1.0000000000000000e+00" itree="221">
      <Node pos="s" depth="0" NCoef="0" IVar="6" Cut="8.7013256549835205e-01" cType="1" res="-3.9314841851592064e-03" rms="4.5578572154045105e-01" purity="4.9785077571868896e-01" nType="0">
        <Node pos="l" depth="1" NCoef="0" IVar="2" Cut="9.1723626852035522e-01" cType="1" res="2.8050744906067848e-02" rms="4.5528882741928101e-01" purity="5.4712897539138794e-01" nType="0">
          <Node pos="l" depth="2" NCoef="0" IVar="-1" Cut="0.0000000000000000e+00" cType="1" res="-3.1602687668055296e-03" rms="3.3354142308235168e-01" purity="1.4853031933307648e-01" nType="-99"/>
          <Node pos="r" depth="2" NCoef="0" IVar="-1" Cut="0.0000000000000000e+00" cType="1" res="7.6277100015431643e-04" rms="4.6041101217269897e-01" purity="5.8845245838165283e-01" nType="-99"/>
        </Node>
        <Node pos="r" depth="1" NCoef="0" IVar="3" Cut="1.8966108703613281e+02" cType="1" res="-1.0406575351953506e-01" rms="4.4263824820518494e-01" purity="3.4356400370597839e-01" nType="0">
          <Node pos="l" depth="2" NCoef="0" IVar="-1" Cut="0.0000000000000000e+00" cType="1" res="-3.9559490978717804e-03" rms="3.6673292517662048e-01" purity="1.9583871960639954e-01" nType="-99"/>
          <Node pos="r" depth="2" NCoef="0" IVar="-1" Cut="0.0000000000000000e+00" cType="1" res="-8.8444043649360538e-04" rms="4.5798972249031067e-01" purity="3.9898118376731873e-01" nType="-99"/>
        </Node>
      </Node>
    </BinaryTree>
    <BinaryTree type="DecisionTree" boostWeight="1.0000000000000000e+00" itree="222">
      <Node pos="s" depth="0" NCoef="0" IVar="2" Cut="9.3141680955886841e-01" cType="1" res="2.8420099988579750e-03" rms="4.5494806766510010e-01" purity="5.0901758670806885e-01" nType="0">
        <Node pos="l" depth="1" NCoef="0" IVar="3" Cut="1.9731768798828125e+02" cType="1" res="-9.2220917344093323e-02" rms="4.1999036073684692e-01" purity="2.6354867219924927e-01" nType="0">
          <Node pos="l" depth="2" NCoef="0" IVar="-1" Cut="0.0000000000000000e+00" cType="1" res="-3.5533201880753040e-03" rms="3.3765235543251038e-01" purity="1.3325239717960358e-01" nType="-99"/>
          <Node pos="r" depth="2" NCoef="0" IVar="-1" Cut="0.0000000000000000e+00" cType="1" res="1.0083351662615314e-04" rms="4.5820230245590210e-01" purity="3.7701123952865601e-01" nType="-99"/>
        </Node>
        <Node pos="r" depth="1" NCoef="0" IVar="6" Cut="8.8168466091156006e-01" cType="1" res="3.2021019607782364e-02" rms="4.6123817563056946e-01" purity="5.8436286449432373e-01" nType="0">
          <Node pos="l" depth="2" NCoef="0" IVar="-1" Cut="0.0000000000000000e+00" cType="1" res="9.9755695555359125e-04" rms="4.5479077100753784e-01" purity="6.3278448581695557e-01" nType="-99"/>
          <Node pos="r" depth="2" NCoef="0" IVar="-1" Cut="0.0000000000000000e+00" cType="1" res="-1.6171827446669340e-03" rms="4.6158555150032043e-01" purity="3.9911121129989624e-01" nType="-99"/>
        </Node>
      </Node>
    </BinaryTree>
    <BinaryTree type="DecisionTree" boostWeight="1.0000000000000000e+00" itree="223">
      <Node pos="s" depth="0" NCoef="0" IVar="2" Cut="9.7415369749069214e-01" cType="1" res="-6.3140369020402431e-03" rms="4.5442262291908264e-01" purity="4.8932784795761108e-01" nType="0">
        <Node pos="l" depth="1" NCoef="0" IVar="6" Cut="9.8419249057769775e-01" cType="1" res="-3.3620100468397141e-02" rms="4.6254965662956238e-01" purity="4.3175601959228516e-01" nType="0">
          <Node pos="l" depth="2" NCoef="0" IVar="-1" Cut="0.0000000000000000e+00" cType="1" res="-1.4768734399694949e-04" rms="4.6939009428024292e-01" purity="4.6726304292678833e-01" nType="-99"/>
          <Node pos="r" depth="2" NCoef="0" IVar="-1" Cut="0.0000000000000000e+00" cType="1" res="-2.4893768131732941e-03" rms="4.0981870889663696e-01" purity="2.6325714588165283e-01" nType="-99"/>
        </Node>
        <Node pos="r" depth="1" NCoef="0" IVar="3" Cut="2.1412089538574219e+02" cType="1" res="1.6041988134384155e-01" rms="3.5866782069206238e-01" purity="8.4086787700653076e-01" nType="0">
          <Node pos="l" depth="2" NCoef="0" IVar="-1" Cut="0.0000000000000000e+00" cType="1" res="1.9237047526985407e-03" rms="3.9185532927513123e-01" purity="8.0175840854644775e-01" nType="-99"/>
          <Node pos="r" depth="2" NCoef="0" IVar="-1" Cut="0.0000000000000000e+00" cType="1" res="3.1294126529246569e-03" rms="3.2218182086944580e-01" purity="8.7584310770034790e-01" nType="-99"/>
        </Node>
      </Node>
    </BinaryTree>
    <BinaryTree type="DecisionTree" boostWeight="1.0000000000000000e+00" itree="224">
      <Node pos="s" depth="0" NCoef="0" IVar="6" Cut="1.0338339805603027e+00" cType="1" res="-1.2641640380024910e-02" rms="4.5882564783096313e-01" purity="4.8227608203887939e-01" nType="0">
        <Node pos="l" depth="1" NCoef="0" IVar="2" Cut="9.6740448474884033e-01" cType="1" res="7.9003088176250458e-03" rms="4.5982161164283752e-01" purity="5.1270961761474609e-01" nType="0">
          <Node pos="l" depth="2" NCoef="0" IVar="-1" Cut="0.0000000000000000e+00" cType="1" res="-3.1010326347313821e-04" rms="4.7112381458282471e-01" purity="4.3490371108055115e-01" nType="-99"/>
          <Node pos="r" depth="2" NCoef="0" IVar="-1" Cut="0.0000000000000000e+00" cType="1" res="1.6616230132058263e-03" rms="4.0334379673004150e-01" purity="7.8354102373123169e-01" nType="-99"/>
        </Node>
        <Node pos="r" depth="1" NCoef="0" IVar="4" Cut="4.0061480712890625e+02" cType="1" res="-1.5171310305595398e-01" rms="4.2676591873168945e-01" purity="2.7623733878135681e-01" nType="0">
          <Node pos="l" depth="2" NCoef="0" IVar="-1" Cut="0.0000000000000000e+00" cType="1" res="-1.7717651790007949e-03" rms="4.3744200468063354e-01" purity="2.9270279407501221e-01" nType="-99"/>
          <Node pos="r" depth="2" NCoef="0" IVar="-1" Cut="0.0000000000000000e+00" cType="1" res="-3.2298550941050053e-03" rms="4.1270837187767029e-01" purity="2.6115587353706360e-01" nType="-99"/>
        </Node>
      </Node>
    </BinaryTree>
    <BinaryTree type="DecisionTree" boostWeight="1.0000000000000000e+00" itree="225">
      <Node pos="s" depth="0" NCoef="0" IVar="2" Cut="9.3933051824569702e-01" cType="1" res="1.0825051926076412e-02" rms="4.4917139410972595e-01" purity="5.0471365451812744e-01" nType="0">
        <Node pos="l" depth="1" NCoef="0" IVar="4" Cut="4.1692431640625000e+02" cType="1" res="-6.7614950239658356e-02" rms="4.2968973517417908e-01" purity="3.0169618129730225e-01" nType="0">
          <Node pos="l" depth="2" NCoef="0" IVar="-1" Cut="0.0000000000000000e+00" cType="1" res="-3.1190996523946524e-03" rms="3.4844532608985901e-01" purity="1.4626015722751617e-01" nType="-99"/>
          <Node pos="r" depth="2" NCoef="0" IVar="-1" Cut="0.0000000000000000e+00" cType="1" res="1.3450828555505723e-04" rms="4.6459099650382996e-01" purity="4.1287830471992493e-01" nType="-99"/>
        </Node>
        <Node pos="r" depth="1" NCoef="0" IVar="3" Cut="3.6122671508789062e+02" cType="1" res="5.8881077915430069e-02" rms="4.5405459403991699e-01" purity="6.2909162044525146e-01" nType="0">
          <Node pos="l" depth="2" NCoef="0" IVar="-1" Cut="0.0000000000000000e+00" cType="1" res="1.2185367522761226e-03" rms="4.4862300157546997e-01" purity="6.5606874227523804e-01" nType="-99"/>
          <Node pos="r" depth="2" NCoef="0" IVar="-1" Cut="0.0000000000000000e+00" cType="1" res="-1.9464234355837107e-03" rms="4.5967796444892883e-01" purity="4.0557250380516052e-01" nType="-99"/>
        </Node>
      </Node>
    </BinaryTree>
    <BinaryTree type="DecisionTree" boostWeight="1.0000000000000000e+00" itree="226">
      <Node pos="s" depth="0" NCoef="0" IVar="3" Cut="1.7951113891601562e+02" cType="1" res="-8.3795823156833649e-03" rms="4.5775580406188965e-01" purity="4.8956409096717834e-01" nType="0">
        <Node pos="l" depth="1" NCoef="0" IVar="5" Cut="9.1008224487304688e+01" cType="1" res="-1.0864794999361038e-01" rms="4.5268443226814270e-01" purity="3.6454269289970398e-01" nType="0">
          <Node pos="l" depth="2" NCoef="0" IVar="-1" Cut="0.0000000000000000e+00" cType="1" res="-6.0233741533011198e-04" rms="4.4448578357696533e-01" purity="4.1424793004989624e-01" nType="-99"/>
          <Node pos="r" depth="2" NCoef="0" IVar="-1" Cut="0.0000000000000000e+00" cType="1" res="-2.5103758089244366e-03" rms="4.5162960886955261e-01" purity="3.2823976874351501e-01" nType="-99"/>
        </Node>
        <Node pos="r" depth="1" NCoef="0" IVar="1" Cut="7.0247554779052734e-01" cType="1" res="3.9259392768144608e-02" rms="4.5242446660995483e-01" purity="5.4896360635757446e-01" nType="0">
          <Node pos="l" depth="2" NCoef="0" IVar="-1" Cut="0.0000000000000000e+00" cType="1" res="2.6444082614034414e-03" rms="4.0115892887115479e-01" purity="7.7772492170333862e-01" nType="-99"/>
          <Node pos="r" depth="2" NCoef="0" IVar="-1" Cut="0.0000000000000000e+00" cType="1" res="-7.4662304541561753e-05" rms="4.5907863974571228e-01" purity="4.7555682063102722e-01" nType="-99"/>
        </Node>
      </Node>
    </BinaryTree>
    <BinaryTree type="DecisionTree" boostWeight="1.0000000000000000e+00" itree="227">
      <Node pos="s" depth="0" NCoef="0" IVar="1" Cut="1.1899000406265259e+00" cType="1" res="-2.9265595600008965e-02" rms="4.5217338204383850e-01" purity="4.5967242121696472e-01" nType="0">
        <Node pos="l" depth="1" NCoef="0" IVar="3" Cut="1.8242637634277344e+02" cType="1" res="3.6719876807183027e-03" rms="4.5836561918258667e-01" purity="5.3182071447372437e-01" nType="0">
          <Node pos="l" depth="2" NCoef="0" IVar="-1" Cut="0.0000000000000000e+00" cType="1" res="-1.1642017634585500e-03" rms="4.4862812757492065e-01" purity="4.1086849570274353e-01" nType="-99"/>
          <Node pos="r" depth="2" NCoef="0" IVar="-1" Cut="0.0000000000000000e+00" cType="1" res="9.9665101151913404e-04" rms="4.5630764961242676e-01" purity="6.2679409980773926e-01" nType="-99"/>
        </Node>
        <Node pos="r" depth="1" NCoef="0" IVar="3" Cut="3.1757629394531250e+02" cType="1" res="-1.1883484572172165e-01" rms="4.2208456993103027e-01" purity="2.6347506046295166e-01" nType="0">
          <Node pos="l" depth="2" NCoef="0" IVar="-1" Cut="0.0000000000000000e+00" cType="1" res="-1.1886674910783768e-03" rms="4.4362723827362061e-01" purity="3.0546501278877258e-01" nType="-99"/>
          <Node pos="r" depth="2" NCoef="0" IVar="-1" Cut="0.0000000000000000e+00" cType="1" res="-3.8620172999799252e-03" rms="3.5223034024238586e-01" purity="1.7495232820510864e-01" nType="-99"/>
        </Node>
      </Node>
    </BinaryTree>
    <BinaryTree type="DecisionTree" boostWeight="1.0000000000000000e+00" itree="228">
      <Node pos="s" depth="0" NCoef="0" IVar="2" Cut="9.3396538496017456e-01" cType="1" res="2.9525957070291042e-03" rms="4.4928446412086487e-01" purity="4.9660658836364746e-01" nType="0">
        <Node pos="l" depth="1" NCoef="0" IVar="2" Cut="9.2340195178985596e-01" cType="1" res="-1.1585846543312073e-01" rms="4.0345299243927002e-01" purity="2.3179250955581665e-01" nType="0">
          <Node pos="l" depth="2" NCoef="0" IVar="-1" Cut="0.0000000000000000e+00" cType="1" res="-3.1563569791615009e-03" rms="3.4413439035415649e-01" purity="1.4617946743965149e-01" nType="-99"/>
          <Node pos="r" depth="2" NCoef="0" IVar="-1" Cut="0.0000000000000000e+00" cType="1" res="-7.9129845835268497e-04" rms="4.4903489947319031e-01" purity="3.2352358102798462e-01" nType="-99"/>
        </Node>
        <Node pos="r" depth="1" NCoef="0" IVar="4" Cut="3.4201296997070312e+02" cType="1" res="5.0289258360862732e-02" rms="4.5778027176856995e-01" purity="6.0211372375488281e-01" nType="0">
          <Node pos="l" depth="2" NCoef="0" IVar="-1" Cut="0.0000000000000000e+00" cType="1" res="-1.8269355641677976e-03" rms="4.4510552287101746e-01" purity="3.3483237028121948e-01" nType="-99"/>
          <Node pos="r" depth="2" NCoef="0" IVar="-1" Cut="0.0000000000000000e+00" cType="1" res="1.0743762832134962e-03" rms="4.5529392361640930e-01" purity="6.3605487346649170e-01" nType="-99"/>
        </Node>
      </Node>
    </BinaryTree>
    <BinaryTree type="DecisionTree" boostWeight="1.0000000000000000e+00" itree="229">
      <Node pos="s" depth="0" NCoef="0" IVar="2" Cut="9.3514961004257202e-01" cType="1" res="-9.9238557741045952e-03" rms="4.4987568259239197e-01" purity="4.9000832438468933e-01" nType="0">
        <Node pos="l" depth="1" NCoef="0" IVar="4" Cut="5.6617413330078125e+02" cType="1" res="-1.1307509243488312e-01" rms="4.0935966372489929e-01" purity="2.4423567950725555e-01" nType="0">
          <Node pos="l" depth="2" NCoef="0" IVar="-1" Cut="0.0000000000000000e+00" cType="1" res="-2.6259454898536205e-03" rms="3.7920761108398438e-01" purity="1.8269552290439606e-01" nType="-99"/>
          <Node pos="r" depth="2" NCoef="0" IVar="-1" Cut="0.0000000000000000e+00" cType="1" res="3.8408447289839387e-04" rms="4.7221219539642334e-01" purity="4.5111578702926636e-01" nType="-99"/>
        </Node>
        <Node pos="r" depth="1" NCoef="0" IVar="3" Cut="1.7874314880371094e+02" cType="1" res="3.3171605318784714e-02" rms="4.5894441008567810e-01" purity="5.9268945455551147e-01" nType="0">
          <Node pos="l" depth="2" NCoef="0" IVar="-1" Cut="0.0000000000000000e+00" cType="1" res="-7.7203894034028053e-04" rms="4.8457729816436768e-01" purity="4.9635788798332214e-01" nType="-99"/>
          <Node pos="r" depth="2" NCoef="0" IVar="-1" Cut="0.0000000000000000e+00" cType="1" res="1.0646949522197247e-03" rms="4.4247213006019592e-01" purity="6.3426297903060913e-01" nType="-99"/>
        </Node>
      </Node>
    </BinaryTree>
    <BinaryTree type="DecisionTree" boostWeight="1.0000000000000000e+00" itree="230">
      <Node pos="s" depth="0" NCoef="0" IVar="1" Cut="1.0482903718948364e+00" cType="1" res="5.2003175951540470e-03" rms="4.5567661523818970e-01" purity="5.0070691108703613e-01" nType="0">
        <Node pos="l" depth="1" NCoef="0" IVar="3" Cut="1.7979666137695312e+02" cType="1" res="4.9596596509218216e-02" rms="4.5903703570365906e-01" purity="5.9105712175369263e-01" nType="0">
          <Node pos="l" depth="2" NCoef="0" IVar="-1" Cut="0.0000000000000000e+00" cType="1" res="-4.2302030487917364e-04" rms="4.6688002347946167e-01" purity="4.5743304491043091e-01" nType="-99"/>
          <Node pos="r" depth="2" NCoef="0" IVar="-1" Cut="0.0000000000000000e+00" cType="1" res="1.6255347291007638e-03" rms="4.4381174445152283e-01" purity="6.9393903017044067e-01" nType="-99"/>
        </Node>
        <Node pos="r" depth="1" NCoef="0" IVar="4" Cut="6.1845257568359375e+02" cType="1" res="-6.8989649415016174e-02" rms="4.4012117385864258e-01" purity="3.4972396492958069e-01" nType="0">
          <Node pos="l" depth="2" NCoef="0" IVar="-1" Cut="0.0000000000000000e+00" cType="1" res="-1.6147608403116465e-03" rms="4.2866876721382141e-01" purity="3.0918136239051819e-01" nType="-99"/>
          <Node pos="r" depth="2" NCoef="0" IVar="-1" Cut="0.0000000000000000e+00" cType="1" res="7.3331751627847552e-04" rms="4.6904760599136353e-01" purity="5.2719467878341675e-01" nType="-99"/>
        </Node>
      </Node>
    </BinaryTree>
    <BinaryTree type="DecisionTree" boostWeight="1.0000000000000000e+00" itree="231">
      <Node pos="s" depth="0" NCoef="0" IVar="2" Cut="9.4172614812850952e-01" cType="1" res="2.4004293605685234e-02" rms="4.5482939481735229e-01" purity="5.2354967594146729e-01" nType="0">
        <Node pos="l" depth="1" NCoef="0" IVar="3" Cut="1.4687835693359375e+02" cType="1" res="-5.3080808371305466e-02" rms="4.4830396771430969e-01" purity="3.1964331865310669e-01" nType="0">
          <Node pos="l" depth="2" NCoef="0" IVar="-1" Cut="0.0000000000000000e+00" cType="1" res="-3.5290170926600695e-03" rms="3.4394794702529907e-01" purity="1.3818210363388062e-01" nType="-99"/>
          <Node pos="r" depth="2" NCoef="0" IVar="-1" Cut="0.0000000000000000e+00" cType="1" res="-4.5191493700258434e-04" rms="4.5822995901107788e-01" purity="3.4898740053176880e-01" nType="-99"/>
        </Node>
        <Node pos="r" depth="1" NCoef="0" IVar="4" Cut="3.3362332153320312e+02" cType="1" res="7.3810726404190063e-02" rms="4.5205926895141602e-01" purity="6.5529823303222656e-01" nType="0">
          <Node pos="l" depth="2" NCoef="0" IVar="-1" Cut="0.0000000000000000e+00" cType="1" res="-1.4480135869234800e-03" rms="4.7284907102584839e-01" purity="4.2613220214843750e-01" nType="-99"/>
          <Node pos="r" depth="2" NCoef="0" IVar="-1" Cut="0.0000000000000000e+00" cType="1" res="1.4113164506852627e-03" rms="4.4566836953163147e-01" purity="6.8135905265808105e-01" nType="-99"/>
        </Node>
      </Node>
    </BinaryTree>
    <BinaryTree type="DecisionTree" boostWeight="1.0000000000000000e+00" itree="232">
      <Node pos="s" depth="0" NCoef="0" IVar="1" Cut="1.2607016563415527e+00" cType="1" res="1.5336723299697042e-03" rms="4.4606283307075500e-01" purity="5.0510311126708984e-01" nType="0">
        <Node pos="l" depth="1" NCoef="0" IVar="2" Cut="9.2341786623001099e-01" cType="1" res="3.7284001708030701e-02" rms="4.4852998852729797e-01" purity="5.7769215106964111e-01" nType="0">
          <Node pos="l" depth="2" NCoef="0" IVar="-1" Cut="0.0000000000000000e+00" cType="1" res="-2.5573663879185915e-03" rms="3.8594019412994385e-01" purity="1.9640040397644043e-01" nType="-99"/>
          <Node pos="r" depth="2" NCoef="0" IVar="-1" Cut="0.0000000000000000e+00" cType="1" res="1.0283499723300338e-03" rms="4.5021909475326538e-01" purity="6.3937300443649292e-01" nType="-99"/>
        </Node>
        <Node pos="r" depth="1" NCoef="0" IVar="3" Cut="2.9324468994140625e+02" cType="1" res="-1.1567822098731995e-01" rms="4.1690137982368469e-01" purity="2.6711109280586243e-01" nType="0">
          <Node pos="l" depth="2" NCoef="0" IVar="-1" Cut="0.0000000000000000e+00" cType="1" res="-5.9374707052484155e-04" rms="4.5038112998008728e-01" purity="3.4998285770416260e-01" nType="-99"/>
          <Node pos="r" depth="2" NCoef="0" IVar="-1" Cut="0.0000000000000000e+00" cType="1" res="-3.8896040059626102e-03" rms="3.4427946805953979e-01" purity="1.6264395415782928e-01" nType="-99"/>
        </Node>
      </Node>
    </BinaryTree>
    <BinaryTree type="DecisionTree" boostWeight="1.0000000000000000e+00" itree="233">
      <Node pos="s" depth="0" NCoef="0" IVar="1" Cut="1.6084485054016113e+00" cType="1" res="-6.3649826915934682e-04" rms="4.5593613386154175e-01" purity="4.8963564634323120e-01" nType="0">
        <Node pos="l" depth="1" NCoef="0" IVar="3" Cut="2.2901669311523438e+02" cType="1" res="1.6665609553456306e-02" rms="4.6095567941665649e-01" purity="5.2301543951034546e-01" nType="0">
          <Node pos="l" depth="2" NCoef="0" IVar="-1" Cut="0.0000000000000000e+00" cType="1" res="-4.0190937579609454e-04" rms="4.5548644661903381e-01" purity="4.6703135967254639e-01" nType="-99"/>
          <Node pos="r" depth="2" NCoef="0" IVar="-1" Cut="0.0000000000000000e+00" cType="1" res="1.3242991408333182e-03" rms="4.6135658025741577e-01" purity="6.1595827341079712e-01" nType="-99"/>
        </Node>
        <Node pos="r" depth="1" NCoef="0" IVar="0" Cut="2.8741665649414062e+02" cType="1" res="-1.4885988831520081e-01" rms="3.7936174869537354e-01" purity="2.0367826521396637e-01" nType="0">
          <Node pos="l" depth="2" NCoef="0" IVar="-1" Cut="0.0000000000000000e+00" cType="1" res="-3.8927593268454075e-03" rms="3.5227358341217041e-01" purity="1.3573448359966278e-01" nType="-99"/>
          <Node pos="r" depth="2" NCoef="0" IVar="-1" Cut="0.0000000000000000e+00" cType="1" res="-1.7528014723211527e-03" rms="3.9704838395118713e-01" purity="2.6758652925491333e-01" nType="-99"/>
        </Node>
      </Node>
    </BinaryTree>
    <BinaryTree type="DecisionTree" boostWeight="1.0000000000000000e+00" itree="234">
      <Node pos="s" depth="0" NCoef="0" IVar="0" Cut="3.0244378662109375e+02" cType="1" res="8.7353307753801346e-03" rms="4.5611077547073364e-01" purity="5.0527334213256836e-01" nType="0">
        <Node pos="l" depth="1" NCoef="0" IVar="2" Cut="9.2012828588485718e-01" cType="1" res="-5.1467087119817734e-02" rms="4.5659404993057251e-01" purity="4.0133780241012573e-01" nType="0">
          <Node pos="l" depth="2" NCoef="0" IVar="-1" Cut="0.0000000000000000e+00" cType="1" res="-3.6698936019092798e-03" rms="2.6061972975730896e-01" purity="7.6876573264598846e-02" nType="-99"/>
          <Node pos="r" depth="2" NCoef="0" IVar="-1" Cut="0.0000000000000000e+00" cType="1" res="-4.8873911146074533e-04" rms="4.7323295474052429e-01" purity="4.4532993435859680e-01" nType="-99"/>
        </Node>
        <Node pos="r" depth="1" NCoef="0" IVar="3" Cut="1.9105001831054688e+02" cType="1" res="6.1638504266738892e-02" rms="4.4907215237617493e-01" purity="5.9660732746124268e-01" nType="0">
          <Node pos="l" depth="2" NCoef="0" IVar="-1" Cut="0.0000000000000000e+00" cType="1" res="-1.0411442490294576e-03" rms="4.7567850351333618e-01" purity="4.3650725483894348e-01" nType="-99"/>
          <Node pos="r" depth="2" NCoef="0" IVar="-1" Cut="0.0000000000000000e+00" cType="1" res="1.5466789482161403e-03" rms="4.3317055702209473e-01" purity="6.4485168457031250e-01" nType="-99"/>
        </Node>
      </Node>
    </BinaryTree>
    <BinaryTree type="DecisionTree" boostWeight="1.0000000000000000e+00" itree="235">
      <Node pos="s" depth="0" NCoef="0" IVar="1" Cut="1.6155079603195190e+00" cType="1" res="-3.8547862786799669e-03" rms="4.6000957489013672e-01" purity="4.8684880137443542e-01" nType="0">
        <Node pos="l" depth="1" NCoef="0" IVar="4" Cut="3.2829907226562500e+02" cType="1" res="1.2367022223770618e-02" rms="4.6849593520164490e-01" purity="5.2096205949783325e-01" nType="0">
          <Node pos="l" depth="2" NCoef="0" IVar="-1" Cut="0.0000000000000000e+00" cType="1" res="-2.0089633762836456e-03" rms="4.2809048295021057e-01" purity="3.0324539542198181e-01" nType="-99"/>
          <Node pos="r" depth="2" NCoef="0" IVar="-1" Cut="0.0000000000000000e+00" cType="1" res="4.4000579509884119e-04" rms="4.7058513760566711e-01" purity="5.4726326465606689e-01" nType="-99"/>
        </Node>
        <Node pos="r" depth="1" NCoef="0" IVar="-1" Cut="0.0000000000000000e+00" cType="1" res="-2.8923517093062401e-03" rms="3.3755740523338318e-01" purity="1.7175301909446716e-01" nType="-99"/>
      </Node>
    </BinaryTree>
    <BinaryTree type="DecisionTree" boostWeight="1.0000000000000000e+00" itree="236">
      <Node pos="s" depth="0" NCoef="0" IVar="1" Cut="8.7362235784530640e-01" cType="1" res="2.4028520565479994e-03" rms="4.5266324281692505e-01" purity="5.0667971372604370e-01" nType="0">
        <Node pos="l" depth="1" NCoef="0" IVar="3" Cut="1.9216798400878906e+02" cType="1" res="7.6097555458545685e-02" rms="4.5016080141067505e-01" purity="6.2998747825622559e-01" nType="0">
          <Node pos="l" depth="2" NCoef="0" IVar="-1" Cut="0.0000000000000000e+00" cType="1" res="3.6843185080215335e-04" rms="4.6625706553459167e-01" purity="5.3341323137283325e-01" nType="-99"/>
          <Node pos="r" depth="2" NCoef="0" IVar="-1" Cut="0.0000000000000000e+00" cType="1" res="2.1612141281366348e-03" rms="4.1887944936752319e-01" purity="7.5589346885681152e-01" nType="-99"/>
        </Node>
        <Node pos="r" depth="1" NCoef="0" IVar="2" Cut="9.7352504730224609e-01" cType="1" res="-7.3134303092956543e-02" rms="4.4265925884246826e-01" purity="3.8028910756111145e-01" nType="0">
          <Node pos="l" depth="2" NCoef="0" IVar="-1" Cut="0.0000000000000000e+00" cType="1" res="-1.5840491978451610e-03" rms="4.3931654095649719e-01" purity="3.2506874203681946e-01" nType="-99"/>
          <Node pos="r" depth="2" NCoef="0" IVar="-1" Cut="0.0000000000000000e+00" cType="1" res="1.3262197608128190e-03" rms="4.3138292431831360e-01" purity="7.2853875160217285e-01" nType="-99"/>
        </Node>
      </Node>
    </BinaryTree>
    <BinaryTree type="DecisionTree" boostWeight="1.0000000000000000e+00" itree="237">
      <Node pos="s" depth="0" NCoef="0" IVar="2" Cut="9.3123555183410645e-01" cType="1" res="2.8887840453535318e-03" rms="4.5041424036026001e-01" purity="4.9509668350219727e-01" nType="0">
        <Node pos="l" depth="1" NCoef="0" IVar="3" Cut="2.3392988586425781e+02" cType="1" res="-1.0560335218906403e-01" rms="4.0456816554069519e-01" purity="2.3713342845439911e-01" nType="0">
          <Node pos="l" depth="2" NCoef="0" IVar="-1" Cut="0.0000000000000000e+00" cType="1" res="-2.8531106654554605e-03" rms="3.6237987875938416e-01" purity="1.6310200095176697e-01" nType="-99"/>
          <Node pos="r" depth="2" NCoef="0" IVar="-1" Cut="0.0000000000000000e+00" cType="1" res="-1.1436407476139721e-05" rms="4.5169630646705627e-01" purity="3.6881455779075623e-01" nType="-99"/>
        </Node>
        <Node pos="r" depth="1" NCoef="0" IVar="4" Cut="6.3930200195312500e+02" cType="1" res="3.9041038602590561e-02" rms="4.5902651548385620e-01" purity="5.8105641603469849e-01" nType="0">
          <Node pos="l" depth="2" NCoef="0" IVar="-1" Cut="0.0000000000000000e+00" cType="1" res="1.9006915681529790e-04" rms="4.6142709255218506e-01" purity="5.4639208316802979e-01" nType="-99"/>
          <Node pos="r" depth="2" NCoef="0" IVar="-1" Cut="0.0000000000000000e+00" cType="1" res="2.4378784000873566e-03" rms="4.2466801404953003e-01" purity="7.4676591157913208e-01" nType="-99"/>
        </Node>
      </Node>
    </BinaryTree>
    <BinaryTree type="DecisionTree" boostWeight="1.0000000000000000e+00" itree="238">
      <Node pos="s" depth="0" NCoef="0" IVar="2" Cut="9.3527644872665405e-01" cType="1" res="-1.0756179690361023e-02" rms="4.5086044073104858e-01" purity="4.8057252168655396e-01" nType="0">
        <Node pos="l" depth="1" NCoef="0" IVar="6" Cut="9.9167180061340332e-01" cType="1" res="-1.1043917387723923e-01" rms="4.0823459625244141e-01" purity="2.3721320927143097e-01" nType="0">
          <Node pos="l" depth="2" NCoef="0" IVar="-1" Cut="0.0000000000000000e+00" cType="1" res="-1.3372907415032387e-03" rms="4.3081700801849365e-01" purity="2.7631109952926636e-01" nType="-99"/>
          <Node pos="r" depth="2" NCoef="0" IVar="-1" Cut="0.0000000000000000e+00" cType="1" res="-4.3844608590006828e-03" rms="2.7044102549552917e-01" purity="8.1000111997127533e-02" nType="-99"/>
        </Node>
        <Node pos="r" depth="1" NCoef="0" IVar="4" Cut="4.5106140136718750e+02" cType="1" res="3.6385156214237213e-02" rms="4.6224617958068848e-01" purity="5.9566020965576172e-01" nType="0">
          <Node pos="l" depth="2" NCoef="0" IVar="-1" Cut="0.0000000000000000e+00" cType="1" res="-5.4997892584651709e-04" rms="4.7457846999168396e-01" purity="4.9131453037261963e-01" nType="-99"/>
          <Node pos="r" depth="2" NCoef="0" IVar="-1" Cut="0.0000000000000000e+00" cType="1" res="1.4652195386588573e-03" rms="4.4243010878562927e-01" purity="6.8441748619079590e-01" nType="-99"/>
        </Node>
      </Node>
    </BinaryTree>
    <BinaryTree type="DecisionTree" boostWeight="1.0000000000000000e+00" itree="239">
      <Node pos="s" depth="0" NCoef="0" IVar="2" Cut="9.5218962430953979e-01" cType="1" res="8.9025506749749184e-03" rms="4.4834086298942566e-01" purity="5.0441920757293701e-01" nType="0">
        <Node pos="l" depth="1" NCoef="0" IVar="5" Cut="8.3153549194335938e+01" cType="1" res="-4.0927257388830185e-02" rms="4.5500612258911133e-01" purity="3.5009190440177917e-01" nType="0">
          <Node pos="l" depth="2" NCoef="0" IVar="-1" Cut="0.0000000000000000e+00" cType="1" res="-2.6392685249447823e-03" rms="3.5045018792152405e-01" purity="1.7263381183147430e-01" nType="-99"/>
          <Node pos="r" depth="2" NCoef="0" IVar="-1" Cut="0.0000000000000000e+00" cType="1" res="-2.9824528610333800e-04" rms="4.6962818503379822e-01" purity="3.8467293977737427e-01" nType="-99"/>
        </Node>
        <Node pos="r" depth="1" NCoef="0" IVar="6" Cut="6.4512890577316284e-01" cType="1" res="7.6633013784885406e-02" rms="4.2995706200599670e-01" purity="7.1418642997741699e-01" nType="0">
          <Node pos="l" depth="2" NCoef="0" IVar="-1" Cut="0.0000000000000000e+00" cType="1" res="2.0110276527702808e-03" rms="3.8887655735015869e-01" purity="7.9798239469528198e-01" nType="-99"/>
          <Node pos="r" depth="2" NCoef="0" IVar="-1" Cut="0.0000000000000000e+00" cType="1" res="6.4034655224531889e-05" rms="4.6745952963829041e-01" purity="6.0700148344039917e-01" nType="-99"/>
        </Node>
      </Node>
    </BinaryTree>
    <BinaryTree type="DecisionTree" boostWeight="1.0000000000000000e+00" itree="240">
      <Node pos="s" depth="0" NCoef="0" IVar="3" Cut="1.8793809509277344e+02" cType="1" res="6.6554415971040726e-03" rms="4.5691937208175659e-01" purity="5.0538897514343262e-01" nType="0">
        <Node pos="l" depth="1" NCoef="0" IVar="5" Cut="9.5615234375000000e+01" cType="1" res="-5.6070923805236816e-02" rms="4.5999565720558167e-01" purity="4.2414763569831848e-01" nType="0">
          <Node pos="l" depth="2" NCoef="0" IVar="-1" Cut="0.0000000000000000e+00" cType="1" res="3.9511619252152741e-04" rms="4.6211093664169312e-01" purity="4.8545271158218384e-01" nType="-99"/>
          <Node pos="r" depth="2" NCoef="0" IVar="-1" Cut="0.0000000000000000e+00" cType="1" res="-1.9845948554575443e-03" rms="4.4705998897552490e-01" purity="3.7303149700164795e-01" nType="-99"/>
        </Node>
        <Node pos="r" depth="1" NCoef="0" IVar="4" Cut="4.0303372192382812e+02" cType="1" res="4.5176886022090912e-02" rms="4.5071372389793396e-01" purity="5.5528080463409424e-01" nType="0">
          <Node pos="l" depth="2" NCoef="0" IVar="-1" Cut="0.0000000000000000e+00" cType="1" res="-1.1489581083878875e-03" rms="4.2929744720458984e-01" purity="3.3696907758712769e-01" nType="-99"/>
          <Node pos="r" depth="2" NCoef="0" IVar="-1" Cut="0.0000000000000000e+00" cType="1" res="1.2625845847651362e-03" rms="4.5136567950248718e-01" purity="6.2484747171401978e-01" nType="-99"/>
        </Node>
      </Node>
    </BinaryTree>
    <BinaryTree type="DecisionTree" boostWeight="1.0000000000000000e+00" itree="241">
      <Node pos="s" depth="0" NCoef="0" IVar="2" Cut="9.2232608795166016e-01" cType="1" res="-1.6466882079839706e-02" rms="4.5494568347930908e-01" purity="4.7542768716812134e-01" nType="0">
        <Node pos="l" depth="1" NCoef="0" IVar="6" Cut="8.5983949899673462e-01" cType="1" res="-1.3445669412612915e-01" rms="3.7712436914443970e-01" purity="1.8310946226119995e-01" nType="0">
          <Node pos="l" depth="2" NCoef="0" IVar="-1" Cut="0.0000000000000000e+00" cType="1" res="-3.4202402457594872e-03" rms="3.2945987582206726e-01" purity="1.3182699680328369e-01" nType="-99"/>
          <Node pos="r" depth="2" NCoef="0" IVar="-1" Cut="0.0000000000000000e+00" cType="1" res="-2.1310339798219502e-04" rms="4.2877164483070374e-01" purity="2.8134730458259583e-01" nType="-99"/>
        </Node>
        <Node pos="r" depth="1" NCoef="0" IVar="1" Cut="1.2435849905014038e+00" cType="1" res="6.2610013410449028e-03" rms="4.6502733230590820e-01" purity="5.3173571825027466e-01" nType="0">
          <Node pos="l" depth="2" NCoef="0" IVar="-1" Cut="0.0000000000000000e+00" cType="1" res="4.1839259210973978e-04" rms="4.6648052334785461e-01" purity="5.8782410621643066e-01" nType="-99"/>
          <Node pos="r" depth="2" NCoef="0" IVar="-1" Cut="0.0000000000000000e+00" cType="1" res="-1.1650435626506805e-03" rms="4.5168581604957581e-01" purity="3.3008265495300293e-01" nType="-99"/>
        </Node>
      </Node>
    </BinaryTree>
    <BinaryTree type="DecisionTree" boostWeight="1.0000000000000000e+00" itree="242">
      <Node pos="s" depth="0" NCoef="0" IVar="2" Cut="9.3404078483581543e-01" cType="1" res="3.4736469388008118e-03" rms="4.4907748699188232e-01" purity="5.0149881839752197e-01" nType="0">
        <Node pos="l" depth="1" NCoef="0" IVar="4" Cut="5.5754516601562500e+02" cType="1" res="-9.2146731913089752e-02" rms="4.1462749242782593e-01" purity="2.5619208812713623e-01" nType="0">
          <Node pos="l" depth="2" NCoef="0" IVar="-1" Cut="0.0000000000000000e+00" cType="1" res="-2.5093574076890945e-03" rms="3.7496593594551086e-01" purity="1.7709666490554810e-01" nType="-99"/>
          <Node pos="r" depth="2" NCoef="0" IVar="-1" Cut="0.0000000000000000e+00" cType="1" res="1.2979060411453247e-03" rms="4.8678806424140930e-01" purity="5.2326226234436035e-01" nType="-99"/>
        </Node>
        <Node pos="r" depth="1" NCoef="0" IVar="1" Cut="1.5483950376510620e+00" cType="1" res="4.0912292897701263e-02" rms="4.5644167065620422e-01" purity="5.9754484891891479e-01" nType="0">
          <Node pos="l" depth="2" NCoef="0" IVar="-1" Cut="0.0000000000000000e+00" cType="1" res="9.6474465681239963e-04" rms="4.5793014764785767e-01" purity="6.3882333040237427e-01" nType="-99"/>
          <Node pos="r" depth="2" NCoef="0" IVar="-1" Cut="0.0000000000000000e+00" cType="1" res="-3.2676744740456343e-03" rms="3.7285500764846802e-01" purity="1.8309903144836426e-01" nType="-99"/>
        </Node>
      </Node>
    </BinaryTree>
    <BinaryTree type="DecisionTree" boostWeight="1.0000000000000000e+00" itree="243">
      <Node pos="s" depth="0" NCoef="0" IVar="2" Cut="9.7666835784912109e-01" cType="1" res="-3.8777394220232964e-03" rms="4.5747786760330200e-01" purity="4.9044337868690491e-01" nType="0">
        <Node pos="l" depth="1" NCoef="0" IVar="4" Cut="3.4944619750976562e+02" cType="1" res="-2.2164473310112953e-02" rms="4.6389341354370117e-01" purity="4.5262813568115234e-01" nType="0">
          <Node pos="l" depth="2" NCoef="0" IVar="-1" Cut="0.0000000000000000e+00" cType="1" res="-2.6687441859394312e-03" rms="3.8934811949729919e-01" purity="2.1336998045444489e-01" nType="-99"/>
          <Node pos="r" depth="2" NCoef="0" IVar="-1" Cut="0.0000000000000000e+00" cType="1" res="5.1941638957941905e-05" rms="4.7266545891761780e-01" purity="4.9872794747352600e-01" nType="-99"/>
        </Node>
        <Node pos="r" depth="1" NCoef="0" IVar="-1" Cut="0.0000000000000000e+00" cType="1" res="2.6997392997145653e-03" rms="3.4849390387535095e-01" purity="8.4464484453201294e-01" nType="-99"/>
      </Node>
    </BinaryTree>
    <BinaryTree type="DecisionTree" boostWeight="1.0000000000000000e+00" itree="244">
      <Node pos="s" depth="0" NCoef="0" IVar="2" Cut="9.4140374660491943e-01" cType="1" res="-4.6359702537301928e-05" rms="4.3983459472656250e-01" purity="4.9895435571670532e-01" nType="0">
        <Node pos="l" depth="1" NCoef="0" IVar="1" Cut="7.7027159929275513e-01" cType="1" res="-8.6109280586242676e-02" rms="4.1718947887420654e-01" purity="2.7015325427055359e-01" nType="0">
          <Node pos="l" depth="2" NCoef="0" IVar="-1" Cut="0.0000000000000000e+00" cType="1" res="5.5683159735053778e-04" rms="4.7468522191047668e-01" purity="4.3606048822402954e-01" nType="-99"/>
          <Node pos="r" depth="2" NCoef="0" IVar="-1" Cut="0.0000000000000000e+00" cType="1" res="-2.5120254140347242e-03" rms="3.7351453304290771e-01" purity="1.9203305244445801e-01" nType="-99"/>
        </Node>
        <Node pos="r" depth="1" NCoef="0" IVar="1" Cut="1.0040848255157471e+00" cType="1" res="5.5883597582578659e-02" rms="4.4511252641677856e-01" purity="6.4764595031738281e-01" nType="0">
          <Node pos="l" depth="2" NCoef="0" IVar="-1" Cut="0.0000000000000000e+00" cType="1" res="1.6052289865911007e-03" rms="4.2010459303855896e-01" purity="7.4052512645721436e-01" nType="-99"/>
          <Node pos="r" depth="2" NCoef="0" IVar="-1" Cut="0.0000000000000000e+00" cType="1" res="-4.7169442404992878e-04" rms="4.7309595346450806e-01" purity="4.8702120780944824e-01" nType="-99"/>
        </Node>
      </Node>
    </BinaryTree>
    <BinaryTree type="DecisionTree" boostWeight="1.0000000000000000e+00" itree="245">
      <Node pos="s" depth="0" NCoef="0" IVar="1" Cut="1.6625981330871582e+00" cType="1" res="6.7583923228085041e-03" rms="4.5340681076049805e-01" purity="5.0316691398620605e-01" nType="0">
        <Node pos="l" depth="1" NCoef="0" IVar="2" Cut="9.3727791309356689e-01" cType="1" res="2.2015061229467392e-02" rms="4.5904418826103210e-01" purity="5.2993875741958618e-01" nType="0">
          <Node pos="l" depth="2" NCoef="0" IVar="-1" Cut="0.0000000000000000e+00" cType="1" res="-8.6573121370747685e-04" rms="4.4522041082382202e-01" purity="3.1349986791610718e-01" nType="-99"/>
          <Node pos="r" depth="2" NCoef="0" IVar="-1" Cut="0.0000000000000000e+00" cType="1" res="8.7865657405927777e-04" rms="4.6131813526153564e-01" purity="6.3548535108566284e-01" nType="-99"/>
        </Node>
        <Node pos="r" depth="1" NCoef="0" IVar="-1" Cut="0.0000000000000000e+00" cType="1" res="-4.1077765636146069e-03" rms="2.8478765487670898e-01" purity="1.2035182118415833e-01" nType="-99"/>
      </Node>
    </BinaryTree>
    <BinaryTree type="DecisionTree" boostWeight="1.0000000000000000e+00" itree="246">
      <Node pos="s" depth="0" NCoef="0" IVar="2" Cut="9.3019127845764160e-01" cType="1" res="4.4090407900512218e-03" rms="4.4600054621696472e-01" purity="5.0621932744979858e-01" nType="0">
        <Node pos="l" depth="1" NCoef="0" IVar="3" Cut="2.1644668579101562e+02" cType="1" res="-1.1356938630342484e-01" rms="3.8943099975585938e-01" purity="2.2372959554195404e-01" nType="0">
          <Node pos="l" depth="2" NCoef="0" IVar="-1" Cut="0.0000000000000000e+00" cType="1" res="-3.3601676113903522e-03" rms="3.3444938063621521e-01" purity="1.2787263095378876e-01" nType="-99"/>
          <Node pos="r" depth="2" NCoef="0" IVar="-1" Cut="0.0000000000000000e+00" cType="1" res="-9.0348403318785131e-05" rms="4.3333607912063599e-01" purity="3.5890075564384460e-01" nType="-99"/>
        </Node>
        <Node pos="r" depth="1" NCoef="0" IVar="1" Cut="9.6861958503723145e-01" cType="1" res="3.9953205734491348e-02" rms="4.5573893189430237e-01" purity="5.9132695198059082e-01" nType="0">
          <Node pos="l" depth="2" NCoef="0" IVar="-1" Cut="0.0000000000000000e+00" cType="1" res="1.5092912362888455e-03" rms="4.4389438629150391e-01" purity="6.9998162984848022e-01" nType="-99"/>
          <Node pos="r" depth="2" NCoef="0" IVar="-1" Cut="0.0000000000000000e+00" cType="1" res="-7.6917588012292981e-04" rms="4.5835900306701660e-01" purity="4.3369451165199280e-01" nType="-99"/>
        </Node>
      </Node>
    </BinaryTree>
    <BinaryTree type="DecisionTree" boostWeight="1.0000000000000000e+00" itree="247">
      <Node pos="s" depth="0" NCoef="0" IVar="4" Cut="3.5185964965820312e+02" cType="1" res="3.4443218261003494e-02" rms="4.5302328467369080e-01" purity="5.4089987277984619e-01" nType="0">
        <Node pos="l" depth="1" NCoef="0" IVar="2" Cut="9.3872028589248657e-01" cType="1" res="-6.9739013910293579e-02" rms="4.2245325446128845e-01" purity="3.4371688961982727e-01" nType="0">
          <Node pos="l" depth="2" NCoef="0" IVar="-1" Cut="0.0000000000000000e+00" cType="1" res="-3.3807437866926193e-03" rms="3.1380978226661682e-01" purity="1.0931389033794403e-01" nType="-99"/>
          <Node pos="r" depth="2" NCoef="0" IVar="-1" Cut="0.0000000000000000e+00" cType="1" res="7.4196810601279140e-05" rms="4.6689921617507935e-01" purity="5.0024890899658203e-01" nType="-99"/>
        </Node>
        <Node pos="r" depth="1" NCoef="0" IVar="5" Cut="8.6931434631347656e+01" cType="1" res="5.5614419281482697e-02" rms="4.5608648657798767e-01" purity="5.8097004890441895e-01" nType="0">
          <Node pos="l" depth="2" NCoef="0" IVar="-1" Cut="0.0000000000000000e+00" cType="1" res="2.9175453819334507e-03" rms="4.4139066338539124e-01" purity="6.9946265220642090e-01" nType="-99"/>
          <Node pos="r" depth="2" NCoef="0" IVar="-1" Cut="0.0000000000000000e+00" cType="1" res="6.1764387646690011e-04" rms="4.5498204231262207e-01" purity="5.6769925355911255e-01" nType="-99"/>
        </Node>
      </Node>
    </BinaryTree>
    <BinaryTree type="DecisionTree" boostWeight="1.0000000000000000e+00" itree="248">
      <Node pos="s" depth="0" NCoef="0" IVar="4" Cut="3.3573153686523438e+02" cType="1" res="5.5000805296003819e-03" rms="4.5536315441131592e-01" purity="4.9974676966667175e-01" nType="0">
        <Node pos="l" depth="1" NCoef="0" IVar="3" Cut="1.6297625732421875e+02" cType="1" res="-1.2436537444591522e-01" rms="4.0627750754356384e-01" purity="2.7160170674324036e-01" nType="0">
          <Node pos="l" depth="2" NCoef="0" IVar="-1" Cut="0.0000000000000000e+00" cType="1" res="-3.4731783671304584e-04" rms="4.4841662049293518e-01" purity="3.9918389916419983e-01" nType="-99"/>
          <Node pos="r" depth="2" NCoef="0" IVar="-1" Cut="0.0000000000000000e+00" cType="1" res="-4.0300735272467136e-03" rms="3.3315578103065491e-01" purity="1.4993068575859070e-01" nType="-99"/>
        </Node>
        <Node pos="r" depth="1" NCoef="0" IVar="1" Cut="1.5379822254180908e+00" cType="1" res="2.5070033967494965e-02" rms="4.5913463830947876e-01" purity="5.3412693738937378e-01" nType="0">
          <Node pos="l" depth="2" NCoef="0" IVar="-1" Cut="0.0000000000000000e+00" cType="1" res="6.2992377206683159e-04" rms="4.6327355504035950e-01" purity="5.6869602203369141e-01" nType="-99"/>
          <Node pos="r" depth="2" NCoef="0" IVar="-1" Cut="0.0000000000000000e+00" cType="1" res="-1.9845035858452320e-03" rms="3.9670634269714355e-01" purity="2.3884713649749756e-01" nType="-99"/>
        </Node>
      </Node>
    </BinaryTree>
    <BinaryTree type="DecisionTree" boostWeight="1.0000000000000000e+00" itree="249">
      <Node pos="s" depth="0" NCoef="0" IVar="2" Cut="9.6457320451736450e-01" cType="1" res="-7.5175943784415722e-03" rms="4.4996297359466553e-01" purity="4.9130159616470337e-01" nType="0">
        <Node pos="l" depth="1" NCoef="0" IVar="4" Cut="3.6978567504882812e+02" cType="1" res="-4.4119041413068771e-02" rms="4.5746931433677673e-01" purity="4.0183538198471069e-01" nType="0">
          <Node pos="l" depth="2" NCoef="0" IVar="-1" Cut="0.0000000000000000e+00" cType="1" res="-2.5039394386112690e-03" rms="4.0003588795661926e-01" purity="2.2547698020935059e-01" nType="-99"/>
          <Node pos="r" depth="2" NCoef="0" IVar="-1" Cut="0.0000000000000000e+00" cType="1" res="-1.7176130495499820e-04" rms="4.6931353211402893e-01" purity="4.5726615190505981e-01" nType="-99"/>
        </Node>
        <Node pos="r" depth="1" NCoef="0" IVar="2" Cut="9.7170054912567139e-01" cType="1" res="1.0704874992370605e-01" rms="4.0475574135780334e-01" purity="7.7134013175964355e-01" nType="0">
          <Node pos="l" depth="2" NCoef="0" IVar="-1" Cut="0.0000000000000000e+00" cType="1" res="5.2556069567799568e-04" rms="4.5507025718688965e-01" purity="6.7325347661972046e-01" nType="-99"/>
          <Node pos="r" depth="2" NCoef="0" IVar="-1" Cut="0.0000000000000000e+00" cType="1" res="2.4848831817507744e-03" rms="3.6335569620132446e-01" purity="8.3157390356063843e-01" nType="-99"/>
        </Node>
      </Node>
    </BinaryTree>
    <BinaryTree type="DecisionTree" boostWeight="1.0000000000000000e+00" itree="250">
      <Node pos="s" depth="0" NCoef="0" IVar="4" Cut="3.0713757324218750e+02" cType="1" res="9.2971781268715858e-03" rms="4.5189163088798523e-01" purity="5.0590461492538452e-01" nType="0">
        <Node pos="l" depth="1" NCoef="0" IVar="-1" Cut="0.0000000000000000e+00" cType="1" res="-3.9104144088923931e-03" rms="3.3971032500267029e-01" purity="1.3895928859710693e-01" nType="-99"/>
        <Node pos="r" depth="1" NCoef="0" IVar="3" Cut="1.9182597351074219e+02" cType="1" res="2.4010686203837395e-02" rms="4.5444774627685547e-01" purity="5.2999681234359741e-01" nType="0">
          <Node pos="l" depth="2" NCoef="0" IVar="-1" Cut="0.0000000000000000e+00" cType="1" res="-6.5752631053328514e-04" rms="4.6774658560752869e-01" purity="4.4435697793960571e-01" nType="-99"/>
          <Node pos="r" depth="2" NCoef="0" IVar="-1" Cut="0.0000000000000000e+00" cType="1" res="1.0591213358566165e-03" rms="4.4000270962715149e-01" purity="5.8663225173950195e-01" nType="-99"/>
        </Node>
      </Node>
    </BinaryTree>
    <BinaryTree type="DecisionTree" boostWeight="1.0000000000000000e+00" itree="251">
      <Node pos="s" depth="0" NCoef="0" IVar="2" Cut="9.6590578556060791e-01" cType="1" res="-5.6077451445162296e-03" rms="4.5112928748130798e-01" purity="4.8949179053306580e-01" nType="0">
        <Node pos="l" depth="1" NCoef="0" IVar="1" Cut="1.1474260091781616e+00" cType="1" res="-4.4047981500625610e-02" rms="4.6060022711753845e-01" purity="3.9853271842002869e-01" nType="0">
          <Node pos="l" depth="2" NCoef="0" IVar="-1" Cut="0.0000000000000000e+00" cType="1" res="-5.8533896662993357e-05" rms="4.8043256998062134e-01" purity="4.8027420043945312e-01" nType="-99"/>
          <Node pos="r" depth="2" NCoef="0" IVar="-1" Cut="0.0000000000000000e+00" cType="1" res="-2.3106869775801897e-03" rms="4.0079078078269958e-01" purity="2.2132909297943115e-01" nType="-99"/>
        </Node>
        <Node pos="r" depth="1" NCoef="0" IVar="4" Cut="3.9219186401367188e+02" cType="1" res="1.2270680069923401e-01" rms="3.9153152704238892e-01" purity="7.9311567544937134e-01" nType="0">
          <Node pos="l" depth="2" NCoef="0" IVar="-1" Cut="0.0000000000000000e+00" cType="1" res="5.2824628073722124e-04" rms="4.4999870657920837e-01" purity="6.6599851846694946e-01" nType="-99"/>
          <Node pos="r" depth="2" NCoef="0" IVar="-1" Cut="0.0000000000000000e+00" cType="1" res="2.4916983675211668e-03" rms="3.6297184228897095e-01" purity="8.3877021074295044e-01" nType="-99"/>
        </Node>
      </Node>
    </BinaryTree>
    <BinaryTree type="DecisionTree" boostWeight="1.0000000000000000e+00" itree="252">
      <Node pos="s" depth="0" NCoef="0" IVar="2" Cut="9.4390422105789185e-01" cType="1" res="2.5189235806465149e-02" rms="4.4434100389480591e-01" purity="5.2213865518569946e-01" nType="0">
        <Node pos="l" depth="1" NCoef="0" IVar="1" Cut="1.5577080249786377e+00" cType="1" res="-6.3221402466297150e-02" rms="4.3886712193489075e-01" purity="3.0437228083610535e-01" nType="0">
          <Node pos="l" depth="2" NCoef="0" IVar="-1" Cut="0.0000000000000000e+00" cType="1" res="-6.6758808679878712e-04" rms="4.6042639017105103e-01" purity="3.4314361214637756e-01" nType="-99"/>
          <Node pos="r" depth="2" NCoef="0" IVar="-1" Cut="0.0000000000000000e+00" cType="1" res="-4.3975058943033218e-03" rms="2.0791849493980408e-01" purity="5.0622049719095230e-02" nType="-99"/>
        </Node>
        <Node pos="r" depth="1" NCoef="0" IVar="1" Cut="1.1551131010055542e+00" cType="1" res="9.2871300876140594e-02" rms="4.3654933571815491e-01" purity="6.8884801864624023e-01" nType="0">
          <Node pos="l" depth="2" NCoef="0" IVar="-1" Cut="0.0000000000000000e+00" cType="1" res="1.8998726736754179e-03" rms="4.1977056860923767e-01" purity="7.5531595945358276e-01" nType="-99"/>
          <Node pos="r" depth="2" NCoef="0" IVar="-1" Cut="0.0000000000000000e+00" cType="1" res="-3.4048594534397125e-04" rms="4.7171705961227417e-01" purity="4.6159613132476807e-01" nType="-99"/>
        </Node>
      </Node>
    </BinaryTree>
    <BinaryTree type="DecisionTree" boostWeight="1.0000000000000000e+00" itree="253">
      <Node pos="s" depth="0" NCoef="0" IVar="2" Cut="9.3497890233993530e-01" cType="1" res="6.7338382359594107e-04" rms="4.5388948917388916e-01" purity="4.9613854289054871e-01" nType="0">
        <Node pos="l" depth="1" NCoef="0" IVar="5" Cut="1.4001156616210938e+02" cType="1" res="-8.1942118704319000e-02" rms="4.2101621627807617e-01" purity="2.6007428765296936e-01" nType="0">
          <Node pos="l" depth="2" NCoef="0" IVar="-1" Cut="0.0000000000000000e+00" cType="1" res="-2.0988681353628635e-03" rms="3.7779277563095093e-01" purity="1.8939772248268127e-01" nType="-99"/>
          <Node pos="r" depth="2" NCoef="0" IVar="-1" Cut="0.0000000000000000e+00" cType="1" res="-2.2178361541591585e-04" rms="4.8355379700660706e-01" purity="3.9037767052650452e-01" nType="-99"/>
        </Node>
        <Node pos="r" depth="1" NCoef="0" IVar="3" Cut="1.6571212768554688e+02" cType="1" res="3.7309300154447556e-02" rms="4.6303442120552063e-01" purity="6.0082143545150757e-01" nType="0">
          <Node pos="l" depth="2" NCoef="0" IVar="-1" Cut="0.0000000000000000e+00" cType="1" res="-8.5632613627240062e-04" rms="4.9507147073745728e-01" purity="4.9850949645042419e-01" nType="-99"/>
          <Node pos="r" depth="2" NCoef="0" IVar="-1" Cut="0.0000000000000000e+00" cType="1" res="1.0231558699160814e-03" rms="4.4870552420616150e-01" purity="6.3271129131317139e-01" nType="-99"/>
        </Node>
      </Node>
    </BinaryTree>
    <BinaryTree type="DecisionTree" boostWeight="1.0000000000000000e+00" itree="254">
      <Node pos="s" depth="0" NCoef="0" IVar="2" Cut="9.6014529466629028e-01" cType="1" res="-2.9208241030573845e-03" rms="4.4642966985702515e-01" purity="4.9764263629913330e-01" nType="0">
        <Node pos="l" depth="1" NCoef="0" IVar="4" Cut="6.5272338867187500e+02" cType="1" res="-4.2138114571571350e-02" rms="4.5501261949539185e-01" purity="3.7406224012374878e-01" nType="0">
          <Node pos="l" depth="2" NCoef="0" IVar="-1" Cut="0.0000000000000000e+00" cType="1" res="-1.0641686385497451e-03" rms="4.4818344712257385e-01" purity="3.3336895704269409e-01" nType="-99"/>
          <Node pos="r" depth="2" NCoef="0" IVar="-1" Cut="0.0000000000000000e+00" cType="1" res="1.0349280200898647e-03" rms="4.7091734409332275e-01" purity="5.7378071546554565e-01" nType="-99"/>
        </Node>
        <Node pos="r" depth="1" NCoef="0" IVar="2" Cut="9.7970205545425415e-01" cType="1" res="7.3412418365478516e-02" rms="4.1883119940757751e-01" purity="7.3818171024322510e-01" nType="0">
          <Node pos="l" depth="2" NCoef="0" IVar="-1" Cut="0.0000000000000000e+00" cType="1" res="6.4226210815832019e-04" rms="4.4394341111183167e-01" purity="6.9079583883285522e-01" nType="-99"/>
          <Node pos="r" depth="2" NCoef="0" IVar="-1" Cut="0.0000000000000000e+00" cType="1" res="2.5250893086194992e-03" rms="3.3259645104408264e-01" purity="8.5948365926742554e-01" nType="-99"/>
        </Node>
      </Node>
    </BinaryTree>
    <BinaryTree type="DecisionTree" boostWeight="1.0000000000000000e+00" itree="255">
      <Node pos="s" depth="0" NCoef="0" IVar="2" Cut="9.6439296007156372e-01" cType="1" res="1.1556284502148628e-02" rms="4.5353865623474121e-01" purity="5.0394570827484131e-01" nType="0">
        <Node pos="l" depth="1" NCoef="0" IVar="0" Cut="2.2994082641601562e+02" cType="1" res="-2.4031547829508781e-02" rms="4.6597597002983093e-01" purity="4.0712937712669373e-01" nType="0">
          <Node pos="l" depth="2" NCoef="0" IVar="-1" Cut="0.0000000000000000e+00" cType="1" res="-2.7919129934161901e-03" rms="3.6628031730651855e-01" purity="1.8204103410243988e-01" nType="-99"/>
          <Node pos="r" depth="2" NCoef="0" IVar="-1" Cut="0.0000000000000000e+00" cType="1" res="-5.4890879255253822e-06" rms="4.7777950763702393e-01" purity="4.4737464189529419e-01" nType="-99"/>
        </Node>
        <Node pos="r" depth="1" NCoef="0" IVar="3" Cut="2.5562324523925781e+02" cType="1" res="1.1302284896373749e-01" rms="3.9897897839546204e-01" purity="7.7998441457748413e-01" nType="0">
          <Node pos="l" depth="2" NCoef="0" IVar="-1" Cut="0.0000000000000000e+00" cType="1" res="2.4685133248567581e-03" rms="3.6928477883338928e-01" purity="8.2560563087463379e-01" nType="-99"/>
          <Node pos="r" depth="2" NCoef="0" IVar="-1" Cut="0.0000000000000000e+00" cType="1" res="4.6559353359043598e-04" rms="4.3877455592155457e-01" purity="6.9150757789611816e-01" nType="-99"/>
        </Node>
      </Node>
    </BinaryTree>
    <BinaryTree type="DecisionTree" boostWeight="1.0000000000000000e+00" itree="256">
      <Node pos="s" depth="0" NCoef="0" IVar="2" Cut="9.6513527631759644e-01" cType="1" res="1.2100025196559727e-04" rms="4.4986966252326965e-01" purity="4.9877217411994934e-01" nType="0">
        <Node pos="l" depth="1" NCoef="0" IVar="4" Cut="3.4409466552734375e+02" cType="1" res="-3.1879980117082596e-02" rms="4.5721331238746643e-01" purity="4.0700936317443848e-01" nType="0">
          <Node pos="l" depth="2" NCoef="0" IVar="-1" Cut="0.0000000000000000e+00" cType="1" res="-2.5852185208350420e-03" rms="3.8660049438476562e-01" purity="2.0600509643554688e-01" nType="-99"/>
          <Node pos="r" depth="2" NCoef="0" IVar="-1" Cut="0.0000000000000000e+00" cType="1" res="-1.1022404942195863e-04" rms="4.6744686365127563e-01" purity="4.5055216550827026e-01" nType="-99"/>
        </Node>
        <Node pos="r" depth="1" NCoef="0" IVar="1" Cut="1.0318701267242432e+00" cType="1" res="9.0955071151256561e-02" rms="4.1511109471321106e-01" purity="7.5923883914947510e-01" nType="0">
          <Node pos="l" depth="2" NCoef="0" IVar="-1" Cut="0.0000000000000000e+00" cType="1" res="2.2194746416062117e-03" rms="3.6420935392379761e-01" purity="8.3964753150939941e-01" nType="-99"/>
          <Node pos="r" depth="2" NCoef="0" IVar="-1" Cut="0.0000000000000000e+00" cType="1" res="4.0689097659196705e-05" rms="4.8982483148574829e-01" purity="5.9849667549133301e-01" nType="-99"/>
        </Node>
      </Node>
    </BinaryTree>
    <BinaryTree type="DecisionTree" boostWeight="1.0000000000000000e+00" itree="257">
      <Node pos="s" depth="0" NCoef="0" IVar="3" Cut="1.8137988281250000e+02" cType="1" res="-1.3014171272516251e-02" rms="4.4891828298568726e-01" purity="4.7520130872726440e-01" nType="0">
        <Node pos="l" depth="1" NCoef="0" IVar="5" Cut="1.0446502685546875e+02" cType="1" res="-8.6854286491870880e-02" rms="4.5311468839645386e-01" purity="3.7492904067039490e-01" nType="0">
          <Node pos="l" depth="2" NCoef="0" IVar="-1" Cut="0.0000000000000000e+00" cType="1" res="7.2213333623949438e-05" rms="4.4589766860008240e-01" purity="4.4215431809425354e-01" nType="-99"/>
          <Node pos="r" depth="2" NCoef="0" IVar="-1" Cut="0.0000000000000000e+00" cType="1" res="-3.3129109069705009e-03" rms="4.3408748507499695e-01" purity="2.8657564520835876e-01" nType="-99"/>
        </Node>
        <Node pos="r" depth="1" NCoef="0" IVar="1" Cut="9.7455036640167236e-01" cType="1" res="3.0618656426668167e-02" rms="4.4064179062843323e-01" purity="5.3445315361022949e-01" nType="0">
          <Node pos="l" depth="2" NCoef="0" IVar="-1" Cut="0.0000000000000000e+00" cType="1" res="1.6993086319416761e-03" rms="4.3023231625556946e-01" purity="6.9910627603530884e-01" nType="-99"/>
          <Node pos="r" depth="2" NCoef="0" IVar="-1" Cut="0.0000000000000000e+00" cType="1" res="-7.2725128848105669e-04" rms="4.3673697113990784e-01" purity="3.8291966915130615e-01" nType="-99"/>
        </Node>
      </Node>
    </BinaryTree>
    <BinaryTree type="DecisionTree" boostWeight="1.0000000000000000e+00" itree="258">
      <Node pos="s" depth="0" NCoef="0" IVar="2" Cut="9.1222965717315674e-01" cType="1" res="1.3668172061443329e-02" rms="4.5251312851905823e-01" purity="5.0865417718887329e-01" nType="0">
        <Node pos="l" depth="1" NCoef="0" IVar="-1" Cut="0.0000000000000000e+00" cType="1" res="-3.0158900190144777e-03" rms="3.4515178203582764e-01" purity="1.4722022414207458e-01" nType="-99"/>
        <Node pos="r" depth="1" NCoef="0" IVar="1" Cut="1.3892461061477661e+00" cType="1" res="2.7891963720321655e-02" rms="4.5687085390090942e-01" purity="5.3708726167678833e-01" nType="0">
          <Node pos="l" depth="2" NCoef="0" IVar="-1" Cut="0.0000000000000000e+00" cType="1" res="7.5613817898556590e-04" rms="4.5969444513320923e-01" purity="5.8592694997787476e-01" nType="-99"/>
          <Node pos="r" depth="2" NCoef="0" IVar="-1" Cut="0.0000000000000000e+00" cType="1" res="-1.6267672181129456e-03" rms="4.2148938775062561e-01" purity="2.6604238152503967e-01" nType="-99"/>
        </Node>
      </Node>
    </BinaryTree>
    <BinaryTree type="DecisionTree" boostWeight="1.0000000000000000e+00" itree="259">
      <Node pos="s" depth="0" NCoef="0" IVar="1" Cut="1.5543081760406494e+00" cType="1" res="-6.0201087035238743e-03" rms="4.4996714591979980e-01" purity="4.9989289045333862e-01" nType="0">
        <Node pos="l" depth="1" NCoef="0" IVar="2" Cut="9.5185220241546631e-01" cType="1" res="1.3534717261791229e-02" rms="4.5630058646202087e-01" purity="5.3773009777069092e-01" nType="0">
          <Node pos="l" depth="2" NCoef="0" IVar="-1" Cut="0.0000000000000000e+00" cType="1" res="-5.1399675430729985e-04" rms="4.6661147475242615e-01" purity="3.7298762798309326e-01" nType="-99"/>
          <Node pos="r" depth="2" NCoef="0" IVar="-1" Cut="0.0000000000000000e+00" cType="1" res="9.3671504873782396e-04" rms="4.4051611423492432e-01" purity="7.0658153295516968e-01" nType="-99"/>
        </Node>
        <Node pos="r" depth="1" NCoef="0" IVar="-1" Cut="0.0000000000000000e+00" cType="1" res="-3.7852395325899124e-03" rms="3.2713830471038818e-01" purity="1.3263024389743805e-01" nType="-99"/>
      </Node>
    </BinaryTree>
    <BinaryTree type="DecisionTree" boostWeight="1.0000000000000000e+00" itree="260">
      <Node pos="s" depth="0" NCoef="0" IVar="1" Cut="1.3689410686492920e+00" cType="1" res="7.4800173752009869e-03" rms="4.5169422030448914e-01" purity="5.0275528430938721e-01" nType="0">
        <Node pos="l" depth="1" NCoef="0" IVar="2" Cut="9.7192281484603882e-01" cType="1" res="3.5865738987922668e-02" rms="4.5680096745491028e-01" purity="5.5934584140777588e-01" nType="0">
          <Node pos="l" depth="2" NCoef="0" IVar="-1" Cut="0.0000000000000000e+00" cType="1" res="1.1424236436141655e-04" rms="4.7571533918380737e-01" purity="4.9278852343559265e-01" nType="-99"/>
          <Node pos="r" depth="2" NCoef="0" IVar="-1" Cut="0.0000000000000000e+00" cType="1" res="2.8662825934588909e-03" rms="3.1660494208335876e-01" purity="8.8224393129348755e-01" nType="-99"/>
        </Node>
        <Node pos="r" depth="1" NCoef="0" IVar="2" Cut="9.4128185510635376e-01" cType="1" res="-1.3139826059341431e-01" rms="3.9761751890182495e-01" purity="2.2588376700878143e-01" nType="0">
          <Node pos="l" depth="2" NCoef="0" IVar="-1" Cut="0.0000000000000000e+00" cType="1" res="-3.9409031160175800e-03" rms="2.6938363909721375e-01" purity="7.7886305749416351e-02" nType="-99"/>
          <Node pos="r" depth="2" NCoef="0" IVar="-1" Cut="0.0000000000000000e+00" cType="1" res="-1.3195688370615244e-03" rms="4.7746917605400085e-01" purity="3.5566216707229614e-01" nType="-99"/>
        </Node>
      </Node>
    </BinaryTree>
    <BinaryTree type="DecisionTree" boostWeight="1.0000000000000000e+00" itree="261">
      <Node pos="s" depth="0" NCoef="0" IVar="2" Cut="9.4923877716064453e-01" cType="1" res="-2.5566802360117435e-03" rms="4.4717949628829956e-01" purity="4.9057233333587646e-01" nType="0">
        <Node pos="l" depth="1" NCoef="0" IVar="1" Cut="6.8602275848388672e-01" cType="1" res="-7.0648543536663055e-02" rms="4.4150960445404053e-01" purity="3.0819553136825562e-01" nType="0">
          <Node pos="l" depth="2" NCoef="0" IVar="-1" Cut="0.0000000000000000e+00" cType="1" res="5.0448265392333269e-04" rms="4.7826033830642700e-01" purity="4.4666090607643127e-01" nType="-99"/>
          <Node pos="r" depth="2" NCoef="0" IVar="-1" Cut="0.0000000000000000e+00" cType="1" res="-1.7492198385298252e-03" rms="4.2378783226013184e-01" purity="2.6386466622352600e-01" nType="-99"/>
        </Node>
        <Node pos="r" depth="1" NCoef="0" IVar="4" Cut="3.5273263549804688e+02" cType="1" res="6.7323885858058929e-02" rms="4.4215276837348938e-01" purity="6.7773985862731934e-01" nType="0">
          <Node pos="l" depth="2" NCoef="0" IVar="-1" Cut="0.0000000000000000e+00" cType="1" res="-1.0991671588271856e-03" rms="4.7839787602424622e-01" purity="4.6802717447280884e-01" nType="-99"/>
          <Node pos="r" depth="2" NCoef="0" IVar="-1" Cut="0.0000000000000000e+00" cType="1" res="1.4843078097328544e-03" rms="4.2836290597915649e-01" purity="7.2269153594970703e-01" nType="-99"/>
        </Node>
      </Node>
    </BinaryTree>
    <BinaryTree type="DecisionTree" boostWeight="1.0000000000000000e+00" itree="262">
      <Node pos="s" depth="0" NCoef="0" IVar="2" Cut="9.2098563909530640e-01" cType="1" res="1.3292793184518814e-02" rms="4.5081216096878052e-01" purity="5.1346457004547119e-01" nType="0">
        <Node pos="l" depth="1" NCoef="0" IVar="3" Cut="2.1860334777832031e+02" cType="1" res="-1.2663318216800690e-01" rms="3.7987840175628662e-01" purity="1.9144542515277863e-01" nType="0">
          <Node pos="l" depth="2" NCoef="0" IVar="-1" Cut="0.0000000000000000e+00" cType="1" res="-2.9957916121929884e-03" rms="3.4213978052139282e-01" purity="1.4080782234668732e-01" nType="-99"/>
          <Node pos="r" depth="2" NCoef="0" IVar="-1" Cut="0.0000000000000000e+00" cType="1" res="-1.2158988974988461e-03" rms="4.2524558305740356e-01" purity="2.6979023218154907e-01" nType="-99"/>
        </Node>
        <Node pos="r" depth="1" NCoef="0" IVar="1" Cut="1.0265865325927734e+00" cType="1" res="3.3734418451786041e-02" rms="4.5668542385101318e-01" purity="5.6050795316696167e-01" nType="0">
          <Node pos="l" depth="2" NCoef="0" IVar="-1" Cut="0.0000000000000000e+00" cType="1" res="1.1751598212867975e-03" rms="4.5523735880851746e-01" purity="6.5401965379714966e-01" nType="-99"/>
          <Node pos="r" depth="2" NCoef="0" IVar="-1" Cut="0.0000000000000000e+00" cType="1" res="-5.4731220006942749e-04" rms="4.5067659020423889e-01" purity="4.1496530175209045e-01" nType="-99"/>
        </Node>
      </Node>
    </BinaryTree>
    <BinaryTree type="DecisionTree" boostWeight="1.0000000000000000e+00" itree="263">
      <Node pos="s" depth="0" NCoef="0" IVar="1" Cut="1.6786214113235474e+00" cType="1" res="-9.0896803885698318e-04" rms="4.5138517022132874e-01" purity="4.9659687280654907e-01" nType="0">
        <Node pos="l" depth="1" NCoef="0" IVar="3" Cut="1.2982945251464844e+02" cType="1" res="1.6045387834310532e-02" rms="4.5763161778450012e-01" purity="5.2529537677764893e-01" nType="0">
          <Node pos="l" depth="2" NCoef="0" IVar="-1" Cut="0.0000000000000000e+00" cType="1" res="-3.0849624890834093e-03" rms="4.0191179513931274e-01" purity="2.8362813591957092e-01" nType="-99"/>
          <Node pos="r" depth="2" NCoef="0" IVar="-1" Cut="0.0000000000000000e+00" cType="1" res="5.5401615099981427e-04" rms="4.5767787098884583e-01" purity="5.4807740449905396e-01" nType="-99"/>
        </Node>
        <Node pos="r" depth="1" NCoef="0" IVar="-1" Cut="0.0000000000000000e+00" cType="1" res="-5.1125437021255493e-03" rms="2.0596215128898621e-01" purity="5.2153635770082474e-02" nType="-99"/>
      </Node>
    </BinaryTree>
    <BinaryTree type="DecisionTree" boostWeight="1.0000000000000000e+00" itree="264">
      <Node pos="s" depth="0" NCoef="0" IVar="2" Cut="9.4172614812850952e-01" cType="1" res="-2.4059291463345289e-03" rms="4.5296344161033630e-01" purity="4.9823221564292908e-01" nType="0">
        <Node pos="l" depth="1" NCoef="0" IVar="4" Cut="6.2498083496093750e+02" cType="1" res="-5.8241616934537888e-02" rms="4.3282893300056458e-01" purity="3.0318740010261536e-01" nType="0">
          <Node pos="l" depth="2" NCoef="0" IVar="-1" Cut="0.0000000000000000e+00" cType="1" res="-1.4537899987772107e-03" rms="4.1365891695022583e-01" purity="2.5608843564987183e-01" nType="-99"/>
          <Node pos="r" depth="2" NCoef="0" IVar="-1" Cut="0.0000000000000000e+00" cType="1" res="1.1292543495073915e-03" rms="4.9524363875389099e-01" purity="5.3361332416534424e-01" nType="-99"/>
        </Node>
        <Node pos="r" depth="1" NCoef="0" IVar="2" Cut="9.8077678680419922e-01" cType="1" res="3.4243930131196976e-02" rms="4.6205297112464905e-01" purity="6.2625724077224731e-01" nType="0">
          <Node pos="l" depth="2" NCoef="0" IVar="-1" Cut="0.0000000000000000e+00" cType="1" res="2.5724139413796365e-04" rms="4.7574427723884583e-01" purity="5.9240126609802246e-01" nType="-99"/>
          <Node pos="r" depth="2" NCoef="0" IVar="-1" Cut="0.0000000000000000e+00" cType="1" res="2.6617397088557482e-03" rms="3.2397606968879700e-01" purity="8.6596828699111938e-01" nType="-99"/>
        </Node>
      </Node>
    </BinaryTree>
    <BinaryTree type="DecisionTree" boostWeight="1.0000000000000000e+00" itree="265">
      <Node pos="s" depth="0" NCoef="0" IVar="2" Cut="9.7570109367370605e-01" cType="1" res="-1.6843263059854507e-02" rms="4.4957041740417480e-01" purity="4.8150876164436340e-01" nType="0">
        <Node pos="l" depth="1" NCoef="0" IVar="1" Cut="7.2400987148284912e-01" cType="1" res="-3.8441829383373260e-02" rms="4.5734217762947083e-01" purity="4.3096253275871277e-01" nType="0">
          <Node pos="l" depth="2" NCoef="0" IVar="-1" Cut="0.0000000000000000e+00" cType="1" res="4.7141360118985176e-04" rms="4.6274372935295105e-01" purity="5.5503624677658081e-01" nType="-99"/>
          <Node pos="r" depth="2" NCoef="0" IVar="-1" Cut="0.0000000000000000e+00" cType="1" res="-1.0279776761308312e-03" rms="4.5267859101295471e-01" purity="3.8539096713066101e-01" nType="-99"/>
        </Node>
        <Node pos="r" depth="1" NCoef="0" IVar="0" Cut="3.2956732177734375e+02" cType="1" res="1.4081370830535889e-01" rms="3.4986302256584167e-01" purity="8.5046708583831787e-01" nType="0">
          <Node pos="l" depth="2" NCoef="0" IVar="-1" Cut="0.0000000000000000e+00" cType="1" res="2.8160130605101585e-03" rms="3.2482519745826721e-01" purity="8.7173968553543091e-01" nType="-99"/>
          <Node pos="r" depth="2" NCoef="0" IVar="-1" Cut="0.0000000000000000e+00" cType="1" res="1.6890222905203700e-03" rms="3.7228360772132874e-01" purity="8.2568418979644775e-01" nType="-99"/>
        </Node>
      </Node>
    </BinaryTree>
    <BinaryTree type="DecisionTree" boostWeight="1.0000000000000000e+00" itree="266">
      <Node pos="s" depth="0" NCoef="0" IVar="3" Cut="1.9581210327148438e+02" cType="1" res="1.4124427689239383e-03" rms="4.5082959532737732e-01" purity="4.9943906068801880e-01" nType="0">
        <Node pos="l" depth="1" NCoef="0" IVar="2" Cut="9.6444457769393921e-01" cType="1" res="-6.6460959613323212e-02" rms="4.5625907182693481e-01" purity="4.1592848300933838e-01" nType="0">
          <Node pos="l" depth="2" NCoef="0" IVar="-1" Cut="0.0000000000000000e+00" cType="1" res="-1.7369195120409131e-03" rms="4.5481050014495850e-01" purity="3.1201353669166565e-01" nType="-99"/>
          <Node pos="r" depth="2" NCoef="0" IVar="-1" Cut="0.0000000000000000e+00" cType="1" res="9.8891789093613625e-04" rms="4.3591010570526123e-01" purity="7.3059898614883423e-01" nType="-99"/>
        </Node>
        <Node pos="r" depth="1" NCoef="0" IVar="1" Cut="1.1283550262451172e+00" cType="1" res="5.4204754531383514e-02" rms="4.3937042355537415e-01" purity="5.6439393758773804e-01" nType="0">
          <Node pos="l" depth="2" NCoef="0" IVar="-1" Cut="0.0000000000000000e+00" cType="1" res="1.9220807589590549e-03" rms="4.2840886116027832e-01" purity="7.0801097154617310e-01" nType="-99"/>
          <Node pos="r" depth="2" NCoef="0" IVar="-1" Cut="0.0000000000000000e+00" cType="1" res="-9.0019754134118557e-04" rms="4.3328329920768738e-01" purity="3.4747201204299927e-01" nType="-99"/>
        </Node>
      </Node>
    </BinaryTree>
    <BinaryTree type="DecisionTree" boostWeight="1.0000000000000000e+00" itree="267">
      <Node pos="s" depth="0" NCoef="0" IVar="2" Cut="9.2460894584655762e-01" cType="1" res="2.4532707408070564e-02" rms="4.5225274562835693e-01" purity="5.2129113674163818e-01" nType="0">
        <Node pos="l" depth="1" NCoef="0" IVar="4" Cut="5.0098141479492188e+02" cType="1" res="-1.1135190725326538e-01" rms="3.8108792901039124e-01" purity="2.0915266871452332e-01" nType="0">
          <Node pos="l" depth="2" NCoef="0" IVar="-1" Cut="0.0000000000000000e+00" cType="1" res="-3.4337728284299374e-03" rms="2.9395976662635803e-01" purity="9.9954165518283844e-02" nType="-99"/>
          <Node pos="r" depth="2" NCoef="0" IVar="-1" Cut="0.0000000000000000e+00" cType="1" res="-4.5839235099265352e-05" rms="4.6918916702270508e-01" purity="3.8375571370124817e-01" nType="-99"/>
        </Node>
        <Node pos="r" depth="1" NCoef="0" IVar="1" Cut="1.5543081760406494e+00" cType="1" res="5.2345018833875656e-02" rms="4.6056264638900757e-01" purity="5.8517843484878540e-01" nType="0">
          <Node pos="l" depth="2" NCoef="0" IVar="-1" Cut="0.0000000000000000e+00" cType="1" res="1.0051534045487642e-03" rms="4.6229857206344604e-01" purity="6.1452609300613403e-01" nType="-99"/>
          <Node pos="r" depth="2" NCoef="0" IVar="-1" Cut="0.0000000000000000e+00" cType="1" res="-2.1410863846540451e-03" rms="4.0141615271568298e-01" purity="2.2997732460498810e-01" nType="-99"/>
        </Node>
      </Node>
    </BinaryTree>
    <BinaryTree type="DecisionTree" boostWeight="1.0000000000000000e+00" itree="268">
      <Node pos="s" depth="0" NCoef="0" IVar="2" Cut="9.4699889421463013e-01" cType="1" res="4.0305200964212418e-03" rms="4.5273682475090027e-01" purity="5.0054597854614258e-01" nType="0">
        <Node pos="l" depth="1" NCoef="0" IVar="3" Cut="1.7122386169433594e+02" cType="1" res="-4.5734360814094543e-02" rms="4.4836717844009399e-01" purity="3.3744844794273376e-01" nType="0">
          <Node pos="l" depth="2" NCoef="0" IVar="-1" Cut="0.0000000000000000e+00" cType="1" res="-2.7827268932014704e-03" rms="3.9160069823265076e-01" purity="1.8286329507827759e-01" nType="-99"/>
          <Node pos="r" depth="2" NCoef="0" IVar="-1" Cut="0.0000000000000000e+00" cType="1" res="-3.3600503229536116e-05" rms="4.6126487851142883e-01" purity="3.9750739932060242e-01" nType="-99"/>
        </Node>
        <Node pos="r" depth="1" NCoef="0" IVar="2" Cut="9.6669155359268188e-01" cType="1" res="5.2448231726884842e-02" rms="4.5171648263931274e-01" purity="6.5922820568084717e-01" nType="0">
          <Node pos="l" depth="2" NCoef="0" IVar="-1" Cut="0.0000000000000000e+00" cType="1" res="2.6693346444517374e-04" rms="4.8032036423683167e-01" purity="5.7458269596099854e-01" nType="-99"/>
          <Node pos="r" depth="2" NCoef="0" IVar="-1" Cut="0.0000000000000000e+00" cType="1" res="1.6926507232710719e-03" rms="3.9954289793968201e-01" purity="7.8595036268234253e-01" nType="-99"/>
        </Node>
      </Node>
    </BinaryTree>
    <BinaryTree type="DecisionTree" boostWeight="1.0000000000000000e+00" itree="269">
      <Node pos="s" depth="0" NCoef="0" IVar="2" Cut="9.2379665374755859e-01" cType="1" res="1.3215931132435799e-02" rms="4.4710010290145874e-01" purity="5.1798856258392334e-01" nType="0">
        <Node pos="l" depth="1" NCoef="0" IVar="6" Cut="6.9656449556350708e-01" cType="1" res="-1.0851415246725082e-01" rms="3.9055758714675903e-01" purity="2.1020795404911041e-01" nType="0">
          <Node pos="l" depth="2" NCoef="0" IVar="-1" Cut="0.0000000000000000e+00" cType="1" res="-3.1721971463412046e-03" rms="3.3354118466377258e-01" purity="1.4483693242073059e-01" nType="-99"/>
          <Node pos="r" depth="2" NCoef="0" IVar="-1" Cut="0.0000000000000000e+00" cType="1" res="-3.9167370414361358e-04" rms="4.2840421199798584e-01" purity="2.8202527761459351e-01" nType="-99"/>
        </Node>
        <Node pos="r" depth="1" NCoef="0" IVar="1" Cut="1.3677572011947632e+00" cType="1" res="3.4030199050903320e-02" rms="4.5280244946479797e-01" purity="5.7061511278152466e-01" nType="0">
          <Node pos="l" depth="2" NCoef="0" IVar="-1" Cut="0.0000000000000000e+00" cType="1" res="8.7029248243197799e-04" rms="4.5355120301246643e-01" purity="6.2118852138519287e-01" nType="-99"/>
          <Node pos="r" depth="2" NCoef="0" IVar="-1" Cut="0.0000000000000000e+00" cType="1" res="-1.8500762525945902e-03" rms="4.2210835218429565e-01" purity="2.5861942768096924e-01" nType="-99"/>
        </Node>
      </Node>
    </BinaryTree>
    <BinaryTree type="DecisionTree" boostWeight="1.0000000000000000e+00" itree="270">
      <Node pos="s" depth="0" NCoef="0" IVar="1" Cut="7.7165293693542480e-01" cType="1" res="-1.9952518865466118e-02" rms="4.6222004294395447e-01" purity="4.8317423462867737e-01" nType="0">
        <Node pos="l" depth="1" NCoef="0" IVar="3" Cut="2.3201757812500000e+02" cType="1" res="4.3356332927942276e-02" rms="4.5693701505661011e-01" purity="6.0975545644760132e-01" nType="0">
          <Node pos="l" depth="2" NCoef="0" IVar="-1" Cut="0.0000000000000000e+00" cType="1" res="4.1384664655197412e-05" rms="4.7439861297607422e-01" purity="5.3990328311920166e-01" nType="-99"/>
          <Node pos="r" depth="2" NCoef="0" IVar="-1" Cut="0.0000000000000000e+00" cType="1" res="2.6028919965028763e-03" rms="3.7470424175262451e-01" purity="8.1873911619186401e-01" nType="-99"/>
        </Node>
        <Node pos="r" depth="1" NCoef="0" IVar="3" Cut="1.9414985656738281e+02" cType="1" res="-5.9072397649288177e-02" rms="4.6113008260726929e-01" purity="4.0495702624320984e-01" nType="0">
          <Node pos="l" depth="2" NCoef="0" IVar="-1" Cut="0.0000000000000000e+00" cType="1" res="-2.2917021997272968e-03" rms="4.5462638139724731e-01" purity="3.0133366584777832e-01" nType="-99"/>
          <Node pos="r" depth="2" NCoef="0" IVar="-1" Cut="0.0000000000000000e+00" cType="1" res="-2.2651105246040970e-04" rms="4.5879706740379333e-01" purity="4.6419435739517212e-01" nType="-99"/>
        </Node>
      </Node>
    </BinaryTree>
    <BinaryTree type="DecisionTree" boostWeight="1.0000000000000000e+00" itree="271">
      <Node pos="s" depth="0" NCoef="0" IVar="2" Cut="9.6541875600814819e-01" cType="1" res="5.1690326072275639e-03" rms="4.5289856195449829e-01" purity="4.9906548857688904e-01" nType="0">
        <Node pos="l" depth="1" NCoef="0" IVar="4" Cut="7.3484039306640625e+02" cType="1" res="-2.4203419685363770e-02" rms="4.6241798996925354e-01" purity="4.1085287928581238e-01" nType="0">
          <Node pos="l" depth="2" NCoef="0" IVar="-1" Cut="0.0000000000000000e+00" cType="1" res="-6.3739216420799494e-04" rms="4.6157950162887573e-01" purity="3.8856214284896851e-01" nType="-99"/>
          <Node pos="r" depth="2" NCoef="0" IVar="-1" Cut="0.0000000000000000e+00" cType="1" res="2.4730965960770845e-03" rms="4.2828145623207092e-01" purity="6.9301426410675049e-01" nType="-99"/>
        </Node>
        <Node pos="r" depth="1" NCoef="0" IVar="5" Cut="1.4624485778808594e+02" cType="1" res="9.4979807734489441e-02" rms="4.0959852933883667e-01" purity="7.6878905296325684e-01" nType="0">
          <Node pos="l" depth="2" NCoef="0" IVar="-1" Cut="0.0000000000000000e+00" cType="1" res="2.1290273871272802e-03" rms="3.8461619615554810e-01" purity="7.9912459850311279e-01" nType="-99"/>
          <Node pos="r" depth="2" NCoef="0" IVar="-1" Cut="0.0000000000000000e+00" cType="1" res="2.6484386762604117e-04" rms="4.4229224324226379e-01" purity="7.1145033836364746e-01" nType="-99"/>
        </Node>
      </Node>
    </BinaryTree>
    <BinaryTree type="DecisionTree" boostWeight="1.0000000000000000e+00" itree="272">
      <Node pos="s" depth="0" NCoef="0" IVar="4" Cut="3.7468206787109375e+02" cType="1" res="-6.6421891096979380e-04" rms="4.5538440346717834e-01" purity="4.8864832520484924e-01" nType="0">
        <Node pos="l" depth="1" NCoef="0" IVar="6" Cut="8.9645922183990479e-01" cType="1" res="-7.3372565209865570e-02" rms="4.2913526296615601e-01" purity="3.3647191524505615e-01" nType="0">
          <Node pos="l" depth="2" NCoef="0" IVar="-1" Cut="0.0000000000000000e+00" cType="1" res="-6.1136571457609534e-04" rms="4.4048756361007690e-01" purity="3.8577440381050110e-01" nType="-99"/>
          <Node pos="r" depth="2" NCoef="0" IVar="-1" Cut="0.0000000000000000e+00" cType="1" res="-3.1834961846470833e-03" rms="3.8157126307487488e-01" purity="2.0531636476516724e-01" nType="-99"/>
        </Node>
        <Node pos="r" depth="1" NCoef="0" IVar="2" Cut="9.7533100843429565e-01" cType="1" res="2.4341743439435959e-02" rms="4.6142891049385071e-01" purity="5.4098504781723022e-01" nType="0">
          <Node pos="l" depth="2" NCoef="0" IVar="-1" Cut="0.0000000000000000e+00" cType="1" res="1.3905701052863151e-04" rms="4.7368785738945007e-01" purity="4.9639841914176941e-01" nType="-99"/>
          <Node pos="r" depth="2" NCoef="0" IVar="-1" Cut="0.0000000000000000e+00" cType="1" res="2.2099749185144901e-03" rms="3.4807342290878296e-01" purity="8.4794414043426514e-01" nType="-99"/>
        </Node>
      </Node>
    </BinaryTree>
    <BinaryTree type="DecisionTree" boostWeight="1.0000000000000000e+00" itree="273">
      <Node pos="s" depth="0" NCoef="0" IVar="1" Cut="7.1720528602600098e-01" cType="1" res="-8.4222527220845222e-03" rms="4.5443779230117798e-01" purity="4.9469166994094849e-01" nType="0">
        <Node pos="l" depth="1" NCoef="0" IVar="1" Cut="5.2176171541213989e-01" cType="1" res="6.5955631434917450e-02" rms="4.5026007294654846e-01" purity="6.3300859928131104e-01" nType="0">
          <Node pos="l" depth="2" NCoef="0" IVar="-1" Cut="0.0000000000000000e+00" cType="1" res="4.0793926018523052e-05" rms="4.5902967453002930e-01" purity="5.6193101406097412e-01" nType="-99"/>
          <Node pos="r" depth="2" NCoef="0" IVar="-1" Cut="0.0000000000000000e+00" cType="1" res="1.7060369718819857e-03" rms="4.3829834461212158e-01" purity="6.8383079767227173e-01" nType="-99"/>
        </Node>
        <Node pos="r" depth="1" NCoef="0" IVar="3" Cut="2.1402120971679688e+02" cType="1" res="-4.0878225117921829e-02" rms="4.5243296027183533e-01" purity="4.3433490395545959e-01" nType="0">
          <Node pos="l" depth="2" NCoef="0" IVar="-1" Cut="0.0000000000000000e+00" cType="1" res="-1.3937468174844980e-03" rms="4.4500249624252319e-01" purity="3.7168371677398682e-01" nType="-99"/>
          <Node pos="r" depth="2" NCoef="0" IVar="-1" Cut="0.0000000000000000e+00" cType="1" res="3.6367446227814071e-06" rms="4.5514190196990967e-01" purity="4.9088886380195618e-01" nType="-99"/>
        </Node>
      </Node>
    </BinaryTree>
    <BinaryTree type="DecisionTree" boostWeight="1.0000000000000000e+00" itree="274">
      <Node pos="s" depth="0" NCoef="0" IVar="2" Cut="9.4823700189590454e-01" cType="1" res="1.5009599337645341e-05" rms="4.5105022192001343e-01" purity="4.9431049823760986e-01" nType="0">
        <Node pos="l" depth="1" NCoef="0" IVar="4" Cut="6.4717828369140625e+02" cType="1" res="-4.5309726148843765e-02" rms="4.4831451773643494e-01" purity="3.3469122648239136e-01" nType="0">
          <Node pos="l" depth="2" NCoef="0" IVar="-1" Cut="0.0000000000000000e+00" cType="1" res="-1.1287877568975091e-03" rms="4.3569239974021912e-01" purity="2.9698649048805237e-01" nType="-99"/>
          <Node pos="r" depth="2" NCoef="0" IVar="-1" Cut="0.0000000000000000e+00" cType="1" res="1.2868404155597091e-03" rms="4.9398514628410339e-01" purity="5.4877048730850220e-01" nType="-99"/>
        </Node>
        <Node pos="r" depth="1" NCoef="0" IVar="3" Cut="3.7828033447265625e+02" cType="1" res="4.9514200538396835e-02" rms="4.4882023334503174e-01" purity="6.6863089799880981e-01" nType="0">
          <Node pos="l" depth="2" NCoef="0" IVar="-1" Cut="0.0000000000000000e+00" cType="1" res="1.0516504989936948e-03" rms="4.4589769840240479e-01" purity="6.9467443227767944e-01" nType="-99"/>
          <Node pos="r" depth="2" NCoef="0" IVar="-1" Cut="0.0000000000000000e+00" cType="1" res="-1.5853819204494357e-03" rms="4.4517236948013306e-01" purity="4.6152842044830322e-01" nType="-99"/>
        </Node>
      </Node>
    </BinaryTree>
    <BinaryTree type="DecisionTree" boostWeight="1.0000000000000000e+00" itree="275">
      <Node pos="s" depth="0" NCoef="0" IVar="1" Cut="1.4166289567947388e+00" cType="1" res="4.1128098964691162e-03" rms="4.4790905714035034e-01" purity="5.0379419326782227e-01" nType="0">
        <Node pos="l" depth="1" NCoef="0" IVar="3" Cut="2.2024368286132812e+02" cType="1" res="2.8504604473710060e-02" rms="4.5435008406639099e-01" purity="5.5448174476623535e-01" nType="0">
          <Node pos="l" depth="2" NCoef="0" IVar="-1" Cut="0.0000000000000000e+00" cType="1" res="-4.7570941387675703e-04" rms="4.6298435330390930e-01" purity="4.6440362930297852e-01" nType="-99"/>
          <Node pos="r" depth="2" NCoef="0" IVar="-1" Cut="0.0000000000000000e+00" cType="1" res="1.6755528049543500e-03" rms="4.2965471744537354e-01" purity="6.7701083421707153e-01" nType="-99"/>
        </Node>
        <Node pos="r" depth="1" NCoef="0" IVar="3" Cut="2.7969851684570312e+02" cType="1" res="-1.4907284080982208e-01" rms="3.7003090977668762e-01" purity="1.8546549975872040e-01" nType="0">
          <Node pos="l" depth="2" NCoef="0" IVar="-1" Cut="0.0000000000000000e+00" cType="1" res="-1.3479387853294611e-03" rms="4.0949162840843201e-01" purity="2.5359693169593811e-01" nType="-99"/>
          <Node pos="r" depth="2" NCoef="0" IVar="-1" Cut="0.0000000000000000e+00" cType="1" res="-3.9511588402092457e-03" rms="3.2340794801712036e-01" purity="1.3204912841320038e-01" nType="-99"/>
        </Node>
      </Node>
    </BinaryTree>
    <BinaryTree type="DecisionTree" boostWeight="1.0000000000000000e+00" itree="276">
      <Node pos="s" depth="0" NCoef="0" IVar="4" Cut="4.1846408081054688e+02" cType="1" res="5.3080357611179352e-03" rms="4.4516548514366150e-01" purity="4.9862816929817200e-01" nType="0">
        <Node pos="l" depth="1" NCoef="0" IVar="4" Cut="3.5271328735351562e+02" cType="1" res="-6.4656049013137817e-02" rms="4.4036754965782166e-01" purity="3.6777892708778381e-01" nType="0">
          <Node pos="l" depth="2" NCoef="0" IVar="-1" Cut="0.0000000000000000e+00" cType="1" res="-2.2914614528417587e-03" rms="4.1703146696090698e-01" purity="2.6312202215194702e-01" nType="-99"/>
          <Node pos="r" depth="2" NCoef="0" IVar="-1" Cut="0.0000000000000000e+00" cType="1" res="-2.7923483867198229e-04" rms="4.4999572634696960e-01" purity="4.4114258885383606e-01" nType="-99"/>
        </Node>
        <Node pos="r" depth="1" NCoef="0" IVar="1" Cut="1.4392729997634888e+00" cType="1" res="5.3758252412080765e-02" rms="4.4201511144638062e-01" purity="5.8924144506454468e-01" nType="0">
          <Node pos="l" depth="2" NCoef="0" IVar="-1" Cut="0.0000000000000000e+00" cType="1" res="1.2186169624328613e-03" rms="4.4188714027404785e-01" purity="6.3833850622177124e-01" nType="-99"/>
          <Node pos="r" depth="2" NCoef="0" IVar="-1" Cut="0.0000000000000000e+00" cType="1" res="-2.4719021748751402e-03" rms="3.9164069294929504e-01" purity="2.1451579034328461e-01" nType="-99"/>
        </Node>
      </Node>
    </BinaryTree>
    <BinaryTree type="DecisionTree" boostWeight="1.0000000000000000e+00" itree="277">
      <Node pos="s" depth="0" NCoef="0" IVar="4" Cut="3.5968237304687500e+02" cType="1" res="5.0555574707686901e-03" rms="4.5049923658370972e-01" purity="4.9908038973808289e-01" nType="0">
        <Node pos="l" depth="1" NCoef="0" IVar="4" Cut="3.3566238403320312e+02" cType="1" res="-7.9818867146968842e-02" rms="4.3623286485671997e-01" purity="3.0242627859115601e-01" nType="0">
          <Node pos="l" depth="2" NCoef="0" IVar="-1" Cut="0.0000000000000000e+00" cType="1" res="-2.1822017151862383e-03" rms="3.9821279048919678e-01" purity="2.3297429084777832e-01" nType="-99"/>
          <Node pos="r" depth="2" NCoef="0" IVar="-1" Cut="0.0000000000000000e+00" cType="1" res="4.0823986637406051e-04" rms="4.9712592363357544e-01" purity="4.6152767539024353e-01" nType="-99"/>
        </Node>
        <Node pos="r" depth="1" NCoef="0" IVar="3" Cut="1.7951113891601562e+02" cType="1" res="2.8112405911087990e-02" rms="4.5155021548271179e-01" purity="5.5250316858291626e-01" nType="0">
          <Node pos="l" depth="2" NCoef="0" IVar="-1" Cut="0.0000000000000000e+00" cType="1" res="-8.1349938409402966e-04" rms="4.5032864809036255e-01" purity="4.5908197760581970e-01" nType="-99"/>
          <Node pos="r" depth="2" NCoef="0" IVar="-1" Cut="0.0000000000000000e+00" cType="1" res="9.1027049347758293e-04" rms="4.4831231236457825e-01" purity="5.8731883764266968e-01" nType="-99"/>
        </Node>
      </Node>
    </BinaryTree>
    <BinaryTree type="DecisionTree" boostWeight="1.0000000000000000e+00" itree="278">
      <Node pos="s" depth="0" NCoef="0" IVar="4" Cut="3.4222061157226562e+02" cType="1" res="-2.0849613938480616e-03" rms="4.5440077781677246e-01" purity="4.8720824718475342e-01" nType="0">
        <Node pos="l" depth="1" NCoef="0" IVar="4" Cut="3.1766885375976562e+02" cType="1" res="-1.5016752481460571e-01" rms="3.9853993058204651e-01" purity="2.4101449549198151e-01" nType="0">
          <Node pos="l" depth="2" NCoef="0" IVar="-1" Cut="0.0000000000000000e+00" cType="1" res="-3.4159456845372915e-03" rms="3.9975520968437195e-01" purity="1.9723604619503021e-01" nType="-99"/>
          <Node pos="r" depth="2" NCoef="0" IVar="-1" Cut="0.0000000000000000e+00" cType="1" res="-1.5619458863511682e-03" rms="3.8988974690437317e-01" purity="3.0025294423103333e-01" nType="-99"/>
        </Node>
        <Node pos="r" depth="1" NCoef="0" IVar="2" Cut="9.3773931264877319e-01" cType="1" res="2.4835232645273209e-02" rms="4.5872718095779419e-01" purity="5.3196424245834351e-01" nType="0">
          <Node pos="l" depth="2" NCoef="0" IVar="-1" Cut="0.0000000000000000e+00" cType="1" res="-6.0421187663450837e-04" rms="4.4812288880348206e-01" purity="3.2860448956489563e-01" nType="-99"/>
          <Node pos="r" depth="2" NCoef="0" IVar="-1" Cut="0.0000000000000000e+00" cType="1" res="9.2351023340597749e-04" rms="4.6092101931571960e-01" purity="6.4767009019851685e-01" nType="-99"/>
        </Node>
      </Node>
    </BinaryTree>
    <BinaryTree type="DecisionTree" boostWeight="1.0000000000000000e+00" itree="279">
      <Node pos="s" depth="0" NCoef="0" IVar="1" Cut="1.5855363607406616e+00" cType="1" res="7.8403940424323082e-03" rms="4.4987866282463074e-01" purity="5.0663614273071289e-01" nType="0">
        <Node pos="l" depth="1" NCoef="0" IVar="2" Cut="9.2931658029556274e-01" cType="1" res="2.3043671622872353e-02" rms="4.5498880743980408e-01" purity="5.3749722242355347e-01" nType="0">
          <Node pos="l" depth="2" NCoef="0" IVar="-1" Cut="0.0000000000000000e+00" cType="1" res="-1.1994907399639487e-03" rms="4.1681510210037231e-01" purity="2.6689842343330383e-01" nType="-99"/>
          <Node pos="r" depth="2" NCoef="0" IVar="-1" Cut="0.0000000000000000e+00" cType="1" res="7.5677665881812572e-04" rms="4.6173846721649170e-01" purity="6.1405819654464722e-01" nType="-99"/>
        </Node>
        <Node pos="r" depth="1" NCoef="0" IVar="-1" Cut="0.0000000000000000e+00" cType="1" res="-3.1363910529762506e-03" rms="3.4551230072975159e-01" purity="1.6209910809993744e-01" nType="-99"/>
      </Node>
    </BinaryTree>
    <BinaryTree type="DecisionTree" boostWeight="1.0000000000000000e+00" itree="280">
      <Node pos="s" depth="0" NCoef="0" IVar="3" Cut="1.9182597351074219e+02" cType="1" res="-2.8117049485445023e-02" rms="4.4635754823684692e-01" purity="4.6651482582092285e-01" nType="0">
        <Node pos="l" depth="1" NCoef="0" IVar="2" Cut="9.5884269475936890e-01" cType="1" res="-9.0715840458869934e-02" rms="4.4023051857948303e-01" purity="3.7162238359451294e-01" nType="0">
          <Node pos="l" depth="2" NCoef="0" IVar="-1" Cut="0.0000000000000000e+00" cType="1" res="-2.2340004798024893e-03" rms="4.2136332392692566e-01" purity="2.5142201781272888e-01" nType="-99"/>
          <Node pos="r" depth="2" NCoef="0" IVar="-1" Cut="0.0000000000000000e+00" cType="1" res="1.5687600534874946e-04" rms="4.6626192331314087e-01" purity="6.5271681547164917e-01" nType="-99"/>
        </Node>
        <Node pos="r" depth="1" NCoef="0" IVar="1" Cut="1.0998611450195312e+00" cType="1" res="1.4642000198364258e-02" rms="4.4546666741371155e-01" purity="5.3133249282836914e-01" nType="0">
          <Node pos="l" depth="2" NCoef="0" IVar="-1" Cut="0.0000000000000000e+00" cType="1" res="1.4203200116753578e-03" rms="4.4241771101951599e-01" purity="6.8811720609664917e-01" nType="-99"/>
          <Node pos="r" depth="2" NCoef="0" IVar="-1" Cut="0.0000000000000000e+00" cType="1" res="-1.4548529870808125e-03" rms="4.2958012223243713e-01" purity="3.2778209447860718e-01" nType="-99"/>
        </Node>
      </Node>
    </BinaryTree>
    <BinaryTree type="DecisionTree" boostWeight="1.0000000000000000e+00" itree="281">
      <Node pos="s" depth="0" NCoef="0" IVar="4" Cut="3.0452752685546875e+02" cType="1" res="1.2792840600013733e-02" rms="4.4843581318855286e-01" purity="5.1469612121582031e-01" nType="0">
        <Node pos="l" depth="1" NCoef="0" IVar="-1" Cut="0.0000000000000000e+00" cType="1" res="-3.3384375274181366e-03" rms="3.9069589972496033e-01" purity="1.9123183190822601e-01" nType="-99"/>
        <Node pos="r" depth="1" NCoef="0" IVar="1" Cut="1.6176948547363281e+00" cType="1" res="2.5157310068607330e-02" rms="4.4902324676513672e-01" purity="5.3527718782424927e-01" nType="0">
          <Node pos="l" depth="2" NCoef="0" IVar="-1" Cut="0.0000000000000000e+00" cType="1" res="6.4228358678519726e-04" rms="4.5537683367729187e-01" purity="5.6684726476669312e-01" nType="-99"/>
          <Node pos="r" depth="2" NCoef="0" IVar="-1" Cut="0.0000000000000000e+00" cType="1" res="-3.7167805712670088e-03" rms="2.7479341626167297e-01" purity="1.1534373462200165e-01" nType="-99"/>
        </Node>
      </Node>
    </BinaryTree>
    <BinaryTree type="DecisionTree" boostWeight="1.0000000000000000e+00" itree="282">
      <Node pos="s" depth="0" NCoef="0" IVar="2" Cut="9.3177276849746704e-01" cType="1" res="-4.0496876463294029e-03" rms="4.5528554916381836e-01" purity="4.9296796321868896e-01" nType="0">
        <Node pos="l" depth="1" NCoef="0" IVar="1" Cut="1.1190818548202515e+00" cType="1" res="-8.8751561939716339e-02" rms="4.0524572134017944e-01" purity="2.4140933156013489e-01" nType="0">
          <Node pos="l" depth="2" NCoef="0" IVar="-1" Cut="0.0000000000000000e+00" cType="1" res="-7.7538366895169020e-04" rms="4.4446867704391479e-01" purity="3.1318378448486328e-01" nType="-99"/>
          <Node pos="r" depth="2" NCoef="0" IVar="-1" Cut="0.0000000000000000e+00" cType="1" res="-3.3951583318412304e-03" rms="2.9963979125022888e-01" purity="1.0240861028432846e-01" nType="-99"/>
        </Node>
        <Node pos="r" depth="1" NCoef="0" IVar="1" Cut="1.5890003442764282e+00" cType="1" res="2.3226832970976830e-02" rms="4.6700900793075562e-01" purity="5.7397729158401489e-01" nType="0">
          <Node pos="l" depth="2" NCoef="0" IVar="-1" Cut="0.0000000000000000e+00" cType="1" res="5.8544485364109278e-04" rms="4.7030493617057800e-01" purity="6.1024516820907593e-01" nType="-99"/>
          <Node pos="r" depth="2" NCoef="0" IVar="-1" Cut="0.0000000000000000e+00" cType="1" res="-2.1327135618776083e-03" rms="4.0747323632240295e-01" purity="2.2387851774692535e-01" nType="-99"/>
        </Node>
      </Node>
    </BinaryTree>
    <BinaryTree type="DecisionTree" boostWeight="1.0000000000000000e+00" itree="283">
      <Node pos="s" depth="0" NCoef="0" IVar="4" Cut="4.0635644531250000e+02" cType="1" res="-8.9926924556493759e-03" rms="4.4722715020179749e-01" purity="4.9310019612312317e-01" nType="0">
        <Node pos="l" depth="1" NCoef="0" IVar="2" Cut="9.6252453327178955e-01" cType="1" res="-7.7956788241863251e-02" rms="4.2942810058593750e-01" purity="3.6414685845375061e-01" nType="0">
          <Node pos="l" depth="2" NCoef="0" IVar="-1" Cut="0.0000000000000000e+00" cType="1" res="-2.0866773556917906e-03" rms="4.1225817799568176e-01" purity="2.4480462074279785e-01" nType="-99"/>
          <Node pos="r" depth="2" NCoef="0" IVar="-1" Cut="0.0000000000000000e+00" cType="1" res="5.5410689674317837e-04" rms="4.5113015174865723e-01" purity="6.7047607898712158e-01" nType="-99"/>
        </Node>
        <Node pos="r" depth="1" NCoef="0" IVar="2" Cut="9.2945462465286255e-01" cType="1" res="3.3495813608169556e-02" rms="4.5264777541160583e-01" purity="5.7254785299301147e-01" nType="0">
          <Node pos="l" depth="2" NCoef="0" IVar="-1" Cut="0.0000000000000000e+00" cType="1" res="-1.4259256422519684e-03" rms="4.3799132108688354e-01" purity="2.7700009942054749e-01" nType="-99"/>
          <Node pos="r" depth="2" NCoef="0" IVar="-1" Cut="0.0000000000000000e+00" cType="1" res="9.5610989956185222e-04" rms="4.5155298709869385e-01" purity="6.4534997940063477e-01" nType="-99"/>
        </Node>
      </Node>
    </BinaryTree>
    <BinaryTree type="DecisionTree" boostWeight="1.0000000000000000e+00" itree="284">
      <Node pos="s" depth="0" NCoef="0" IVar="2" Cut="9.6416938304901123e-01" cType="1" res="5.9606339782476425e-03" rms="4.4565781950950623e-01" purity="4.9526229500770569e-01" nType="0">
        <Node pos="l" depth="1" NCoef="0" IVar="1" Cut="1.7004606723785400e+00" cType="1" res="-2.9261285439133644e-02" rms="4.5923817157745361e-01" purity="3.9835315942764282e-01" nType="0">
          <Node pos="l" depth="2" NCoef="0" IVar="-1" Cut="0.0000000000000000e+00" cType="1" res="-2.2443474153988063e-04" rms="4.7004920244216919e-01" purity="4.2592751979827881e-01" nType="-99"/>
          <Node pos="r" depth="2" NCoef="0" IVar="-1" Cut="0.0000000000000000e+00" cType="1" res="-4.9200714565813541e-03" rms="1.9362950325012207e-01" purity="3.6881282925605774e-02" nType="-99"/>
        </Node>
        <Node pos="r" depth="1" NCoef="0" IVar="3" Cut="1.9149147033691406e+02" cType="1" res="1.1663802713155746e-01" rms="3.7927314639091492e-01" purity="7.9977869987487793e-01" nType="0">
          <Node pos="l" depth="2" NCoef="0" IVar="-1" Cut="0.0000000000000000e+00" cType="1" res="7.0481910370290279e-04" rms="4.3823194503784180e-01" purity="7.0599663257598877e-01" nType="-99"/>
          <Node pos="r" depth="2" NCoef="0" IVar="-1" Cut="0.0000000000000000e+00" cType="1" res="2.5496555026620626e-03" rms="3.3567801117897034e-01" purity="8.5129708051681519e-01" nType="-99"/>
        </Node>
      </Node>
    </BinaryTree>
    <BinaryTree type="DecisionTree" boostWeight="1.0000000000000000e+00" itree="285">
      <Node pos="s" depth="0" NCoef="0" IVar="2" Cut="9.7519886493682861e-01" cType="1" res="-8.1208189949393272e-03" rms="4.4491833448410034e-01" purity="4.8866096138954163e-01" nType="0">
        <Node pos="l" depth="1" NCoef="0" IVar="1" Cut="7.1739923954010010e-01" cType="1" res="-3.6426793783903122e-02" rms="4.5535621047019958e-01" purity="4.2516228556632996e-01" nType="0">
          <Node pos="l" depth="2" NCoef="0" IVar="-1" Cut="0.0000000000000000e+00" cType="1" res="4.1187633178196847e-04" rms="4.6073874831199646e-01" purity="5.3823095560073853e-01" nType="-99"/>
          <Node pos="r" depth="2" NCoef="0" IVar="-1" Cut="0.0000000000000000e+00" cType="1" res="-1.0284472955390811e-03" rms="4.5053699612617493e-01" purity="3.7869933247566223e-01" nType="-99"/>
        </Node>
        <Node pos="r" depth="1" NCoef="0" IVar="3" Cut="2.1224922180175781e+02" cType="1" res="1.5539619326591492e-01" rms="3.3511477708816528e-01" purity="8.5547804832458496e-01" nType="0">
          <Node pos="l" depth="2" NCoef="0" IVar="-1" Cut="0.0000000000000000e+00" cType="1" res="3.0658866744488478e-03" rms="3.1324338912963867e-01" purity="8.8468635082244873e-01" nType="-99"/>
          <Node pos="r" depth="2" NCoef="0" IVar="-1" Cut="0.0000000000000000e+00" cType="1" res="1.9797473214566708e-03" rms="3.5476619005203247e-01" purity="8.2122218608856201e-01" nType="-99"/>
        </Node>
      </Node>
    </BinaryTree>
    <BinaryTree type="DecisionTree" boostWeight="1.0000000000000000e+00" itree="286">
      <Node pos="s" depth="0" NCoef="0" IVar="2" Cut="9.6643382310867310e-01" cType="1" res="-5.1444112323224545e-03" rms="4.5772334933280945e-01" purity="4.9368330836296082e-01" nType="0">
        <Node pos="l" depth="1" NCoef="0" IVar="6" Cut="8.3652609586715698e-01" cType="1" res="-2.6393087580800056e-02" rms="4.6746531128883362e-01" purity="4.1721287369728088e-01" nType="0">
          <Node pos="l" depth="2" NCoef="0" IVar="-1" Cut="0.0000000000000000e+00" cType="1" res="-8.0250995233654976e-04" rms="4.6841847896575928e-01" purity="4.0777191519737244e-01" nType="-99"/>
          <Node pos="r" depth="2" NCoef="0" IVar="-1" Cut="0.0000000000000000e+00" cType="1" res="5.0483894301578403e-04" rms="4.6018537878990173e-01" purity="4.3909791111946106e-01" nType="-99"/>
        </Node>
        <Node pos="r" depth="1" NCoef="0" IVar="6" Cut="8.9352756738662720e-01" cType="1" res="6.5692916512489319e-02" rms="4.1586065292358398e-01" purity="7.4861502647399902e-01" nType="0">
          <Node pos="l" depth="2" NCoef="0" IVar="-1" Cut="0.0000000000000000e+00" cType="1" res="1.9269058248028159e-03" rms="3.8033762574195862e-01" purity="8.1861150264739990e-01" nType="-99"/>
          <Node pos="r" depth="2" NCoef="0" IVar="-1" Cut="0.0000000000000000e+00" cType="1" res="-1.5624247025698423e-03" rms="4.7781592607498169e-01" purity="5.2715021371841431e-01" nType="-99"/>
        </Node>
      </Node>
    </BinaryTree>
    <BinaryTree type="DecisionTree" boostWeight="1.0000000000000000e+00" itree="287">
      <Node pos="s" depth="0" NCoef="0" IVar="1" Cut="1.5975341796875000e+00" cType="1" res="-2.5927245616912842e-02" rms="4.4685113430023193e-01" purity="4.7094175219535828e-01" nType="0">
        <Node pos="l" depth="1" NCoef="0" IVar="4" Cut="6.5619635009765625e+02" cType="1" res="-1.0525492951273918e-02" rms="4.5434528589248657e-01" purity="5.0114107131958008e-01" nType="0">
          <Node pos="l" depth="2" NCoef="0" IVar="-1" Cut="0.0000000000000000e+00" cType="1" res="-5.5190268903970718e-04" rms="4.5321267843246460e-01" purity="4.6482503414154053e-01" nType="-99"/>
          <Node pos="r" depth="2" NCoef="0" IVar="-1" Cut="0.0000000000000000e+00" cType="1" res="1.8041287548840046e-03" rms="4.3754535913467407e-01" purity="7.0107585191726685e-01" nType="-99"/>
        </Node>
        <Node pos="r" depth="1" NCoef="0" IVar="-1" Cut="0.0000000000000000e+00" cType="1" res="-4.4236043468117714e-03" rms="2.7135068178176880e-01" purity="8.9733466506004333e-02" nType="-99"/>
      </Node>
    </BinaryTree>
    <BinaryTree type="DecisionTree" boostWeight="1.0000000000000000e+00" itree="288">
      <Node pos="s" depth="0" NCoef="0" IVar="3" Cut="3.9268493652343750e+02" cType="1" res="1.5433155931532383e-02" rms="4.5412075519561768e-01" purity="5.1381659507751465e-01" nType="0">
        <Node pos="l" depth="1" NCoef="0" IVar="3" Cut="2.0467106628417969e+02" cType="1" res="3.2032836228609085e-02" rms="4.5434775948524475e-01" purity="5.3318929672241211e-01" nType="0">
          <Node pos="l" depth="2" NCoef="0" IVar="-1" Cut="0.0000000000000000e+00" cType="1" res="-3.5302608739584684e-04" rms="4.6029943227767944e-01" purity="4.6117031574249268e-01" nType="-99"/>
          <Node pos="r" depth="2" NCoef="0" IVar="-1" Cut="0.0000000000000000e+00" cType="1" res="1.4143330045044422e-03" rms="4.4052752852439880e-01" purity="6.1010539531707764e-01" nType="-99"/>
        </Node>
        <Node pos="r" depth="1" NCoef="0" IVar="-1" Cut="0.0000000000000000e+00" cType="1" res="-3.1435857526957989e-03" rms="4.0079292654991150e-01" purity="2.8098797798156738e-01" nType="-99"/>
      </Node>
    </BinaryTree>
    <BinaryTree type="DecisionTree" boostWeight="1.0000000000000000e+00" itree="289">
      <Node pos="s" depth="0" NCoef="0" IVar="2" Cut="9.6373742818832397e-01" cType="1" res="-5.9866658411920071e-03" rms="4.5400482416152954e-01" purity="4.8632654547691345e-01" nType="0">
        <Node pos="l" depth="1" NCoef="0" IVar="6" Cut="3.5981130599975586e-01" cType="1" res="-3.9939772337675095e-02" rms="4.6167913079261780e-01" purity="3.8515657186508179e-01" nType="0">
          <Node pos="l" depth="2" NCoef="0" IVar="-1" Cut="0.0000000000000000e+00" cType="1" res="-2.4462547153234482e-03" rms="4.3953725695610046e-01" purity="3.1679773330688477e-01" nType="-99"/>
          <Node pos="r" depth="2" NCoef="0" IVar="-1" Cut="0.0000000000000000e+00" cType="1" res="-3.8464006502181292e-04" rms="4.6249166131019592e-01" purity="3.9460223913192749e-01" nType="-99"/>
        </Node>
        <Node pos="r" depth="1" NCoef="0" IVar="3" Cut="2.3449539184570312e+02" cType="1" res="8.6244285106658936e-02" rms="4.1879993677139282e-01" purity="7.6114702224731445e-01" nType="0">
          <Node pos="l" depth="2" NCoef="0" IVar="-1" Cut="0.0000000000000000e+00" cType="1" res="8.3151075523346663e-04" rms="4.4382429122924805e-01" purity="7.2840231657028198e-01" nType="-99"/>
          <Node pos="r" depth="2" NCoef="0" IVar="-1" Cut="0.0000000000000000e+00" cType="1" res="2.2671541664749384e-03" rms="3.7005004286766052e-01" purity="8.1187492609024048e-01" nType="-99"/>
        </Node>
      </Node>
    </BinaryTree>
    <BinaryTree type="DecisionTree" boostWeight="1.0000000000000000e+00" itree="290">
      <Node pos="s" depth="0" NCoef="0" IVar="1" Cut="8.1129360198974609e-01" cType="1" res="-1.4294736087322235e-02" rms="4.4951447844505310e-01" purity="4.8244982957839966e-01" nType="0">
        <Node pos="l" depth="1" NCoef="0" IVar="3" Cut="2.2360218811035156e+02" cType="1" res="3.6179549992084503e-02" rms="4.4390285015106201e-01" purity="5.8731526136398315e-01" nType="0">
          <Node pos="l" depth="2" NCoef="0" IVar="-1" Cut="0.0000000000000000e+00" cType="1" res="-3.1304909498430789e-04" rms="4.5656833052635193e-01" purity="4.9030739068984985e-01" nType="-99"/>
          <Node pos="r" depth="2" NCoef="0" IVar="-1" Cut="0.0000000000000000e+00" cType="1" res="2.6009974535554647e-03" rms="3.8222500681877136e-01" purity="8.1164830923080444e-01" nType="-99"/>
        </Node>
        <Node pos="r" depth="1" NCoef="0" IVar="2" Cut="9.7663140296936035e-01" cType="1" res="-4.8765834420919418e-02" rms="4.5006561279296875e-01" purity="4.1083264350891113e-01" nType="0">
          <Node pos="l" depth="2" NCoef="0" IVar="-1" Cut="0.0000000000000000e+00" cType="1" res="-1.1304431827738881e-03" rms="4.5303615927696228e-01" purity="3.6559823155403137e-01" nType="-99"/>
          <Node pos="r" depth="2" NCoef="0" IVar="-1" Cut="0.0000000000000000e+00" cType="1" res="2.0208931528031826e-03" rms="3.8097909092903137e-01" purity="8.0078673362731934e-01" nType="-99"/>
        </Node>
      </Node>
    </BinaryTree>
    <BinaryTree type="DecisionTree" boostWeight="1.0000000000000000e+00" itree="291">
      <Node pos="s" depth="0" NCoef="0" IVar="2" Cut="9.6416938304901123e-01" cType="1" res="5.3277555853128433e-03" rms="4.5133182406425476e-01" purity="5.0631588697433472e-01" nType="0">
        <Node pos="l" depth="1" NCoef="0" IVar="6" Cut="4.2968142032623291e-01" cType="1" res="-2.5663124397397041e-02" rms="4.6432739496231079e-01" purity="4.0701216459274292e-01" nType="0">
          <Node pos="l" depth="2" NCoef="0" IVar="-1" Cut="0.0000000000000000e+00" cType="1" res="8.2666496746242046e-04" rms="4.7380888462066650e-01" purity="5.2398824691772461e-01" nType="-99"/>
          <Node pos="r" depth="2" NCoef="0" IVar="-1" Cut="0.0000000000000000e+00" cType="1" res="-7.5252878013998270e-04" rms="4.5946678519248962e-01" purity="3.7613582611083984e-01" nType="-99"/>
        </Node>
        <Node pos="r" depth="1" NCoef="0" IVar="5" Cut="1.6330685424804688e+02" cType="1" res="8.5612349212169647e-02" rms="4.0489500761032104e-01" purity="7.6357108354568481e-01" nType="0">
          <Node pos="l" depth="2" NCoef="0" IVar="-1" Cut="0.0000000000000000e+00" cType="1" res="2.0188081543892622e-03" rms="3.8699194788932800e-01" purity="7.9629695415496826e-01" nType="-99"/>
          <Node pos="r" depth="2" NCoef="0" IVar="-1" Cut="0.0000000000000000e+00" cType="1" res="-3.7142529617995024e-04" rms="4.3224424123764038e-01" purity="6.7445957660675049e-01" nType="-99"/>
        </Node>
      </Node>
    </BinaryTree>
    <BinaryTree type="DecisionTree" boostWeight="1.0000000000000000e+00" itree="292">
      <Node pos="s" depth="0" NCoef="0" IVar="2" Cut="9.7587251663208008e-01" cType="1" res="1.4978508464992046e-02" rms="4.4837141036987305e-01" purity="5.0404113531112671e-01" nType="0">
        <Node pos="l" depth="1" NCoef="0" IVar="1" Cut="1.0981875658035278e+00" cType="1" res="-2.4991820100694895e-03" rms="4.5825758576393127e-01" purity="4.5763537287712097e-01" nType="0">
          <Node pos="l" depth="2" NCoef="0" IVar="-1" Cut="0.0000000000000000e+00" cType="1" res="4.5356844202615321e-04" rms="4.6478119492530823e-01" purity="5.4249095916748047e-01" nType="-99"/>
          <Node pos="r" depth="2" NCoef="0" IVar="-1" Cut="0.0000000000000000e+00" cType="1" res="-1.0627722367644310e-03" rms="4.4024601578712463e-01" purity="3.0385908484458923e-01" nType="-99"/>
        </Node>
        <Node pos="r" depth="1" NCoef="0" IVar="0" Cut="3.3514910888671875e+02" cType="1" res="1.4799916744232178e-01" rms="3.3585801720619202e-01" purity="8.5723042488098145e-01" nType="0">
          <Node pos="l" depth="2" NCoef="0" IVar="-1" Cut="0.0000000000000000e+00" cType="1" res="2.1274739410728216e-03" rms="3.6546647548675537e-01" purity="8.2203173637390137e-01" nType="-99"/>
          <Node pos="r" depth="2" NCoef="0" IVar="-1" Cut="0.0000000000000000e+00" cType="1" res="2.9411306604743004e-03" rms="2.9957646131515503e-01" purity="8.9454436302185059e-01" nType="-99"/>
        </Node>
      </Node>
    </BinaryTree>
    <BinaryTree type="DecisionTree" boostWeight="1.0000000000000000e+00" itree="293">
      <Node pos="s" depth="0" NCoef="0" IVar="1" Cut="9.9065661430358887e-01" cType="1" res="-1.9743477925658226e-02" rms="4.4627133011817932e-01" purity="4.6861582994461060e-01" nType="0">
        <Node pos="l" depth="1" NCoef="0" IVar="2" Cut="9.1233497858047485e-01" cType="1" res="2.3749357089400291e-02" rms="4.5068943500518799e-01" purity="5.6485599279403687e-01" nType="0">
          <Node pos="l" depth="2" NCoef="0" IVar="-1" Cut="0.0000000000000000e+00" cType="1" res="-3.0685293022543192e-03" rms="3.4285673499107361e-01" purity="1.4692275226116180e-01" nType="-99"/>
          <Node pos="r" depth="2" NCoef="0" IVar="-1" Cut="0.0000000000000000e+00" cType="1" res="6.5977126359939575e-04" rms="4.5547705888748169e-01" purity="6.0628664493560791e-01" nType="-99"/>
        </Node>
        <Node pos="r" depth="1" NCoef="0" IVar="1" Cut="1.0614497661590576e+00" cType="1" res="-7.8564882278442383e-02" rms="4.3333622813224792e-01" purity="3.3845683932304382e-01" nType="0">
          <Node pos="l" depth="2" NCoef="0" IVar="-1" Cut="0.0000000000000000e+00" cType="1" res="5.7552225189283490e-04" rms="4.6385395526885986e-01" purity="5.6488835811614990e-01" nType="-99"/>
          <Node pos="r" depth="2" NCoef="0" IVar="-1" Cut="0.0000000000000000e+00" cType="1" res="-1.7468838486820459e-03" rms="4.2361810803413391e-01" purity="2.9505974054336548e-01" nType="-99"/>
        </Node>
      </Node>
    </BinaryTree>
    <BinaryTree type="DecisionTree" boostWeight="1.0000000000000000e+00" itree="294">
      <Node pos="s" depth="0" NCoef="0" IVar="2" Cut="9.7539097070693970e-01" cType="1" res="-1.6327988356351852e-02" rms="4.5849049091339111e-01" purity="4.7608062624931335e-01" nType="0">
        <Node pos="l" depth="1" NCoef="0" IVar="3" Cut="1.3459661865234375e+02" cType="1" res="-2.9568152502179146e-02" rms="4.6522375941276550e-01" purity="4.3296688795089722e-01" nType="0">
          <Node pos="l" depth="2" NCoef="0" IVar="-1" Cut="0.0000000000000000e+00" cType="1" res="-2.2888153325766325e-03" rms="4.3411958217620850e-01" purity="3.0982530117034912e-01" nType="-99"/>
          <Node pos="r" depth="2" NCoef="0" IVar="-1" Cut="0.0000000000000000e+00" cType="1" res="-2.9315042775124311e-04" rms="4.6678483486175537e-01" purity="4.4520080089569092e-01" nType="-99"/>
        </Node>
        <Node pos="r" depth="1" NCoef="0" IVar="6" Cut="4.7334596514701843e-01" cType="1" res="7.7440865337848663e-02" rms="3.9513424038887024e-01" purity="7.8141880035400391e-01" nType="0">
          <Node pos="l" depth="2" NCoef="0" IVar="-1" Cut="0.0000000000000000e+00" cType="1" res="2.6077372021973133e-03" rms="3.1170445680618286e-01" purity="8.7315553426742554e-01" nType="-99"/>
          <Node pos="r" depth="2" NCoef="0" IVar="-1" Cut="0.0000000000000000e+00" cType="1" res="3.3560051815584302e-04" rms="4.4388362765312195e-01" purity="7.0637416839599609e-01" nType="-99"/>
        </Node>
      </Node>
    </BinaryTree>
    <BinaryTree type="DecisionTree" boostWeight="1.0000000000000000e+00" itree="295">
      <Node pos="s" depth="0" NCoef="0" IVar="1" Cut="1.0076190233230591e+00" cType="1" res="1.5308093279600143e-02" rms="4.4535046815872192e-01" purity="5.1413404941558838e-01" nType="0">
        <Node pos="l" depth="1" NCoef="0" IVar="2" Cut="9.3828749656677246e-01" cType="1" res="6.9987967610359192e-02" rms="4.4122722744941711e-01" purity="6.2537735700607300e-01" nType="0">
          <Node pos="l" depth="2" NCoef="0" IVar="-1" Cut="0.0000000000000000e+00" cType="1" res="-6.0361629584804177e-04" rms="4.5606088638305664e-01" purity="3.4215268492698669e-01" nType="-99"/>
          <Node pos="r" depth="2" NCoef="0" IVar="-1" Cut="0.0000000000000000e+00" cType="1" res="1.7224432667717338e-03" rms="4.2715525627136230e-01" purity="7.4197971820831299e-01" nType="-99"/>
        </Node>
        <Node pos="r" depth="1" NCoef="0" IVar="1" Cut="1.7015273571014404e+00" cType="1" res="-6.1009734869003296e-02" rms="4.3982011079788208e-01" purity="3.5886955261230469e-01" nType="0">
          <Node pos="l" depth="2" NCoef="0" IVar="-1" Cut="0.0000000000000000e+00" cType="1" res="-6.3290027901530266e-04" rms="4.5918935537338257e-01" purity="4.0227529406547546e-01" nType="-99"/>
          <Node pos="r" depth="2" NCoef="0" IVar="-1" Cut="0.0000000000000000e+00" cType="1" res="-3.8048990536481142e-03" rms="2.6662901043891907e-01" purity="1.0270952433347702e-01" nType="-99"/>
        </Node>
      </Node>
    </BinaryTree>
    <BinaryTree type="DecisionTree" boostWeight="1.0000000000000000e+00" itree="296">
      <Node pos="s" depth="0" NCoef="0" IVar="2" Cut="9.1743463277816772e-01" cType="1" res="3.5514268092811108e-03" rms="4.4758528470993042e-01" purity="4.9541270732879639e-01" nType="0">
        <Node pos="l" depth="1" NCoef="0" IVar="-1" Cut="0.0000000000000000e+00" cType="1" res="-2.8847246430814266e-03" rms="3.2628393173217773e-01" purity="1.4226415753364563e-01" nType="-99"/>
        <Node pos="r" depth="1" NCoef="0" IVar="1" Cut="1.6208522319793701e+00" cType="1" res="1.9601875916123390e-02" rms="4.5541384816169739e-01" purity="5.3226411342620850e-01" nType="0">
          <Node pos="l" depth="2" NCoef="0" IVar="-1" Cut="0.0000000000000000e+00" cType="1" res="5.3063180530443788e-04" rms="4.6146330237388611e-01" purity="5.6362646818161011e-01" nType="-99"/>
          <Node pos="r" depth="2" NCoef="0" IVar="-1" Cut="0.0000000000000000e+00" cType="1" res="-2.9636677354574203e-03" rms="3.3044940233230591e-01" purity="1.5704615414142609e-01" nType="-99"/>
        </Node>
      </Node>
    </BinaryTree>
    <BinaryTree type="DecisionTree" boostWeight="1.0000000000000000e+00" itree="297">
      <Node pos="s" depth="0" NCoef="0" IVar="3" Cut="1.9809226989746094e+02" cType="1" res="3.2139776158146560e-04" rms="4.5539295673370361e-01" purity="4.9950376152992249e-01" nType="0">
        <Node pos="l" depth="1" NCoef="0" IVar="5" Cut="1.0364223480224609e+02" cType="1" res="-5.7371899485588074e-02" rms="4.6144345402717590e-01" purity="4.1536462306976318e-01" nType="0">
          <Node pos="l" depth="2" NCoef="0" IVar="-1" Cut="0.0000000000000000e+00" cType="1" res="2.5130208814516664e-04" rms="4.5566749572753906e-01" purity="4.6370059251785278e-01" nType="-99"/>
          <Node pos="r" depth="2" NCoef="0" IVar="-1" Cut="0.0000000000000000e+00" cType="1" res="-2.0414032042026520e-03" rms="4.5589262247085571e-01" purity="3.6829623579978943e-01" nType="-99"/>
        </Node>
        <Node pos="r" depth="1" NCoef="0" IVar="3" Cut="3.5937185668945312e+02" cType="1" res="4.2963683605194092e-02" rms="4.4609874486923218e-01" purity="5.6169265508651733e-01" nType="0">
          <Node pos="l" depth="2" NCoef="0" IVar="-1" Cut="0.0000000000000000e+00" cType="1" res="1.2821212876588106e-03" rms="4.4030055403709412e-01" purity="6.1508280038833618e-01" nType="-99"/>
          <Node pos="r" depth="2" NCoef="0" IVar="-1" Cut="0.0000000000000000e+00" cType="1" res="-2.1359976381063461e-03" rms="4.3227091431617737e-01" purity="3.2693257927894592e-01" nType="-99"/>
        </Node>
      </Node>
    </BinaryTree>
    <BinaryTree type="DecisionTree" boostWeight="1.0000000000000000e+00" itree="298">
      <Node pos="s" depth="0" NCoef="0" IVar="4" Cut="4.0999960327148438e+02" cType="1" res="1.2659125030040741e-02" rms="4.4704684615135193e-01" purity="5.0796371698379517e-01" nType="0">
        <Node pos="l" depth="1" NCoef="0" IVar="2" Cut="9.1887730360031128e-01" cType="1" res="-5.2313901484012604e-02" rms="4.3169927597045898e-01" purity="3.7633088231086731e-01" nType="0">
          <Node pos="l" depth="2" NCoef="0" IVar="-1" Cut="0.0000000000000000e+00" cType="1" res="-4.1777160950005054e-03" rms="1.8622648715972900e-01" purity="4.1221395134925842e-02" nType="-99"/>
          <Node pos="r" depth="2" NCoef="0" IVar="-1" Cut="0.0000000000000000e+00" cType="1" res="-3.6002707201987505e-04" rms="4.5724904537200928e-01" purity="4.3882465362548828e-01" nType="-99"/>
        </Node>
        <Node pos="r" depth="1" NCoef="0" IVar="6" Cut="8.5120397806167603e-01" cType="1" res="5.2146196365356445e-02" rms="4.5157778263092041e-01" purity="5.8796304464340210e-01" nType="0">
          <Node pos="l" depth="2" NCoef="0" IVar="-1" Cut="0.0000000000000000e+00" cType="1" res="1.2788533931598067e-03" rms="4.4266626238822937e-01" purity="6.4000087976455688e-01" nType="-99"/>
          <Node pos="r" depth="2" NCoef="0" IVar="-1" Cut="0.0000000000000000e+00" cType="1" res="-1.0299937566742301e-03" rms="4.6505323052406311e-01" purity="4.0166544914245605e-01" nType="-99"/>
        </Node>
      </Node>
    </BinaryTree>
    <BinaryTree type="DecisionTree" boostWeight="1.0000000000000000e+00" itree="299">
      <Node pos="s" depth="0" NCoef="0" IVar="1" Cut="1.6834868192672729e+00" cType="1" res="-3.5069021396338940e-03" rms="4.4797280430793762e-01" purity="4.9355429410934448e-01" nType="0">
        <Node pos="l" depth="1" NCoef="0" IVar="3" Cut="1.7979666137695312e+02" cType="1" res="9.4205075874924660e-03" rms="4.5396202802658081e-01" purity="5.1832377910614014e-01" nType="0">
          <Node pos="l" depth="2" NCoef="0" IVar="-1" Cut="0.0000000000000000e+00" cType="1" res="-8.4874476306140423e-04" rms="4.6454676985740662e-01" purity="4.1618084907531738e-01" nType="-99"/>
          <Node pos="r" depth="2" NCoef="0" IVar="-1" Cut="0.0000000000000000e+00" cType="1" res="7.3859695112332702e-04" rms="4.4320446252822876e-01" purity="5.8018505573272705e-01" nType="-99"/>
        </Node>
        <Node pos="r" depth="1" NCoef="0" IVar="-1" Cut="0.0000000000000000e+00" cType="1" res="-4.7647347673773766e-03" rms="2.3857949674129486e-01" purity="7.0737242698669434e-02" nType="-99"/>
      </Node>
    </BinaryTree>
    <BinaryTree type="DecisionTree" boostWeight="1.0000000000000000e+00" itree="300">
      <Node pos="s" depth="0" NCoef="0" IVar="1" Cut="1.0821644067764282e+00" cType="1" res="1.1460823006927967e-02" rms="4.4262754917144775e-01" purity="5.1228052377700806e-01" nType="0">
        <Node pos="l" depth="1" NCoef="0" IVar="3" Cut="1.3360455322265625e+02" cType="1" res="5.4906409233808517e-02" rms="4.4547000527381897e-01" purity="6.0860604047775269e-01" nType="0">
          <Node pos="l" depth="2" NCoef="0" IVar="-1" Cut="0.0000000000000000e+00" cType="1" res="-1.5390019398182631e-03" rms="4.4180002808570862e-01" purity="3.7532722949981689e-01" nType="-99"/>
          <Node pos="r" depth="2" NCoef="0" IVar="-1" Cut="0.0000000000000000e+00" cType="1" res="1.1452620383352041e-03" rms="4.4224286079406738e-01" purity="6.3926583528518677e-01" nType="-99"/>
        </Node>
        <Node pos="r" depth="1" NCoef="0" IVar="2" Cut="9.4690591096878052e-01" cType="1" res="-7.1133472025394440e-02" rms="4.2509987950325012e-01" purity="3.2915633916854858e-01" nType="0">
          <Node pos="l" depth="2" NCoef="0" IVar="-1" Cut="0.0000000000000000e+00" cType="1" res="-2.5743010919541121e-03" rms="3.5770687460899353e-01" purity="1.6470004618167877e-01" nType="-99"/>
          <Node pos="r" depth="2" NCoef="0" IVar="-1" Cut="0.0000000000000000e+00" cType="1" res="-3.9267615647986531e-05" rms="4.7748792171478271e-01" purity="5.0495231151580811e-01" nType="-99"/>
        </Node>
      </Node>
    </BinaryTree>
    <BinaryTree type="DecisionTree" boostWeight="1.0000000000000000e+00" itree="301">
      <Node pos="s" depth="0" NCoef="0" IVar="2" Cut="9.5442593097686768e-01" cType="1" res="1.1837224476039410e-02" rms="4.5097118616104126e-01" purity="5.1860618591308594e-01" nType="0">
        <Node pos="l" depth="1" NCoef="0" IVar="3" Cut="3.5599508666992188e+02" cType="1" res="-3.2040987163782120e-02" rms="4.6120691299438477e-01" purity="3.6205682158470154e-01" nType="0">
          <Node pos="l" depth="2" NCoef="0" IVar="-1" Cut="0.0000000000000000e+00" cType="1" res="-1.5831942437216640e-04" rms="4.6848776936531067e-01" purity="3.8527813553810120e-01" nType="-99"/>
          <Node pos="r" depth="2" NCoef="0" IVar="-1" Cut="0.0000000000000000e+00" cType="1" res="-3.2012192532420158e-03" rms="3.7656354904174805e-01" purity="2.0593585073947906e-01" nType="-99"/>
        </Node>
        <Node pos="r" depth="1" NCoef="0" IVar="1" Cut="8.0106490850448608e-01" cType="1" res="6.9187909364700317e-02" rms="4.3054139614105225e-01" purity="7.2322291135787964e-01" nType="0">
          <Node pos="l" depth="2" NCoef="0" IVar="-1" Cut="0.0000000000000000e+00" cType="1" res="2.0724423229694366e-03" rms="3.7346491217613220e-01" purity="8.2612746953964233e-01" nType="-99"/>
          <Node pos="r" depth="2" NCoef="0" IVar="-1" Cut="0.0000000000000000e+00" cType="1" res="2.7771049644798040e-04" rms="4.6854919195175171e-01" purity="6.3392180204391479e-01" nType="-99"/>
        </Node>
      </Node>
    </BinaryTree>
    <BinaryTree type="DecisionTree" boostWeight="1.0000000000000000e+00" itree="302">
      <Node pos="s" depth="0" NCoef="0" IVar="2" Cut="9.2269951105117798e-01" cType="1" res="-2.0704898051917553e-03" rms="4.4041842222213745e-01" purity="4.9808949232101440e-01" nType="0">
        <Node pos="l" depth="1" NCoef="0" IVar="4" Cut="4.0434133911132812e+02" cType="1" res="-1.5286977589130402e-01" rms="3.3775424957275391e-01" purity="1.5207248926162720e-01" nType="0">
          <Node pos="l" depth="2" NCoef="0" IVar="-1" Cut="0.0000000000000000e+00" cType="1" res="-1.6972038429230452e-03" rms="3.5231584310531616e-01" purity="1.6239967942237854e-01" nType="-99"/>
          <Node pos="r" depth="2" NCoef="0" IVar="-1" Cut="0.0000000000000000e+00" cType="1" res="-3.4124273806810379e-03" rms="3.2138162851333618e-01" purity="1.4558257162570953e-01" nType="-99"/>
        </Node>
        <Node pos="r" depth="1" NCoef="0" IVar="1" Cut="1.6040627956390381e+00" cType="1" res="2.2151151672005653e-02" rms="4.5006802678108215e-01" purity="5.5366736650466919e-01" nType="0">
          <Node pos="l" depth="2" NCoef="0" IVar="-1" Cut="0.0000000000000000e+00" cType="1" res="5.8167055249214172e-04" rms="4.5445612072944641e-01" purity="5.8784580230712891e-01" nType="-99"/>
          <Node pos="r" depth="2" NCoef="0" IVar="-1" Cut="0.0000000000000000e+00" cType="1" res="-3.1616953201591969e-03" rms="3.4485644102096558e-01" purity="1.4297297596931458e-01" nType="-99"/>
        </Node>
      </Node>
    </BinaryTree>
    <BinaryTree type="DecisionTree" boostWeight="1.0000000000000000e+00" itree="303">
      <Node pos="s" depth="0" NCoef="0" IVar="1" Cut="1.6944628953933716e+00" cType="1" res="1.9903987646102905e-02" rms="4.5273199677467346e-01" purity="5.1222288608551025e-01" nType="0">
        <Node pos="l" depth="1" NCoef="0" IVar="3" Cut="1.2282625579833984e+02" cType="1" res="3.0416499823331833e-02" rms="4.5793709158897400e-01" purity="5.3459542989730835e-01" nType="0">
          <Node pos="l" depth="2" NCoef="0" IVar="-1" Cut="0.0000000000000000e+00" cType="1" res="-2.1761620882898569e-03" rms="4.5673498511314392e-01" purity="3.2546401023864746e-01" nType="-99"/>
          <Node pos="r" depth="2" NCoef="0" IVar="-1" Cut="0.0000000000000000e+00" cType="1" res="6.5818941220641136e-04" rms="4.5584788918495178e-01" purity="5.4929590225219727e-01" nType="-99"/>
        </Node>
        <Node pos="r" depth="1" NCoef="0" IVar="-1" Cut="0.0000000000000000e+00" cType="1" res="-3.4834670368582010e-03" rms="2.8482171893119812e-01" purity="1.0768157243728638e-01" nType="-99"/>
      </Node>
    </BinaryTree>
    <BinaryTree type="DecisionTree" boostWeight="1.0000000000000000e+00" itree="304">
      <Node pos="s" depth="0" NCoef="0" IVar="4" Cut="3.0814672851562500e+02" cType="1" res="-4.0553333237767220e-03" rms="4.5320376753807068e-01" purity="4.9415558576583862e-01" nType="0">
        <Node pos="l" depth="1" NCoef="0" IVar="-1" Cut="0.0000000000000000e+00" cType="1" res="-3.0372701585292816e-03" rms="3.3746060729026794e-01" purity="1.9558979570865631e-01" nType="-99"/>
        <Node pos="r" depth="1" NCoef="0" IVar="1" Cut="7.8042089939117432e-01" cType="1" res="5.7808789424598217e-03" rms="4.5716431736946106e-01" purity="5.1162809133529663e-01" nType="0">
          <Node pos="l" depth="2" NCoef="0" IVar="-1" Cut="0.0000000000000000e+00" cType="1" res="7.6907430775463581e-04" rms="4.4864544272422791e-01" purity="6.1184257268905640e-01" nType="-99"/>
          <Node pos="r" depth="2" NCoef="0" IVar="-1" Cut="0.0000000000000000e+00" cType="1" res="-3.7637492641806602e-04" rms="4.6051201224327087e-01" purity="4.4495227932929993e-01" nType="-99"/>
        </Node>
      </Node>
    </BinaryTree>
    <BinaryTree type="DecisionTree" boostWeight="1.0000000000000000e+00" itree="305">
      <Node pos="s" depth="0" NCoef="0" IVar="1" Cut="1.7201590538024902e+00" cType="1" res="-2.3331211414188147e-03" rms="4.4722306728363037e-01" purity="4.9369713664054871e-01" nType="0">
        <Node pos="l" depth="1" NCoef="0" IVar="4" Cut="3.2062530517578125e+02" cType="1" res="9.7365565598011017e-03" rms="4.5326003432273865e-01" purity="5.1900309324264526e-01" nType="0">
          <Node pos="l" depth="2" NCoef="0" IVar="-1" Cut="0.0000000000000000e+00" cType="1" res="-3.1330997589975595e-03" rms="3.8810557126998901e-01" purity="2.2012849152088165e-01" nType="-99"/>
          <Node pos="r" depth="2" NCoef="0" IVar="-1" Cut="0.0000000000000000e+00" cType="1" res="3.9194809505715966e-04" rms="4.5500168204307556e-01" purity="5.4388636350631714e-01" nType="-99"/>
        </Node>
        <Node pos="r" depth="1" NCoef="0" IVar="-1" Cut="0.0000000000000000e+00" cType="1" res="-4.3530738912522793e-03" rms="2.5807079672813416e-01" purity="7.2145231068134308e-02" nType="-99"/>
      </Node>
    </BinaryTree>
    <BinaryTree type="DecisionTree" boostWeight="1.0000000000000000e+00" itree="306">
      <Node pos="s" depth="0" NCoef="0" IVar="3" Cut="1.8916654968261719e+02" cType="1" res="8.4997024387121201e-03" rms="4.5106717944145203e-01" purity="5.0152230262756348e-01" nType="0">
        <Node pos="l" depth="1" NCoef="0" IVar="5" Cut="9.9359306335449219e+01" cType="1" res="-5.9868022799491882e-02" rms="4.5215559005737305e-01" purity="4.0454494953155518e-01" nType="0">
          <Node pos="l" depth="2" NCoef="0" IVar="-1" Cut="0.0000000000000000e+00" cType="1" res="1.8629396799951792e-04" rms="4.4918802380561829e-01" purity="4.5476186275482178e-01" nType="-99"/>
          <Node pos="r" depth="2" NCoef="0" IVar="-1" Cut="0.0000000000000000e+00" cType="1" res="-1.8807579763233662e-03" rms="4.4621598720550537e-01" purity="3.6380335688591003e-01" nType="-99"/>
        </Node>
        <Node pos="r" depth="1" NCoef="0" IVar="4" Cut="3.6978567504882812e+02" cType="1" res="5.0313156098127365e-02" rms="4.4525647163391113e-01" purity="5.6083339452743530e-01" nType="0">
          <Node pos="l" depth="2" NCoef="0" IVar="-1" Cut="0.0000000000000000e+00" cType="1" res="-1.3486220268532634e-03" rms="4.1811367869377136e-01" purity="2.9460513591766357e-01" nType="-99"/>
          <Node pos="r" depth="2" NCoef="0" IVar="-1" Cut="0.0000000000000000e+00" cType="1" res="1.1369091225787997e-03" rms="4.4623568654060364e-01" purity="6.0733580589294434e-01" nType="-99"/>
        </Node>
      </Node>
    </BinaryTree>
    <BinaryTree type="DecisionTree" boostWeight="1.0000000000000000e+00" itree="307">
      <Node pos="s" depth="0" NCoef="0" IVar="2" Cut="9.5166957378387451e-01" cType="1" res="8.2699041813611984e-03" rms="4.4066387414932251e-01" purity="5.0063866376876831e-01" nType="0">
        <Node pos="l" depth="1" NCoef="0" IVar="2" Cut="9.1111123561859131e-01" cType="1" res="-4.4860687106847763e-02" rms="4.4563841819763184e-01" purity="3.3271840214729309e-01" nType="0">
          <Node pos="l" depth="2" NCoef="0" IVar="-1" Cut="0.0000000000000000e+00" cType="1" res="-2.9616241808980703e-03" rms="3.0981996655464172e-01" purity="1.2786899507045746e-01" nType="-99"/>
          <Node pos="r" depth="2" NCoef="0" IVar="-1" Cut="0.0000000000000000e+00" cType="1" res="-4.5104921446181834e-04" rms="4.6058195829391479e-01" purity="3.6412832140922546e-01" nType="-99"/>
        </Node>
        <Node pos="r" depth="1" NCoef="0" IVar="2" Cut="9.7916662693023682e-01" cType="1" res="7.4270799756050110e-02" rms="4.2525860667228699e-01" purity="7.0923584699630737e-01" nType="0">
          <Node pos="l" depth="2" NCoef="0" IVar="-1" Cut="0.0000000000000000e+00" cType="1" res="7.8465358819812536e-04" rms="4.4623035192489624e-01" purity="6.6787922382354736e-01" nType="-99"/>
          <Node pos="r" depth="2" NCoef="0" IVar="-1" Cut="0.0000000000000000e+00" cType="1" res="2.9656144324690104e-03" rms="2.9336732625961304e-01" purity="8.9436829090118408e-01" nType="-99"/>
        </Node>
      </Node>
    </BinaryTree>
    <BinaryTree type="DecisionTree" boostWeight="1.0000000000000000e+00" itree="308">
      <Node pos="s" depth="0" NCoef="0" IVar="1" Cut="1.6205339431762695e+00" cType="1" res="1.6543943434953690e-02" rms="4.4484215974807739e-01" purity="5.1348328590393066e-01" nType="0">
        <Node pos="l" depth="1" NCoef="0" IVar="3" Cut="1.9731768798828125e+02" cType="1" res="3.0504271388053894e-02" rms="4.5163983106613159e-01" purity="5.4317343235015869e-01" nType="0">
          <Node pos="l" depth="2" NCoef="0" IVar="-1" Cut="0.0000000000000000e+00" cType="1" res="-2.9921240638941526e-04" rms="4.4544377923011780e-01" purity="4.5514163374900818e-01" nType="-99"/>
          <Node pos="r" depth="2" NCoef="0" IVar="-1" Cut="0.0000000000000000e+00" cType="1" res="1.1366360122337937e-03" rms="4.5267492532730103e-01" purity="6.1859130859375000e-01" nType="-99"/>
        </Node>
        <Node pos="r" depth="1" NCoef="0" IVar="-1" Cut="0.0000000000000000e+00" cType="1" res="-3.6249172408133745e-03" rms="2.7913916110992432e-01" purity="1.1383143812417984e-01" nType="-99"/>
      </Node>
    </BinaryTree>
    <BinaryTree type="DecisionTree" boostWeight="1.0000000000000000e+00" itree="309">
      <Node pos="s" depth="0" NCoef="0" IVar="4" Cut="7.3484039306640625e+02" cType="1" res="-8.5057271644473076e-03" rms="4.4968393445014954e-01" purity="4.9355217814445496e-01" nType="0">
        <Node pos="l" depth="1" NCoef="0" IVar="2" Cut="9.7548246383666992e-01" cType="1" res="-2.1915288642048836e-02" rms="4.4919729232788086e-01" purity="4.7345125675201416e-01" nType="0">
          <Node pos="l" depth="2" NCoef="0" IVar="-1" Cut="0.0000000000000000e+00" cType="1" res="-6.0528883477672935e-04" rms="4.5408707857131958e-01" purity="4.2753025889396667e-01" nType="-99"/>
          <Node pos="r" depth="2" NCoef="0" IVar="-1" Cut="0.0000000000000000e+00" cType="1" res="1.4244486810639501e-03" rms="3.9802250266075134e-01" purity="7.8806042671203613e-01" nType="-99"/>
        </Node>
        <Node pos="r" depth="1" NCoef="0" IVar="-1" Cut="0.0000000000000000e+00" cType="1" res="1.6996256308630109e-03" rms="4.3510499596595764e-01" purity="6.7880719900131226e-01" nType="-99"/>
      </Node>
    </BinaryTree>
    <BinaryTree type="DecisionTree" boostWeight="1.0000000000000000e+00" itree="310">
      <Node pos="s" depth="0" NCoef="0" IVar="4" Cut="7.0981799316406250e+02" cType="1" res="3.8772672414779663e-03" rms="4.5090183615684509e-01" purity="5.0715589523315430e-01" nType="0">
        <Node pos="l" depth="1" NCoef="0" IVar="2" Cut="9.2460894584655762e-01" cType="1" res="-1.8071603029966354e-02" rms="4.4912207126617432e-01" purity="4.7588798403739929e-01" nType="0">
          <Node pos="l" depth="2" NCoef="0" IVar="-1" Cut="0.0000000000000000e+00" cType="1" res="-2.6505563873797655e-03" rms="3.5093638300895691e-01" purity="1.5677268803119659e-01" nType="-99"/>
          <Node pos="r" depth="2" NCoef="0" IVar="-1" Cut="0.0000000000000000e+00" cType="1" res="1.1277444718871266e-04" rms="4.6181192994117737e-01" purity="5.3857302665710449e-01" nType="-99"/>
        </Node>
        <Node pos="r" depth="1" NCoef="0" IVar="2" Cut="9.4656008481979370e-01" cType="1" res="1.7576606571674347e-01" rms="4.2724516987800598e-01" purity="7.5202536582946777e-01" nType="0">
          <Node pos="l" depth="2" NCoef="0" IVar="-1" Cut="0.0000000000000000e+00" cType="1" res="3.4504146315157413e-03" rms="4.3152317404747009e-01" purity="7.2060805559158325e-01" nType="-99"/>
          <Node pos="r" depth="2" NCoef="0" IVar="-1" Cut="0.0000000000000000e+00" cType="1" res="1.8430937780067325e-03" rms="4.1374027729034424e-01" purity="7.8094238042831421e-01" nType="-99"/>
        </Node>
      </Node>
    </BinaryTree>
    <BinaryTree type="DecisionTree" boostWeight="1.0000000000000000e+00" itree="311">
      <Node pos="s" depth="0" NCoef="0" IVar="6" Cut="5.1835620403289795e-01" cType="1" res="8.9915259741246700e-04" rms="4.5421397686004639e-01" purity="4.9259424209594727e-01" nType="0">
        <Node pos="l" depth="1" NCoef="0" IVar="3" Cut="1.9743687438964844e+02" cType="1" res="6.0429710894823074e-02" rms="4.4169127941131592e-01" purity="6.0753697156906128e-01" nType="0">
          <Node pos="l" depth="2" NCoef="0" IVar="-1" Cut="0.0000000000000000e+00" cType="1" res="-1.8569717940408736e-04" rms="4.6839556097984314e-01" purity="4.8116582632064819e-01" nType="-99"/>
          <Node pos="r" depth="2" NCoef="0" IVar="-1" Cut="0.0000000000000000e+00" cType="1" res="2.1674295421689749e-03" rms="3.9702585339546204e-01" purity="7.4251383543014526e-01" nType="-99"/>
        </Node>
        <Node pos="r" depth="1" NCoef="0" IVar="3" Cut="3.5036267089843750e+02" cType="1" res="-2.7496697381138802e-02" rms="4.5734569430351257e-01" purity="4.3776696920394897e-01" nType="0">
          <Node pos="l" depth="2" NCoef="0" IVar="-1" Cut="0.0000000000000000e+00" cType="1" res="-2.0999247499275953e-04" rms="4.6158093214035034e-01" purity="4.5476520061492920e-01" nType="-99"/>
          <Node pos="r" depth="2" NCoef="0" IVar="-1" Cut="0.0000000000000000e+00" cType="1" res="-2.0160127896815538e-03" rms="4.1885724663734436e-01" purity="3.3210414648056030e-01" nType="-99"/>
        </Node>
      </Node>
    </BinaryTree>
    <BinaryTree type="DecisionTree" boostWeight="1.0000000000000000e+00" itree="312">
      <Node pos="s" depth="0" NCoef="0" IVar="3" Cut="1.8665417480468750e+02" cType="1" res="2.2616724891122431e-04" rms="4.5190298557281494e-01" purity="5.0361067056655884e-01" nType="0">
        <Node pos="l" depth="1" NCoef="0" IVar="5" Cut="1.0314357757568359e+02" cType="1" res="-6.0879707336425781e-02" rms="4.5537531375885010e-01" purity="4.1119071841239929e-01" nType="0">
          <Node pos="l" depth="2" NCoef="0" IVar="-1" Cut="0.0000000000000000e+00" cType="1" res="2.0324913202784956e-04" rms="4.4856062531471252e-01" purity="4.7092929482460022e-01" nType="-99"/>
          <Node pos="r" depth="2" NCoef="0" IVar="-1" Cut="0.0000000000000000e+00" cType="1" res="-2.0439962390810251e-03" rms="4.5113655924797058e-01" purity="3.5679161548614502e-01" nType="-99"/>
        </Node>
        <Node pos="r" depth="1" NCoef="0" IVar="6" Cut="5.2448165416717529e-01" cType="1" res="3.8491487503051758e-02" rms="4.4546720385551453e-01" purity="5.6148535013198853e-01" nType="0">
          <Node pos="l" depth="2" NCoef="0" IVar="-1" Cut="0.0000000000000000e+00" cType="1" res="2.1027086768299341e-03" rms="4.0234512090682983e-01" purity="7.4154961109161377e-01" nType="-99"/>
          <Node pos="r" depth="2" NCoef="0" IVar="-1" Cut="0.0000000000000000e+00" cType="1" res="-1.0535778710618615e-04" rms="4.5716267824172974e-01" purity="4.7807139158248901e-01" nType="-99"/>
        </Node>
      </Node>
    </BinaryTree>
    <BinaryTree type="DecisionTree" boostWeight="1.0000000000000000e+00" itree="313">
      <Node pos="s" depth="0" NCoef="0" IVar="1" Cut="1.4159518480300903e+00" cType="1" res="8.0787967890501022e-03" rms="4.4605925679206848e-01" purity="5.1044452190399170e-01" nType="0">
        <Node pos="l" depth="1" NCoef="0" IVar="3" Cut="1.4730645751953125e+02" cType="1" res="2.5976728647947311e-02" rms="4.5210120081901550e-01" purity="5.6029051542282104e-01" nType="0">
          <Node pos="l" depth="2" NCoef="0" IVar="-1" Cut="0.0000000000000000e+00" cType="1" res="-2.3951577022671700e-03" rms="4.3355637788772583e-01" purity="3.2000166177749634e-01" nType="-99"/>
          <Node pos="r" depth="2" NCoef="0" IVar="-1" Cut="0.0000000000000000e+00" cType="1" res="8.8154076365754008e-04" rms="4.4873645901679993e-01" purity="6.0343950986862183e-01" nType="-99"/>
        </Node>
        <Node pos="r" depth="1" NCoef="0" IVar="3" Cut="3.1440579223632812e+02" cType="1" res="-9.5511019229888916e-02" rms="3.9366933703422546e-01" purity="2.2194519639015198e-01" nType="0">
          <Node pos="l" depth="2" NCoef="0" IVar="-1" Cut="0.0000000000000000e+00" cType="1" res="-8.1948086153715849e-04" rms="4.3481346964836121e-01" purity="2.7029767632484436e-01" nType="-99"/>
          <Node pos="r" depth="2" NCoef="0" IVar="-1" Cut="0.0000000000000000e+00" cType="1" res="-2.8638099320232868e-03" rms="3.3695021271705627e-01" purity="1.7130167782306671e-01" nType="-99"/>
        </Node>
      </Node>
    </BinaryTree>
    <BinaryTree type="DecisionTree" boostWeight="1.0000000000000000e+00" itree="314">
      <Node pos="s" depth="0" NCoef="0" IVar="2" Cut="9.4788938760757446e-01" cType="1" res="-1.1471716687083244e-02" rms="4.4059783220291138e-01" purity="4.7343575954437256e-01" nType="0">
        <Node pos="l" depth="1" NCoef="0" IVar="1" Cut="1.0578807592391968e+00" cType="1" res="-6.1251755803823471e-02" rms="4.3075060844421387e-01" purity="3.0639392137527466e-01" nType="0">
          <Node pos="l" depth="2" NCoef="0" IVar="-1" Cut="0.0000000000000000e+00" cType="1" res="-1.8799398094415665e-04" rms="4.6356326341629028e-01" purity="3.9925783872604370e-01" nType="-99"/>
          <Node pos="r" depth="2" NCoef="0" IVar="-1" Cut="0.0000000000000000e+00" cType="1" res="-2.4599481839686632e-03" rms="3.7056097388267517e-01" purity="1.7865669727325439e-01" nType="-99"/>
        </Node>
        <Node pos="r" depth="1" NCoef="0" IVar="6" Cut="8.6643898487091064e-01" cType="1" res="4.4137019664049149e-02" rms="4.4480437040328979e-01" purity="6.6003638505935669e-01" nType="0">
          <Node pos="l" depth="2" NCoef="0" IVar="-1" Cut="0.0000000000000000e+00" cType="1" res="1.1190449586138129e-03" rms="4.2709586024284363e-01" purity="7.0691227912902832e-01" nType="-99"/>
          <Node pos="r" depth="2" NCoef="0" IVar="-1" Cut="0.0000000000000000e+00" cType="1" res="-9.3105796258896589e-04" rms="4.9097311496734619e-01" purity="4.8846209049224854e-01" nType="-99"/>
        </Node>
      </Node>
    </BinaryTree>
    <BinaryTree type="DecisionTree" boostWeight="1.0000000000000000e+00" itree="315">
      <Node pos="s" depth="0" NCoef="0" IVar="2" Cut="9.6371179819107056e-01" cType="1" res="-1.2188966386020184e-02" rms="4.4453325867652893e-01" purity="4.8207378387451172e-01" nType="0">
        <Node pos="l" depth="1" NCoef="0" IVar="2" Cut="9.2165273427963257e-01" cType="1" res="-4.1402146220207214e-02" rms="4.5149016380310059e-01" purity="3.7930738925933838e-01" nType="0">
          <Node pos="l" depth="2" NCoef="0" IVar="-1" Cut="0.0000000000000000e+00" cType="1" res="-2.2118643391877413e-03" rms="3.5636135935783386e-01" purity="1.7210200428962708e-01" nType="-99"/>
          <Node pos="r" depth="2" NCoef="0" IVar="-1" Cut="0.0000000000000000e+00" cType="1" res="-3.5529679735191166e-04" rms="4.6955943107604980e-01" purity="4.2902952432632446e-01" nType="-99"/>
        </Node>
        <Node pos="r" depth="1" NCoef="0" IVar="1" Cut="8.5917115211486816e-01" cType="1" res="6.2400598078966141e-02" rms="4.1707459092140198e-01" purity="7.4446558952331543e-01" nType="0">
          <Node pos="l" depth="2" NCoef="0" IVar="-1" Cut="0.0000000000000000e+00" cType="1" res="2.1852271165698767e-03" rms="3.3900997042655945e-01" purity="8.5630136728286743e-01" nType="-99"/>
          <Node pos="r" depth="2" NCoef="0" IVar="-1" Cut="0.0000000000000000e+00" cType="1" res="1.7247444702661596e-05" rms="4.7292226552963257e-01" purity="6.3583195209503174e-01" nType="-99"/>
        </Node>
      </Node>
    </BinaryTree>
    <BinaryTree type="DecisionTree" boostWeight="1.0000000000000000e+00" itree="316">
      <Node pos="s" depth="0" NCoef="0" IVar="4" Cut="4.3126892089843750e+02" cType="1" res="2.9135751537978649e-03" rms="4.4721516966819763e-01" purity="5.0440847873687744e-01" nType="0">
        <Node pos="l" depth="1" NCoef="0" IVar="1" Cut="7.2216099500656128e-01" cType="1" res="-5.3518075495958328e-02" rms="4.3934851884841919e-01" purity="3.9091584086418152e-01" nType="0">
          <Node pos="l" depth="2" NCoef="0" IVar="-1" Cut="0.0000000000000000e+00" cType="1" res="6.3228624640032649e-04" rms="4.3306580185890198e-01" purity="5.4945218563079834e-01" nType="-99"/>
          <Node pos="r" depth="2" NCoef="0" IVar="-1" Cut="0.0000000000000000e+00" cType="1" res="-1.4778090408071876e-03" rms="4.3679082393646240e-01" purity="3.3622077107429504e-01" nType="-99"/>
        </Node>
        <Node pos="r" depth="1" NCoef="0" IVar="5" Cut="2.8425845336914062e+02" cType="1" res="4.6642780303955078e-02" rms="4.4835907220840454e-01" purity="5.9235453605651855e-01" nType="0">
          <Node pos="l" depth="2" NCoef="0" IVar="-1" Cut="0.0000000000000000e+00" cType="1" res="9.6445524832233787e-04" rms="4.4260427355766296e-01" purity="6.0624521970748901e-01" nType="-99"/>
          <Node pos="r" depth="2" NCoef="0" IVar="-1" Cut="0.0000000000000000e+00" cType="1" res="-1.3460805639624596e-03" rms="4.7618547081947327e-01" purity="4.6906521916389465e-01" nType="-99"/>
        </Node>
      </Node>
    </BinaryTree>
    <BinaryTree type="DecisionTree" boostWeight="1.0000000000000000e+00" itree="317">
      <Node pos="s" depth="0" NCoef="0" IVar="0" Cut="3.0032656860351562e+02" cType="1" res="-1.9315952667966485e-03" rms="4.4948238134384155e-01" purity="4.9818715453147888e-01" nType="0">
        <Node pos="l" depth="1" NCoef="0" IVar="2" Cut="9.6888619661331177e-01" cType="1" res="-5.5732578039169312e-02" rms="4.4243070483207703e-01" purity="3.8534757494926453e-01" nType="0">
          <Node pos="l" depth="2" NCoef="0" IVar="-1" Cut="0.0000000000000000e+00" cType="1" res="-1.2805319856852293e-03" rms="4.4181871414184570e-01" purity="3.1785547733306885e-01" nType="-99"/>
          <Node pos="r" depth="2" NCoef="0" IVar="-1" Cut="0.0000000000000000e+00" cType="1" res="6.5286835888400674e-04" rms="4.3233174085617065e-01" purity="6.9006741046905518e-01" nType="-99"/>
        </Node>
        <Node pos="r" depth="1" NCoef="0" IVar="3" Cut="2.1402120971679688e+02" cType="1" res="4.4171899557113647e-02" rms="4.5035332441329956e-01" purity="5.9488236904144287e-01" nType="0">
          <Node pos="l" depth="2" NCoef="0" IVar="-1" Cut="0.0000000000000000e+00" cType="1" res="-4.7706378973089159e-04" rms="4.5747712254524231e-01" purity="5.1527917385101318e-01" nType="-99"/>
          <Node pos="r" depth="2" NCoef="0" IVar="-1" Cut="0.0000000000000000e+00" cType="1" res="1.3107081176713109e-03" rms="4.4160035252571106e-01" purity="6.3692945241928101e-01" nType="-99"/>
        </Node>
      </Node>
    </BinaryTree>
    <BinaryTree type="DecisionTree" boostWeight="1.0000000000000000e+00" itree="318">
      <Node pos="s" depth="0" NCoef="0" IVar="2" Cut="9.4096350669860840e-01" cType="1" res="8.4678968414664268e-03" rms="4.4198831915855408e-01" purity="5.0268739461898804e-01" nType="0">
        <Node pos="l" depth="1" NCoef="0" IVar="3" Cut="2.1995507812500000e+02" cType="1" res="-6.2489964067935944e-02" rms="4.2682433128356934e-01" purity="2.8294342756271362e-01" nType="0">
          <Node pos="l" depth="2" NCoef="0" IVar="-1" Cut="0.0000000000000000e+00" cType="1" res="-2.2323310840874910e-03" rms="3.9645072817802429e-01" purity="1.9836604595184326e-01" nType="-99"/>
          <Node pos="r" depth="2" NCoef="0" IVar="-1" Cut="0.0000000000000000e+00" cType="1" res="3.3891873317770660e-04" rms="4.4838187098503113e-01" purity="3.8828891515731812e-01" nType="-99"/>
        </Node>
        <Node pos="r" depth="1" NCoef="0" IVar="1" Cut="1.3051407337188721e+00" cType="1" res="5.0172097980976105e-02" rms="4.4541931152343750e-01" purity="6.3183784484863281e-01" nType="0">
          <Node pos="l" depth="2" NCoef="0" IVar="-1" Cut="0.0000000000000000e+00" cType="1" res="1.2972305994480848e-03" rms="4.3765765428543091e-01" purity="7.0715910196304321e-01" nType="-99"/>
          <Node pos="r" depth="2" NCoef="0" IVar="-1" Cut="0.0000000000000000e+00" cType="1" res="-1.2098393635824323e-03" rms="4.5180529356002808e-01" purity="3.4795442223548889e-01" nType="-99"/>
        </Node>
      </Node>
    </BinaryTree>
    <BinaryTree type="DecisionTree" boostWeight="1.0000000000000000e+00" itree="319">
      <Node pos="s" depth="0" NCoef="0" IVar="1" Cut="1.1474260091781616e+00" cType="1" res="1.8954275175929070e-02" rms="4.4979649782180786e-01" purity="5.2084696292877197e-01" nType="0">
        <Node pos="l" depth="1" NCoef="0" IVar="3" Cut="1.2860043334960938e+02" cType="1" res="5.1076404750347137e-02" rms="4.5550787448883057e-01" purity="5.9773755073547363e-01" nType="0">
          <Node pos="l" depth="2" NCoef="0" IVar="-1" Cut="0.0000000000000000e+00" cType="1" res="-2.3618568666279316e-03" rms="4.2408633232116699e-01" purity="3.0760794878005981e-01" nType="-99"/>
          <Node pos="r" depth="2" NCoef="0" IVar="-1" Cut="0.0000000000000000e+00" cType="1" res="1.1141175637021661e-03" rms="4.5368015766143799e-01" purity="6.2772226333618164e-01" nType="-99"/>
        </Node>
        <Node pos="r" depth="1" NCoef="0" IVar="3" Cut="2.4005560302734375e+02" cType="1" res="-6.4829245209693909e-02" rms="4.2322540283203125e-01" purity="3.2029455900192261e-01" nType="0">
          <Node pos="l" depth="2" NCoef="0" IVar="-1" Cut="0.0000000000000000e+00" cType="1" res="-2.5618027430027723e-03" rms="3.9364847540855408e-01" purity="2.3405294120311737e-01" nType="-99"/>
          <Node pos="r" depth="2" NCoef="0" IVar="-1" Cut="0.0000000000000000e+00" cType="1" res="-2.1448306506499648e-04" rms="4.3408057093620300e-01" purity="3.7773647904396057e-01" nType="-99"/>
        </Node>
      </Node>
    </BinaryTree>
    <BinaryTree type="DecisionTree" boostWeight="1.0000000000000000e+00" itree="320">
      <Node pos="s" depth="0" NCoef="0" IVar="2" Cut="9.7532635927200317e-01" cType="1" res="1.6948472708463669e-02" rms="4.4638326764106750e-01" purity="5.1148647069931030e-01" nType="0">
        <Node pos="l" depth="1" NCoef="0" IVar="3" Cut="2.0779588317871094e+02" cType="1" res="-3.7714440841227770e-03" rms="4.5791473984718323e-01" purity="4.5668306946754456e-01" nType="0">
          <Node pos="l" depth="2" NCoef="0" IVar="-1" Cut="0.0000000000000000e+00" cType="1" res="-9.1359997168183327e-04" rms="4.5859673619270325e-01" purity="3.8344296813011169e-01" nType="-99"/>
          <Node pos="r" depth="2" NCoef="0" IVar="-1" Cut="0.0000000000000000e+00" cType="1" res="8.4837677422910929e-04" rms="4.5037898421287537e-01" purity="5.3527057170867920e-01" nType="-99"/>
        </Node>
        <Node pos="r" depth="1" NCoef="0" IVar="4" Cut="4.7749252319335938e+02" cType="1" res="1.5249051153659821e-01" rms="3.3145534992218018e-01" purity="8.6998987197875977e-01" nType="0">
          <Node pos="l" depth="2" NCoef="0" IVar="-1" Cut="0.0000000000000000e+00" cType="1" res="3.5667847841978073e-03" rms="2.6082521677017212e-01" purity="9.1591012477874756e-01" nType="-99"/>
          <Node pos="r" depth="2" NCoef="0" IVar="-1" Cut="0.0000000000000000e+00" cType="1" res="1.2556824367493391e-03" rms="3.8570758700370789e-01" purity="8.1328892707824707e-01" nType="-99"/>
        </Node>
      </Node>
    </BinaryTree>
    <BinaryTree type="DecisionTree" boostWeight="1.0000000000000000e+00" itree="321">
      <Node pos="s" depth="0" NCoef="0" IVar="3" Cut="3.7474102783203125e+02" cType="1" res="-1.2005227617919445e-02" rms="4.4841349124908447e-01" purity="4.8516121506690979e-01" nType="0">
        <Node pos="l" depth="1" NCoef="0" IVar="3" Cut="1.9499757385253906e+02" cType="1" res="2.7794956695288420e-03" rms="4.5098292827606201e-01" purity="5.0684380531311035e-01" nType="0">
          <Node pos="l" depth="2" NCoef="0" IVar="-1" Cut="0.0000000000000000e+00" cType="1" res="-9.3250453937798738e-04" rms="4.5661658048629761e-01" purity="3.9824345707893372e-01" nType="-99"/>
          <Node pos="r" depth="2" NCoef="0" IVar="-1" Cut="0.0000000000000000e+00" cType="1" res="8.2777725765481591e-04" rms="4.4041615724563599e-01" purity="5.9454512596130371e-01" nType="-99"/>
        </Node>
        <Node pos="r" depth="1" NCoef="0" IVar="-1" Cut="0.0000000000000000e+00" cType="1" res="-2.6097754016518593e-03" rms="3.9902028441429138e-01" purity="2.8540205955505371e-01" nType="-99"/>
      </Node>
    </BinaryTree>
    <BinaryTree type="DecisionTree" boostWeight="1.0000000000000000e+00" itree="322">
      <Node pos="s" depth="0" NCoef="0" IVar="2" Cut="9.1503661870956421e-01" cType="1" res="8.2434602081775665e-03" rms="4.5079022645950317e-01" purity="4.9659249186515808e-01" nType="0">
        <Node pos="l" depth="1" NCoef="0" IVar="-1" Cut="0.0000000000000000e+00" cType="1" res="-3.1133028678596020e-03" rms="3.1882241368293762e-01" purity="1.2210357934236526e-01" nType="-99"/>
        <Node pos="r" depth="1" NCoef="0" IVar="1" Cut="1.1007227897644043e+00" cType="1" res="2.3180341348052025e-02" rms="4.5745813846588135e-01" purity="5.2919483184814453e-01" nType="0">
          <Node pos="l" depth="2" NCoef="0" IVar="-1" Cut="0.0000000000000000e+00" cType="1" res="8.6891785031184554e-04" rms="4.5571714639663696e-01" purity="6.2260603904724121e-01" nType="-99"/>
          <Node pos="r" depth="2" NCoef="0" IVar="-1" Cut="0.0000000000000000e+00" cType="1" res="-6.3094357028603554e-04" rms="4.5461800694465637e-01" purity="3.5636362433433533e-01" nType="-99"/>
        </Node>
      </Node>
    </BinaryTree>
    <BinaryTree type="DecisionTree" boostWeight="1.0000000000000000e+00" itree="323">
      <Node pos="s" depth="0" NCoef="0" IVar="3" Cut="1.2290678405761719e+02" cType="1" res="1.6100095584988594e-02" rms="4.4288873672485352e-01" purity="5.1814126968383789e-01" nType="0">
        <Node pos="l" depth="1" NCoef="0" IVar="-1" Cut="0.0000000000000000e+00" cType="1" res="-3.4457510337233543e-03" rms="3.7001740932464600e-01" purity="2.1064363420009613e-01" nType="-99"/>
        <Node pos="r" depth="1" NCoef="0" IVar="2" Cut="9.4082611799240112e-01" cType="1" res="2.7403486892580986e-02" rms="4.4358316063880920e-01" purity="5.3448110818862915e-01" nType="0">
          <Node pos="l" depth="2" NCoef="0" IVar="-1" Cut="0.0000000000000000e+00" cType="1" res="-5.8355368673801422e-04" rms="4.4039943814277649e-01" purity="3.1801703572273254e-01" nType="-99"/>
          <Node pos="r" depth="2" NCoef="0" IVar="-1" Cut="0.0000000000000000e+00" cType="1" res="9.5443782629445195e-04" rms="4.4168388843536377e-01" purity="6.5379375219345093e-01" nType="-99"/>
        </Node>
      </Node>
    </BinaryTree>
    <BinaryTree type="DecisionTree" boostWeight="1.0000000000000000e+00" itree="324">
      <Node pos="s" depth="0" NCoef="0" IVar="1" Cut="1.3615680932998657e+00" cType="1" res="3.1960746273398399e-03" rms="4.5265758037567139e-01" purity="4.9769306182861328e-01" nType="0">
        <Node pos="l" depth="1" NCoef="0" IVar="4" Cut="7.4464385986328125e+02" cType="1" res="2.7507657185196877e-02" rms="4.6053841710090637e-01" purity="5.5039709806442261e-01" nType="0">
          <Node pos="l" depth="2" NCoef="0" IVar="-1" Cut="0.0000000000000000e+00" cType="1" res="2.0701631729025394e-04" rms="4.6311745047569275e-01" purity="5.2831804752349854e-01" nType="-99"/>
          <Node pos="r" depth="2" NCoef="0" IVar="-1" Cut="0.0000000000000000e+00" cType="1" res="2.8456447180360556e-03" rms="3.9869681000709534e-01" purity="7.9137367010116577e-01" nType="-99"/>
        </Node>
        <Node pos="r" depth="1" NCoef="0" IVar="6" Cut="9.6153616905212402e-01" cType="1" res="-1.2978008389472961e-01" rms="3.8028866052627563e-01" purity="2.0941963791847229e-01" nType="0">
          <Node pos="l" depth="2" NCoef="0" IVar="-1" Cut="0.0000000000000000e+00" cType="1" res="-1.6577891074120998e-03" rms="3.9315137267112732e-01" purity="2.4774630367755890e-01" nType="-99"/>
          <Node pos="r" depth="2" NCoef="0" IVar="-1" Cut="0.0000000000000000e+00" cType="1" res="-4.0315948426723480e-03" rms="3.4587302803993225e-01" purity="1.4239107072353363e-01" nType="-99"/>
        </Node>
      </Node>
    </BinaryTree>
    <BinaryTree type="DecisionTree" boostWeight="1.0000000000000000e+00" itree="325">
      <Node pos="s" depth="0" NCoef="0" IVar="4" Cut="4.3509429931640625e+02" cType="1" res="3.2913961913436651e-03" rms="4.4575098156929016e-01" purity="5.0725907087326050e-01" nType="0">
        <Node pos="l" depth="1" NCoef="0" IVar="2" Cut="9.4096350669860840e-01" cType="1" res="-5.0148647278547287e-02" rms="4.3505847454071045e-01" purity="3.9162924885749817e-01" nType="0">
          <Node pos="l" depth="2" NCoef="0" IVar="-1" Cut="0.0000000000000000e+00" cType="1" res="-2.2102959919720888e-03" rms="3.6853599548339844e-01" purity="1.7917534708976746e-01" nType="-99"/>
          <Node pos="r" depth="2" NCoef="0" IVar="-1" Cut="0.0000000000000000e+00" cType="1" res="1.5294572222046554e-05" rms="4.7155871987342834e-01" purity="5.4766827821731567e-01" nType="-99"/>
        </Node>
        <Node pos="r" depth="1" NCoef="0" IVar="1" Cut="1.0915826559066772e+00" cType="1" res="5.1300331950187683e-02" rms="4.4976037740707397e-01" purity="6.1113750934600830e-01" nType="0">
          <Node pos="l" depth="2" NCoef="0" IVar="-1" Cut="0.0000000000000000e+00" cType="1" res="1.3056178577244282e-03" rms="4.3976408243179321e-01" purity="6.8178015947341919e-01" nType="-99"/>
          <Node pos="r" depth="2" NCoef="0" IVar="-1" Cut="0.0000000000000000e+00" cType="1" res="-5.3600163664668798e-04" rms="4.6472120285034180e-01" purity="4.2443093657493591e-01" nType="-99"/>
        </Node>
      </Node>
    </BinaryTree>
    <BinaryTree type="DecisionTree" boostWeight="1.0000000000000000e+00" itree="326">
      <Node pos="s" depth="0" NCoef="0" IVar="2" Cut="9.8012572526931763e-01" cType="1" res="-1.6324656084179878e-02" rms="4.4281026721000671e-01" purity="4.7477963566780090e-01" nType="0">
        <Node pos="l" depth="1" NCoef="0" IVar="4" Cut="4.8916452026367188e+02" cType="1" res="-3.0088627710938454e-02" rms="4.4875195622444153e-01" purity="4.3951913714408875e-01" nType="0">
          <Node pos="l" depth="2" NCoef="0" IVar="-1" Cut="0.0000000000000000e+00" cType="1" res="-1.0694913798943162e-03" rms="4.3740540742874146e-01" purity="3.6270093917846680e-01" nType="-99"/>
          <Node pos="r" depth="2" NCoef="0" IVar="-1" Cut="0.0000000000000000e+00" cType="1" res="3.6276344326324761e-04" rms="4.6104550361633301e-01" purity="5.6070232391357422e-01" nType="-99"/>
        </Node>
        <Node pos="r" depth="1" NCoef="0" IVar="-1" Cut="0.0000000000000000e+00" cType="1" res="2.3576363455504179e-03" rms="3.3626314997673035e-01" purity="8.6165809631347656e-01" nType="-99"/>
      </Node>
    </BinaryTree>
    <BinaryTree type="DecisionTree" boostWeight="1.0000000000000000e+00" itree="327">
      <Node pos="s" depth="0" NCoef="0" IVar="2" Cut="9.5404827594757080e-01" cType="1" res="-2.6760394684970379e-03" rms="4.4486850500106812e-01" purity="4.9096351861953735e-01" nType="0">
        <Node pos="l" depth="1" NCoef="0" IVar="0" Cut="5.2140411376953125e+02" cType="1" res="-4.5137386769056320e-02" rms="4.4432953000068665e-01" purity="3.4174892306327820e-01" nType="0">
          <Node pos="l" depth="2" NCoef="0" IVar="-1" Cut="0.0000000000000000e+00" cType="1" res="-1.0445690713822842e-03" rms="4.3894854187965393e-01" purity="3.1390726566314697e-01" nType="-99"/>
          <Node pos="r" depth="2" NCoef="0" IVar="-1" Cut="0.0000000000000000e+00" cType="1" res="2.0512740593403578e-03" rms="4.5733937621116638e-01" purity="6.2417560815811157e-01" nType="-99"/>
        </Node>
        <Node pos="r" depth="1" NCoef="0" IVar="6" Cut="8.1948167085647583e-01" cType="1" res="5.9829793870449066e-02" rms="4.3823787569999695e-01" purity="7.1061694622039795e-01" nType="0">
          <Node pos="l" depth="2" NCoef="0" IVar="-1" Cut="0.0000000000000000e+00" cType="1" res="1.4774312730878592e-03" rms="4.1539138555526733e-01" purity="7.5774526596069336e-01" nType="-99"/>
          <Node pos="r" depth="2" NCoef="0" IVar="-1" Cut="0.0000000000000000e+00" cType="1" res="-4.4446677202358842e-04" rms="4.8642912507057190e-01" purity="5.7782721519470215e-01" nType="-99"/>
        </Node>
      </Node>
    </BinaryTree>
    <BinaryTree type="DecisionTree" boostWeight="1.0000000000000000e+00" itree="328">
      <Node pos="s" depth="0" NCoef="0" IVar="6" Cut="8.4954345226287842e-01" cType="1" res="-9.5127094537019730e-03" rms="4.5171853899955750e-01" purity="4.8984757065773010e-01" nType="0">
        <Node pos="l" depth="1" NCoef="0" IVar="0" Cut="2.2392112731933594e+02" cType="1" res="1.8136154860258102e-02" rms="4.5529940724372864e-01" purity="5.4105037450790405e-01" nType="0">
          <Node pos="l" depth="2" NCoef="0" IVar="-1" Cut="0.0000000000000000e+00" cType="1" res="-2.1426656749099493e-03" rms="4.2480474710464478e-01" purity="2.8935137391090393e-01" nType="-99"/>
          <Node pos="r" depth="2" NCoef="0" IVar="-1" Cut="0.0000000000000000e+00" cType="1" res="5.4051569895818830e-04" rms="4.5581072568893433e-01" purity="5.6989753246307373e-01" nType="-99"/>
        </Node>
        <Node pos="r" depth="1" NCoef="0" IVar="3" Cut="1.9769116210937500e+02" cType="1" res="-8.8005520403385162e-02" rms="4.3185383081436157e-01" purity="3.4448707103729248e-01" nType="0">
          <Node pos="l" depth="2" NCoef="0" IVar="-1" Cut="0.0000000000000000e+00" cType="1" res="-2.6330286636948586e-03" rms="3.6796152591705322e-01" purity="2.4918910861015320e-01" nType="-99"/>
          <Node pos="r" depth="2" NCoef="0" IVar="-1" Cut="0.0000000000000000e+00" cType="1" res="-9.2122395290061831e-04" rms="4.5939224958419800e-01" purity="3.9661750197410583e-01" nType="-99"/>
        </Node>
      </Node>
    </BinaryTree>
    <BinaryTree type="DecisionTree" boostWeight="1.0000000000000000e+00" itree="329">
      <Node pos="s" depth="0" NCoef="0" IVar="2" Cut="9.7046798467636108e-01" cType="1" res="-2.2993262391537428e-03" rms="4.4234606623649597e-01" purity="4.9784904718399048e-01" nType="0">
        <Node pos="l" depth="1" NCoef="0" IVar="3" Cut="4.1013626098632812e+02" cType="1" res="-2.4475539103150368e-02" rms="4.5079347491264343e-01" purity="4.3330562114715576e-01" nType="0">
          <Node pos="l" depth="2" NCoef="0" IVar="-1" Cut="0.0000000000000000e+00" cType="1" res="-1.5393295325338840e-04" rms="4.5471531152725220e-01" purity="4.5271107554435730e-01" nType="-99"/>
          <Node pos="r" depth="2" NCoef="0" IVar="-1" Cut="0.0000000000000000e+00" cType="1" res="-2.7343272231519222e-03" rms="3.9061346650123596e-01" purity="2.6147851347923279e-01" nType="-99"/>
        </Node>
        <Node pos="r" depth="1" NCoef="0" IVar="5" Cut="1.3823945617675781e+02" cType="1" res="1.0218537598848343e-01" rms="3.8326030969619751e-01" purity="8.0194991827011108e-01" nType="0">
          <Node pos="l" depth="2" NCoef="0" IVar="-1" Cut="0.0000000000000000e+00" cType="1" res="2.5881587062031031e-03" rms="3.4332266449928284e-01" purity="8.5231190919876099e-01" nType="-99"/>
          <Node pos="r" depth="2" NCoef="0" IVar="-1" Cut="0.0000000000000000e+00" cType="1" res="5.5760036048013717e-05" rms="4.2439299821853638e-01" purity="7.1711170673370361e-01" nType="-99"/>
        </Node>
      </Node>
    </BinaryTree>
    <BinaryTree type="DecisionTree" boostWeight="1.0000000000000000e+00" itree="330">
      <Node pos="s" depth="0" NCoef="0" IVar="1" Cut="7.3660105466842651e-01" cType="1" res="-2.3328443989157677e-02" rms="4.5333835482597351e-01" purity="4.7694572806358337e-01" nType="0">
        <Node pos="l" depth="1" NCoef="0" IVar="3" Cut="1.5853111267089844e+02" cType="1" res="4.3755032122135162e-02" rms="4.5471668243408203e-01" purity="5.9813368320465088e-01" nType="0">
          <Node pos="l" depth="2" NCoef="0" IVar="-1" Cut="0.0000000000000000e+00" cType="1" res="-1.1892652837559581e-03" rms="4.4617602229118347e-01" purity="4.0833061933517456e-01" nType="-99"/>
          <Node pos="r" depth="2" NCoef="0" IVar="-1" Cut="0.0000000000000000e+00" cType="1" res="1.5618145698681474e-03" rms="4.4755443930625916e-01" purity="6.9048053026199341e-01" nType="-99"/>
        </Node>
        <Node pos="r" depth="1" NCoef="0" IVar="1" Cut="9.0346407890319824e-01" cType="1" res="-5.6574963033199310e-02" rms="4.4895407557487488e-01" purity="4.1688504815101624e-01" nType="0">
          <Node pos="l" depth="2" NCoef="0" IVar="-1" Cut="0.0000000000000000e+00" cType="1" res="-2.3906943388283253e-03" rms="4.5175918936729431e-01" purity="4.0872940421104431e-01" nType="-99"/>
          <Node pos="r" depth="2" NCoef="0" IVar="-1" Cut="0.0000000000000000e+00" cType="1" res="-4.3197849299758673e-04" rms="4.4385206699371338e-01" purity="4.1971084475517273e-01" nType="-99"/>
        </Node>
      </Node>
    </BinaryTree>
    <BinaryTree type="DecisionTree" boostWeight="1.0000000000000000e+00" itree="331">
      <Node pos="s" depth="0" NCoef="0" IVar="3" Cut="2.1445574951171875e+02" cType="1" res="1.3811061158776283e-02" rms="4.5391875505447388e-01" purity="5.0971466302871704e-01" nType="0">
        <Node pos="l" depth="1" NCoef="0" IVar="0" Cut="4.0164260864257812e+02" cType="1" res="-3.3009380102157593e-02" rms="4.5716187357902527e-01" purity="4.4681996107101440e-01" nType="0">
          <Node pos="l" depth="2" NCoef="0" IVar="-1" Cut="0.0000000000000000e+00" cType="1" res="-1.9234344654250890e-04" rms="4.5281159877777100e-01" purity="4.5659491419792175e-01" nType="-99"/>
          <Node pos="r" depth="2" NCoef="0" IVar="-1" Cut="0.0000000000000000e+00" cType="1" res="-3.3507007174193859e-03" rms="4.5556721091270447e-01" purity="3.6593866348266602e-01" nType="-99"/>
        </Node>
        <Node pos="r" depth="1" NCoef="0" IVar="3" Cut="2.5918545532226562e+02" cType="1" res="6.2873095273971558e-02" rms="4.4524356722831726e-01" purity="5.7562059164047241e-01" nType="0">
          <Node pos="l" depth="2" NCoef="0" IVar="-1" Cut="0.0000000000000000e+00" cType="1" res="2.5754699017852545e-03" rms="4.1135904192924500e-01" purity="7.2721832990646362e-01" nType="-99"/>
          <Node pos="r" depth="2" NCoef="0" IVar="-1" Cut="0.0000000000000000e+00" cType="1" res="-1.6032278654165566e-04" rms="4.5355889201164246e-01" purity="4.6986544132232666e-01" nType="-99"/>
        </Node>
      </Node>
    </BinaryTree>
    <BinaryTree type="DecisionTree" boostWeight="1.0000000000000000e+00" itree="332">
      <Node pos="s" depth="0" NCoef="0" IVar="2" Cut="9.5379322767257690e-01" cType="1" res="2.4420395493507385e-03" rms="4.3817147612571716e-01" purity="5.0234884023666382e-01" nType="0">
        <Node pos="l" depth="1" NCoef="0" IVar="3" Cut="2.1019490051269531e+02" cType="1" res="-4.5097231864929199e-02" rms="4.4106519222259521e-01" purity="3.4389653801918030e-01" nType="0">
          <Node pos="l" depth="2" NCoef="0" IVar="-1" Cut="0.0000000000000000e+00" cType="1" res="-1.7281661275774240e-03" rms="4.2556235194206238e-01" purity="2.6613911986351013e-01" nType="-99"/>
          <Node pos="r" depth="2" NCoef="0" IVar="-1" Cut="0.0000000000000000e+00" cType="1" res="2.8684671269729733e-04" rms="4.4813889265060425e-01" purity="4.2495727539062500e-01" nType="-99"/>
        </Node>
        <Node pos="r" depth="1" NCoef="0" IVar="4" Cut="4.5334002685546875e+02" cType="1" res="6.7566864192485809e-02" rms="4.2564254999160767e-01" purity="7.1941530704498291e-01" nType="0">
          <Node pos="l" depth="2" NCoef="0" IVar="-1" Cut="0.0000000000000000e+00" cType="1" res="9.4246810476761311e-05" rms="4.5898869633674622e-01" purity="6.3073670864105225e-01" nType="-99"/>
          <Node pos="r" depth="2" NCoef="0" IVar="-1" Cut="0.0000000000000000e+00" cType="1" res="1.8686536932364106e-03" rms="3.8994595408439636e-01" purity="7.9051947593688965e-01" nType="-99"/>
        </Node>
      </Node>
    </BinaryTree>
    <BinaryTree type="DecisionTree" boostWeight="1.0000000000000000e+00" itree="333">
      <Node pos="s" depth="0" NCoef="0" IVar="3" Cut="4.2516021728515625e+02" cType="1" res="1.5901559963822365e-02" rms="4.5261976122856140e-01" purity="5.1123851537704468e-01" nType="0">
        <Node pos="l" depth="1" NCoef="0" IVar="3" Cut="2.3859060668945312e+02" cType="1" res="2.7810815721750259e-02" rms="4.5413097739219666e-01" purity="5.2817451953887939e-01" nType="0">
          <Node pos="l" depth="2" NCoef="0" IVar="-1" Cut="0.0000000000000000e+00" cType="1" res="-4.5731369027635083e-05" rms="4.5314761996269226e-01" purity="4.7793880105018616e-01" nType="-99"/>
          <Node pos="r" depth="2" NCoef="0" IVar="-1" Cut="0.0000000000000000e+00" cType="1" res="1.4078324893489480e-03" rms="4.5019042491912842e-01" purity="6.2456470727920532e-01" nType="-99"/>
        </Node>
        <Node pos="r" depth="1" NCoef="0" IVar="-1" Cut="0.0000000000000000e+00" cType="1" res="-3.3135437406599522e-03" rms="3.7568396329879761e-01" purity="2.3135064542293549e-01" nType="-99"/>
      </Node>
    </BinaryTree>
    <BinaryTree type="DecisionTree" boostWeight="1.0000000000000000e+00" itree="334">
      <Node pos="s" depth="0" NCoef="0" IVar="3" Cut="2.1695512390136719e+02" cType="1" res="-6.6022016108036041e-03" rms="4.5140898227691650e-01" purity="4.8655146360397339e-01" nType="0">
        <Node pos="l" depth="1" NCoef="0" IVar="2" Cut="9.6416938304901123e-01" cType="1" res="-4.1367165744304657e-02" rms="4.4880467653274536e-01" purity="4.3664920330047607e-01" nType="0">
          <Node pos="l" depth="2" NCoef="0" IVar="-1" Cut="0.0000000000000000e+00" cType="1" res="-1.1824857210740447e-03" rms="4.5058625936508179e-01" purity="3.4130322933197021e-01" nType="-99"/>
          <Node pos="r" depth="2" NCoef="0" IVar="-1" Cut="0.0000000000000000e+00" cType="1" res="1.1281622573733330e-03" rms="4.2478808760643005e-01" purity="7.5144970417022705e-01" nType="-99"/>
        </Node>
        <Node pos="r" depth="1" NCoef="0" IVar="6" Cut="5.8250963687896729e-01" cType="1" res="3.2741766422986984e-02" rms="4.5111814141273499e-01" purity="5.4302656650543213e-01" nType="0">
          <Node pos="l" depth="2" NCoef="0" IVar="-1" Cut="0.0000000000000000e+00" cType="1" res="2.1110144443809986e-03" rms="4.0187078714370728e-01" purity="7.2893738746643066e-01" nType="-99"/>
          <Node pos="r" depth="2" NCoef="0" IVar="-1" Cut="0.0000000000000000e+00" cType="1" res="-2.4529997608624399e-04" rms="4.6570864319801331e-01" purity="4.5311662554740906e-01" nType="-99"/>
        </Node>
      </Node>
    </BinaryTree>
    <BinaryTree type="DecisionTree" boostWeight="1.0000000000000000e+00" itree="335">
      <Node pos="s" depth="0" NCoef="0" IVar="0" Cut="2.9869934082031250e+02" cType="1" res="1.1252461932599545e-02" rms="4.4152024388313293e-01" purity="5.1418554782867432e-01" nType="0">
        <Node pos="l" depth="1" NCoef="0" IVar="2" Cut="9.6197336912155151e-01" cType="1" res="-5.5804058909416199e-02" rms="4.3737295269966125e-01" purity="3.8274192810058594e-01" nType="0">
          <Node pos="l" depth="2" NCoef="0" IVar="-1" Cut="0.0000000000000000e+00" cType="1" res="-1.6656095394864678e-03" rms="4.2658969759941101e-01" purity="2.6941499114036560e-01" nType="-99"/>
          <Node pos="r" depth="2" NCoef="0" IVar="-1" Cut="0.0000000000000000e+00" cType="1" res="1.0006097145378590e-03" rms="4.4642713665962219e-01" purity="7.1222233772277832e-01" nType="-99"/>
        </Node>
        <Node pos="r" depth="1" NCoef="0" IVar="3" Cut="1.7410237121582031e+02" cType="1" res="6.1208695173263550e-02" rms="4.3796131014823914e-01" purity="6.1210930347442627e-01" nType="0">
          <Node pos="l" depth="2" NCoef="0" IVar="-1" Cut="0.0000000000000000e+00" cType="1" res="-1.1113098589703441e-03" rms="4.7421073913574219e-01" purity="4.4943815469741821e-01" nType="-99"/>
          <Node pos="r" depth="2" NCoef="0" IVar="-1" Cut="0.0000000000000000e+00" cType="1" res="1.4435403281822801e-03" rms="4.2279818654060364e-01" purity="6.5075117349624634e-01" nType="-99"/>
        </Node>
      </Node>
    </BinaryTree>
    <BinaryTree type="DecisionTree" boostWeight="1.0000000000000000e+00" itree="336">
      <Node pos="s" depth="0" NCoef="0" IVar="3" Cut="1.8079504394531250e+02" cType="1" res="4.0014972910284996e-03" rms="4.4907575845718384e-01" purity="5.0225532054901123e-01" nType="0">
        <Node pos="l" depth="1" NCoef="0" IVar="0" Cut="3.0630584716796875e+02" cType="1" res="-5.8193527162075043e-02" rms="4.6310985088348389e-01" purity="4.0339022874832153e-01" nType="0">
          <Node pos="l" depth="2" NCoef="0" IVar="-1" Cut="0.0000000000000000e+00" cType="1" res="-9.4443552370648831e-05" rms="4.5138865709304810e-01" purity="4.4630080461502075e-01" nType="-99"/>
          <Node pos="r" depth="2" NCoef="0" IVar="-1" Cut="0.0000000000000000e+00" cType="1" res="-2.8683429118245840e-03" rms="4.6726867556571960e-01" purity="3.0553820729255676e-01" nType="-99"/>
        </Node>
        <Node pos="r" depth="1" NCoef="0" IVar="0" Cut="2.8435714721679688e+02" cType="1" res="3.8218695670366287e-02" rms="4.3740952014923096e-01" purity="5.5664694309234619e-01" nType="0">
          <Node pos="l" depth="2" NCoef="0" IVar="-1" Cut="0.0000000000000000e+00" cType="1" res="-1.3816507998853922e-03" rms="4.0963113307952881e-01" purity="3.3300286531448364e-01" nType="-99"/>
          <Node pos="r" depth="2" NCoef="0" IVar="-1" Cut="0.0000000000000000e+00" cType="1" res="1.3211121549829841e-03" rms="4.3907344341278076e-01" purity="6.3899689912796021e-01" nType="-99"/>
        </Node>
      </Node>
    </BinaryTree>
    <BinaryTree type="DecisionTree" boostWeight="1.0000000000000000e+00" itree="337">
      <Node pos="s" depth="0" NCoef="0" IVar="1" Cut="7.8667825460433960e-01" cType="1" res="5.4424628615379333e-03" rms="4.4676837325096130e-01" purity="5.0294661521911621e-01" nType="0">
        <Node pos="l" depth="1" NCoef="0" IVar="2" Cut="9.2192882299423218e-01" cType="1" res="9.1721870005130768e-02" rms="4.2655849456787109e-01" purity="6.4997756481170654e-01" nType="0">
          <Node pos="l" depth="2" NCoef="0" IVar="-1" Cut="0.0000000000000000e+00" cType="1" res="-1.3803151668980718e-03" rms="4.1306442022323608e-01" purity="2.4970865249633789e-01" nType="-99"/>
          <Node pos="r" depth="2" NCoef="0" IVar="-1" Cut="0.0000000000000000e+00" cType="1" res="1.9175985362380743e-03" rms="4.2120540142059326e-01" purity="7.2650945186614990e-01" nType="-99"/>
        </Node>
        <Node pos="r" depth="1" NCoef="0" IVar="1" Cut="1.2607431411743164e+00" cType="1" res="-4.4476665556430817e-02" rms="4.5057168602943420e-01" purity="4.1787815093994141e-01" nType="0">
          <Node pos="l" depth="2" NCoef="0" IVar="-1" Cut="0.0000000000000000e+00" cType="1" res="-2.0268138905521482e-04" rms="4.5909208059310913e-01" purity="5.0468814373016357e-01" nType="-99"/>
          <Node pos="r" depth="2" NCoef="0" IVar="-1" Cut="0.0000000000000000e+00" cType="1" res="-1.8178174505010247e-03" rms="4.2981529235839844e-01" purity="2.6671215891838074e-01" nType="-99"/>
        </Node>
      </Node>
    </BinaryTree>
    <BinaryTree type="DecisionTree" boostWeight="1.0000000000000000e+00" itree="338">
      <Node pos="s" depth="0" NCoef="0" IVar="3" Cut="2.0333737182617188e+02" cType="1" res="-2.4696467444300652e-02" rms="4.4388034939765930e-01" purity="4.7332924604415894e-01" nType="0">
        <Node pos="l" depth="1" NCoef="0" IVar="5" Cut="1.3984294128417969e+02" cType="1" res="-7.9456448554992676e-02" rms="4.4746503233909607e-01" purity="3.9601725339889526e-01" nType="0">
          <Node pos="l" depth="2" NCoef="0" IVar="-1" Cut="0.0000000000000000e+00" cType="1" res="-7.9063989687711000e-04" rms="4.4415354728698730e-01" purity="4.1796976327896118e-01" nType="-99"/>
          <Node pos="r" depth="2" NCoef="0" IVar="-1" Cut="0.0000000000000000e+00" cType="1" res="-3.3819281961768866e-03" rms="4.3825924396514893e-01" purity="3.1020799279212952e-01" nType="-99"/>
        </Node>
        <Node pos="r" depth="1" NCoef="0" IVar="1" Cut="1.0987240076065063e+00" cType="1" res="1.9369550049304962e-02" rms="4.3600881099700928e-01" purity="5.3554314374923706e-01" nType="0">
          <Node pos="l" depth="2" NCoef="0" IVar="-1" Cut="0.0000000000000000e+00" cType="1" res="1.6411639517173171e-03" rms="4.2326217889785767e-01" purity="7.2123879194259644e-01" nType="-99"/>
          <Node pos="r" depth="2" NCoef="0" IVar="-1" Cut="0.0000000000000000e+00" cType="1" res="-1.3340484583750367e-03" rms="4.3063551187515259e-01" purity="3.1842702627182007e-01" nType="-99"/>
        </Node>
      </Node>
    </BinaryTree>
    <BinaryTree type="DecisionTree" boostWeight="1.0000000000000000e+00" itree="339">
      <Node pos="s" depth="0" NCoef="0" IVar="3" Cut="1.9048048400878906e+02" cType="1" res="-5.4223216138780117e-03" rms="4.4983881711959839e-01" purity="4.8571756482124329e-01" nType="0">
        <Node pos="l" depth="1" NCoef="0" IVar="6" Cut="8.9643377065658569e-01" cType="1" res="-6.1192404478788376e-02" rms="4.5553648471832275e-01" purity="4.0004032850265503e-01" nType="0">
          <Node pos="l" depth="2" NCoef="0" IVar="-1" Cut="0.0000000000000000e+00" cType="1" res="-1.5584657667204738e-03" rms="4.4460073113441467e-01" purity="3.7773358821868896e-01" nType="-99"/>
          <Node pos="r" depth="2" NCoef="0" IVar="-1" Cut="0.0000000000000000e+00" cType="1" res="1.5520477900281549e-03" rms="4.7396248579025269e-01" purity="5.0537854433059692e-01" nType="-99"/>
        </Node>
        <Node pos="r" depth="1" NCoef="0" IVar="1" Cut="1.6129677295684814e+00" cType="1" res="3.2205238938331604e-02" rms="4.4199573993682861e-01" purity="5.4352319240570068e-01" nType="0">
          <Node pos="l" depth="2" NCoef="0" IVar="-1" Cut="0.0000000000000000e+00" cType="1" res="8.8072975631803274e-04" rms="4.5123741030693054e-01" purity="6.0158658027648926e-01" nType="-99"/>
          <Node pos="r" depth="2" NCoef="0" IVar="-1" Cut="0.0000000000000000e+00" cType="1" res="-2.4839858524501324e-03" rms="3.3836305141448975e-01" purity="1.6498462855815887e-01" nType="-99"/>
        </Node>
      </Node>
    </BinaryTree>
    <BinaryTree type="DecisionTree" boostWeight="1.0000000000000000e+00" itree="340">
      <Node pos="s" depth="0" NCoef="0" IVar="1" Cut="1.3148587942123413e+00" cType="1" res="-1.3042461127042770e-02" rms="4.4199809432029724e-01" purity="4.7851887345314026e-01" nType="0">
        <Node pos="l" depth="1" NCoef="0" IVar="5" Cut="1.9384602355957031e+02" cType="1" res="1.5499777160584927e-02" rms="4.5576500892639160e-01" purity="5.4757106304168701e-01" nType="0">
          <Node pos="l" depth="2" NCoef="0" IVar="-1" Cut="0.0000000000000000e+00" cType="1" res="6.1724905390292406e-04" rms="4.4592419266700745e-01" purity="5.5748629570007324e-01" nType="-99"/>
          <Node pos="r" depth="2" NCoef="0" IVar="-1" Cut="0.0000000000000000e+00" cType="1" res="-1.4923346461728215e-03" rms="4.8411178588867188e-01" purity="5.0188696384429932e-01" nType="-99"/>
        </Node>
        <Node pos="r" depth="1" NCoef="0" IVar="2" Cut="9.4252508878707886e-01" cType="1" res="-1.2961417436599731e-01" rms="3.5772603750228882e-01" purity="1.9649724662303925e-01" nType="0">
          <Node pos="l" depth="2" NCoef="0" IVar="-1" Cut="0.0000000000000000e+00" cType="1" res="-4.0276995860040188e-03" rms="2.3102557659149170e-01" purity="6.2710046768188477e-02" nType="-99"/>
          <Node pos="r" depth="2" NCoef="0" IVar="-1" Cut="0.0000000000000000e+00" cType="1" res="-1.0516208130866289e-03" rms="4.5780387520790100e-01" purity="3.5766386985778809e-01" nType="-99"/>
        </Node>
      </Node>
    </BinaryTree>
    <BinaryTree type="DecisionTree" boostWeight="1.0000000000000000e+00" itree="341">
      <Node pos="s" depth="0" NCoef="0" IVar="0" Cut="2.7926400756835938e+02" cType="1" res="-1.2164640240371227e-02" rms="4.4141295552253723e-01" purity="4.8983806371688843e-01" nType="0">
        <Node pos="l" depth="1" NCoef="0" IVar="1" Cut="1.0409586429595947e+00" cType="1" res="-9.0223826467990875e-02" rms="4.2108854651451111e-01" purity="3.2027977705001831e-01" nType="0">
          <Node pos="l" depth="2" NCoef="0" IVar="-1" Cut="0.0000000000000000e+00" cType="1" res="-5.6823971681296825e-04" rms="4.5641466975212097e-01" purity="4.2484945058822632e-01" nType="-99"/>
          <Node pos="r" depth="2" NCoef="0" IVar="-1" Cut="0.0000000000000000e+00" cType="1" res="-2.9254874680191278e-03" rms="3.6346763372421265e-01" purity="1.9499589502811432e-01" nType="-99"/>
        </Node>
        <Node pos="r" depth="1" NCoef="0" IVar="3" Cut="1.7910127258300781e+02" cType="1" res="2.5776721537113190e-02" rms="4.4605457782745361e-01" purity="5.7225334644317627e-01" nType="0">
          <Node pos="l" depth="2" NCoef="0" IVar="-1" Cut="0.0000000000000000e+00" cType="1" res="-1.8379477551206946e-03" rms="4.5730718970298767e-01" purity="3.8123393058776855e-01" nType="-99"/>
          <Node pos="r" depth="2" NCoef="0" IVar="-1" Cut="0.0000000000000000e+00" cType="1" res="9.7388995345681906e-04" rms="4.3628934025764465e-01" purity="6.1932337284088135e-01" nType="-99"/>
        </Node>
      </Node>
    </BinaryTree>
    <BinaryTree type="DecisionTree" boostWeight="1.0000000000000000e+00" itree="342">
      <Node pos="s" depth="0" NCoef="0" IVar="4" Cut="3.0837808227539062e+02" cType="1" res="5.9824464842677116e-03" rms="4.5024833083152771e-01" purity="5.0615262985229492e-01" nType="0">
        <Node pos="l" depth="1" NCoef="0" IVar="-1" Cut="0.0000000000000000e+00" cType="1" res="-3.4135263413190842e-03" rms="3.5462486743927002e-01" purity="2.0222875475883484e-01" nType="-99"/>
        <Node pos="r" depth="1" NCoef="0" IVar="3" Cut="4.5864749145507812e+02" cType="1" res="1.7719110473990440e-02" rms="4.5307043194770813e-01" purity="5.2536725997924805e-01" nType="0">
          <Node pos="l" depth="2" NCoef="0" IVar="-1" Cut="0.0000000000000000e+00" cType="1" res="4.5430229511111975e-04" rms="4.5362830162048340e-01" purity="5.4121959209442139e-01" nType="-99"/>
          <Node pos="r" depth="2" NCoef="0" IVar="-1" Cut="0.0000000000000000e+00" cType="1" res="-2.8879065066576004e-03" rms="3.9986428618431091e-01" purity="2.4610193073749542e-01" nType="-99"/>
        </Node>
      </Node>
    </BinaryTree>
    <BinaryTree type="DecisionTree" boostWeight="1.0000000000000000e+00" itree="343">
      <Node pos="s" depth="0" NCoef="0" IVar="2" Cut="9.6330130100250244e-01" cType="1" res="4.1110131889581680e-02" rms="4.4453656673431396e-01" purity="5.3902846574783325e-01" nType="0">
        <Node pos="l" depth="1" NCoef="0" IVar="1" Cut="1.7166143655776978e+00" cType="1" res="9.5661403611302376e-03" rms="4.6407610177993774e-01" purity="4.3508917093276978e-01" nType="0">
          <Node pos="l" depth="2" NCoef="0" IVar="-1" Cut="0.0000000000000000e+00" cType="1" res="3.1585121178068221e-04" rms="4.7221902012825012e-01" purity="4.5993211865425110e-01" nType="-99"/>
          <Node pos="r" depth="2" NCoef="0" IVar="-1" Cut="0.0000000000000000e+00" cType="1" res="-3.0936317052692175e-03" rms="3.0358007550239563e-01" purity="1.0260380804538727e-01" nType="-99"/>
        </Node>
        <Node pos="r" depth="1" NCoef="0" IVar="2" Cut="9.8261570930480957e-01" cType="1" res="1.2460659444332123e-01" rms="3.7551704049110413e-01" purity="8.1415408849716187e-01" nType="0">
          <Node pos="l" depth="2" NCoef="0" IVar="-1" Cut="0.0000000000000000e+00" cType="1" res="1.6632903134450316e-03" rms="4.0510910749435425e-01" purity="7.7819734811782837e-01" nType="-99"/>
          <Node pos="r" depth="2" NCoef="0" IVar="-1" Cut="0.0000000000000000e+00" cType="1" res="3.0620936304330826e-03" rms="2.8288048505783081e-01" purity="9.0282624959945679e-01" nType="-99"/>
        </Node>
      </Node>
    </BinaryTree>
    <BinaryTree type="DecisionTree" boostWeight="1.0000000000000000e+00" itree="344">
      <Node pos="s" depth="0" NCoef="0" IVar="2" Cut="9.8027706146240234e-01" cType="1" res="-3.8140136748552322e-03" rms="4.4798019528388977e-01" purity="4.8728519678115845e-01" nType="0">
        <Node pos="l" depth="1" NCoef="0" IVar="6" Cut="9.1686797142028809e-01" cType="1" res="-1.6401221975684166e-02" rms="4.5540368556976318e-01" purity="4.5399558544158936e-01" nType="0">
          <Node pos="l" depth="2" NCoef="0" IVar="-1" Cut="0.0000000000000000e+00" cType="1" res="7.7711651101708412e-05" rms="4.5899340510368347e-01" purity="4.9606284499168396e-01" nType="-99"/>
          <Node pos="r" depth="2" NCoef="0" IVar="-1" Cut="0.0000000000000000e+00" cType="1" res="-1.6460670158267021e-03" rms="4.3299719691276550e-01" purity="2.9908278584480286e-01" nType="-99"/>
        </Node>
        <Node pos="r" depth="1" NCoef="0" IVar="-1" Cut="0.0000000000000000e+00" cType="1" res="2.4568142835050821e-03" rms="3.1818139553070068e-01" purity="8.6868703365325928e-01" nType="-99"/>
      </Node>
    </BinaryTree>
    <BinaryTree type="DecisionTree" boostWeight="1.0000000000000000e+00" itree="345">
      <Node pos="s" depth="0" NCoef="0" IVar="4" Cut="3.0471978759765625e+02" cType="1" res="-1.3093519955873489e-02" rms="4.4903180003166199e-01" purity="4.9007427692413330e-01" nType="0">
        <Node pos="l" depth="1" NCoef="0" IVar="-1" Cut="0.0000000000000000e+00" cType="1" res="-3.5902273375540972e-03" rms="3.8571307063102722e-01" purity="1.6721516847610474e-01" nType="-99"/>
        <Node pos="r" depth="1" NCoef="0" IVar="4" Cut="8.5138055419921875e+02" cType="1" res="-1.9412112887948751e-03" rms="4.5025372505187988e-01" purity="5.0991129875183105e-01" nType="0">
          <Node pos="l" depth="2" NCoef="0" IVar="-1" Cut="0.0000000000000000e+00" cType="1" res="-2.1631733397953212e-04" rms="4.5033070445060730e-01" purity="4.9432241916656494e-01" nType="-99"/>
          <Node pos="r" depth="2" NCoef="0" IVar="-1" Cut="0.0000000000000000e+00" cType="1" res="2.8910404071211815e-03" rms="4.0222069621086121e-01" purity="7.7369725704193115e-01" nType="-99"/>
        </Node>
      </Node>
    </BinaryTree>
    <BinaryTree type="DecisionTree" boostWeight="1.0000000000000000e+00" itree="346">
      <Node pos="s" depth="0" NCoef="0" IVar="3" Cut="4.0082501220703125e+02" cType="1" res="4.3897777795791626e-03" rms="4.4539633393287659e-01" purity="4.9847421050071716e-01" nType="0">
        <Node pos="l" depth="1" NCoef="0" IVar="2" Cut="9.3715107440948486e-01" cType="1" res="2.0974870771169662e-02" rms="4.4740614295005798e-01" purity="5.1948779821395874e-01" nType="0">
          <Node pos="l" depth="2" NCoef="0" IVar="-1" Cut="0.0000000000000000e+00" cType="1" res="-1.1834767647087574e-03" rms="4.2358285188674927e-01" purity="2.6185953617095947e-01" nType="-99"/>
          <Node pos="r" depth="2" NCoef="0" IVar="-1" Cut="0.0000000000000000e+00" cType="1" res="9.8403147421777248e-04" rms="4.5218014717102051e-01" purity="6.4069885015487671e-01" nType="-99"/>
        </Node>
        <Node pos="r" depth="1" NCoef="0" IVar="-1" Cut="0.0000000000000000e+00" cType="1" res="-3.5211504437029362e-03" rms="3.6941763758659363e-01" purity="2.5251081585884094e-01" nType="-99"/>
      </Node>
    </BinaryTree>
    <BinaryTree type="DecisionTree" boostWeight="1.0000000000000000e+00" itree="347">
      <Node pos="s" depth="0" NCoef="0" IVar="1" Cut="1.1946874856948853e+00" cType="1" res="1.0549311526119709e-02" rms="4.4868400692939758e-01" purity="5.1286393404006958e-01" nType="0">
        <Node pos="l" depth="1" NCoef="0" IVar="3" Cut="2.3235011291503906e+02" cType="1" res="4.0760207921266556e-02" rms="4.5438686013221741e-01" purity="5.8872318267822266e-01" nType="0">
          <Node pos="l" depth="2" NCoef="0" IVar="-1" Cut="0.0000000000000000e+00" cType="1" res="2.2847591026220471e-04" rms="4.6379959583282471e-01" purity="5.2998954057693481e-01" nType="-99"/>
          <Node pos="r" depth="2" NCoef="0" IVar="-1" Cut="0.0000000000000000e+00" cType="1" res="1.5214388258755207e-03" rms="4.2871636152267456e-01" purity="7.1208143234252930e-01" nType="-99"/>
        </Node>
        <Node pos="r" depth="1" NCoef="0" IVar="3" Cut="3.1289511108398438e+02" cType="1" res="-7.8494675457477570e-02" rms="4.1894987225532532e-01" purity="2.8927561640739441e-01" nType="0">
          <Node pos="l" depth="2" NCoef="0" IVar="-1" Cut="0.0000000000000000e+00" cType="1" res="-5.8844924205914140e-04" rms="4.3900346755981445e-01" purity="3.3574333786964417e-01" nType="-99"/>
          <Node pos="r" depth="2" NCoef="0" IVar="-1" Cut="0.0000000000000000e+00" cType="1" res="-3.3356603235006332e-03" rms="3.5359606146812439e-01" purity="1.8922828137874603e-01" nType="-99"/>
        </Node>
      </Node>
    </BinaryTree>
    <BinaryTree type="DecisionTree" boostWeight="1.0000000000000000e+00" itree="348">
      <Node pos="s" depth="0" NCoef="0" IVar="2" Cut="9.7540009021759033e-01" cType="1" res="-9.4486196758225560e-04" rms="4.4844275712966919e-01" purity="4.9366429448127747e-01" nType="0">
        <Node pos="l" depth="1" NCoef="0" IVar="0" Cut="2.0940931701660156e+02" cType="1" res="-2.0076943561434746e-02" rms="4.5686969161033630e-01" purity="4.4306102395057678e-01" nType="0">
          <Node pos="l" depth="2" NCoef="0" IVar="-1" Cut="0.0000000000000000e+00" cType="1" res="-2.6537394151091576e-03" rms="3.6035040020942688e-01" purity="1.7667792737483978e-01" nType="-99"/>
          <Node pos="r" depth="2" NCoef="0" IVar="-1" Cut="0.0000000000000000e+00" cType="1" res="-1.0759288852568716e-04" rms="4.6392130851745605e-01" purity="4.7125756740570068e-01" nType="-99"/>
        </Node>
        <Node pos="r" depth="1" NCoef="0" IVar="6" Cut="7.6414817571640015e-01" cType="1" res="1.2720371782779694e-01" rms="3.6211481690406799e-01" purity="8.3260947465896606e-01" nType="0">
          <Node pos="l" depth="2" NCoef="0" IVar="-1" Cut="0.0000000000000000e+00" cType="1" res="3.5431617870926857e-03" rms="2.6817649602890015e-01" purity="9.3154376745223999e-01" nType="-99"/>
          <Node pos="r" depth="2" NCoef="0" IVar="-1" Cut="0.0000000000000000e+00" cType="1" res="4.8153995885513723e-04" rms="4.4276538491249084e-01" purity="6.9685822725296021e-01" nType="-99"/>
        </Node>
      </Node>
    </BinaryTree>
    <BinaryTree type="DecisionTree" boostWeight="1.0000000000000000e+00" itree="349">
      <Node pos="s" depth="0" NCoef="0" IVar="1" Cut="7.2842758893966675e-01" cType="1" res="-1.5578781021758914e-03" rms="4.5280304551124573e-01" purity="4.9466112256050110e-01" nType="0">
        <Node pos="l" depth="1" NCoef="0" IVar="3" Cut="1.3614694213867188e+02" cType="1" res="6.6310569643974304e-02" rms="4.4686517119407654e-01" purity="6.1776429414749146e-01" nType="0">
          <Node pos="l" depth="2" NCoef="0" IVar="-1" Cut="0.0000000000000000e+00" cType="1" res="-1.7062260303646326e-03" rms="4.4728076457977295e-01" purity="3.5274532437324524e-01" nType="-99"/>
          <Node pos="r" depth="2" NCoef="0" IVar="-1" Cut="0.0000000000000000e+00" cType="1" res="1.6589328879490495e-03" rms="4.3719720840454102e-01" purity="6.7833322286605835e-01" nType="-99"/>
        </Node>
        <Node pos="r" depth="1" NCoef="0" IVar="0" Cut="2.3146524047851562e+02" cType="1" res="-3.5524740815162659e-02" rms="4.5193496346473694e-01" purity="4.3305033445358276e-01" nType="0">
          <Node pos="l" depth="2" NCoef="0" IVar="-1" Cut="0.0000000000000000e+00" cType="1" res="-2.2232511546462774e-03" rms="3.9139562845230103e-01" purity="2.5825890898704529e-01" nType="-99"/>
          <Node pos="r" depth="2" NCoef="0" IVar="-1" Cut="0.0000000000000000e+00" cType="1" res="-2.8543293592520058e-04" rms="4.6165099740028381e-01" purity="4.6990901231765747e-01" nType="-99"/>
        </Node>
      </Node>
    </BinaryTree>
    <BinaryTree type="DecisionTree" boostWeight="1.0000000000000000e+00" itree="350">
      <Node pos="s" depth="0" NCoef="0" IVar="3" Cut="2.0779588317871094e+02" cType="1" res="-6.8721217103302479e-03" rms="4.4419473409652710e-01" purity="4.9520525336265564e-01" nType="0">
        <Node pos="l" depth="1" NCoef="0" IVar="5" Cut="1.6250743103027344e+02" cType="1" res="-6.6175997257232666e-02" rms="4.4636178016662598e-01" purity="4.0691441297531128e-01" nType="0">
          <Node pos="l" depth="2" NCoef="0" IVar="-1" Cut="0.0000000000000000e+00" cType="1" res="-7.2218233253806829e-04" rms="4.4867956638336182e-01" purity="4.2492064833641052e-01" nType="-99"/>
          <Node pos="r" depth="2" NCoef="0" IVar="-1" Cut="0.0000000000000000e+00" cType="1" res="-3.3759968355298042e-03" rms="4.0622121095657349e-01" purity="2.9820179939270020e-01" nType="-99"/>
        </Node>
        <Node pos="r" depth="1" NCoef="0" IVar="4" Cut="4.3694616699218750e+02" cType="1" res="4.8166193068027496e-02" rms="4.3499967455863953e-01" purity="5.7714551687240601e-01" nType="0">
          <Node pos="l" depth="2" NCoef="0" IVar="-1" Cut="0.0000000000000000e+00" cType="1" res="-9.9712086375802755e-04" rms="4.2076769471168518e-01" purity="3.6637118458747864e-01" nType="-99"/>
          <Node pos="r" depth="2" NCoef="0" IVar="-1" Cut="0.0000000000000000e+00" cType="1" res="1.5485723270103335e-03" rms="4.3292826414108276e-01" purity="6.7281335592269897e-01" nType="-99"/>
        </Node>
      </Node>
    </BinaryTree>
    <BinaryTree type="DecisionTree" boostWeight="1.0000000000000000e+00" itree="351">
      <Node pos="s" depth="0" NCoef="0" IVar="1" Cut="6.4537894725799561e-01" cType="1" res="-1.2087232898920774e-03" rms="4.4875216484069824e-01" purity="4.9850329756736755e-01" nType="0">
        <Node pos="l" depth="1" NCoef="0" IVar="3" Cut="1.7785186767578125e+02" cType="1" res="8.2621991634368896e-02" rms="4.2871370911598206e-01" purity="6.5993511676788330e-01" nType="0">
          <Node pos="l" depth="2" NCoef="0" IVar="-1" Cut="0.0000000000000000e+00" cType="1" res="5.0964761612704024e-05" rms="4.4532987475395203e-01" purity="5.1343536376953125e-01" nType="-99"/>
          <Node pos="r" depth="2" NCoef="0" IVar="-1" Cut="0.0000000000000000e+00" cType="1" res="2.2867892403155565e-03" rms="4.0497091412544250e-01" purity="7.7289265394210815e-01" nType="-99"/>
        </Node>
        <Node pos="r" depth="1" NCoef="0" IVar="4" Cut="3.4464294433593750e+02" cType="1" res="-2.9277903959155083e-02" rms="4.5180186629295349e-01" purity="4.4445079565048218e-01" nType="0">
          <Node pos="l" depth="2" NCoef="0" IVar="-1" Cut="0.0000000000000000e+00" cType="1" res="-2.5828410871326923e-03" rms="3.8631662726402283e-01" purity="2.4065338075160980e-01" nType="-99"/>
          <Node pos="r" depth="2" NCoef="0" IVar="-1" Cut="0.0000000000000000e+00" cType="1" res="-9.8104246717412025e-05" rms="4.6098715066909790e-01" purity="4.8720216751098633e-01" nType="-99"/>
        </Node>
      </Node>
    </BinaryTree>
    <BinaryTree type="DecisionTree" boostWeight="1.0000000000000000e+00" itree="352">
      <Node pos="s" depth="0" NCoef="0" IVar="6" Cut="1.1182980537414551e+00" cType="1" res="-6.1481616285163909e-05" rms="4.5483207702636719e-01" purity="4.8732316493988037e-01" nType="0">
        <Node pos="l" depth="1" NCoef="0" IVar="2" Cut="9.6499478816986084e-01" cType="1" res="1.1383987963199615e-02" rms="4.5545506477355957e-01" purity="5.0722080469131470e-01" nType="0">
          <Node pos="l" depth="2" NCoef="0" IVar="-1" Cut="0.0000000000000000e+00" cType="1" res="-1.2399443949107081e-04" rms="4.6752226352691650e-01" purity="4.2300990223884583e-01" nType="-99"/>
          <Node pos="r" depth="2" NCoef="0" IVar="-1" Cut="0.0000000000000000e+00" cType="1" res="1.2006346369162202e-03" rms="4.0991795063018799e-01" purity="7.6971960067749023e-01" nType="-99"/>
        </Node>
        <Node pos="r" depth="1" NCoef="0" IVar="-1" Cut="0.0000000000000000e+00" cType="1" res="-2.5684002321213484e-03" rms="4.1941550374031067e-01" purity="2.2987215220928192e-01" nType="-99"/>
      </Node>
    </BinaryTree>
    <BinaryTree type="DecisionTree" boostWeight="1.0000000000000000e+00" itree="353">
      <Node pos="s" depth="0" NCoef="0" IVar="1" Cut="1.3427776098251343e+00" cType="1" res="6.1105978675186634e-03" rms="4.4151967763900757e-01" purity="4.9471145868301392e-01" nType="0">
        <Node pos="l" depth="1" NCoef="0" IVar="4" Cut="3.2664465332031250e+02" cType="1" res="2.9819356277585030e-02" rms="4.5130389928817749e-01" purity="5.5208659172058105e-01" nType="0">
          <Node pos="l" depth="2" NCoef="0" IVar="-1" Cut="0.0000000000000000e+00" cType="1" res="-2.8317021206021309e-03" rms="3.4892335534095764e-01" purity="1.9853796064853668e-01" nType="-99"/>
          <Node pos="r" depth="2" NCoef="0" IVar="-1" Cut="0.0000000000000000e+00" cType="1" res="7.6244579395279288e-04" rms="4.5604944229125977e-01" purity="5.8749806880950928e-01" nType="-99"/>
        </Node>
        <Node pos="r" depth="1" NCoef="0" IVar="1" Cut="1.5371031761169434e+00" cType="1" res="-1.0712688416242599e-01" rms="3.7109208106994629e-01" purity="2.2067683935165405e-01" nType="0">
          <Node pos="l" depth="2" NCoef="0" IVar="-1" Cut="0.0000000000000000e+00" cType="1" res="-8.3865533815696836e-04" rms="4.1939929127693176e-01" purity="3.2349440455436707e-01" nType="-99"/>
          <Node pos="r" depth="2" NCoef="0" IVar="-1" Cut="0.0000000000000000e+00" cType="1" res="-3.1765238381922245e-03" rms="3.1826367974281311e-01" purity="1.3633295893669128e-01" nType="-99"/>
        </Node>
      </Node>
    </BinaryTree>
    <BinaryTree type="DecisionTree" boostWeight="1.0000000000000000e+00" itree="354">
      <Node pos="s" depth="0" NCoef="0" IVar="4" Cut="4.1463870239257812e+02" cType="1" res="2.5716777890920639e-02" rms="4.4657289981842041e-01" purity="5.2384364604949951e-01" nType="0">
        <Node pos="l" depth="1" NCoef="0" IVar="4" Cut="3.7777471923828125e+02" cType="1" res="-4.9642685800790787e-02" rms="4.4174891710281372e-01" purity="3.7243783473968506e-01" nType="0">
          <Node pos="l" depth="2" NCoef="0" IVar="-1" Cut="0.0000000000000000e+00" cType="1" res="-1.5808354364708066e-03" rms="4.3096098303794861e-01" purity="3.0878257751464844e-01" nType="-99"/>
          <Node pos="r" depth="2" NCoef="0" IVar="-1" Cut="0.0000000000000000e+00" cType="1" res="8.0694048665463924e-04" rms="4.4984558224678040e-01" purity="5.1931601762771606e-01" nType="-99"/>
        </Node>
        <Node pos="r" depth="1" NCoef="0" IVar="1" Cut="1.5281170606613159e+00" cType="1" res="6.7539520561695099e-02" rms="4.4373944401741028e-01" purity="6.0787039995193481e-01" nType="0">
          <Node pos="l" depth="2" NCoef="0" IVar="-1" Cut="0.0000000000000000e+00" cType="1" res="1.2996708974242210e-03" rms="4.4551452994346619e-01" purity="6.4012098312377930e-01" nType="-99"/>
          <Node pos="r" depth="2" NCoef="0" IVar="-1" Cut="0.0000000000000000e+00" cType="1" res="-1.9140006043016911e-03" rms="3.8350641727447510e-01" purity="2.5187784433364868e-01" nType="-99"/>
        </Node>
      </Node>
    </BinaryTree>
    <BinaryTree type="DecisionTree" boostWeight="1.0000000000000000e+00" itree="355">
      <Node pos="s" depth="0" NCoef="0" IVar="4" Cut="3.6782818603515625e+02" cType="1" res="5.7212249375879765e-03" rms="4.4337412714958191e-01" purity="5.0764811038970947e-01" nType="0">
        <Node pos="l" depth="1" NCoef="0" IVar="2" Cut="9.5683401823043823e-01" cType="1" res="-1.0394676774740219e-01" rms="4.0402901172637939e-01" purity="2.8616088628768921e-01" nType="0">
          <Node pos="l" depth="2" NCoef="0" IVar="-1" Cut="0.0000000000000000e+00" cType="1" res="-2.5887514930218458e-03" rms="3.7154054641723633e-01" purity="1.8076258897781372e-01" nType="-99"/>
          <Node pos="r" depth="2" NCoef="0" IVar="-1" Cut="0.0000000000000000e+00" cType="1" res="7.6658572652377188e-05" rms="4.7104653716087341e-01" purity="5.9774953126907349e-01" nType="-99"/>
        </Node>
        <Node pos="r" depth="1" NCoef="0" IVar="3" Cut="4.2910064697265625e+02" cType="1" res="3.7879202514886856e-02" rms="4.4921755790710449e-01" purity="5.7259482145309448e-01" nType="0">
          <Node pos="l" depth="2" NCoef="0" IVar="-1" Cut="0.0000000000000000e+00" cType="1" res="7.6807785080745816e-04" rms="4.4806396961212158e-01" purity="5.9044301509857178e-01" nType="-99"/>
          <Node pos="r" depth="2" NCoef="0" IVar="-1" Cut="0.0000000000000000e+00" cType="1" res="-1.2360992841422558e-03" rms="4.4686678051948547e-01" purity="3.8823568820953369e-01" nType="-99"/>
        </Node>
      </Node>
    </BinaryTree>
    <BinaryTree type="DecisionTree" boostWeight="1.0000000000000000e+00" itree="356">
      <Node pos="s" depth="0" NCoef="0" IVar="4" Cut="4.0635644531250000e+02" cType="1" res="1.3889498077332973e-02" rms="4.4396090507507324e-01" purity="5.1788657903671265e-01" nType="0">
        <Node pos="l" depth="1" NCoef="0" IVar="3" Cut="1.6758131408691406e+02" cType="1" res="-5.7719208300113678e-02" rms="4.3199107050895691e-01" purity="3.6940538883209229e-01" nType="0">
          <Node pos="l" depth="2" NCoef="0" IVar="-1" Cut="0.0000000000000000e+00" cType="1" res="2.2398219152819365e-04" rms="4.5555734634399414e-01" purity="4.3782398104667664e-01" nType="-99"/>
          <Node pos="r" depth="2" NCoef="0" IVar="-1" Cut="0.0000000000000000e+00" cType="1" res="-1.8251040019094944e-03" rms="4.0752983093261719e-01" purity="3.2182312011718750e-01" nType="-99"/>
        </Node>
        <Node pos="r" depth="1" NCoef="0" IVar="2" Cut="9.7561293840408325e-01" cType="1" res="5.1804579794406891e-02" rms="4.4553366303443909e-01" purity="5.9650373458862305e-01" nType="0">
          <Node pos="l" depth="2" NCoef="0" IVar="-1" Cut="0.0000000000000000e+00" cType="1" res="5.6040682829916477e-04" rms="4.6189004182815552e-01" purity="5.4694712162017822e-01" nType="-99"/>
          <Node pos="r" depth="2" NCoef="0" IVar="-1" Cut="0.0000000000000000e+00" cType="1" res="2.6095549110323191e-03" rms="3.1814792752265930e-01" purity="8.8748764991760254e-01" nType="-99"/>
        </Node>
      </Node>
    </BinaryTree>
    <BinaryTree type="DecisionTree" boostWeight="1.0000000000000000e+00" itree="357">
      <Node pos="s" depth="0" NCoef="0" IVar="2" Cut="9.3050456047058105e-01" cType="1" res="-2.2077204193919897e-03" rms="4.4440594315528870e-01" purity="4.9320802092552185e-01" nType="0">
        <Node pos="l" depth="1" NCoef="0" IVar="5" Cut="1.2545952606201172e+02" cType="1" res="-8.9891590178012848e-02" rms="3.9260661602020264e-01" purity="2.1978195011615753e-01" nType="0">
          <Node pos="l" depth="2" NCoef="0" IVar="-1" Cut="0.0000000000000000e+00" cType="1" res="-2.6743761263787746e-03" rms="3.3027654886245728e-01" purity="1.3438245654106140e-01" nType="-99"/>
          <Node pos="r" depth="2" NCoef="0" IVar="-1" Cut="0.0000000000000000e+00" cType="1" res="-2.4691413273103535e-04" rms="4.6250343322753906e-01" purity="3.5061866044998169e-01" nType="-99"/>
        </Node>
        <Node pos="r" depth="1" NCoef="0" IVar="1" Cut="1.6180582046508789e+00" cType="1" res="2.4965768679976463e-02" rms="4.5586395263671875e-01" purity="5.7794356346130371e-01" nType="0">
          <Node pos="l" depth="2" NCoef="0" IVar="-1" Cut="0.0000000000000000e+00" cType="1" res="5.7157984701916575e-04" rms="4.6021616458892822e-01" purity="6.0923779010772705e-01" nType="-99"/>
          <Node pos="r" depth="2" NCoef="0" IVar="-1" Cut="0.0000000000000000e+00" cType="1" res="-2.6255161501467228e-03" rms="3.6025428771972656e-01" purity="1.6813960671424866e-01" nType="-99"/>
        </Node>
      </Node>
    </BinaryTree>
    <BinaryTree type="DecisionTree" boostWeight="1.0000000000000000e+00" itree="358">
      <Node pos="s" depth="0" NCoef="0" IVar="1" Cut="1.7124882936477661e+00" cType="1" res="1.1322122998535633e-02" rms="4.5335555076599121e-01" purity="4.9875256419181824e-01" nType="0">
        <Node pos="l" depth="1" NCoef="0" IVar="3" Cut="1.9329119873046875e+02" cType="1" res="2.3599982261657715e-02" rms="4.5990282297134399e-01" purity="5.2390950918197632e-01" nType="0">
          <Node pos="l" depth="2" NCoef="0" IVar="-1" Cut="0.0000000000000000e+00" cType="1" res="-7.5708894291892648e-04" rms="4.5658782124519348e-01" purity="4.1956532001495361e-01" nType="-99"/>
          <Node pos="r" depth="2" NCoef="0" IVar="-1" Cut="0.0000000000000000e+00" cType="1" res="1.3274935772642493e-03" rms="4.5443344116210938e-01" purity="6.1134958267211914e-01" nType="-99"/>
        </Node>
        <Node pos="r" depth="1" NCoef="0" IVar="-1" Cut="0.0000000000000000e+00" cType="1" res="-4.1443053632974625e-03" rms="2.4538178741931915e-01" purity="7.6594509184360504e-02" nType="-99"/>
      </Node>
    </BinaryTree>
    <BinaryTree type="DecisionTree" boostWeight="1.0000000000000000e+00" itree="359">
      <Node pos="s" depth="0" NCoef="0" IVar="6" Cut="1.0472178459167480e+00" cType="1" res="5.8452319353818893e-03" rms="4.5170032978057861e-01" purity="5.0801777839660645e-01" nType="0">
        <Node pos="l" depth="1" NCoef="0" IVar="4" Cut="3.1994604492187500e+02" cType="1" res="2.2955257445573807e-02" rms="4.5448192954063416e-01" purity="5.3688853979110718e-01" nType="0">
          <Node pos="l" depth="2" NCoef="0" IVar="-1" Cut="0.0000000000000000e+00" cType="1" res="-1.7349601257592440e-03" rms="4.2085385322570801e-01" purity="2.5180035829544067e-01" nType="-99"/>
          <Node pos="r" depth="2" NCoef="0" IVar="-1" Cut="0.0000000000000000e+00" cType="1" res="5.2997824968770146e-04" rms="4.5583376288414001e-01" purity="5.6111496686935425e-01" nType="-99"/>
        </Node>
        <Node pos="r" depth="1" NCoef="0" IVar="6" Cut="1.1606335639953613e+00" cType="1" res="-1.3409805297851562e-01" rms="4.0179407596588135e-01" purity="2.7188321948051453e-01" nType="0">
          <Node pos="l" depth="2" NCoef="0" IVar="-1" Cut="0.0000000000000000e+00" cType="1" res="-1.4636691194027662e-03" rms="4.2553299665451050e-01" purity="3.2645875215530396e-01" nType="-99"/>
          <Node pos="r" depth="2" NCoef="0" IVar="-1" Cut="0.0000000000000000e+00" cType="1" res="-3.3885641023516655e-03" rms="3.6776688694953918e-01" purity="2.1557949483394623e-01" nType="-99"/>
        </Node>
      </Node>
    </BinaryTree>
    <BinaryTree type="DecisionTree" boostWeight="1.0000000000000000e+00" itree="360">
      <Node pos="s" depth="0" NCoef="0" IVar="2" Cut="9.7490823268890381e-01" cType="1" res="1.2648278847336769e-02" rms="4.4897112250328064e-01" purity="5.1103764772415161e-01" nType="0">
        <Node pos="l" depth="1" NCoef="0" IVar="2" Cut="9.1029852628707886e-01" cType="1" res="-4.5661688782274723e-03" rms="4.6225327253341675e-01" purity="4.5680880546569824e-01" nType="0">
          <Node pos="l" depth="2" NCoef="0" IVar="-1" Cut="0.0000000000000000e+00" cType="1" res="-2.8984220698475838e-03" rms="3.0713406205177307e-01" purity="1.3092076778411865e-01" nType="-99"/>
          <Node pos="r" depth="2" NCoef="0" IVar="-1" Cut="0.0000000000000000e+00" cType="1" res="9.2772846983280033e-05" rms="4.6979570388793945e-01" purity="4.8036661744117737e-01" nType="-99"/>
        </Node>
        <Node pos="r" depth="1" NCoef="0" IVar="5" Cut="1.3293710327148438e+02" cType="1" res="1.2015143036842346e-01" rms="3.3553677797317505e-01" purity="8.4969341754913330e-01" nType="0">
          <Node pos="l" depth="2" NCoef="0" IVar="-1" Cut="0.0000000000000000e+00" cType="1" res="2.7867956086993217e-03" rms="3.0803757905960083e-01" purity="8.7265974283218384e-01" nType="-99"/>
          <Node pos="r" depth="2" NCoef="0" IVar="-1" Cut="0.0000000000000000e+00" cType="1" res="1.2700343504548073e-03" rms="3.5753381252288818e-01" purity="8.2351648807525635e-01" nType="-99"/>
        </Node>
      </Node>
    </BinaryTree>
    <BinaryTree type="DecisionTree" boostWeight="1.0000000000000000e+00" itree="361">
      <Node pos="s" depth="0" NCoef="0" IVar="2" Cut="9.1537928581237793e-01" cType="1" res="-1.6301702708005905e-03" rms="4.5039463043212891e-01" purity="4.8759633302688599e-01" nType="0">
        <Node pos="l" depth="1" NCoef="0" IVar="-1" Cut="0.0000000000000000e+00" cType="1" res="-2.2422331385314465e-03" rms="3.6575573682785034e-01" purity="1.7676952481269836e-01" nType="-99"/>
        <Node pos="r" depth="1" NCoef="0" IVar="1" Cut="7.7165293693542480e-01" cType="1" res="1.1165362782776356e-02" rms="4.5705711841583252e-01" purity="5.2216207981109619e-01" nType="0">
          <Node pos="l" depth="2" NCoef="0" IVar="-1" Cut="0.0000000000000000e+00" cType="1" res="1.0551420273259282e-03" rms="4.4317597150802612e-01" purity="6.4962738752365112e-01" nType="-99"/>
          <Node pos="r" depth="2" NCoef="0" IVar="-1" Cut="0.0000000000000000e+00" cType="1" res="-3.5000024945475161e-04" rms="4.6178647875785828e-01" purity="4.4859093427658081e-01" nType="-99"/>
        </Node>
      </Node>
    </BinaryTree>
    <BinaryTree type="DecisionTree" boostWeight="1.0000000000000000e+00" itree="362">
      <Node pos="s" depth="0" NCoef="0" IVar="1" Cut="1.1507654190063477e+00" cType="1" res="1.5893621370196342e-02" rms="4.4219186902046204e-01" purity="5.1143836975097656e-01" nType="0">
        <Node pos="l" depth="1" NCoef="0" IVar="3" Cut="1.9461415100097656e+02" cType="1" res="4.7254566103219986e-02" rms="4.4438427686691284e-01" purity="5.9308761358261108e-01" nType="0">
          <Node pos="l" depth="2" NCoef="0" IVar="-1" Cut="0.0000000000000000e+00" cType="1" res="-2.1764480334240943e-04" rms="4.5713514089584351e-01" purity="4.7615289688110352e-01" nType="-99"/>
          <Node pos="r" depth="2" NCoef="0" IVar="-1" Cut="0.0000000000000000e+00" cType="1" res="1.7322202911600471e-03" rms="4.2143723368644714e-01" purity="7.1486443281173706e-01" nType="-99"/>
        </Node>
        <Node pos="r" depth="1" NCoef="0" IVar="3" Cut="2.4385981750488281e+02" cType="1" res="-6.5745748579502106e-02" rms="4.2573282122612000e-01" purity="2.9888761043548584e-01" nType="0">
          <Node pos="l" depth="2" NCoef="0" IVar="-1" Cut="0.0000000000000000e+00" cType="1" res="1.1455808999016881e-04" rms="4.4483852386474609e-01" purity="3.6627477407455444e-01" nType="-99"/>
          <Node pos="r" depth="2" NCoef="0" IVar="-1" Cut="0.0000000000000000e+00" cType="1" res="-2.2047294769436121e-03" rms="4.0138775110244751e-01" purity="2.4648001790046692e-01" nType="-99"/>
        </Node>
      </Node>
    </BinaryTree>
    <BinaryTree type="DecisionTree" boostWeight="1.0000000000000000e+00" itree="363">
      <Node pos="s" depth="0" NCoef="0" IVar="2" Cut="9.4630342721939087e-01" cType="1" res="1.9540309440344572e-03" rms="4.4216382503509521e-01" purity="5.0397926568984985e-01" nType="0">
        <Node pos="l" depth="1" NCoef="0" IVar="4" Cut="6.1037908935546875e+02" cType="1" res="-5.1156595349311829e-02" rms="4.3157911300659180e-01" purity="3.0949926376342773e-01" nType="0">
          <Node pos="l" depth="2" NCoef="0" IVar="-1" Cut="0.0000000000000000e+00" cType="1" res="-1.2849908089265227e-03" rms="4.1928929090499878e-01" purity="2.6182624697685242e-01" nType="-99"/>
          <Node pos="r" depth="2" NCoef="0" IVar="-1" Cut="0.0000000000000000e+00" cType="1" res="9.8146777600049973e-04" rms="4.7365421056747437e-01" purity="5.5934649705886841e-01" nType="-99"/>
        </Node>
        <Node pos="r" depth="1" NCoef="0" IVar="3" Cut="2.1890345764160156e+02" cType="1" res="4.5726366341114044e-02" rms="4.4597116112709045e-01" purity="6.6426444053649902e-01" nType="0">
          <Node pos="l" depth="2" NCoef="0" IVar="-1" Cut="0.0000000000000000e+00" cType="1" res="2.7049396885558963e-04" rms="4.6665403246879578e-01" purity="6.2350475788116455e-01" nType="-99"/>
          <Node pos="r" depth="2" NCoef="0" IVar="-1" Cut="0.0000000000000000e+00" cType="1" res="1.3858256861567497e-03" rms="4.1359817981719971e-01" purity="7.1881985664367676e-01" nType="-99"/>
        </Node>
      </Node>
    </BinaryTree>
    <BinaryTree type="DecisionTree" boostWeight="1.0000000000000000e+00" itree="364">
      <Node pos="s" depth="0" NCoef="0" IVar="2" Cut="9.1026234626770020e-01" cType="1" res="9.9948588758707047e-03" rms="4.4101458787918091e-01" purity="5.1041704416275024e-01" nType="0">
        <Node pos="l" depth="1" NCoef="0" IVar="-1" Cut="0.0000000000000000e+00" cType="1" res="-3.1641467940062284e-03" rms="2.9950052499771118e-01" purity="1.1071184277534485e-01" nType="-99"/>
        <Node pos="r" depth="1" NCoef="0" IVar="1" Cut="6.3510370254516602e-01" cType="1" res="2.2704359143972397e-02" rms="4.4729831814765930e-01" purity="5.4050797224044800e-01" nType="0">
          <Node pos="l" depth="2" NCoef="0" IVar="-1" Cut="0.0000000000000000e+00" cType="1" res="1.6975412145256996e-03" rms="4.1865634918212891e-01" purity="7.1153378486633301e-01" nType="-99"/>
          <Node pos="r" depth="2" NCoef="0" IVar="-1" Cut="0.0000000000000000e+00" cType="1" res="-1.1655936395982280e-04" rms="4.5305857062339783e-01" purity="4.8099198937416077e-01" nType="-99"/>
        </Node>
      </Node>
    </BinaryTree>
    <BinaryTree type="DecisionTree" boostWeight="1.0000000000000000e+00" itree="365">
      <Node pos="s" depth="0" NCoef="0" IVar="2" Cut="9.3324637413024902e-01" cType="1" res="-3.3518283162266016e-03" rms="4.4454199075698853e-01" purity="4.8746886849403381e-01" nType="0">
        <Node pos="l" depth="1" NCoef="0" IVar="2" Cut="9.1782903671264648e-01" cType="1" res="-8.2285754382610321e-02" rms="3.9954486489295959e-01" purity="2.3756250739097595e-01" nType="0">
          <Node pos="l" depth="2" NCoef="0" IVar="-1" Cut="0.0000000000000000e+00" cType="1" res="-3.0008968897163868e-03" rms="3.1351637840270996e-01" purity="1.2185985594987869e-01" nType="-99"/>
          <Node pos="r" depth="2" NCoef="0" IVar="-1" Cut="0.0000000000000000e+00" cType="1" res="-6.5935874590650201e-04" rms="4.4021734595298767e-01" purity="3.1089648604393005e-01" nType="-99"/>
        </Node>
        <Node pos="r" depth="1" NCoef="0" IVar="3" Cut="4.0802401733398438e+02" cType="1" res="2.7473304420709610e-02" rms="4.5723813772201538e-01" purity="5.8506184816360474e-01" nType="0">
          <Node pos="l" depth="2" NCoef="0" IVar="-1" Cut="0.0000000000000000e+00" cType="1" res="6.6891463939100504e-04" rms="4.5649534463882446e-01" purity="6.0539281368255615e-01" nType="-99"/>
          <Node pos="r" depth="2" NCoef="0" IVar="-1" Cut="0.0000000000000000e+00" cType="1" res="-2.4131117388606071e-03" rms="4.2793971300125122e-01" purity="3.3911576867103577e-01" nType="-99"/>
        </Node>
      </Node>
    </BinaryTree>
    <BinaryTree type="DecisionTree" boostWeight="1.0000000000000000e+00" itree="366">
      <Node pos="s" depth="0" NCoef="0" IVar="2" Cut="9.3150717020034790e-01" cType="1" res="1.9794108811765909e-03" rms="4.4202470779418945e-01" purity="5.0567460060119629e-01" nType="0">
        <Node pos="l" depth="1" NCoef="0" IVar="6" Cut="7.6001501083374023e-01" cType="1" res="-9.3439452350139618e-02" rms="3.9394858479499817e-01" purity="2.2208541631698608e-01" nType="0">
          <Node pos="l" depth="2" NCoef="0" IVar="-1" Cut="0.0000000000000000e+00" cType="1" res="-2.5278425309807062e-03" rms="3.7693798542022705e-01" purity="1.9419030845165253e-01" nType="-99"/>
          <Node pos="r" depth="2" NCoef="0" IVar="-1" Cut="0.0000000000000000e+00" cType="1" res="-6.4868340268731117e-04" rms="4.0537905693054199e-01" purity="2.5526675581932068e-01" nType="-99"/>
        </Node>
        <Node pos="r" depth="1" NCoef="0" IVar="1" Cut="1.6076458692550659e+00" cType="1" res="3.1542979180812836e-02" rms="4.5182192325592041e-01" purity="5.9353888034820557e-01" nType="0">
          <Node pos="l" depth="2" NCoef="0" IVar="-1" Cut="0.0000000000000000e+00" cType="1" res="7.1218871744349599e-04" rms="4.5379018783569336e-01" purity="6.2699913978576660e-01" nType="-99"/>
          <Node pos="r" depth="2" NCoef="0" IVar="-1" Cut="0.0000000000000000e+00" cType="1" res="-2.2997546475380659e-03" rms="3.9659163355827332e-01" purity="2.1944110095500946e-01" nType="-99"/>
        </Node>
      </Node>
    </BinaryTree>
    <BinaryTree type="DecisionTree" boostWeight="1.0000000000000000e+00" itree="367">
      <Node pos="s" depth="0" NCoef="0" IVar="1" Cut="1.6122876405715942e+00" cType="1" res="-3.6034209188073874e-04" rms="4.4311407208442688e-01" purity="4.9747574329376221e-01" nType="0">
        <Node pos="l" depth="1" NCoef="0" IVar="2" Cut="9.5379322767257690e-01" cType="1" res="1.5082524158060551e-02" rms="4.5029735565185547e-01" purity="5.3237491846084595e-01" nType="0">
          <Node pos="l" depth="2" NCoef="0" IVar="-1" Cut="0.0000000000000000e+00" cType="1" res="-2.4046003818511963e-04" rms="4.6730652451515198e-01" purity="3.8733705878257751e-01" nType="-99"/>
          <Node pos="r" depth="2" NCoef="0" IVar="-1" Cut="0.0000000000000000e+00" cType="1" res="9.2109362594783306e-04" rms="4.2279559373855591e-01" purity="7.2838914394378662e-01" nType="-99"/>
        </Node>
        <Node pos="r" depth="1" NCoef="0" IVar="-1" Cut="0.0000000000000000e+00" cType="1" res="-3.6213472485542297e-03" rms="3.0431118607521057e-01" purity="1.0869853198528290e-01" nType="-99"/>
      </Node>
    </BinaryTree>
    <BinaryTree type="DecisionTree" boostWeight="1.0000000000000000e+00" itree="368">
      <Node pos="s" depth="0" NCoef="0" IVar="3" Cut="2.2880743408203125e+02" cType="1" res="8.0625917762517929e-03" rms="4.4824436306953430e-01" purity="5.0351005792617798e-01" nType="0">
        <Node pos="l" depth="1" NCoef="0" IVar="5" Cut="1.1378890991210938e+02" cType="1" res="-3.5101983696222305e-02" rms="4.5078286528587341e-01" purity="4.5124074816703796e-01" nType="0">
          <Node pos="l" depth="2" NCoef="0" IVar="-1" Cut="0.0000000000000000e+00" cType="1" res="9.5158429758157581e-05" rms="4.3970641493797302e-01" purity="4.7367098927497864e-01" nType="-99"/>
          <Node pos="r" depth="2" NCoef="0" IVar="-1" Cut="0.0000000000000000e+00" cType="1" res="-1.4899130910634995e-03" rms="4.5993319153785706e-01" purity="4.1903328895568848e-01" nType="-99"/>
        </Node>
        <Node pos="r" depth="1" NCoef="0" IVar="3" Cut="3.2674151611328125e+02" cType="1" res="6.8979479372501373e-02" rms="4.3744933605194092e-01" purity="5.7727617025375366e-01" nType="0">
          <Node pos="l" depth="2" NCoef="0" IVar="-1" Cut="0.0000000000000000e+00" cType="1" res="2.1691876463592052e-03" rms="4.3484577536582947e-01" purity="6.6833609342575073e-01" nType="-99"/>
          <Node pos="r" depth="2" NCoef="0" IVar="-1" Cut="0.0000000000000000e+00" cType="1" res="-9.6165854483842850e-04" rms="4.1538682579994202e-01" purity="4.0558040142059326e-01" nType="-99"/>
        </Node>
      </Node>
    </BinaryTree>
    <BinaryTree type="DecisionTree" boostWeight="1.0000000000000000e+00" itree="369">
      <Node pos="s" depth="0" NCoef="0" IVar="4" Cut="4.0209399414062500e+02" cType="1" res="1.1969071812927723e-02" rms="4.4651222229003906e-01" purity="5.0903856754302979e-01" nType="0">
        <Node pos="l" depth="1" NCoef="0" IVar="1" Cut="6.8978506326675415e-01" cType="1" res="-4.9124576151371002e-02" rms="4.4750407338142395e-01" purity="3.7064611911773682e-01" nType="0">
          <Node pos="l" depth="2" NCoef="0" IVar="-1" Cut="0.0000000000000000e+00" cType="1" res="9.8219723440706730e-04" rms="4.7292152047157288e-01" purity="5.3658246994018555e-01" nType="-99"/>
          <Node pos="r" depth="2" NCoef="0" IVar="-1" Cut="0.0000000000000000e+00" cType="1" res="-1.3874755240976810e-03" rms="4.3551900982856750e-01" purity="3.2557314634323120e-01" nType="-99"/>
        </Node>
        <Node pos="r" depth="1" NCoef="0" IVar="5" Cut="1.1948534393310547e+02" cType="1" res="4.6947952359914780e-02" rms="4.4215941429138184e-01" purity="5.8827441930770874e-01" nType="0">
          <Node pos="l" depth="2" NCoef="0" IVar="-1" Cut="0.0000000000000000e+00" cType="1" res="2.3625420872122049e-03" rms="4.2494320869445801e-01" purity="6.6811716556549072e-01" nType="-99"/>
          <Node pos="r" depth="2" NCoef="0" IVar="-1" Cut="0.0000000000000000e+00" cType="1" res="1.4934437058400363e-04" rms="4.4197404384613037e-01" purity="5.5994349718093872e-01" nType="-99"/>
        </Node>
      </Node>
    </BinaryTree>
    <BinaryTree type="DecisionTree" boostWeight="1.0000000000000000e+00" itree="370">
      <Node pos="s" depth="0" NCoef="0" IVar="2" Cut="9.2120885848999023e-01" cType="1" res="8.5600698366761208e-03" rms="4.5044618844985962e-01" purity="4.9624535441398621e-01" nType="0">
        <Node pos="l" depth="1" NCoef="0" IVar="2" Cut="9.1046530008316040e-01" cType="1" res="-1.1615422368049622e-01" rms="3.6074799299240112e-01" purity="1.5591728687286377e-01" nType="0">
          <Node pos="l" depth="2" NCoef="0" IVar="-1" Cut="0.0000000000000000e+00" cType="1" res="-3.1350490171462297e-03" rms="3.0942568182945251e-01" purity="1.0591921955347061e-01" nType="-99"/>
          <Node pos="r" depth="2" NCoef="0" IVar="-1" Cut="0.0000000000000000e+00" cType="1" res="-1.5160925686359406e-03" rms="3.9898777008056641e-01" purity="2.0286709070205688e-01" nType="-99"/>
        </Node>
        <Node pos="r" depth="1" NCoef="0" IVar="6" Cut="1.0407537221908569e+00" cType="1" res="2.6049604639410973e-02" rms="4.5893210172653198e-01" purity="5.4397183656692505e-01" nType="0">
          <Node pos="l" depth="2" NCoef="0" IVar="-1" Cut="0.0000000000000000e+00" cType="1" res="6.4942945027723908e-04" rms="4.5875659584999084e-01" purity="5.7183092832565308e-01" nType="-99"/>
          <Node pos="r" depth="2" NCoef="0" IVar="-1" Cut="0.0000000000000000e+00" cType="1" res="-1.7316419398412108e-03" rms="4.4065716862678528e-01" purity="3.1902152299880981e-01" nType="-99"/>
        </Node>
      </Node>
    </BinaryTree>
    <BinaryTree type="DecisionTree" boostWeight="1.0000000000000000e+00" itree="371">
      <Node pos="s" depth="0" NCoef="0" IVar="2" Cut="9.5362108945846558e-01" cType="1" res="-5.5904593318700790e-03" rms="4.4390937685966492e-01" purity="4.9469482898712158e-01" nType="0">
        <Node pos="l" depth="1" NCoef="0" IVar="3" Cut="2.2876296997070312e+02" cType="1" res="-5.5595431476831436e-02" rms="4.4318619370460510e-01" purity="3.2918626070022583e-01" nType="0">
          <Node pos="l" depth="2" NCoef="0" IVar="-1" Cut="0.0000000000000000e+00" cType="1" res="-1.6342417802661657e-03" rms="4.2450881004333496e-01" purity="2.7131357789039612e-01" nType="-99"/>
          <Node pos="r" depth="2" NCoef="0" IVar="-1" Cut="0.0000000000000000e+00" cType="1" res="5.6228727771667764e-05" rms="4.6160116791725159e-01" purity="4.1002666950225830e-01" nType="-99"/>
        </Node>
        <Node pos="r" depth="1" NCoef="0" IVar="4" Cut="3.6562741088867188e+02" cType="1" res="6.1603825539350510e-02" rms="4.3593856692314148e-01" purity="7.1709728240966797e-01" nType="0">
          <Node pos="l" depth="2" NCoef="0" IVar="-1" Cut="0.0000000000000000e+00" cType="1" res="-6.3323305221274495e-04" rms="4.8509085178375244e-01" purity="5.4078346490859985e-01" nType="-99"/>
          <Node pos="r" depth="2" NCoef="0" IVar="-1" Cut="0.0000000000000000e+00" cType="1" res="1.3878113823011518e-03" rms="4.2024922370910645e-01" purity="7.5794404745101929e-01" nType="-99"/>
        </Node>
      </Node>
    </BinaryTree>
    <BinaryTree type="DecisionTree" boostWeight="1.0000000000000000e+00" itree="372">
      <Node pos="s" depth="0" NCoef="0" IVar="2" Cut="9.2054522037506104e-01" cType="1" res="-2.2084087133407593e-02" rms="4.4092854857444763e-01" purity="4.7859585285186768e-01" nType="0">
        <Node pos="l" depth="1" NCoef="0" IVar="3" Cut="1.7642625427246094e+02" cType="1" res="-1.3901060819625854e-01" rms="3.2538396120071411e-01" purity="1.4188171923160553e-01" nType="0">
          <Node pos="l" depth="2" NCoef="0" IVar="-1" Cut="0.0000000000000000e+00" cType="1" res="-4.4593145139515400e-03" rms="1.8936319649219513e-01" purity="4.0046717971563339e-02" nType="-99"/>
          <Node pos="r" depth="2" NCoef="0" IVar="-1" Cut="0.0000000000000000e+00" cType="1" res="-1.7054069321602583e-03" rms="3.8300958275794983e-01" purity="2.0939123630523682e-01" nType="-99"/>
        </Node>
        <Node pos="r" depth="1" NCoef="0" IVar="1" Cut="6.2578809261322021e-01" cType="1" res="-3.9960923604667187e-03" rms="4.5351192355155945e-01" purity="5.3068399429321289e-01" nType="0">
          <Node pos="l" depth="2" NCoef="0" IVar="-1" Cut="0.0000000000000000e+00" cType="1" res="1.3494091108441353e-03" rms="4.2945063114166260e-01" purity="6.9491207599639893e-01" nType="-99"/>
          <Node pos="r" depth="2" NCoef="0" IVar="-1" Cut="0.0000000000000000e+00" cType="1" res="-4.8192782560363412e-04" rms="4.5702913403511047e-01" purity="4.8290079832077026e-01" nType="-99"/>
        </Node>
      </Node>
    </BinaryTree>
    <BinaryTree type="DecisionTree" boostWeight="1.0000000000000000e+00" itree="373">
      <Node pos="s" depth="0" NCoef="0" IVar="3" Cut="3.5253320312500000e+02" cType="1" res="4.5921758282929659e-04" rms="4.4767016172409058e-01" purity="4.9629002809524536e-01" nType="0">
        <Node pos="l" depth="1" NCoef="0" IVar="2" Cut="9.3310409784317017e-01" cType="1" res="1.6317281872034073e-02" rms="4.4777059555053711e-01" purity="5.1755231618881226e-01" nType="0">
          <Node pos="l" depth="2" NCoef="0" IVar="-1" Cut="0.0000000000000000e+00" cType="1" res="-1.0617508087307215e-03" rms="4.0912175178527832e-01" purity="2.5078120827674866e-01" nType="-99"/>
          <Node pos="r" depth="2" NCoef="0" IVar="-1" Cut="0.0000000000000000e+00" cType="1" res="6.9802603684365749e-04" rms="4.5779678225517273e-01" purity="6.1374580860137939e-01" nType="-99"/>
        </Node>
        <Node pos="r" depth="1" NCoef="0" IVar="6" Cut="7.3642343282699585e-01" cType="1" res="-1.2118691205978394e-01" rms="4.2777553200721741e-01" purity="3.3318838477134705e-01" nType="0">
          <Node pos="l" depth="2" NCoef="0" IVar="-1" Cut="0.0000000000000000e+00" cType="1" res="-7.1313668740913272e-04" rms="4.4123783707618713e-01" purity="4.4054332375526428e-01" nType="-99"/>
          <Node pos="r" depth="2" NCoef="0" IVar="-1" Cut="0.0000000000000000e+00" cType="1" res="-3.9318902418017387e-03" rms="3.9332699775695801e-01" purity="2.1050646901130676e-01" nType="-99"/>
        </Node>
      </Node>
    </BinaryTree>
    <BinaryTree type="DecisionTree" boostWeight="1.0000000000000000e+00" itree="374">
      <Node pos="s" depth="0" NCoef="0" IVar="2" Cut="9.3887454271316528e-01" cType="1" res="5.7448791339993477e-03" rms="4.4132068753242493e-01" purity="5.0515359640121460e-01" nType="0">
        <Node pos="l" depth="1" NCoef="0" IVar="1" Cut="7.2740238904953003e-01" cType="1" res="-5.7481467723846436e-02" rms="4.2862209677696228e-01" purity="2.7960008382797241e-01" nType="0">
          <Node pos="l" depth="2" NCoef="0" IVar="-1" Cut="0.0000000000000000e+00" cType="1" res="5.6735979160293937e-04" rms="4.6442282199859619e-01" purity="4.2245477437973022e-01" nType="-99"/>
          <Node pos="r" depth="2" NCoef="0" IVar="-1" Cut="0.0000000000000000e+00" cType="1" res="-1.7791263526305556e-03" rms="4.0626800060272217e-01" purity="2.1965090930461884e-01" nType="-99"/>
        </Node>
        <Node pos="r" depth="1" NCoef="0" IVar="3" Cut="3.8074670410156250e+02" cType="1" res="4.2099166661500931e-02" rms="4.4440484046936035e-01" purity="6.3484382629394531e-01" nType="0">
          <Node pos="l" depth="2" NCoef="0" IVar="-1" Cut="0.0000000000000000e+00" cType="1" res="8.7640597485005856e-04" rms="4.4202321767807007e-01" purity="6.6057735681533813e-01" nType="-99"/>
          <Node pos="r" depth="2" NCoef="0" IVar="-1" Cut="0.0000000000000000e+00" cType="1" res="-1.8005369929596782e-03" rms="4.4442793726921082e-01" purity="3.5572743415832520e-01" nType="-99"/>
        </Node>
      </Node>
    </BinaryTree>
    <BinaryTree type="DecisionTree" boostWeight="1.0000000000000000e+00" itree="375">
      <Node pos="s" depth="0" NCoef="0" IVar="4" Cut="3.1767059326171875e+02" cType="1" res="2.2771889343857765e-02" rms="4.5063814520835876e-01" purity="5.1696270704269409e-01" nType="0">
        <Node pos="l" depth="1" NCoef="0" IVar="-1" Cut="0.0000000000000000e+00" cType="1" res="-2.1542101167142391e-03" rms="3.8099625706672668e-01" purity="2.1455988287925720e-01" nType="-99"/>
        <Node pos="r" depth="1" NCoef="0" IVar="3" Cut="4.2082684326171875e+02" cType="1" res="3.4718565642833710e-02" rms="4.5426189899444580e-01" purity="5.4336488246917725e-01" nType="0">
          <Node pos="l" depth="2" NCoef="0" IVar="-1" Cut="0.0000000000000000e+00" cType="1" res="7.3222676292061806e-04" rms="4.5273625850677490e-01" purity="5.6197273731231689e-01" nType="-99"/>
          <Node pos="r" depth="2" NCoef="0" IVar="-1" Cut="0.0000000000000000e+00" cType="1" res="-1.5184372896328568e-03" rms="4.5307341217994690e-01" purity="3.2952678203582764e-01" nType="-99"/>
        </Node>
      </Node>
    </BinaryTree>
    <BinaryTree type="DecisionTree" boostWeight="1.0000000000000000e+00" itree="376">
      <Node pos="s" depth="0" NCoef="0" IVar="4" Cut="4.2845785522460938e+02" cType="1" res="1.5766367316246033e-02" rms="4.4616430997848511e-01" purity="5.1155751943588257e-01" nType="0">
        <Node pos="l" depth="1" NCoef="0" IVar="2" Cut="9.1573560237884521e-01" cType="1" res="-3.4667279571294785e-02" rms="4.4828695058822632e-01" purity="3.6876839399337769e-01" nType="0">
          <Node pos="l" depth="2" NCoef="0" IVar="-1" Cut="0.0000000000000000e+00" cType="1" res="-3.0137079302221537e-03" rms="2.8246638178825378e-01" purity="8.6536511778831482e-02" nType="-99"/>
          <Node pos="r" depth="2" NCoef="0" IVar="-1" Cut="0.0000000000000000e+00" cType="1" res="-3.3297541085630655e-04" rms="4.6486881375312805e-01" purity="4.0816435217857361e-01" nType="-99"/>
        </Node>
        <Node pos="r" depth="1" NCoef="0" IVar="0" Cut="4.1359170532226562e+02" cType="1" res="5.3246513009071350e-02" rms="4.4085896015167236e-01" purity="6.1767238378524780e-01" nType="0">
          <Node pos="l" depth="2" NCoef="0" IVar="-1" Cut="0.0000000000000000e+00" cType="1" res="1.5577742597088218e-03" rms="4.2362910509109497e-01" purity="6.5219247341156006e-01" nType="-99"/>
          <Node pos="r" depth="2" NCoef="0" IVar="-1" Cut="0.0000000000000000e+00" cType="1" res="-1.5522091416642070e-04" rms="4.5724633336067200e-01" purity="5.6812930107116699e-01" nType="-99"/>
        </Node>
      </Node>
    </BinaryTree>
    <BinaryTree type="DecisionTree" boostWeight="1.0000000000000000e+00" itree="377">
      <Node pos="s" depth="0" NCoef="0" IVar="3" Cut="2.1445063781738281e+02" cType="1" res="-3.1153122108662501e-05" rms="4.4284337759017944e-01" purity="5.0335961580276489e-01" nType="0">
        <Node pos="l" depth="1" NCoef="0" IVar="4" Cut="3.1053237915039062e+02" cType="1" res="-5.1935907453298569e-02" rms="4.4879284501075745e-01" purity="4.3749797344207764e-01" nType="0">
          <Node pos="l" depth="2" NCoef="0" IVar="-1" Cut="0.0000000000000000e+00" cType="1" res="-3.4501515328884125e-03" rms="3.6989548802375793e-01" purity="1.8954706192016602e-01" nType="-99"/>
          <Node pos="r" depth="2" NCoef="0" IVar="-1" Cut="0.0000000000000000e+00" cType="1" res="-5.4500129772350192e-04" rms="4.5507544279098511e-01" purity="4.6998083591461182e-01" nType="-99"/>
        </Node>
        <Node pos="r" depth="1" NCoef="0" IVar="1" Cut="1.0687385797500610e+00" cType="1" res="5.3369797766208649e-02" rms="4.3015015125274658e-01" purity="5.7111972570419312e-01" nType="0">
          <Node pos="l" depth="2" NCoef="0" IVar="-1" Cut="0.0000000000000000e+00" cType="1" res="2.0959440153092146e-03" rms="4.0791597962379456e-01" purity="7.6637101173400879e-01" nType="-99"/>
          <Node pos="r" depth="2" NCoef="0" IVar="-1" Cut="0.0000000000000000e+00" cType="1" res="-6.2297383556142449e-04" rms="4.3661051988601685e-01" purity="3.5403200984001160e-01" nType="-99"/>
        </Node>
      </Node>
    </BinaryTree>
    <BinaryTree type="DecisionTree" boostWeight="1.0000000000000000e+00" itree="378">
      <Node pos="s" depth="0" NCoef="0" IVar="4" Cut="3.2279293823242188e+02" cType="1" res="-9.3929180875420570e-03" rms="4.4770660996437073e-01" purity="4.9325743317604065e-01" nType="0">
        <Node pos="l" depth="1" NCoef="0" IVar="-1" Cut="0.0000000000000000e+00" cType="1" res="-4.1586910374462605e-03" rms="3.1908974051475525e-01" purity="1.2331648916006088e-01" nType="-99"/>
        <Node pos="r" depth="1" NCoef="0" IVar="2" Cut="9.6504825353622437e-01" cType="1" res="5.9736045077443123e-03" rms="4.5212325453758240e-01" purity="5.2090328931808472e-01" nType="0">
          <Node pos="l" depth="2" NCoef="0" IVar="-1" Cut="0.0000000000000000e+00" cType="1" res="-3.2221328001469374e-04" rms="4.6463245153427124e-01" purity="4.2534095048904419e-01" nType="-99"/>
          <Node pos="r" depth="2" NCoef="0" IVar="-1" Cut="0.0000000000000000e+00" cType="1" res="1.3518427731469274e-03" rms="4.0757146477699280e-01" purity="7.8165018558502197e-01" nType="-99"/>
        </Node>
      </Node>
    </BinaryTree>
    <BinaryTree type="DecisionTree" boostWeight="1.0000000000000000e+00" itree="379">
      <Node pos="s" depth="0" NCoef="0" IVar="4" Cut="5.7129730224609375e+02" cType="1" res="9.9301282316446304e-03" rms="4.5258668065071106e-01" purity="5.1106250286102295e-01" nType="0">
        <Node pos="l" depth="1" NCoef="0" IVar="1" Cut="9.6861958503723145e-01" cType="1" res="-1.1151204816997051e-02" rms="4.4657269120216370e-01" purity="4.6957704424858093e-01" nType="0">
          <Node pos="l" depth="2" NCoef="0" IVar="-1" Cut="0.0000000000000000e+00" cType="1" res="4.0776189416646957e-04" rms="4.4495543837547302e-01" purity="5.6743806600570679e-01" nType="-99"/>
          <Node pos="r" depth="2" NCoef="0" IVar="-1" Cut="0.0000000000000000e+00" cType="1" res="-1.0205153375864029e-03" rms="4.4433519244194031e-01" purity="3.4681627154350281e-01" nType="-99"/>
        </Node>
        <Node pos="r" depth="1" NCoef="0" IVar="3" Cut="1.9917770385742188e+02" cType="1" res="7.2389058768749237e-02" rms="4.6436852216720581e-01" purity="6.3397407531738281e-01" nType="0">
          <Node pos="l" depth="2" NCoef="0" IVar="-1" Cut="0.0000000000000000e+00" cType="1" res="-1.2413071235641837e-03" rms="4.7326678037643433e-01" purity="4.2143750190734863e-01" nType="-99"/>
          <Node pos="r" depth="2" NCoef="0" IVar="-1" Cut="0.0000000000000000e+00" cType="1" res="1.8379538087174296e-03" rms="4.5247659087181091e-01" purity="6.9427037239074707e-01" nType="-99"/>
        </Node>
      </Node>
    </BinaryTree>
    <BinaryTree type="DecisionTree" boostWeight="1.0000000000000000e+00" itree="380">
      <Node pos="s" depth="0" NCoef="0" IVar="4" Cut="6.4259124755859375e+02" cType="1" res="1.0786199709400535e-03" rms="4.5064175128936768e-01" purity="5.0001090764999390e-01" nType="0">
        <Node pos="l" depth="1" NCoef="0" IVar="3" Cut="2.8629650878906250e+02" cType="1" res="-1.5466306358575821e-02" rms="4.5011287927627563e-01" purity="4.6973145008087158e-01" nType="0">
          <Node pos="l" depth="2" NCoef="0" IVar="-1" Cut="0.0000000000000000e+00" cType="1" res="7.7209930168464780e-05" rms="4.5599925518035889e-01" purity="4.9515858292579651e-01" nType="-99"/>
          <Node pos="r" depth="2" NCoef="0" IVar="-1" Cut="0.0000000000000000e+00" cType="1" res="-2.5243915151804686e-03" rms="3.8954955339431763e-01" purity="3.1301453709602356e-01" nType="-99"/>
        </Node>
        <Node pos="r" depth="1" NCoef="0" IVar="6" Cut="5.1983052492141724e-01" cType="1" res="8.8715612888336182e-02" rms="4.4325059652328491e-01" purity="6.6039848327636719e-01" nType="0">
          <Node pos="l" depth="2" NCoef="0" IVar="-1" Cut="0.0000000000000000e+00" cType="1" res="3.0137165449559689e-03" rms="3.6978849768638611e-01" purity="8.1281036138534546e-01" nType="-99"/>
          <Node pos="r" depth="2" NCoef="0" IVar="-1" Cut="0.0000000000000000e+00" cType="1" res="1.0103993554366753e-04" rms="4.7627145051956177e-01" purity="5.4321634769439697e-01" nType="-99"/>
        </Node>
      </Node>
    </BinaryTree>
    <BinaryTree type="DecisionTree" boostWeight="1.0000000000000000e+00" itree="381">
      <Node pos="s" depth="0" NCoef="0" IVar="2" Cut="9.5338016748428345e-01" cType="1" res="2.4783514440059662e-02" rms="4.4082283973693848e-01" purity="5.1780831813812256e-01" nType="0">
        <Node pos="l" depth="1" NCoef="0" IVar="4" Cut="6.2627075195312500e+02" cType="1" res="-1.6236251220107079e-02" rms="4.5487490296363831e-01" purity="3.5663563013076782e-01" nType="0">
          <Node pos="l" depth="2" NCoef="0" IVar="-1" Cut="0.0000000000000000e+00" cType="1" res="-5.5031548254191875e-04" rms="4.5171302556991577e-01" purity="3.2179260253906250e-01" nType="-99"/>
          <Node pos="r" depth="2" NCoef="0" IVar="-1" Cut="0.0000000000000000e+00" cType="1" res="1.1829072609543800e-03" rms="4.6141988039016724e-01" purity="5.5878329277038574e-01" nType="-99"/>
        </Node>
        <Node pos="r" depth="1" NCoef="0" IVar="3" Cut="1.4349533081054688e+02" cType="1" res="8.3829373121261597e-02" rms="4.1267281770706177e-01" purity="7.4980813264846802e-01" nType="0">
          <Node pos="l" depth="2" NCoef="0" IVar="-1" Cut="0.0000000000000000e+00" cType="1" res="-1.4158606063574553e-03" rms="5.0940448045730591e-01" purity="4.9724936485290527e-01" nType="-99"/>
          <Node pos="r" depth="2" NCoef="0" IVar="-1" Cut="0.0000000000000000e+00" cType="1" res="1.7859246581792831e-03" rms="3.9044877886772156e-01" purity="7.8606641292572021e-01" nType="-99"/>
        </Node>
      </Node>
    </BinaryTree>
    <BinaryTree type="DecisionTree" boostWeight="1.0000000000000000e+00" itree="382">
      <Node pos="s" depth="0" NCoef="0" IVar="1" Cut="9.1839408874511719e-01" cType="1" res="-6.2999059446156025e-03" rms="4.4630217552185059e-01" purity="4.8611781001091003e-01" nType="0">
        <Node pos="l" depth="1" NCoef="0" IVar="3" Cut="1.5742802429199219e+02" cType="1" res="3.1737808138132095e-02" rms="4.4441303610801697e-01" purity="5.8340930938720703e-01" nType="0">
          <Node pos="l" depth="2" NCoef="0" IVar="-1" Cut="0.0000000000000000e+00" cType="1" res="-9.7980245482176542e-04" rms="4.4007512927055359e-01" purity="4.0876013040542603e-01" nType="-99"/>
          <Node pos="r" depth="2" NCoef="0" IVar="-1" Cut="0.0000000000000000e+00" cType="1" res="1.0028304532170296e-03" rms="4.4147992134094238e-01" purity="6.4266294240951538e-01" nType="-99"/>
        </Node>
        <Node pos="r" depth="1" NCoef="0" IVar="6" Cut="1.0055335760116577e+00" cType="1" res="-4.7842394560575485e-02" rms="4.4465425610542297e-01" purity="3.7986198067665100e-01" nType="0">
          <Node pos="l" depth="2" NCoef="0" IVar="-1" Cut="0.0000000000000000e+00" cType="1" res="-3.0005504959262908e-04" rms="4.5290482044219971e-01" purity="4.2538607120513916e-01" nType="-99"/>
          <Node pos="r" depth="2" NCoef="0" IVar="-1" Cut="0.0000000000000000e+00" cType="1" res="-2.0947561133652925e-03" rms="4.1709640622138977e-01" purity="2.7549728751182556e-01" nType="-99"/>
        </Node>
      </Node>
    </BinaryTree>
    <BinaryTree type="DecisionTree" boostWeight="1.0000000000000000e+00" itree="383">
      <Node pos="s" depth="0" NCoef="0" IVar="2" Cut="9.8079043626785278e-01" cType="1" res="-3.2745040953159332e-02" rms="4.4330936670303345e-01" purity="4.6511527895927429e-01" nType="0">
        <Node pos="l" depth="1" NCoef="0" IVar="3" Cut="4.2007852172851562e+02" cType="1" res="-4.5228622853755951e-02" rms="4.4778987765312195e-01" purity="4.3096241354942322e-01" nType="0">
          <Node pos="l" depth="2" NCoef="0" IVar="-1" Cut="0.0000000000000000e+00" cType="1" res="-5.8174441801384091e-04" rms="4.5160502195358276e-01" purity="4.4532594084739685e-01" nType="-99"/>
          <Node pos="r" depth="2" NCoef="0" IVar="-1" Cut="0.0000000000000000e+00" cType="1" res="-2.9814082663506269e-03" rms="3.7943583726882935e-01" purity="2.5734359025955200e-01" nType="-99"/>
        </Node>
        <Node pos="r" depth="1" NCoef="0" IVar="-1" Cut="0.0000000000000000e+00" cType="1" res="1.8508201465010643e-03" rms="3.6492586135864258e-01" purity="8.3565622568130493e-01" nType="-99"/>
      </Node>
    </BinaryTree>
    <BinaryTree type="DecisionTree" boostWeight="1.0000000000000000e+00" itree="384">
      <Node pos="s" depth="0" NCoef="0" IVar="3" Cut="2.1905085754394531e+02" cType="1" res="1.5482582384720445e-03" rms="4.4667968153953552e-01" purity="4.9917507171630859e-01" nType="0">
        <Node pos="l" depth="1" NCoef="0" IVar="5" Cut="1.0394998931884766e+02" cType="1" res="-3.8800142705440521e-02" rms="4.4894528388977051e-01" purity="4.4262680411338806e-01" nType="0">
          <Node pos="l" depth="2" NCoef="0" IVar="-1" Cut="0.0000000000000000e+00" cType="1" res="4.3769241892732680e-04" rms="4.3679592013359070e-01" purity="4.7611930966377258e-01" nType="-99"/>
          <Node pos="r" depth="2" NCoef="0" IVar="-1" Cut="0.0000000000000000e+00" cType="1" res="-1.6045356169342995e-03" rms="4.5157888531684875e-01" purity="4.1171619296073914e-01" nType="-99"/>
        </Node>
        <Node pos="r" depth="1" NCoef="0" IVar="3" Cut="4.0972689819335938e+02" cType="1" res="5.0303559750318527e-02" rms="4.3900632858276367e-01" purity="5.6750565767288208e-01" nType="0">
          <Node pos="l" depth="2" NCoef="0" IVar="-1" Cut="0.0000000000000000e+00" cType="1" res="1.3911527348682284e-03" rms="4.3465787172317505e-01" purity="6.1551535129547119e-01" nType="-99"/>
          <Node pos="r" depth="2" NCoef="0" IVar="-1" Cut="0.0000000000000000e+00" cType="1" res="-2.4823572020977736e-03" rms="4.1281327605247498e-01" purity="3.1150045990943909e-01" nType="-99"/>
        </Node>
      </Node>
    </BinaryTree>
    <BinaryTree type="DecisionTree" boostWeight="1.0000000000000000e+00" itree="385">
      <Node pos="s" depth="0" NCoef="0" IVar="6" Cut="1.0557957887649536e+00" cType="1" res="1.8905831500887871e-02" rms="4.4201669096946716e-01" purity="5.2087873220443726e-01" nType="0">
        <Node pos="l" depth="1" NCoef="0" IVar="3" Cut="1.7979666137695312e+02" cType="1" res="3.4819122403860092e-02" rms="4.3965774774551392e-01" purity="5.4736042022705078e-01" nType="0">
          <Node pos="l" depth="2" NCoef="0" IVar="-1" Cut="0.0000000000000000e+00" cType="1" res="-4.3828628258779645e-04" rms="4.5006197690963745e-01" purity="4.4089710712432861e-01" nType="-99"/>
          <Node pos="r" depth="2" NCoef="0" IVar="-1" Cut="0.0000000000000000e+00" cType="1" res="1.1475853389129043e-03" rms="4.2950183153152466e-01" purity="6.0883802175521851e-01" nType="-99"/>
        </Node>
        <Node pos="r" depth="1" NCoef="0" IVar="6" Cut="1.1737046241760254e+00" cType="1" res="-1.1509140580892563e-01" rms="4.3909472227096558e-01" purity="2.9789063334465027e-01" nType="0">
          <Node pos="l" depth="2" NCoef="0" IVar="-1" Cut="0.0000000000000000e+00" cType="1" res="-2.4205011141020805e-04" rms="4.7288990020751953e-01" purity="3.9180794358253479e-01" nType="-99"/>
          <Node pos="r" depth="2" NCoef="0" IVar="-1" Cut="0.0000000000000000e+00" cType="1" res="-3.9984248578548431e-03" rms="3.7196591496467590e-01" purity="1.9928874075412750e-01" nType="-99"/>
        </Node>
      </Node>
    </BinaryTree>
    <BinaryTree type="DecisionTree" boostWeight="1.0000000000000000e+00" itree="386">
      <Node pos="s" depth="0" NCoef="0" IVar="1" Cut="8.7263751029968262e-01" cType="1" res="-2.9660377185791731e-03" rms="4.4339564442634583e-01" purity="4.9307617545127869e-01" nType="0">
        <Node pos="l" depth="1" NCoef="0" IVar="2" Cut="9.4410789012908936e-01" cType="1" res="6.3149839639663696e-02" rms="4.2778828740119934e-01" purity="6.2569200992584229e-01" nType="0">
          <Node pos="l" depth="2" NCoef="0" IVar="-1" Cut="0.0000000000000000e+00" cType="1" res="-3.7766507011838257e-04" rms="4.5660230517387390e-01" purity="3.7437328696250916e-01" nType="-99"/>
          <Node pos="r" depth="2" NCoef="0" IVar="-1" Cut="0.0000000000000000e+00" cType="1" res="1.8300804076716304e-03" rms="4.0019482374191284e-01" purity="7.7843165397644043e-01" nType="-99"/>
        </Node>
        <Node pos="r" depth="1" NCoef="0" IVar="5" Cut="1.7532707214355469e+02" cType="1" res="-6.4798295497894287e-02" rms="4.4878095388412476e-01" purity="3.6905243992805481e-01" nType="0">
          <Node pos="l" depth="2" NCoef="0" IVar="-1" Cut="0.0000000000000000e+00" cType="1" res="-6.1969470698386431e-04" rms="4.3911421298980713e-01" purity="3.8218590617179871e-01" nType="-99"/>
          <Node pos="r" depth="2" NCoef="0" IVar="-1" Cut="0.0000000000000000e+00" cType="1" res="-2.7452833019196987e-03" rms="4.6729040145874023e-01" purity="3.2082250714302063e-01" nType="-99"/>
        </Node>
      </Node>
    </BinaryTree>
    <BinaryTree type="DecisionTree" boostWeight="1.0000000000000000e+00" itree="387">
      <Node pos="s" depth="0" NCoef="0" IVar="3" Cut="1.2368386840820312e+02" cType="1" res="-1.9695663824677467e-02" rms="4.4196438789367676e-01" purity="4.6973630785942078e-01" nType="0">
        <Node pos="l" depth="1" NCoef="0" IVar="-1" Cut="0.0000000000000000e+00" cType="1" res="-2.8564091771841049e-03" rms="4.1033929586410522e-01" purity="2.8069955110549927e-01" nType="-99"/>
        <Node pos="r" depth="1" NCoef="0" IVar="1" Cut="1.6108750104904175e+00" cType="1" res="-9.3105295673012733e-03" rms="4.4221350550651550e-01" purity="4.8289963603019714e-01" nType="0">
          <Node pos="l" depth="2" NCoef="0" IVar="-1" Cut="0.0000000000000000e+00" cType="1" res="8.7371758127119392e-05" rms="4.5096218585968018e-01" purity="5.2133518457412720e-01" nType="-99"/>
          <Node pos="r" depth="2" NCoef="0" IVar="-1" Cut="0.0000000000000000e+00" cType="1" res="-2.9600863344967365e-03" rms="3.2356142997741699e-01" purity="1.3334809243679047e-01" nType="-99"/>
        </Node>
      </Node>
    </BinaryTree>
    <BinaryTree type="DecisionTree" boostWeight="1.0000000000000000e+00" itree="388">
      <Node pos="s" depth="0" NCoef="0" IVar="3" Cut="2.2880743408203125e+02" cType="1" res="1.6224836930632591e-02" rms="4.4268056750297546e-01" purity="5.2340793609619141e-01" nType="0">
        <Node pos="l" depth="1" NCoef="0" IVar="3" Cut="2.0655400085449219e+02" cType="1" res="-3.3012196421623230e-02" rms="4.4980639219284058e-01" purity="4.5980623364448547e-01" nType="0">
          <Node pos="l" depth="2" NCoef="0" IVar="-1" Cut="0.0000000000000000e+00" cType="1" res="-1.1888622539117932e-03" rms="4.4599938392639160e-01" purity="4.0771076083183289e-01" nType="-99"/>
          <Node pos="r" depth="2" NCoef="0" IVar="-1" Cut="0.0000000000000000e+00" cType="1" res="2.0347116515040398e-03" rms="4.2928984761238098e-01" purity="6.8573951721191406e-01" nType="-99"/>
        </Node>
        <Node pos="r" depth="1" NCoef="0" IVar="1" Cut="1.3743251562118530e+00" cType="1" res="8.1267818808555603e-02" rms="4.2441925406455994e-01" purity="6.0742688179016113e-01" nType="0">
          <Node pos="l" depth="2" NCoef="0" IVar="-1" Cut="0.0000000000000000e+00" cType="1" res="2.3337888997048140e-03" rms="4.1300350427627563e-01" purity="7.4695426225662231e-01" nType="-99"/>
          <Node pos="r" depth="2" NCoef="0" IVar="-1" Cut="0.0000000000000000e+00" cType="1" res="-1.6370441298931837e-03" rms="4.0612971782684326e-01" purity="2.5434404611587524e-01" nType="-99"/>
        </Node>
      </Node>
    </BinaryTree>
    <BinaryTree type="DecisionTree" boostWeight="1.0000000000000000e+00" itree="389">
      <Node pos="s" depth="0" NCoef="0" IVar="3" Cut="2.0333737182617188e+02" cType="1" res="1.4396823942661285e-02" rms="4.3684750795364380e-01" purity="5.1668733358383179e-01" nType="0">
        <Node pos="l" depth="1" NCoef="0" IVar="2" Cut="9.4141221046447754e-01" cType="1" res="-3.3565316349267960e-02" rms="4.4133439660072327e-01" purity="4.4426354765892029e-01" nType="0">
          <Node pos="l" depth="2" NCoef="0" IVar="-1" Cut="0.0000000000000000e+00" cType="1" res="-2.1787257865071297e-03" rms="3.8770416378974915e-01" purity="1.9201837480068207e-01" nType="-99"/>
          <Node pos="r" depth="2" NCoef="0" IVar="-1" Cut="0.0000000000000000e+00" cType="1" res="3.9307033875957131e-04" rms="4.6495369076728821e-01" purity="6.1520248651504517e-01" nType="-99"/>
        </Node>
        <Node pos="r" depth="1" NCoef="0" IVar="1" Cut="1.0343242883682251e+00" cType="1" res="5.8257021009922028e-02" rms="4.2802467942237854e-01" purity="5.8291709423065186e-01" nType="0">
          <Node pos="l" depth="2" NCoef="0" IVar="-1" Cut="0.0000000000000000e+00" cType="1" res="2.1221924107521772e-03" rms="4.0823441743850708e-01" purity="7.6124173402786255e-01" nType="-99"/>
          <Node pos="r" depth="2" NCoef="0" IVar="-1" Cut="0.0000000000000000e+00" cType="1" res="-3.1057011801749468e-04" rms="4.3442350625991821e-01" purity="4.0006363391876221e-01" nType="-99"/>
        </Node>
      </Node>
    </BinaryTree>
    <BinaryTree type="DecisionTree" boostWeight="1.0000000000000000e+00" itree="390">
      <Node pos="s" depth="0" NCoef="0" IVar="3" Cut="2.2098672485351562e+02" cType="1" res="1.2535900808870792e-02" rms="4.4011574983596802e-01" purity="5.0660508871078491e-01" nType="0">
        <Node pos="l" depth="1" NCoef="0" IVar="2" Cut="9.1928291320800781e-01" cType="1" res="-4.3149262666702271e-02" rms="4.4965270161628723e-01" purity="4.1574928164482117e-01" nType="0">
          <Node pos="l" depth="2" NCoef="0" IVar="-1" Cut="0.0000000000000000e+00" cType="1" res="-3.4937311429530382e-03" rms="2.8013777732849121e-01" purity="8.7879337370395660e-02" nType="-99"/>
          <Node pos="r" depth="2" NCoef="0" IVar="-1" Cut="0.0000000000000000e+00" cType="1" res="-3.6117964191362262e-04" rms="4.6741607785224915e-01" purity="4.6716880798339844e-01" nType="-99"/>
        </Node>
        <Node pos="r" depth="1" NCoef="0" IVar="6" Cut="6.2711519002914429e-01" cType="1" res="7.7919505536556244e-02" rms="4.1931179165840149e-01" purity="6.1328476667404175e-01" nType="0">
          <Node pos="l" depth="2" NCoef="0" IVar="-1" Cut="0.0000000000000000e+00" cType="1" res="2.3265162017196417e-03" rms="3.7241762876510620e-01" purity="7.7342516183853149e-01" nType="-99"/>
          <Node pos="r" depth="2" NCoef="0" IVar="-1" Cut="0.0000000000000000e+00" cType="1" res="5.4654199630022049e-04" rms="4.4263008236885071e-01" purity="5.0463891029357910e-01" nType="-99"/>
        </Node>
      </Node>
    </BinaryTree>
    <BinaryTree type="DecisionTree" boostWeight="1.0000000000000000e+00" itree="391">
      <Node pos="s" depth="0" NCoef="0" IVar="2" Cut="9.5234948396682739e-01" cType="1" res="9.4844177365303040e-03" rms="4.5052129030227661e-01" purity="5.0594395399093628e-01" nType="0">
        <Node pos="l" depth="1" NCoef="0" IVar="4" Cut="6.1506054687500000e+02" cType="1" res="-2.1723179146647453e-02" rms="4.5269680023193359e-01" purity="3.5416957736015320e-01" nType="0">
          <Node pos="l" depth="2" NCoef="0" IVar="-1" Cut="0.0000000000000000e+00" cType="1" res="-7.0318754296749830e-04" rms="4.4300070405006409e-01" purity="3.1091651320457458e-01" nType="-99"/>
          <Node pos="r" depth="2" NCoef="0" IVar="-1" Cut="0.0000000000000000e+00" cType="1" res="9.9454249721020460e-04" rms="4.8445609211921692e-01" purity="5.5048424005508423e-01" nType="-99"/>
        </Node>
        <Node pos="r" depth="1" NCoef="0" IVar="1" Cut="9.5761698484420776e-01" cType="1" res="4.9184702336788177e-02" rms="4.4458374381065369e-01" purity="6.9902145862579346e-01" nType="0">
          <Node pos="l" depth="2" NCoef="0" IVar="-1" Cut="0.0000000000000000e+00" cType="1" res="2.7226482052356005e-04" rms="4.4169190526008606e-01" purity="7.1789282560348511e-01" nType="-99"/>
          <Node pos="r" depth="2" NCoef="0" IVar="-1" Cut="0.0000000000000000e+00" cType="1" res="1.4622051967307925e-03" rms="4.4449755549430847e-01" purity="6.7245274782180786e-01" nType="-99"/>
        </Node>
      </Node>
    </BinaryTree>
    <BinaryTree type="DecisionTree" boostWeight="1.0000000000000000e+00" itree="392">
      <Node pos="s" depth="0" NCoef="0" IVar="3" Cut="3.5036267089843750e+02" cType="1" res="-6.0347528196871281e-03" rms="4.3757459521293640e-01" purity="4.8543345928192139e-01" nType="0">
        <Node pos="l" depth="1" NCoef="0" IVar="3" Cut="2.2485337829589844e+02" cType="1" res="9.6244905143976212e-03" rms="4.3946570158004761e-01" purity="5.1005619764328003e-01" nType="0">
          <Node pos="l" depth="2" NCoef="0" IVar="-1" Cut="0.0000000000000000e+00" cType="1" res="-4.4111072202213109e-04" rms="4.3467324972152710e-01" purity="4.5671972632408142e-01" nType="-99"/>
          <Node pos="r" depth="2" NCoef="0" IVar="-1" Cut="0.0000000000000000e+00" cType="1" res="1.2061557499691844e-03" rms="4.4049769639968872e-01" purity="6.0450714826583862e-01" nType="-99"/>
        </Node>
        <Node pos="r" depth="1" NCoef="0" IVar="6" Cut="7.6993155479431152e-01" cType="1" res="-1.3343563675880432e-01" rms="3.9968943595886230e-01" purity="2.8510707616806030e-01" nType="0">
          <Node pos="l" depth="2" NCoef="0" IVar="-1" Cut="0.0000000000000000e+00" cType="1" res="-1.7840034561231732e-03" rms="4.1358092427253723e-01" purity="3.8002809882164001e-01" nType="-99"/>
          <Node pos="r" depth="2" NCoef="0" IVar="-1" Cut="0.0000000000000000e+00" cType="1" res="-3.4697370138019323e-03" rms="3.8117918372154236e-01" purity="1.8291962146759033e-01" nType="-99"/>
        </Node>
      </Node>
    </BinaryTree>
    <BinaryTree type="DecisionTree" boostWeight="1.0000000000000000e+00" itree="393">
      <Node pos="s" depth="0" NCoef="0" IVar="2" Cut="9.1230034828186035e-01" cType="1" res="2.0640563219785690e-02" rms="4.4762790203094482e-01" purity="5.1439142227172852e-01" nType="0">
        <Node pos="l" depth="1" NCoef="0" IVar="-1" Cut="0.0000000000000000e+00" cType="1" res="-2.1727918647229671e-03" rms="3.2435908913612366e-01" purity="1.3764180243015289e-01" nType="-99"/>
        <Node pos="r" depth="1" NCoef="0" IVar="1" Cut="1.1338804960250854e+00" cType="1" res="3.1014265492558479e-02" rms="4.5473811030387878e-01" purity="5.4539591073989868e-01" nType="0">
          <Node pos="l" depth="2" NCoef="0" IVar="-1" Cut="0.0000000000000000e+00" cType="1" res="9.0044032549485564e-04" rms="4.5260101556777954e-01" purity="6.2702256441116333e-01" nType="-99"/>
          <Node pos="r" depth="2" NCoef="0" IVar="-1" Cut="0.0000000000000000e+00" cType="1" res="-4.9689738079905510e-04" rms="4.5395725965499878e-01" purity="3.6062738299369812e-01" nType="-99"/>
        </Node>
      </Node>
    </BinaryTree>
    <BinaryTree type="DecisionTree" boostWeight="1.0000000000000000e+00" itree="394">
      <Node pos="s" depth="0" NCoef="0" IVar="3" Cut="1.3421116638183594e+02" cType="1" res="-6.8613244220614433e-03" rms="4.5477309823036194e-01" purity="4.8113477230072021e-01" nType="0">
        <Node pos="l" depth="1" NCoef="0" IVar="-1" Cut="0.0000000000000000e+00" cType="1" res="-3.8113710470497608e-03" rms="3.8408911228179932e-01" purity="2.2971363365650177e-01" nType="-99"/>
        <Node pos="r" depth="1" NCoef="0" IVar="1" Cut="1.2502900362014771e+00" cType="1" res="1.1481144465506077e-02" rms="4.5633819699287415e-01" purity="5.0417524576187134e-01" nType="0">
          <Node pos="l" depth="2" NCoef="0" IVar="-1" Cut="0.0000000000000000e+00" cType="1" res="5.3119106451049447e-04" rms="4.6528011560440063e-01" purity="5.7768547534942627e-01" nType="-99"/>
          <Node pos="r" depth="2" NCoef="0" IVar="-1" Cut="0.0000000000000000e+00" cType="1" res="-9.7771291621029377e-04" rms="4.2297732830047607e-01" purity="2.9078307747840881e-01" nType="-99"/>
        </Node>
      </Node>
    </BinaryTree>
    <BinaryTree type="DecisionTree" boostWeight="1.0000000000000000e+00" itree="395">
      <Node pos="s" depth="0" NCoef="0" IVar="2" Cut="9.3762856721878052e-01" cType="1" res="2.2010102402418852e-03" rms="4.4449329376220703e-01" purity="5.0596165657043457e-01" nType="0">
        <Node pos="l" depth="1" NCoef="0" IVar="6" Cut="5.7515639066696167e-01" cType="1" res="-6.6883929073810577e-02" rms="4.2512261867523193e-01" purity="2.7014121413230896e-01" nType="0">
          <Node pos="l" depth="2" NCoef="0" IVar="-1" Cut="0.0000000000000000e+00" cType="1" res="-1.7808310076361522e-05" rms="4.5429852604866028e-01" purity="3.5632589459419250e-01" nType="-99"/>
          <Node pos="r" depth="2" NCoef="0" IVar="-1" Cut="0.0000000000000000e+00" cType="1" res="-1.8287349957972765e-03" rms="4.0403988957405090e-01" purity="2.2354345023632050e-01" nType="-99"/>
        </Node>
        <Node pos="r" depth="1" NCoef="0" IVar="3" Cut="1.9058024597167969e+02" cType="1" res="3.6968562752008438e-02" rms="4.4993445277214050e-01" purity="6.2464022636413574e-01" nType="0">
          <Node pos="l" depth="2" NCoef="0" IVar="-1" Cut="0.0000000000000000e+00" cType="1" res="-3.6384325358085334e-04" rms="4.7328439354896545e-01" purity="5.4781717061996460e-01" nType="-99"/>
          <Node pos="r" depth="2" NCoef="0" IVar="-1" Cut="0.0000000000000000e+00" cType="1" res="1.2182617792859674e-03" rms="4.2983520030975342e-01" purity="6.7402261495590210e-01" nType="-99"/>
        </Node>
      </Node>
    </BinaryTree>
    <BinaryTree type="DecisionTree" boostWeight="1.0000000000000000e+00" itree="396">
      <Node pos="s" depth="0" NCoef="0" IVar="4" Cut="6.6358203125000000e+02" cType="1" res="2.1117236465215683e-02" rms="4.4945123791694641e-01" purity="5.1615118980407715e-01" nType="0">
        <Node pos="l" depth="1" NCoef="0" IVar="5" Cut="6.5039649963378906e+01" cType="1" res="6.1115254648029804e-03" rms="4.5320737361907959e-01" purity="4.8687571287155151e-01" nType="0">
          <Node pos="l" depth="2" NCoef="0" IVar="-1" Cut="0.0000000000000000e+00" cType="1" res="2.9506902210414410e-03" rms="4.6350687742233276e-01" purity="5.4016619920730591e-01" nType="-99"/>
          <Node pos="r" depth="2" NCoef="0" IVar="-1" Cut="0.0000000000000000e+00" cType="1" res="-8.7124368292279541e-05" rms="4.5023313164710999e-01" purity="4.8328757286071777e-01" nType="-99"/>
        </Node>
        <Node pos="r" depth="1" NCoef="0" IVar="1" Cut="7.7902275323867798e-01" cType="1" res="1.2415594607591629e-01" rms="4.0812009572982788e-01" purity="7.1717518568038940e-01" nType="0">
          <Node pos="l" depth="2" NCoef="0" IVar="-1" Cut="0.0000000000000000e+00" cType="1" res="2.6666063349694014e-03" rms="3.6725994944572449e-01" purity="8.1482607126235962e-01" nType="-99"/>
          <Node pos="r" depth="2" NCoef="0" IVar="-1" Cut="0.0000000000000000e+00" cType="1" res="1.1683853808790445e-03" rms="4.3962404131889343e-01" purity="6.1963737010955811e-01" nType="-99"/>
        </Node>
      </Node>
    </BinaryTree>
    <BinaryTree type="DecisionTree" boostWeight="1.0000000000000000e+00" itree="397">
      <Node pos="s" depth="0" NCoef="0" IVar="2" Cut="9.5233768224716187e-01" cType="1" res="6.0368166305124760e-03" rms="4.3530035018920898e-01" purity="5.0042611360549927e-01" nType="0">
        <Node pos="l" depth="1" NCoef="0" IVar="5" Cut="1.1902449798583984e+02" cType="1" res="-3.8952540606260300e-02" rms="4.4060480594635010e-01" purity="3.3248659968376160e-01" nType="0">
          <Node pos="l" depth="2" NCoef="0" IVar="-1" Cut="0.0000000000000000e+00" cType="1" res="-7.9583689512219280e-05" rms="4.3742799758911133e-01" purity="3.1415706872940063e-01" nType="-99"/>
          <Node pos="r" depth="2" NCoef="0" IVar="-1" Cut="0.0000000000000000e+00" cType="1" res="-1.3021284248679876e-03" rms="4.4077041745185852e-01" purity="3.5540726780891418e-01" nType="-99"/>
        </Node>
        <Node pos="r" depth="1" NCoef="0" IVar="6" Cut="8.7896358966827393e-01" cType="1" res="6.2675632536411285e-02" rms="4.2175939679145813e-01" purity="7.1185147762298584e-01" nType="0">
          <Node pos="l" depth="2" NCoef="0" IVar="-1" Cut="0.0000000000000000e+00" cType="1" res="1.4314603758975863e-03" rms="4.0070700645446777e-01" purity="7.6062989234924316e-01" nType="-99"/>
          <Node pos="r" depth="2" NCoef="0" IVar="-1" Cut="0.0000000000000000e+00" cType="1" res="-3.8760536699555814e-04" rms="4.7482466697692871e-01" purity="5.5033689737319946e-01" nType="-99"/>
        </Node>
      </Node>
    </BinaryTree>
    <BinaryTree type="DecisionTree" boostWeight="1.0000000000000000e+00" itree="398">
      <Node pos="s" depth="0" NCoef="0" IVar="2" Cut="9.1821527481079102e-01" cType="1" res="3.9591239765286446e-03" rms="4.3331709504127502e-01" purity="4.9960505962371826e-01" nType="0">
        <Node pos="l" depth="1" NCoef="0" IVar="6" Cut="6.8649423122406006e-01" cType="1" res="-1.2875086069107056e-01" rms="3.1952902674674988e-01" purity="1.3289397954940796e-01" nType="0">
          <Node pos="l" depth="2" NCoef="0" IVar="-1" Cut="0.0000000000000000e+00" cType="1" res="-3.8753747940063477e-03" rms="2.5878006219863892e-01" purity="8.6893126368522644e-02" nType="-99"/>
          <Node pos="r" depth="2" NCoef="0" IVar="-1" Cut="0.0000000000000000e+00" cType="1" res="-1.0403885971754789e-03" rms="3.6207413673400879e-01" purity="1.8612919747829437e-01" nType="-99"/>
        </Node>
        <Node pos="r" depth="1" NCoef="0" IVar="1" Cut="1.1582472324371338e+00" cType="1" res="2.1217020228505135e-02" rms="4.4307520985603333e-01" purity="5.4729300737380981e-01" nType="0">
          <Node pos="l" depth="2" NCoef="0" IVar="-1" Cut="0.0000000000000000e+00" cType="1" res="8.1635848619043827e-04" rms="4.4346913695335388e-01" purity="6.3464725017547607e-01" nType="-99"/>
          <Node pos="r" depth="2" NCoef="0" IVar="-1" Cut="0.0000000000000000e+00" cType="1" res="-9.5776090165600181e-04" rms="4.3322962522506714e-01" purity="3.2823523879051208e-01" nType="-99"/>
        </Node>
      </Node>
    </BinaryTree>
    <BinaryTree type="DecisionTree" boostWeight="1.0000000000000000e+00" itree="399">
      <Node pos="s" depth="0" NCoef="0" IVar="2" Cut="9.2379665374755859e-01" cType="1" res="-5.8230538852512836e-03" rms="4.3556517362594604e-01" purity="4.8669701814651489e-01" nType="0">
        <Node pos="l" depth="1" NCoef="0" IVar="1" Cut="7.2142148017883301e-01" cType="1" res="-1.1253347247838974e-01" rms="3.5852149128913879e-01" purity="1.6968581080436707e-01" nType="0">
          <Node pos="l" depth="2" NCoef="0" IVar="-1" Cut="0.0000000000000000e+00" cType="1" res="-3.5570666659623384e-03" rms="3.2544198632240295e-01" purity="1.4305628836154938e-01" nType="-99"/>
          <Node pos="r" depth="2" NCoef="0" IVar="-1" Cut="0.0000000000000000e+00" cType="1" res="-1.3701783027499914e-03" rms="3.6560493707656860e-01" purity="1.8296037614345551e-01" nType="-99"/>
        </Node>
        <Node pos="r" depth="1" NCoef="0" IVar="0" Cut="3.1262750244140625e+02" cType="1" res="1.4625250361859798e-02" rms="4.4591513276100159e-01" purity="5.4744410514831543e-01" nType="0">
          <Node pos="l" depth="2" NCoef="0" IVar="-1" Cut="0.0000000000000000e+00" cType="1" res="-5.3449982078745961e-04" rms="4.5016443729400635e-01" purity="4.4552549719810486e-01" nType="-99"/>
          <Node pos="r" depth="2" NCoef="0" IVar="-1" Cut="0.0000000000000000e+00" cType="1" res="9.8542321939021349e-04" rms="4.3663603067398071e-01" purity="6.4918088912963867e-01" nType="-99"/>
        </Node>
      </Node>
    </BinaryTree>
    <BinaryTree type="DecisionTree" boostWeight="1.0000000000000000e+00" itree="400">
      <Node pos="s" depth="0" NCoef="0" IVar="1" Cut="6.8931919336318970e-01" cType="1" res="-1.6744842287153006e-03" rms="4.4465592503547668e-01" purity="4.8635014891624451e-01" nType="0">
        <Node pos="l" depth="1" NCoef="0" IVar="6" Cut="5.6680303812026978e-01" cType="1" res="6.6336251795291901e-02" rms="4.4077429175376892e-01" purity="6.2305694818496704e-01" nType="0">
          <Node pos="l" depth="2" NCoef="0" IVar="-1" Cut="0.0000000000000000e+00" cType="1" res="1.7400485230609775e-03" rms="4.2449322342872620e-01" purity="6.7176848649978638e-01" nType="-99"/>
          <Node pos="r" depth="2" NCoef="0" IVar="-1" Cut="0.0000000000000000e+00" cType="1" res="-4.0315423393622041e-04" rms="4.6305069327354431e-01" purity="5.1140511035919189e-01" nType="-99"/>
        </Node>
        <Node pos="r" depth="1" NCoef="0" IVar="2" Cut="9.6210354566574097e-01" cType="1" res="-2.6608077809214592e-02" rms="4.4346529245376587e-01" purity="4.3623173236846924e-01" nType="0">
          <Node pos="l" depth="2" NCoef="0" IVar="-1" Cut="0.0000000000000000e+00" cType="1" res="-8.5478438995778561e-04" rms="4.4088762998580933e-01" purity="3.4754922986030579e-01" nType="-99"/>
          <Node pos="r" depth="2" NCoef="0" IVar="-1" Cut="0.0000000000000000e+00" cType="1" res="7.6661421917378902e-04" rms="4.4304144382476807e-01" purity="7.0354896783828735e-01" nType="-99"/>
        </Node>
      </Node>
    </BinaryTree>
    <BinaryTree type="DecisionTree" boostWeight="1.0000000000000000e+00" itree="401">
      <Node pos="s" depth="0" NCoef="0" IVar="1" Cut="1.0182981491088867e+00" cType="1" res="-5.2454369142651558e-03" rms="4.4290339946746826e-01" purity="4.9174761772155762e-01" nType="0">
        <Node pos="l" depth="1" NCoef="0" IVar="3" Cut="1.9058024597167969e+02" cType="1" res="3.2374203205108643e-02" rms="4.5327001810073853e-01" purity="5.9098279476165771e-01" nType="0">
          <Node pos="l" depth="2" NCoef="0" IVar="-1" Cut="0.0000000000000000e+00" cType="1" res="-3.9255304727703333e-04" rms="4.6672245860099792e-01" purity="4.6617504954338074e-01" nType="-99"/>
          <Node pos="r" depth="2" NCoef="0" IVar="-1" Cut="0.0000000000000000e+00" cType="1" res="1.4327004319056869e-03" rms="4.3229144811630249e-01" purity="7.1398073434829712e-01" nType="-99"/>
        </Node>
        <Node pos="r" depth="1" NCoef="0" IVar="2" Cut="9.4920510053634644e-01" cType="1" res="-6.5633222460746765e-02" rms="4.1872665286064148e-01" purity="3.3245331048965454e-01" nType="0">
          <Node pos="l" depth="2" NCoef="0" IVar="-1" Cut="0.0000000000000000e+00" cType="1" res="-2.1739290095865726e-03" rms="3.7262555956840515e-01" purity="1.8516705930233002e-01" nType="-99"/>
          <Node pos="r" depth="2" NCoef="0" IVar="-1" Cut="0.0000000000000000e+00" cType="1" res="-2.7953632525168359e-05" rms="4.6801254153251648e-01" purity="5.3720676898956299e-01" nType="-99"/>
        </Node>
      </Node>
    </BinaryTree>
    <BinaryTree type="DecisionTree" boostWeight="1.0000000000000000e+00" itree="402">
      <Node pos="s" depth="0" NCoef="0" IVar="4" Cut="4.4466973876953125e+02" cType="1" res="-9.5653338357806206e-03" rms="4.5019972324371338e-01" purity="4.8192989826202393e-01" nType="0">
        <Node pos="l" depth="1" NCoef="0" IVar="2" Cut="9.7343033552169800e-01" cType="1" res="-4.9864780157804489e-02" rms="4.3672764301300049e-01" purity="3.8419142365455627e-01" nType="0">
          <Node pos="l" depth="2" NCoef="0" IVar="-1" Cut="0.0000000000000000e+00" cType="1" res="-1.2319074012339115e-03" rms="4.3867379426956177e-01" purity="3.2832112908363342e-01" nType="-99"/>
          <Node pos="r" depth="2" NCoef="0" IVar="-1" Cut="0.0000000000000000e+00" cType="1" res="1.5964760677888989e-03" rms="3.9290574193000793e-01" purity="7.7164757251739502e-01" nType="-99"/>
        </Node>
        <Node pos="r" depth="1" NCoef="0" IVar="1" Cut="9.5577126741409302e-01" cType="1" res="2.9178032651543617e-02" rms="4.5946142077445984e-01" purity="5.7589441537857056e-01" nType="0">
          <Node pos="l" depth="2" NCoef="0" IVar="-1" Cut="0.0000000000000000e+00" cType="1" res="1.0684871813282371e-03" rms="4.4684886932373047e-01" purity="6.6494226455688477e-01" nType="-99"/>
          <Node pos="r" depth="2" NCoef="0" IVar="-1" Cut="0.0000000000000000e+00" cType="1" res="-5.2844308083876967e-04" rms="4.7276842594146729e-01" purity="4.3179166316986084e-01" nType="-99"/>
        </Node>
      </Node>
    </BinaryTree>
    <BinaryTree type="DecisionTree" boostWeight="1.0000000000000000e+00" itree="403">
      <Node pos="s" depth="0" NCoef="0" IVar="3" Cut="2.2462571716308594e+02" cType="1" res="1.0842854157090187e-02" rms="4.5211318135261536e-01" purity="5.0155484676361084e-01" nType="0">
        <Node pos="l" depth="1" NCoef="0" IVar="5" Cut="1.6992315673828125e+02" cType="1" res="-2.7527721598744392e-02" rms="4.5488306879997253e-01" purity="4.5261323451995850e-01" nType="0">
          <Node pos="l" depth="2" NCoef="0" IVar="-1" Cut="0.0000000000000000e+00" cType="1" res="-2.2389421064872295e-04" rms="4.5343866944313049e-01" purity="4.5692935585975647e-01" nType="-99"/>
          <Node pos="r" depth="2" NCoef="0" IVar="-1" Cut="0.0000000000000000e+00" cType="1" res="-2.4225306697189808e-03" rms="4.4967505335807800e-01" purity="4.1606950759887695e-01" nType="-99"/>
        </Node>
        <Node pos="r" depth="1" NCoef="0" IVar="1" Cut="1.5543081760406494e+00" cType="1" res="5.5930871516466141e-02" rms="4.4462484121322632e-01" purity="5.5906450748443604e-01" nType="0">
          <Node pos="l" depth="2" NCoef="0" IVar="-1" Cut="0.0000000000000000e+00" cType="1" res="1.4361673966050148e-03" rms="4.5168024301528931e-01" purity="6.4064544439315796e-01" nType="-99"/>
          <Node pos="r" depth="2" NCoef="0" IVar="-1" Cut="0.0000000000000000e+00" cType="1" res="-1.7911921022459865e-03" rms="3.8000601530075073e-01" purity="2.0458252727985382e-01" nType="-99"/>
        </Node>
      </Node>
    </BinaryTree>
    <BinaryTree type="DecisionTree" boostWeight="1.0000000000000000e+00" itree="404">
      <Node pos="s" depth="0" NCoef="0" IVar="3" Cut="4.8304058837890625e+02" cType="1" res="2.4475671350955963e-02" rms="4.4670820236206055e-01" purity="5.2677667140960693e-01" nType="0">
        <Node pos="l" depth="1" NCoef="0" IVar="3" Cut="1.4439466857910156e+02" cType="1" res="3.6021690815687180e-02" rms="4.4685950875282288e-01" purity="5.4415398836135864e-01" nType="0">
          <Node pos="l" depth="2" NCoef="0" IVar="-1" Cut="0.0000000000000000e+00" cType="1" res="-1.7933493945747614e-03" rms="4.5909342169761658e-01" purity="3.2878893613815308e-01" nType="-99"/>
          <Node pos="r" depth="2" NCoef="0" IVar="-1" Cut="0.0000000000000000e+00" cType="1" res="9.1471016639843583e-04" rms="4.4149073958396912e-01" purity="5.7404500246047974e-01" nType="-99"/>
        </Node>
        <Node pos="r" depth="1" NCoef="0" IVar="-1" Cut="0.0000000000000000e+00" cType="1" res="-3.2439944334328175e-03" rms="3.9447206258773804e-01" purity="2.2830457985401154e-01" nType="-99"/>
      </Node>
    </BinaryTree>
    <BinaryTree type="DecisionTree" boostWeight="1.0000000000000000e+00" itree="405">
      <Node pos="s" depth="0" NCoef="0" IVar="5" Cut="1.3571942138671875e+02" cType="1" res="4.9610869027674198e-03" rms="4.5158091187477112e-01" purity="5.0799232721328735e-01" nType="0">
        <Node pos="l" depth="1" NCoef="0" IVar="4" Cut="3.5584545898437500e+02" cType="1" res="3.5921711474657059e-02" rms="4.3918669223785400e-01" purity="5.1003491878509521e-01" nType="0">
          <Node pos="l" depth="2" NCoef="0" IVar="-1" Cut="0.0000000000000000e+00" cType="1" res="-9.6452917205169797e-04" rms="4.1971495747566223e-01" purity="3.2145437598228455e-01" nType="-99"/>
          <Node pos="r" depth="2" NCoef="0" IVar="-1" Cut="0.0000000000000000e+00" cType="1" res="1.1733692372217774e-03" rms="4.4162562489509583e-01" purity="5.8823972940444946e-01" nType="-99"/>
        </Node>
        <Node pos="r" depth="1" NCoef="0" IVar="3" Cut="2.2439308166503906e+02" cType="1" res="-4.1302751749753952e-02" rms="4.6567159891128540e-01" purity="5.0494027137756348e-01" nType="0">
          <Node pos="l" depth="2" NCoef="0" IVar="-1" Cut="0.0000000000000000e+00" cType="1" res="-1.8495545955374837e-03" rms="4.7280544042587280e-01" purity="4.0858754515647888e-01" nType="-99"/>
          <Node pos="r" depth="2" NCoef="0" IVar="-1" Cut="0.0000000000000000e+00" cType="1" res="1.2017609697068110e-04" rms="4.5441353321075439e-01" purity="5.6882470846176147e-01" nType="-99"/>
        </Node>
      </Node>
    </BinaryTree>
    <BinaryTree type="DecisionTree" boostWeight="1.0000000000000000e+00" itree="406">
      <Node pos="s" depth="0" NCoef="0" IVar="1" Cut="1.1411498785018921e+00" cType="1" res="-1.2917756102979183e-03" rms="4.4769892096519470e-01" purity="4.9813631176948547e-01" nType="0">
        <Node pos="l" depth="1" NCoef="0" IVar="3" Cut="1.8242637634277344e+02" cType="1" res="2.0708441734313965e-02" rms="4.4750118255615234e-01" purity="5.7824242115020752e-01" nType="0">
          <Node pos="l" depth="2" NCoef="0" IVar="-1" Cut="0.0000000000000000e+00" cType="1" res="-8.5245858645066619e-04" rms="4.6089497208595276e-01" purity="4.2490211129188538e-01" nType="-99"/>
          <Node pos="r" depth="2" NCoef="0" IVar="-1" Cut="0.0000000000000000e+00" cType="1" res="1.1267152149230242e-03" rms="4.3095323443412781e-01" purity="6.8319028615951538e-01" nType="-99"/>
        </Node>
        <Node pos="r" depth="1" NCoef="0" IVar="0" Cut="3.8075704956054688e+02" cType="1" res="-5.0704106688499451e-02" rms="4.4418835639953613e-01" purity="3.1821841001510620e-01" nType="0">
          <Node pos="l" depth="2" NCoef="0" IVar="-1" Cut="0.0000000000000000e+00" cType="1" res="-4.8145942855626345e-04" rms="4.3853622674942017e-01" purity="3.2296454906463623e-01" nType="-99"/>
          <Node pos="r" depth="2" NCoef="0" IVar="-1" Cut="0.0000000000000000e+00" cType="1" res="-1.9937979523092508e-03" rms="4.5314967632293701e-01" purity="3.0404022336006165e-01" nType="-99"/>
        </Node>
      </Node>
    </BinaryTree>
    <BinaryTree type="DecisionTree" boostWeight="1.0000000000000000e+00" itree="407">
      <Node pos="s" depth="0" NCoef="0" IVar="1" Cut="1.5038793087005615e+00" cType="1" res="8.4440056234598160e-03" rms="4.4321367144584656e-01" purity="5.0937354564666748e-01" nType="0">
        <Node pos="l" depth="1" NCoef="0" IVar="2" Cut="9.2947316169738770e-01" cType="1" res="2.4832721799612045e-02" rms="4.5123207569122314e-01" purity="5.5661970376968384e-01" nType="0">
          <Node pos="l" depth="2" NCoef="0" IVar="-1" Cut="0.0000000000000000e+00" cType="1" res="-1.2645488604903221e-03" rms="4.1665789484977722e-01" purity="2.5200417637825012e-01" nType="-99"/>
          <Node pos="r" depth="2" NCoef="0" IVar="-1" Cut="0.0000000000000000e+00" cType="1" res="8.0214184708893299e-04" rms="4.5667383074760437e-01" purity="6.3872677087783813e-01" nType="-99"/>
        </Node>
        <Node pos="r" depth="1" NCoef="0" IVar="2" Cut="9.4583749771118164e-01" cType="1" res="-1.1086431890726089e-01" rms="3.5782232880592346e-01" purity="1.6542577743530273e-01" nType="0">
          <Node pos="l" depth="2" NCoef="0" IVar="-1" Cut="0.0000000000000000e+00" cType="1" res="-1.6748768975958228e-03" rms="3.2216393947601318e-01" purity="1.2954233586788177e-01" nType="-99"/>
          <Node pos="r" depth="2" NCoef="0" IVar="-1" Cut="0.0000000000000000e+00" cType="1" res="-2.9723125044256449e-03" rms="3.9093425869941711e-01" purity="2.1015378832817078e-01" nType="-99"/>
        </Node>
      </Node>
    </BinaryTree>
    <BinaryTree type="DecisionTree" boostWeight="1.0000000000000000e+00" itree="408">
      <Node pos="s" depth="0" NCoef="0" IVar="2" Cut="9.7545850276947021e-01" cType="1" res="8.3814924582839012e-03" rms="4.4401490688323975e-01" purity="5.0258219242095947e-01" nType="0">
        <Node pos="l" depth="1" NCoef="0" IVar="3" Cut="2.0428610229492188e+02" cType="1" res="-8.5296919569373131e-03" rms="4.5376503467559814e-01" purity="4.4931966066360474e-01" nType="0">
          <Node pos="l" depth="2" NCoef="0" IVar="-1" Cut="0.0000000000000000e+00" cType="1" res="-7.4226385913789272e-04" rms="4.4488668441772461e-01" purity="3.9130386710166931e-01" nType="-99"/>
          <Node pos="r" depth="2" NCoef="0" IVar="-1" Cut="0.0000000000000000e+00" cType="1" res="4.4110533781349659e-04" rms="4.5954108238220215e-01" purity="5.0592464208602905e-01" nType="-99"/>
        </Node>
        <Node pos="r" depth="1" NCoef="0" IVar="1" Cut="7.4835002422332764e-01" cType="1" res="1.1807364970445633e-01" rms="3.5564550757408142e-01" purity="8.4806263446807861e-01" nType="0">
          <Node pos="l" depth="2" NCoef="0" IVar="-1" Cut="0.0000000000000000e+00" cType="1" res="1.2294434709474444e-03" rms="3.5812011361122131e-01" purity="8.4595561027526855e-01" nType="-99"/>
          <Node pos="r" depth="2" NCoef="0" IVar="-1" Cut="0.0000000000000000e+00" cType="1" res="2.6575829833745956e-03" rms="3.4698846936225891e-01" purity="8.4976923465728760e-01" nType="-99"/>
        </Node>
      </Node>
    </BinaryTree>
    <BinaryTree type="DecisionTree" boostWeight="1.0000000000000000e+00" itree="409">
      <Node pos="s" depth="0" NCoef="0" IVar="4" Cut="7.3772882080078125e+02" cType="1" res="-3.1250575557351112e-03" rms="4.4249001145362854e-01" purity="4.9278566241264343e-01" nType="0">
        <Node pos="l" depth="1" NCoef="0" IVar="3" Cut="2.8009747314453125e+02" cType="1" res="-1.9247412681579590e-02" rms="4.4091904163360596e-01" purity="4.6734035015106201e-01" nType="0">
          <Node pos="l" depth="2" NCoef="0" IVar="-1" Cut="0.0000000000000000e+00" cType="1" res="-1.9137523850076832e-05" rms="4.4016361236572266e-01" purity="4.9237394332885742e-01" nType="-99"/>
          <Node pos="r" depth="2" NCoef="0" IVar="-1" Cut="0.0000000000000000e+00" cType="1" res="-1.5819974942132831e-03" rms="4.3672299385070801e-01" purity="3.6948400735855103e-01" nType="-99"/>
        </Node>
        <Node pos="r" depth="1" NCoef="0" IVar="5" Cut="2.9244152832031250e+02" cType="1" res="1.2906624376773834e-01" rms="4.3309423327445984e-01" purity="7.0141828060150146e-01" nType="0">
          <Node pos="l" depth="2" NCoef="0" IVar="-1" Cut="0.0000000000000000e+00" cType="1" res="2.2645681165158749e-03" rms="4.0586525201797485e-01" purity="7.5441610813140869e-01" nType="-99"/>
          <Node pos="r" depth="2" NCoef="0" IVar="-1" Cut="0.0000000000000000e+00" cType="1" res="1.6758142737671733e-03" rms="4.5863884687423706e-01" purity="6.4594870805740356e-01" nType="-99"/>
        </Node>
      </Node>
    </BinaryTree>
    <BinaryTree type="DecisionTree" boostWeight="1.0000000000000000e+00" itree="410">
      <Node pos="s" depth="0" NCoef="0" IVar="5" Cut="1.3505383300781250e+02" cType="1" res="1.1761385947465897e-02" rms="4.4219473004341125e-01" purity="5.1668530702590942e-01" nType="0">
        <Node pos="l" depth="1" NCoef="0" IVar="4" Cut="3.7045336914062500e+02" cType="1" res="3.8739833980798721e-02" rms="4.3793219327926636e-01" purity="5.0221461057662964e-01" nType="0">
          <Node pos="l" depth="2" NCoef="0" IVar="-1" Cut="0.0000000000000000e+00" cType="1" res="-4.6808994375169277e-04" rms="4.3090403079986572e-01" purity="3.6115989089012146e-01" nType="-99"/>
          <Node pos="r" depth="2" NCoef="0" IVar="-1" Cut="0.0000000000000000e+00" cType="1" res="1.2746409047394991e-03" rms="4.3739888072013855e-01" purity="5.9146916866302490e-01" nType="-99"/>
        </Node>
        <Node pos="r" depth="1" NCoef="0" IVar="3" Cut="1.7305349731445312e+02" cType="1" res="-2.5270730257034302e-02" rms="4.4532608985900879e-01" purity="5.3654861450195312e-01" nType="0">
          <Node pos="l" depth="2" NCoef="0" IVar="-1" Cut="0.0000000000000000e+00" cType="1" res="-3.1084597576409578e-03" rms="4.3197214603424072e-01" purity="2.6572749018669128e-01" nType="-99"/>
          <Node pos="r" depth="2" NCoef="0" IVar="-1" Cut="0.0000000000000000e+00" cType="1" res="1.1084193101851270e-04" rms="4.4078230857849121e-01" purity="5.8911013603210449e-01" nType="-99"/>
        </Node>
      </Node>
    </BinaryTree>
    <BinaryTree type="DecisionTree" boostWeight="1.0000000000000000e+00" itree="411">
      <Node pos="s" depth="0" NCoef="0" IVar="3" Cut="4.6258789062500000e+02" cType="1" res="-1.4791420660912991e-02" rms="4.3863680958747864e-01" purity="4.8185363411903381e-01" nType="0">
        <Node pos="l" depth="1" NCoef="0" IVar="2" Cut="9.3514961004257202e-01" cType="1" res="-2.2546714171767235e-03" rms="4.4063806533813477e-01" purity="5.0186079740524292e-01" nType="0">
          <Node pos="l" depth="2" NCoef="0" IVar="-1" Cut="0.0000000000000000e+00" cType="1" res="-1.1426098644733429e-03" rms="4.0976563096046448e-01" purity="2.5234612822532654e-01" nType="-99"/>
          <Node pos="r" depth="2" NCoef="0" IVar="-1" Cut="0.0000000000000000e+00" cType="1" res="3.8224313175305724e-04" rms="4.5080897212028503e-01" purity="6.0946756601333618e-01" nType="-99"/>
        </Node>
        <Node pos="r" depth="1" NCoef="0" IVar="-1" Cut="0.0000000000000000e+00" cType="1" res="-3.3131712116301060e-03" rms="3.7122976779937744e-01" purity="2.1153333783149719e-01" nType="-99"/>
      </Node>
    </BinaryTree>
    <BinaryTree type="DecisionTree" boostWeight="1.0000000000000000e+00" itree="412">
      <Node pos="s" depth="0" NCoef="0" IVar="1" Cut="1.5052009820938110e+00" cType="1" res="-1.3807005248963833e-02" rms="4.4094172120094299e-01" purity="4.7675320506095886e-01" nType="0">
        <Node pos="l" depth="1" NCoef="0" IVar="2" Cut="9.4056421518325806e-01" cType="1" res="5.1522641442716122e-03" rms="4.5245325565338135e-01" purity="5.2737218141555786e-01" nType="0">
          <Node pos="l" depth="2" NCoef="0" IVar="-1" Cut="0.0000000000000000e+00" cType="1" res="-6.0568645130842924e-04" rms="4.4188821315765381e-01" purity="3.1114965677261353e-01" nType="-99"/>
          <Node pos="r" depth="2" NCoef="0" IVar="-1" Cut="0.0000000000000000e+00" cType="1" res="4.6566515811719000e-04" rms="4.5686745643615723e-01" purity="6.5506625175476074e-01" nType="-99"/>
        </Node>
        <Node pos="r" depth="1" NCoef="0" IVar="4" Cut="4.2401626586914062e+02" cType="1" res="-1.3341137766838074e-01" rms="3.3612227439880371e-01" purity="1.5742374956607819e-01" nType="0">
          <Node pos="l" depth="2" NCoef="0" IVar="-1" Cut="0.0000000000000000e+00" cType="1" res="-3.8299297448247671e-03" rms="2.8556698560714722e-01" purity="1.0108452290296555e-01" nType="-99"/>
          <Node pos="r" depth="2" NCoef="0" IVar="-1" Cut="0.0000000000000000e+00" cType="1" res="-1.6838002484291792e-03" rms="3.8197094202041626e-01" purity="2.2284366190433502e-01" nType="-99"/>
        </Node>
      </Node>
    </BinaryTree>
    <BinaryTree type="DecisionTree" boostWeight="1.0000000000000000e+00" itree="413">
      <Node pos="s" depth="0" NCoef="0" IVar="6" Cut="8.3197402954101562e-01" cType="1" res="-7.1348418714478612e-04" rms="4.4296431541442871e-01" purity="4.9889555573463440e-01" nType="0">
        <Node pos="l" depth="1" NCoef="0" IVar="4" Cut="4.0475906372070312e+02" cType="1" res="2.8837056830525398e-02" rms="4.4033101201057434e-01" purity="5.5636924505233765e-01" nType="0">
          <Node pos="l" depth="2" NCoef="0" IVar="-1" Cut="0.0000000000000000e+00" cType="1" res="-6.3176162075251341e-04" rms="4.3141210079193115e-01" purity="3.9026620984077454e-01" nType="-99"/>
          <Node pos="r" depth="2" NCoef="0" IVar="-1" Cut="0.0000000000000000e+00" cType="1" res="9.0390595141798258e-04" rms="4.4119021296501160e-01" purity="6.2900787591934204e-01" nType="-99"/>
        </Node>
        <Node pos="r" depth="1" NCoef="0" IVar="3" Cut="2.9937231445312500e+02" cType="1" res="-7.2444446384906769e-02" rms="4.4113317131996155e-01" purity="3.5938414931297302e-01" nType="0">
          <Node pos="l" depth="2" NCoef="0" IVar="-1" Cut="0.0000000000000000e+00" cType="1" res="-6.6842220257967710e-04" rms="4.5410835742950439e-01" purity="4.0406453609466553e-01" nType="-99"/>
          <Node pos="r" depth="2" NCoef="0" IVar="-1" Cut="0.0000000000000000e+00" cType="1" res="-4.0038386359810829e-03" rms="3.5388311743736267e-01" purity="1.8134644627571106e-01" nType="-99"/>
        </Node>
      </Node>
    </BinaryTree>
    <BinaryTree type="DecisionTree" boostWeight="1.0000000000000000e+00" itree="414">
      <Node pos="s" depth="0" NCoef="0" IVar="1" Cut="1.7201590538024902e+00" cType="1" res="1.6948245465755463e-02" rms="4.4764801859855652e-01" purity="5.0493282079696655e-01" nType="0">
        <Node pos="l" depth="1" NCoef="0" IVar="3" Cut="2.2292872619628906e+02" cType="1" res="2.8272824361920357e-02" rms="4.5504844188690186e-01" purity="5.3243452310562134e-01" nType="0">
          <Node pos="l" depth="2" NCoef="0" IVar="-1" Cut="0.0000000000000000e+00" cType="1" res="4.0681450627744198e-05" rms="4.5290234684944153e-01" purity="4.7235676646232605e-01" nType="-99"/>
          <Node pos="r" depth="2" NCoef="0" IVar="-1" Cut="0.0000000000000000e+00" cType="1" res="1.0225228033959866e-03" rms="4.5561227202415466e-01" purity="6.1382734775543213e-01" nType="-99"/>
        </Node>
        <Node pos="r" depth="1" NCoef="0" IVar="-1" Cut="0.0000000000000000e+00" cType="1" res="-3.4986154641956091e-03" rms="2.6560643315315247e-01" purity="9.5358647406101227e-02" nType="-99"/>
      </Node>
    </BinaryTree>
    <BinaryTree type="DecisionTree" boostWeight="1.0000000000000000e+00" itree="415">
      <Node pos="s" depth="0" NCoef="0" IVar="3" Cut="3.7068411254882812e+02" cType="1" res="-2.7026263996958733e-02" rms="4.4588968157768250e-01" purity="4.5525187253952026e-01" nType="0">
        <Node pos="l" depth="1" NCoef="0" IVar="3" Cut="1.8334150695800781e+02" cType="1" res="-1.4525169506669044e-02" rms="4.4855323433876038e-01" purity="4.7330126166343689e-01" nType="0">
          <Node pos="l" depth="2" NCoef="0" IVar="-1" Cut="0.0000000000000000e+00" cType="1" res="-1.3144257245585322e-03" rms="4.4659611582756042e-01" purity="3.5167792439460754e-01" nType="-99"/>
          <Node pos="r" depth="2" NCoef="0" IVar="-1" Cut="0.0000000000000000e+00" cType="1" res="4.8169351066462696e-04" rms="4.4456660747528076e-01" purity="5.5490094423294067e-01" nType="-99"/>
        </Node>
        <Node pos="r" depth="1" NCoef="0" IVar="-1" Cut="0.0000000000000000e+00" cType="1" res="-2.4594161659479141e-03" rms="4.0543448925018311e-01" purity="2.9642382264137268e-01" nType="-99"/>
      </Node>
    </BinaryTree>
    <BinaryTree type="DecisionTree" boostWeight="1.0000000000000000e+00" itree="416">
      <Node pos="s" depth="0" NCoef="0" IVar="1" Cut="1.3270846605300903e+00" cType="1" res="1.9730208441615105e-03" rms="4.3899545073509216e-01" purity="4.9398529529571533e-01" nType="0">
        <Node pos="l" depth="1" NCoef="0" IVar="3" Cut="2.1019490051269531e+02" cType="1" res="2.2283226251602173e-02" rms="4.4267305731773376e-01" purity="5.5175602436065674e-01" nType="0">
          <Node pos="l" depth="2" NCoef="0" IVar="-1" Cut="0.0000000000000000e+00" cType="1" res="-3.5143969580531120e-04" rms="4.4581305980682373e-01" purity="4.5014882087707520e-01" nType="-99"/>
          <Node pos="r" depth="2" NCoef="0" IVar="-1" Cut="0.0000000000000000e+00" cType="1" res="1.1681602336466312e-03" rms="4.3341580033302307e-01" purity="6.7013251781463623e-01" nType="-99"/>
        </Node>
        <Node pos="r" depth="1" NCoef="0" IVar="1" Cut="1.5066328048706055e+00" cType="1" res="-9.1802172362804413e-02" rms="4.0871503949165344e-01" purity="2.2724902629852295e-01" nType="0">
          <Node pos="l" depth="2" NCoef="0" IVar="-1" Cut="0.0000000000000000e+00" cType="1" res="-3.8171906489878893e-03" rms="3.4847241640090942e-01" purity="1.6640251874923706e-01" nType="-99"/>
          <Node pos="r" depth="2" NCoef="0" IVar="-1" Cut="0.0000000000000000e+00" cType="1" res="-5.1863386761397123e-04" rms="4.2373105883598328e-01" purity="2.6065561175346375e-01" nType="-99"/>
        </Node>
      </Node>
    </BinaryTree>
    <BinaryTree type="DecisionTree" boostWeight="1.0000000000000000e+00" itree="417">
      <Node pos="s" depth="0" NCoef="0" IVar="1" Cut="8.4874206781387329e-01" cType="1" res="-4.3508429080247879e-03" rms="4.3378275632858276e-01" purity="4.8713478446006775e-01" nType="0">
        <Node pos="l" depth="1" NCoef="0" IVar="3" Cut="1.8211657714843750e+02" cType="1" res="5.3591836243867874e-02" rms="4.1983729600906372e-01" purity="6.1728358268737793e-01" nType="0">
          <Node pos="l" depth="2" NCoef="0" IVar="-1" Cut="0.0000000000000000e+00" cType="1" res="-3.7374839303083718e-04" rms="4.3961253762245178e-01" purity="4.6405935287475586e-01" nType="-99"/>
          <Node pos="r" depth="2" NCoef="0" IVar="-1" Cut="0.0000000000000000e+00" cType="1" res="2.1292867604643106e-03" rms="3.8212987780570984e-01" purity="7.7673965692520142e-01" nType="-99"/>
        </Node>
        <Node pos="r" depth="1" NCoef="0" IVar="6" Cut="8.8311028480529785e-01" cType="1" res="-4.8613760620355606e-02" rms="4.3901848793029785e-01" purity="3.8771295547485352e-01" nType="0">
          <Node pos="l" depth="2" NCoef="0" IVar="-1" Cut="0.0000000000000000e+00" cType="1" res="-1.6756675904616714e-03" rms="4.2748987674713135e-01" purity="3.5925361514091492e-01" nType="-99"/>
          <Node pos="r" depth="2" NCoef="0" IVar="-1" Cut="0.0000000000000000e+00" cType="1" res="3.3383938716724515e-04" rms="4.4580850005149841e-01" purity="4.2750641703605652e-01" nType="-99"/>
        </Node>
      </Node>
    </BinaryTree>
    <BinaryTree type="DecisionTree" boostWeight="1.0000000000000000e+00" itree="418">
      <Node pos="s" depth="0" NCoef="0" IVar="2" Cut="9.2349529266357422e-01" cType="1" res="1.6454435884952545e-02" rms="4.3723624944686890e-01" purity="5.1617765426635742e-01" nType="0">
        <Node pos="l" depth="1" NCoef="0" IVar="1" Cut="8.5104626417160034e-01" cType="1" res="-1.1711312830448151e-01" rms="3.4572675824165344e-01" purity="1.6524563729763031e-01" nType="0">
          <Node pos="l" depth="2" NCoef="0" IVar="-1" Cut="0.0000000000000000e+00" cType="1" res="-1.0900433408096433e-03" rms="4.2295694351196289e-01" purity="2.6744869351387024e-01" nType="-99"/>
          <Node pos="r" depth="2" NCoef="0" IVar="-1" Cut="0.0000000000000000e+00" cType="1" res="-3.5359996836632490e-03" rms="2.5592380762100220e-01" purity="8.0415107309818268e-02" nType="-99"/>
        </Node>
        <Node pos="r" depth="1" NCoef="0" IVar="1" Cut="6.6681659221649170e-01" cType="1" res="4.1257042437791824e-02" rms="4.4783055782318115e-01" purity="5.8134335279464722e-01" nType="0">
          <Node pos="l" depth="2" NCoef="0" IVar="-1" Cut="0.0000000000000000e+00" cType="1" res="1.6921597998589277e-03" rms="4.1723635792732239e-01" purity="7.3490709066390991e-01" nType="-99"/>
          <Node pos="r" depth="2" NCoef="0" IVar="-1" Cut="0.0000000000000000e+00" cType="1" res="3.1491389381699264e-04" rms="4.5580780506134033e-01" purity="5.2847737073898315e-01" nType="-99"/>
        </Node>
      </Node>
    </BinaryTree>
    <BinaryTree type="DecisionTree" boostWeight="1.0000000000000000e+00" itree="419">
      <Node pos="s" depth="0" NCoef="0" IVar="2" Cut="9.1918784379959106e-01" cType="1" res="1.5840538253542036e-04" rms="4.4465032219886780e-01" purity="5.0104027986526489e-01" nType="0">
        <Node pos="l" depth="1" NCoef="0" IVar="6" Cut="7.1205848455429077e-01" cType="1" res="-1.0584954917430878e-01" rms="3.5583582520484924e-01" purity="1.6725865006446838e-01" nType="0">
          <Node pos="l" depth="2" NCoef="0" IVar="-1" Cut="0.0000000000000000e+00" cType="1" res="-2.8800040017813444e-03" rms="3.3183273673057556e-01" purity="1.4409127831459045e-01" nType="-99"/>
          <Node pos="r" depth="2" NCoef="0" IVar="-1" Cut="0.0000000000000000e+00" cType="1" res="-1.2184235965833068e-03" rms="3.7431493401527405e-01" purity="1.9231952726840973e-01" nType="-99"/>
        </Node>
        <Node pos="r" depth="1" NCoef="0" IVar="1" Cut="9.7737956047058105e-01" cType="1" res="1.3892853632569313e-02" rms="4.5307880640029907e-01" purity="5.4428517818450928e-01" nType="0">
          <Node pos="l" depth="2" NCoef="0" IVar="-1" Cut="0.0000000000000000e+00" cType="1" res="7.8342063352465630e-04" rms="4.4524142146110535e-01" purity="6.5033030509948730e-01" nType="-99"/>
          <Node pos="r" depth="2" NCoef="0" IVar="-1" Cut="0.0000000000000000e+00" cType="1" res="-6.1298708897083998e-04" rms="4.5947039127349854e-01" purity="3.9260867238044739e-01" nType="-99"/>
        </Node>
      </Node>
    </BinaryTree>
    <BinaryTree type="DecisionTree" boostWeight="1.0000000000000000e+00" itree="420">
      <Node pos="s" depth="0" NCoef="0" IVar="1" Cut="7.5380367040634155e-01" cType="1" res="1.0647286660969257e-02" rms="4.4474864006042480e-01" purity="5.0336265563964844e-01" nType="0">
        <Node pos="l" depth="1" NCoef="0" IVar="2" Cut="9.3177276849746704e-01" cType="1" res="7.3731027543544769e-02" rms="4.3904319405555725e-01" purity="6.4079511165618896e-01" nType="0">
          <Node pos="l" depth="2" NCoef="0" IVar="-1" Cut="0.0000000000000000e+00" cType="1" res="1.9117884221486747e-04" rms="4.5902943611145020e-01" purity="3.8262856006622314e-01" nType="-99"/>
          <Node pos="r" depth="2" NCoef="0" IVar="-1" Cut="0.0000000000000000e+00" cType="1" res="1.4603052986785769e-03" rms="4.3120971322059631e-01" purity="7.1746593713760376e-01" nType="-99"/>
        </Node>
        <Node pos="r" depth="1" NCoef="0" IVar="0" Cut="3.0032656860351562e+02" cType="1" res="-2.4025522172451019e-02" rms="4.4405329227447510e-01" purity="4.2782539129257202e-01" nType="0">
          <Node pos="l" depth="2" NCoef="0" IVar="-1" Cut="0.0000000000000000e+00" cType="1" res="-1.0699135018512607e-03" rms="4.1815161705017090e-01" purity="3.3791038393974304e-01" nType="-99"/>
          <Node pos="r" depth="2" NCoef="0" IVar="-1" Cut="0.0000000000000000e+00" cType="1" res="1.8482693121768534e-04" rms="4.6472951769828796e-01" purity="5.1373088359832764e-01" nType="-99"/>
        </Node>
      </Node>
    </BinaryTree>
    <BinaryTree type="DecisionTree" boostWeight="1.0000000000000000e+00" itree="421">
      <Node pos="s" depth="0" NCoef="0" IVar="2" Cut="9.7634369134902954e-01" cType="1" res="-1.2081089429557323e-02" rms="4.4360634684562683e-01" purity="4.8408460617065430e-01" nType="0">
        <Node pos="l" depth="1" NCoef="0" IVar="4" Cut="7.1085290527343750e+02" cType="1" res="-3.3326912671327591e-02" rms="4.5288339257240295e-01" purity="4.3091955780982971e-01" nType="0">
          <Node pos="l" depth="2" NCoef="0" IVar="-1" Cut="0.0000000000000000e+00" cType="1" res="-8.5435144137591124e-04" rms="4.5153713226318359e-01" purity="4.0137928724288940e-01" nType="-99"/>
          <Node pos="r" depth="2" NCoef="0" IVar="-1" Cut="0.0000000000000000e+00" cType="1" res="1.7819300992414355e-03" rms="4.3546026945114136e-01" purity="6.8778860569000244e-01" nType="-99"/>
        </Node>
        <Node pos="r" depth="1" NCoef="0" IVar="5" Cut="1.2893368530273438e+02" cType="1" res="1.3852298259735107e-01" rms="3.3458995819091797e-01" purity="8.6095285415649414e-01" nType="0">
          <Node pos="l" depth="2" NCoef="0" IVar="-1" Cut="0.0000000000000000e+00" cType="1" res="2.9589321929961443e-03" rms="3.1928563117980957e-01" purity="8.7029403448104858e-01" nType="-99"/>
          <Node pos="r" depth="2" NCoef="0" IVar="-1" Cut="0.0000000000000000e+00" cType="1" res="1.8302005482837558e-03" rms="3.4434741735458374e-01" purity="8.5171490907669067e-01" nType="-99"/>
        </Node>
      </Node>
    </BinaryTree>
    <BinaryTree type="DecisionTree" boostWeight="1.0000000000000000e+00" itree="422">
      <Node pos="s" depth="0" NCoef="0" IVar="6" Cut="4.4427624344825745e-01" cType="1" res="2.6936234906315804e-02" rms="4.4882655143737793e-01" purity="5.2417773008346558e-01" nType="0">
        <Node pos="l" depth="1" NCoef="0" IVar="5" Cut="1.3057012939453125e+02" cType="1" res="1.0799631476402283e-01" rms="4.4193899631500244e-01" purity="6.6398811340332031e-01" nType="0">
          <Node pos="l" depth="2" NCoef="0" IVar="-1" Cut="0.0000000000000000e+00" cType="1" res="2.3041560780256987e-03" rms="4.3608245253562927e-01" purity="6.7000508308410645e-01" nType="-99"/>
          <Node pos="r" depth="2" NCoef="0" IVar="-1" Cut="0.0000000000000000e+00" cType="1" res="1.0797061258926988e-03" rms="4.4441276788711548e-01" purity="6.5789073705673218e-01" nType="-99"/>
        </Node>
        <Node pos="r" depth="1" NCoef="0" IVar="3" Cut="3.2100866699218750e+02" cType="1" res="2.1364362910389900e-03" rms="4.4799220561981201e-01" purity="4.8140367865562439e-01" nType="0">
          <Node pos="l" depth="2" NCoef="0" IVar="-1" Cut="0.0000000000000000e+00" cType="1" res="3.4243948175571859e-04" rms="4.5052039623260498e-01" purity="5.0503581762313843e-01" nType="-99"/>
          <Node pos="r" depth="2" NCoef="0" IVar="-1" Cut="0.0000000000000000e+00" cType="1" res="-1.9289439078420401e-03" rms="4.1566208004951477e-01" purity="3.4179544448852539e-01" nType="-99"/>
        </Node>
      </Node>
    </BinaryTree>
    <BinaryTree type="DecisionTree" boostWeight="1.0000000000000000e+00" itree="423">
      <Node pos="s" depth="0" NCoef="0" IVar="1" Cut="7.8861397504806519e-01" cType="1" res="-6.7826686426997185e-03" rms="4.4522121548652649e-01" purity="5.0089186429977417e-01" nType="0">
        <Node pos="l" depth="1" NCoef="0" IVar="3" Cut="2.2073245239257812e+02" cType="1" res="5.2664227783679962e-02" rms="4.3965277075767517e-01" purity="6.3338190317153931e-01" nType="0">
          <Node pos="l" depth="2" NCoef="0" IVar="-1" Cut="0.0000000000000000e+00" cType="1" res="7.6970638474449515e-05" rms="4.7547623515129089e-01" purity="5.2684801816940308e-01" nType="-99"/>
          <Node pos="r" depth="2" NCoef="0" IVar="-1" Cut="0.0000000000000000e+00" cType="1" res="2.3667304776608944e-03" rms="3.4423354268074036e-01" purity="8.3559566736221313e-01" nType="-99"/>
        </Node>
        <Node pos="r" depth="1" NCoef="0" IVar="4" Cut="4.1097561645507812e+02" cType="1" res="-4.2915813624858856e-02" rms="4.4470584392547607e-01" purity="4.2036148905754089e-01" nType="0">
          <Node pos="l" depth="2" NCoef="0" IVar="-1" Cut="0.0000000000000000e+00" cType="1" res="-1.6486481763422489e-03" rms="4.2312651872634888e-01" purity="2.7905461192131042e-01" nType="-99"/>
          <Node pos="r" depth="2" NCoef="0" IVar="-1" Cut="0.0000000000000000e+00" cType="1" res="-2.4976662825793028e-04" rms="4.5463785529136658e-01" purity="5.0353485345840454e-01" nType="-99"/>
        </Node>
      </Node>
    </BinaryTree>
    <BinaryTree type="DecisionTree" boostWeight="1.0000000000000000e+00" itree="424">
      <Node pos="s" depth="0" NCoef="0" IVar="1" Cut="6.9564235210418701e-01" cType="1" res="-6.1437371186912060e-03" rms="4.4279900193214417e-01" purity="4.8698148131370544e-01" nType="0">
        <Node pos="l" depth="1" NCoef="0" IVar="1" Cut="3.9335003495216370e-01" cType="1" res="6.0437746345996857e-02" rms="4.3964126706123352e-01" purity="6.3995212316513062e-01" nType="0">
          <Node pos="l" depth="2" NCoef="0" IVar="-1" Cut="0.0000000000000000e+00" cType="1" res="2.2686484735459089e-03" rms="3.8503944873809814e-01" purity="7.7094936370849609e-01" nType="-99"/>
          <Node pos="r" depth="2" NCoef="0" IVar="-1" Cut="0.0000000000000000e+00" cType="1" res="6.0679187299683690e-04" rms="4.5114433765411377e-01" purity="6.0352247953414917e-01" nType="-99"/>
        </Node>
        <Node pos="r" depth="1" NCoef="0" IVar="1" Cut="1.6927429437637329e+00" cType="1" res="-3.2435409724712372e-02" rms="4.4128164649009705e-01" purity="4.2657646536827087e-01" nType="0">
          <Node pos="l" depth="2" NCoef="0" IVar="-1" Cut="0.0000000000000000e+00" cType="1" res="-3.4223162219859660e-04" rms="4.5295006036758423e-01" purity="4.5831891894340515e-01" nType="-99"/>
          <Node pos="r" depth="2" NCoef="0" IVar="-1" Cut="0.0000000000000000e+00" cType="1" res="-3.5671943332999945e-03" rms="2.6070901751518250e-01" purity="9.5377564430236816e-02" nType="-99"/>
        </Node>
      </Node>
    </BinaryTree>
    <BinaryTree type="DecisionTree" boostWeight="1.0000000000000000e+00" itree="425">
      <Node pos="s" depth="0" NCoef="0" IVar="3" Cut="1.7265361022949219e+02" cType="1" res="-5.0311582162976265e-03" rms="4.4271916151046753e-01" purity="4.9198845028877258e-01" nType="0">
        <Node pos="l" depth="1" NCoef="0" IVar="0" Cut="3.4602481079101562e+02" cType="1" res="-5.9489995241165161e-02" rms="4.5665895938873291e-01" purity="3.9188671112060547e-01" nType="0">
          <Node pos="l" depth="2" NCoef="0" IVar="-1" Cut="0.0000000000000000e+00" cType="1" res="-1.4877169451210648e-04" rms="4.4727277755737305e-01" purity="4.3550440669059753e-01" nType="-99"/>
          <Node pos="r" depth="2" NCoef="0" IVar="-1" Cut="0.0000000000000000e+00" cType="1" res="-4.7602085396647453e-03" rms="4.2524728178977966e-01" purity="1.8971334397792816e-01" nType="-99"/>
        </Node>
        <Node pos="r" depth="1" NCoef="0" IVar="1" Cut="1.3761286735534668e+00" cType="1" res="1.8104661256074905e-02" rms="4.3460199236869812e-01" purity="5.3451484441757202e-01" nType="0">
          <Node pos="l" depth="2" NCoef="0" IVar="-1" Cut="0.0000000000000000e+00" cType="1" res="7.1001600008457899e-04" rms="4.4125983119010925e-01" purity="6.0645490884780884e-01" nType="-99"/>
          <Node pos="r" depth="2" NCoef="0" IVar="-1" Cut="0.0000000000000000e+00" cType="1" res="-1.7843528185039759e-03" rms="3.8607245683670044e-01" purity="2.2688794136047363e-01" nType="-99"/>
        </Node>
      </Node>
    </BinaryTree>
    <BinaryTree type="DecisionTree" boostWeight="1.0000000000000000e+00" itree="426">
      <Node pos="s" depth="0" NCoef="0" IVar="2" Cut="9.3023175001144409e-01" cType="1" res="2.3621828295290470e-03" rms="4.4235295057296753e-01" purity="5.0302618741989136e-01" nType="0">
        <Node pos="l" depth="1" NCoef="0" IVar="6" Cut="7.7897036075592041e-01" cType="1" res="-6.3324540853500366e-02" rms="4.0386348962783813e-01" purity="2.3590219020843506e-01" nType="0">
          <Node pos="l" depth="2" NCoef="0" IVar="-1" Cut="0.0000000000000000e+00" cType="1" res="-1.7984948353841901e-03" rms="3.8898712396621704e-01" purity="2.1905578672885895e-01" nType="-99"/>
          <Node pos="r" depth="2" NCoef="0" IVar="-1" Cut="0.0000000000000000e+00" cType="1" res="-2.5589836877770722e-04" rms="4.1830518841743469e-01" purity="2.5917884707450867e-01" nType="-99"/>
        </Node>
        <Node pos="r" depth="1" NCoef="0" IVar="1" Cut="1.1467130184173584e+00" cType="1" res="2.3337334394454956e-02" rms="4.5195001363754272e-01" purity="5.8832448720932007e-01" nType="0">
          <Node pos="l" depth="2" NCoef="0" IVar="-1" Cut="0.0000000000000000e+00" cType="1" res="7.9533684765920043e-04" rms="4.5240804553031921e-01" purity="6.7215085029602051e-01" nType="-99"/>
          <Node pos="r" depth="2" NCoef="0" IVar="-1" Cut="0.0000000000000000e+00" cType="1" res="-9.5356022939085960e-04" rms="4.4125241041183472e-01" purity="3.3992177248001099e-01" nType="-99"/>
        </Node>
      </Node>
    </BinaryTree>
    <BinaryTree type="DecisionTree" boostWeight="1.0000000000000000e+00" itree="427">
      <Node pos="s" depth="0" NCoef="0" IVar="2" Cut="9.7493219375610352e-01" cType="1" res="-8.4290774539113045e-03" rms="4.4693201780319214e-01" purity="4.8643967509269714e-01" nType="0">
        <Node pos="l" depth="1" NCoef="0" IVar="1" Cut="1.0730241537094116e+00" cType="1" res="-1.9850280135869980e-02" rms="4.5286589860916138e-01" purity="4.4492691755294800e-01" nType="0">
          <Node pos="l" depth="2" NCoef="0" IVar="-1" Cut="0.0000000000000000e+00" cType="1" res="-2.5432447728235275e-05" rms="4.6090498566627502e-01" purity="5.1862329244613647e-01" nType="-99"/>
          <Node pos="r" depth="2" NCoef="0" IVar="-1" Cut="0.0000000000000000e+00" cType="1" res="-9.8050478845834732e-04" rms="4.3509954214096069e-01" purity="3.0502051115036011e-01" nType="-99"/>
        </Node>
        <Node pos="r" depth="1" NCoef="0" IVar="5" Cut="1.1423873138427734e+02" cType="1" res="7.8284956514835358e-02" rms="3.8820171356201172e-01" purity="8.0162000656127930e-01" nType="0">
          <Node pos="l" depth="2" NCoef="0" IVar="-1" Cut="0.0000000000000000e+00" cType="1" res="2.3111267946660519e-03" rms="3.5536935925483704e-01" purity="8.2183378934860229e-01" nType="-99"/>
          <Node pos="r" depth="2" NCoef="0" IVar="-1" Cut="0.0000000000000000e+00" cType="1" res="4.8394361510872841e-04" rms="4.0769648551940918e-01" purity="7.8380858898162842e-01" nType="-99"/>
        </Node>
      </Node>
    </BinaryTree>
    <BinaryTree type="DecisionTree" boostWeight="1.0000000000000000e+00" itree="428">
      <Node pos="s" depth="0" NCoef="0" IVar="3" Cut="3.6485055541992188e+02" cType="1" res="5.9546506963670254e-03" rms="4.4425237178802490e-01" purity="5.1249170303344727e-01" nType="0">
        <Node pos="l" depth="1" NCoef="0" IVar="3" Cut="2.2250505065917969e+02" cType="1" res="2.0072706043720245e-02" rms="4.4511190056800842e-01" purity="5.3074449300765991e-01" nType="0">
          <Node pos="l" depth="2" NCoef="0" IVar="-1" Cut="0.0000000000000000e+00" cType="1" res="-2.6993514620698988e-04" rms="4.4824469089508057e-01" purity="4.5687586069107056e-01" nType="-99"/>
          <Node pos="r" depth="2" NCoef="0" IVar="-1" Cut="0.0000000000000000e+00" cType="1" res="1.2614929582923651e-03" rms="4.3420401215553284e-01" purity="6.4514833688735962e-01" nType="-99"/>
        </Node>
        <Node pos="r" depth="1" NCoef="0" IVar="4" Cut="6.4097631835937500e+02" cType="1" res="-1.1589023470878601e-01" rms="4.1736829280853271e-01" purity="3.5496255755424500e-01" nType="0">
          <Node pos="l" depth="2" NCoef="0" IVar="-1" Cut="0.0000000000000000e+00" cType="1" res="-3.6703723017126322e-03" rms="3.3787497878074646e-01" purity="2.0226149260997772e-01" nType="-99"/>
          <Node pos="r" depth="2" NCoef="0" IVar="-1" Cut="0.0000000000000000e+00" cType="1" res="-6.8724650191143155e-04" rms="4.6899560093879700e-01" purity="4.9884325265884399e-01" nType="-99"/>
        </Node>
      </Node>
    </BinaryTree>
    <BinaryTree type="DecisionTree" boostWeight="1.0000000000000000e+00" itree="429">
      <Node pos="s" depth="0" NCoef="0" IVar="2" Cut="9.6952617168426514e-01" cType="1" res="8.9463470503687859e-03" rms="4.3723434209823608e-01" purity="5.1088225841522217e-01" nType="0">
        <Node pos="l" depth="1" NCoef="0" IVar="4" Cut="7.3050817871093750e+02" cType="1" res="-1.4715241268277168e-02" rms="4.5048362016677856e-01" purity="4.3331864476203918e-01" nType="0">
          <Node pos="l" depth="2" NCoef="0" IVar="-1" Cut="0.0000000000000000e+00" cType="1" res="-4.6761106932535768e-04" rms="4.4924721121788025e-01" purity="4.1140487790107727e-01" nType="-99"/>
          <Node pos="r" depth="2" NCoef="0" IVar="-1" Cut="0.0000000000000000e+00" cType="1" res="1.7881493549793959e-03" rms="4.4126027822494507e-01" purity="6.5209853649139404e-01" nType="-99"/>
        </Node>
        <Node pos="r" depth="1" NCoef="0" IVar="0" Cut="3.8314724731445312e+02" cType="1" res="1.0484114289283752e-01" rms="3.6337566375732422e-01" purity="8.2522910833358765e-01" nType="0">
          <Node pos="l" depth="2" NCoef="0" IVar="-1" Cut="0.0000000000000000e+00" cType="1" res="2.4178524035960436e-03" rms="3.3607470989227295e-01" purity="8.4466284513473511e-01" nType="-99"/>
          <Node pos="r" depth="2" NCoef="0" IVar="-1" Cut="0.0000000000000000e+00" cType="1" res="3.4368681372143328e-04" rms="4.0455120801925659e-01" purity="7.8183859586715698e-01" nType="-99"/>
        </Node>
      </Node>
    </BinaryTree>
    <BinaryTree type="DecisionTree" boostWeight="1.0000000000000000e+00" itree="430">
      <Node pos="s" depth="0" NCoef="0" IVar="2" Cut="9.7461473941802979e-01" cType="1" res="4.7017945908010006e-03" rms="4.4493454694747925e-01" purity="4.9409818649291992e-01" nType="0">
        <Node pos="l" depth="1" NCoef="0" IVar="3" Cut="2.2098672485351562e+02" cType="1" res="-7.9778898507356644e-03" rms="4.5438054203987122e-01" purity="4.4701176881790161e-01" nType="0">
          <Node pos="l" depth="2" NCoef="0" IVar="-1" Cut="0.0000000000000000e+00" cType="1" res="-6.4940575975924730e-04" rms="4.6230116486549377e-01" purity="3.9773264527320862e-01" nType="-99"/>
          <Node pos="r" depth="2" NCoef="0" IVar="-1" Cut="0.0000000000000000e+00" cType="1" res="5.6673394283279777e-04" rms="4.4028714299201965e-01" purity="5.1167285442352295e-01" nType="-99"/>
        </Node>
        <Node pos="r" depth="1" NCoef="0" IVar="2" Cut="9.8249477148056030e-01" cType="1" res="9.2951387166976929e-02" rms="3.6046615242958069e-01" purity="8.2181620597839355e-01" nType="0">
          <Node pos="l" depth="2" NCoef="0" IVar="-1" Cut="0.0000000000000000e+00" cType="1" res="9.0241327416151762e-04" rms="3.9997795224189758e-01" purity="7.6513177156448364e-01" nType="-99"/>
          <Node pos="r" depth="2" NCoef="0" IVar="-1" Cut="0.0000000000000000e+00" cType="1" res="2.3424127139151096e-03" rms="3.1919530034065247e-01" purity="8.6989390850067139e-01" nType="-99"/>
        </Node>
      </Node>
    </BinaryTree>
    <BinaryTree type="DecisionTree" boostWeight="1.0000000000000000e+00" itree="431">
      <Node pos="s" depth="0" NCoef="0" IVar="4" Cut="8.2853515625000000e+02" cType="1" res="1.5758028253912926e-02" rms="4.4700264930725098e-01" purity="5.1890146732330322e-01" nType="0">
        <Node pos="l" depth="1" NCoef="0" IVar="3" Cut="3.1466366577148438e+02" cType="1" res="6.1697824858129025e-03" rms="4.4796663522720337e-01" purity="5.0512593984603882e-01" nType="0">
          <Node pos="l" depth="2" NCoef="0" IVar="-1" Cut="0.0000000000000000e+00" cType="1" res="3.5820432822220027e-04" rms="4.5323050022125244e-01" purity="5.3096115589141846e-01" nType="-99"/>
          <Node pos="r" depth="2" NCoef="0" IVar="-1" Cut="0.0000000000000000e+00" cType="1" res="-1.3947691768407822e-03" rms="4.0914124250411987e-01" purity="3.6861440539360046e-01" nType="-99"/>
        </Node>
        <Node pos="r" depth="1" NCoef="0" IVar="-1" Cut="0.0000000000000000e+00" cType="1" res="2.7649330440908670e-03" rms="3.9502289891242981e-01" purity="7.5634294748306274e-01" nType="-99"/>
      </Node>
    </BinaryTree>
    <BinaryTree type="DecisionTree" boostWeight="1.0000000000000000e+00" itree="432">
      <Node pos="s" depth="0" NCoef="0" IVar="2" Cut="9.5363473892211914e-01" cType="1" res="-2.9709215741604567e-03" rms="4.4194102287292480e-01" purity="4.9101564288139343e-01" nType="0">
        <Node pos="l" depth="1" NCoef="0" IVar="1" Cut="1.2435849905014038e+00" cType="1" res="-3.1485322862863541e-02" rms="4.4495561718940735e-01" purity="3.4852495789527893e-01" nType="0">
          <Node pos="l" depth="2" NCoef="0" IVar="-1" Cut="0.0000000000000000e+00" cType="1" res="-1.0986743291141465e-04" rms="4.6996808052062988e-01" purity="4.1168752312660217e-01" nType="-99"/>
          <Node pos="r" depth="2" NCoef="0" IVar="-1" Cut="0.0000000000000000e+00" cType="1" res="-2.2170103620737791e-03" rms="3.4902265667915344e-01" purity="1.5825071930885315e-01" nType="-99"/>
        </Node>
        <Node pos="r" depth="1" NCoef="0" IVar="5" Cut="1.5012127685546875e+02" cType="1" res="3.8503549993038177e-02" rms="4.3418926000595093e-01" purity="6.9826972484588623e-01" nType="0">
          <Node pos="l" depth="2" NCoef="0" IVar="-1" Cut="0.0000000000000000e+00" cType="1" res="1.2118583545088768e-03" rms="4.2419409751892090e-01" purity="7.1373957395553589e-01" nType="-99"/>
          <Node pos="r" depth="2" NCoef="0" IVar="-1" Cut="0.0000000000000000e+00" cType="1" res="-5.6317984126508236e-04" rms="4.4409939646720886e-01" purity="6.6895192861557007e-01" nType="-99"/>
        </Node>
      </Node>
    </BinaryTree>
    <BinaryTree type="DecisionTree" boostWeight="1.0000000000000000e+00" itree="433">
      <Node pos="s" depth="0" NCoef="0" IVar="2" Cut="9.6140497922897339e-01" cType="1" res="1.3542179949581623e-02" rms="4.4362884759902954e-01" purity="5.0438934564590454e-01" nType="0">
        <Node pos="l" depth="1" NCoef="0" IVar="3" Cut="2.0657087707519531e+02" cType="1" res="-7.8926105052232742e-03" rms="4.5790791511535645e-01" purity="4.0468585491180420e-01" nType="0">
          <Node pos="l" depth="2" NCoef="0" IVar="-1" Cut="0.0000000000000000e+00" cType="1" res="-9.0620783157646656e-04" rms="4.6144792437553406e-01" purity="3.3234459161758423e-01" nType="-99"/>
          <Node pos="r" depth="2" NCoef="0" IVar="-1" Cut="0.0000000000000000e+00" cType="1" res="6.0907594161108136e-04" rms="4.4986164569854736e-01" purity="4.7374239563941956e-01" nType="-99"/>
        </Node>
        <Node pos="r" depth="1" NCoef="0" IVar="1" Cut="9.8988586664199829e-01" cType="1" res="6.8227954208850861e-02" rms="3.9975133538246155e-01" purity="7.5875908136367798e-01" nType="0">
          <Node pos="l" depth="2" NCoef="0" IVar="-1" Cut="0.0000000000000000e+00" cType="1" res="1.7746846424415708e-03" rms="3.5526764392852783e-01" purity="8.4365993738174438e-01" nType="-99"/>
          <Node pos="r" depth="2" NCoef="0" IVar="-1" Cut="0.0000000000000000e+00" cType="1" res="2.9119386454112828e-04" rms="4.5896270871162415e-01" purity="6.2003713846206665e-01" nType="-99"/>
        </Node>
      </Node>
    </BinaryTree>
    <BinaryTree type="DecisionTree" boostWeight="1.0000000000000000e+00" itree="434">
      <Node pos="s" depth="0" NCoef="0" IVar="3" Cut="2.0333737182617188e+02" cType="1" res="8.4280055016279221e-03" rms="4.5011988282203674e-01" purity="5.0970703363418579e-01" nType="0">
        <Node pos="l" depth="1" NCoef="0" IVar="0" Cut="3.5801684570312500e+02" cType="1" res="-3.8271389901638031e-02" rms="4.4710525870323181e-01" purity="4.3251454830169678e-01" nType="0">
          <Node pos="l" depth="2" NCoef="0" IVar="-1" Cut="0.0000000000000000e+00" cType="1" res="-1.4654337064712308e-05" rms="4.4126540422439575e-01" purity="4.5866742730140686e-01" nType="-99"/>
          <Node pos="r" depth="2" NCoef="0" IVar="-1" Cut="0.0000000000000000e+00" cType="1" res="-3.1044967472553253e-03" rms="4.3888163566589355e-01" purity="3.2758116722106934e-01" nType="-99"/>
        </Node>
        <Node pos="r" depth="1" NCoef="0" IVar="6" Cut="1.0803234577178955e+00" cType="1" res="4.8800412565469742e-02" rms="4.4881060719490051e-01" purity="5.7644128799438477e-01" nType="0">
          <Node pos="l" depth="2" NCoef="0" IVar="-1" Cut="0.0000000000000000e+00" cType="1" res="1.1478813830763102e-03" rms="4.4730660319328308e-01" purity="6.1066043376922607e-01" nType="-99"/>
          <Node pos="r" depth="2" NCoef="0" IVar="-1" Cut="0.0000000000000000e+00" cType="1" res="-2.5035685393959284e-03" rms="4.1695433855056763e-01" purity="2.7795362472534180e-01" nType="-99"/>
        </Node>
      </Node>
    </BinaryTree>
    <BinaryTree type="DecisionTree" boostWeight="1.0000000000000000e+00" itree="435">
      <Node pos="s" depth="0" NCoef="0" IVar="1" Cut="1.1514099836349487e+00" cType="1" res="-6.7887152545154095e-03" rms="4.3744710087776184e-01" purity="4.9977716803550720e-01" nType="0">
        <Node pos="l" depth="1" NCoef="0" IVar="2" Cut="9.1812014579772949e-01" cType="1" res="1.8208062276244164e-02" rms="4.4483616948127747e-01" purity="5.8002370595932007e-01" nType="0">
          <Node pos="l" depth="2" NCoef="0" IVar="-1" Cut="0.0000000000000000e+00" cType="1" res="-2.3381931241601706e-03" rms="3.4350213408470154e-01" purity="1.7781086266040802e-01" nType="-99"/>
          <Node pos="r" depth="2" NCoef="0" IVar="-1" Cut="0.0000000000000000e+00" cType="1" res="5.5242044618353248e-04" rms="4.5212471485137939e-01" purity="6.2572270631790161e-01" nType="-99"/>
        </Node>
        <Node pos="r" depth="1" NCoef="0" IVar="2" Cut="9.6509891748428345e-01" cType="1" res="-7.3444731533527374e-02" rms="4.0971532464027405e-01" purity="2.8579309582710266e-01" nType="0">
          <Node pos="l" depth="2" NCoef="0" IVar="-1" Cut="0.0000000000000000e+00" cType="1" res="-2.1311442833393812e-03" rms="3.8367736339569092e-01" purity="1.9563905894756317e-01" nType="-99"/>
          <Node pos="r" depth="2" NCoef="0" IVar="-1" Cut="0.0000000000000000e+00" cType="1" res="1.1029230663552880e-03" rms="4.7030511498451233e-01" purity="6.4006876945495605e-01" nType="-99"/>
        </Node>
      </Node>
    </BinaryTree>
    <BinaryTree type="DecisionTree" boostWeight="1.0000000000000000e+00" itree="436">
      <Node pos="s" depth="0" NCoef="0" IVar="2" Cut="9.1799789667129517e-01" cType="1" res="1.4813496731221676e-02" rms="4.3420431017875671e-01" purity="5.1034301519393921e-01" nType="0">
        <Node pos="l" depth="1" NCoef="0" IVar="-1" Cut="0.0000000000000000e+00" cType="1" res="-3.1963549554347992e-03" rms="2.7947455644607544e-01" purity="9.7436040639877319e-02" nType="-99"/>
        <Node pos="r" depth="1" NCoef="0" IVar="4" Cut="4.5023895263671875e+02" cType="1" res="3.3166505396366119e-02" rms="4.4443309307098389e-01" purity="5.5647975206375122e-01" nType="0">
          <Node pos="l" depth="2" NCoef="0" IVar="-1" Cut="0.0000000000000000e+00" cType="1" res="-3.1104148365557194e-04" rms="4.5470616221427917e-01" purity="4.5047283172607422e-01" nType="-99"/>
          <Node pos="r" depth="2" NCoef="0" IVar="-1" Cut="0.0000000000000000e+00" cType="1" res="1.3378785224631429e-03" rms="4.2791330814361572e-01" purity="6.6142874956130981e-01" nType="-99"/>
        </Node>
      </Node>
    </BinaryTree>
    <BinaryTree type="DecisionTree" boostWeight="1.0000000000000000e+00" itree="437">
      <Node pos="s" depth="0" NCoef="0" IVar="2" Cut="9.1798657178878784e-01" cType="1" res="1.6270706430077553e-02" rms="4.3994140625000000e-01" purity="5.1427406072616577e-01" nType="0">
        <Node pos="l" depth="1" NCoef="0" IVar="0" Cut="2.8891903686523438e+02" cType="1" res="-1.0043594241142273e-01" rms="3.3801868557929993e-01" purity="1.6378682851791382e-01" nType="0">
          <Node pos="l" depth="2" NCoef="0" IVar="-1" Cut="0.0000000000000000e+00" cType="1" res="-3.5887262783944607e-03" rms="2.0410686731338501e-01" purity="4.3460607528686523e-02" nType="-99"/>
          <Node pos="r" depth="2" NCoef="0" IVar="-1" Cut="0.0000000000000000e+00" cType="1" res="-1.0265916353091598e-03" rms="4.1276612877845764e-01" purity="2.6370400190353394e-01" nType="-99"/>
        </Node>
        <Node pos="r" depth="1" NCoef="0" IVar="4" Cut="6.5623608398437500e+02" cType="1" res="3.1198911368846893e-02" rms="4.4913890957832336e-01" purity="5.5910569429397583e-01" nType="0">
          <Node pos="l" depth="2" NCoef="0" IVar="-1" Cut="0.0000000000000000e+00" cType="1" res="3.3670853008516133e-04" rms="4.5205318927764893e-01" purity="5.3599399328231812e-01" nType="-99"/>
          <Node pos="r" depth="2" NCoef="0" IVar="-1" Cut="0.0000000000000000e+00" cType="1" res="1.6801275778561831e-03" rms="4.2140349745750427e-01" purity="7.1736705303192139e-01" nType="-99"/>
        </Node>
      </Node>
    </BinaryTree>
    <BinaryTree type="DecisionTree" boostWeight="1.0000000000000000e+00" itree="438">
      <Node pos="s" depth="0" NCoef="0" IVar="2" Cut="9.4665056467056274e-01" cType="1" res="2.4878976400941610e-03" rms="4.3656301498413086e-01" purity="5.0143039226531982e-01" nType="0">
        <Node pos="l" depth="1" NCoef="0" IVar="4" Cut="4.3411138916015625e+02" cType="1" res="-3.9936400949954987e-02" rms="4.3116760253906250e-01" purity="3.1821623444557190e-01" nType="0">
          <Node pos="l" depth="2" NCoef="0" IVar="-1" Cut="0.0000000000000000e+00" cType="1" res="-1.9027143716812134e-03" rms="3.8962766528129578e-01" purity="1.8661229312419891e-01" nType="-99"/>
          <Node pos="r" depth="2" NCoef="0" IVar="-1" Cut="0.0000000000000000e+00" cType="1" res="1.6452153795398772e-04" rms="4.5692160725593567e-01" purity="4.2799893021583557e-01" nType="-99"/>
        </Node>
        <Node pos="r" depth="1" NCoef="0" IVar="0" Cut="2.1836322021484375e+02" cType="1" res="3.9691556245088577e-02" rms="4.3787035346031189e-01" purity="6.6209858655929565e-01" nType="0">
          <Node pos="l" depth="2" NCoef="0" IVar="-1" Cut="0.0000000000000000e+00" cType="1" res="-1.3827711809426546e-03" rms="4.4429418444633484e-01" purity="3.9888337254524231e-01" nType="-99"/>
          <Node pos="r" depth="2" NCoef="0" IVar="-1" Cut="0.0000000000000000e+00" cType="1" res="8.8097032858058810e-04" rms="4.3485561013221741e-01" purity="6.9184184074401855e-01" nType="-99"/>
        </Node>
      </Node>
    </BinaryTree>
    <BinaryTree type="DecisionTree" boostWeight="1.0000000000000000e+00" itree="439">
      <Node pos="s" depth="0" NCoef="0" IVar="1" Cut="1.1896786689758301e+00" cType="1" res="-1.7404841855750419e-05" rms="4.4049316644668579e-01" purity="4.9111300706863403e-01" nType="0">
        <Node pos="l" depth="1" NCoef="0" IVar="5" Cut="9.6449470520019531e+01" cType="1" res="2.7112962678074837e-02" rms="4.4852876663208008e-01" purity="5.7279264926910400e-01" nType="0">
          <Node pos="l" depth="2" NCoef="0" IVar="-1" Cut="0.0000000000000000e+00" cType="1" res="1.5211950521916151e-03" rms="4.5330944657325745e-01" purity="5.4211705923080444e-01" nType="-99"/>
          <Node pos="r" depth="2" NCoef="0" IVar="-1" Cut="0.0000000000000000e+00" cType="1" res="-2.2609865482081659e-06" rms="4.4368523359298706e-01" purity="5.8540642261505127e-01" nType="-99"/>
        </Node>
        <Node pos="r" depth="1" NCoef="0" IVar="1" Cut="1.3149986267089844e+00" cType="1" res="-7.5810939073562622e-02" rms="4.0776911377906799e-01" purity="2.6292631030082703e-01" nType="0">
          <Node pos="l" depth="2" NCoef="0" IVar="-1" Cut="0.0000000000000000e+00" cType="1" res="-2.8916415758430958e-03" rms="3.9996045827865601e-01" purity="2.6928848028182983e-01" nType="-99"/>
          <Node pos="r" depth="2" NCoef="0" IVar="-1" Cut="0.0000000000000000e+00" cType="1" res="-9.3904463574290276e-04" rms="4.0609312057495117e-01" purity="2.6105645298957825e-01" nType="-99"/>
        </Node>
      </Node>
    </BinaryTree>
    <BinaryTree type="DecisionTree" boostWeight="1.0000000000000000e+00" itree="440">
      <Node pos="s" depth="0" NCoef="0" IVar="3" Cut="3.0328121948242188e+02" cType="1" res="1.6526455059647560e-02" rms="4.4746541976928711e-01" purity="5.2217441797256470e-01" nType="0">
        <Node pos="l" depth="1" NCoef="0" IVar="3" Cut="2.1988108825683594e+02" cType="1" res="3.3973924815654755e-02" rms="4.4410505890846252e-01" purity="5.4604560136795044e-01" nType="0">
          <Node pos="l" depth="2" NCoef="0" IVar="-1" Cut="0.0000000000000000e+00" cType="1" res="1.6672471247147769e-04" rms="4.4824931025505066e-01" purity="5.0170582532882690e-01" nType="-99"/>
          <Node pos="r" depth="2" NCoef="0" IVar="-1" Cut="0.0000000000000000e+00" cType="1" res="1.4036759966984391e-03" rms="4.3079072237014771e-01" purity="6.4054864645004272e-01" nType="-99"/>
        </Node>
        <Node pos="r" depth="1" NCoef="0" IVar="4" Cut="6.8200006103515625e+02" cType="1" res="-7.0065848529338837e-02" rms="4.5396646857261658e-01" purity="4.0370124578475952e-01" nType="0">
          <Node pos="l" depth="2" NCoef="0" IVar="-1" Cut="0.0000000000000000e+00" cType="1" res="-2.2437751758843660e-03" rms="4.3330311775207520e-01" purity="2.9174324870109558e-01" nType="-99"/>
          <Node pos="r" depth="2" NCoef="0" IVar="-1" Cut="0.0000000000000000e+00" cType="1" res="5.3987593855708838e-04" rms="4.7436445951461792e-01" purity="6.1764413118362427e-01" nType="-99"/>
        </Node>
      </Node>
    </BinaryTree>
    <BinaryTree type="DecisionTree" boostWeight="1.0000000000000000e+00" itree="441">
      <Node pos="s" depth="0" NCoef="0" IVar="4" Cut="7.0283294677734375e+02" cType="1" res="2.1910047158598900e-02" rms="4.5129710435867310e-01" purity="5.1412761211395264e-01" nType="0">
        <Node pos="l" depth="1" NCoef="0" IVar="5" Cut="1.2825399780273438e+02" cType="1" res="5.8927964419126511e-03" rms="4.5396170020103455e-01" purity="4.8542937636375427e-01" nType="0">
          <Node pos="l" depth="2" NCoef="0" IVar="-1" Cut="0.0000000000000000e+00" cType="1" res="5.6513701565563679e-04" rms="4.4500571489334106e-01" purity="4.8582765460014343e-01" nType="-99"/>
          <Node pos="r" depth="2" NCoef="0" IVar="-1" Cut="0.0000000000000000e+00" cType="1" res="-7.3771522147580981e-04" rms="4.6549692749977112e-01" purity="4.8471274971961975e-01" nType="-99"/>
        </Node>
        <Node pos="r" depth="1" NCoef="0" IVar="6" Cut="6.3690596818923950e-01" cType="1" res="1.4111095666885376e-01" rms="4.1182494163513184e-01" purity="7.2770082950592041e-01" nType="0">
          <Node pos="l" depth="2" NCoef="0" IVar="-1" Cut="0.0000000000000000e+00" cType="1" res="3.2464913092553616e-03" rms="3.5079854726791382e-01" purity="8.1929981708526611e-01" nType="-99"/>
          <Node pos="r" depth="2" NCoef="0" IVar="-1" Cut="0.0000000000000000e+00" cType="1" res="9.4932276988402009e-04" rms="4.5879602432250977e-01" purity="6.2291389703750610e-01" nType="-99"/>
        </Node>
      </Node>
    </BinaryTree>
    <BinaryTree type="DecisionTree" boostWeight="1.0000000000000000e+00" itree="442">
      <Node pos="s" depth="0" NCoef="0" IVar="1" Cut="1.2435849905014038e+00" cType="1" res="-2.0195990800857544e-02" rms="4.4583728909492493e-01" purity="4.7660866379737854e-01" nType="0">
        <Node pos="l" depth="1" NCoef="0" IVar="1" Cut="1.1407988071441650e+00" cType="1" res="-1.8472486408427358e-03" rms="4.5959475636482239e-01" purity="5.4481953382492065e-01" nType="0">
          <Node pos="l" depth="2" NCoef="0" IVar="-1" Cut="0.0000000000000000e+00" cType="1" res="-2.1991973335389048e-04" rms="4.5788967609405518e-01" purity="5.4143774509429932e-01" nType="-99"/>
          <Node pos="r" depth="2" NCoef="0" IVar="-1" Cut="0.0000000000000000e+00" cType="1" res="1.8530489178374410e-03" rms="4.5947107672691345e-01" purity="5.8086323738098145e-01" nType="-99"/>
        </Node>
        <Node pos="r" depth="1" NCoef="0" IVar="2" Cut="9.5297318696975708e-01" cType="1" res="-8.2704119384288788e-02" rms="3.8894936442375183e-01" purity="2.4423669278621674e-01" nType="0">
          <Node pos="l" depth="2" NCoef="0" IVar="-1" Cut="0.0000000000000000e+00" cType="1" res="-2.8773457743227482e-03" rms="3.2162782549858093e-01" purity="1.1726469546556473e-01" nType="-99"/>
          <Node pos="r" depth="2" NCoef="0" IVar="-1" Cut="0.0000000000000000e+00" cType="1" res="1.8412221106700599e-04" rms="4.8396882414817810e-01" purity="4.9999919533729553e-01" nType="-99"/>
        </Node>
      </Node>
    </BinaryTree>
    <BinaryTree type="DecisionTree" boostWeight="1.0000000000000000e+00" itree="443">
      <Node pos="s" depth="0" NCoef="0" IVar="1" Cut="9.7737956047058105e-01" cType="1" res="-8.8811218738555908e-03" rms="4.3976733088493347e-01" purity="4.9022588133811951e-01" nType="0">
        <Node pos="l" depth="1" NCoef="0" IVar="1" Cut="8.9454054832458496e-01" cType="1" res="2.2506155073642731e-02" rms="4.4758611917495728e-01" purity="5.8290302753448486e-01" nType="0">
          <Node pos="l" depth="2" NCoef="0" IVar="-1" Cut="0.0000000000000000e+00" cType="1" res="9.3267539341468364e-05" rms="4.4814464449882507e-01" purity="5.6841999292373657e-01" nType="-99"/>
          <Node pos="r" depth="2" NCoef="0" IVar="-1" Cut="0.0000000000000000e+00" cType="1" res="1.7505317227914929e-03" rms="4.3392258882522583e-01" purity="6.5980774164199829e-01" nType="-99"/>
        </Node>
        <Node pos="r" depth="1" NCoef="0" IVar="2" Cut="9.3096500635147095e-01" cType="1" res="-5.2249226719141006e-02" rms="4.2493167519569397e-01" purity="3.6217296123504639e-01" nType="0">
          <Node pos="l" depth="2" NCoef="0" IVar="-1" Cut="0.0000000000000000e+00" cType="1" res="-3.3258991315960884e-03" rms="2.8934964537620544e-01" purity="1.0356777161359787e-01" nType="-99"/>
          <Node pos="r" depth="2" NCoef="0" IVar="-1" Cut="0.0000000000000000e+00" cType="1" res="-3.4032476833090186e-04" rms="4.5372924208641052e-01" purity="4.4126203656196594e-01" nType="-99"/>
        </Node>
      </Node>
    </BinaryTree>
    <BinaryTree type="DecisionTree" boostWeight="1.0000000000000000e+00" itree="444">
      <Node pos="s" depth="0" NCoef="0" IVar="3" Cut="1.3184167480468750e+02" cType="1" res="-1.4106893911957741e-02" rms="4.4085416197776794e-01" purity="4.8161539435386658e-01" nType="0">
        <Node pos="l" depth="1" NCoef="0" IVar="-1" Cut="0.0000000000000000e+00" cType="1" res="-2.6584437582641840e-03" rms="3.9912098646163940e-01" purity="2.9688671231269836e-01" nType="-99"/>
        <Node pos="r" depth="1" NCoef="0" IVar="1" Cut="7.4897330999374390e-01" cType="1" res="-2.2307622712105513e-03" rms="4.4218397140502930e-01" purity="4.9730032682418823e-01" nType="0">
          <Node pos="l" depth="2" NCoef="0" IVar="-1" Cut="0.0000000000000000e+00" cType="1" res="1.0652951896190643e-03" rms="4.2546185851097107e-01" purity="6.5638518333435059e-01" nType="-99"/>
          <Node pos="r" depth="2" NCoef="0" IVar="-1" Cut="0.0000000000000000e+00" cType="1" res="-5.9634470380842686e-04" rms="4.4614312052726746e-01" purity="4.2279714345932007e-01" nType="-99"/>
        </Node>
      </Node>
    </BinaryTree>
    <BinaryTree type="DecisionTree" boostWeight="1.0000000000000000e+00" itree="445">
      <Node pos="s" depth="0" NCoef="0" IVar="4" Cut="3.6474923706054688e+02" cType="1" res="1.3606405118480325e-03" rms="4.4117081165313721e-01" purity="4.9185028672218323e-01" nType="0">
        <Node pos="l" depth="1" NCoef="0" IVar="3" Cut="1.5514546203613281e+02" cType="1" res="-7.4187338352203369e-02" rms="4.3810251355171204e-01" purity="3.0034947395324707e-01" nType="0">
          <Node pos="l" depth="2" NCoef="0" IVar="-1" Cut="0.0000000000000000e+00" cType="1" res="2.8048118110746145e-04" rms="4.5946523547172546e-01" purity="4.0422713756561279e-01" nType="-99"/>
          <Node pos="r" depth="2" NCoef="0" IVar="-1" Cut="0.0000000000000000e+00" cType="1" res="-2.3883352987468243e-03" rms="4.1448628902435303e-01" purity="2.3551371693611145e-01" nType="-99"/>
        </Node>
        <Node pos="r" depth="1" NCoef="0" IVar="1" Cut="1.0345797538757324e+00" cType="1" res="2.2069927304983139e-02" rms="4.3974745273590088e-01" purity="5.4434466361999512e-01" nType="0">
          <Node pos="l" depth="2" NCoef="0" IVar="-1" Cut="0.0000000000000000e+00" cType="1" res="8.3518651081249118e-04" rms="4.3793812394142151e-01" purity="6.2903439998626709e-01" nType="-99"/>
          <Node pos="r" depth="2" NCoef="0" IVar="-1" Cut="0.0000000000000000e+00" cType="1" res="-5.5201345821842551e-04" rms="4.3789938092231750e-01" purity="3.8806498050689697e-01" nType="-99"/>
        </Node>
      </Node>
    </BinaryTree>
    <BinaryTree type="DecisionTree" boostWeight="1.0000000000000000e+00" itree="446">
      <Node pos="s" depth="0" NCoef="0" IVar="3" Cut="1.2725538635253906e+02" cType="1" res="1.1757303029298782e-02" rms="4.4763982295989990e-01" purity="5.1347541809082031e-01" nType="0">
        <Node pos="l" depth="1" NCoef="0" IVar="-1" Cut="0.0000000000000000e+00" cType="1" res="-2.3013947065919638e-03" rms="4.4024440646171570e-01" purity="2.9608488082885742e-01" nType="-99"/>
        <Node pos="r" depth="1" NCoef="0" IVar="1" Cut="1.7155171632766724e+00" cType="1" res="2.2910440340638161e-02" rms="4.4624909758567810e-01" purity="5.3014475107192993e-01" nType="0">
          <Node pos="l" depth="2" NCoef="0" IVar="-1" Cut="0.0000000000000000e+00" cType="1" res="5.5191887076944113e-04" rms="4.5353388786315918e-01" purity="5.5786168575286865e-01" nType="-99"/>
          <Node pos="r" depth="2" NCoef="0" IVar="-1" Cut="0.0000000000000000e+00" cType="1" res="-3.5765331704169512e-03" rms="2.5148245692253113e-01" purity="8.4975473582744598e-02" nType="-99"/>
        </Node>
      </Node>
    </BinaryTree>
    <BinaryTree type="DecisionTree" boostWeight="1.0000000000000000e+00" itree="447">
      <Node pos="s" depth="0" NCoef="0" IVar="2" Cut="9.4082611799240112e-01" cType="1" res="-5.0452756695449352e-03" rms="4.3771037459373474e-01" purity="5.0042450428009033e-01" nType="0">
        <Node pos="l" depth="1" NCoef="0" IVar="3" Cut="2.2463082885742188e+02" cType="1" res="-6.3539616763591766e-02" rms="4.1279241442680359e-01" purity="2.6282450556755066e-01" nType="0">
          <Node pos="l" depth="2" NCoef="0" IVar="-1" Cut="0.0000000000000000e+00" cType="1" res="-2.1186263766139746e-03" rms="3.8609531521797180e-01" purity="1.8926067650318146e-01" nType="-99"/>
          <Node pos="r" depth="2" NCoef="0" IVar="-1" Cut="0.0000000000000000e+00" cType="1" res="2.4551540263928473e-04" rms="4.3943437933921814e-01" purity="3.7542167305946350e-01" nType="-99"/>
        </Node>
        <Node pos="r" depth="1" NCoef="0" IVar="1" Cut="1.0390570163726807e+00" cType="1" res="2.8487412258982658e-02" rms="4.4794365763664246e-01" purity="6.3663196563720703e-01" nType="0">
          <Node pos="l" depth="2" NCoef="0" IVar="-1" Cut="0.0000000000000000e+00" cType="1" res="9.5916254213079810e-04" rms="4.2992380261421204e-01" purity="7.2395801544189453e-01" nType="-99"/>
          <Node pos="r" depth="2" NCoef="0" IVar="-1" Cut="0.0000000000000000e+00" cType="1" res="-4.9883703468367457e-04" rms="4.7578823566436768e-01" purity="4.6530091762542725e-01" nType="-99"/>
        </Node>
      </Node>
    </BinaryTree>
    <BinaryTree type="DecisionTree" boostWeight="1.0000000000000000e+00" itree="448">
      <Node pos="s" depth="0" NCoef="0" IVar="3" Cut="4.2007852172851562e+02" cType="1" res="-4.7205626033246517e-03" rms="4.4430556893348694e-01" purity="4.9591612815856934e-01" nType="0">
        <Node pos="l" depth="1" NCoef="0" IVar="2" Cut="9.8061680793762207e-01" cType="1" res="1.0092147625982761e-02" rms="4.4571021199226379e-01" purity="5.1728904247283936e-01" nType="0">
          <Node pos="l" depth="2" NCoef="0" IVar="-1" Cut="0.0000000000000000e+00" cType="1" res="-2.1608653696603142e-05" rms="4.5364645123481750e-01" purity="4.8486423492431641e-01" nType="-99"/>
          <Node pos="r" depth="2" NCoef="0" IVar="-1" Cut="0.0000000000000000e+00" cType="1" res="2.7185087092220783e-03" rms="3.0662885308265686e-01" purity="9.0234899520874023e-01" nType="-99"/>
        </Node>
        <Node pos="r" depth="1" NCoef="0" IVar="-1" Cut="0.0000000000000000e+00" cType="1" res="-3.2448179554194212e-03" rms="3.8641011714935303e-01" purity="2.4306593835353851e-01" nType="-99"/>
      </Node>
    </BinaryTree>
    <BinaryTree type="DecisionTree" boostWeight="1.0000000000000000e+00" itree="449">
      <Node pos="s" depth="0" NCoef="0" IVar="1" Cut="1.5090368986129761e+00" cType="1" res="9.4949975609779358e-03" rms="4.4358092546463013e-01" purity="5.0560641288757324e-01" nType="0">
        <Node pos="l" depth="1" NCoef="0" IVar="3" Cut="1.4103602600097656e+02" cType="1" res="2.3784914985299110e-02" rms="4.5303913950920105e-01" purity="5.4758858680725098e-01" nType="0">
          <Node pos="l" depth="2" NCoef="0" IVar="-1" Cut="0.0000000000000000e+00" cType="1" res="-1.6041473718360066e-03" rms="4.1572079062461853e-01" purity="3.5185810923576355e-01" nType="-99"/>
          <Node pos="r" depth="2" NCoef="0" IVar="-1" Cut="0.0000000000000000e+00" cType="1" res="6.6253368277102709e-04" rms="4.5559924840927124e-01" purity="5.7496446371078491e-01" nType="-99"/>
        </Node>
        <Node pos="r" depth="1" NCoef="0" IVar="1" Cut="1.7015941143035889e+00" cType="1" res="-1.0924249142408371e-01" rms="3.3242046833038330e-01" purity="1.5676879882812500e-01" nType="0">
          <Node pos="l" depth="2" NCoef="0" IVar="-1" Cut="0.0000000000000000e+00" cType="1" res="-1.7424600664526224e-03" rms="3.8061708211898804e-01" purity="2.0576786994934082e-01" nType="-99"/>
          <Node pos="r" depth="2" NCoef="0" IVar="-1" Cut="0.0000000000000000e+00" cType="1" res="-3.0115225818008184e-03" rms="2.7909231185913086e-01" purity="1.1170417070388794e-01" nType="-99"/>
        </Node>
      </Node>
    </BinaryTree>
    <BinaryTree type="DecisionTree" boostWeight="1.0000000000000000e+00" itree="450">
      <Node pos="s" depth="0" NCoef="0" IVar="2" Cut="9.7561293840408325e-01" cType="1" res="-1.0127508081495762e-02" rms="4.3924060463905334e-01" purity="4.8712486028671265e-01" nType="0">
        <Node pos="l" depth="1" NCoef="0" IVar="6" Cut="1.0860364437103271e+00" cType="1" res="-2.8317799791693687e-02" rms="4.4971895217895508e-01" purity="4.3112277984619141e-01" nType="0">
          <Node pos="l" depth="2" NCoef="0" IVar="-1" Cut="0.0000000000000000e+00" cType="1" res="-3.1036967993713915e-04" rms="4.5150569081306458e-01" purity="4.5098784565925598e-01" nType="-99"/>
          <Node pos="r" depth="2" NCoef="0" IVar="-1" Cut="0.0000000000000000e+00" cType="1" res="-2.2959404159337282e-03" rms="4.2086333036422729e-01" purity="2.3757430911064148e-01" nType="-99"/>
        </Node>
        <Node pos="r" depth="1" NCoef="0" IVar="6" Cut="5.8265000581741333e-01" cType="1" res="1.0710186511278152e-01" rms="3.4209179878234863e-01" purity="8.4803652763366699e-01" nType="0">
          <Node pos="l" depth="2" NCoef="0" IVar="-1" Cut="0.0000000000000000e+00" cType="1" res="2.7542512398213148e-03" rms="2.6685747504234314e-01" purity="9.1943335533142090e-01" nType="-99"/>
          <Node pos="r" depth="2" NCoef="0" IVar="-1" Cut="0.0000000000000000e+00" cType="1" res="1.1871727183461189e-03" rms="4.0658792853355408e-01" purity="7.6813763380050659e-01" nType="-99"/>
        </Node>
      </Node>
    </BinaryTree>
    <BinaryTree type="DecisionTree" boostWeight="1.0000000000000000e+00" itree="451">
      <Node pos="s" depth="0" NCoef="0" IVar="3" Cut="1.8425517272949219e+02" cType="1" res="2.8441809117794037e-02" rms="4.3679797649383545e-01" purity="5.2974486351013184e-01" nType="0">
        <Node pos="l" depth="1" NCoef="0" IVar="0" Cut="3.5064739990234375e+02" cType="1" res="-2.8518807142972946e-02" rms="4.4435554742813110e-01" purity="4.1706138849258423e-01" nType="0">
          <Node pos="l" depth="2" NCoef="0" IVar="-1" Cut="0.0000000000000000e+00" cType="1" res="1.5926512423902750e-04" rms="4.4548848271369934e-01" purity="4.4510924816131592e-01" nType="-99"/>
          <Node pos="r" depth="2" NCoef="0" IVar="-1" Cut="0.0000000000000000e+00" cType="1" res="-3.5313463304191828e-03" rms="3.8849255442619324e-01" purity="2.8012505173683167e-01" nType="-99"/>
        </Node>
        <Node pos="r" depth="1" NCoef="0" IVar="1" Cut="1.6497526168823242e+00" cType="1" res="6.2809512019157410e-02" rms="4.2852738499641418e-01" purity="5.9773343801498413e-01" nType="0">
          <Node pos="l" depth="2" NCoef="0" IVar="-1" Cut="0.0000000000000000e+00" cType="1" res="1.3016083976253867e-03" rms="4.3405240774154663e-01" purity="6.4402306079864502e-01" nType="-99"/>
          <Node pos="r" depth="2" NCoef="0" IVar="-1" Cut="0.0000000000000000e+00" cType="1" res="-2.6134829968214035e-03" rms="3.2014948129653931e-01" purity="1.3697665929794312e-01" nType="-99"/>
        </Node>
      </Node>
    </BinaryTree>
    <BinaryTree type="DecisionTree" boostWeight="1.0000000000000000e+00" itree="452">
      <Node pos="s" depth="0" NCoef="0" IVar="2" Cut="9.5817220211029053e-01" cType="1" res="-3.0318502336740494e-02" rms="4.4323733448982239e-01" purity="4.6847930550575256e-01" nType="0">
        <Node pos="l" depth="1" NCoef="0" IVar="6" Cut="3.3956649899482727e-01" cType="1" res="-6.1751376837491989e-02" rms="4.4498372077941895e-01" purity="3.4152278304100037e-01" nType="0">
          <Node pos="l" depth="2" NCoef="0" IVar="-1" Cut="0.0000000000000000e+00" cType="1" res="5.8856408577412367e-04" rms="4.8513838648796082e-01" purity="4.8009040951728821e-01" nType="-99"/>
          <Node pos="r" depth="2" NCoef="0" IVar="-1" Cut="0.0000000000000000e+00" cType="1" res="-1.2513842666521668e-03" rms="4.3845066428184509e-01" purity="3.2491511106491089e-01" nType="-99"/>
        </Node>
        <Node pos="r" depth="1" NCoef="0" IVar="5" Cut="1.3888023376464844e+02" cType="1" res="3.1371027231216431e-02" rms="4.3320938944816589e-01" purity="7.1764159202575684e-01" nType="0">
          <Node pos="l" depth="2" NCoef="0" IVar="-1" Cut="0.0000000000000000e+00" cType="1" res="1.2543974444270134e-03" rms="4.2283937335014343e-01" purity="7.3784607648849487e-01" nType="-99"/>
          <Node pos="r" depth="2" NCoef="0" IVar="-1" Cut="0.0000000000000000e+00" cType="1" res="-6.9918547524139285e-04" rms="4.3967530131340027e-01" purity="6.8675416707992554e-01" nType="-99"/>
        </Node>
      </Node>
    </BinaryTree>
    <BinaryTree type="DecisionTree" boostWeight="1.0000000000000000e+00" itree="453">
      <Node pos="s" depth="0" NCoef="0" IVar="1" Cut="8.0916213989257812e-01" cType="1" res="-3.5135755315423012e-03" rms="4.5068576931953430e-01" purity="4.9795743823051453e-01" nType="0">
        <Node pos="l" depth="1" NCoef="0" IVar="3" Cut="2.5377517700195312e+02" cType="1" res="3.0855135992169380e-02" rms="4.4605761766433716e-01" purity="6.0743814706802368e-01" nType="0">
          <Node pos="l" depth="2" NCoef="0" IVar="-1" Cut="0.0000000000000000e+00" cType="1" res="6.6633263486437500e-05" rms="4.5654743909835815e-01" purity="5.5440837144851685e-01" nType="-99"/>
          <Node pos="r" depth="2" NCoef="0" IVar="-1" Cut="0.0000000000000000e+00" cType="1" res="2.3284549824893475e-03" rms="3.8033783435821533e-01" purity="8.2652723789215088e-01" nType="-99"/>
        </Node>
        <Node pos="r" depth="1" NCoef="0" IVar="1" Cut="8.9102053642272949e-01" cType="1" res="-2.7943307533860207e-02" rms="4.5236191153526306e-01" purity="4.2013710737228394e-01" nType="0">
          <Node pos="l" depth="2" NCoef="0" IVar="-1" Cut="0.0000000000000000e+00" cType="1" res="-2.1067059133201838e-03" rms="4.6892321109771729e-01" purity="4.2069065570831299e-01" nType="-99"/>
          <Node pos="r" depth="2" NCoef="0" IVar="-1" Cut="0.0000000000000000e+00" cType="1" res="-2.0444055553525686e-04" rms="4.4744694232940674e-01" purity="4.2004308104515076e-01" nType="-99"/>
        </Node>
      </Node>
    </BinaryTree>
    <BinaryTree type="DecisionTree" boostWeight="1.0000000000000000e+00" itree="454">
      <Node pos="s" depth="0" NCoef="0" IVar="6" Cut="2.7088481187820435e-01" cType="1" res="-1.5423752367496490e-02" rms="4.4413629174232483e-01" purity="4.8037740588188171e-01" nType="0">
        <Node pos="l" depth="1" NCoef="0" IVar="-1" Cut="0.0000000000000000e+00" cType="1" res="1.9314244855195284e-03" rms="4.2408069968223572e-01" purity="6.6260987520217896e-01" nType="-99"/>
        <Node pos="r" depth="1" NCoef="0" IVar="2" Cut="9.5913517475128174e-01" cType="1" res="-2.4793557822704315e-02" rms="4.4388392567634583e-01" purity="4.6813142299652100e-01" nType="0">
          <Node pos="l" depth="2" NCoef="0" IVar="-1" Cut="0.0000000000000000e+00" cType="1" res="-8.6426798952743411e-04" rms="4.4276908040046692e-01" purity="3.4950745105743408e-01" nType="-99"/>
          <Node pos="r" depth="2" NCoef="0" IVar="-1" Cut="0.0000000000000000e+00" cType="1" res="4.3181423097848892e-04" rms="4.4164854288101196e-01" purity="6.9768220186233521e-01" nType="-99"/>
        </Node>
      </Node>
    </BinaryTree>
    <BinaryTree type="DecisionTree" boostWeight="1.0000000000000000e+00" itree="455">
      <Node pos="s" depth="0" NCoef="0" IVar="3" Cut="1.2282625579833984e+02" cType="1" res="-1.9316194579005241e-02" rms="4.3914568424224854e-01" purity="4.6776682138442993e-01" nType="0">
        <Node pos="l" depth="1" NCoef="0" IVar="-1" Cut="0.0000000000000000e+00" cType="1" res="-2.9708503279834986e-03" rms="4.0064519643783569e-01" purity="2.4253351986408234e-01" nType="-99"/>
        <Node pos="r" depth="1" NCoef="0" IVar="1" Cut="1.7301673889160156e+00" cType="1" res="-9.8825246095657349e-03" rms="4.3996754288673401e-01" purity="4.8274329304695129e-01" nType="0">
          <Node pos="l" depth="2" NCoef="0" IVar="-1" Cut="0.0000000000000000e+00" cType="1" res="-1.1427177014411427e-05" rms="4.4796964526176453e-01" purity="5.0734680891036987e-01" nType="-99"/>
          <Node pos="r" depth="2" NCoef="0" IVar="-1" Cut="0.0000000000000000e+00" cType="1" res="-3.9417566731572151e-03" rms="2.2194701433181763e-01" purity="7.0271357893943787e-02" nType="-99"/>
        </Node>
      </Node>
    </BinaryTree>
    <BinaryTree type="DecisionTree" boostWeight="1.0000000000000000e+00" itree="456">
      <Node pos="s" depth="0" NCoef="0" IVar="1" Cut="1.7254369258880615e+00" cType="1" res="1.4263600111007690e-02" rms="4.4477707147598267e-01" purity="5.0281327962875366e-01" nType="0">
        <Node pos="l" depth="1" NCoef="0" IVar="2" Cut="9.0977388620376587e-01" cType="1" res="2.4140471592545509e-02" rms="4.5240497589111328e-01" purity="5.2868127822875977e-01" nType="0">
          <Node pos="l" depth="2" NCoef="0" IVar="-1" Cut="0.0000000000000000e+00" cType="1" res="-1.6361183952540159e-03" rms="3.5932374000549316e-01" purity="1.8779675662517548e-01" nType="-99"/>
          <Node pos="r" depth="2" NCoef="0" IVar="-1" Cut="0.0000000000000000e+00" cType="1" res="4.9972202396020293e-04" rms="4.5645380020141602e-01" purity="5.4869765043258667e-01" nType="-99"/>
        </Node>
        <Node pos="r" depth="1" NCoef="0" IVar="-1" Cut="0.0000000000000000e+00" cType="1" res="-3.8783417548984289e-03" rms="2.2702531516551971e-01" purity="6.2821760773658752e-02" nType="-99"/>
      </Node>
    </BinaryTree>
    <BinaryTree type="DecisionTree" boostWeight="1.0000000000000000e+00" itree="457">
      <Node pos="s" depth="0" NCoef="0" IVar="1" Cut="1.1256020069122314e+00" cType="1" res="9.5576597377657890e-03" rms="4.4656154513359070e-01" purity="5.0379961729049683e-01" nType="0">
        <Node pos="l" depth="1" NCoef="0" IVar="6" Cut="7.2936594486236572e-01" cType="1" res="2.9701435938477516e-02" rms="4.5360079407691956e-01" purity="5.8364135026931763e-01" nType="0">
          <Node pos="l" depth="2" NCoef="0" IVar="-1" Cut="0.0000000000000000e+00" cType="1" res="-1.6432859410997480e-04" rms="4.5522212982177734e-01" purity="5.6310653686523438e-01" nType="-99"/>
          <Node pos="r" depth="2" NCoef="0" IVar="-1" Cut="0.0000000000000000e+00" cType="1" res="1.7479701200500131e-03" rms="4.3942609429359436e-01" purity="6.2537336349487305e-01" nType="-99"/>
        </Node>
        <Node pos="r" depth="1" NCoef="0" IVar="2" Cut="9.3619787693023682e-01" cType="1" res="-3.6501478403806686e-02" rms="4.2647337913513184e-01" purity="3.2123997807502747e-01" nType="0">
          <Node pos="l" depth="2" NCoef="0" IVar="-1" Cut="0.0000000000000000e+00" cType="1" res="-2.8103063814342022e-03" rms="3.3027470111846924e-01" purity="1.1850127577781677e-01" nType="-99"/>
          <Node pos="r" depth="2" NCoef="0" IVar="-1" Cut="0.0000000000000000e+00" cType="1" res="2.8261338593438268e-04" rms="4.6798929572105408e-01" purity="4.4567236304283142e-01" nType="-99"/>
        </Node>
      </Node>
    </BinaryTree>
    <BinaryTree type="DecisionTree" boostWeight="1.0000000000000000e+00" itree="458">
      <Node pos="s" depth="0" NCoef="0" IVar="1" Cut="8.0191892385482788e-01" cType="1" res="-1.7232514917850494e-02" rms="4.4302806258201599e-01" purity="4.7623798251152039e-01" nType="0">
        <Node pos="l" depth="1" NCoef="0" IVar="3" Cut="1.9794630432128906e+02" cType="1" res="2.7138639241456985e-02" rms="4.3621924519538879e-01" purity="5.9243369102478027e-01" nType="0">
          <Node pos="l" depth="2" NCoef="0" IVar="-1" Cut="0.0000000000000000e+00" cType="1" res="-5.4911919869482517e-04" rms="4.5741525292396545e-01" purity="4.6136391162872314e-01" nType="-99"/>
          <Node pos="r" depth="2" NCoef="0" IVar="-1" Cut="0.0000000000000000e+00" cType="1" res="1.9965264946222305e-03" rms="3.8588291406631470e-01" purity="7.8427767753601074e-01" nType="-99"/>
        </Node>
        <Node pos="r" depth="1" NCoef="0" IVar="3" Cut="1.4687835693359375e+02" cType="1" res="-4.7772686928510666e-02" rms="4.4509166479110718e-01" purity="3.9626172184944153e-01" nType="0">
          <Node pos="l" depth="2" NCoef="0" IVar="-1" Cut="0.0000000000000000e+00" cType="1" res="-2.8154037427157164e-03" rms="4.1965687274932861e-01" purity="2.2909751534461975e-01" nType="-99"/>
          <Node pos="r" depth="2" NCoef="0" IVar="-1" Cut="0.0000000000000000e+00" cType="1" res="-6.4184493385255337e-04" rms="4.4622147083282471e-01" purity="4.1296166181564331e-01" nType="-99"/>
        </Node>
      </Node>
    </BinaryTree>
    <BinaryTree type="DecisionTree" boostWeight="1.0000000000000000e+00" itree="459">
      <Node pos="s" depth="0" NCoef="0" IVar="3" Cut="2.1544108581542969e+02" cType="1" res="-2.2505431843455881e-04" rms="4.4740140438079834e-01" purity="4.9485722184181213e-01" nType="0">
        <Node pos="l" depth="1" NCoef="0" IVar="3" Cut="1.2939688110351562e+02" cType="1" res="-3.6509577184915543e-02" rms="4.5849055051803589e-01" purity="4.3320697546005249e-01" nType="0">
          <Node pos="l" depth="2" NCoef="0" IVar="-1" Cut="0.0000000000000000e+00" cType="1" res="-3.1558219343423843e-03" rms="4.1586393117904663e-01" purity="2.3867335915565491e-01" nType="-99"/>
          <Node pos="r" depth="2" NCoef="0" IVar="-1" Cut="0.0000000000000000e+00" cType="1" res="-1.9148753199260682e-04" rms="4.6016663312911987e-01" purity="4.6448320150375366e-01" nType="-99"/>
        </Node>
        <Node pos="r" depth="1" NCoef="0" IVar="3" Cut="2.5957833862304688e+02" cType="1" res="3.7163864821195602e-02" rms="4.3250676989555359e-01" purity="5.5838388204574585e-01" nType="0">
          <Node pos="l" depth="2" NCoef="0" IVar="-1" Cut="0.0000000000000000e+00" cType="1" res="1.9722406286746264e-03" rms="4.0295252203941345e-01" purity="6.6618448495864868e-01" nType="-99"/>
          <Node pos="r" depth="2" NCoef="0" IVar="-1" Cut="0.0000000000000000e+00" cType="1" res="-2.0004513498861343e-04" rms="4.4139578938484192e-01" purity="4.9610480666160583e-01" nType="-99"/>
        </Node>
      </Node>
    </BinaryTree>
    <BinaryTree type="DecisionTree" boostWeight="1.0000000000000000e+00" itree="460">
      <Node pos="s" depth="0" NCoef="0" IVar="5" Cut="1.5639796447753906e+02" cType="1" res="5.0163585692644119e-03" rms="4.4542935490608215e-01" purity="5.0421029329299927e-01" nType="0">
        <Node pos="l" depth="1" NCoef="0" IVar="4" Cut="4.3195410156250000e+02" cType="1" res="2.4076892063021660e-02" rms="4.4387820363044739e-01" purity="4.9905130267143250e-01" nType="0">
          <Node pos="l" depth="2" NCoef="0" IVar="-1" Cut="0.0000000000000000e+00" cType="1" res="-3.3816802897490561e-04" rms="4.4935375452041626e-01" purity="4.1180929541587830e-01" nType="-99"/>
          <Node pos="r" depth="2" NCoef="0" IVar="-1" Cut="0.0000000000000000e+00" cType="1" res="1.6071951249614358e-03" rms="4.2364317178726196e-01" purity="6.5036952495574951e-01" nType="-99"/>
        </Node>
        <Node pos="r" depth="1" NCoef="0" IVar="3" Cut="2.2439308166503906e+02" cType="1" res="-4.2899250984191895e-02" rms="4.4571945071220398e-01" purity="5.1717931032180786e-01" nType="0">
          <Node pos="l" depth="2" NCoef="0" IVar="-1" Cut="0.0000000000000000e+00" cType="1" res="-2.4215034209191799e-03" rms="4.3609237670898438e-01" purity="3.5210371017456055e-01" nType="-99"/>
          <Node pos="r" depth="2" NCoef="0" IVar="-1" Cut="0.0000000000000000e+00" cType="1" res="4.5290043999557383e-06" rms="4.4267246127128601e-01" purity="5.8675462007522583e-01" nType="-99"/>
        </Node>
      </Node>
    </BinaryTree>
    <BinaryTree type="DecisionTree" boostWeight="1.0000000000000000e+00" itree="461">
      <Node pos="s" depth="0" NCoef="0" IVar="1" Cut="1.2629560232162476e+00" cType="1" res="7.7348649501800537e-03" rms="4.4590502977371216e-01" purity="4.9856534600257874e-01" nType="0">
        <Node pos="l" depth="1" NCoef="0" IVar="1" Cut="4.7205930948257446e-01" cType="1" res="3.0914861708879471e-02" rms="4.5635786652565002e-01" purity="5.6969326734542847e-01" nType="0">
          <Node pos="l" depth="2" NCoef="0" IVar="-1" Cut="0.0000000000000000e+00" cType="1" res="-1.0793361579999328e-03" rms="4.1940754652023315e-01" purity="5.2281928062438965e-01" nType="-99"/>
          <Node pos="r" depth="2" NCoef="0" IVar="-1" Cut="0.0000000000000000e+00" cType="1" res="7.3444534791633487e-04" rms="4.6014750003814697e-01" purity="5.7702124118804932e-01" nType="-99"/>
        </Node>
        <Node pos="r" depth="1" NCoef="0" IVar="6" Cut="8.9868670701980591e-01" cType="1" res="-7.4321970343589783e-02" rms="3.9599177241325378e-01" purity="2.4677348136901855e-01" nType="0">
          <Node pos="l" depth="2" NCoef="0" IVar="-1" Cut="0.0000000000000000e+00" cType="1" res="-2.2001243196427822e-03" rms="3.6355483531951904e-01" purity="2.0386844873428345e-01" nType="-99"/>
          <Node pos="r" depth="2" NCoef="0" IVar="-1" Cut="0.0000000000000000e+00" cType="1" res="-3.1488508102484047e-04" rms="4.3222615122795105e-01" purity="3.0878841876983643e-01" nType="-99"/>
        </Node>
      </Node>
    </BinaryTree>
    <BinaryTree type="DecisionTree" boostWeight="1.0000000000000000e+00" itree="462">
      <Node pos="s" depth="0" NCoef="0" IVar="4" Cut="3.3286566162109375e+02" cType="1" res="1.0892158374190331e-02" rms="4.3778735399246216e-01" purity="5.0733900070190430e-01" nType="0">
        <Node pos="l" depth="1" NCoef="0" IVar="0" Cut="2.0608238220214844e+02" cType="1" res="-1.0450787097215652e-01" rms="3.9952749013900757e-01" purity="2.5476491451263428e-01" nType="0">
          <Node pos="l" depth="2" NCoef="0" IVar="-1" Cut="0.0000000000000000e+00" cType="1" res="-4.2186635546386242e-03" rms="2.9442176222801208e-01" purity="1.3724400103092194e-01" nType="-99"/>
          <Node pos="r" depth="2" NCoef="0" IVar="-1" Cut="0.0000000000000000e+00" cType="1" res="-3.2030310831032693e-04" rms="4.4501122832298279e-01" purity="3.4473046660423279e-01" nType="-99"/>
        </Node>
        <Node pos="r" depth="1" NCoef="0" IVar="3" Cut="4.0087814331054688e+02" cType="1" res="2.7561854571104050e-02" rms="4.4054940342903137e-01" purity="5.4382365942001343e-01" nType="0">
          <Node pos="l" depth="2" NCoef="0" IVar="-1" Cut="0.0000000000000000e+00" cType="1" res="6.4548966474831104e-04" rms="4.4133076071739197e-01" purity="5.6596094369888306e-01" nType="-99"/>
          <Node pos="r" depth="2" NCoef="0" IVar="-1" Cut="0.0000000000000000e+00" cType="1" res="-1.5567672671750188e-03" rms="4.1669219732284546e-01" purity="3.3486512303352356e-01" nType="-99"/>
        </Node>
      </Node>
    </BinaryTree>
    <BinaryTree type="DecisionTree" boostWeight="1.0000000000000000e+00" itree="463">
      <Node pos="s" depth="0" NCoef="0" IVar="4" Cut="4.8338763427734375e+02" cType="1" res="-2.2368041798472404e-02" rms="4.3584921956062317e-01" purity="4.7076943516731262e-01" nType="0">
        <Node pos="l" depth="1" NCoef="0" IVar="2" Cut="9.7046798467636108e-01" cType="1" res="-4.9248386174440384e-02" rms="4.2673629522323608e-01" purity="3.9737233519554138e-01" nType="0">
          <Node pos="l" depth="2" NCoef="0" IVar="-1" Cut="0.0000000000000000e+00" cType="1" res="-1.2121062027290463e-03" rms="4.2780011892318726e-01" purity="3.2844424247741699e-01" nType="-99"/>
          <Node pos="r" depth="2" NCoef="0" IVar="-1" Cut="0.0000000000000000e+00" cType="1" res="8.6594442836940289e-04" rms="4.0722882747650146e-01" purity="7.3895961046218872e-01" nType="-99"/>
        </Node>
        <Node pos="r" depth="1" NCoef="0" IVar="6" Cut="8.3810228109359741e-01" cType="1" res="1.5573846176266670e-02" rms="4.4564613699913025e-01" purity="5.7437014579772949e-01" nType="0">
          <Node pos="l" depth="2" NCoef="0" IVar="-1" Cut="0.0000000000000000e+00" cType="1" res="5.8953964617103338e-04" rms="4.3806841969490051e-01" purity="6.2044185400009155e-01" nType="-99"/>
          <Node pos="r" depth="2" NCoef="0" IVar="-1" Cut="0.0000000000000000e+00" cType="1" res="-9.1031217016279697e-04" rms="4.6331915259361267e-01" purity="4.2145133018493652e-01" nType="-99"/>
        </Node>
      </Node>
    </BinaryTree>
    <BinaryTree type="DecisionTree" boostWeight="1.0000000000000000e+00" itree="464">
      <Node pos="s" depth="0" NCoef="0" IVar="3" Cut="1.8176210021972656e+02" cType="1" res="-1.0013375431299210e-02" rms="4.3883651494979858e-01" purity="4.8320597410202026e-01" nType="0">
        <Node pos="l" depth="1" NCoef="0" IVar="5" Cut="1.2002543640136719e+02" cType="1" res="-7.2260253131389618e-02" rms="4.3511351943016052e-01" purity="3.7296524643898010e-01" nType="0">
          <Node pos="l" depth="2" NCoef="0" IVar="-1" Cut="0.0000000000000000e+00" cType="1" res="-1.4242302859202027e-04" rms="4.3753144145011902e-01" purity="4.3219745159149170e-01" nType="-99"/>
          <Node pos="r" depth="2" NCoef="0" IVar="-1" Cut="0.0000000000000000e+00" cType="1" res="-4.2844950221478939e-03" rms="3.7546983361244202e-01" purity="2.0919381082057953e-01" nType="-99"/>
        </Node>
        <Node pos="r" depth="1" NCoef="0" IVar="4" Cut="4.1142169189453125e+02" cType="1" res="2.5929059833288193e-02" rms="4.3695202469825745e-01" purity="5.4686087369918823e-01" nType="0">
          <Node pos="l" depth="2" NCoef="0" IVar="-1" Cut="0.0000000000000000e+00" cType="1" res="-1.0520315263420343e-03" rms="4.2899498343467712e-01" purity="3.3459714055061340e-01" nType="-99"/>
          <Node pos="r" depth="2" NCoef="0" IVar="-1" Cut="0.0000000000000000e+00" cType="1" res="9.2631753068417311e-04" rms="4.3587696552276611e-01" purity="6.2106382846832275e-01" nType="-99"/>
        </Node>
      </Node>
    </BinaryTree>
    <BinaryTree type="DecisionTree" boostWeight="1.0000000000000000e+00" itree="465">
      <Node pos="s" depth="0" NCoef="0" IVar="3" Cut="2.0333737182617188e+02" cType="1" res="-2.0847517997026443e-02" rms="4.3638986349105835e-01" purity="4.7827315330505371e-01" nType="0">
        <Node pos="l" depth="1" NCoef="0" IVar="4" Cut="4.5412551879882812e+02" cType="1" res="-6.6185489296913147e-02" rms="4.4664275646209717e-01" purity="3.9032033085823059e-01" nType="0">
          <Node pos="l" depth="2" NCoef="0" IVar="-1" Cut="0.0000000000000000e+00" cType="1" res="-5.4749415721744299e-04" rms="4.4386616349220276e-01" purity="3.9501541852951050e-01" nType="-99"/>
          <Node pos="r" depth="2" NCoef="0" IVar="-1" Cut="0.0000000000000000e+00" cType="1" res="-2.1076558623462915e-03" rms="4.4457253813743591e-01" purity="3.8119715452194214e-01" nType="-99"/>
        </Node>
        <Node pos="r" depth="1" NCoef="0" IVar="2" Cut="9.4938009977340698e-01" cType="1" res="2.1488718688488007e-02" rms="4.2222043871879578e-01" purity="5.6040287017822266e-01" nType="0">
          <Node pos="l" depth="2" NCoef="0" IVar="-1" Cut="0.0000000000000000e+00" cType="1" res="-6.1637128237634897e-04" rms="4.3078279495239258e-01" purity="3.5331088304519653e-01" nType="-99"/>
          <Node pos="r" depth="2" NCoef="0" IVar="-1" Cut="0.0000000000000000e+00" cType="1" res="1.2463162420317531e-03" rms="4.0796950459480286e-01" purity="7.4234056472778320e-01" nType="-99"/>
        </Node>
      </Node>
    </BinaryTree>
    <BinaryTree type="DecisionTree" boostWeight="1.0000000000000000e+00" itree="466">
      <Node pos="s" depth="0" NCoef="0" IVar="2" Cut="9.1517287492752075e-01" cType="1" res="1.4033835381269455e-02" rms="4.3790188431739807e-01" purity="5.1487249135971069e-01" nType="0">
        <Node pos="l" depth="1" NCoef="0" IVar="-1" Cut="0.0000000000000000e+00" cType="1" res="-2.9016928747296333e-03" rms="3.1018733978271484e-01" purity="1.1892548948526382e-01" nType="-99"/>
        <Node pos="r" depth="1" NCoef="0" IVar="1" Cut="6.3374370336532593e-01" cType="1" res="2.6343088597059250e-02" rms="4.4439044594764709e-01" purity="5.4697096347808838e-01" nType="0">
          <Node pos="l" depth="2" NCoef="0" IVar="-1" Cut="0.0000000000000000e+00" cType="1" res="1.7303128261119127e-03" rms="3.9795640110969543e-01" purity="7.2394073009490967e-01" nType="-99"/>
          <Node pos="r" depth="2" NCoef="0" IVar="-1" Cut="0.0000000000000000e+00" cType="1" res="-1.1252888725721277e-05" rms="4.5532268285751343e-01" purity="4.8907417058944702e-01" nType="-99"/>
        </Node>
      </Node>
    </BinaryTree>
    <BinaryTree type="DecisionTree" boostWeight="1.0000000000000000e+00" itree="467">
      <Node pos="s" depth="0" NCoef="0" IVar="1" Cut="6.1822605133056641e-01" cType="1" res="2.3235375061631203e-02" rms="4.3130764365196228e-01" purity="5.2049624919891357e-01" nType="0">
        <Node pos="l" depth="1" NCoef="0" IVar="3" Cut="1.7785186767578125e+02" cType="1" res="1.0603056102991104e-01" rms="4.0300241112709045e-01" purity="6.9961595535278320e-01" nType="0">
          <Node pos="l" depth="2" NCoef="0" IVar="-1" Cut="0.0000000000000000e+00" cType="1" res="1.3792283425573260e-04" rms="4.6694788336753845e-01" purity="5.2196091413497925e-01" nType="-99"/>
          <Node pos="r" depth="2" NCoef="0" IVar="-1" Cut="0.0000000000000000e+00" cType="1" res="3.4736127126961946e-03" rms="2.8987300395965576e-01" purity="8.8525182008743286e-01" nType="-99"/>
        </Node>
        <Node pos="r" depth="1" NCoef="0" IVar="4" Cut="6.2435778808593750e+02" cType="1" res="-5.5818422697484493e-04" rms="4.3620720505714417e-01" purity="4.6902105212211609e-01" nType="0">
          <Node pos="l" depth="2" NCoef="0" IVar="-1" Cut="0.0000000000000000e+00" cType="1" res="-4.1238428093492985e-04" rms="4.3081229925155640e-01" purity="4.2729195952415466e-01" nType="-99"/>
          <Node pos="r" depth="2" NCoef="0" IVar="-1" Cut="0.0000000000000000e+00" cType="1" res="1.8585860962048173e-03" rms="4.4431057572364807e-01" purity="6.8150115013122559e-01" nType="-99"/>
        </Node>
      </Node>
    </BinaryTree>
    <BinaryTree type="DecisionTree" boostWeight="1.0000000000000000e+00" itree="468">
      <Node pos="s" depth="0" NCoef="0" IVar="2" Cut="9.6374779939651489e-01" cType="1" res="-4.5349150896072388e-03" rms="4.3639731407165527e-01" purity="4.8953571915626526e-01" nType="0">
        <Node pos="l" depth="1" NCoef="0" IVar="1" Cut="8.4866744279861450e-01" cType="1" res="-2.9619339853525162e-02" rms="4.4354614615440369e-01" purity="3.8612404465675354e-01" nType="0">
          <Node pos="l" depth="2" NCoef="0" IVar="-1" Cut="0.0000000000000000e+00" cType="1" res="4.7063108650036156e-04" rms="4.6072247624397278e-01" purity="5.1599031686782837e-01" nType="-99"/>
          <Node pos="r" depth="2" NCoef="0" IVar="-1" Cut="0.0000000000000000e+00" cType="1" res="-1.3130467850714922e-03" rms="4.2521995306015015e-01" purity="2.9151231050491333e-01" nType="-99"/>
        </Node>
        <Node pos="r" depth="1" NCoef="0" IVar="6" Cut="4.7626060247421265e-01" cType="1" res="6.4660444855690002e-02" rms="4.0812546014785767e-01" purity="7.7479678392410278e-01" nType="0">
          <Node pos="l" depth="2" NCoef="0" IVar="-1" Cut="0.0000000000000000e+00" cType="1" res="-7.1264617145061493e-04" rms="4.4342690706253052e-01" purity="7.0701527595520020e-01" nType="-99"/>
          <Node pos="r" depth="2" NCoef="0" IVar="-1" Cut="0.0000000000000000e+00" cType="1" res="1.8519930308684707e-03" rms="3.8337269425392151e-01" purity="8.0417311191558838e-01" nType="-99"/>
        </Node>
      </Node>
    </BinaryTree>
    <BinaryTree type="DecisionTree" boostWeight="1.0000000000000000e+00" itree="469">
      <Node pos="s" depth="0" NCoef="0" IVar="2" Cut="9.2644059658050537e-01" cType="1" res="6.9839362986385822e-03" rms="4.4040071964263916e-01" purity="4.9931925535202026e-01" nType="0">
        <Node pos="l" depth="1" NCoef="0" IVar="6" Cut="6.2114405632019043e-01" cType="1" res="-9.1374658048152924e-02" rms="3.7465253472328186e-01" purity="1.9202886521816254e-01" nType="0">
          <Node pos="l" depth="2" NCoef="0" IVar="-1" Cut="0.0000000000000000e+00" cType="1" res="-3.1767773907631636e-03" rms="3.2720473408699036e-01" purity="1.4980258047580719e-01" nType="-99"/>
          <Node pos="r" depth="2" NCoef="0" IVar="-1" Cut="0.0000000000000000e+00" cType="1" res="-6.9800647906959057e-04" rms="3.9611408114433289e-01" purity="2.2296057641506195e-01" nType="-99"/>
        </Node>
        <Node pos="r" depth="1" NCoef="0" IVar="6" Cut="4.2757380008697510e-01" cType="1" res="2.7960436418652534e-02" rms="4.5041990280151367e-01" purity="5.6485378742218018e-01" nType="0">
          <Node pos="l" depth="2" NCoef="0" IVar="-1" Cut="0.0000000000000000e+00" cType="1" res="-5.2284816047176719e-04" rms="4.6611079573631287e-01" purity="5.8101665973663330e-01" nType="-99"/>
          <Node pos="r" depth="2" NCoef="0" IVar="-1" Cut="0.0000000000000000e+00" cType="1" res="7.2211708175018430e-04" rms="4.4450187683105469e-01" purity="5.6031203269958496e-01" nType="-99"/>
        </Node>
      </Node>
    </BinaryTree>
    <BinaryTree type="DecisionTree" boostWeight="1.0000000000000000e+00" itree="470">
      <Node pos="s" depth="0" NCoef="0" IVar="1" Cut="1.6625981330871582e+00" cType="1" res="3.7535361945629120e-02" rms="4.4471487402915955e-01" purity="5.2823293209075928e-01" nType="0">
        <Node pos="l" depth="1" NCoef="0" IVar="5" Cut="1.3505383300781250e+02" cType="1" res="4.7627642750740051e-02" rms="4.5119330286979675e-01" purity="5.5829203128814697e-01" nType="0">
          <Node pos="l" depth="2" NCoef="0" IVar="-1" Cut="0.0000000000000000e+00" cType="1" res="1.0816644644364715e-03" rms="4.5541584491729736e-01" purity="5.3855210542678833e-01" nType="-99"/>
          <Node pos="r" depth="2" NCoef="0" IVar="-1" Cut="0.0000000000000000e+00" cType="1" res="2.9046038980595767e-04" rms="4.4256600737571716e-01" purity="5.9058207273483276e-01" nType="-99"/>
        </Node>
        <Node pos="r" depth="1" NCoef="0" IVar="-1" Cut="0.0000000000000000e+00" cType="1" res="-1.9442337797954679e-03" rms="3.3164256811141968e-01" purity="1.5946455299854279e-01" nType="-99"/>
      </Node>
    </BinaryTree>
    <BinaryTree type="DecisionTree" boostWeight="1.0000000000000000e+00" itree="471">
      <Node pos="s" depth="0" NCoef="0" IVar="1" Cut="1.6672400236129761e+00" cType="1" res="4.7575011849403381e-03" rms="4.3976187705993652e-01" purity="4.8780715465545654e-01" nType="0">
        <Node pos="l" depth="1" NCoef="0" IVar="3" Cut="1.2007131195068359e+02" cType="1" res="1.5132996253669262e-02" rms="4.4839891791343689e-01" purity="5.1939064264297485e-01" nType="0">
          <Node pos="l" depth="2" NCoef="0" IVar="-1" Cut="0.0000000000000000e+00" cType="1" res="-2.3438455536961555e-03" rms="4.1015464067459106e-01" purity="2.8113892674446106e-01" nType="-99"/>
          <Node pos="r" depth="2" NCoef="0" IVar="-1" Cut="0.0000000000000000e+00" cType="1" res="4.1054576286114752e-04" rms="4.4905421137809753e-01" purity="5.3477400541305542e-01" nType="-99"/>
        </Node>
        <Node pos="r" depth="1" NCoef="0" IVar="-1" Cut="0.0000000000000000e+00" cType="1" res="-3.0780157539993525e-03" rms="2.8230744600296021e-01" purity="9.4104774296283722e-02" nType="-99"/>
      </Node>
    </BinaryTree>
    <BinaryTree type="DecisionTree" boostWeight="1.0000000000000000e+00" itree="472">
      <Node pos="s" depth="0" NCoef="0" IVar="4" Cut="7.1841607666015625e+02" cType="1" res="4.6500426833517849e-04" rms="4.4407054781913757e-01" purity="4.9389180541038513e-01" nType="0">
        <Node pos="l" depth="1" NCoef="0" IVar="4" Cut="3.5973541259765625e+02" cType="1" res="-1.1783013120293617e-02" rms="4.4471237063407898e-01" purity="4.7288429737091064e-01" nType="0">
          <Node pos="l" depth="2" NCoef="0" IVar="-1" Cut="0.0000000000000000e+00" cType="1" res="-1.2929071672260761e-03" rms="4.1991215944290161e-01" purity="3.1312179565429688e-01" nType="-99"/>
          <Node pos="r" depth="2" NCoef="0" IVar="-1" Cut="0.0000000000000000e+00" cType="1" res="1.1695648572640494e-04" rms="4.5055517554283142e-01" purity="5.2287298440933228e-01" nType="-99"/>
        </Node>
        <Node pos="r" depth="1" NCoef="0" IVar="-1" Cut="0.0000000000000000e+00" cType="1" res="2.1309268195182085e-03" rms="4.1372010111808777e-01" purity="7.2475326061248779e-01" nType="-99"/>
      </Node>
    </BinaryTree>
    <BinaryTree type="DecisionTree" boostWeight="1.0000000000000000e+00" itree="473">
      <Node pos="s" depth="0" NCoef="0" IVar="4" Cut="7.1974615478515625e+02" cType="1" res="1.9783120602369308e-02" rms="4.3828052282333374e-01" purity="5.0664085149765015e-01" nType="0">
        <Node pos="l" depth="1" NCoef="0" IVar="2" Cut="9.5479774475097656e-01" cType="1" res="4.8580104485154152e-03" rms="4.3902400135993958e-01" purity="4.8340162634849548e-01" nType="0">
          <Node pos="l" depth="2" NCoef="0" IVar="-1" Cut="0.0000000000000000e+00" cType="1" res="-6.0729804681614041e-04" rms="4.3859019875526428e-01" purity="3.2487440109252930e-01" nType="-99"/>
          <Node pos="r" depth="2" NCoef="0" IVar="-1" Cut="0.0000000000000000e+00" cType="1" res="1.0139018995687366e-03" rms="4.3327894806861877e-01" purity="7.1283310651779175e-01" nType="-99"/>
        </Node>
        <Node pos="r" depth="1" NCoef="0" IVar="-1" Cut="0.0000000000000000e+00" cType="1" res="2.6275683194398880e-03" rms="4.0193814039230347e-01" purity="7.3688662052154541e-01" nType="-99"/>
      </Node>
    </BinaryTree>
    <BinaryTree type="DecisionTree" boostWeight="1.0000000000000000e+00" itree="474">
      <Node pos="s" depth="0" NCoef="0" IVar="4" Cut="7.1841607666015625e+02" cType="1" res="-7.5697535648941994e-03" rms="4.3509948253631592e-01" purity="4.8773261904716492e-01" nType="0">
        <Node pos="l" depth="1" NCoef="0" IVar="4" Cut="3.3922439575195312e+02" cType="1" res="-2.8205657377839088e-02" rms="4.3600013852119446e-01" purity="4.5494228601455688e-01" nType="0">
          <Node pos="l" depth="2" NCoef="0" IVar="-1" Cut="0.0000000000000000e+00" cType="1" res="-2.6697150897234678e-03" rms="3.8274884223937988e-01" purity="2.2565951943397522e-01" nType="-99"/>
          <Node pos="r" depth="2" NCoef="0" IVar="-1" Cut="0.0000000000000000e+00" cType="1" res="-1.4559962437488139e-04" rms="4.4190287590026855e-01" purity="4.9541148543357849e-01" nType="-99"/>
        </Node>
        <Node pos="r" depth="1" NCoef="0" IVar="5" Cut="2.6848086547851562e+02" cType="1" res="1.5044507384300232e-01" rms="3.9379483461380005e-01" purity="7.3881727457046509e-01" nType="0">
          <Node pos="l" depth="2" NCoef="0" IVar="-1" Cut="0.0000000000000000e+00" cType="1" res="2.7122648898512125e-03" rms="3.8107904791831970e-01" purity="7.7845513820648193e-01" nType="-99"/>
          <Node pos="r" depth="2" NCoef="0" IVar="-1" Cut="0.0000000000000000e+00" cType="1" res="2.0026750862598419e-03" rms="4.0479257702827454e-01" purity="6.9885402917861938e-01" nType="-99"/>
        </Node>
      </Node>
    </BinaryTree>
    <BinaryTree type="DecisionTree" boostWeight="1.0000000000000000e+00" itree="475">
      <Node pos="s" depth="0" NCoef="0" IVar="3" Cut="1.3184167480468750e+02" cType="1" res="2.5390509516000748e-02" rms="4.4195380806922913e-01" purity="5.2674371004104614e-01" nType="0">
        <Node pos="l" depth="1" NCoef="0" IVar="-1" Cut="0.0000000000000000e+00" cType="1" res="-2.4655042216181755e-03" rms="4.0162485837936401e-01" purity="2.8558215498924255e-01" nType="-99"/>
        <Node pos="r" depth="1" NCoef="0" IVar="1" Cut="7.4897330999374390e-01" cType="1" res="3.8596030324697495e-02" rms="4.4217413663864136e-01" purity="5.4536783695220947e-01" nType="0">
          <Node pos="l" depth="2" NCoef="0" IVar="-1" Cut="0.0000000000000000e+00" cType="1" res="1.4989227056503296e-03" rms="4.3252602219581604e-01" purity="6.8102592229843140e-01" nType="-99"/>
          <Node pos="r" depth="2" NCoef="0" IVar="-1" Cut="0.0000000000000000e+00" cType="1" res="1.6101468645501882e-04" rms="4.4448983669281006e-01" purity="4.7306722402572632e-01" nType="-99"/>
        </Node>
      </Node>
    </BinaryTree>
    <BinaryTree type="DecisionTree" boostWeight="1.0000000000000000e+00" itree="476">
      <Node pos="s" depth="0" NCoef="0" IVar="2" Cut="9.4064962863922119e-01" cType="1" res="1.8437309190630913e-02" rms="4.3041560053825378e-01" purity="5.1530534029006958e-01" nType="0">
        <Node pos="l" depth="1" NCoef="0" IVar="4" Cut="5.1007812500000000e+02" cType="1" res="-2.4270728230476379e-02" rms="4.2436540126800537e-01" purity="3.0460378527641296e-01" nType="0">
          <Node pos="l" depth="2" NCoef="0" IVar="-1" Cut="0.0000000000000000e+00" cType="1" res="-1.2468741042539477e-03" rms="3.9286640286445618e-01" purity="2.2216798365116119e-01" nType="-99"/>
          <Node pos="r" depth="2" NCoef="0" IVar="-1" Cut="0.0000000000000000e+00" cType="1" res="9.0338371228426695e-04" rms="4.7175025939941406e-01" purity="4.7199940681457520e-01" nType="-99"/>
        </Node>
        <Node pos="r" depth="1" NCoef="0" IVar="1" Cut="1.0988034009933472e+00" cType="1" res="4.6014580875635147e-02" rms="4.3204012513160706e-01" purity="6.5135878324508667e-01" nType="0">
          <Node pos="l" depth="2" NCoef="0" IVar="-1" Cut="0.0000000000000000e+00" cType="1" res="1.3452528510242701e-03" rms="4.1297703981399536e-01" purity="7.5096195936203003e-01" nType="-99"/>
          <Node pos="r" depth="2" NCoef="0" IVar="-1" Cut="0.0000000000000000e+00" cType="1" res="-5.0761125748977065e-04" rms="4.6036943793296814e-01" purity="4.4132918119430542e-01" nType="-99"/>
        </Node>
      </Node>
    </BinaryTree>
    <BinaryTree type="DecisionTree" boostWeight="1.0000000000000000e+00" itree="477">
      <Node pos="s" depth="0" NCoef="0" IVar="4" Cut="3.6506991577148438e+02" cType="1" res="9.8924513440579176e-04" rms="4.3864366412162781e-01" purity="4.9400886893272400e-01" nType="0">
        <Node pos="l" depth="1" NCoef="0" IVar="6" Cut="8.7905329465866089e-01" cType="1" res="-8.5852347314357758e-02" rms="4.0432891249656677e-01" purity="2.8314420580863953e-01" nType="0">
          <Node pos="l" depth="2" NCoef="0" IVar="-1" Cut="0.0000000000000000e+00" cType="1" res="-2.3356096353381872e-03" rms="3.8868030905723572e-01" purity="2.5563827157020569e-01" nType="-99"/>
          <Node pos="r" depth="2" NCoef="0" IVar="-1" Cut="0.0000000000000000e+00" cType="1" res="3.3051660284399986e-04" rms="4.2325890064239502e-01" purity="3.5121992230415344e-01" nType="-99"/>
        </Node>
        <Node pos="r" depth="1" NCoef="0" IVar="1" Cut="1.1507654190063477e+00" cType="1" res="2.8677515685558319e-02" rms="4.4548839330673218e-01" purity="5.6124025583267212e-01" nType="0">
          <Node pos="l" depth="2" NCoef="0" IVar="-1" Cut="0.0000000000000000e+00" cType="1" res="9.5381785649806261e-04" rms="4.4916769862174988e-01" purity="6.4175593852996826e-01" nType="-99"/>
          <Node pos="r" depth="2" NCoef="0" IVar="-1" Cut="0.0000000000000000e+00" cType="1" res="-1.1680679162964225e-03" rms="4.2014202475547791e-01" purity="3.0531406402587891e-01" nType="-99"/>
        </Node>
      </Node>
    </BinaryTree>
    <BinaryTree type="DecisionTree" boostWeight="1.0000000000000000e+00" itree="478">
      <Node pos="s" depth="0" NCoef="0" IVar="2" Cut="9.5294773578643799e-01" cType="1" res="-6.5161739476025105e-03" rms="4.3627360463142395e-01" purity="4.9101737141609192e-01" nType="0">
        <Node pos="l" depth="1" NCoef="0" IVar="4" Cut="6.5950469970703125e+02" cType="1" res="-5.2120182663202286e-02" rms="4.3515780568122864e-01" purity="3.3187219500541687e-01" nType="0">
          <Node pos="l" depth="2" NCoef="0" IVar="-1" Cut="0.0000000000000000e+00" cType="1" res="-1.3630962930619717e-03" rms="4.2600619792938232e-01" purity="2.8185981512069702e-01" nType="-99"/>
          <Node pos="r" depth="2" NCoef="0" IVar="-1" Cut="0.0000000000000000e+00" cType="1" res="1.2934375554323196e-03" rms="4.5654991269111633e-01" purity="5.9495127201080322e-01" nType="-99"/>
        </Node>
        <Node pos="r" depth="1" NCoef="0" IVar="5" Cut="1.4202313232421875e+02" cType="1" res="5.8403808623552322e-02" rms="4.2958539724349976e-01" purity="7.1756970882415771e-01" nType="0">
          <Node pos="l" depth="2" NCoef="0" IVar="-1" Cut="0.0000000000000000e+00" cType="1" res="1.4355635503306985e-03" rms="4.1866287589073181e-01" purity="7.3383826017379761e-01" nType="-99"/>
          <Node pos="r" depth="2" NCoef="0" IVar="-1" Cut="0.0000000000000000e+00" cType="1" res="-9.5581293862778693e-05" rms="4.4447863101959229e-01" purity="6.8410146236419678e-01" nType="-99"/>
        </Node>
      </Node>
    </BinaryTree>
    <BinaryTree type="DecisionTree" boostWeight="1.0000000000000000e+00" itree="479">
      <Node pos="s" depth="0" NCoef="0" IVar="2" Cut="9.5197546482086182e-01" cType="1" res="5.6473212316632271e-03" rms="4.3374338746070862e-01" purity="5.0104331970214844e-01" nType="0">
        <Node pos="l" depth="1" NCoef="0" IVar="4" Cut="4.0640551757812500e+02" cType="1" res="-3.3950246870517731e-02" rms="4.3657389283180237e-01" purity="3.3050709962844849e-01" nType="0">
          <Node pos="l" depth="2" NCoef="0" IVar="-1" Cut="0.0000000000000000e+00" cType="1" res="-1.4708417002111673e-03" rms="3.9843913912773132e-01" purity="2.1444566547870636e-01" nType="-99"/>
          <Node pos="r" depth="2" NCoef="0" IVar="-1" Cut="0.0000000000000000e+00" cType="1" res="-6.8756358814425766e-05" rms="4.5879498124122620e-01" purity="4.1088619828224182e-01" nType="-99"/>
        </Node>
        <Node pos="r" depth="1" NCoef="0" IVar="4" Cut="3.6506991577148438e+02" cType="1" res="5.3750548511743546e-02" rms="4.2534935474395752e-01" purity="7.0821130275726318e-01" nType="0">
          <Node pos="l" depth="2" NCoef="0" IVar="-1" Cut="0.0000000000000000e+00" cType="1" res="-9.3553966144099832e-04" rms="4.5527163147926331e-01" purity="4.9770659208297729e-01" nType="-99"/>
          <Node pos="r" depth="2" NCoef="0" IVar="-1" Cut="0.0000000000000000e+00" cType="1" res="1.2702131643891335e-03" rms="4.1525679826736450e-01" purity="7.5180244445800781e-01" nType="-99"/>
        </Node>
      </Node>
    </BinaryTree>
    <BinaryTree type="DecisionTree" boostWeight="1.0000000000000000e+00" itree="480">
      <Node pos="s" depth="0" NCoef="0" IVar="3" Cut="3.5599508666992188e+02" cType="1" res="2.0265391096472740e-02" rms="4.3826818466186523e-01" purity="5.2057820558547974e-01" nType="0">
        <Node pos="l" depth="1" NCoef="0" IVar="0" Cut="2.9491073608398438e+02" cType="1" res="3.2892219722270966e-02" rms="4.3778276443481445e-01" purity="5.4105567932128906e-01" nType="0">
          <Node pos="l" depth="2" NCoef="0" IVar="-1" Cut="0.0000000000000000e+00" cType="1" res="-2.3459245858248323e-04" rms="4.3290913105010986e-01" purity="4.2079517245292664e-01" nType="-99"/>
          <Node pos="r" depth="2" NCoef="0" IVar="-1" Cut="0.0000000000000000e+00" cType="1" res="1.1799330823123455e-03" rms="4.3800398707389832e-01" purity="6.4238357543945312e-01" nType="-99"/>
        </Node>
        <Node pos="r" depth="1" NCoef="0" IVar="3" Cut="4.1743032836914062e+02" cType="1" res="-8.0188296735286713e-02" rms="4.2907196283340454e-01" purity="3.5766765475273132e-01" nType="0">
          <Node pos="l" depth="2" NCoef="0" IVar="-1" Cut="0.0000000000000000e+00" cType="1" res="-4.2526973993517458e-04" rms="4.3508115410804749e-01" purity="4.4194728136062622e-01" nType="-99"/>
          <Node pos="r" depth="2" NCoef="0" IVar="-1" Cut="0.0000000000000000e+00" cType="1" res="-2.4327517021447420e-03" rms="4.1687431931495667e-01" purity="2.7965173125267029e-01" nType="-99"/>
        </Node>
      </Node>
    </BinaryTree>
    <BinaryTree type="DecisionTree" boostWeight="1.0000000000000000e+00" itree="481">
      <Node pos="s" depth="0" NCoef="0" IVar="3" Cut="1.8425517272949219e+02" cType="1" res="-6.2260654522106051e-04" rms="4.4417741894721985e-01" purity="5.0341659784317017e-01" nType="0">
        <Node pos="l" depth="1" NCoef="0" IVar="2" Cut="9.4378548860549927e-01" cType="1" res="-4.3472342193126678e-02" rms="4.4083353877067566e-01" purity="3.9669352769851685e-01" nType="0">
          <Node pos="l" depth="2" NCoef="0" IVar="-1" Cut="0.0000000000000000e+00" cType="1" res="-1.8985442584380507e-03" rms="3.9186510443687439e-01" purity="1.9090387225151062e-01" nType="-99"/>
          <Node pos="r" depth="2" NCoef="0" IVar="-1" Cut="0.0000000000000000e+00" cType="1" res="1.4816923066973686e-04" rms="4.7576588392257690e-01" purity="5.8795982599258423e-01" nType="-99"/>
        </Node>
        <Node pos="r" depth="1" NCoef="0" IVar="4" Cut="4.0303372192382812e+02" cType="1" res="2.2791648283600807e-02" rms="4.4425117969512939e-01" purity="5.6173294782638550e-01" nType="0">
          <Node pos="l" depth="2" NCoef="0" IVar="-1" Cut="0.0000000000000000e+00" cType="1" res="-1.4352611033245921e-03" rms="4.1022375226020813e-01" purity="3.0097153782844543e-01" nType="-99"/>
          <Node pos="r" depth="2" NCoef="0" IVar="-1" Cut="0.0000000000000000e+00" cType="1" res="8.0247822916135192e-04" rms="4.4904598593711853e-01" purity="6.2884557247161865e-01" nType="-99"/>
        </Node>
      </Node>
    </BinaryTree>
    <BinaryTree type="DecisionTree" boostWeight="1.0000000000000000e+00" itree="482">
      <Node pos="s" depth="0" NCoef="0" IVar="1" Cut="7.8861397504806519e-01" cType="1" res="1.1087334714829922e-03" rms="4.3925580382347107e-01" purity="5.0555962324142456e-01" nType="0">
        <Node pos="l" depth="1" NCoef="0" IVar="2" Cut="9.2671769857406616e-01" cType="1" res="4.7096882015466690e-02" rms="4.2705529928207397e-01" purity="6.3399481773376465e-01" nType="0">
          <Node pos="l" depth="2" NCoef="0" IVar="-1" Cut="0.0000000000000000e+00" cType="1" res="-2.0833131857216358e-03" rms="4.1293692588806152e-01" purity="2.1573987603187561e-01" nType="-99"/>
          <Node pos="r" depth="2" NCoef="0" IVar="-1" Cut="0.0000000000000000e+00" cType="1" res="1.2777989031746984e-03" rms="4.2240208387374878e-01" purity="7.1404016017913818e-01" nType="-99"/>
        </Node>
        <Node pos="r" depth="1" NCoef="0" IVar="2" Cut="9.7767704725265503e-01" cType="1" res="-3.0490947887301445e-02" rms="4.4469812512397766e-01" purity="4.1730836033821106e-01" nType="0">
          <Node pos="l" depth="2" NCoef="0" IVar="-1" Cut="0.0000000000000000e+00" cType="1" res="-7.5304618803784251e-04" rms="4.4861429929733276e-01" purity="3.7492722272872925e-01" nType="-99"/>
          <Node pos="r" depth="2" NCoef="0" IVar="-1" Cut="0.0000000000000000e+00" cType="1" res="1.5548609662801027e-03" rms="3.8796752691268921e-01" purity="7.9775226116180420e-01" nType="-99"/>
        </Node>
      </Node>
    </BinaryTree>
    <BinaryTree type="DecisionTree" boostWeight="1.0000000000000000e+00" itree="483">
      <Node pos="s" depth="0" NCoef="0" IVar="0" Cut="3.0295510864257812e+02" cType="1" res="3.9686346426606178e-03" rms="4.3871971964836121e-01" purity="5.0609141588211060e-01" nType="0">
        <Node pos="l" depth="1" NCoef="0" IVar="5" Cut="1.0844171905517578e+02" cType="1" res="-3.6850400269031525e-02" rms="4.3297982215881348e-01" purity="3.9368033409118652e-01" nType="0">
          <Node pos="l" depth="2" NCoef="0" IVar="-1" Cut="0.0000000000000000e+00" cType="1" res="-2.2230687318369746e-04" rms="4.3089878559112549e-01" purity="4.1243925690650940e-01" nType="-99"/>
          <Node pos="r" depth="2" NCoef="0" IVar="-1" Cut="0.0000000000000000e+00" cType="1" res="-2.2771810181438923e-03" rms="4.2862975597381592e-01" purity="3.2210978865623474e-01" nType="-99"/>
        </Node>
        <Node pos="r" depth="1" NCoef="0" IVar="1" Cut="1.0742173194885254e+00" cType="1" res="3.9565704762935638e-02" rms="4.4058847427368164e-01" purity="6.0412174463272095e-01" nType="0">
          <Node pos="l" depth="2" NCoef="0" IVar="-1" Cut="0.0000000000000000e+00" cType="1" res="1.0813155677169561e-03" rms="4.3218883872032166e-01" purity="6.8607693910598755e-01" nType="-99"/>
          <Node pos="r" depth="2" NCoef="0" IVar="-1" Cut="0.0000000000000000e+00" cType="1" res="-5.7325331727042794e-04" rms="4.5394942164421082e-01" purity="3.8754937052726746e-01" nType="-99"/>
        </Node>
      </Node>
    </BinaryTree>
    <BinaryTree type="DecisionTree" boostWeight="1.0000000000000000e+00" itree="484">
      <Node pos="s" depth="0" NCoef="0" IVar="1" Cut="1.5215884447097778e+00" cType="1" res="7.0622861385345459e-03" rms="4.3990528583526611e-01" purity="5.0200563669204712e-01" nType="0">
        <Node pos="l" depth="1" NCoef="0" IVar="2" Cut="9.7527259588241577e-01" cType="1" res="2.1920863538980484e-02" rms="4.5026171207427979e-01" purity="5.5039370059967041e-01" nType="0">
          <Node pos="l" depth="2" NCoef="0" IVar="-1" Cut="0.0000000000000000e+00" cType="1" res="9.6996329375542700e-05" rms="4.6672946214675903e-01" purity="4.9631568789482117e-01" nType="-99"/>
          <Node pos="r" depth="2" NCoef="0" IVar="-1" Cut="0.0000000000000000e+00" cType="1" res="2.2415954153984785e-03" rms="3.1790116429328918e-01" purity="8.7567412853240967e-01" nType="-99"/>
        </Node>
        <Node pos="r" depth="1" NCoef="0" IVar="2" Cut="9.4215911626815796e-01" cType="1" res="-9.7986288368701935e-02" rms="3.4021094441413879e-01" purity="1.5990729629993439e-01" nType="0">
          <Node pos="l" depth="2" NCoef="0" IVar="-1" Cut="0.0000000000000000e+00" cType="1" res="-4.8102401196956635e-03" rms="5.1362428814172745e-02" purity="0.0000000000000000e+00" nType="-99"/>
          <Node pos="r" depth="2" NCoef="0" IVar="-1" Cut="0.0000000000000000e+00" cType="1" res="-4.1375943692401052e-04" rms="4.6006497740745544e-01" purity="3.1205865740776062e-01" nType="-99"/>
        </Node>
      </Node>
    </BinaryTree>
    <BinaryTree type="DecisionTree" boostWeight="1.0000000000000000e+00" itree="485">
      <Node pos="s" depth="0" NCoef="0" IVar="2" Cut="9.3860840797424316e-01" cType="1" res="1.4065668219700456e-03" rms="4.3675976991653442e-01" purity="4.9680176377296448e-01" nType="0">
        <Node pos="l" depth="1" NCoef="0" IVar="2" Cut="9.3289381265640259e-01" cType="1" res="-7.4630878865718842e-02" rms="4.1163206100463867e-01" purity="2.5350511074066162e-01" nType="0">
          <Node pos="l" depth="2" NCoef="0" IVar="-1" Cut="0.0000000000000000e+00" cType="1" res="-9.0223888400942087e-04" rms="4.0984296798706055e-01" purity="2.5938701629638672e-01" nType="-99"/>
          <Node pos="r" depth="2" NCoef="0" IVar="-1" Cut="0.0000000000000000e+00" cType="1" res="-2.8292187489569187e-03" rms="4.0523886680603027e-01" purity="2.3348176479339600e-01" nType="-99"/>
        </Node>
        <Node pos="r" depth="1" NCoef="0" IVar="0" Cut="4.0083508300781250e+02" cType="1" res="4.2010210454463959e-02" rms="4.4430488348007202e-01" purity="6.2672096490859985e-01" nType="0">
          <Node pos="l" depth="2" NCoef="0" IVar="-1" Cut="0.0000000000000000e+00" cType="1" res="1.2582123745232821e-03" rms="4.3462654948234558e-01" purity="6.3857531547546387e-01" nType="-99"/>
          <Node pos="r" depth="2" NCoef="0" IVar="-1" Cut="0.0000000000000000e+00" cType="1" res="-1.0770503431558609e-03" rms="4.5439776778221130e-01" purity="5.9357273578643799e-01" nType="-99"/>
        </Node>
      </Node>
    </BinaryTree>
    <BinaryTree type="DecisionTree" boostWeight="1.0000000000000000e+00" itree="486">
      <Node pos="s" depth="0" NCoef="0" IVar="3" Cut="2.1718280029296875e+02" cType="1" res="2.0742680877447128e-02" rms="4.4095540046691895e-01" purity="5.1750522851943970e-01" nType="0">
        <Node pos="l" depth="1" NCoef="0" IVar="5" Cut="1.4335450744628906e+02" cType="1" res="-1.2636724859476089e-02" rms="4.5019271969795227e-01" purity="4.6890252828598022e-01" nType="0">
          <Node pos="l" depth="2" NCoef="0" IVar="-1" Cut="0.0000000000000000e+00" cType="1" res="4.4991946197114885e-04" rms="4.4745305180549622e-01" purity="4.9451506137847900e-01" nType="-99"/>
          <Node pos="r" depth="2" NCoef="0" IVar="-1" Cut="0.0000000000000000e+00" cType="1" res="-2.7629837859421968e-03" rms="4.2762318253517151e-01" purity="3.6888808012008667e-01" nType="-99"/>
        </Node>
        <Node pos="r" depth="1" NCoef="0" IVar="2" Cut="9.5341753959655762e-01" cType="1" res="5.8407094329595566e-02" rms="4.2717361450195312e-01" purity="5.7234722375869751e-01" nType="0">
          <Node pos="l" depth="2" NCoef="0" IVar="-1" Cut="0.0000000000000000e+00" cType="1" res="3.1287924502976239e-04" rms="4.5436757802963257e-01" purity="4.0983843803405762e-01" nType="-99"/>
          <Node pos="r" depth="2" NCoef="0" IVar="-1" Cut="0.0000000000000000e+00" cType="1" res="1.9920039921998978e-03" rms="3.7910696864128113e-01" purity="7.9854124784469604e-01" nType="-99"/>
        </Node>
      </Node>
    </BinaryTree>
    <BinaryTree type="DecisionTree" boostWeight="1.0000000000000000e+00" itree="487">
      <Node pos="s" depth="0" NCoef="0" IVar="2" Cut="9.3327945470809937e-01" cType="1" res="1.1810813099145889e-02" rms="4.4829595088958740e-01" purity="5.1729184389114380e-01" nType="0">
        <Node pos="l" depth="1" NCoef="0" IVar="6" Cut="8.6026370525360107e-01" cType="1" res="-3.4191809594631195e-02" rms="4.2764076590538025e-01" purity="2.6929742097854614e-01" nType="0">
          <Node pos="l" depth="2" NCoef="0" IVar="-1" Cut="0.0000000000000000e+00" cType="1" res="-1.6053083818405867e-03" rms="3.9952102303504944e-01" purity="2.3119936883449554e-01" nType="-99"/>
          <Node pos="r" depth="2" NCoef="0" IVar="-1" Cut="0.0000000000000000e+00" cType="1" res="1.7636845586821437e-03" rms="4.6392896771430969e-01" purity="3.5761299729347229e-01" nType="-99"/>
        </Node>
        <Node pos="r" depth="1" NCoef="0" IVar="3" Cut="2.1780119323730469e+02" cType="1" res="2.8864638879895210e-02" rms="4.5453396439552307e-01" purity="6.0922700166702271e-01" nType="0">
          <Node pos="l" depth="2" NCoef="0" IVar="-1" Cut="0.0000000000000000e+00" cType="1" res="-3.0476143001578748e-04" rms="4.6964669227600098e-01" purity="5.4374188184738159e-01" nType="-99"/>
          <Node pos="r" depth="2" NCoef="0" IVar="-1" Cut="0.0000000000000000e+00" cType="1" res="1.2263149255886674e-03" rms="4.3566748499870300e-01" purity="6.6923892498016357e-01" nType="-99"/>
        </Node>
      </Node>
    </BinaryTree>
    <BinaryTree type="DecisionTree" boostWeight="1.0000000000000000e+00" itree="488">
      <Node pos="s" depth="0" NCoef="0" IVar="2" Cut="9.5343106985092163e-01" cType="1" res="-1.6222583130002022e-02" rms="4.4450530409812927e-01" purity="4.8832350969314575e-01" nType="0">
        <Node pos="l" depth="1" NCoef="0" IVar="4" Cut="6.7174835205078125e+02" cType="1" res="-4.5189421623945236e-02" rms="4.4261544942855835e-01" purity="3.3036014437675476e-01" nType="0">
          <Node pos="l" depth="2" NCoef="0" IVar="-1" Cut="0.0000000000000000e+00" cType="1" res="-1.1396945919841528e-03" rms="4.3100014328956604e-01" purity="2.9160401225090027e-01" nType="-99"/>
          <Node pos="r" depth="2" NCoef="0" IVar="-1" Cut="0.0000000000000000e+00" cType="1" res="1.2837527319788933e-03" rms="4.9106025695800781e-01" purity="5.7791823148727417e-01" nType="-99"/>
        </Node>
        <Node pos="r" depth="1" NCoef="0" IVar="5" Cut="8.9377578735351562e+01" cType="1" res="2.0525654777884483e-02" rms="4.4418117403984070e-01" purity="6.8872082233428955e-01" nType="0">
          <Node pos="l" depth="2" NCoef="0" IVar="-1" Cut="0.0000000000000000e+00" cType="1" res="1.6607490833848715e-03" rms="4.4902408123016357e-01" purity="7.1364349126815796e-01" nType="-99"/>
          <Node pos="r" depth="2" NCoef="0" IVar="-1" Cut="0.0000000000000000e+00" cType="1" res="7.0722803684475366e-06" rms="4.4063404202461243e-01" purity="6.8283259868621826e-01" nType="-99"/>
        </Node>
      </Node>
    </BinaryTree>
    <BinaryTree type="DecisionTree" boostWeight="1.0000000000000000e+00" itree="489">
      <Node pos="s" depth="0" NCoef="0" IVar="4" Cut="4.4861645507812500e+02" cType="1" res="-1.7220150679349899e-02" rms="4.4327884912490845e-01" purity="4.8330262303352356e-01" nType="0">
        <Node pos="l" depth="1" NCoef="0" IVar="5" Cut="9.8737213134765625e+01" cType="1" res="-4.7163307666778564e-02" rms="4.3699923157691956e-01" purity="3.7872216105461121e-01" nType="0">
          <Node pos="l" depth="2" NCoef="0" IVar="-1" Cut="0.0000000000000000e+00" cType="1" res="-2.2621473181061447e-04" rms="4.3460783362388611e-01" purity="3.8297885656356812e-01" nType="-99"/>
          <Node pos="r" depth="2" NCoef="0" IVar="-1" Cut="0.0000000000000000e+00" cType="1" res="-1.7462916439399123e-03" rms="4.3545088171958923e-01" purity="3.7236583232879639e-01" nType="-99"/>
        </Node>
        <Node pos="r" depth="1" NCoef="0" IVar="5" Cut="1.3296936035156250e+02" cType="1" res="9.5844063907861710e-03" rms="4.4712799787521362e-01" purity="5.7692104578018188e-01" nType="0">
          <Node pos="l" depth="2" NCoef="0" IVar="-1" Cut="0.0000000000000000e+00" cType="1" res="1.9362299935892224e-03" rms="3.8902187347412109e-01" purity="6.7362147569656372e-01" nType="-99"/>
          <Node pos="r" depth="2" NCoef="0" IVar="-1" Cut="0.0000000000000000e+00" cType="1" res="-4.2648086673580110e-04" rms="4.5903399586677551e-01" purity="5.4536682367324829e-01" nType="-99"/>
        </Node>
      </Node>
    </BinaryTree>
    <BinaryTree type="DecisionTree" boostWeight="1.0000000000000000e+00" itree="490">
      <Node pos="s" depth="0" NCoef="0" IVar="3" Cut="1.2024502563476562e+02" cType="1" res="9.1775609180331230e-03" rms="4.4079047441482544e-01" purity="5.0872647762298584e-01" nType="0">
        <Node pos="l" depth="1" NCoef="0" IVar="-1" Cut="0.0000000000000000e+00" cType="1" res="-2.4024555459618568e-03" rms="3.7240439653396606e-01" purity="2.9615721106529236e-01" nType="-99"/>
        <Node pos="r" depth="1" NCoef="0" IVar="1" Cut="1.2435849905014038e+00" cType="1" res="1.8695315346121788e-02" rms="4.4313704967498779e-01" purity="5.2238875627517700e-01" nType="0">
          <Node pos="l" depth="2" NCoef="0" IVar="-1" Cut="0.0000000000000000e+00" cType="1" res="6.8429537350311875e-04" rms="4.4738993048667908e-01" purity="5.9759736061096191e-01" nType="-99"/>
          <Node pos="r" depth="2" NCoef="0" IVar="-1" Cut="0.0000000000000000e+00" cType="1" res="-1.1300753103569150e-03" rms="4.1956347227096558e-01" purity="2.7507185935974121e-01" nType="-99"/>
        </Node>
      </Node>
    </BinaryTree>
    <BinaryTree type="DecisionTree" boostWeight="1.0000000000000000e+00" itree="491">
      <Node pos="s" depth="0" NCoef="0" IVar="3" Cut="2.3305363464355469e+02" cType="1" res="-3.6156799178570509e-03" rms="4.4545066356658936e-01" purity="5.0082916021347046e-01" nType="0">
        <Node pos="l" depth="1" NCoef="0" IVar="5" Cut="1.2286328125000000e+02" cType="1" res="-3.0673786997795105e-02" rms="4.4337880611419678e-01" purity="4.6150013804435730e-01" nType="0">
          <Node pos="l" depth="2" NCoef="0" IVar="-1" Cut="0.0000000000000000e+00" cType="1" res="1.6636641521472484e-04" rms="4.3754726648330688e-01" purity="4.7862744331359863e-01" nType="-99"/>
          <Node pos="r" depth="2" NCoef="0" IVar="-1" Cut="0.0000000000000000e+00" cType="1" res="-1.8181318882852793e-03" rms="4.4410559535026550e-01" purity="4.2863985896110535e-01" nType="-99"/>
        </Node>
        <Node pos="r" depth="1" NCoef="0" IVar="1" Cut="7.8269529342651367e-01" cType="1" res="4.0135752409696579e-02" rms="4.4531553983688354e-01" purity="5.6442195177078247e-01" nType="0">
          <Node pos="l" depth="2" NCoef="0" IVar="-1" Cut="0.0000000000000000e+00" cType="1" res="2.5395061820745468e-03" rms="3.5597282648086548e-01" purity="8.3879023790359497e-01" nType="-99"/>
          <Node pos="r" depth="2" NCoef="0" IVar="-1" Cut="0.0000000000000000e+00" cType="1" res="9.7201736934948713e-05" rms="4.6492549777030945e-01" purity="4.7712400555610657e-01" nType="-99"/>
        </Node>
      </Node>
    </BinaryTree>
    <BinaryTree type="DecisionTree" boostWeight="1.0000000000000000e+00" itree="492">
      <Node pos="s" depth="0" NCoef="0" IVar="2" Cut="9.6330130100250244e-01" cType="1" res="1.6368270153179765e-03" rms="4.4093689322471619e-01" purity="5.0276690721511841e-01" nType="0">
        <Node pos="l" depth="1" NCoef="0" IVar="6" Cut="8.0206513404846191e-01" cType="1" res="-2.5993475690484047e-02" rms="4.5529243350028992e-01" purity="3.9035093784332275e-01" nType="0">
          <Node pos="l" depth="2" NCoef="0" IVar="-1" Cut="0.0000000000000000e+00" cType="1" res="-8.7660021381452680e-04" rms="4.5075505971908569e-01" purity="3.9349058270454407e-01" nType="-99"/>
          <Node pos="r" depth="2" NCoef="0" IVar="-1" Cut="0.0000000000000000e+00" cType="1" res="5.2920798771083355e-04" rms="4.5932537317276001e-01" purity="3.8391512632369995e-01" nType="-99"/>
        </Node>
        <Node pos="r" depth="1" NCoef="0" IVar="0" Cut="4.6117114257812500e+02" cType="1" res="7.0958659052848816e-02" rms="3.9424008131027222e-01" purity="7.8480803966522217e-01" nType="0">
          <Node pos="l" depth="2" NCoef="0" IVar="-1" Cut="0.0000000000000000e+00" cType="1" res="1.6243468271568418e-03" rms="3.8307660818099976e-01" purity="7.9655027389526367e-01" nType="-99"/>
          <Node pos="r" depth="2" NCoef="0" IVar="-1" Cut="0.0000000000000000e+00" cType="1" res="-3.5547438892535865e-04" rms="4.2453426122665405e-01" purity="7.3769891262054443e-01" nType="-99"/>
        </Node>
      </Node>
    </BinaryTree>
    <BinaryTree type="DecisionTree" boostWeight="1.0000000000000000e+00" itree="493">
      <Node pos="s" depth="0" NCoef="0" IVar="0" Cut="2.0777865600585938e+02" cType="1" res="7.1510057896375656e-03" rms="4.4214159250259399e-01" purity="5.0051957368850708e-01" nType="0">
        <Node pos="l" depth="1" NCoef="0" IVar="-1" Cut="0.0000000000000000e+00" cType="1" res="-2.9017522465437651e-03" rms="3.3215183019638062e-01" purity="1.6626581549644470e-01" nType="-99"/>
        <Node pos="r" depth="1" NCoef="0" IVar="2" Cut="9.1918784379959106e-01" cType="1" res="1.7814632505178452e-02" rms="4.4729310274124146e-01" purity="5.2503436803817749e-01" nType="0">
          <Node pos="l" depth="2" NCoef="0" IVar="-1" Cut="0.0000000000000000e+00" cType="1" res="-1.4432409079745412e-03" rms="3.7625798583030701e-01" purity="2.1750557422637939e-01" nType="-99"/>
          <Node pos="r" depth="2" NCoef="0" IVar="-1" Cut="0.0000000000000000e+00" cType="1" res="5.3625379223376513e-04" rms="4.5571956038475037e-01" purity="5.7324004173278809e-01" nType="-99"/>
        </Node>
      </Node>
    </BinaryTree>
    <BinaryTree type="DecisionTree" boostWeight="1.0000000000000000e+00" itree="494">
      <Node pos="s" depth="0" NCoef="0" IVar="2" Cut="9.8077297210693359e-01" cType="1" res="-1.5445025637745857e-03" rms="4.4477945566177368e-01" purity="4.8904615640640259e-01" nType="0">
        <Node pos="l" depth="1" NCoef="0" IVar="4" Cut="4.6561645507812500e+02" cType="1" res="-1.0797838680446148e-02" rms="4.5249512791633606e-01" purity="4.5814421772956848e-01" nType="0">
          <Node pos="l" depth="2" NCoef="0" IVar="-1" Cut="0.0000000000000000e+00" cType="1" res="-7.6820678077638149e-04" rms="4.4554471969604492e-01" purity="3.7060803174972534e-01" nType="-99"/>
          <Node pos="r" depth="2" NCoef="0" IVar="-1" Cut="0.0000000000000000e+00" cType="1" res="4.3898294097743928e-04" rms="4.5724943280220032e-01" purity="5.5684995651245117e-01" nType="-99"/>
        </Node>
        <Node pos="r" depth="1" NCoef="0" IVar="-1" Cut="0.0000000000000000e+00" cType="1" res="2.1802016999572515e-03" rms="3.1315705180168152e-01" purity="8.7117379903793335e-01" nType="-99"/>
      </Node>
    </BinaryTree>
    <BinaryTree type="DecisionTree" boostWeight="1.0000000000000000e+00" itree="495">
      <Node pos="s" depth="0" NCoef="0" IVar="3" Cut="1.3184167480468750e+02" cType="1" res="4.4829136459156871e-04" rms="4.5250004529953003e-01" purity="4.9425750970840454e-01" nType="0">
        <Node pos="l" depth="1" NCoef="0" IVar="-1" Cut="0.0000000000000000e+00" cType="1" res="-2.3509322199970484e-03" rms="4.5744177699089050e-01" purity="3.2032230496406555e-01" nType="-99"/>
        <Node pos="r" depth="1" NCoef="0" IVar="2" Cut="9.1018837690353394e-01" cType="1" res="1.2776743620634079e-02" rms="4.5002421736717224e-01" purity="5.1004689931869507e-01" nType="0">
          <Node pos="l" depth="2" NCoef="0" IVar="-1" Cut="0.0000000000000000e+00" cType="1" res="-2.9993266798555851e-03" rms="2.8941944241523743e-01" purity="1.2221342325210571e-01" nType="-99"/>
          <Node pos="r" depth="2" NCoef="0" IVar="-1" Cut="0.0000000000000000e+00" cType="1" res="3.7132686702534556e-04" rms="4.5622023940086365e-01" purity="5.3364592790603638e-01" nType="-99"/>
        </Node>
      </Node>
    </BinaryTree>
    <BinaryTree type="DecisionTree" boostWeight="1.0000000000000000e+00" itree="496">
      <Node pos="s" depth="0" NCoef="0" IVar="2" Cut="9.2390233278274536e-01" cType="1" res="9.4861350953578949e-03" rms="4.3988984823226929e-01" purity="5.0757730007171631e-01" nType="0">
        <Node pos="l" depth="1" NCoef="0" IVar="3" Cut="1.9815167236328125e+02" cType="1" res="-9.6040122210979462e-02" rms="3.5973536968231201e-01" purity="1.8003138899803162e-01" nType="0">
          <Node pos="l" depth="2" NCoef="0" IVar="-1" Cut="0.0000000000000000e+00" cType="1" res="-3.0852155759930611e-03" rms="2.8013682365417480e-01" purity="9.2502862215042114e-02" nType="-99"/>
          <Node pos="r" depth="2" NCoef="0" IVar="-1" Cut="0.0000000000000000e+00" cType="1" res="-8.4117439109832048e-04" rms="4.1977134346961975e-01" purity="2.6955476403236389e-01" nType="-99"/>
        </Node>
        <Node pos="r" depth="1" NCoef="0" IVar="0" Cut="4.2235949707031250e+02" cType="1" res="2.9329936951398849e-02" rms="4.5063045620918274e-01" purity="5.6917101144790649e-01" nType="0">
          <Node pos="l" depth="2" NCoef="0" IVar="-1" Cut="0.0000000000000000e+00" cType="1" res="8.7323953630402684e-04" rms="4.4430881738662720e-01" purity="5.6811815500259399e-01" nType="-99"/>
          <Node pos="r" depth="2" NCoef="0" IVar="-1" Cut="0.0000000000000000e+00" cType="1" res="-6.1679497594013810e-04" rms="4.6161410212516785e-01" purity="5.7215553522109985e-01" nType="-99"/>
        </Node>
      </Node>
    </BinaryTree>
    <BinaryTree type="DecisionTree" boostWeight="1.0000000000000000e+00" itree="497">
      <Node pos="s" depth="0" NCoef="0" IVar="3" Cut="1.7951113891601562e+02" cType="1" res="-7.9399142414331436e-03" rms="4.4666627049446106e-01" purity="4.9277961254119873e-01" nType="0">
        <Node pos="l" depth="1" NCoef="0" IVar="0" Cut="2.3839826965332031e+02" cType="1" res="-7.8568994998931885e-02" rms="4.5206168293952942e-01" purity="3.7684726715087891e-01" nType="0">
          <Node pos="l" depth="2" NCoef="0" IVar="-1" Cut="0.0000000000000000e+00" cType="1" res="4.6894766273908317e-04" rms="4.5336163043975830e-01" purity="4.2162260413169861e-01" nType="-99"/>
          <Node pos="r" depth="2" NCoef="0" IVar="-1" Cut="0.0000000000000000e+00" cType="1" res="-2.2439467720687389e-03" rms="4.4105619192123413e-01" purity="3.5271981358528137e-01" nType="-99"/>
        </Node>
        <Node pos="r" depth="1" NCoef="0" IVar="1" Cut="1.0434714555740356e+00" cType="1" res="2.7633734047412872e-02" rms="4.3964809179306030e-01" purity="5.5117100477218628e-01" nType="0">
          <Node pos="l" depth="2" NCoef="0" IVar="-1" Cut="0.0000000000000000e+00" cType="1" res="1.1761335190385580e-03" rms="4.3661749362945557e-01" purity="6.9243866205215454e-01" nType="-99"/>
          <Node pos="r" depth="2" NCoef="0" IVar="-1" Cut="0.0000000000000000e+00" cType="1" res="-4.6646458213217556e-04" rms="4.3723541498184204e-01" purity="3.7793934345245361e-01" nType="-99"/>
        </Node>
      </Node>
    </BinaryTree>
    <BinaryTree type="DecisionTree" boostWeight="1.0000000000000000e+00" itree="498">
      <Node pos="s" depth="0" NCoef="0" IVar="2" Cut="9.3308311700820923e-01" cType="1" res="2.7685137465596199e-03" rms="4.4210427999496460e-01" purity="4.9639704823493958e-01" nType="0">
        <Node pos="l" depth="1" NCoef="0" IVar="1" Cut="9.0262067317962646e-01" cType="1" res="-6.2156464904546738e-02" rms="4.0211638808250427e-01" purity="2.3747681081295013e-01" nType="0">
          <Node pos="l" depth="2" NCoef="0" IVar="-1" Cut="0.0000000000000000e+00" cType="1" res="-2.8329761698842049e-04" rms="4.5410007238388062e-01" purity="3.3914667367935181e-01" nType="-99"/>
          <Node pos="r" depth="2" NCoef="0" IVar="-1" Cut="0.0000000000000000e+00" cType="1" res="-2.1987042855471373e-03" rms="3.4635382890701294e-01" purity="1.4972896873950958e-01" nType="-99"/>
        </Node>
        <Node pos="r" depth="1" NCoef="0" IVar="5" Cut="9.0703445434570312e+01" cType="1" res="2.8364127501845360e-02" rms="4.5436555147171021e-01" purity="5.9847211837768555e-01" nType="0">
          <Node pos="l" depth="2" NCoef="0" IVar="-1" Cut="0.0000000000000000e+00" cType="1" res="1.5973984263837337e-03" rms="4.5199838280677795e-01" purity="6.0432809591293335e-01" nType="-99"/>
          <Node pos="r" depth="2" NCoef="0" IVar="-1" Cut="0.0000000000000000e+00" cType="1" res="1.3188758748583496e-04" rms="4.5300856232643127e-01" purity="5.9677618741989136e-01" nType="-99"/>
        </Node>
      </Node>
    </BinaryTree>
    <BinaryTree type="DecisionTree" boostWeight="1.0000000000000000e+00" itree="499">
      <Node pos="s" depth="0" NCoef="0" IVar="4" Cut="6.3678222656250000e+02" cType="1" res="-2.4923721794039011e-03" rms="4.4651591777801514e-01" purity="4.8895436525344849e-01" nType="0">
        <Node pos="l" depth="1" NCoef="0" IVar="5" Cut="1.4452456665039062e+02" cType="1" res="-1.9116757437586784e-02" rms="4.4256892800331116e-01" purity="4.5609998703002930e-01" nType="0">
          <Node pos="l" depth="2" NCoef="0" IVar="-1" Cut="0.0000000000000000e+00" cType="1" res="3.5324137570569292e-05" rms="4.3605366349220276e-01" purity="4.6077072620391846e-01" nType="-99"/>
          <Node pos="r" depth="2" NCoef="0" IVar="-1" Cut="0.0000000000000000e+00" cType="1" res="-1.4726360095664859e-03" rms="4.5621830224990845e-01" purity="4.4119623303413391e-01" nType="-99"/>
        </Node>
        <Node pos="r" depth="1" NCoef="0" IVar="1" Cut="1.0716218948364258e+00" cType="1" res="8.7412089109420776e-02" rms="4.5692107081413269e-01" purity="6.6663068532943726e-01" nType="0">
          <Node pos="l" depth="2" NCoef="0" IVar="-1" Cut="0.0000000000000000e+00" cType="1" res="7.4218551162630320e-04" rms="4.6155893802642822e-01" purity="6.8397569656372070e-01" nType="-99"/>
          <Node pos="r" depth="2" NCoef="0" IVar="-1" Cut="0.0000000000000000e+00" cType="1" res="2.8022176120430231e-03" rms="4.3284162878990173e-01" purity="6.2911623716354370e-01" nType="-99"/>
        </Node>
      </Node>
    </BinaryTree>
    <BinaryTree type="DecisionTree" boostWeight="1.0000000000000000e+00" itree="500">
      <Node pos="s" depth="0" NCoef="0" IVar="2" Cut="9.8049366474151611e-01" cType="1" res="-8.9966449886560440e-03" rms="4.3759557604789734e-01" purity="4.9142938852310181e-01" nType="0">
        <Node pos="l" depth="1" NCoef="0" IVar="1" Cut="1.3931005001068115e+00" cType="1" res="-2.6004659011960030e-02" rms="4.4809618592262268e-01" purity="4.4938477873802185e-01" nType="0">
          <Node pos="l" depth="2" NCoef="0" IVar="-1" Cut="0.0000000000000000e+00" cType="1" res="-1.7418189963791519e-04" rms="4.6033847332000732e-01" purity="4.9955213069915771e-01" nType="-99"/>
          <Node pos="r" depth="2" NCoef="0" IVar="-1" Cut="0.0000000000000000e+00" cType="1" res="-2.3202067241072655e-03" rms="3.6136400699615479e-01" purity="1.7084702849388123e-01" nType="-99"/>
        </Node>
        <Node pos="r" depth="1" NCoef="0" IVar="-1" Cut="0.0000000000000000e+00" cType="1" res="3.0571017414331436e-03" rms="2.5351417064666748e-01" purity="9.1841334104537964e-01" nType="-99"/>
      </Node>
    </BinaryTree>
    <BinaryTree type="DecisionTree" boostWeight="1.0000000000000000e+00" itree="501">
      <Node pos="s" depth="0" NCoef="0" IVar="6" Cut="3.7687405943870544e-01" cType="1" res="1.5993459150195122e-02" rms="4.3702715635299683e-01" purity="5.0535458326339722e-01" nType="0">
        <Node pos="l" depth="1" NCoef="0" IVar="6" Cut="2.8793847560882568e-01" cType="1" res="1.2839031219482422e-01" rms="4.1170537471771240e-01" purity="6.9451069831848145e-01" nType="0">
          <Node pos="l" depth="2" NCoef="0" IVar="-1" Cut="0.0000000000000000e+00" cType="1" res="2.8667894657701254e-03" rms="4.0218394994735718e-01" purity="7.3897504806518555e-01" nType="-99"/>
          <Node pos="r" depth="2" NCoef="0" IVar="-1" Cut="0.0000000000000000e+00" cType="1" res="1.3925534440204501e-03" rms="4.1426101326942444e-01" purity="6.5571606159210205e-01" nType="-99"/>
        </Node>
        <Node pos="r" depth="1" NCoef="0" IVar="0" Cut="5.3328894042968750e+02" cType="1" res="-6.4089340157806873e-03" rms="4.3847060203552246e-01" purity="4.6765297651290894e-01" nType="0">
          <Node pos="l" depth="2" NCoef="0" IVar="-1" Cut="0.0000000000000000e+00" cType="1" res="-3.2347012893296778e-04" rms="4.3388769030570984e-01" purity="4.4393426179885864e-01" nType="-99"/>
          <Node pos="r" depth="2" NCoef="0" IVar="-1" Cut="0.0000000000000000e+00" cType="1" res="1.6432914417237043e-03" rms="4.6282279491424561e-01" purity="6.7374956607818604e-01" nType="-99"/>
        </Node>
      </Node>
    </BinaryTree>
    <BinaryTree type="DecisionTree" boostWeight="1.0000000000000000e+00" itree="502">
      <Node pos="s" depth="0" NCoef="0" IVar="1" Cut="1.5191873311996460e+00" cType="1" res="-2.9991895426064730e-03" rms="4.4396975636482239e-01" purity="4.9684733152389526e-01" nType="0">
        <Node pos="l" depth="1" NCoef="0" IVar="1" Cut="1.2166894674301147e+00" cType="1" res="8.8736917823553085e-03" rms="4.5140168070793152e-01" purity="5.3535497188568115e-01" nType="0">
          <Node pos="l" depth="2" NCoef="0" IVar="-1" Cut="0.0000000000000000e+00" cType="1" res="-2.4829705944284797e-04" rms="4.4262781739234924e-01" purity="5.3080713748931885e-01" nType="-99"/>
          <Node pos="r" depth="2" NCoef="0" IVar="-1" Cut="0.0000000000000000e+00" cType="1" res="2.5409369263797998e-03" rms="4.7659826278686523e-01" purity="5.6289976835250854e-01" nType="-99"/>
        </Node>
        <Node pos="r" depth="1" NCoef="0" IVar="-1" Cut="0.0000000000000000e+00" cType="1" res="-2.5541512295603752e-03" rms="3.5133823752403259e-01" purity="1.4577010273933411e-01" nType="-99"/>
      </Node>
    </BinaryTree>
    <BinaryTree type="DecisionTree" boostWeight="1.0000000000000000e+00" itree="503">
      <Node pos="s" depth="0" NCoef="0" IVar="2" Cut="9.5855855941772461e-01" cType="1" res="-1.7043420812115073e-03" rms="4.3108266592025757e-01" purity="5.0478887557983398e-01" nType="0">
        <Node pos="l" depth="1" NCoef="0" IVar="4" Cut="4.0719067382812500e+02" cType="1" res="-3.5950116813182831e-02" rms="4.4284003973007202e-01" purity="3.6337494850158691e-01" nType="0">
          <Node pos="l" depth="2" NCoef="0" IVar="-1" Cut="0.0000000000000000e+00" cType="1" res="-1.5770816244184971e-03" rms="4.1028836369514465e-01" purity="2.4013441801071167e-01" nType="-99"/>
          <Node pos="r" depth="2" NCoef="0" IVar="-1" Cut="0.0000000000000000e+00" cType="1" res="-5.0411330448696390e-05" rms="4.6065276861190796e-01" purity="4.4663622975349426e-01" nType="-99"/>
        </Node>
        <Node pos="r" depth="1" NCoef="0" IVar="3" Cut="3.0355523681640625e+02" cType="1" res="5.8502178639173508e-02" rms="4.0259334444999695e-01" purity="7.5340473651885986e-01" nType="0">
          <Node pos="l" depth="2" NCoef="0" IVar="-1" Cut="0.0000000000000000e+00" cType="1" res="1.5611150301992893e-03" rms="3.8239306211471558e-01" purity="7.9806768894195557e-01" nType="-99"/>
          <Node pos="r" depth="2" NCoef="0" IVar="-1" Cut="0.0000000000000000e+00" cType="1" res="-1.5979245072230697e-03" rms="4.5781975984573364e-01" purity="5.4521566629409790e-01" nType="-99"/>
        </Node>
      </Node>
    </BinaryTree>
    <BinaryTree type="DecisionTree" boostWeight="1.0000000000000000e+00" itree="504">
      <Node pos="s" depth="0" NCoef="0" IVar="1" Cut="1.0607640743255615e+00" cType="1" res="-3.4395048860460520e-03" rms="4.3706482648849487e-01" purity="5.0086176395416260e-01" nType="0">
        <Node pos="l" depth="1" NCoef="0" IVar="2" Cut="9.3698030710220337e-01" cType="1" res="2.9482973739504814e-02" rms="4.4016167521476746e-01" purity="5.9781301021575928e-01" nType="0">
          <Node pos="l" depth="2" NCoef="0" IVar="-1" Cut="0.0000000000000000e+00" cType="1" res="-6.0840597143396735e-04" rms="4.3541726469993591e-01" purity="3.2668268680572510e-01" nType="-99"/>
          <Node pos="r" depth="2" NCoef="0" IVar="-1" Cut="0.0000000000000000e+00" cType="1" res="8.8814075570553541e-04" rms="4.3937686085700989e-01" purity="7.0321285724639893e-01" nType="-99"/>
        </Node>
        <Node pos="r" depth="1" NCoef="0" IVar="1" Cut="1.5330518484115601e+00" cType="1" res="-6.9378115236759186e-02" rms="4.2316174507141113e-01" purity="3.0668336153030396e-01" nType="0">
          <Node pos="l" depth="2" NCoef="0" IVar="-1" Cut="0.0000000000000000e+00" cType="1" res="-6.8639800883829594e-04" rms="4.5478665828704834e-01" purity="3.8451778888702393e-01" nType="-99"/>
          <Node pos="r" depth="2" NCoef="0" IVar="-1" Cut="0.0000000000000000e+00" cType="1" res="-3.1114439480006695e-03" rms="3.2579225301742554e-01" purity="1.2089531868696213e-01" nType="-99"/>
        </Node>
      </Node>
    </BinaryTree>
    <BinaryTree type="DecisionTree" boostWeight="1.0000000000000000e+00" itree="505">
      <Node pos="s" depth="0" NCoef="0" IVar="3" Cut="2.1293659973144531e+02" cType="1" res="5.4019289091229439e-03" rms="4.5052689313888550e-01" purity="5.0608640909194946e-01" nType="0">
        <Node pos="l" depth="1" NCoef="0" IVar="3" Cut="1.3318791198730469e+02" cType="1" res="-2.9888218268752098e-02" rms="4.5477157831192017e-01" purity="4.5150363445281982e-01" nType="0">
          <Node pos="l" depth="2" NCoef="0" IVar="-1" Cut="0.0000000000000000e+00" cType="1" res="-2.0915460772812366e-03" rms="4.3574503064155579e-01" purity="3.3940178155899048e-01" nType="-99"/>
          <Node pos="r" depth="2" NCoef="0" IVar="-1" Cut="0.0000000000000000e+00" cType="1" res="-2.0949798636138439e-04" rms="4.5613706111907959e-01" purity="4.7235330939292908e-01" nType="-99"/>
        </Node>
        <Node pos="r" depth="1" NCoef="0" IVar="1" Cut="1.6497526168823242e+00" cType="1" res="4.6092107892036438e-02" rms="4.4209969043731689e-01" purity="5.6902128458023071e-01" nType="0">
          <Node pos="l" depth="2" NCoef="0" IVar="-1" Cut="0.0000000000000000e+00" cType="1" res="1.0917453328147531e-03" rms="4.5595321059226990e-01" purity="6.3144642114639282e-01" nType="-99"/>
          <Node pos="r" depth="2" NCoef="0" IVar="-1" Cut="0.0000000000000000e+00" cType="1" res="-2.5147716514766216e-03" rms="2.8777396678924561e-01" purity="1.2749835848808289e-01" nType="-99"/>
        </Node>
      </Node>
    </BinaryTree>
    <BinaryTree type="DecisionTree" boostWeight="1.0000000000000000e+00" itree="506">
      <Node pos="s" depth="0" NCoef="0" IVar="3" Cut="2.1696023559570312e+02" cType="1" res="7.3813353665173054e-03" rms="4.4483703374862671e-01" purity="5.0028532743453979e-01" nType="0">
        <Node pos="l" depth="1" NCoef="0" IVar="5" Cut="1.6898391723632812e+02" cType="1" res="-2.4531852453947067e-02" rms="4.4409140944480896e-01" purity="4.4028294086456299e-01" nType="0">
          <Node pos="l" depth="2" NCoef="0" IVar="-1" Cut="0.0000000000000000e+00" cType="1" res="-1.3299226702656597e-04" rms="4.4271823763847351e-01" purity="4.5641031861305237e-01" nType="-99"/>
          <Node pos="r" depth="2" NCoef="0" IVar="-1" Cut="0.0000000000000000e+00" cType="1" res="-2.8403778560459614e-03" rms="4.2676541209220886e-01" purity="2.9133382439613342e-01" nType="-99"/>
        </Node>
        <Node pos="r" depth="1" NCoef="0" IVar="1" Cut="1.0649440288543701e+00" cType="1" res="4.4002819806337357e-02" rms="4.4286647439002991e-01" purity="5.6914013624191284e-01" nType="0">
          <Node pos="l" depth="2" NCoef="0" IVar="-1" Cut="0.0000000000000000e+00" cType="1" res="1.2281493982300162e-03" rms="4.2726075649261475e-01" purity="7.1664935350418091e-01" nType="-99"/>
          <Node pos="r" depth="2" NCoef="0" IVar="-1" Cut="0.0000000000000000e+00" cType="1" res="2.2249436005949974e-04" rms="4.5718014240264893e-01" purity="4.0854811668395996e-01" nType="-99"/>
        </Node>
      </Node>
    </BinaryTree>
    <BinaryTree type="DecisionTree" boostWeight="1.0000000000000000e+00" itree="507">
      <Node pos="s" depth="0" NCoef="0" IVar="1" Cut="1.0653963088989258e+00" cType="1" res="1.1375540867447853e-02" rms="4.3960893154144287e-01" purity="5.1119130849838257e-01" nType="0">
        <Node pos="l" depth="1" NCoef="0" IVar="3" Cut="1.2282625579833984e+02" cType="1" res="3.9320055395364761e-02" rms="4.3757712841033936e-01" purity="5.9702980518341064e-01" nType="0">
          <Node pos="l" depth="2" NCoef="0" IVar="-1" Cut="0.0000000000000000e+00" cType="1" res="-2.1968618966639042e-03" rms="4.0053823590278625e-01" purity="3.0992141366004944e-01" nType="-99"/>
          <Node pos="r" depth="2" NCoef="0" IVar="-1" Cut="0.0000000000000000e+00" cType="1" res="8.4462238010019064e-04" rms="4.3783307075500488e-01" purity="6.1996090412139893e-01" nType="-99"/>
        </Node>
        <Node pos="r" depth="1" NCoef="0" IVar="1" Cut="1.4003168344497681e+00" cType="1" res="-4.5482616871595383e-02" rms="4.3824723362922668e-01" purity="3.3653739094734192e-01" nType="0">
          <Node pos="l" depth="2" NCoef="0" IVar="-1" Cut="0.0000000000000000e+00" cType="1" res="-1.6074667219072580e-03" rms="4.4380226731300354e-01" purity="3.4992986917495728e-01" nType="-99"/>
          <Node pos="r" depth="2" NCoef="0" IVar="-1" Cut="0.0000000000000000e+00" cType="1" res="3.0721616349183023e-04" rms="4.2311853170394897e-01" purity="3.1929945945739746e-01" nType="-99"/>
        </Node>
      </Node>
    </BinaryTree>
    <BinaryTree type="DecisionTree" boostWeight="1.0000000000000000e+00" itree="508">
      <Node pos="s" depth="0" NCoef="0" IVar="2" Cut="9.1244363784790039e-01" cType="1" res="2.4693984538316727e-02" rms="4.4287174940109253e-01" purity="5.1709347963333130e-01" nType="0">
        <Node pos="l" depth="1" NCoef="0" IVar="-1" Cut="0.0000000000000000e+00" cType="1" res="-2.0867353305220604e-03" rms="3.4797713160514832e-01" purity="1.4822135865688324e-01" nType="-99"/>
        <Node pos="r" depth="1" NCoef="0" IVar="5" Cut="7.8804550170898438e+01" cType="1" res="3.4390710294246674e-02" rms="4.4797939062118530e-01" purity="5.4584902524948120e-01" nType="0">
          <Node pos="l" depth="2" NCoef="0" IVar="-1" Cut="0.0000000000000000e+00" cType="1" res="-8.5646670777350664e-04" rms="4.4506743550300598e-01" purity="3.5492441058158875e-01" nType="-99"/>
          <Node pos="r" depth="2" NCoef="0" IVar="-1" Cut="0.0000000000000000e+00" cType="1" res="7.9028494656085968e-04" rms="4.4703054428100586e-01" purity="5.7700890302658081e-01" nType="-99"/>
        </Node>
      </Node>
    </BinaryTree>
    <BinaryTree type="DecisionTree" boostWeight="1.0000000000000000e+00" itree="509">
      <Node pos="s" depth="0" NCoef="0" IVar="2" Cut="9.2463964223861694e-01" cType="1" res="-1.0068062692880630e-02" rms="4.3804812431335449e-01" purity="4.7994258999824524e-01" nType="0">
        <Node pos="l" depth="1" NCoef="0" IVar="4" Cut="3.6420602416992188e+02" cType="1" res="-1.1043968796730042e-01" rms="3.3850312232971191e-01" purity="1.5436434745788574e-01" nType="0">
          <Node pos="l" depth="2" NCoef="0" IVar="-1" Cut="0.0000000000000000e+00" cType="1" res="-1.6384526388719678e-03" rms="3.2498028874397278e-01" purity="1.2115404009819031e-01" nType="-99"/>
          <Node pos="r" depth="2" NCoef="0" IVar="-1" Cut="0.0000000000000000e+00" cType="1" res="-2.4872107896953821e-03" rms="3.4257474541664124e-01" purity="1.6944715380668640e-01" nType="-99"/>
        </Node>
        <Node pos="r" depth="1" NCoef="0" IVar="6" Cut="8.7264782190322876e-01" cType="1" res="1.0524624027311802e-02" rms="4.5305049419403076e-01" purity="5.4673957824707031e-01" nType="0">
          <Node pos="l" depth="2" NCoef="0" IVar="-1" Cut="0.0000000000000000e+00" cType="1" res="4.7962719690985978e-04" rms="4.5474413037300110e-01" purity="5.9021329879760742e-01" nType="-99"/>
          <Node pos="r" depth="2" NCoef="0" IVar="-1" Cut="0.0000000000000000e+00" cType="1" res="-9.6153642516583204e-04" rms="4.4087046384811401e-01" purity="3.9581289887428284e-01" nType="-99"/>
        </Node>
      </Node>
    </BinaryTree>
    <BinaryTree type="DecisionTree" boostWeight="1.0000000000000000e+00" itree="510">
      <Node pos="s" depth="0" NCoef="0" IVar="2" Cut="9.3608576059341431e-01" cType="1" res="5.9160552918910980e-03" rms="4.4165518879890442e-01" purity="5.0933116674423218e-01" nType="0">
        <Node pos="l" depth="1" NCoef="0" IVar="1" Cut="1.0232158899307251e+00" cType="1" res="-4.7520089894533157e-02" rms="4.1674724221229553e-01" purity="2.6251548528671265e-01" nType="0">
          <Node pos="l" depth="2" NCoef="0" IVar="-1" Cut="0.0000000000000000e+00" cType="1" res="-2.0318149472586811e-04" rms="4.5449772477149963e-01" purity="3.3907455205917358e-01" nType="-99"/>
          <Node pos="r" depth="2" NCoef="0" IVar="-1" Cut="0.0000000000000000e+00" cType="1" res="-2.0264813210815191e-03" rms="3.5331061482429504e-01" purity="1.5823377668857574e-01" nType="-99"/>
        </Node>
        <Node pos="r" depth="1" NCoef="0" IVar="3" Cut="1.9148730468750000e+02" cType="1" res="2.9474282637238503e-02" rms="4.5019066333770752e-01" purity="6.1814403533935547e-01" nType="0">
          <Node pos="l" depth="2" NCoef="0" IVar="-1" Cut="0.0000000000000000e+00" cType="1" res="-5.3936033509671688e-04" rms="4.7839024662971497e-01" purity="5.1386326551437378e-01" nType="-99"/>
          <Node pos="r" depth="2" NCoef="0" IVar="-1" Cut="0.0000000000000000e+00" cType="1" res="1.1307988315820694e-03" rms="4.2779222130775452e-01" purity="6.8074959516525269e-01" nType="-99"/>
        </Node>
      </Node>
    </BinaryTree>
    <BinaryTree type="DecisionTree" boostWeight="1.0000000000000000e+00" itree="511">
      <Node pos="s" depth="0" NCoef="0" IVar="2" Cut="9.2626768350601196e-01" cType="1" res="1.3912685215473175e-02" rms="4.4021901488304138e-01" purity="5.1525563001632690e-01" nType="0">
        <Node pos="l" depth="1" NCoef="0" IVar="3" Cut="2.3464518737792969e+02" cType="1" res="-7.7881909906864166e-02" rms="3.7053203582763672e-01" purity="2.0318427681922913e-01" nType="0">
          <Node pos="l" depth="2" NCoef="0" IVar="-1" Cut="0.0000000000000000e+00" cType="1" res="-2.8055349830538034e-03" rms="3.2340812683105469e-01" purity="1.2386038899421692e-01" nType="-99"/>
          <Node pos="r" depth="2" NCoef="0" IVar="-1" Cut="0.0000000000000000e+00" cType="1" res="6.5215921495109797e-04" rms="4.2874598503112793e-01" purity="3.6259657144546509e-01" nType="-99"/>
        </Node>
        <Node pos="r" depth="1" NCoef="0" IVar="1" Cut="6.6471952199935913e-01" cType="1" res="3.4110598266124725e-02" rms="4.5162197947502136e-01" purity="5.8392190933227539e-01" nType="0">
          <Node pos="l" depth="2" NCoef="0" IVar="-1" Cut="0.0000000000000000e+00" cType="1" res="1.5018281992524862e-03" rms="4.2236343026161194e-01" purity="7.3599016666412354e-01" nType="-99"/>
          <Node pos="r" depth="2" NCoef="0" IVar="-1" Cut="0.0000000000000000e+00" cType="1" res="2.0486905123107135e-04" rms="4.5997920632362366e-01" purity="5.2819615602493286e-01" nType="-99"/>
        </Node>
      </Node>
    </BinaryTree>
    <BinaryTree type="DecisionTree" boostWeight="1.0000000000000000e+00" itree="512">
      <Node pos="s" depth="0" NCoef="0" IVar="2" Cut="9.8056161403656006e-01" cType="1" res="7.7354991808533669e-03" rms="4.4344070553779602e-01" purity="4.9950671195983887e-01" nType="0">
        <Node pos="l" depth="1" NCoef="0" IVar="6" Cut="6.8836963176727295e-01" cType="1" res="-6.5851067192852497e-03" rms="4.5443537831306458e-01" purity="4.5872819423675537e-01" nType="0">
          <Node pos="l" depth="2" NCoef="0" IVar="-1" Cut="0.0000000000000000e+00" cType="1" res="-6.2498962506651878e-04" rms="4.5817273855209351e-01" purity="4.7746855020523071e-01" nType="-99"/>
          <Node pos="r" depth="2" NCoef="0" IVar="-1" Cut="0.0000000000000000e+00" cType="1" res="4.6861584996804595e-04" rms="4.4795072078704834e-01" purity="4.3866279721260071e-01" nType="-99"/>
        </Node>
        <Node pos="r" depth="1" NCoef="0" IVar="-1" Cut="0.0000000000000000e+00" cType="1" res="2.7939178980886936e-03" rms="2.7887415885925293e-01" purity="9.0034824609756470e-01" nType="-99"/>
      </Node>
    </BinaryTree>
    <BinaryTree type="DecisionTree" boostWeight="1.0000000000000000e+00" itree="513">
      <Node pos="s" depth="0" NCoef="0" IVar="2" Cut="9.0975230932235718e-01" cType="1" res="6.2608653679490089e-03" rms="4.4807690382003784e-01" purity="4.9730741977691650e-01" nType="0">
        <Node pos="l" depth="1" NCoef="0" IVar="-1" Cut="0.0000000000000000e+00" cType="1" res="-3.4647888969630003e-03" rms="2.8934729099273682e-01" purity="9.6052341163158417e-02" nType="-99"/>
        <Node pos="r" depth="1" NCoef="0" IVar="4" Cut="7.1125756835937500e+02" cType="1" res="1.7103869467973709e-02" rms="4.5407199859619141e-01" purity="5.2263587713241577e-01" nType="0">
          <Node pos="l" depth="2" NCoef="0" IVar="-1" Cut="0.0000000000000000e+00" cType="1" res="1.1579131387406960e-04" rms="4.5295497775077820e-01" purity="5.0615757703781128e-01" nType="-99"/>
          <Node pos="r" depth="2" NCoef="0" IVar="-1" Cut="0.0000000000000000e+00" cType="1" res="2.1060940343886614e-03" rms="4.5090556144714355e-01" purity="7.0449227094650269e-01" nType="-99"/>
        </Node>
      </Node>
    </BinaryTree>
    <BinaryTree type="DecisionTree" boostWeight="1.0000000000000000e+00" itree="514">
      <Node pos="s" depth="0" NCoef="0" IVar="2" Cut="9.7508591413497925e-01" cType="1" res="5.1229470409452915e-03" rms="4.3246296048164368e-01" purity="5.0797444581985474e-01" nType="0">
        <Node pos="l" depth="1" NCoef="0" IVar="2" Cut="9.3269282579421997e-01" cType="1" res="-1.1912246234714985e-02" rms="4.4480866193771362e-01" purity="4.5588320493698120e-01" nType="0">
          <Node pos="l" depth="2" NCoef="0" IVar="-1" Cut="0.0000000000000000e+00" cType="1" res="-1.3680881820619106e-03" rms="3.9663761854171753e-01" purity="2.3258796334266663e-01" nType="-99"/>
          <Node pos="r" depth="2" NCoef="0" IVar="-1" Cut="0.0000000000000000e+00" cType="1" res="2.3757752205710858e-04" rms="4.6161076426506042e-01" purity="5.5271536111831665e-01" nType="-99"/>
        </Node>
        <Node pos="r" depth="1" NCoef="0" IVar="5" Cut="1.2549128723144531e+02" cType="1" res="1.2524886429309845e-01" rms="3.0687874555587769e-01" purity="8.7530291080474854e-01" nType="0">
          <Node pos="l" depth="2" NCoef="0" IVar="-1" Cut="0.0000000000000000e+00" cType="1" res="2.8465904761105776e-03" rms="3.0111902952194214e-01" purity="8.7939679622650146e-01" nType="-99"/>
          <Node pos="r" depth="2" NCoef="0" IVar="-1" Cut="0.0000000000000000e+00" cType="1" res="1.7708084778860211e-03" rms="3.0790716409683228e-01" purity="8.7064915895462036e-01" nType="-99"/>
        </Node>
      </Node>
    </BinaryTree>
    <BinaryTree type="DecisionTree" boostWeight="1.0000000000000000e+00" itree="515">
      <Node pos="s" depth="0" NCoef="0" IVar="4" Cut="4.1846408081054688e+02" cType="1" res="-5.3080613724887371e-04" rms="4.4423824548721313e-01" purity="5.0203031301498413e-01" nType="0">
        <Node pos="l" depth="1" NCoef="0" IVar="5" Cut="1.0322433471679688e+02" cType="1" res="-4.0158584713935852e-02" rms="4.3812420964241028e-01" purity="3.7678867578506470e-01" nType="0">
          <Node pos="l" depth="2" NCoef="0" IVar="-1" Cut="0.0000000000000000e+00" cType="1" res="2.7568381483433768e-05" rms="4.3489575386047363e-01" purity="4.1289570927619934e-01" nType="-99"/>
          <Node pos="r" depth="2" NCoef="0" IVar="-1" Cut="0.0000000000000000e+00" cType="1" res="-2.7482423465698957e-03" rms="4.2605039477348328e-01" purity="2.7644824981689453e-01" nType="-99"/>
        </Node>
        <Node pos="r" depth="1" NCoef="0" IVar="3" Cut="1.7897935485839844e+02" cType="1" res="2.7364887297153473e-02" rms="4.4638732075691223e-01" purity="5.9019327163696289e-01" nType="0">
          <Node pos="l" depth="2" NCoef="0" IVar="-1" Cut="0.0000000000000000e+00" cType="1" res="-1.0776331182569265e-03" rms="4.5645636320114136e-01" purity="4.3109199404716492e-01" nType="-99"/>
          <Node pos="r" depth="2" NCoef="0" IVar="-1" Cut="0.0000000000000000e+00" cType="1" res="9.0464914683252573e-04" rms="4.4001099467277527e-01" purity="6.3513779640197754e-01" nType="-99"/>
        </Node>
      </Node>
    </BinaryTree>
    <BinaryTree type="DecisionTree" boostWeight="1.0000000000000000e+00" itree="516">
      <Node pos="s" depth="0" NCoef="0" IVar="4" Cut="5.8788830566406250e+02" cType="1" res="6.8133515305817127e-03" rms="4.4034680724143982e-01" purity="5.0262242555618286e-01" nType="0">
        <Node pos="l" depth="1" NCoef="0" IVar="2" Cut="9.7665828466415405e-01" cType="1" res="-1.8550943583250046e-02" rms="4.3991163372993469e-01" purity="4.5633208751678467e-01" nType="0">
          <Node pos="l" depth="2" NCoef="0" IVar="-1" Cut="0.0000000000000000e+00" cType="1" res="-6.4759637461975217e-04" rms="4.4909816980361938e-01" purity="4.0434947609901428e-01" nType="-99"/>
          <Node pos="r" depth="2" NCoef="0" IVar="-1" Cut="0.0000000000000000e+00" cType="1" res="2.5042365305125713e-03" rms="3.1815645098686218e-01" purity="8.6920827627182007e-01" nType="-99"/>
        </Node>
        <Node pos="r" depth="1" NCoef="0" IVar="5" Cut="2.6457049560546875e+02" cType="1" res="1.0432140529155731e-01" rms="4.2824867367744446e-01" purity="6.8057644367218018e-01" nType="0">
          <Node pos="l" depth="2" NCoef="0" IVar="-1" Cut="0.0000000000000000e+00" cType="1" res="2.4189124815165997e-03" rms="4.1508769989013672e-01" purity="7.2194379568099976e-01" nType="-99"/>
          <Node pos="r" depth="2" NCoef="0" IVar="-1" Cut="0.0000000000000000e+00" cType="1" res="-1.5042253653518856e-04" rms="4.3877139687538147e-01" purity="5.7938629388809204e-01" nType="-99"/>
        </Node>
      </Node>
    </BinaryTree>
    <BinaryTree type="DecisionTree" boostWeight="1.0000000000000000e+00" itree="517">
      <Node pos="s" depth="0" NCoef="0" IVar="1" Cut="1.6337294578552246e+00" cType="1" res="2.4047505110502243e-02" rms="4.4124642014503479e-01" purity="5.2929109334945679e-01" nType="0">
        <Node pos="l" depth="1" NCoef="0" IVar="4" Cut="3.1424365234375000e+02" cType="1" res="3.3427581191062927e-02" rms="4.4570538401603699e-01" purity="5.5833607912063599e-01" nType="0">
          <Node pos="l" depth="2" NCoef="0" IVar="-1" Cut="0.0000000000000000e+00" cType="1" res="-2.2135213948786259e-03" rms="3.8925409317016602e-01" purity="2.1585731208324432e-01" nType="-99"/>
          <Node pos="r" depth="2" NCoef="0" IVar="-1" Cut="0.0000000000000000e+00" cType="1" res="7.0435769157484174e-04" rms="4.4750866293907166e-01" purity="5.8148396015167236e-01" nType="-99"/>
        </Node>
        <Node pos="r" depth="1" NCoef="0" IVar="-1" Cut="0.0000000000000000e+00" cType="1" res="-2.2866020444780588e-03" rms="3.5375061631202698e-01" purity="1.4196996390819550e-01" nType="-99"/>
      </Node>
    </BinaryTree>
    <BinaryTree type="DecisionTree" boostWeight="1.0000000000000000e+00" itree="518">
      <Node pos="s" depth="0" NCoef="0" IVar="0" Cut="3.1262750244140625e+02" cType="1" res="-2.5960981845855713e-02" rms="4.4574081897735596e-01" purity="4.7761622071266174e-01" nType="0">
        <Node pos="l" depth="1" NCoef="0" IVar="6" Cut="1.0862005949020386e+00" cType="1" res="7.6144593767821789e-03" rms="4.4558563828468323e-01" purity="4.5771679282188416e-01" nType="0">
          <Node pos="l" depth="2" NCoef="0" IVar="-1" Cut="0.0000000000000000e+00" cType="1" res="4.0727134910412133e-04" rms="4.5277741551399231e-01" purity="4.8553696274757385e-01" nType="-99"/>
          <Node pos="r" depth="2" NCoef="0" IVar="-1" Cut="0.0000000000000000e+00" cType="1" res="-2.2298749536275864e-03" rms="3.6385527253150940e-01" purity="2.4698196351528168e-01" nType="-99"/>
        </Node>
        <Node pos="r" depth="1" NCoef="0" IVar="3" Cut="2.0820399475097656e+02" cType="1" res="-6.1086084693670273e-02" rms="4.4318896532058716e-01" purity="4.9843406677246094e-01" nType="0">
          <Node pos="l" depth="2" NCoef="0" IVar="-1" Cut="0.0000000000000000e+00" cType="1" res="-2.1130673121660948e-03" rms="4.5166340470314026e-01" purity="4.0454792976379395e-01" nType="-99"/>
          <Node pos="r" depth="2" NCoef="0" IVar="-1" Cut="0.0000000000000000e+00" cType="1" res="-5.2966974908486009e-04" rms="4.3593734502792358e-01" purity="5.4081290960311890e-01" nType="-99"/>
        </Node>
      </Node>
    </BinaryTree>
    <BinaryTree type="DecisionTree" boostWeight="1.0000000000000000e+00" itree="519">
      <Node pos="s" depth="0" NCoef="0" IVar="3" Cut="4.2739758300781250e+02" cType="1" res="3.6456692963838577e-02" rms="4.3954846262931824e-01" purity="5.4093664884567261e-01" nType="0">
        <Node pos="l" depth="1" NCoef="0" IVar="1" Cut="1.1715428829193115e+00" cType="1" res="4.6145107597112656e-02" rms="4.4100865721702576e-01" purity="5.5993735790252686e-01" nType="0">
          <Node pos="l" depth="2" NCoef="0" IVar="-1" Cut="0.0000000000000000e+00" cType="1" res="1.0235937079414725e-03" rms="4.3798279762268066e-01" purity="6.1549288034439087e-01" nType="-99"/>
          <Node pos="r" depth="2" NCoef="0" IVar="-1" Cut="0.0000000000000000e+00" cType="1" res="-4.8727040848461911e-05" rms="4.4719395041465759e-01" purity="3.7980708479881287e-01" nType="-99"/>
        </Node>
        <Node pos="r" depth="1" NCoef="0" IVar="-1" Cut="0.0000000000000000e+00" cType="1" res="-1.5985467471182346e-03" rms="4.0157860517501831e-01" purity="3.0329766869544983e-01" nType="-99"/>
      </Node>
    </BinaryTree>
    <BinaryTree type="DecisionTree" boostWeight="1.0000000000000000e+00" itree="520">
      <Node pos="s" depth="0" NCoef="0" IVar="2" Cut="9.1928291320800781e-01" cType="1" res="1.6060566529631615e-02" rms="4.3919575214385986e-01" purity="5.1347047090530396e-01" nType="0">
        <Node pos="l" depth="1" NCoef="0" IVar="2" Cut="9.0788364410400391e-01" cType="1" res="-1.0757417231798172e-01" rms="2.9475384950637817e-01" purity="1.3169462978839874e-01" nType="0">
          <Node pos="l" depth="2" NCoef="0" IVar="-1" Cut="0.0000000000000000e+00" cType="1" res="-1.7153256339952350e-03" rms="3.3669316768646240e-01" purity="1.5694871544837952e-01" nType="-99"/>
          <Node pos="r" depth="2" NCoef="0" IVar="-1" Cut="0.0000000000000000e+00" cType="1" res="-2.9222026932984591e-03" rms="2.4505971372127533e-01" purity="1.0741265118122101e-01" nType="-99"/>
        </Node>
        <Node pos="r" depth="1" NCoef="0" IVar="5" Cut="2.2421179199218750e+02" cType="1" res="3.0461445450782776e-02" rms="4.5083633065223694e-01" purity="5.5793946981430054e-01" nType="0">
          <Node pos="l" depth="2" NCoef="0" IVar="-1" Cut="0.0000000000000000e+00" cType="1" res="7.0794735802337527e-04" rms="4.4762429594993591e-01" purity="5.5951654911041260e-01" nType="-99"/>
          <Node pos="r" depth="2" NCoef="0" IVar="-1" Cut="0.0000000000000000e+00" cType="1" res="-1.1497761588543653e-03" rms="4.6437388658523560e-01" purity="5.4537999629974365e-01" nType="-99"/>
        </Node>
      </Node>
    </BinaryTree>
    <BinaryTree type="DecisionTree" boostWeight="1.0000000000000000e+00" itree="521">
      <Node pos="s" depth="0" NCoef="0" IVar="2" Cut="9.6416938304901123e-01" cType="1" res="-2.4251523427665234e-03" rms="4.4099715352058411e-01" purity="4.9218651652336121e-01" nType="0">
        <Node pos="l" depth="1" NCoef="0" IVar="4" Cut="7.7302337646484375e+02" cType="1" res="-2.3554630577564240e-02" rms="4.5000183582305908e-01" purity="3.9989459514617920e-01" nType="0">
          <Node pos="l" depth="2" NCoef="0" IVar="-1" Cut="0.0000000000000000e+00" cType="1" res="-6.0972094070166349e-04" rms="4.4943067431449890e-01" purity="3.7583118677139282e-01" nType="-99"/>
          <Node pos="r" depth="2" NCoef="0" IVar="-1" Cut="0.0000000000000000e+00" cType="1" res="1.7628598725423217e-03" rms="4.3307271599769592e-01" purity="6.6783189773559570e-01" nType="-99"/>
        </Node>
        <Node pos="r" depth="1" NCoef="0" IVar="5" Cut="1.6495054626464844e+02" cType="1" res="6.0095597058534622e-02" rms="4.0682741999626160e-01" purity="7.6527231931686401e-01" nType="0">
          <Node pos="l" depth="2" NCoef="0" IVar="-1" Cut="0.0000000000000000e+00" cType="1" res="1.7067795852199197e-03" rms="3.9132452011108398e-01" purity="7.9424041509628296e-01" nType="-99"/>
          <Node pos="r" depth="2" NCoef="0" IVar="-1" Cut="0.0000000000000000e+00" cType="1" res="-1.0183175327256322e-03" rms="4.2844372987747192e-01" purity="6.8474560976028442e-01" nType="-99"/>
        </Node>
      </Node>
    </BinaryTree>
    <BinaryTree type="DecisionTree" boostWeight="1.0000000000000000e+00" itree="522">
      <Node pos="s" depth="0" NCoef="0" IVar="2" Cut="9.6895247697830200e-01" cType="1" res="-1.0332303121685982e-02" rms="4.3818321824073792e-01" purity="4.8189437389373779e-01" nType="0">
        <Node pos="l" depth="1" NCoef="0" IVar="3" Cut="2.0779588317871094e+02" cType="1" res="-2.3744564503431320e-02" rms="4.4485187530517578e-01" purity="4.1040050983428955e-01" nType="0">
          <Node pos="l" depth="2" NCoef="0" IVar="-1" Cut="0.0000000000000000e+00" cType="1" res="-7.6899357372894883e-04" rms="4.3205720186233521e-01" purity="3.5151329636573792e-01" nType="-99"/>
          <Node pos="r" depth="2" NCoef="0" IVar="-1" Cut="0.0000000000000000e+00" cType="1" res="-2.8167876735096797e-05" rms="4.5651677250862122e-01" purity="4.7064939141273499e-01" nType="-99"/>
        </Node>
        <Node pos="r" depth="1" NCoef="0" IVar="5" Cut="1.5037684631347656e+02" cType="1" res="4.3911274522542953e-02" rms="4.0560942888259888e-01" purity="7.7103894948959351e-01" nType="0">
          <Node pos="l" depth="2" NCoef="0" IVar="-1" Cut="0.0000000000000000e+00" cType="1" res="2.2146559786051512e-03" rms="3.5006287693977356e-01" purity="8.3515024185180664e-01" nType="-99"/>
          <Node pos="r" depth="2" NCoef="0" IVar="-1" Cut="0.0000000000000000e+00" cType="1" res="-1.9194380147382617e-03" rms="4.5049142837524414e-01" purity="6.6694235801696777e-01" nType="-99"/>
        </Node>
      </Node>
    </BinaryTree>
    <BinaryTree type="DecisionTree" boostWeight="1.0000000000000000e+00" itree="523">
      <Node pos="s" depth="0" NCoef="0" IVar="3" Cut="3.1944113159179688e+02" cType="1" res="2.9448838904500008e-02" rms="4.4193601608276367e-01" purity="5.3266882896423340e-01" nType="0">
        <Node pos="l" depth="1" NCoef="0" IVar="3" Cut="1.8548031616210938e+02" cType="1" res="5.1133509725332260e-02" rms="4.4109955430030823e-01" purity="5.6036686897277832e-01" nType="0">
          <Node pos="l" depth="2" NCoef="0" IVar="-1" Cut="0.0000000000000000e+00" cType="1" res="-7.6893928053323179e-05" rms="4.5557084679603577e-01" purity="4.4868186116218567e-01" nType="-99"/>
          <Node pos="r" depth="2" NCoef="0" IVar="-1" Cut="0.0000000000000000e+00" cType="1" res="1.4843126991763711e-03" rms="4.2691695690155029e-01" purity="6.3601326942443848e-01" nType="-99"/>
        </Node>
        <Node pos="r" depth="1" NCoef="0" IVar="6" Cut="8.3760958909988403e-01" cType="1" res="-8.9573539793491364e-02" rms="4.2733404040336609e-01" purity="3.8064053654670715e-01" nType="0">
          <Node pos="l" depth="2" NCoef="0" IVar="-1" Cut="0.0000000000000000e+00" cType="1" res="-9.8364223958924413e-05" rms="4.3973287940025330e-01" purity="5.2465915679931641e-01" nType="-99"/>
          <Node pos="r" depth="2" NCoef="0" IVar="-1" Cut="0.0000000000000000e+00" cType="1" res="-4.2657162994146347e-03" rms="3.7923130393028259e-01" purity="1.7860007286071777e-01" nType="-99"/>
        </Node>
      </Node>
    </BinaryTree>
    <BinaryTree type="DecisionTree" boostWeight="1.0000000000000000e+00" itree="524">
      <Node pos="s" depth="0" NCoef="0" IVar="2" Cut="9.7584480047225952e-01" cType="1" res="2.1991000976413488e-03" rms="4.4999796152114868e-01" purity="5.0299650430679321e-01" nType="0">
        <Node pos="l" depth="1" NCoef="0" IVar="6" Cut="3.7687405943870544e-01" cType="1" res="-1.1140882037580013e-02" rms="4.6184989809989929e-01" purity="4.5628550648689270e-01" nType="0">
          <Node pos="l" depth="2" NCoef="0" IVar="-1" Cut="0.0000000000000000e+00" cType="1" res="-1.3000078033655882e-03" rms="4.6134677529335022e-01" purity="4.5625326037406921e-01" nType="-99"/>
          <Node pos="r" depth="2" NCoef="0" IVar="-1" Cut="0.0000000000000000e+00" cType="1" res="-1.8981509128934704e-05" rms="4.6111959218978882e-01" purity="4.5629048347473145e-01" nType="-99"/>
        </Node>
        <Node pos="r" depth="1" NCoef="0" IVar="5" Cut="1.2683001708984375e+02" cType="1" res="1.0725062340497971e-01" rms="3.2396784424781799e-01" purity="8.7084275484085083e-01" nType="0">
          <Node pos="l" depth="2" NCoef="0" IVar="-1" Cut="0.0000000000000000e+00" cType="1" res="3.0677022878080606e-03" rms="2.6139953732490540e-01" purity="9.1555303335189819e-01" nType="-99"/>
          <Node pos="r" depth="2" NCoef="0" IVar="-1" Cut="0.0000000000000000e+00" cType="1" res="1.0454793227836490e-03" rms="3.7015530467033386e-01" purity="8.2410424947738647e-01" nType="-99"/>
        </Node>
      </Node>
    </BinaryTree>
    <BinaryTree type="DecisionTree" boostWeight="1.0000000000000000e+00" itree="525">
      <Node pos="s" depth="0" NCoef="0" IVar="3" Cut="1.3510800170898438e+02" cType="1" res="-1.3063485734164715e-02" rms="4.4201382994651794e-01" purity="4.7718653082847595e-01" nType="0">
        <Node pos="l" depth="1" NCoef="0" IVar="-1" Cut="0.0000000000000000e+00" cType="1" res="-2.9542350675910711e-03" rms="3.7915578484535217e-01" purity="2.4560143053531647e-01" nType="-99"/>
        <Node pos="r" depth="1" NCoef="0" IVar="6" Cut="4.4427624344825745e-01" cType="1" res="1.2911005178466439e-03" rms="4.4451621174812317e-01" purity="4.9823549389839172e-01" nType="0">
          <Node pos="l" depth="2" NCoef="0" IVar="-1" Cut="0.0000000000000000e+00" cType="1" res="-1.0244451696053147e-03" rms="4.2628973722457886e-01" purity="5.2219927310943604e-01" nType="-99"/>
          <Node pos="r" depth="2" NCoef="0" IVar="-1" Cut="0.0000000000000000e+00" cType="1" res="3.1650037271901965e-04" rms="4.4817149639129639e-01" purity="4.9130871891975403e-01" nType="-99"/>
        </Node>
      </Node>
    </BinaryTree>
    <BinaryTree type="DecisionTree" boostWeight="1.0000000000000000e+00" itree="526">
      <Node pos="s" depth="0" NCoef="0" IVar="2" Cut="9.2657637596130371e-01" cType="1" res="8.2267178222537041e-03" rms="4.4485375285148621e-01" purity="5.0146460533142090e-01" nType="0">
        <Node pos="l" depth="1" NCoef="0" IVar="2" Cut="9.1468924283981323e-01" cType="1" res="-7.2613820433616638e-02" rms="3.7943175435066223e-01" purity="2.0784254372119904e-01" nType="0">
          <Node pos="l" depth="2" NCoef="0" IVar="-1" Cut="0.0000000000000000e+00" cType="1" res="-2.8016092255711555e-03" rms="3.0824345350265503e-01" purity="1.2513504922389984e-01" nType="-99"/>
          <Node pos="r" depth="2" NCoef="0" IVar="-1" Cut="0.0000000000000000e+00" cType="1" res="-6.4639293123036623e-04" rms="4.2041084170341492e-01" purity="2.6910665631294250e-01" nType="-99"/>
        </Node>
        <Node pos="r" depth="1" NCoef="0" IVar="4" Cut="4.1173535156250000e+02" cType="1" res="2.7107713744044304e-02" rms="4.5673513412475586e-01" purity="5.7004255056381226e-01" nType="0">
          <Node pos="l" depth="2" NCoef="0" IVar="-1" Cut="0.0000000000000000e+00" cType="1" res="-4.3354890658520162e-04" rms="4.5872262120246887e-01" purity="4.4173920154571533e-01" nType="-99"/>
          <Node pos="r" depth="2" NCoef="0" IVar="-1" Cut="0.0000000000000000e+00" cType="1" res="9.2534202849492431e-04" rms="4.5288711786270142e-01" purity="6.4271938800811768e-01" nType="-99"/>
        </Node>
      </Node>
    </BinaryTree>
    <BinaryTree type="DecisionTree" boostWeight="1.0000000000000000e+00" itree="527">
      <Node pos="s" depth="0" NCoef="0" IVar="2" Cut="9.0664172172546387e-01" cType="1" res="-3.5847485996782780e-03" rms="4.4285926222801208e-01" purity="4.9225789308547974e-01" nType="0">
        <Node pos="l" depth="1" NCoef="0" IVar="-1" Cut="0.0000000000000000e+00" cType="1" res="-3.2995964866131544e-03" rms="2.7825573086738586e-01" purity="9.6279293298721313e-02" nType="-99"/>
        <Node pos="r" depth="1" NCoef="0" IVar="4" Cut="5.0222012329101562e+02" cType="1" res="4.2897067032754421e-03" rms="4.4864237308502197e-01" purity="5.1351708173751831e-01" nType="0">
          <Node pos="l" depth="2" NCoef="0" IVar="-1" Cut="0.0000000000000000e+00" cType="1" res="4.6551725245080888e-04" rms="4.4484487175941467e-01" purity="4.8883581161499023e-01" nType="-99"/>
          <Node pos="r" depth="2" NCoef="0" IVar="-1" Cut="0.0000000000000000e+00" cType="1" res="-5.4489332251250744e-04" rms="4.5233878493309021e-01" purity="5.5415582656860352e-01" nType="-99"/>
        </Node>
      </Node>
    </BinaryTree>
    <BinaryTree type="DecisionTree" boostWeight="1.0000000000000000e+00" itree="528">
      <Node pos="s" depth="0" NCoef="0" IVar="3" Cut="2.0333737182617188e+02" cType="1" res="-9.3744359910488129e-03" rms="4.3730702996253967e-01" purity="4.8270931839942932e-01" nType="0">
        <Node pos="l" depth="1" NCoef="0" IVar="0" Cut="3.9825976562500000e+02" cType="1" res="-4.3525557965040207e-02" rms="4.3833065032958984e-01" purity="4.1349214315414429e-01" nType="0">
          <Node pos="l" depth="2" NCoef="0" IVar="-1" Cut="0.0000000000000000e+00" cType="1" res="-4.3179816566407681e-04" rms="4.3534430861473083e-01" purity="4.2333409190177917e-01" nType="-99"/>
          <Node pos="r" depth="2" NCoef="0" IVar="-1" Cut="0.0000000000000000e+00" cType="1" res="-2.9240266885608435e-03" rms="4.3784859776496887e-01" purity="3.4135493636131287e-01" nType="-99"/>
        </Node>
        <Node pos="r" depth="1" NCoef="0" IVar="3" Cut="3.9923486328125000e+02" cType="1" res="2.4621291086077690e-02" rms="4.3362250924110413e-01" purity="5.5161148309707642e-01" nType="0">
          <Node pos="l" depth="2" NCoef="0" IVar="-1" Cut="0.0000000000000000e+00" cType="1" res="7.5645511969923973e-04" rms="4.3950411677360535e-01" purity="5.9750926494598389e-01" nType="-99"/>
          <Node pos="r" depth="2" NCoef="0" IVar="-1" Cut="0.0000000000000000e+00" cType="1" res="-1.6439204337075353e-03" rms="3.8279971480369568e-01" purity="3.0171018838882446e-01" nType="-99"/>
        </Node>
      </Node>
    </BinaryTree>
    <BinaryTree type="DecisionTree" boostWeight="1.0000000000000000e+00" itree="529">
      <Node pos="s" depth="0" NCoef="0" IVar="5" Cut="1.4301843261718750e+02" cType="1" res="-1.9608449190855026e-02" rms="4.5357713103294373e-01" purity="4.7165530920028687e-01" nType="0">
        <Node pos="l" depth="1" NCoef="0" IVar="0" Cut="3.3692114257812500e+02" cType="1" res="9.1803995892405510e-03" rms="4.5197960734367371e-01" purity="4.6271976828575134e-01" nType="0">
          <Node pos="l" depth="2" NCoef="0" IVar="-1" Cut="0.0000000000000000e+00" cType="1" res="-8.7797372543718666e-05" rms="4.4915845990180969e-01" purity="4.2514067888259888e-01" nType="-99"/>
          <Node pos="r" depth="2" NCoef="0" IVar="-1" Cut="0.0000000000000000e+00" cType="1" res="1.4749672263860703e-03" rms="4.5956134796142578e-01" purity="6.8198746442794800e-01" nType="-99"/>
        </Node>
        <Node pos="r" depth="1" NCoef="0" IVar="6" Cut="5.4722595214843750e-01" cType="1" res="-7.4083864688873291e-02" rms="4.5159024000167847e-01" purity="4.8856347799301147e-01" nType="0">
          <Node pos="l" depth="2" NCoef="0" IVar="-1" Cut="0.0000000000000000e+00" cType="1" res="3.3310908474959433e-04" rms="4.2455062270164490e-01" purity="6.5419512987136841e-01" nType="-99"/>
          <Node pos="r" depth="2" NCoef="0" IVar="-1" Cut="0.0000000000000000e+00" cType="1" res="-2.3320354521274567e-03" rms="4.5822978019714355e-01" purity="3.8024508953094482e-01" nType="-99"/>
        </Node>
      </Node>
    </BinaryTree>
    <BinaryTree type="DecisionTree" boostWeight="1.0000000000000000e+00" itree="530">
      <Node pos="s" depth="0" NCoef="0" IVar="2" Cut="9.3836927413940430e-01" cType="1" res="1.8619207665324211e-02" rms="4.3630075454711914e-01" purity="5.1680684089660645e-01" nType="0">
        <Node pos="l" depth="1" NCoef="0" IVar="4" Cut="4.2485433959960938e+02" cType="1" res="-3.1671874225139618e-02" rms="4.2255082726478577e-01" purity="2.9417800903320312e-01" nType="0">
          <Node pos="l" depth="2" NCoef="0" IVar="-1" Cut="0.0000000000000000e+00" cType="1" res="-1.7146442551165819e-03" rms="3.7113708257675171e-01" purity="1.6677653789520264e-01" nType="-99"/>
          <Node pos="r" depth="2" NCoef="0" IVar="-1" Cut="0.0000000000000000e+00" cType="1" res="3.5309707163833082e-04" rms="4.6346032619476318e-01" purity="4.2493426799774170e-01" nType="-99"/>
        </Node>
        <Node pos="r" depth="1" NCoef="0" IVar="1" Cut="9.6861958503723145e-01" cType="1" res="4.3811537325382233e-02" rms="4.4087675213813782e-01" purity="6.2832838296890259e-01" nType="0">
          <Node pos="l" depth="2" NCoef="0" IVar="-1" Cut="0.0000000000000000e+00" cType="1" res="1.1559593258425593e-03" rms="4.1699314117431641e-01" purity="7.3097187280654907e-01" nType="-99"/>
          <Node pos="r" depth="2" NCoef="0" IVar="-1" Cut="0.0000000000000000e+00" cType="1" res="9.5817558758426458e-05" rms="4.6962904930114746e-01" purity="4.8474588990211487e-01" nType="-99"/>
        </Node>
      </Node>
    </BinaryTree>
    <BinaryTree type="DecisionTree" boostWeight="1.0000000000000000e+00" itree="531">
      <Node pos="s" depth="0" NCoef="0" IVar="3" Cut="2.1402120971679688e+02" cType="1" res="1.0220725089311600e-02" rms="4.3747106194496155e-01" purity="5.0342535972595215e-01" nType="0">
        <Node pos="l" depth="1" NCoef="0" IVar="5" Cut="1.2273805999755859e+02" cType="1" res="-2.0137287676334381e-02" rms="4.4195026159286499e-01" purity="4.4367647171020508e-01" nType="0">
          <Node pos="l" depth="2" NCoef="0" IVar="-1" Cut="0.0000000000000000e+00" cType="1" res="2.1991033281665295e-04" rms="4.4016295671463013e-01" purity="4.5927739143371582e-01" nType="-99"/>
          <Node pos="r" depth="2" NCoef="0" IVar="-1" Cut="0.0000000000000000e+00" cType="1" res="-1.5939301811158657e-03" rms="4.3675446510314941e-01" purity="4.0815779566764832e-01" nType="-99"/>
        </Node>
        <Node pos="r" depth="1" NCoef="0" IVar="1" Cut="1.0942161083221436e+00" cType="1" res="3.9825521409511566e-02" rms="4.3100389838218689e-01" purity="5.6169176101684570e-01" nType="0">
          <Node pos="l" depth="2" NCoef="0" IVar="-1" Cut="0.0000000000000000e+00" cType="1" res="1.3958333292976022e-03" rms="4.2772397398948669e-01" purity="7.3375219106674194e-01" nType="-99"/>
          <Node pos="r" depth="2" NCoef="0" IVar="-1" Cut="0.0000000000000000e+00" cType="1" res="-1.7421759548597038e-04" rms="4.2935025691986084e-01" purity="3.6647450923919678e-01" nType="-99"/>
        </Node>
      </Node>
    </BinaryTree>
    <BinaryTree type="DecisionTree" boostWeight="1.0000000000000000e+00" itree="532">
      <Node pos="s" depth="0" NCoef="0" IVar="2" Cut="9.3835413455963135e-01" cType="1" res="6.8446537479758263e-03" rms="4.3670216202735901e-01" purity="5.0496941804885864e-01" nType="0">
        <Node pos="l" depth="1" NCoef="0" IVar="3" Cut="2.2876296997070312e+02" cType="1" res="-5.6403126567602158e-02" rms="3.9374032616615295e-01" purity="2.5641861557960510e-01" nType="0">
          <Node pos="l" depth="2" NCoef="0" IVar="-1" Cut="0.0000000000000000e+00" cType="1" res="-1.9023570930585265e-03" rms="3.7408015131950378e-01" purity="1.9201764464378357e-01" nType="-99"/>
          <Node pos="r" depth="2" NCoef="0" IVar="-1" Cut="0.0000000000000000e+00" cType="1" res="2.7185599901713431e-04" rms="4.1512393951416016e-01" purity="3.6478662490844727e-01" nType="-99"/>
        </Node>
        <Node pos="r" depth="1" NCoef="0" IVar="1" Cut="1.5134170055389404e+00" cType="1" res="3.8324218243360519e-02" rms="4.5330351591110229e-01" purity="6.2867766618728638e-01" nType="0">
          <Node pos="l" depth="2" NCoef="0" IVar="-1" Cut="0.0000000000000000e+00" cType="1" res="8.3861127495765686e-04" rms="4.5362481474876404e-01" purity="6.6654062271118164e-01" nType="-99"/>
          <Node pos="r" depth="2" NCoef="0" IVar="-1" Cut="0.0000000000000000e+00" cType="1" res="-1.9558223430067301e-03" rms="4.2429742217063904e-01" purity="2.4343883991241455e-01" nType="-99"/>
        </Node>
      </Node>
    </BinaryTree>
    <BinaryTree type="DecisionTree" boostWeight="1.0000000000000000e+00" itree="533">
      <Node pos="s" depth="0" NCoef="0" IVar="1" Cut="1.5535527467727661e+00" cType="1" res="1.1738030007109046e-03" rms="4.4155156612396240e-01" purity="5.0880295038223267e-01" nType="0">
        <Node pos="l" depth="1" NCoef="0" IVar="3" Cut="1.7979666137695312e+02" cType="1" res="1.1970544233918190e-02" rms="4.5141965150833130e-01" purity="5.5184292793273926e-01" nType="0">
          <Node pos="l" depth="2" NCoef="0" IVar="-1" Cut="0.0000000000000000e+00" cType="1" res="-4.9729360034689307e-04" rms="4.4590654969215393e-01" purity="4.3753656744956970e-01" nType="-99"/>
          <Node pos="r" depth="2" NCoef="0" IVar="-1" Cut="0.0000000000000000e+00" cType="1" res="5.7701277546584606e-04" rms="4.5278200507164001e-01" purity="6.1432892084121704e-01" nType="-99"/>
        </Node>
        <Node pos="r" depth="1" NCoef="0" IVar="1" Cut="1.7022911310195923e+00" cType="1" res="-8.8866457343101501e-02" rms="3.3526223897933960e-01" purity="1.4986796677112579e-01" nType="0">
          <Node pos="l" depth="2" NCoef="0" IVar="-1" Cut="0.0000000000000000e+00" cType="1" res="-5.1412143511697650e-04" rms="4.0537428855895996e-01" purity="2.4449402093887329e-01" nType="-99"/>
          <Node pos="r" depth="2" NCoef="0" IVar="-1" Cut="0.0000000000000000e+00" cType="1" res="-3.7926123477518559e-03" rms="2.4519442021846771e-01" purity="6.6949628293514252e-02" nType="-99"/>
        </Node>
      </Node>
    </BinaryTree>
    <BinaryTree type="DecisionTree" boostWeight="1.0000000000000000e+00" itree="534">
      <Node pos="s" depth="0" NCoef="0" IVar="4" Cut="7.4637896728515625e+02" cType="1" res="-6.3592786900699139e-03" rms="4.3154829740524292e-01" purity="4.9561315774917603e-01" nType="0">
        <Node pos="l" depth="1" NCoef="0" IVar="3" Cut="3.2100866699218750e+02" cType="1" res="-1.5978850424289703e-02" rms="4.3220260739326477e-01" purity="4.7306701540946960e-01" nType="0">
          <Node pos="l" depth="2" NCoef="0" IVar="-1" Cut="0.0000000000000000e+00" cType="1" res="5.9811965911649168e-05" rms="4.3597903847694397e-01" purity="5.0254148244857788e-01" nType="-99"/>
          <Node pos="r" depth="2" NCoef="0" IVar="-1" Cut="0.0000000000000000e+00" cType="1" res="-3.3743798267096281e-03" rms="3.6576133966445923e-01" purity="2.3875215649604797e-01" nType="-99"/>
        </Node>
        <Node pos="r" depth="1" NCoef="0" IVar="-1" Cut="0.0000000000000000e+00" cType="1" res="1.7698317533358932e-03" rms="4.0787738561630249e-01" purity="7.5544655323028564e-01" nType="-99"/>
      </Node>
    </BinaryTree>
    <BinaryTree type="DecisionTree" boostWeight="1.0000000000000000e+00" itree="535">
      <Node pos="s" depth="0" NCoef="0" IVar="3" Cut="2.1051156616210938e+02" cType="1" res="-1.1619011638686061e-03" rms="4.4025668501853943e-01" purity="5.0189095735549927e-01" nType="0">
        <Node pos="l" depth="1" NCoef="0" IVar="4" Cut="5.7194958496093750e+02" cType="1" res="-6.2448449432849884e-02" rms="4.5183962583541870e-01" purity="4.1545781493186951e-01" nType="0">
          <Node pos="l" depth="2" NCoef="0" IVar="-1" Cut="0.0000000000000000e+00" cType="1" res="-7.2517478838562965e-04" rms="4.5413711667060852e-01" purity="4.2800584435462952e-01" nType="-99"/>
          <Node pos="r" depth="2" NCoef="0" IVar="-1" Cut="0.0000000000000000e+00" cType="1" res="-3.6092367954552174e-03" rms="4.0255439281463623e-01" purity="3.2080906629562378e-01" nType="-99"/>
        </Node>
        <Node pos="r" depth="1" NCoef="0" IVar="3" Cut="3.0060247802734375e+02" cType="1" res="6.3988566398620605e-02" rms="4.1785636544227600e-01" purity="5.9377336502075195e-01" nType="0">
          <Node pos="l" depth="2" NCoef="0" IVar="-1" Cut="0.0000000000000000e+00" cType="1" res="1.6759899444878101e-03" rms="4.1522473096847534e-01" purity="6.5773773193359375e-01" nType="-99"/>
          <Node pos="r" depth="2" NCoef="0" IVar="-1" Cut="0.0000000000000000e+00" cType="1" res="1.2799674550478812e-05" rms="4.1522744297981262e-01" purity="4.7688043117523193e-01" nType="-99"/>
        </Node>
      </Node>
    </BinaryTree>
    <BinaryTree type="DecisionTree" boostWeight="1.0000000000000000e+00" itree="536">
      <Node pos="s" depth="0" NCoef="0" IVar="5" Cut="1.5767642211914062e+02" cType="1" res="-7.5532114133238792e-03" rms="4.4974398612976074e-01" purity="4.8928049206733704e-01" nType="0">
        <Node pos="l" depth="1" NCoef="0" IVar="6" Cut="8.5275012254714966e-01" cType="1" res="1.8979756161570549e-02" rms="4.4842213392257690e-01" purity="4.9588662385940552e-01" nType="0">
          <Node pos="l" depth="2" NCoef="0" IVar="-1" Cut="0.0000000000000000e+00" cType="1" res="8.5933995433151722e-04" rms="4.4059213995933533e-01" purity="5.5290305614471436e-01" nType="-99"/>
          <Node pos="r" depth="2" NCoef="0" IVar="-1" Cut="0.0000000000000000e+00" cType="1" res="-1.1121040442958474e-03" rms="4.5775696635246277e-01" purity="3.5392907261848450e-01" nType="-99"/>
        </Node>
        <Node pos="r" depth="1" NCoef="0" IVar="4" Cut="6.0385089111328125e+02" cType="1" res="-7.7851854264736176e-02" rms="4.4565469026565552e-01" purity="4.7177758812904358e-01" nType="0">
          <Node pos="l" depth="2" NCoef="0" IVar="-1" Cut="0.0000000000000000e+00" cType="1" res="-2.4829148314893246e-03" rms="4.1405418515205383e-01" purity="3.7336006760597229e-01" nType="-99"/>
          <Node pos="r" depth="2" NCoef="0" IVar="-1" Cut="0.0000000000000000e+00" cType="1" res="-2.9610627098008990e-04" rms="4.6370315551757812e-01" purity="5.5912268161773682e-01" nType="-99"/>
        </Node>
      </Node>
    </BinaryTree>
    <BinaryTree type="DecisionTree" boostWeight="1.0000000000000000e+00" itree="537">
      <Node pos="s" depth="0" NCoef="0" IVar="3" Cut="1.6470277404785156e+02" cType="1" res="-2.6103863492608070e-03" rms="4.4553703069686890e-01" purity="5.0010651350021362e-01" nType="0">
        <Node pos="l" depth="1" NCoef="0" IVar="5" Cut="1.0143260192871094e+02" cType="1" res="-5.5459216237068176e-02" rms="4.7711485624313354e-01" purity="3.9128863811492920e-01" nType="0">
          <Node pos="l" depth="2" NCoef="0" IVar="-1" Cut="0.0000000000000000e+00" cType="1" res="9.1410352615639567e-04" rms="4.7997331619262695e-01" purity="4.8771584033966064e-01" nType="-99"/>
          <Node pos="r" depth="2" NCoef="0" IVar="-1" Cut="0.0000000000000000e+00" cType="1" res="-3.0819517560303211e-03" rms="4.4434687495231628e-01" purity="2.8616115450859070e-01" nType="-99"/>
        </Node>
        <Node pos="r" depth="1" NCoef="0" IVar="4" Cut="7.2987524414062500e+02" cType="1" res="1.5371960587799549e-02" rms="4.3280011415481567e-01" purity="5.3713285923004150e-01" nType="0">
          <Node pos="l" depth="2" NCoef="0" IVar="-1" Cut="0.0000000000000000e+00" cType="1" res="3.3473766961833462e-05" rms="4.3238291144371033e-01" purity="5.1272368431091309e-01" nType="-99"/>
          <Node pos="r" depth="2" NCoef="0" IVar="-1" Cut="0.0000000000000000e+00" cType="1" res="1.9729910418391228e-03" rms="4.2139351367950439e-01" purity="7.2870212793350220e-01" nType="-99"/>
        </Node>
      </Node>
    </BinaryTree>
    <BinaryTree type="DecisionTree" boostWeight="1.0000000000000000e+00" itree="538">
      <Node pos="s" depth="0" NCoef="0" IVar="1" Cut="1.1328227519989014e+00" cType="1" res="2.0150134339928627e-02" rms="4.3283283710479736e-01" purity="5.3128618001937866e-01" nType="0">
        <Node pos="l" depth="1" NCoef="0" IVar="3" Cut="1.8308584594726562e+02" cType="1" res="4.3428275734186172e-02" rms="4.3479037284851074e-01" purity="6.1515438556671143e-01" nType="0">
          <Node pos="l" depth="2" NCoef="0" IVar="-1" Cut="0.0000000000000000e+00" cType="1" res="-2.8853470575995743e-04" rms="4.5039793848991394e-01" purity="4.6926689147949219e-01" nType="-99"/>
          <Node pos="r" depth="2" NCoef="0" IVar="-1" Cut="0.0000000000000000e+00" cType="1" res="1.4422734966501594e-03" rms="4.1772797703742981e-01" purity="7.2024250030517578e-01" nType="-99"/>
        </Node>
        <Node pos="r" depth="1" NCoef="0" IVar="6" Cut="5.7705193758010864e-01" cType="1" res="-3.4642245620489120e-02" rms="4.2316529154777527e-01" purity="3.3387634158134460e-01" nType="0">
          <Node pos="l" depth="2" NCoef="0" IVar="-1" Cut="0.0000000000000000e+00" cType="1" res="-2.2475607693195343e-03" rms="4.0085822343826294e-01" purity="2.7936241030693054e-01" nType="-99"/>
          <Node pos="r" depth="2" NCoef="0" IVar="-1" Cut="0.0000000000000000e+00" cType="1" res="-3.1256291549652815e-04" rms="4.2543029785156250e-01" purity="3.4501728415489197e-01" nType="-99"/>
        </Node>
      </Node>
    </BinaryTree>
    <BinaryTree type="DecisionTree" boostWeight="1.0000000000000000e+00" itree="539">
      <Node pos="s" depth="0" NCoef="0" IVar="2" Cut="9.3598854541778564e-01" cType="1" res="-9.1441655531525612e-03" rms="4.3224135041236877e-01" purity="4.8436006903648376e-01" nType="0">
        <Node pos="l" depth="1" NCoef="0" IVar="6" Cut="8.3931070566177368e-01" cType="1" res="-7.9646728932857513e-02" rms="3.8542407751083374e-01" purity="2.1923634409904480e-01" nType="0">
          <Node pos="l" depth="2" NCoef="0" IVar="-1" Cut="0.0000000000000000e+00" cType="1" res="-1.9531678408384323e-03" rms="3.8401657342910767e-01" purity="2.1518053114414215e-01" nType="-99"/>
          <Node pos="r" depth="2" NCoef="0" IVar="-1" Cut="0.0000000000000000e+00" cType="1" res="-5.1437917863950133e-04" rms="3.8246387243270874e-01" purity="2.2771534323692322e-01" nType="-99"/>
        </Node>
        <Node pos="r" depth="1" NCoef="0" IVar="4" Cut="4.1704217529296875e+02" cType="1" res="2.4117922410368919e-02" rms="4.4882237911224365e-01" purity="6.0944157838821411e-01" nType="0">
          <Node pos="l" depth="2" NCoef="0" IVar="-1" Cut="0.0000000000000000e+00" cType="1" res="-8.0509303370490670e-04" rms="4.7838139533996582e-01" purity="4.6339073777198792e-01" nType="-99"/>
          <Node pos="r" depth="2" NCoef="0" IVar="-1" Cut="0.0000000000000000e+00" cType="1" res="1.1033209739252925e-03" rms="4.2585748434066772e-01" purity="6.9159269332885742e-01" nType="-99"/>
        </Node>
      </Node>
    </BinaryTree>
    <BinaryTree type="DecisionTree" boostWeight="1.0000000000000000e+00" itree="540">
      <Node pos="s" depth="0" NCoef="0" IVar="3" Cut="2.0596708679199219e+02" cType="1" res="-1.3556905090808868e-02" rms="4.4341900944709778e-01" purity="4.9271860718727112e-01" nType="0">
        <Node pos="l" depth="1" NCoef="0" IVar="2" Cut="9.7426003217697144e-01" cType="1" res="-5.2654027938842773e-02" rms="4.4560819864273071e-01" purity="4.1537049412727356e-01" nType="0">
          <Node pos="l" depth="2" NCoef="0" IVar="-1" Cut="0.0000000000000000e+00" cType="1" res="-1.2062598252668977e-03" rms="4.5131763815879822e-01" purity="3.5657128691673279e-01" nType="-99"/>
          <Node pos="r" depth="2" NCoef="0" IVar="-1" Cut="0.0000000000000000e+00" cType="1" res="1.2505706399679184e-03" rms="3.8493776321411133e-01" purity="7.9859602451324463e-01" nType="-99"/>
        </Node>
        <Node pos="r" depth="1" NCoef="0" IVar="6" Cut="1.1142009496688843e+00" cType="1" res="2.1136866882443428e-02" rms="4.3855819106101990e-01" purity="5.6135535240173340e-01" nType="0">
          <Node pos="l" depth="2" NCoef="0" IVar="-1" Cut="0.0000000000000000e+00" cType="1" res="6.2648928724229336e-04" rms="4.3981474637985229e-01" purity="5.8823531866073608e-01" nType="-99"/>
          <Node pos="r" depth="2" NCoef="0" IVar="-1" Cut="0.0000000000000000e+00" cType="1" res="-2.0527471788227558e-03" rms="4.0189728140830994e-01" purity="3.2124277949333191e-01" nType="-99"/>
        </Node>
      </Node>
    </BinaryTree>
    <BinaryTree type="DecisionTree" boostWeight="1.0000000000000000e+00" itree="541">
      <Node pos="s" depth="0" NCoef="0" IVar="3" Cut="3.0162661743164062e+02" cType="1" res="-1.5011901967227459e-02" rms="4.4355049729347229e-01" purity="4.7729453444480896e-01" nType="0">
        <Node pos="l" depth="1" NCoef="0" IVar="3" Cut="1.9781690979003906e+02" cType="1" res="1.0782019235193729e-03" rms="4.4328066706657410e-01" purity="4.9491086602210999e-01" nType="0">
          <Node pos="l" depth="2" NCoef="0" IVar="-1" Cut="0.0000000000000000e+00" cType="1" res="-5.9088511625304818e-04" rms="4.4581672549247742e-01" purity="4.1374436020851135e-01" nType="-99"/>
          <Node pos="r" depth="2" NCoef="0" IVar="-1" Cut="0.0000000000000000e+00" cType="1" res="7.2107109008356929e-04" rms="4.3668872117996216e-01" purity="5.8837628364562988e-01" nType="-99"/>
        </Node>
        <Node pos="r" depth="1" NCoef="0" IVar="5" Cut="1.5516136169433594e+02" cType="1" res="-8.2540802657604218e-02" rms="4.3828615546226501e-01" purity="4.0336009860038757e-01" nType="0">
          <Node pos="l" depth="2" NCoef="0" IVar="-1" Cut="0.0000000000000000e+00" cType="1" res="-3.0483871232718229e-03" rms="4.0243536233901978e-01" purity="2.2723159193992615e-01" nType="-99"/>
          <Node pos="r" depth="2" NCoef="0" IVar="-1" Cut="0.0000000000000000e+00" cType="1" res="-7.3722423985600471e-04" rms="4.5319333672523499e-01" purity="5.0704687833786011e-01" nType="-99"/>
        </Node>
      </Node>
    </BinaryTree>
    <BinaryTree type="DecisionTree" boostWeight="1.0000000000000000e+00" itree="542">
      <Node pos="s" depth="0" NCoef="0" IVar="6" Cut="3.0322864651679993e-01" cType="1" res="8.9539187029004097e-03" rms="4.4713973999023438e-01" purity="5.1150757074356079e-01" nType="0">
        <Node pos="l" depth="1" NCoef="0" IVar="-1" Cut="0.0000000000000000e+00" cType="1" res="1.6803988255560398e-03" rms="4.3448325991630554e-01" purity="6.9578170776367188e-01" nType="-99"/>
        <Node pos="r" depth="1" NCoef="0" IVar="6" Cut="1.1570184230804443e+00" cType="1" res="-1.2287135468795896e-03" rms="4.4737586379051208e-01" purity="4.9095466732978821e-01" nType="0">
          <Node pos="l" depth="2" NCoef="0" IVar="-1" Cut="0.0000000000000000e+00" cType="1" res="1.4425655535887927e-04" rms="4.4813877344131470e-01" purity="5.0986415147781372e-01" nType="-99"/>
          <Node pos="r" depth="2" NCoef="0" IVar="-1" Cut="0.0000000000000000e+00" cType="1" res="-2.6476322673261166e-03" rms="4.1164731979370117e-01" purity="2.1621771156787872e-01" nType="-99"/>
        </Node>
      </Node>
    </BinaryTree>
    <BinaryTree type="DecisionTree" boostWeight="1.0000000000000000e+00" itree="543">
      <Node pos="s" depth="0" NCoef="0" IVar="1" Cut="3.8609600067138672e-01" cType="1" res="9.2858485877513885e-03" rms="4.4748130440711975e-01" purity="4.9585440754890442e-01" nType="0">
        <Node pos="l" depth="1" NCoef="0" IVar="-1" Cut="0.0000000000000000e+00" cType="1" res="2.3017318453639746e-03" rms="4.0511259436607361e-01" purity="7.0790225267410278e-01" nType="-99"/>
        <Node pos="r" depth="1" NCoef="0" IVar="6" Cut="6.8384754657745361e-01" cType="1" res="1.4404510147869587e-03" rms="4.4875854253768921e-01" purity="4.8287200927734375e-01" nType="0">
          <Node pos="l" depth="2" NCoef="0" IVar="-1" Cut="0.0000000000000000e+00" cType="1" res="-3.9760227082297206e-04" rms="4.5105540752410889e-01" purity="4.9866074323654175e-01" nType="-99"/>
          <Node pos="r" depth="2" NCoef="0" IVar="-1" Cut="0.0000000000000000e+00" cType="1" res="4.9991568084806204e-04" rms="4.4466274976730347e-01" purity="4.6567633748054504e-01" nType="-99"/>
        </Node>
      </Node>
    </BinaryTree>
    <BinaryTree type="DecisionTree" boostWeight="1.0000000000000000e+00" itree="544">
      <Node pos="s" depth="0" NCoef="0" IVar="4" Cut="4.1463870239257812e+02" cType="1" res="2.9002821072936058e-02" rms="4.4153729081153870e-01" purity="5.3114128112792969e-01" nType="0">
        <Node pos="l" depth="1" NCoef="0" IVar="4" Cut="3.9617135620117188e+02" cType="1" res="-2.8608920052647591e-02" rms="4.3569454550743103e-01" purity="3.7648302316665649e-01" nType="0">
          <Node pos="l" depth="2" NCoef="0" IVar="-1" Cut="0.0000000000000000e+00" cType="1" res="-1.9087495456915349e-04" rms="4.3223261833190918e-01" purity="3.7639597058296204e-01" nType="-99"/>
          <Node pos="r" depth="2" NCoef="0" IVar="-1" Cut="0.0000000000000000e+00" cType="1" res="-2.3092355113476515e-03" rms="4.4084486365318298e-01" purity="3.7697580456733704e-01" nType="-99"/>
        </Node>
        <Node pos="r" depth="1" NCoef="0" IVar="1" Cut="7.8561115264892578e-01" cType="1" res="6.2594510614871979e-02" rms="4.4145211577415466e-01" purity="6.2131780385971069e-01" nType="0">
          <Node pos="l" depth="2" NCoef="0" IVar="-1" Cut="0.0000000000000000e+00" cType="1" res="1.7819129861891270e-03" rms="4.1161862015724182e-01" purity="7.2591608762741089e-01" nType="-99"/>
          <Node pos="r" depth="2" NCoef="0" IVar="-1" Cut="0.0000000000000000e+00" cType="1" res="4.2660493636503816e-04" rms="4.5986688137054443e-01" purity="5.4057765007019043e-01" nType="-99"/>
        </Node>
      </Node>
    </BinaryTree>
    <BinaryTree type="DecisionTree" boostWeight="1.0000000000000000e+00" itree="545">
      <Node pos="s" depth="0" NCoef="0" IVar="3" Cut="1.4303425598144531e+02" cType="1" res="1.4822387136518955e-02" rms="4.5044052600860596e-01" purity="5.1685827970504761e-01" nType="0">
        <Node pos="l" depth="1" NCoef="0" IVar="5" Cut="9.1704376220703125e+01" cType="1" res="-8.9413575828075409e-02" rms="4.3050312995910645e-01" purity="3.3452361822128296e-01" nType="0">
          <Node pos="l" depth="2" NCoef="0" IVar="-1" Cut="0.0000000000000000e+00" cType="1" res="2.8688184102065861e-04" rms="3.9777690172195435e-01" purity="4.0727567672729492e-01" nType="-99"/>
          <Node pos="r" depth="2" NCoef="0" IVar="-1" Cut="0.0000000000000000e+00" cType="1" res="-3.7853578105568886e-03" rms="4.3437257409095764e-01" purity="2.4884416162967682e-01" nType="-99"/>
        </Node>
        <Node pos="r" depth="1" NCoef="0" IVar="3" Cut="3.4692602539062500e+02" cType="1" res="2.9455460608005524e-02" rms="4.5124596357345581e-01" purity="5.4245513677597046e-01" nType="0">
          <Node pos="l" depth="2" NCoef="0" IVar="-1" Cut="0.0000000000000000e+00" cType="1" res="6.6892208997160196e-04" rms="4.5264175534248352e-01" purity="5.6078803539276123e-01" nType="-99"/>
          <Node pos="r" depth="2" NCoef="0" IVar="-1" Cut="0.0000000000000000e+00" cType="1" res="-6.1218463815748692e-04" rms="4.3705570697784424e-01" purity="4.2625269293785095e-01" nType="-99"/>
        </Node>
      </Node>
    </BinaryTree>
    <BinaryTree type="DecisionTree" boostWeight="1.0000000000000000e+00" itree="546">
      <Node pos="s" depth="0" NCoef="0" IVar="2" Cut="9.4788938760757446e-01" cType="1" res="1.0164344683289528e-02" rms="4.4103568792343140e-01" purity="5.0475174188613892e-01" nType="0">
        <Node pos="l" depth="1" NCoef="0" IVar="1" Cut="1.0607640743255615e+00" cType="1" res="-2.0812498405575752e-02" rms="4.3215844035148621e-01" purity="3.2793310284614563e-01" nType="0">
          <Node pos="l" depth="2" NCoef="0" IVar="-1" Cut="0.0000000000000000e+00" cType="1" res="2.9375113081187010e-04" rms="4.6482771635055542e-01" purity="4.3041640520095825e-01" nType="-99"/>
          <Node pos="r" depth="2" NCoef="0" IVar="-1" Cut="0.0000000000000000e+00" cType="1" res="-1.7948377644643188e-03" rms="3.6818492412567139e-01" purity="1.7016552388668060e-01" nType="-99"/>
        </Node>
        <Node pos="r" depth="1" NCoef="0" IVar="1" Cut="1.3214818239212036e+00" cType="1" res="4.1396491229534149e-02" rms="4.4764384627342224e-01" purity="6.8302762508392334e-01" nType="0">
          <Node pos="l" depth="2" NCoef="0" IVar="-1" Cut="0.0000000000000000e+00" cType="1" res="4.2349699651822448e-04" rms="4.3984699249267578e-01" purity="6.9999593496322632e-01" nType="-99"/>
          <Node pos="r" depth="2" NCoef="0" IVar="-1" Cut="0.0000000000000000e+00" cType="1" res="2.0113314967602491e-03" rms="4.8048314452171326e-01" purity="5.8301246166229248e-01" nType="-99"/>
        </Node>
      </Node>
    </BinaryTree>
    <BinaryTree type="DecisionTree" boostWeight="1.0000000000000000e+00" itree="547">
      <Node pos="s" depth="0" NCoef="0" IVar="3" Cut="4.0888815307617188e+02" cType="1" res="-9.2322146520018578e-03" rms="4.4796964526176453e-01" purity="4.8399353027343750e-01" nType="0">
        <Node pos="l" depth="1" NCoef="0" IVar="1" Cut="5.1927447319030762e-01" cType="1" res="1.6711694188416004e-03" rms="4.5270115137100220e-01" purity="5.0362753868103027e-01" nType="0">
          <Node pos="l" depth="2" NCoef="0" IVar="-1" Cut="0.0000000000000000e+00" cType="1" res="-1.6792829846963286e-03" rms="4.3376538157463074e-01" purity="4.8856645822525024e-01" nType="-99"/>
          <Node pos="r" depth="2" NCoef="0" IVar="-1" Cut="0.0000000000000000e+00" cType="1" res="3.1440632301382720e-04" rms="4.5367321372032166e-01" purity="5.0620192289352417e-01" nType="-99"/>
        </Node>
        <Node pos="r" depth="1" NCoef="0" IVar="-1" Cut="0.0000000000000000e+00" cType="1" res="-2.8232664335519075e-03" rms="3.5802227258682251e-01" purity="2.4079896509647369e-01" nType="-99"/>
      </Node>
    </BinaryTree>
    <BinaryTree type="DecisionTree" boostWeight="1.0000000000000000e+00" itree="548">
      <Node pos="s" depth="0" NCoef="0" IVar="4" Cut="8.5720001220703125e+02" cType="1" res="6.8294666707515717e-03" rms="4.3840792775154114e-01" purity="5.0804197788238525e-01" nType="0">
        <Node pos="l" depth="1" NCoef="0" IVar="1" Cut="1.2830011844635010e+00" cType="1" res="-1.9318271661177278e-03" rms="4.3857222795486450e-01" purity="4.9257606267929077e-01" nType="0">
          <Node pos="l" depth="2" NCoef="0" IVar="-1" Cut="0.0000000000000000e+00" cType="1" res="2.4612084962427616e-04" rms="4.4784992933273315e-01" purity="5.5525344610214233e-01" nType="-99"/>
          <Node pos="r" depth="2" NCoef="0" IVar="-1" Cut="0.0000000000000000e+00" cType="1" res="-1.2876220280304551e-03" rms="3.9502328634262085e-01" purity="2.5445586442947388e-01" nType="-99"/>
        </Node>
        <Node pos="r" depth="1" NCoef="0" IVar="-1" Cut="0.0000000000000000e+00" cType="1" res="2.4376111105084419e-03" rms="4.1099330782890320e-01" purity="7.5608259439468384e-01" nType="-99"/>
      </Node>
    </BinaryTree>
    <BinaryTree type="DecisionTree" boostWeight="1.0000000000000000e+00" itree="549">
      <Node pos="s" depth="0" NCoef="0" IVar="1" Cut="8.4713101387023926e-01" cType="1" res="1.4328838326036930e-02" rms="4.4070053100585938e-01" purity="5.1643747091293335e-01" nType="0">
        <Node pos="l" depth="1" NCoef="0" IVar="2" Cut="9.7658455371856689e-01" cType="1" res="5.9509262442588806e-02" rms="4.2604973912239075e-01" purity="6.3834065198898315e-01" nType="0">
          <Node pos="l" depth="2" NCoef="0" IVar="-1" Cut="0.0000000000000000e+00" cType="1" res="6.0641375603154302e-04" rms="4.5924562215805054e-01" purity="5.7078427076339722e-01" nType="-99"/>
          <Node pos="r" depth="2" NCoef="0" IVar="-1" Cut="0.0000000000000000e+00" cType="1" res="3.6767749115824699e-03" rms="1.3608674705028534e-01" purity="9.8028647899627686e-01" nType="-99"/>
        </Node>
        <Node pos="r" depth="1" NCoef="0" IVar="5" Cut="1.8173667907714844e+02" cType="1" res="-2.1429605782032013e-02" rms="4.4874614477157593e-01" purity="4.1995623707771301e-01" nType="0">
          <Node pos="l" depth="2" NCoef="0" IVar="-1" Cut="0.0000000000000000e+00" cType="1" res="5.3785483032697812e-05" rms="4.3719708919525146e-01" purity="4.2635366320610046e-01" nType="-99"/>
          <Node pos="r" depth="2" NCoef="0" IVar="-1" Cut="0.0000000000000000e+00" cType="1" res="-1.9685691222548485e-03" rms="4.7964367270469666e-01" purity="3.9471170306205750e-01" nType="-99"/>
        </Node>
      </Node>
    </BinaryTree>
    <BinaryTree type="DecisionTree" boostWeight="1.0000000000000000e+00" itree="550">
      <Node pos="s" depth="0" NCoef="0" IVar="5" Cut="2.3684928894042969e+02" cType="1" res="9.1654127463698387e-03" rms="4.4620963931083679e-01" purity="5.0587075948715210e-01" nType="0">
        <Node pos="l" depth="1" NCoef="0" IVar="4" Cut="4.0363748168945312e+02" cType="1" res="2.1759932860732079e-02" rms="4.4094803929328918e-01" purity="5.1034355163574219e-01" nType="0">
          <Node pos="l" depth="2" NCoef="0" IVar="-1" Cut="0.0000000000000000e+00" cType="1" res="-6.1395601369440556e-04" rms="4.5705860853195190e-01" purity="3.6033460497856140e-01" nType="-99"/>
          <Node pos="r" depth="2" NCoef="0" IVar="-1" Cut="0.0000000000000000e+00" cType="1" res="1.0013038991019130e-03" rms="4.2571905255317688e-01" purity="6.1089587211608887e-01" nType="-99"/>
        </Node>
        <Node pos="r" depth="1" NCoef="0" IVar="5" Cut="2.9927200317382812e+02" cType="1" res="-1.0226768255233765e-01" rms="4.7600668668746948e-01" purity="4.6629679203033447e-01" nType="0">
          <Node pos="l" depth="2" NCoef="0" IVar="-1" Cut="0.0000000000000000e+00" cType="1" res="-1.6999056097120047e-03" rms="4.5199850201606750e-01" purity="4.6697533130645752e-01" nType="-99"/>
          <Node pos="r" depth="2" NCoef="0" IVar="-1" Cut="0.0000000000000000e+00" cType="1" res="-1.8111017998307943e-03" rms="4.9928277730941772e-01" purity="4.6560409665107727e-01" nType="-99"/>
        </Node>
      </Node>
    </BinaryTree>
    <BinaryTree type="DecisionTree" boostWeight="1.0000000000000000e+00" itree="551">
      <Node pos="s" depth="0" NCoef="0" IVar="3" Cut="4.2007852172851562e+02" cType="1" res="-4.1855968534946442e-02" rms="4.3345010280609131e-01" purity="4.5838871598243713e-01" nType="0">
        <Node pos="l" depth="1" NCoef="0" IVar="3" Cut="2.1702210998535156e+02" cType="1" res="-3.3224530518054962e-02" rms="4.3573847413063049e-01" purity="4.7478309273719788e-01" nType="0">
          <Node pos="l" depth="2" NCoef="0" IVar="-1" Cut="0.0000000000000000e+00" cType="1" res="-1.1238796869292855e-03" rms="4.3640956282615662e-01" purity="3.9931586384773254e-01" nType="-99"/>
          <Node pos="r" depth="2" NCoef="0" IVar="-1" Cut="0.0000000000000000e+00" cType="1" res="1.3833904813509434e-04" rms="4.3139484524726868e-01" purity="5.7168662548065186e-01" nType="-99"/>
        </Node>
        <Node pos="r" depth="1" NCoef="0" IVar="-1" Cut="0.0000000000000000e+00" cType="1" res="-3.0811405740678310e-03" rms="3.8141036033630371e-01" purity="2.3318031430244446e-01" nType="-99"/>
      </Node>
    </BinaryTree>
    <BinaryTree type="DecisionTree" boostWeight="1.0000000000000000e+00" itree="552">
      <Node pos="s" depth="0" NCoef="0" IVar="2" Cut="9.1799789667129517e-01" cType="1" res="-1.0938152670860291e-02" rms="4.4672590494155884e-01" purity="4.8287028074264526e-01" nType="0">
        <Node pos="l" depth="1" NCoef="0" IVar="3" Cut="1.9677799987792969e+02" cType="1" res="-9.1299220919609070e-02" rms="3.4273102879524231e-01" purity="1.5331813693046570e-01" nType="0">
          <Node pos="l" depth="2" NCoef="0" IVar="-1" Cut="0.0000000000000000e+00" cType="1" res="-1.7047233413904905e-03" rms="3.3093899488449097e-01" purity="1.3563968241214752e-01" nType="-99"/>
          <Node pos="r" depth="2" NCoef="0" IVar="-1" Cut="0.0000000000000000e+00" cType="1" res="-2.2347038611769676e-03" rms="3.5483998060226440e-01" purity="1.7344884574413300e-01" nType="-99"/>
        </Node>
        <Node pos="r" depth="1" NCoef="0" IVar="0" Cut="3.6822674560546875e+02" cType="1" res="-9.8517967853695154e-04" rms="4.5698294043540955e-01" purity="5.2368640899658203e-01" nType="0">
          <Node pos="l" depth="2" NCoef="0" IVar="-1" Cut="0.0000000000000000e+00" cType="1" res="3.5532622132450342e-04" rms="4.6060490608215332e-01" purity="5.0333774089813232e-01" nType="-99"/>
          <Node pos="r" depth="2" NCoef="0" IVar="-1" Cut="0.0000000000000000e+00" cType="1" res="-7.8545359428972006e-04" rms="4.4625785946846008e-01" purity="5.6447106599807739e-01" nType="-99"/>
        </Node>
      </Node>
    </BinaryTree>
    <BinaryTree type="DecisionTree" boostWeight="1.0000000000000000e+00" itree="553">
      <Node pos="s" depth="0" NCoef="0" IVar="1" Cut="6.8602275848388672e-01" cType="1" res="9.9146636202931404e-03" rms="4.3182498216629028e-01" purity="5.1453864574432373e-01" nType="0">
        <Node pos="l" depth="1" NCoef="0" IVar="5" Cut="1.1074198913574219e+02" cType="1" res="9.5717541873455048e-02" rms="4.0465408563613892e-01" purity="6.9256246089935303e-01" nType="0">
          <Node pos="l" depth="2" NCoef="0" IVar="-1" Cut="0.0000000000000000e+00" cType="1" res="3.0992196407169104e-03" rms="3.8844001293182373e-01" purity="7.4200016260147095e-01" nType="-99"/>
          <Node pos="r" depth="2" NCoef="0" IVar="-1" Cut="0.0000000000000000e+00" cType="1" res="6.5238919341936707e-04" rms="4.0163144469261169e-01" purity="6.6574078798294067e-01" nType="-99"/>
        </Node>
        <Node pos="r" depth="1" NCoef="0" IVar="4" Cut="4.6675741577148438e+02" cType="1" res="-2.7865566313266754e-02" rms="4.3796256184577942e-01" purity="4.3615224957466125e-01" nType="0">
          <Node pos="l" depth="2" NCoef="0" IVar="-1" Cut="0.0000000000000000e+00" cType="1" res="-1.0981207014992833e-03" rms="4.1230264306068420e-01" purity="3.5997483134269714e-01" nType="-99"/>
          <Node pos="r" depth="2" NCoef="0" IVar="-1" Cut="0.0000000000000000e+00" cType="1" res="2.5661877589300275e-04" rms="4.6625453233718872e-01" purity="5.3696799278259277e-01" nType="-99"/>
        </Node>
      </Node>
    </BinaryTree>
    <BinaryTree type="DecisionTree" boostWeight="1.0000000000000000e+00" itree="554">
      <Node pos="s" depth="0" NCoef="0" IVar="3" Cut="2.0702316284179688e+02" cType="1" res="8.0693364143371582e-03" rms="4.3954315781593323e-01" purity="4.9739617109298706e-01" nType="0">
        <Node pos="l" depth="1" NCoef="0" IVar="5" Cut="9.3835594177246094e+01" cType="1" res="-2.4453409016132355e-02" rms="4.4821104407310486e-01" purity="4.2922466993331909e-01" nType="0">
          <Node pos="l" depth="2" NCoef="0" IVar="-1" Cut="0.0000000000000000e+00" cType="1" res="5.1944376900792122e-04" rms="4.5707949995994568e-01" purity="4.6139293909072876e-01" nType="-99"/>
          <Node pos="r" depth="2" NCoef="0" IVar="-1" Cut="0.0000000000000000e+00" cType="1" res="-1.1002045357599854e-03" rms="4.3702128529548645e-01" purity="4.0518876910209656e-01" nType="-99"/>
        </Node>
        <Node pos="r" depth="1" NCoef="0" IVar="0" Cut="2.8401986694335938e+02" cType="1" res="3.8002248853445053e-02" rms="4.2923945188522339e-01" purity="5.6013911962509155e-01" nType="0">
          <Node pos="l" depth="2" NCoef="0" IVar="-1" Cut="0.0000000000000000e+00" cType="1" res="-1.4810760039836168e-03" rms="4.1366836428642273e-01" purity="2.8827884793281555e-01" nType="-99"/>
          <Node pos="r" depth="2" NCoef="0" IVar="-1" Cut="0.0000000000000000e+00" cType="1" res="1.1129750637337565e-03" rms="4.2838609218597412e-01" purity="6.2319189310073853e-01" nType="-99"/>
        </Node>
      </Node>
    </BinaryTree>
    <BinaryTree type="DecisionTree" boostWeight="1.0000000000000000e+00" itree="555">
      <Node pos="s" depth="0" NCoef="0" IVar="1" Cut="1.7124882936477661e+00" cType="1" res="-1.5399336116388440e-03" rms="4.3579900264739990e-01" purity="4.9090197682380676e-01" nType="0">
        <Node pos="l" depth="1" NCoef="0" IVar="4" Cut="3.2035357666015625e+02" cType="1" res="7.0978258736431599e-03" rms="4.4264486432075500e-01" purity="5.1402956247329712e-01" nType="0">
          <Node pos="l" depth="2" NCoef="0" IVar="-1" Cut="0.0000000000000000e+00" cType="1" res="-2.3523443378508091e-03" rms="3.6914744973182678e-01" purity="2.1643939614295959e-01" nType="-99"/>
          <Node pos="r" depth="2" NCoef="0" IVar="-1" Cut="0.0000000000000000e+00" cType="1" res="3.2883879612199962e-04" rms="4.4733437895774841e-01" purity="5.4347544908523560e-01" nType="-99"/>
        </Node>
        <Node pos="r" depth="1" NCoef="0" IVar="-1" Cut="0.0000000000000000e+00" cType="1" res="-4.1735935956239700e-03" rms="2.2312766313552856e-01" purity="5.7915102690458298e-02" nType="-99"/>
      </Node>
    </BinaryTree>
    <BinaryTree type="DecisionTree" boostWeight="1.0000000000000000e+00" itree="556">
      <Node pos="s" depth="0" NCoef="0" IVar="3" Cut="1.3184167480468750e+02" cType="1" res="8.3245718851685524e-03" rms="4.4716879725456238e-01" purity="5.0498723983764648e-01" nType="0">
        <Node pos="l" depth="1" NCoef="0" IVar="-1" Cut="0.0000000000000000e+00" cType="1" res="-2.0694541744887829e-03" rms="4.4001805782318115e-01" purity="3.3174091577529907e-01" nType="-99"/>
        <Node pos="r" depth="1" NCoef="0" IVar="1" Cut="1.6420408487319946e+00" cType="1" res="1.9102020189166069e-02" rms="4.4606491923332214e-01" purity="5.1938927173614502e-01" nType="0">
          <Node pos="l" depth="2" NCoef="0" IVar="-1" Cut="0.0000000000000000e+00" cType="1" res="4.9274042248725891e-04" rms="4.5538407564163208e-01" purity="5.5597704648971558e-01" nType="-99"/>
          <Node pos="r" depth="2" NCoef="0" IVar="-1" Cut="0.0000000000000000e+00" cType="1" res="-2.3231117520481348e-03" rms="3.0745896697044373e-01" purity="1.2472349405288696e-01" nType="-99"/>
        </Node>
      </Node>
    </BinaryTree>
    <BinaryTree type="DecisionTree" boostWeight="1.0000000000000000e+00" itree="557">
      <Node pos="s" depth="0" NCoef="0" IVar="6" Cut="1.1608102321624756e+00" cType="1" res="2.6290395762771368e-03" rms="4.4617500901222229e-01" purity="5.0310212373733521e-01" nType="0">
        <Node pos="l" depth="1" NCoef="0" IVar="5" Cut="1.4074711608886719e+02" cType="1" res="1.0341517627239227e-02" rms="4.4824671745300293e-01" purity="5.1936578750610352e-01" nType="0">
          <Node pos="l" depth="2" NCoef="0" IVar="-1" Cut="0.0000000000000000e+00" cType="1" res="6.2125135445967317e-04" rms="4.4521510601043701e-01" purity="5.1212453842163086e-01" nType="-99"/>
          <Node pos="r" depth="2" NCoef="0" IVar="-1" Cut="0.0000000000000000e+00" cType="1" res="-4.8751189024187624e-04" rms="4.5014387369155884e-01" purity="5.3050452470779419e-01" nType="-99"/>
        </Node>
        <Node pos="r" depth="1" NCoef="0" IVar="-1" Cut="0.0000000000000000e+00" cType="1" res="-2.3050589952617884e-03" rms="3.9193579554557800e-01" purity="2.4445642530918121e-01" nType="-99"/>
      </Node>
    </BinaryTree>
    <BinaryTree type="DecisionTree" boostWeight="1.0000000000000000e+00" itree="558">
      <Node pos="s" depth="0" NCoef="0" IVar="2" Cut="9.8051881790161133e-01" cType="1" res="5.1769167184829712e-03" rms="4.4157886505126953e-01" purity="4.9689614772796631e-01" nType="0">
        <Node pos="l" depth="1" NCoef="0" IVar="6" Cut="3.0689278244972229e-01" cType="1" res="-8.7089613080024719e-03" rms="4.5069220662117004e-01" purity="4.5660412311553955e-01" nType="0">
          <Node pos="l" depth="2" NCoef="0" IVar="-1" Cut="0.0000000000000000e+00" cType="1" res="1.9860614556819201e-03" rms="4.3390786647796631e-01" purity="6.2327092885971069e-01" nType="-99"/>
          <Node pos="r" depth="2" NCoef="0" IVar="-1" Cut="0.0000000000000000e+00" cType="1" res="-3.5027458216063678e-04" rms="4.5024126768112183e-01" purity="4.4201999902725220e-01" nType="-99"/>
        </Node>
        <Node pos="r" depth="1" NCoef="0" IVar="-1" Cut="0.0000000000000000e+00" cType="1" res="2.6066519785672426e-03" rms="3.1169617176055908e-01" purity="8.8421237468719482e-01" nType="-99"/>
      </Node>
    </BinaryTree>
    <BinaryTree type="DecisionTree" boostWeight="1.0000000000000000e+00" itree="559">
      <Node pos="s" depth="0" NCoef="0" IVar="4" Cut="7.1011895751953125e+02" cType="1" res="2.3435601033270359e-03" rms="4.3241918087005615e-01" purity="4.9857887625694275e-01" nType="0">
        <Node pos="l" depth="1" NCoef="0" IVar="0" Cut="4.2053921508789062e+02" cType="1" res="-1.0347217321395874e-02" rms="4.3376436829566956e-01" purity="4.7416102886199951e-01" nType="0">
          <Node pos="l" depth="2" NCoef="0" IVar="-1" Cut="0.0000000000000000e+00" cType="1" res="1.1850876762764528e-04" rms="4.3002378940582275e-01" purity="4.7798725962638855e-01" nType="-99"/>
          <Node pos="r" depth="2" NCoef="0" IVar="-1" Cut="0.0000000000000000e+00" cType="1" res="-2.0205024629831314e-03" rms="4.4185152649879456e-01" purity="4.5094749331474304e-01" nType="-99"/>
        </Node>
        <Node pos="r" depth="1" NCoef="0" IVar="-1" Cut="0.0000000000000000e+00" cType="1" res="1.7929180758073926e-03" rms="4.0458637475967407e-01" purity="7.0844745635986328e-01" nType="-99"/>
      </Node>
    </BinaryTree>
    <BinaryTree type="DecisionTree" boostWeight="1.0000000000000000e+00" itree="560">
      <Node pos="s" depth="0" NCoef="0" IVar="3" Cut="2.0333737182617188e+02" cType="1" res="-2.9855351895093918e-03" rms="4.4927418231964111e-01" purity="5.0553196668624878e-01" nType="0">
        <Node pos="l" depth="1" NCoef="0" IVar="5" Cut="8.8685058593750000e+01" cType="1" res="-3.2322943210601807e-02" rms="4.5273831486701965e-01" purity="4.3174466490745544e-01" nType="0">
          <Node pos="l" depth="2" NCoef="0" IVar="-1" Cut="0.0000000000000000e+00" cType="1" res="9.2293828492984176e-04" rms="4.2261904478073120e-01" purity="4.7869142889976501e-01" nType="-99"/>
          <Node pos="r" depth="2" NCoef="0" IVar="-1" Cut="0.0000000000000000e+00" cType="1" res="-1.3096333714202046e-03" rms="4.6182623505592346e-01" purity="4.0599745512008667e-01" nType="-99"/>
        </Node>
        <Node pos="r" depth="1" NCoef="0" IVar="2" Cut="9.3405717611312866e-01" cType="1" res="2.2819926962256432e-02" rms="4.4460746645927429e-01" purity="5.7043600082397461e-01" nType="0">
          <Node pos="l" depth="2" NCoef="0" IVar="-1" Cut="0.0000000000000000e+00" cType="1" res="1.5671192668378353e-03" rms="4.4754347205162048e-01" purity="4.4392621517181396e-01" nType="-99"/>
          <Node pos="r" depth="2" NCoef="0" IVar="-1" Cut="0.0000000000000000e+00" cType="1" res="-5.5216223699972034e-05" rms="4.4070905447006226e-01" purity="6.1777079105377197e-01" nType="-99"/>
        </Node>
      </Node>
    </BinaryTree>
    <BinaryTree type="DecisionTree" boostWeight="1.0000000000000000e+00" itree="561">
      <Node pos="s" depth="0" NCoef="0" IVar="1" Cut="1.2520723342895508e+00" cType="1" res="4.3504522182047367e-03" rms="4.3208411335945129e-01" purity="5.0228506326675415e-01" nType="0">
        <Node pos="l" depth="1" NCoef="0" IVar="1" Cut="7.4081021547317505e-01" cType="1" res="2.8852432966232300e-02" rms="4.4033336639404297e-01" purity="5.7377517223358154e-01" nType="0">
          <Node pos="l" depth="2" NCoef="0" IVar="-1" Cut="0.0000000000000000e+00" cType="1" res="1.1746439849957824e-03" rms="4.1790008544921875e-01" purity="6.4452886581420898e-01" nType="-99"/>
          <Node pos="r" depth="2" NCoef="0" IVar="-1" Cut="0.0000000000000000e+00" cType="1" res="-1.2612667342182249e-04" rms="4.5601013302803040e-01" purity="5.1171076297760010e-01" nType="-99"/>
        </Node>
        <Node pos="r" depth="1" NCoef="0" IVar="3" Cut="2.9158874511718750e+02" cType="1" res="-8.4315575659275055e-02" rms="3.8809695839881897e-01" purity="2.4358151853084564e-01" nType="0">
          <Node pos="l" depth="2" NCoef="0" IVar="-1" Cut="0.0000000000000000e+00" cType="1" res="-5.5699812946841121e-04" rms="4.2121681571006775e-01" purity="3.0333855748176575e-01" nType="-99"/>
          <Node pos="r" depth="2" NCoef="0" IVar="-1" Cut="0.0000000000000000e+00" cType="1" res="-3.0504041351377964e-03" rms="3.3673402667045593e-01" purity="1.7731286585330963e-01" nType="-99"/>
        </Node>
      </Node>
    </BinaryTree>
    <BinaryTree type="DecisionTree" boostWeight="1.0000000000000000e+00" itree="562">
      <Node pos="s" depth="0" NCoef="0" IVar="2" Cut="9.6507269144058228e-01" cType="1" res="2.1585410460829735e-02" rms="4.2095011472702026e-01" purity="5.3167349100112915e-01" nType="0">
        <Node pos="l" depth="1" NCoef="0" IVar="4" Cut="7.1238677978515625e+02" cType="1" res="-7.0983367040753365e-03" rms="4.3937006592750549e-01" purity="4.2355301976203918e-01" nType="0">
          <Node pos="l" depth="2" NCoef="0" IVar="-1" Cut="0.0000000000000000e+00" cType="1" res="-4.1912173037417233e-04" rms="4.3783059716224670e-01" purity="3.9205592870712280e-01" nType="-99"/>
          <Node pos="r" depth="2" NCoef="0" IVar="-1" Cut="0.0000000000000000e+00" cType="1" res="2.2682396229356527e-03" rms="4.2226266860961914e-01" purity="7.0767313241958618e-01" nType="-99"/>
        </Node>
        <Node pos="r" depth="1" NCoef="0" IVar="5" Cut="9.7074127197265625e+01" cType="1" res="9.8665505647659302e-02" rms="3.5561475157737732e-01" purity="8.2221907377243042e-01" nType="0">
          <Node pos="l" depth="2" NCoef="0" IVar="-1" Cut="0.0000000000000000e+00" cType="1" res="2.9588087927550077e-03" rms="3.0826413631439209e-01" purity="8.5539299249649048e-01" nType="-99"/>
          <Node pos="r" depth="2" NCoef="0" IVar="-1" Cut="0.0000000000000000e+00" cType="1" res="1.0913842124864459e-03" rms="3.6893019080162048e-01" purity="8.0634170770645142e-01" nType="-99"/>
        </Node>
      </Node>
    </BinaryTree>
    <BinaryTree type="DecisionTree" boostWeight="1.0000000000000000e+00" itree="563">
      <Node pos="s" depth="0" NCoef="0" IVar="1" Cut="1.7179237604141235e+00" cType="1" res="1.4307001605629921e-02" rms="4.3943902850151062e-01" purity="5.1686966419219971e-01" nType="0">
        <Node pos="l" depth="1" NCoef="0" IVar="2" Cut="9.2050623893737793e-01" cType="1" res="2.1506715565919876e-02" rms="4.4558718800544739e-01" purity="5.3869450092315674e-01" nType="0">
          <Node pos="l" depth="2" NCoef="0" IVar="-1" Cut="0.0000000000000000e+00" cType="1" res="-1.3229832984507084e-03" rms="3.6764517426490784e-01" purity="2.0363686978816986e-01" nType="-99"/>
          <Node pos="r" depth="2" NCoef="0" IVar="-1" Cut="0.0000000000000000e+00" cType="1" res="5.3063675295561552e-04" rms="4.5314851403236389e-01" purity="5.7999002933502197e-01" nType="-99"/>
        </Node>
        <Node pos="r" depth="1" NCoef="0" IVar="-1" Cut="0.0000000000000000e+00" cType="1" res="-3.0349812004715204e-03" rms="2.6404950022697449e-01" purity="1.0131288319826126e-01" nType="-99"/>
      </Node>
    </BinaryTree>
    <BinaryTree type="DecisionTree" boostWeight="1.0000000000000000e+00" itree="564">
      <Node pos="s" depth="0" NCoef="0" IVar="2" Cut="9.1525745391845703e-01" cType="1" res="1.3169493526220322e-02" rms="4.4679784774780273e-01" purity="5.0522333383560181e-01" nType="0">
        <Node pos="l" depth="1" NCoef="0" IVar="-1" Cut="0.0000000000000000e+00" cType="1" res="-1.2545298086479306e-03" rms="3.6558106541633606e-01" purity="1.9318279623985291e-01" nType="-99"/>
        <Node pos="r" depth="1" NCoef="0" IVar="6" Cut="5.1616317033767700e-01" cType="1" res="1.9924042746424675e-02" rms="4.5304429531097412e-01" purity="5.3433495759963989e-01" nType="0">
          <Node pos="l" depth="2" NCoef="0" IVar="-1" Cut="0.0000000000000000e+00" cType="1" res="-2.2067860118113458e-04" rms="4.4994634389877319e-01" purity="5.7256144285202026e-01" nType="-99"/>
          <Node pos="r" depth="2" NCoef="0" IVar="-1" Cut="0.0000000000000000e+00" cType="1" res="6.0354423476383090e-04" rms="4.5367351174354553e-01" purity="5.1631224155426025e-01" nType="-99"/>
        </Node>
      </Node>
    </BinaryTree>
    <BinaryTree type="DecisionTree" boostWeight="1.0000000000000000e+00" itree="565">
      <Node pos="s" depth="0" NCoef="0" IVar="3" Cut="1.2194730377197266e+02" cType="1" res="1.5521895140409470e-02" rms="4.4173869490623474e-01" purity="5.1308023929595947e-01" nType="0">
        <Node pos="l" depth="1" NCoef="0" IVar="-1" Cut="0.0000000000000000e+00" cType="1" res="-2.9567908495664597e-03" rms="4.1706767678260803e-01" purity="2.5628072023391724e-01" nType="-99"/>
        <Node pos="r" depth="1" NCoef="0" IVar="1" Cut="1.0802448987960815e+00" cType="1" res="2.5162938982248306e-02" rms="4.4106066226959229e-01" purity="5.2729868888854980e-01" nType="0">
          <Node pos="l" depth="2" NCoef="0" IVar="-1" Cut="0.0000000000000000e+00" cType="1" res="7.7876693103462458e-04" rms="4.4035124778747559e-01" purity="6.1559188365936279e-01" nType="-99"/>
          <Node pos="r" depth="2" NCoef="0" IVar="-1" Cut="0.0000000000000000e+00" cType="1" res="-3.8027638220228255e-04" rms="4.3907883763313293e-01" purity="3.4152024984359741e-01" nType="-99"/>
        </Node>
      </Node>
    </BinaryTree>
    <BinaryTree type="DecisionTree" boostWeight="1.0000000000000000e+00" itree="566">
      <Node pos="s" depth="0" NCoef="0" IVar="1" Cut="1.0856889486312866e+00" cType="1" res="1.6749255592003465e-03" rms="4.4062212109565735e-01" purity="4.9329775571823120e-01" nType="0">
        <Node pos="l" depth="1" NCoef="0" IVar="1" Cut="9.9897575378417969e-01" cType="1" res="2.3661267012357712e-02" rms="4.4690737128257751e-01" purity="5.8471691608428955e-01" nType="0">
          <Node pos="l" depth="2" NCoef="0" IVar="-1" Cut="0.0000000000000000e+00" cType="1" res="9.2304151621647179e-05" rms="4.4953987002372742e-01" purity="5.6946742534637451e-01" nType="-99"/>
          <Node pos="r" depth="2" NCoef="0" IVar="-1" Cut="0.0000000000000000e+00" cType="1" res="2.6028028223663568e-03" rms="4.0139931440353394e-01" purity="6.9897282123565674e-01" nType="-99"/>
        </Node>
        <Node pos="r" depth="1" NCoef="0" IVar="5" Cut="1.3062301635742188e+02" cType="1" res="-4.2483851313591003e-02" rms="4.2429128289222717e-01" purity="3.0968564748764038e-01" nType="0">
          <Node pos="l" depth="2" NCoef="0" IVar="-1" Cut="0.0000000000000000e+00" cType="1" res="9.7267809906043112e-05" rms="4.2267861962318420e-01" purity="3.3424240350723267e-01" nType="-99"/>
          <Node pos="r" depth="2" NCoef="0" IVar="-1" Cut="0.0000000000000000e+00" cType="1" res="-2.4751254823058844e-03" rms="4.1117045283317566e-01" purity="2.6007130742073059e-01" nType="-99"/>
        </Node>
      </Node>
    </BinaryTree>
    <BinaryTree type="DecisionTree" boostWeight="1.0000000000000000e+00" itree="567">
      <Node pos="s" depth="0" NCoef="0" IVar="2" Cut="9.2465227842330933e-01" cType="1" res="-4.2804569238796830e-04" rms="4.3330249190330505e-01" purity="4.9313500523567200e-01" nType="0">
        <Node pos="l" depth="1" NCoef="0" IVar="1" Cut="8.4529727697372437e-01" cType="1" res="-1.0179886221885681e-01" rms="3.4093174338340759e-01" purity="1.5270081162452698e-01" nType="0">
          <Node pos="l" depth="2" NCoef="0" IVar="-1" Cut="0.0000000000000000e+00" cType="1" res="-3.7001620512455702e-03" rms="2.8250038623809814e-01" purity="1.1131843179464340e-01" nType="-99"/>
          <Node pos="r" depth="2" NCoef="0" IVar="-1" Cut="0.0000000000000000e+00" cType="1" res="-9.2012190725654364e-04" rms="3.6156010627746582e-01" purity="1.7999717593193054e-01" nType="-99"/>
        </Node>
        <Node pos="r" depth="1" NCoef="0" IVar="4" Cut="3.1022592163085938e+02" cType="1" res="1.8232261762022972e-02" rms="4.4573083519935608e-01" purity="5.5580198764801025e-01" nType="0">
          <Node pos="l" depth="2" NCoef="0" IVar="-1" Cut="0.0000000000000000e+00" cType="1" res="-2.7001264970749617e-03" rms="3.9540484547615051e-01" purity="2.2650428116321564e-01" nType="-99"/>
          <Node pos="r" depth="2" NCoef="0" IVar="-1" Cut="0.0000000000000000e+00" cType="1" res="4.8371599405072629e-04" rms="4.4672808051109314e-01" purity="5.7704651355743408e-01" nType="-99"/>
        </Node>
      </Node>
    </BinaryTree>
    <BinaryTree type="DecisionTree" boostWeight="1.0000000000000000e+00" itree="568">
      <Node pos="s" depth="0" NCoef="0" IVar="5" Cut="1.4880072021484375e+02" cType="1" res="-1.1922067496925592e-03" rms="4.4234055280685425e-01" purity="4.9789923429489136e-01" nType="0">
        <Node pos="l" depth="1" NCoef="0" IVar="2" Cut="9.1821527481079102e-01" cType="1" res="3.0423289164900780e-02" rms="4.3441799283027649e-01" purity="4.9742594361305237e-01" nType="0">
          <Node pos="l" depth="2" NCoef="0" IVar="-1" Cut="0.0000000000000000e+00" cType="1" res="-2.5701988488435745e-03" rms="3.0417904257774353e-01" purity="1.0437042266130447e-01" nType="-99"/>
          <Node pos="r" depth="2" NCoef="0" IVar="-1" Cut="0.0000000000000000e+00" cType="1" res="8.5945270257070661e-04" rms="4.4703775644302368e-01" purity="5.5718094110488892e-01" nType="-99"/>
        </Node>
        <Node pos="r" depth="1" NCoef="0" IVar="4" Cut="8.0928228759765625e+02" cType="1" res="-6.6090226173400879e-02" rms="4.5128732919692993e-01" purity="4.9887070059776306e-01" nType="0">
          <Node pos="l" depth="2" NCoef="0" IVar="-1" Cut="0.0000000000000000e+00" cType="1" res="-1.7462315736338496e-03" rms="4.4977450370788574e-01" purity="4.5340266823768616e-01" nType="-99"/>
          <Node pos="r" depth="2" NCoef="0" IVar="-1" Cut="0.0000000000000000e+00" cType="1" res="1.2906569754704833e-03" rms="4.2891612648963928e-01" purity="6.9430553913116455e-01" nType="-99"/>
        </Node>
      </Node>
    </BinaryTree>
    <BinaryTree type="DecisionTree" boostWeight="1.0000000000000000e+00" itree="569">
      <Node pos="s" depth="0" NCoef="0" IVar="2" Cut="9.7508591413497925e-01" cType="1" res="-3.6357403732836246e-03" rms="4.4049233198165894e-01" purity="4.8890215158462524e-01" nType="0">
        <Node pos="l" depth="1" NCoef="0" IVar="4" Cut="6.1506054687500000e+02" cType="1" res="-1.7295653000473976e-02" rms="4.4921818375587463e-01" purity="4.4277420639991760e-01" nType="0">
          <Node pos="l" depth="2" NCoef="0" IVar="-1" Cut="0.0000000000000000e+00" cType="1" res="-5.5279926164075732e-04" rms="4.4977667927742004e-01" purity="4.0731507539749146e-01" nType="-99"/>
          <Node pos="r" depth="2" NCoef="0" IVar="-1" Cut="0.0000000000000000e+00" cType="1" res="8.4786262596026063e-04" rms="4.3991306424140930e-01" purity="6.1035495996475220e-01" nType="-99"/>
        </Node>
        <Node pos="r" depth="1" NCoef="0" IVar="2" Cut="9.8300218582153320e-01" cType="1" res="1.0383743047714233e-01" rms="3.4631410241127014e-01" purity="8.5182648897171021e-01" nType="0">
          <Node pos="l" depth="2" NCoef="0" IVar="-1" Cut="0.0000000000000000e+00" cType="1" res="9.1238552704453468e-04" rms="3.9760133624076843e-01" purity="7.7934747934341431e-01" nType="-99"/>
          <Node pos="r" depth="2" NCoef="0" IVar="-1" Cut="0.0000000000000000e+00" cType="1" res="2.9748822562396526e-03" rms="2.8260636329650879e-01" purity="9.1743314266204834e-01" nType="-99"/>
        </Node>
      </Node>
    </BinaryTree>
    <BinaryTree type="DecisionTree" boostWeight="1.0000000000000000e+00" itree="570">
      <Node pos="s" depth="0" NCoef="0" IVar="2" Cut="9.8050582408905029e-01" cType="1" res="-1.5487299300730228e-02" rms="4.3571373820304871e-01" purity="4.8648515343666077e-01" nType="0">
        <Node pos="l" depth="1" NCoef="0" IVar="3" Cut="1.7979666137695312e+02" cType="1" res="-2.7886921539902687e-02" rms="4.4292512536048889e-01" purity="4.5283913612365723e-01" nType="0">
          <Node pos="l" depth="2" NCoef="0" IVar="-1" Cut="0.0000000000000000e+00" cType="1" res="-1.3530364958569407e-03" rms="4.3135648965835571e-01" purity="3.5837385058403015e-01" nType="-99"/>
          <Node pos="r" depth="2" NCoef="0" IVar="-1" Cut="0.0000000000000000e+00" cType="1" res="2.5296592866652645e-05" rms="4.4664719700813293e-01" purity="5.0609457492828369e-01" nType="-99"/>
        </Node>
        <Node pos="r" depth="1" NCoef="0" IVar="-1" Cut="0.0000000000000000e+00" cType="1" res="2.7332780882716179e-03" rms="2.9038757085800171e-01" purity="9.0827596187591553e-01" nType="-99"/>
      </Node>
    </BinaryTree>
    <BinaryTree type="DecisionTree" boostWeight="1.0000000000000000e+00" itree="571">
      <Node pos="s" depth="0" NCoef="0" IVar="5" Cut="7.0789962768554688e+01" cType="1" res="6.4298450015485287e-03" rms="4.4252556562423706e-01" purity="5.0984913110733032e-01" nType="0">
        <Node pos="l" depth="1" NCoef="0" IVar="-1" Cut="0.0000000000000000e+00" cType="1" res="2.6730585377663374e-03" rms="4.2258113622665405e-01" purity="4.8431161046028137e-01" nType="-99"/>
        <Node pos="r" depth="1" NCoef="0" IVar="3" Cut="1.8468292236328125e+02" cType="1" res="-4.1257189586758614e-03" rms="4.4227164983749390e-01" purity="5.1181924343109131e-01" nType="0">
          <Node pos="l" depth="2" NCoef="0" IVar="-1" Cut="0.0000000000000000e+00" cType="1" res="-1.2103331973776221e-03" rms="4.5557442307472229e-01" purity="3.9674013853073120e-01" nType="-99"/>
          <Node pos="r" depth="2" NCoef="0" IVar="-1" Cut="0.0000000000000000e+00" cType="1" res="5.8216473553329706e-04" rms="4.3015453219413757e-01" purity="5.7679569721221924e-01" nType="-99"/>
        </Node>
      </Node>
    </BinaryTree>
    <BinaryTree type="DecisionTree" boostWeight="1.0000000000000000e+00" itree="572">
      <Node pos="s" depth="0" NCoef="0" IVar="5" Cut="1.4010516357421875e+02" cType="1" res="-6.0630692169070244e-03" rms="4.4935953617095947e-01" purity="4.9031212925910950e-01" nType="0">
        <Node pos="l" depth="1" NCoef="0" IVar="5" Cut="1.2759819030761719e+02" cType="1" res="1.8086751922965050e-02" rms="4.3930962681770325e-01" purity="4.8078757524490356e-01" nType="0">
          <Node pos="l" depth="2" NCoef="0" IVar="-1" Cut="0.0000000000000000e+00" cType="1" res="5.6478386977687478e-04" rms="4.3609577417373657e-01" purity="4.8757919669151306e-01" nType="-99"/>
          <Node pos="r" depth="2" NCoef="0" IVar="-1" Cut="0.0000000000000000e+00" cType="1" res="-1.4950017211958766e-03" rms="4.4902953505516052e-01" purity="4.3179854750633240e-01" nType="-99"/>
        </Node>
        <Node pos="r" depth="1" NCoef="0" IVar="3" Cut="2.4406024169921875e+02" cType="1" res="-4.4347770512104034e-02" rms="4.6226838231086731e-01" purity="5.0541132688522339e-01" nType="0">
          <Node pos="l" depth="2" NCoef="0" IVar="-1" Cut="0.0000000000000000e+00" cType="1" res="-1.8987086368724704e-03" rms="4.6848136186599731e-01" purity="4.2486348748207092e-01" nType="-99"/>
          <Node pos="r" depth="2" NCoef="0" IVar="-1" Cut="0.0000000000000000e+00" cType="1" res="2.0836603653151542e-04" rms="4.4939076900482178e-01" purity="5.6945264339447021e-01" nType="-99"/>
        </Node>
      </Node>
    </BinaryTree>
    <BinaryTree type="DecisionTree" boostWeight="1.0000000000000000e+00" itree="573">
      <Node pos="s" depth="0" NCoef="0" IVar="6" Cut="3.7180605530738831e-01" cType="1" res="4.6304734423756599e-03" rms="4.4641762971878052e-01" purity="5.0317263603210449e-01" nType="0">
        <Node pos="l" depth="1" NCoef="0" IVar="1" Cut="6.7546039819717407e-01" cType="1" res="-9.0439178049564362e-02" rms="4.4543325901031494e-01" purity="4.9444901943206787e-01" nType="0">
          <Node pos="l" depth="2" NCoef="0" IVar="-1" Cut="0.0000000000000000e+00" cType="1" res="-6.9206411717459559e-04" rms="4.3899905681610107e-01" purity="5.6333070993423462e-01" nType="-99"/>
          <Node pos="r" depth="2" NCoef="0" IVar="-1" Cut="0.0000000000000000e+00" cType="1" res="-3.1134940218180418e-03" rms="4.4357663393020630e-01" purity="3.8142159581184387e-01" nType="-99"/>
        </Node>
        <Node pos="r" depth="1" NCoef="0" IVar="0" Cut="2.1151074218750000e+02" cType="1" res="2.0983641967177391e-02" rms="4.4454199075698853e-01" purity="5.0467312335968018e-01" nType="0">
          <Node pos="l" depth="2" NCoef="0" IVar="-1" Cut="0.0000000000000000e+00" cType="1" res="-2.1630590781569481e-03" rms="3.5633581876754761e-01" purity="2.5362011790275574e-01" nType="-99"/>
          <Node pos="r" depth="2" NCoef="0" IVar="-1" Cut="0.0000000000000000e+00" cType="1" res="6.0119928093627095e-04" rms="4.5080161094665527e-01" purity="5.3218126296997070e-01" nType="-99"/>
        </Node>
      </Node>
    </BinaryTree>
    <BinaryTree type="DecisionTree" boostWeight="1.0000000000000000e+00" itree="574">
      <Node pos="s" depth="0" NCoef="0" IVar="1" Cut="7.6715654134750366e-01" cType="1" res="-1.2666678987443447e-02" rms="4.3900981545448303e-01" purity="4.8958876729011536e-01" nType="0">
        <Node pos="l" depth="1" NCoef="0" IVar="3" Cut="1.7520921325683594e+02" cType="1" res="4.0010597556829453e-02" rms="4.3154385685920715e-01" purity="6.1847174167633057e-01" nType="0">
          <Node pos="l" depth="2" NCoef="0" IVar="-1" Cut="0.0000000000000000e+00" cType="1" res="-3.4257574588991702e-04" rms="4.6400433778762817e-01" purity="4.5617860555648804e-01" nType="-99"/>
          <Node pos="r" depth="2" NCoef="0" IVar="-1" Cut="0.0000000000000000e+00" cType="1" res="1.4158496633172035e-03" rms="4.0242728590965271e-01" purity="7.2960305213928223e-01" nType="-99"/>
        </Node>
        <Node pos="r" depth="1" NCoef="0" IVar="2" Cut="9.8079043626785278e-01" cType="1" res="-4.3248973786830902e-02" rms="4.4040516018867493e-01" purity="4.1476449370384216e-01" nType="0">
          <Node pos="l" depth="2" NCoef="0" IVar="-1" Cut="0.0000000000000000e+00" cType="1" res="-9.7084691515192389e-04" rms="4.4584384560585022e-01" purity="3.7635940313339233e-01" nType="-99"/>
          <Node pos="r" depth="2" NCoef="0" IVar="-1" Cut="0.0000000000000000e+00" cType="1" res="1.3990377774462104e-03" rms="3.5998001694679260e-01" purity="8.0266052484512329e-01" nType="-99"/>
        </Node>
      </Node>
    </BinaryTree>
    <BinaryTree type="DecisionTree" boostWeight="1.0000000000000000e+00" itree="575">
      <Node pos="s" depth="0" NCoef="0" IVar="2" Cut="9.1344428062438965e-01" cType="1" res="1.1850191280245781e-02" rms="4.4417837262153625e-01" purity="5.0938302278518677e-01" nType="0">
        <Node pos="l" depth="1" NCoef="0" IVar="-1" Cut="0.0000000000000000e+00" cType="1" res="-2.7172158006578684e-03" rms="3.0220571160316467e-01" purity="1.1347247660160065e-01" nType="-99"/>
        <Node pos="r" depth="1" NCoef="0" IVar="5" Cut="1.1709178924560547e+02" cType="1" res="2.2488269954919815e-02" rms="4.5162361860275269e-01" purity="5.4016292095184326e-01" nType="0">
          <Node pos="l" depth="2" NCoef="0" IVar="-1" Cut="0.0000000000000000e+00" cType="1" res="1.2687084963545203e-03" rms="4.5020812749862671e-01" purity="5.3506326675415039e-01" nType="-99"/>
          <Node pos="r" depth="2" NCoef="0" IVar="-1" Cut="0.0000000000000000e+00" cType="1" res="-4.0234831976704299e-04" rms="4.4774171710014343e-01" purity="5.4463338851928711e-01" nType="-99"/>
        </Node>
      </Node>
    </BinaryTree>
    <BinaryTree type="DecisionTree" boostWeight="1.0000000000000000e+00" itree="576">
      <Node pos="s" depth="0" NCoef="0" IVar="3" Cut="3.0661340332031250e+02" cType="1" res="-1.4273203909397125e-02" rms="4.4212549924850464e-01" purity="4.8789572715759277e-01" nType="0">
        <Node pos="l" depth="1" NCoef="0" IVar="3" Cut="2.3426391601562500e+02" cType="1" res="-1.9808406941592693e-03" rms="4.4132986664772034e-01" purity="5.0943821668624878e-01" nType="0">
          <Node pos="l" depth="2" NCoef="0" IVar="-1" Cut="0.0000000000000000e+00" cType="1" res="-5.4544565500691533e-04" rms="4.4325533509254456e-01" purity="4.5465505123138428e-01" nType="-99"/>
          <Node pos="r" depth="2" NCoef="0" IVar="-1" Cut="0.0000000000000000e+00" cType="1" res="1.4127603499218822e-03" rms="4.2569500207901001e-01" purity="6.5817916393280029e-01" nType="-99"/>
        </Node>
        <Node pos="r" depth="1" NCoef="0" IVar="4" Cut="7.1029132080078125e+02" cType="1" res="-7.1681126952171326e-02" rms="4.4131204485893250e-01" purity="3.8728770613670349e-01" nType="0">
          <Node pos="l" depth="2" NCoef="0" IVar="-1" Cut="0.0000000000000000e+00" cType="1" res="-2.0067864097654819e-03" rms="4.2139887809753418e-01" purity="2.9850664734840393e-01" nType="-99"/>
          <Node pos="r" depth="2" NCoef="0" IVar="-1" Cut="0.0000000000000000e+00" cType="1" res="6.4064108300954103e-05" rms="4.7386112809181213e-01" purity="5.8395755290985107e-01" nType="-99"/>
        </Node>
      </Node>
    </BinaryTree>
    <BinaryTree type="DecisionTree" boostWeight="1.0000000000000000e+00" itree="577">
      <Node pos="s" depth="0" NCoef="0" IVar="5" Cut="1.6888212585449219e+02" cType="1" res="1.8253602087497711e-02" rms="4.4543066620826721e-01" purity="5.2120405435562134e-01" nType="0">
        <Node pos="l" depth="1" NCoef="0" IVar="4" Cut="3.1179833984375000e+02" cType="1" res="3.9436873048543930e-02" rms="4.3974390625953674e-01" purity="5.1730036735534668e-01" nType="0">
          <Node pos="l" depth="2" NCoef="0" IVar="-1" Cut="0.0000000000000000e+00" cType="1" res="-7.6417560921981931e-04" rms="4.0922397375106812e-01" purity="2.8421705961227417e-01" nType="-99"/>
          <Node pos="r" depth="2" NCoef="0" IVar="-1" Cut="0.0000000000000000e+00" cType="1" res="8.1543211126700044e-04" rms="4.4213098287582397e-01" purity="5.4282313585281372e-01" nType="-99"/>
        </Node>
        <Node pos="r" depth="1" NCoef="0" IVar="3" Cut="2.0683534240722656e+02" cType="1" res="-4.1501577943563461e-02" rms="4.5581969618797302e-01" purity="5.3221589326858521e-01" nType="0">
          <Node pos="l" depth="2" NCoef="0" IVar="-1" Cut="0.0000000000000000e+00" cType="1" res="-4.1859108023345470e-03" rms="4.0696537494659424e-01" purity="2.5045937299728394e-01" nType="-99"/>
          <Node pos="r" depth="2" NCoef="0" IVar="-1" Cut="0.0000000000000000e+00" cType="1" res="2.0248231885489076e-04" rms="4.5235303044319153e-01" purity="6.0420548915863037e-01" nType="-99"/>
        </Node>
      </Node>
    </BinaryTree>
    <BinaryTree type="DecisionTree" boostWeight="1.0000000000000000e+00" itree="578">
      <Node pos="s" depth="0" NCoef="0" IVar="1" Cut="1.4352123737335205e+00" cType="1" res="2.2547258064150810e-02" rms="4.3401232361793518e-01" purity="5.2771937847137451e-01" nType="0">
        <Node pos="l" depth="1" NCoef="0" IVar="3" Cut="1.2860043334960938e+02" cType="1" res="3.5550266504287720e-02" rms="4.4122487306594849e-01" purity="5.7388818264007568e-01" nType="0">
          <Node pos="l" depth="2" NCoef="0" IVar="-1" Cut="0.0000000000000000e+00" cType="1" res="-1.7872676253318787e-03" rms="4.2194440960884094e-01" purity="3.3932822942733765e-01" nType="-99"/>
          <Node pos="r" depth="2" NCoef="0" IVar="-1" Cut="0.0000000000000000e+00" cType="1" res="7.7025347854942083e-04" rms="4.4091388583183289e-01" purity="5.9120219945907593e-01" nType="-99"/>
        </Node>
        <Node pos="r" depth="1" NCoef="0" IVar="2" Cut="9.4177126884460449e-01" cType="1" res="-7.1636155247688293e-02" rms="3.6407053470611572e-01" purity="1.9330896437168121e-01" nType="0">
          <Node pos="l" depth="2" NCoef="0" IVar="-1" Cut="0.0000000000000000e+00" cType="1" res="-4.0927976369857788e-03" rms="1.8299844861030579e-01" purity="3.7141267210245132e-02" nType="-99"/>
          <Node pos="r" depth="2" NCoef="0" IVar="-1" Cut="0.0000000000000000e+00" cType="1" res="-3.1811167718842626e-04" rms="4.5486494898796082e-01" purity="3.2099974155426025e-01" nType="-99"/>
        </Node>
      </Node>
    </BinaryTree>
    <BinaryTree type="DecisionTree" boostWeight="1.0000000000000000e+00" itree="579">
      <Node pos="s" depth="0" NCoef="0" IVar="5" Cut="2.7985821533203125e+02" cType="1" res="-1.5565398149192333e-02" rms="4.3769925832748413e-01" purity="4.8005348443984985e-01" nType="0">
        <Node pos="l" depth="1" NCoef="0" IVar="4" Cut="6.9072210693359375e+02" cType="1" res="-8.0682886764407158e-03" rms="4.3498200178146362e-01" purity="4.8340421915054321e-01" nType="0">
          <Node pos="l" depth="2" NCoef="0" IVar="-1" Cut="0.0000000000000000e+00" cType="1" res="-3.6977822310291231e-04" rms="4.3833437561988831e-01" purity="4.5810312032699585e-01" nType="-99"/>
          <Node pos="r" depth="2" NCoef="0" IVar="-1" Cut="0.0000000000000000e+00" cType="1" res="2.4085508193820715e-03" rms="3.6132687330245972e-01" purity="7.7750360965728760e-01" nType="-99"/>
        </Node>
        <Node pos="r" depth="1" NCoef="0" IVar="-1" Cut="0.0000000000000000e+00" cType="1" res="-2.5796834379434586e-03" rms="4.6347931027412415e-01" purity="4.2205494642257690e-01" nType="-99"/>
      </Node>
    </BinaryTree>
    <BinaryTree type="DecisionTree" boostWeight="1.0000000000000000e+00" itree="580">
      <Node pos="s" depth="0" NCoef="0" IVar="2" Cut="9.7588485479354858e-01" cType="1" res="1.0410317219793797e-02" rms="4.3463063240051270e-01" purity="5.0740289688110352e-01" nType="0">
        <Node pos="l" depth="1" NCoef="0" IVar="1" Cut="7.0012360811233521e-01" cType="1" res="-3.0637932941317558e-03" rms="4.4691178202629089e-01" purity="4.5755317807197571e-01" nType="0">
          <Node pos="l" depth="2" NCoef="0" IVar="-1" Cut="0.0000000000000000e+00" cType="1" res="7.1594514884054661e-04" rms="4.3721020221710205e-01" purity="5.8432346582412720e-01" nType="-99"/>
          <Node pos="r" depth="2" NCoef="0" IVar="-1" Cut="0.0000000000000000e+00" cType="1" res="-4.0889266529120505e-04" rms="4.4946825504302979e-01" purity="4.0311968326568604e-01" nType="-99"/>
        </Node>
        <Node pos="r" depth="1" NCoef="0" IVar="4" Cut="4.4093463134765625e+02" cType="1" res="1.0527490079402924e-01" rms="3.2000502943992615e-01" purity="8.5837000608444214e-01" nType="0">
          <Node pos="l" depth="2" NCoef="0" IVar="-1" Cut="0.0000000000000000e+00" cType="1" res="9.9891121499240398e-04" rms="3.7707456946372986e-01" purity="7.7498960494995117e-01" nType="-99"/>
          <Node pos="r" depth="2" NCoef="0" IVar="-1" Cut="0.0000000000000000e+00" cType="1" res="2.9626470059156418e-03" rms="2.5752770900726318e-01" purity="9.2557007074356079e-01" nType="-99"/>
        </Node>
      </Node>
    </BinaryTree>
    <BinaryTree type="DecisionTree" boostWeight="1.0000000000000000e+00" itree="581">
      <Node pos="s" depth="0" NCoef="0" IVar="3" Cut="3.1848526000976562e+02" cType="1" res="6.2941433861851692e-04" rms="4.4416713714599609e-01" purity="5.0296157598495483e-01" nType="0">
        <Node pos="l" depth="1" NCoef="0" IVar="3" Cut="2.1870849609375000e+02" cType="1" res="1.6402430832386017e-02" rms="4.4353002309799194e-01" purity="5.2585744857788086e-01" nType="0">
          <Node pos="l" depth="2" NCoef="0" IVar="-1" Cut="0.0000000000000000e+00" cType="1" res="-2.0826344552915543e-04" rms="4.5320665836334229e-01" purity="4.6053043007850647e-01" nType="-99"/>
          <Node pos="r" depth="2" NCoef="0" IVar="-1" Cut="0.0000000000000000e+00" cType="1" res="1.1772927828133106e-03" rms="4.2077922821044922e-01" purity="6.4297735691070557e-01" nType="-99"/>
        </Node>
        <Node pos="r" depth="1" NCoef="0" IVar="1" Cut="1.0541659593582153e+00" cType="1" res="-8.9014761149883270e-02" rms="4.3709132075309753e-01" purity="3.7283483147621155e-01" nType="0">
          <Node pos="l" depth="2" NCoef="0" IVar="-1" Cut="0.0000000000000000e+00" cType="1" res="-3.6321969237178564e-03" rms="4.9751648306846619e-01" purity="4.7560054063796997e-01" nType="-99"/>
          <Node pos="r" depth="2" NCoef="0" IVar="-1" Cut="0.0000000000000000e+00" cType="1" res="-5.6136585772037506e-04" rms="3.8825947046279907e-01" purity="3.1862777471542358e-01" nType="-99"/>
        </Node>
      </Node>
    </BinaryTree>
    <BinaryTree type="DecisionTree" boostWeight="1.0000000000000000e+00" itree="582">
      <Node pos="s" depth="0" NCoef="0" IVar="1" Cut="1.4795510768890381e+00" cType="1" res="-1.1984490789473057e-02" rms="4.3573796749114990e-01" purity="4.8707857728004456e-01" nType="0">
        <Node pos="l" depth="1" NCoef="0" IVar="3" Cut="1.2702240753173828e+02" cType="1" res="7.3045870522037148e-04" rms="4.4579386711120605e-01" purity="5.3268462419509888e-01" nType="0">
          <Node pos="l" depth="2" NCoef="0" IVar="-1" Cut="0.0000000000000000e+00" cType="1" res="-2.7365561109036207e-03" rms="3.9168861508369446e-01" purity="3.0049508810043335e-01" nType="-99"/>
          <Node pos="r" depth="2" NCoef="0" IVar="-1" Cut="0.0000000000000000e+00" cType="1" res="2.3353908909484744e-04" rms="4.4705730676651001e-01" purity="5.5087929964065552e-01" nType="-99"/>
        </Node>
        <Node pos="r" depth="1" NCoef="0" IVar="0" Cut="3.1220678710937500e+02" cType="1" res="-1.0027101635932922e-01" rms="3.4554135799407959e-01" purity="1.7041218280792236e-01" nType="0">
          <Node pos="l" depth="2" NCoef="0" IVar="-1" Cut="0.0000000000000000e+00" cType="1" res="-1.2950731907039881e-03" rms="3.6363017559051514e-01" purity="2.0305022597312927e-01" nType="-99"/>
          <Node pos="r" depth="2" NCoef="0" IVar="-1" Cut="0.0000000000000000e+00" cType="1" res="-3.3544278703629971e-03" rms="3.1236577033996582e-01" purity="1.2908941507339478e-01" nType="-99"/>
        </Node>
      </Node>
    </BinaryTree>
    <BinaryTree type="DecisionTree" boostWeight="1.0000000000000000e+00" itree="583">
      <Node pos="s" depth="0" NCoef="0" IVar="3" Cut="2.3078669738769531e+02" cType="1" res="6.3134678639471531e-03" rms="4.4835844635963440e-01" purity="4.9812632799148560e-01" nType="0">
        <Node pos="l" depth="1" NCoef="0" IVar="5" Cut="1.9018212890625000e+02" cType="1" res="-4.0590684860944748e-02" rms="4.4629916548728943e-01" purity="4.3776887655258179e-01" nType="0">
          <Node pos="l" depth="2" NCoef="0" IVar="-1" Cut="0.0000000000000000e+00" cType="1" res="-3.4480405156500638e-04" rms="4.4332149624824524e-01" purity="4.5144861936569214e-01" nType="-99"/>
          <Node pos="r" depth="2" NCoef="0" IVar="-1" Cut="0.0000000000000000e+00" cType="1" res="-4.0485537610948086e-03" rms="4.2566201090812683e-01" purity="3.0165722966194153e-01" nType="-99"/>
        </Node>
        <Node pos="r" depth="1" NCoef="0" IVar="6" Cut="1.0605484247207642e+00" cType="1" res="6.6965378820896149e-02" rms="4.4371634721755981e-01" purity="5.7617473602294922e-01" nType="0">
          <Node pos="l" depth="2" NCoef="0" IVar="-1" Cut="0.0000000000000000e+00" cType="1" res="8.7392190471291542e-04" rms="4.4001170992851257e-01" purity="5.8031570911407471e-01" nType="-99"/>
          <Node pos="r" depth="2" NCoef="0" IVar="-1" Cut="0.0000000000000000e+00" cType="1" res="3.1965922098606825e-03" rms="4.5158082246780396e-01" purity="5.4914122819900513e-01" nType="-99"/>
        </Node>
      </Node>
    </BinaryTree>
    <BinaryTree type="DecisionTree" boostWeight="1.0000000000000000e+00" itree="584">
      <Node pos="s" depth="0" NCoef="0" IVar="6" Cut="3.7095111608505249e-01" cType="1" res="9.5593640580773354e-03" rms="4.4538524746894836e-01" purity="4.9252700805664062e-01" nType="0">
        <Node pos="l" depth="1" NCoef="0" IVar="2" Cut="9.5425486564636230e-01" cType="1" res="1.3463339209556580e-01" rms="4.5185622572898865e-01" purity="6.6854977607727051e-01" nType="0">
          <Node pos="l" depth="2" NCoef="0" IVar="-1" Cut="0.0000000000000000e+00" cType="1" res="3.1702998094260693e-03" rms="4.7074377536773682e-01" purity="5.8789485692977905e-01" nType="-99"/>
          <Node pos="r" depth="2" NCoef="0" IVar="-1" Cut="0.0000000000000000e+00" cType="1" res="8.2534621469676495e-04" rms="4.0760374069213867e-01" purity="7.8018891811370850e-01" nType="-99"/>
        </Node>
        <Node pos="r" depth="1" NCoef="0" IVar="5" Cut="1.3271104431152344e+02" cType="1" res="-1.0514044202864170e-02" rms="4.4104713201522827e-01" purity="4.6427673101425171e-01" nType="0">
          <Node pos="l" depth="2" NCoef="0" IVar="-1" Cut="0.0000000000000000e+00" cType="1" res="2.7077487902715802e-04" rms="4.3738332390785217e-01" purity="4.4768765568733215e-01" nType="-99"/>
          <Node pos="r" depth="2" NCoef="0" IVar="-1" Cut="0.0000000000000000e+00" cType="1" res="-8.9973158901557326e-04" rms="4.4367074966430664e-01" purity="4.9086585640907288e-01" nType="-99"/>
        </Node>
      </Node>
    </BinaryTree>
    <BinaryTree type="DecisionTree" boostWeight="1.0000000000000000e+00" itree="585">
      <Node pos="s" depth="0" NCoef="0" IVar="0" Cut="3.8764251708984375e+02" cType="1" res="-8.4642078727483749e-03" rms="4.4988796114921570e-01" purity="4.9927109479904175e-01" nType="0">
        <Node pos="l" depth="1" NCoef="0" IVar="4" Cut="3.1862069702148438e+02" cType="1" res="1.6564231365919113e-02" rms="4.4510021805763245e-01" purity="4.9586462974548340e-01" nType="0">
          <Node pos="l" depth="2" NCoef="0" IVar="-1" Cut="0.0000000000000000e+00" cType="1" res="-1.4177969424054027e-03" rms="3.9127930998802185e-01" purity="2.1858488023281097e-01" nType="-99"/>
          <Node pos="r" depth="2" NCoef="0" IVar="-1" Cut="0.0000000000000000e+00" cType="1" res="4.6901660971343517e-04" rms="4.5013302564620972e-01" purity="5.2997845411300659e-01" nType="-99"/>
        </Node>
        <Node pos="r" depth="1" NCoef="0" IVar="3" Cut="2.2159214782714844e+02" cType="1" res="-7.0887498557567596e-02" rms="4.5566135644912720e-01" purity="5.0776708126068115e-01" nType="0">
          <Node pos="l" depth="2" NCoef="0" IVar="-1" Cut="0.0000000000000000e+00" cType="1" res="-2.5314772501587868e-03" rms="4.3308657407760620e-01" purity="3.7043935060501099e-01" nType="-99"/>
          <Node pos="r" depth="2" NCoef="0" IVar="-1" Cut="0.0000000000000000e+00" cType="1" res="-6.5072922734543681e-04" rms="4.6046596765518188e-01" purity="5.6416714191436768e-01" nType="-99"/>
        </Node>
      </Node>
    </BinaryTree>
    <BinaryTree type="DecisionTree" boostWeight="1.0000000000000000e+00" itree="586">
      <Node pos="s" depth="0" NCoef="0" IVar="0" Cut="3.9685430908203125e+02" cType="1" res="-8.6581800132989883e-03" rms="4.4468000531196594e-01" purity="4.9397924542427063e-01" nType="0">
        <Node pos="l" depth="1" NCoef="0" IVar="4" Cut="3.1545983886718750e+02" cType="1" res="7.6974732801318169e-03" rms="4.3968978524208069e-01" purity="4.7724890708923340e-01" nType="0">
          <Node pos="l" depth="2" NCoef="0" IVar="-1" Cut="0.0000000000000000e+00" cType="1" res="-1.6431541880592704e-03" rms="3.9133957028388977e-01" purity="2.5345808267593384e-01" nType="-99"/>
          <Node pos="r" depth="2" NCoef="0" IVar="-1" Cut="0.0000000000000000e+00" cType="1" res="3.1326554017141461e-04" rms="4.4383621215820312e-01" purity="5.0353628396987915e-01" nType="-99"/>
        </Node>
        <Node pos="r" depth="1" NCoef="0" IVar="6" Cut="7.9857617616653442e-01" cType="1" res="-5.4149981588125229e-02" rms="4.5519414544105530e-01" purity="5.4051333665847778e-01" nType="0">
          <Node pos="l" depth="2" NCoef="0" IVar="-1" Cut="0.0000000000000000e+00" cType="1" res="-3.3446471206843853e-04" rms="4.4609424471855164e-01" purity="5.9730637073516846e-01" nType="-99"/>
          <Node pos="r" depth="2" NCoef="0" IVar="-1" Cut="0.0000000000000000e+00" cType="1" res="-2.6639967691153288e-03" rms="4.6644741296768188e-01" purity="3.7515056133270264e-01" nType="-99"/>
        </Node>
      </Node>
    </BinaryTree>
    <BinaryTree type="DecisionTree" boostWeight="1.0000000000000000e+00" itree="587">
      <Node pos="s" depth="0" NCoef="0" IVar="1" Cut="7.3719555139541626e-01" cType="1" res="1.6171513125300407e-02" rms="4.3750664591789246e-01" purity="5.1781398057937622e-01" nType="0">
        <Node pos="l" depth="1" NCoef="0" IVar="1" Cut="6.5058177709579468e-01" cType="1" res="6.2371242791414261e-02" rms="4.2300495505332947e-01" purity="6.4241302013397217e-01" nType="0">
          <Node pos="l" depth="2" NCoef="0" IVar="-1" Cut="0.0000000000000000e+00" cType="1" res="1.5262342058122158e-03" rms="4.1845178604125977e-01" purity="6.8496948480606079e-01" nType="-99"/>
          <Node pos="r" depth="2" NCoef="0" IVar="-1" Cut="0.0000000000000000e+00" cType="1" res="-7.0401898119598627e-04" rms="4.2395961284637451e-01" purity="4.8656824231147766e-01" nType="-99"/>
        </Node>
        <Node pos="r" depth="1" NCoef="0" IVar="5" Cut="1.9190718078613281e+02" cType="1" res="-6.0721603222191334e-03" rms="4.4260340929031372e-01" purity="4.5782360434532166e-01" nType="0">
          <Node pos="l" depth="2" NCoef="0" IVar="-1" Cut="0.0000000000000000e+00" cType="1" res="1.2882795999757946e-04" rms="4.4030067324638367e-01" purity="4.5869120955467224e-01" nType="-99"/>
          <Node pos="r" depth="2" NCoef="0" IVar="-1" Cut="0.0000000000000000e+00" cType="1" res="-1.4263743069022894e-03" rms="4.4792008399963379e-01" purity="4.5289689302444458e-01" nType="-99"/>
        </Node>
      </Node>
    </BinaryTree>
    <BinaryTree type="DecisionTree" boostWeight="1.0000000000000000e+00" itree="588">
      <Node pos="s" depth="0" NCoef="0" IVar="4" Cut="3.0713757324218750e+02" cType="1" res="2.3009596392512321e-02" rms="4.5048716664314270e-01" purity="5.1440781354904175e-01" nType="0">
        <Node pos="l" depth="1" NCoef="0" IVar="-1" Cut="0.0000000000000000e+00" cType="1" res="-1.9015178550034761e-03" rms="4.3054640293121338e-01" purity="2.2923400998115540e-01" nType="-99"/>
        <Node pos="r" depth="1" NCoef="0" IVar="5" Cut="1.4211108398437500e+02" cType="1" res="3.0648892745375633e-02" rms="4.5077297091484070e-01" purity="5.3360682725906372e-01" nType="0">
          <Node pos="l" depth="2" NCoef="0" IVar="-1" Cut="0.0000000000000000e+00" cType="1" res="9.7320438362658024e-04" rms="4.4673290848731995e-01" purity="5.3062617778778076e-01" nType="-99"/>
          <Node pos="r" depth="2" NCoef="0" IVar="-1" Cut="0.0000000000000000e+00" cType="1" res="-2.6438041822984815e-04" rms="4.5398581027984619e-01" purity="5.3876894712448120e-01" nType="-99"/>
        </Node>
      </Node>
    </BinaryTree>
    <BinaryTree type="DecisionTree" boostWeight="1.0000000000000000e+00" itree="589">
      <Node pos="s" depth="0" NCoef="0" IVar="2" Cut="9.0958327054977417e-01" cType="1" res="-1.0807418730109930e-03" rms="4.3961217999458313e-01" purity="4.8968198895454407e-01" nType="0">
        <Node pos="l" depth="1" NCoef="0" IVar="-1" Cut="0.0000000000000000e+00" cType="1" res="-2.4152698460966349e-03" rms="3.0497047305107117e-01" purity="1.2877851724624634e-01" nType="-99"/>
        <Node pos="r" depth="1" NCoef="0" IVar="4" Cut="8.0213104248046875e+02" cType="1" res="7.0656505413353443e-03" rms="4.4674566388130188e-01" purity="5.1596349477767944e-01" nType="0">
          <Node pos="l" depth="2" NCoef="0" IVar="-1" Cut="0.0000000000000000e+00" cType="1" res="-1.3279560334922280e-05" rms="4.4894394278526306e-01" purity="4.9890509247779846e-01" nType="-99"/>
          <Node pos="r" depth="2" NCoef="0" IVar="-1" Cut="0.0000000000000000e+00" cType="1" res="2.0514118950814009e-03" rms="3.9551961421966553e-01" purity="7.6667022705078125e-01" nType="-99"/>
        </Node>
      </Node>
    </BinaryTree>
    <BinaryTree type="DecisionTree" boostWeight="1.0000000000000000e+00" itree="590">
      <Node pos="s" depth="0" NCoef="0" IVar="2" Cut="9.7460317611694336e-01" cType="1" res="1.8053594976663589e-02" rms="4.3128365278244019e-01" purity="5.2613735198974609e-01" nType="0">
        <Node pos="l" depth="1" NCoef="0" IVar="3" Cut="1.4776184082031250e+02" cType="1" res="4.2966762557625771e-03" rms="4.4597342610359192e-01" purity="4.7084039449691772e-01" nType="0">
          <Node pos="l" depth="2" NCoef="0" IVar="-1" Cut="0.0000000000000000e+00" cType="1" res="1.5226870309561491e-03" rms="4.6687760949134827e-01" purity="4.9457284808158875e-01" nType="-99"/>
          <Node pos="r" depth="2" NCoef="0" IVar="-1" Cut="0.0000000000000000e+00" cType="1" res="-2.0111819321755320e-04" rms="4.4011369347572327e-01" purity="4.6645450592041016e-01" nType="-99"/>
        </Node>
        <Node pos="r" depth="1" NCoef="0" IVar="4" Cut="4.8766921997070312e+02" cType="1" res="1.0217548161745071e-01" rms="3.1459677219390869e-01" purity="8.6427134275436401e-01" nType="0">
          <Node pos="l" depth="2" NCoef="0" IVar="-1" Cut="0.0000000000000000e+00" cType="1" res="2.4432023055851460e-03" rms="3.0516973137855530e-01" purity="8.7231475114822388e-01" nType="-99"/>
          <Node pos="r" depth="2" NCoef="0" IVar="-1" Cut="0.0000000000000000e+00" cType="1" res="1.6004852950572968e-03" rms="3.2114395499229431e-01" purity="8.5666155815124512e-01" nType="-99"/>
        </Node>
      </Node>
    </BinaryTree>
    <BinaryTree type="DecisionTree" boostWeight="1.0000000000000000e+00" itree="591">
      <Node pos="s" depth="0" NCoef="0" IVar="4" Cut="3.1772201538085938e+02" cType="1" res="1.3545941561460495e-02" rms="4.4687455892562866e-01" purity="5.1141309738159180e-01" nType="0">
        <Node pos="l" depth="1" NCoef="0" IVar="-1" Cut="0.0000000000000000e+00" cType="1" res="-1.5423096483573318e-03" rms="3.8340356945991516e-01" purity="2.2700519859790802e-01" nType="-99"/>
        <Node pos="r" depth="1" NCoef="0" IVar="0" Cut="2.4478778076171875e+02" cType="1" res="2.1639678627252579e-02" rms="4.5132088661193848e-01" purity="5.3721684217453003e-01" nType="0">
          <Node pos="l" depth="2" NCoef="0" IVar="-1" Cut="0.0000000000000000e+00" cType="1" res="1.5063503524288535e-03" rms="4.7490441799163818e-01" purity="4.9150970578193665e-01" nType="-99"/>
          <Node pos="r" depth="2" NCoef="0" IVar="-1" Cut="0.0000000000000000e+00" cType="1" res="1.8649673438630998e-04" rms="4.4642457365989685e-01" purity="5.4478275775909424e-01" nType="-99"/>
        </Node>
      </Node>
    </BinaryTree>
    <BinaryTree type="DecisionTree" boostWeight="1.0000000000000000e+00" itree="592">
      <Node pos="s" depth="0" NCoef="0" IVar="2" Cut="9.7051370143890381e-01" cType="1" res="9.2966724187135696e-03" rms="4.4120109081268311e-01" purity="5.0076025724411011e-01" nType="0">
        <Node pos="l" depth="1" NCoef="0" IVar="4" Cut="7.0574066162109375e+02" cType="1" res="-5.0043240189552307e-03" rms="4.5220026373863220e-01" purity="4.2809131741523743e-01" nType="0">
          <Node pos="l" depth="2" NCoef="0" IVar="-1" Cut="0.0000000000000000e+00" cType="1" res="-3.1082823988981545e-04" rms="4.4991287589073181e-01" purity="4.0120509266853333e-01" nType="-99"/>
          <Node pos="r" depth="2" NCoef="0" IVar="-1" Cut="0.0000000000000000e+00" cType="1" res="1.6008990351110697e-03" rms="4.5674046874046326e-01" purity="6.5330058336257935e-01" nType="-99"/>
        </Node>
        <Node pos="r" depth="1" NCoef="0" IVar="6" Cut="7.5184023380279541e-01" cType="1" res="6.9562494754791260e-02" rms="3.8568639755249023e-01" purity="8.0699425935745239e-01" nType="0">
          <Node pos="l" depth="2" NCoef="0" IVar="-1" Cut="0.0000000000000000e+00" cType="1" res="1.9995609764009714e-03" rms="3.4610295295715332e-01" purity="8.6924725770950317e-01" nType="-99"/>
          <Node pos="r" depth="2" NCoef="0" IVar="-1" Cut="0.0000000000000000e+00" cType="1" res="3.4880917519330978e-04" rms="4.3463900685310364e-01" purity="7.1192014217376709e-01" nType="-99"/>
        </Node>
      </Node>
    </BinaryTree>
    <BinaryTree type="DecisionTree" boostWeight="1.0000000000000000e+00" itree="593">
      <Node pos="s" depth="0" NCoef="0" IVar="2" Cut="9.3150717020034790e-01" cType="1" res="-1.7770893871784210e-02" rms="4.4618025422096252e-01" purity="4.7778189182281494e-01" nType="0">
        <Node pos="l" depth="1" NCoef="0" IVar="1" Cut="9.4628423452377319e-01" cType="1" res="-7.3707267642021179e-02" rms="3.8764774799346924e-01" purity="2.1613168716430664e-01" nType="0">
          <Node pos="l" depth="2" NCoef="0" IVar="-1" Cut="0.0000000000000000e+00" cType="1" res="-2.0640937145799398e-03" rms="3.7662383913993835e-01" purity="2.0987114310264587e-01" nType="-99"/>
          <Node pos="r" depth="2" NCoef="0" IVar="-1" Cut="0.0000000000000000e+00" cType="1" res="-6.9381779758259654e-04" rms="3.9412337541580200e-01" purity="2.2232255339622498e-01" nType="-99"/>
        </Node>
        <Node pos="r" depth="1" NCoef="0" IVar="2" Cut="9.4581830501556396e-01" cType="1" res="9.9704635795205832e-04" rms="4.6265572309494019e-01" purity="5.6557154655456543e-01" nType="0">
          <Node pos="l" depth="2" NCoef="0" IVar="-1" Cut="0.0000000000000000e+00" cType="1" res="1.0336003033444285e-03" rms="4.7075420618057251e-01" purity="4.7897639870643616e-01" nType="-99"/>
          <Node pos="r" depth="2" NCoef="0" IVar="-1" Cut="0.0000000000000000e+00" cType="1" res="-4.1541052632965147e-04" rms="4.5695793628692627e-01" purity="5.9954708814620972e-01" nType="-99"/>
        </Node>
      </Node>
    </BinaryTree>
    <BinaryTree type="DecisionTree" boostWeight="1.0000000000000000e+00" itree="594">
      <Node pos="s" depth="0" NCoef="0" IVar="5" Cut="9.8491394042968750e+01" cType="1" res="4.8983809538185596e-03" rms="4.4411829113960266e-01" purity="4.9131050705909729e-01" nType="0">
        <Node pos="l" depth="1" NCoef="0" IVar="2" Cut="9.2322200536727905e-01" cType="1" res="-4.0406759828329086e-02" rms="4.2941129207611084e-01" purity="3.5295420885086060e-01" nType="0">
          <Node pos="l" depth="2" NCoef="0" IVar="-1" Cut="0.0000000000000000e+00" cType="1" res="-3.5489392466843128e-03" rms="2.0337629318237305e-01" purity="4.4067405164241791e-02" nType="-99"/>
          <Node pos="r" depth="2" NCoef="0" IVar="-1" Cut="0.0000000000000000e+00" cType="1" res="-3.7063070340082049e-04" rms="4.5682910084724426e-01" purity="4.1014122962951660e-01" nType="-99"/>
        </Node>
        <Node pos="r" depth="1" NCoef="0" IVar="3" Cut="1.8046945190429688e+02" cType="1" res="2.7545183897018433e-02" rms="4.4958207011222839e-01" purity="5.6047105789184570e-01" nType="0">
          <Node pos="l" depth="2" NCoef="0" IVar="-1" Cut="0.0000000000000000e+00" cType="1" res="-1.1046378640457988e-03" rms="4.6597766876220703e-01" purity="3.8112175464630127e-01" nType="-99"/>
          <Node pos="r" depth="2" NCoef="0" IVar="-1" Cut="0.0000000000000000e+00" cType="1" res="1.0186741128563881e-03" rms="4.3915501236915588e-01" purity="6.2322568893432617e-01" nType="-99"/>
        </Node>
      </Node>
    </BinaryTree>
    <BinaryTree type="DecisionTree" boostWeight="1.0000000000000000e+00" itree="595">
      <Node pos="s" depth="0" NCoef="0" IVar="0" Cut="5.6198394775390625e+02" cType="1" res="1.3218188658356667e-02" rms="4.4051542878150940e-01" purity="5.1092988252639771e-01" nType="0">
        <Node pos="l" depth="1" NCoef="0" IVar="1" Cut="7.2542232275009155e-01" cType="1" res="2.0346390083432198e-03" rms="4.4402971863746643e-01" purity="4.9091342091560364e-01" nType="0">
          <Node pos="l" depth="2" NCoef="0" IVar="-1" Cut="0.0000000000000000e+00" cType="1" res="8.4886839613318443e-04" rms="4.3073168396949768e-01" purity="6.1915457248687744e-01" nType="-99"/>
          <Node pos="r" depth="2" NCoef="0" IVar="-1" Cut="0.0000000000000000e+00" cType="1" res="-3.4779740963131189e-04" rms="4.4813379645347595e-01" purity="4.3326205015182495e-01" nType="-99"/>
        </Node>
        <Node pos="r" depth="1" NCoef="0" IVar="-1" Cut="0.0000000000000000e+00" cType="1" res="2.4326161947101355e-03" rms="3.7025651335716248e-01" purity="7.5160896778106689e-01" nType="-99"/>
      </Node>
    </BinaryTree>
    <BinaryTree type="DecisionTree" boostWeight="1.0000000000000000e+00" itree="596">
      <Node pos="s" depth="0" NCoef="0" IVar="3" Cut="2.0779588317871094e+02" cType="1" res="-8.1743858754634857e-03" rms="4.4028356671333313e-01" purity="4.9351295828819275e-01" nType="0">
        <Node pos="l" depth="1" NCoef="0" IVar="0" Cut="2.8800302124023438e+02" cType="1" res="-4.5611500740051270e-02" rms="4.5029982924461365e-01" purity="4.3227344751358032e-01" nType="0">
          <Node pos="l" depth="2" NCoef="0" IVar="-1" Cut="0.0000000000000000e+00" cType="1" res="2.7182861231267452e-04" rms="4.4937965273857117e-01" purity="4.8551893234252930e-01" nType="-99"/>
          <Node pos="r" depth="2" NCoef="0" IVar="-1" Cut="0.0000000000000000e+00" cType="1" res="-2.2376517299562693e-03" rms="4.3590378761291504e-01" purity="3.5308304429054260e-01" nType="-99"/>
        </Node>
        <Node pos="r" depth="1" NCoef="0" IVar="4" Cut="4.3749099731445312e+02" cType="1" res="2.8892926871776581e-02" rms="4.2691418528556824e-01" purity="5.5414754152297974e-01" nType="0">
          <Node pos="l" depth="2" NCoef="0" IVar="-1" Cut="0.0000000000000000e+00" cType="1" res="-7.4644212145358324e-04" rms="4.1904926300048828e-01" purity="3.7512201070785522e-01" nType="-99"/>
          <Node pos="r" depth="2" NCoef="0" IVar="-1" Cut="0.0000000000000000e+00" cType="1" res="1.0545511031523347e-03" rms="4.2669174075126648e-01" purity="6.3642424345016479e-01" nType="-99"/>
        </Node>
      </Node>
    </BinaryTree>
    <BinaryTree type="DecisionTree" boostWeight="1.0000000000000000e+00" itree="597">
      <Node pos="s" depth="0" NCoef="0" IVar="4" Cut="6.1506054687500000e+02" cType="1" res="7.8320940956473351e-03" rms="4.4184860587120056e-01" purity="4.9927240610122681e-01" nType="0">
        <Node pos="l" depth="1" NCoef="0" IVar="6" Cut="2.9729697108268738e-01" cType="1" res="-7.0411949418485165e-03" rms="4.3930596113204956e-01" purity="4.6043542027473450e-01" nType="0">
          <Node pos="l" depth="2" NCoef="0" IVar="-1" Cut="0.0000000000000000e+00" cType="1" res="1.4144228771328926e-03" rms="4.3086239695549011e-01" purity="6.3239353895187378e-01" nType="-99"/>
          <Node pos="r" depth="2" NCoef="0" IVar="-1" Cut="0.0000000000000000e+00" cType="1" res="-2.9036580235697329e-04" rms="4.3906703591346741e-01" purity="4.4300714135169983e-01" nType="-99"/>
        </Node>
        <Node pos="r" depth="1" NCoef="0" IVar="1" Cut="7.1032482385635376e-01" cType="1" res="7.2407722473144531e-02" rms="4.4702029228210449e-01" purity="6.6789180040359497e-01" nType="0">
          <Node pos="l" depth="2" NCoef="0" IVar="-1" Cut="0.0000000000000000e+00" cType="1" res="-3.6019831895828247e-04" rms="4.3637922406196594e-01" purity="6.3058364391326904e-01" nType="-99"/>
          <Node pos="r" depth="2" NCoef="0" IVar="-1" Cut="0.0000000000000000e+00" cType="1" res="2.2631720639765263e-03" rms="4.4263207912445068e-01" purity="6.9459748268127441e-01" nType="-99"/>
        </Node>
      </Node>
    </BinaryTree>
    <BinaryTree type="DecisionTree" boostWeight="1.0000000000000000e+00" itree="598">
      <Node pos="s" depth="0" NCoef="0" IVar="1" Cut="1.0730241537094116e+00" cType="1" res="-1.4535311609506607e-02" rms="4.3081548810005188e-01" purity="4.7737267613410950e-01" nType="0">
        <Node pos="l" depth="1" NCoef="0" IVar="3" Cut="1.9216798400878906e+02" cType="1" res="1.7981242388486862e-02" rms="4.3954801559448242e-01" purity="5.7501310110092163e-01" nType="0">
          <Node pos="l" depth="2" NCoef="0" IVar="-1" Cut="0.0000000000000000e+00" cType="1" res="-5.1823520334437490e-04" rms="4.3700250983238220e-01" purity="4.3552497029304504e-01" nType="-99"/>
          <Node pos="r" depth="2" NCoef="0" IVar="-1" Cut="0.0000000000000000e+00" cType="1" res="1.0824546916410327e-03" rms="4.3700304627418518e-01" purity="7.0580083131790161e-01" nType="-99"/>
        </Node>
        <Node pos="r" depth="1" NCoef="0" IVar="3" Cut="1.9100495910644531e+02" cType="1" res="-7.7105857431888580e-02" rms="4.0623512864112854e-01" purity="2.8948643803596497e-01" nType="0">
          <Node pos="l" depth="2" NCoef="0" IVar="-1" Cut="0.0000000000000000e+00" cType="1" res="-3.4194057807326317e-03" rms="3.3434796333312988e-01" purity="1.6747443377971649e-01" nType="-99"/>
          <Node pos="r" depth="2" NCoef="0" IVar="-1" Cut="0.0000000000000000e+00" cType="1" res="-8.4618222899734974e-04" rms="4.2348685860633850e-01" purity="3.3134403824806213e-01" nType="-99"/>
        </Node>
      </Node>
    </BinaryTree>
    <BinaryTree type="DecisionTree" boostWeight="1.0000000000000000e+00" itree="599">
      <Node pos="s" depth="0" NCoef="0" IVar="2" Cut="9.7961831092834473e-01" cType="1" res="-1.2958087027072906e-02" rms="4.3259266018867493e-01" purity="4.7136718034744263e-01" nType="0">
        <Node pos="l" depth="1" NCoef="0" IVar="1" Cut="1.6337294578552246e+00" cType="1" res="-2.3398185148835182e-02" rms="4.3843546509742737e-01" purity="4.3721020221710205e-01" nType="0">
          <Node pos="l" depth="2" NCoef="0" IVar="-1" Cut="0.0000000000000000e+00" cType="1" res="-2.1384650608524680e-04" rms="4.5099002122879028e-01" purity="4.7059473395347595e-01" nType="-99"/>
          <Node pos="r" depth="2" NCoef="0" IVar="-1" Cut="0.0000000000000000e+00" cType="1" res="-3.7255128845572472e-03" rms="2.2190891206264496e-01" purity="5.7514097541570663e-02" nType="-99"/>
        </Node>
        <Node pos="r" depth="1" NCoef="0" IVar="-1" Cut="0.0000000000000000e+00" cType="1" res="2.0572571083903313e-03" rms="3.3591780066490173e-01" purity="8.6462032794952393e-01" nType="-99"/>
      </Node>
    </BinaryTree>
    <BinaryTree type="DecisionTree" boostWeight="1.0000000000000000e+00" itree="600">
      <Node pos="s" depth="0" NCoef="0" IVar="3" Cut="2.2024368286132812e+02" cType="1" res="8.8307000696659088e-03" rms="4.4509187340736389e-01" purity="5.1040917634963989e-01" nType="0">
        <Node pos="l" depth="1" NCoef="0" IVar="5" Cut="1.3742047119140625e+02" cType="1" res="-3.2897774130105972e-02" rms="4.4744071364402771e-01" purity="4.4623088836669922e-01" nType="0">
          <Node pos="l" depth="2" NCoef="0" IVar="-1" Cut="0.0000000000000000e+00" cType="1" res="8.1296195276081562e-05" rms="4.4039729237556458e-01" purity="4.7411200404167175e-01" nType="-99"/>
          <Node pos="r" depth="2" NCoef="0" IVar="-1" Cut="0.0000000000000000e+00" cType="1" res="-2.5031391996890306e-03" rms="4.4837030768394470e-01" purity="3.5664841532707214e-01" nType="-99"/>
        </Node>
        <Node pos="r" depth="1" NCoef="0" IVar="1" Cut="1.2839077711105347e+00" cType="1" res="5.6671068072319031e-02" rms="4.3751373887062073e-01" purity="5.8398759365081787e-01" nType="0">
          <Node pos="l" depth="2" NCoef="0" IVar="-1" Cut="0.0000000000000000e+00" cType="1" res="1.6143904067575932e-03" rms="4.2732259631156921e-01" purity="7.3595505952835083e-01" nType="-99"/>
          <Node pos="r" depth="2" NCoef="0" IVar="-1" Cut="0.0000000000000000e+00" cType="1" res="-3.6686088424175978e-04" rms="4.4604650139808655e-01" purity="3.0197289586067200e-01" nType="-99"/>
        </Node>
      </Node>
    </BinaryTree>
    <BinaryTree type="DecisionTree" boostWeight="1.0000000000000000e+00" itree="601">
      <Node pos="s" depth="0" NCoef="0" IVar="6" Cut="1.1773337125778198e+00" cType="1" res="-2.5035362690687180e-02" rms="4.3559318780899048e-01" purity="4.7255894541740417e-01" nType="0">
        <Node pos="l" depth="1" NCoef="0" IVar="2" Cut="9.0957874059677124e-01" cType="1" res="-1.6444154083728790e-02" rms="4.3421059846878052e-01" purity="4.8519131541252136e-01" nType="0">
          <Node pos="l" depth="2" NCoef="0" IVar="-1" Cut="0.0000000000000000e+00" cType="1" res="-2.9141621198505163e-03" rms="2.9324737191200256e-01" purity="1.1340343207120895e-01" nType="-99"/>
          <Node pos="r" depth="2" NCoef="0" IVar="-1" Cut="0.0000000000000000e+00" cType="1" res="-1.1792674195021391e-04" rms="4.4232466816902161e-01" purity="5.1537168025970459e-01" nType="-99"/>
        </Node>
        <Node pos="r" depth="1" NCoef="0" IVar="-1" Cut="0.0000000000000000e+00" cType="1" res="-3.2509185839444399e-03" rms="4.3156895041465759e-01" purity="2.4605929851531982e-01" nType="-99"/>
      </Node>
    </BinaryTree>
    <BinaryTree type="DecisionTree" boostWeight="1.0000000000000000e+00" itree="602">
      <Node pos="s" depth="0" NCoef="0" IVar="3" Cut="4.1782446289062500e+02" cType="1" res="1.9681081175804138e-03" rms="4.2755535244941711e-01" purity="5.1530462503433228e-01" nType="0">
        <Node pos="l" depth="1" NCoef="0" IVar="5" Cut="6.9080986022949219e+01" cType="1" res="1.1053940281271935e-02" rms="4.2815992236137390e-01" purity="5.3213632106781006e-01" nType="0">
          <Node pos="l" depth="2" NCoef="0" IVar="-1" Cut="0.0000000000000000e+00" cType="1" res="2.2445833310484886e-03" rms="4.3253797292709351e-01" purity="4.9538967013359070e-01" nType="-99"/>
          <Node pos="r" depth="2" NCoef="0" IVar="-1" Cut="0.0000000000000000e+00" cType="1" res="4.5116453293303493e-06" rms="4.2615863680839539e-01" purity="5.3559178113937378e-01" nType="-99"/>
        </Node>
        <Node pos="r" depth="1" NCoef="0" IVar="-1" Cut="0.0000000000000000e+00" cType="1" res="-2.0499033853411674e-03" rms="4.0334123373031616e-01" purity="3.0667114257812500e-01" nType="-99"/>
      </Node>
    </BinaryTree>
    <BinaryTree type="DecisionTree" boostWeight="1.0000000000000000e+00" itree="603">
      <Node pos="s" depth="0" NCoef="0" IVar="3" Cut="1.2007131195068359e+02" cType="1" res="4.2310175485908985e-03" rms="4.3781417608261108e-01" purity="5.0376498699188232e-01" nType="0">
        <Node pos="l" depth="1" NCoef="0" IVar="-1" Cut="0.0000000000000000e+00" cType="1" res="-2.1646739915013313e-03" rms="4.0058827400207520e-01" purity="3.3574682474136353e-01" nType="-99"/>
        <Node pos="r" depth="1" NCoef="0" IVar="2" Cut="9.1161090135574341e-01" cType="1" res="1.1827314272522926e-02" rms="4.3889316916465759e-01" purity="5.1417982578277588e-01" nType="0">
          <Node pos="l" depth="2" NCoef="0" IVar="-1" Cut="0.0000000000000000e+00" cType="1" res="-2.2267566528171301e-03" rms="3.4257784485816956e-01" purity="1.3197448849678040e-01" nType="-99"/>
          <Node pos="r" depth="2" NCoef="0" IVar="-1" Cut="0.0000000000000000e+00" cType="1" res="3.3107199124060571e-04" rms="4.4376662373542786e-01" purity="5.4044586420059204e-01" nType="-99"/>
        </Node>
      </Node>
    </BinaryTree>
    <BinaryTree type="DecisionTree" boostWeight="1.0000000000000000e+00" itree="604">
      <Node pos="s" depth="0" NCoef="0" IVar="2" Cut="9.6539229154586792e-01" cType="1" res="-9.5148049294948578e-03" rms="4.3099704384803772e-01" purity="4.8634481430053711e-01" nType="0">
        <Node pos="l" depth="1" NCoef="0" IVar="3" Cut="2.0596708679199219e+02" cType="1" res="-3.0019260942935944e-02" rms="4.3763604760169983e-01" purity="3.9945089817047119e-01" nType="0">
          <Node pos="l" depth="2" NCoef="0" IVar="-1" Cut="0.0000000000000000e+00" cType="1" res="-1.2908922508358955e-03" rms="4.3940961360931396e-01" purity="3.1819245219230652e-01" nType="-99"/>
          <Node pos="r" depth="2" NCoef="0" IVar="-1" Cut="0.0000000000000000e+00" cType="1" res="1.4871210441924632e-04" rms="4.3240970373153687e-01" purity="4.7009620070457458e-01" nType="-99"/>
        </Node>
        <Node pos="r" depth="1" NCoef="0" IVar="3" Cut="2.3016574096679688e+02" cType="1" res="5.7058379054069519e-02" rms="4.0154424309730530e-01" purity="7.6846915483474731e-01" nType="0">
          <Node pos="l" depth="2" NCoef="0" IVar="-1" Cut="0.0000000000000000e+00" cType="1" res="1.7570175696164370e-03" rms="3.8664257526397705e-01" purity="8.0133509635925293e-01" nType="-99"/>
          <Node pos="r" depth="2" NCoef="0" IVar="-1" Cut="0.0000000000000000e+00" cType="1" res="-6.7695596953853965e-05" rms="4.1268503665924072e-01" purity="7.2513550519943237e-01" nType="-99"/>
        </Node>
      </Node>
    </BinaryTree>
    <BinaryTree type="DecisionTree" boostWeight="1.0000000000000000e+00" itree="605">
      <Node pos="s" depth="0" NCoef="0" IVar="2" Cut="9.8035454750061035e-01" cType="1" res="-1.8822540296241641e-03" rms="4.3319654464721680e-01" purity="4.8735707998275757e-01" nType="0">
        <Node pos="l" depth="1" NCoef="0" IVar="0" Cut="5.0042892456054688e+02" cType="1" res="-1.2782613746821880e-02" rms="4.4107204675674438e-01" purity="4.5195373892784119e-01" nType="0">
          <Node pos="l" depth="2" NCoef="0" IVar="-1" Cut="0.0000000000000000e+00" cType="1" res="-4.2134142131544650e-04" rms="4.4034975767135620e-01" purity="4.2618304491043091e-01" nType="-99"/>
          <Node pos="r" depth="2" NCoef="0" IVar="-1" Cut="0.0000000000000000e+00" cType="1" res="1.0977449128404260e-03" rms="4.3751323223114014e-01" purity="6.3601917028427124e-01" nType="-99"/>
        </Node>
        <Node pos="r" depth="1" NCoef="0" IVar="-1" Cut="0.0000000000000000e+00" cType="1" res="2.4522142484784126e-03" rms="3.0148991942405701e-01" purity="8.9631974697113037e-01" nType="-99"/>
      </Node>
    </BinaryTree>
    <BinaryTree type="DecisionTree" boostWeight="1.0000000000000000e+00" itree="606">
      <Node pos="s" depth="0" NCoef="0" IVar="2" Cut="9.8077297210693359e-01" cType="1" res="1.5858186408877373e-02" rms="4.4399064779281616e-01" purity="5.1279819011688232e-01" nType="0">
        <Node pos="l" depth="1" NCoef="0" IVar="4" Cut="6.9747131347656250e+02" cType="1" res="6.2720109708607197e-03" rms="4.5320832729339600e-01" purity="4.7970184683799744e-01" nType="0">
          <Node pos="l" depth="2" NCoef="0" IVar="-1" Cut="0.0000000000000000e+00" cType="1" res="-1.2136717123212293e-04" rms="4.5213395357131958e-01" purity="4.5186612010002136e-01" nType="-99"/>
          <Node pos="r" depth="2" NCoef="0" IVar="-1" Cut="0.0000000000000000e+00" cType="1" res="1.6164283733814955e-03" rms="4.4925373792648315e-01" purity="6.8422126770019531e-01" nType="-99"/>
        </Node>
        <Node pos="r" depth="1" NCoef="0" IVar="-1" Cut="0.0000000000000000e+00" cType="1" res="2.5678710080683231e-03" rms="2.9401978850364685e-01" purity="9.0086054801940918e-01" nType="-99"/>
      </Node>
    </BinaryTree>
    <BinaryTree type="DecisionTree" boostWeight="1.0000000000000000e+00" itree="607">
      <Node pos="s" depth="0" NCoef="0" IVar="1" Cut="1.2502900362014771e+00" cType="1" res="-1.1669786181300879e-03" rms="4.4045698642730713e-01" purity="4.9558183550834656e-01" nType="0">
        <Node pos="l" depth="1" NCoef="0" IVar="2" Cut="9.1799789667129517e-01" cType="1" res="1.4981055632233620e-02" rms="4.4691985845565796e-01" purity="5.5776321887969971e-01" nType="0">
          <Node pos="l" depth="2" NCoef="0" IVar="-1" Cut="0.0000000000000000e+00" cType="1" res="-1.4639120781794190e-03" rms="3.6081135272979736e-01" purity="1.9300329685211182e-01" nType="-99"/>
          <Node pos="r" depth="2" NCoef="0" IVar="-1" Cut="0.0000000000000000e+00" cType="1" res="4.2223307536914945e-04" rms="4.5531216263771057e-01" purity="6.0289263725280762e-01" nType="-99"/>
        </Node>
        <Node pos="r" depth="1" NCoef="0" IVar="1" Cut="1.5161668062210083e+00" cType="1" res="-5.7883311063051224e-02" rms="4.1197919845581055e-01" purity="2.7718368172645569e-01" nType="0">
          <Node pos="l" depth="2" NCoef="0" IVar="-1" Cut="0.0000000000000000e+00" cType="1" res="-1.6666239826008677e-03" rms="4.1832754015922546e-01" purity="2.9200685024261475e-01" nType="-99"/>
          <Node pos="r" depth="2" NCoef="0" IVar="-1" Cut="0.0000000000000000e+00" cType="1" res="-2.4285266408696771e-04" rms="3.9863827824592590e-01" purity="2.5736510753631592e-01" nType="-99"/>
        </Node>
      </Node>
    </BinaryTree>
    <BinaryTree type="DecisionTree" boostWeight="1.0000000000000000e+00" itree="608">
      <Node pos="s" depth="0" NCoef="0" IVar="0" Cut="5.0434570312500000e+02" cType="1" res="8.6326282471418381e-03" rms="4.4150325655937195e-01" purity="5.1004928350448608e-01" nType="0">
        <Node pos="l" depth="1" NCoef="0" IVar="5" Cut="1.7724864196777344e+02" cType="1" res="-1.6531357541680336e-03" rms="4.4156247377395630e-01" purity="4.8991480469703674e-01" nType="0">
          <Node pos="l" depth="2" NCoef="0" IVar="-1" Cut="0.0000000000000000e+00" cType="1" res="3.0630451510660350e-04" rms="4.3775463104248047e-01" purity="5.0319552421569824e-01" nType="-99"/>
          <Node pos="r" depth="2" NCoef="0" IVar="-1" Cut="0.0000000000000000e+00" cType="1" res="-2.8299021068960428e-03" rms="4.4084963202476501e-01" purity="3.8043114542961121e-01" nType="-99"/>
        </Node>
        <Node pos="r" depth="1" NCoef="0" IVar="-1" Cut="0.0000000000000000e+00" cType="1" res="1.6965746181085706e-03" rms="4.2986568808555603e-01" purity="6.9270062446594238e-01" nType="-99"/>
      </Node>
    </BinaryTree>
    <BinaryTree type="DecisionTree" boostWeight="1.0000000000000000e+00" itree="609">
      <Node pos="s" depth="0" NCoef="0" IVar="3" Cut="2.1536669921875000e+02" cType="1" res="8.1294104456901550e-03" rms="4.3540784716606140e-01" purity="5.0874996185302734e-01" nType="0">
        <Node pos="l" depth="1" NCoef="0" IVar="5" Cut="1.0937177276611328e+02" cType="1" res="-3.3326577395200729e-02" rms="4.4301861524581909e-01" purity="4.4962263107299805e-01" nType="0">
          <Node pos="l" depth="2" NCoef="0" IVar="-1" Cut="0.0000000000000000e+00" cType="1" res="2.4299661163240671e-04" rms="4.3527254462242126e-01" purity="4.7036966681480408e-01" nType="-99"/>
          <Node pos="r" depth="2" NCoef="0" IVar="-1" Cut="0.0000000000000000e+00" cType="1" res="-1.4576667454093695e-03" rms="4.4561067223548889e-01" purity="4.2614495754241943e-01" nType="-99"/>
        </Node>
        <Node pos="r" depth="1" NCoef="0" IVar="1" Cut="1.0089310407638550e+00" cType="1" res="5.2978716790676117e-02" rms="4.2246481776237488e-01" purity="5.7271701097488403e-01" nType="0">
          <Node pos="l" depth="2" NCoef="0" IVar="-1" Cut="0.0000000000000000e+00" cType="1" res="2.2525882814079523e-03" rms="3.8271823525428772e-01" purity="7.9989618062973022e-01" nType="-99"/>
          <Node pos="r" depth="2" NCoef="0" IVar="-1" Cut="0.0000000000000000e+00" cType="1" res="-2.2372405510395765e-04" rms="4.4133967161178589e-01" purity="3.8878324627876282e-01" nType="-99"/>
        </Node>
      </Node>
    </BinaryTree>
    <BinaryTree type="DecisionTree" boostWeight="1.0000000000000000e+00" itree="610">
      <Node pos="s" depth="0" NCoef="0" IVar="2" Cut="9.8131883144378662e-01" cType="1" res="-1.9603435066528618e-04" rms="4.3682315945625305e-01" purity="5.0319451093673706e-01" nType="0">
        <Node pos="l" depth="1" NCoef="0" IVar="2" Cut="9.1897469758987427e-01" cType="1" res="-1.5626903623342514e-02" rms="4.4845741987228394e-01" purity="4.6144601702690125e-01" nType="0">
          <Node pos="l" depth="2" NCoef="0" IVar="-1" Cut="0.0000000000000000e+00" cType="1" res="-2.2883981000632048e-03" rms="3.2073161005973816e-01" purity="1.4716871082782745e-01" nType="-99"/>
          <Node pos="r" depth="2" NCoef="0" IVar="-1" Cut="0.0000000000000000e+00" cType="1" res="-6.8547094997484237e-05" rms="4.6141079068183899e-01" purity="5.0281971693038940e-01" nType="-99"/>
        </Node>
        <Node pos="r" depth="1" NCoef="0" IVar="-1" Cut="0.0000000000000000e+00" cType="1" res="3.2679976429790258e-03" rms="2.3398227989673615e-01" purity="9.3931925296783447e-01" nType="-99"/>
      </Node>
    </BinaryTree>
    <BinaryTree type="DecisionTree" boostWeight="1.0000000000000000e+00" itree="611">
      <Node pos="s" depth="0" NCoef="0" IVar="6" Cut="1.1063678264617920e+00" cType="1" res="-9.4002401456236839e-03" rms="4.4460743665695190e-01" purity="4.9040311574935913e-01" nType="0">
        <Node pos="l" depth="1" NCoef="0" IVar="5" Cut="1.3768028259277344e+02" cType="1" res="-1.6672203317284584e-02" rms="4.4233208894729614e-01" purity="4.9299737811088562e-01" nType="0">
          <Node pos="l" depth="2" NCoef="0" IVar="-1" Cut="0.0000000000000000e+00" cType="1" res="5.4775639000581577e-05" rms="4.3448513746261597e-01" purity="4.8208475112915039e-01" nType="-99"/>
          <Node pos="r" depth="2" NCoef="0" IVar="-1" Cut="0.0000000000000000e+00" cType="1" res="-8.0880156019702554e-04" rms="4.5257195830345154e-01" purity="5.1000255346298218e-01" nType="-99"/>
        </Node>
        <Node pos="r" depth="1" NCoef="0" IVar="-1" Cut="0.0000000000000000e+00" cType="1" res="1.6043151263147593e-03" rms="4.6276232600212097e-01" purity="4.5726957917213440e-01" nType="-99"/>
      </Node>
    </BinaryTree>
    <BinaryTree type="DecisionTree" boostWeight="1.0000000000000000e+00" itree="612">
      <Node pos="s" depth="0" NCoef="0" IVar="1" Cut="6.4749729633331299e-01" cType="1" res="1.0595344007015228e-02" rms="4.4433456659317017e-01" purity="5.0354391336441040e-01" nType="0">
        <Node pos="l" depth="1" NCoef="0" IVar="3" Cut="2.2539285278320312e+02" cType="1" res="5.7637874037027359e-02" rms="4.3028625845909119e-01" purity="6.2351256608963013e-01" nType="0">
          <Node pos="l" depth="2" NCoef="0" IVar="-1" Cut="0.0000000000000000e+00" cType="1" res="3.0599886667914689e-04" rms="4.5975062251091003e-01" purity="5.3563386201858521e-01" nType="-99"/>
          <Node pos="r" depth="2" NCoef="0" IVar="-1" Cut="0.0000000000000000e+00" cType="1" res="3.0047339387238026e-03" rms="3.0537077784538269e-01" purity="8.7517660856246948e-01" nType="-99"/>
        </Node>
        <Node pos="r" depth="1" NCoef="0" IVar="3" Cut="1.7634921264648438e+02" cType="1" res="-4.5280545018613338e-03" rms="4.4770872592926025e-01" purity="4.6497592329978943e-01" nType="0">
          <Node pos="l" depth="2" NCoef="0" IVar="-1" Cut="0.0000000000000000e+00" cType="1" res="9.4204762717708945e-04" rms="4.6165668964385986e-01" purity="4.7168248891830444e-01" nType="-99"/>
          <Node pos="r" depth="2" NCoef="0" IVar="-1" Cut="0.0000000000000000e+00" cType="1" res="-4.6756752999499440e-04" rms="4.4035658240318298e-01" purity="4.6247452497482300e-01" nType="-99"/>
        </Node>
      </Node>
    </BinaryTree>
    <BinaryTree type="DecisionTree" boostWeight="1.0000000000000000e+00" itree="613">
      <Node pos="s" depth="0" NCoef="0" IVar="2" Cut="9.6017730236053467e-01" cType="1" res="-1.4315371401607990e-02" rms="4.3865808844566345e-01" purity="4.7289666533470154e-01" nType="0">
        <Node pos="l" depth="1" NCoef="0" IVar="2" Cut="9.5623093843460083e-01" cType="1" res="-3.6381352692842484e-02" rms="4.4426682591438293e-01" purity="3.5076054930686951e-01" nType="0">
          <Node pos="l" depth="2" NCoef="0" IVar="-1" Cut="0.0000000000000000e+00" cType="1" res="-3.7537704338319600e-04" rms="4.3709877133369446e-01" purity="3.4689706563949585e-01" nType="-99"/>
          <Node pos="r" depth="2" NCoef="0" IVar="-1" Cut="0.0000000000000000e+00" cType="1" res="-3.3262267243117094e-03" rms="4.8679855465888977e-01" purity="3.9480426907539368e-01" nType="-99"/>
        </Node>
        <Node pos="r" depth="1" NCoef="0" IVar="5" Cut="8.9175018310546875e+01" cType="1" res="3.3336956053972244e-02" rms="4.2237955331802368e-01" purity="7.3665428161621094e-01" nType="0">
          <Node pos="l" depth="2" NCoef="0" IVar="-1" Cut="0.0000000000000000e+00" cType="1" res="2.3258789442479610e-03" rms="3.7265032529830933e-01" purity="7.8267437219619751e-01" nType="-99"/>
          <Node pos="r" depth="2" NCoef="0" IVar="-1" Cut="0.0000000000000000e+00" cType="1" res="1.0666880552889779e-04" rms="4.2948073148727417e-01" purity="7.2518849372863770e-01" nType="-99"/>
        </Node>
      </Node>
    </BinaryTree>
    <BinaryTree type="DecisionTree" boostWeight="1.0000000000000000e+00" itree="614">
      <Node pos="s" depth="0" NCoef="0" IVar="5" Cut="2.2846635437011719e+02" cType="1" res="1.6637853696011007e-04" rms="4.3871369957923889e-01" purity="5.0643855333328247e-01" nType="0">
        <Node pos="l" depth="1" NCoef="0" IVar="4" Cut="3.5484603881835938e+02" cType="1" res="1.4648465439677238e-02" rms="4.3292900919914246e-01" purity="5.1030147075653076e-01" nType="0">
          <Node pos="l" depth="2" NCoef="0" IVar="-1" Cut="0.0000000000000000e+00" cType="1" res="-1.1661632452160120e-03" rms="4.1454488039016724e-01" purity="3.0448919534683228e-01" nType="-99"/>
          <Node pos="r" depth="2" NCoef="0" IVar="-1" Cut="0.0000000000000000e+00" cType="1" res="6.2170549063012004e-04" rms="4.3542140722274780e-01" purity="5.6678241491317749e-01" nType="-99"/>
        </Node>
        <Node pos="r" depth="1" NCoef="0" IVar="4" Cut="8.1084875488281250e+02" cType="1" res="-1.1104126274585724e-01" rms="4.6605867147445679e-01" purity="4.7677510976791382e-01" nType="0">
          <Node pos="l" depth="2" NCoef="0" IVar="-1" Cut="0.0000000000000000e+00" cType="1" res="-4.3037873692810535e-03" rms="4.3354925513267517e-01" purity="3.3444651961326599e-01" nType="-99"/>
          <Node pos="r" depth="2" NCoef="0" IVar="-1" Cut="0.0000000000000000e+00" cType="1" res="2.8869556263089180e-04" rms="4.6086093783378601e-01" purity="6.1574882268905640e-01" nType="-99"/>
        </Node>
      </Node>
    </BinaryTree>
    <BinaryTree type="DecisionTree" boostWeight="1.0000000000000000e+00" itree="615">
      <Node pos="s" depth="0" NCoef="0" IVar="2" Cut="9.2352920770645142e-01" cType="1" res="1.4218057505786419e-02" rms="4.3599027395248413e-01" purity="5.2134335041046143e-01" nType="0">
        <Node pos="l" depth="1" NCoef="0" IVar="5" Cut="1.1866072845458984e+02" cType="1" res="-8.2293793559074402e-02" rms="3.7480580806732178e-01" purity="1.7000643908977509e-01" nType="0">
          <Node pos="l" depth="2" NCoef="0" IVar="-1" Cut="0.0000000000000000e+00" cType="1" res="-2.3877299099694937e-04" rms="3.8375326991081238e-01" purity="1.9534198939800262e-01" nType="-99"/>
          <Node pos="r" depth="2" NCoef="0" IVar="-1" Cut="0.0000000000000000e+00" cType="1" res="-3.0202225316315889e-03" rms="3.5294809937477112e-01" purity="1.4609721302986145e-01" nType="-99"/>
        </Node>
        <Node pos="r" depth="1" NCoef="0" IVar="1" Cut="8.7362235784530640e-01" cType="1" res="3.0055711045861244e-02" rms="4.4322553277015686e-01" purity="5.7899796962738037e-01" nType="0">
          <Node pos="l" depth="2" NCoef="0" IVar="-1" Cut="0.0000000000000000e+00" cType="1" res="1.2524324702098966e-03" rms="4.3240854144096375e-01" purity="7.0670789480209351e-01" nType="-99"/>
          <Node pos="r" depth="2" NCoef="0" IVar="-1" Cut="0.0000000000000000e+00" cType="1" res="-2.2525126405525953e-04" rms="4.4887635111808777e-01" purity="4.5880499482154846e-01" nType="-99"/>
        </Node>
      </Node>
    </BinaryTree>
    <BinaryTree type="DecisionTree" boostWeight="1.0000000000000000e+00" itree="616">
      <Node pos="s" depth="0" NCoef="0" IVar="4" Cut="4.1692431640625000e+02" cType="1" res="2.6092305779457092e-02" rms="4.3530082702636719e-01" purity="5.2544260025024414e-01" nType="0">
        <Node pos="l" depth="1" NCoef="0" IVar="5" Cut="1.1384843444824219e+02" cType="1" res="-2.6536229997873306e-02" rms="4.3949368596076965e-01" purity="3.9158594608306885e-01" nType="0">
          <Node pos="l" depth="2" NCoef="0" IVar="-1" Cut="0.0000000000000000e+00" cType="1" res="-1.5801067638676614e-04" rms="4.3642714619636536e-01" purity="4.0886133909225464e-01" nType="-99"/>
          <Node pos="r" depth="2" NCoef="0" IVar="-1" Cut="0.0000000000000000e+00" cType="1" res="-2.4081072770059109e-03" rms="4.4328185915946960e-01" purity="2.9244780540466309e-01" nType="-99"/>
        </Node>
        <Node pos="r" depth="1" NCoef="0" IVar="6" Cut="6.7198866605758667e-01" cType="1" res="6.6620543599128723e-02" rms="4.2765259742736816e-01" purity="6.2852305173873901e-01" nType="0">
          <Node pos="l" depth="2" NCoef="0" IVar="-1" Cut="0.0000000000000000e+00" cType="1" res="6.1350560281425714e-04" rms="4.2003363370895386e-01" purity="6.3654983043670654e-01" nType="-99"/>
          <Node pos="r" depth="2" NCoef="0" IVar="-1" Cut="0.0000000000000000e+00" cType="1" res="1.8715189071372151e-03" rms="4.3453761935234070e-01" purity="6.1698561906814575e-01" nType="-99"/>
        </Node>
      </Node>
    </BinaryTree>
    <BinaryTree type="DecisionTree" boostWeight="1.0000000000000000e+00" itree="617">
      <Node pos="s" depth="0" NCoef="0" IVar="0" Cut="2.0287068176269531e+02" cType="1" res="-1.4711675234138966e-02" rms="4.4110640883445740e-01" purity="4.7969815135002136e-01" nType="0">
        <Node pos="l" depth="1" NCoef="0" IVar="-1" Cut="0.0000000000000000e+00" cType="1" res="-3.9940224960446358e-03" rms="2.7633178234100342e-01" purity="9.6536986529827118e-02" nType="-99"/>
        <Node pos="r" depth="1" NCoef="0" IVar="5" Cut="2.2950495910644531e+02" cType="1" res="-2.4679589550942183e-03" rms="4.4858384132385254e-01" purity="5.0826382637023926e-01" nType="0">
          <Node pos="l" depth="2" NCoef="0" IVar="-1" Cut="0.0000000000000000e+00" cType="1" res="7.3410054028499871e-05" rms="4.4753125309944153e-01" purity="5.0492167472839355e-01" nType="-99"/>
          <Node pos="r" depth="2" NCoef="0" IVar="-1" Cut="0.0000000000000000e+00" cType="1" res="-1.0780964512377977e-03" rms="4.5339387655258179e-01" purity="5.3722941875457764e-01" nType="-99"/>
        </Node>
      </Node>
    </BinaryTree>
    <BinaryTree type="DecisionTree" boostWeight="1.0000000000000000e+00" itree="618">
      <Node pos="s" depth="0" NCoef="0" IVar="2" Cut="9.3572700023651123e-01" cType="1" res="2.2401861846446991e-02" rms="4.3684163689613342e-01" purity="5.2293819189071655e-01" nType="0">
        <Node pos="l" depth="1" NCoef="0" IVar="4" Cut="4.0640551757812500e+02" cType="1" res="-2.9397349804639816e-02" rms="4.1587325930595398e-01" purity="2.7868062257766724e-01" nType="0">
          <Node pos="l" depth="2" NCoef="0" IVar="-1" Cut="0.0000000000000000e+00" cType="1" res="-2.0927095320075750e-03" rms="3.2505083084106445e-01" purity="1.3168527185916901e-01" nType="-99"/>
          <Node pos="r" depth="2" NCoef="0" IVar="-1" Cut="0.0000000000000000e+00" cType="1" res="1.9832112593576312e-04" rms="4.6180132031440735e-01" purity="3.7598019838333130e-01" nType="-99"/>
        </Node>
        <Node pos="r" depth="1" NCoef="0" IVar="6" Cut="4.8288679122924805e-01" cType="1" res="4.5931667089462280e-02" rms="4.4404974579811096e-01" purity="6.3389235734939575e-01" nType="0">
          <Node pos="l" depth="2" NCoef="0" IVar="-1" Cut="0.0000000000000000e+00" cType="1" res="1.7092387424781919e-03" rms="4.0854772925376892e-01" purity="7.4530524015426636e-01" nType="-99"/>
          <Node pos="r" depth="2" NCoef="0" IVar="-1" Cut="0.0000000000000000e+00" cType="1" res="2.8237135848030448e-04" rms="4.5829147100448608e-01" purity="5.7760107517242432e-01" nType="-99"/>
        </Node>
      </Node>
    </BinaryTree>
    <BinaryTree type="DecisionTree" boostWeight="1.0000000000000000e+00" itree="619">
      <Node pos="s" depth="0" NCoef="0" IVar="1" Cut="4.4197109341621399e-01" cType="1" res="3.4861523658037186e-02" rms="4.4069704413414001e-01" purity="5.2963030338287354e-01" nType="0">
        <Node pos="l" depth="1" NCoef="0" IVar="-1" Cut="0.0000000000000000e+00" cType="1" res="-1.3633258640766144e-03" rms="4.1806417703628540e-01" purity="5.1500105857849121e-01" nType="-99"/>
        <Node pos="r" depth="1" NCoef="0" IVar="6" Cut="1.0107396841049194e+00" cType="1" res="4.7239083796739578e-02" rms="4.4143989682197571e-01" purity="5.3126853704452515e-01" nType="0">
          <Node pos="l" depth="2" NCoef="0" IVar="-1" Cut="0.0000000000000000e+00" cType="1" res="1.0569636942818761e-03" rms="4.4668504595756531e-01" purity="5.6257289648056030e-01" nType="-99"/>
          <Node pos="r" depth="2" NCoef="0" IVar="-1" Cut="0.0000000000000000e+00" cType="1" res="-1.0557105997577310e-03" rms="3.9048567414283752e-01" purity="3.2813316583633423e-01" nType="-99"/>
        </Node>
      </Node>
    </BinaryTree>
    <BinaryTree type="DecisionTree" boostWeight="1.0000000000000000e+00" itree="620">
      <Node pos="s" depth="0" NCoef="0" IVar="1" Cut="1.0000275373458862e+00" cType="1" res="8.1591843627393246e-04" rms="4.4880673289299011e-01" purity="4.9794769287109375e-01" nType="0">
        <Node pos="l" depth="1" NCoef="0" IVar="2" Cut="9.7563654184341431e-01" cType="1" res="-2.5672055780887604e-02" rms="4.4513091444969177e-01" purity="5.3733557462692261e-01" nType="0">
          <Node pos="l" depth="2" NCoef="0" IVar="-1" Cut="0.0000000000000000e+00" cType="1" res="-7.3380791582167149e-04" rms="4.6113693714141846e-01" purity="4.8236116766929626e-01" nType="-99"/>
          <Node pos="r" depth="2" NCoef="0" IVar="-1" Cut="0.0000000000000000e+00" cType="1" res="2.1994540002197027e-03" rms="2.8853371739387512e-01" purity="9.0372604131698608e-01" nType="-99"/>
        </Node>
        <Node pos="r" depth="1" NCoef="0" IVar="3" Cut="3.0421084594726562e+02" cType="1" res="3.5097870975732803e-02" rms="4.5121720433235168e-01" purity="4.4697007536888123e-01" nType="0">
          <Node pos="l" depth="2" NCoef="0" IVar="-1" Cut="0.0000000000000000e+00" cType="1" res="1.1151955695822835e-03" rms="4.5056471228599548e-01" purity="4.8701620101928711e-01" nType="-99"/>
          <Node pos="r" depth="2" NCoef="0" IVar="-1" Cut="0.0000000000000000e+00" cType="1" res="-8.0544978845864534e-04" rms="4.4374102354049683e-01" purity="3.3982118964195251e-01" nType="-99"/>
        </Node>
      </Node>
    </BinaryTree>
    <BinaryTree type="DecisionTree" boostWeight="1.0000000000000000e+00" itree="621">
      <Node pos="s" depth="0" NCoef="0" IVar="4" Cut="3.1511917114257812e+02" cType="1" res="8.9169126003980637e-03" rms="4.5107972621917725e-01" purity="5.0547492504119873e-01" nType="0">
        <Node pos="l" depth="1" NCoef="0" IVar="-1" Cut="0.0000000000000000e+00" cType="1" res="-2.4855728261172771e-03" rms="3.9069229364395142e-01" purity="1.9068501889705658e-01" nType="-99"/>
        <Node pos="r" depth="1" NCoef="0" IVar="5" Cut="8.8262420654296875e+01" cType="1" res="1.9550221040844917e-02" rms="4.5394733548164368e-01" purity="5.3091192245483398e-01" nType="0">
          <Node pos="l" depth="2" NCoef="0" IVar="-1" Cut="0.0000000000000000e+00" cType="1" res="1.5952656976878643e-03" rms="4.4788068532943726e-01" purity="5.1800173521041870e-01" nType="-99"/>
          <Node pos="r" depth="2" NCoef="0" IVar="-1" Cut="0.0000000000000000e+00" cType="1" res="8.2718368503265083e-05" rms="4.5371460914611816e-01" purity="5.3348296880722046e-01" nType="-99"/>
        </Node>
      </Node>
    </BinaryTree>
    <BinaryTree type="DecisionTree" boostWeight="1.0000000000000000e+00" itree="622">
      <Node pos="s" depth="0" NCoef="0" IVar="0" Cut="2.0940931701660156e+02" cType="1" res="7.0414170622825623e-03" rms="4.3054741621017456e-01" purity="5.0967419147491455e-01" nType="0">
        <Node pos="l" depth="1" NCoef="0" IVar="-1" Cut="0.0000000000000000e+00" cType="1" res="-3.4492500126361847e-03" rms="3.1657186150550842e-01" purity="1.4492361247539520e-01" nType="-99"/>
        <Node pos="r" depth="1" NCoef="0" IVar="2" Cut="9.7519886493682861e-01" cType="1" res="1.9062457606196404e-02" rms="4.3518662452697754e-01" purity="5.3605514764785767e-01" nType="0">
          <Node pos="l" depth="2" NCoef="0" IVar="-1" Cut="0.0000000000000000e+00" cType="1" res="5.3038515034131706e-05" rms="4.5196187496185303e-01" purity="4.8061585426330566e-01" nType="-99"/>
          <Node pos="r" depth="2" NCoef="0" IVar="-1" Cut="0.0000000000000000e+00" cType="1" res="2.4734030012041330e-03" rms="2.8378307819366455e-01" purity="8.9592033624649048e-01" nType="-99"/>
        </Node>
      </Node>
    </BinaryTree>
    <BinaryTree type="DecisionTree" boostWeight="1.0000000000000000e+00" itree="623">
      <Node pos="s" depth="0" NCoef="0" IVar="6" Cut="6.6900116205215454e-01" cType="1" res="2.5008259341120720e-02" rms="4.4451799988746643e-01" purity="5.1075017452239990e-01" nType="0">
        <Node pos="l" depth="1" NCoef="0" IVar="3" Cut="1.8399241638183594e+02" cType="1" res="-2.6490684598684311e-02" rms="4.3072465062141418e-01" purity="5.0941413640975952e-01" nType="0">
          <Node pos="l" depth="2" NCoef="0" IVar="-1" Cut="0.0000000000000000e+00" cType="1" res="-1.6017651651054621e-03" rms="4.3394124507904053e-01" purity="3.5841017961502075e-01" nType="-99"/>
          <Node pos="r" depth="2" NCoef="0" IVar="-1" Cut="0.0000000000000000e+00" cType="1" res="2.9814874869771302e-04" rms="4.2298692464828491e-01" purity="6.0844314098358154e-01" nType="-99"/>
        </Node>
        <Node pos="r" depth="1" NCoef="0" IVar="5" Cut="7.1169212341308594e+01" cType="1" res="7.6979279518127441e-02" rms="4.5210835337638855e-01" purity="5.1209855079650879e-01" nType="0">
          <Node pos="l" depth="2" NCoef="0" IVar="-1" Cut="0.0000000000000000e+00" cType="1" res="4.4586132280528545e-03" rms="4.2749983072280884e-01" purity="5.3544169664382935e-01" nType="-99"/>
          <Node pos="r" depth="2" NCoef="0" IVar="-1" Cut="0.0000000000000000e+00" cType="1" res="9.7264238866046071e-04" rms="4.5131042599678040e-01" purity="5.0901800394058228e-01" nType="-99"/>
        </Node>
      </Node>
    </BinaryTree>
    <BinaryTree type="DecisionTree" boostWeight="1.0000000000000000e+00" itree="624">
      <Node pos="s" depth="0" NCoef="0" IVar="3" Cut="3.6279425048828125e+02" cType="1" res="7.4569876305758953e-03" rms="4.4623553752899170e-01" purity="5.1835107803344727e-01" nType="0">
        <Node pos="l" depth="1" NCoef="0" IVar="3" Cut="2.1981719970703125e+02" cType="1" res="2.2700944915413857e-02" rms="4.4912740588188171e-01" purity="5.4079192876815796e-01" nType="0">
          <Node pos="l" depth="2" NCoef="0" IVar="-1" Cut="0.0000000000000000e+00" cType="1" res="-1.5490272198803723e-04" rms="4.5117402076721191e-01" purity="4.7512736916542053e-01" nType="-99"/>
          <Node pos="r" depth="2" NCoef="0" IVar="-1" Cut="0.0000000000000000e+00" cType="1" res="1.2006049510091543e-03" rms="4.4199270009994507e-01" purity="6.3659602403640747e-01" nType="-99"/>
        </Node>
        <Node pos="r" depth="1" NCoef="0" IVar="3" Cut="4.5728897094726562e+02" cType="1" res="-1.1131314188241959e-01" rms="4.0377646684646606e-01" purity="3.4350818395614624e-01" nType="0">
          <Node pos="l" depth="2" NCoef="0" IVar="-1" Cut="0.0000000000000000e+00" cType="1" res="-1.2482346501201391e-03" rms="4.4313386082649231e-01" purity="4.4271564483642578e-01" nType="-99"/>
          <Node pos="r" depth="2" NCoef="0" IVar="-1" Cut="0.0000000000000000e+00" cType="1" res="-3.6082277074456215e-03" rms="3.4069553017616272e-01" purity="2.1664045751094818e-01" nType="-99"/>
        </Node>
      </Node>
    </BinaryTree>
    <BinaryTree type="DecisionTree" boostWeight="1.0000000000000000e+00" itree="625">
      <Node pos="s" depth="0" NCoef="0" IVar="1" Cut="1.4828642606735229e+00" cType="1" res="7.4230264872312546e-03" rms="4.3105834722518921e-01" purity="5.0427168607711792e-01" nType="0">
        <Node pos="l" depth="1" NCoef="0" IVar="3" Cut="1.3459661865234375e+02" cType="1" res="2.2049199789762497e-02" rms="4.4184708595275879e-01" purity="5.5380570888519287e-01" nType="0">
          <Node pos="l" depth="2" NCoef="0" IVar="-1" Cut="0.0000000000000000e+00" cType="1" res="-1.2234877794981003e-03" rms="4.0017989277839661e-01" purity="3.3532539010047913e-01" nType="-99"/>
          <Node pos="r" depth="2" NCoef="0" IVar="-1" Cut="0.0000000000000000e+00" cType="1" res="5.5102503392845392e-04" rms="4.4509828090667725e-01" purity="5.7849544286727905e-01" nType="-99"/>
        </Node>
        <Node pos="r" depth="1" NCoef="0" IVar="0" Cut="2.9613739013671875e+02" cType="1" res="-9.3099743127822876e-02" rms="3.3092483878135681e-01" purity="1.6383419930934906e-01" nType="0">
          <Node pos="l" depth="2" NCoef="0" IVar="-1" Cut="0.0000000000000000e+00" cType="1" res="-4.3398570269346237e-03" rms="2.3004345595836639e-01" purity="5.5892098695039749e-02" nType="-99"/>
          <Node pos="r" depth="2" NCoef="0" IVar="-1" Cut="0.0000000000000000e+00" cType="1" res="-5.5381172569468617e-04" rms="3.8456180691719055e-01" purity="2.5512334704399109e-01" nType="-99"/>
        </Node>
      </Node>
    </BinaryTree>
    <BinaryTree type="DecisionTree" boostWeight="1.0000000000000000e+00" itree="626">
      <Node pos="s" depth="0" NCoef="0" IVar="6" Cut="1.1188415288925171e+00" cType="1" res="2.2498503327369690e-02" rms="4.3860381841659546e-01" purity="5.1990312337875366e-01" nType="0">
        <Node pos="l" depth="1" NCoef="0" IVar="6" Cut="2.7580806612968445e-01" cType="1" res="3.1994089484214783e-02" rms="4.4055333733558655e-01" purity="5.4131698608398438e-01" nType="0">
          <Node pos="l" depth="2" NCoef="0" IVar="-1" Cut="0.0000000000000000e+00" cType="1" res="-1.2238140916451812e-03" rms="4.4569262862205505e-01" purity="4.3408313393592834e-01" nType="-99"/>
          <Node pos="r" depth="2" NCoef="0" IVar="-1" Cut="0.0000000000000000e+00" cType="1" res="6.7000737180933356e-04" rms="4.3929743766784668e-01" purity="5.4912072420120239e-01" nType="-99"/>
        </Node>
        <Node pos="r" depth="1" NCoef="0" IVar="-1" Cut="0.0000000000000000e+00" cType="1" res="-2.1495618857443333e-03" rms="3.9005765318870544e-01" purity="2.3365023732185364e-01" nType="-99"/>
      </Node>
    </BinaryTree>
    <BinaryTree type="DecisionTree" boostWeight="1.0000000000000000e+00" itree="627">
      <Node pos="s" depth="0" NCoef="0" IVar="1" Cut="9.5885497331619263e-01" cType="1" res="-1.4835831243544817e-03" rms="4.3952780961990356e-01" purity="5.0599926710128784e-01" nType="0">
        <Node pos="l" depth="1" NCoef="0" IVar="0" Cut="2.8172689819335938e+02" cType="1" res="2.3228313773870468e-02" rms="4.4420069456100464e-01" purity="5.9642761945724487e-01" nType="0">
          <Node pos="l" depth="2" NCoef="0" IVar="-1" Cut="0.0000000000000000e+00" cType="1" res="1.4079289976507425e-03" rms="4.3394017219543457e-01" purity="5.6625241041183472e-01" nType="-99"/>
          <Node pos="r" depth="2" NCoef="0" IVar="-1" Cut="0.0000000000000000e+00" cType="1" res="-2.1402446145657450e-04" rms="4.4573694467544556e-01" purity="6.1298274993896484e-01" nType="-99"/>
        </Node>
        <Node pos="r" depth="1" NCoef="0" IVar="4" Cut="4.5645336914062500e+02" cType="1" res="-3.3329177647829056e-02" rms="4.3134894967079163e-01" purity="3.8946658372879028e-01" nType="0">
          <Node pos="l" depth="2" NCoef="0" IVar="-1" Cut="0.0000000000000000e+00" cType="1" res="-1.5411416534334421e-03" rms="4.1271606087684631e-01" purity="3.0152916908264160e-01" nType="-99"/>
          <Node pos="r" depth="2" NCoef="0" IVar="-1" Cut="0.0000000000000000e+00" cType="1" res="7.3078036075457931e-04" rms="4.4833284616470337e-01" purity="5.2695423364639282e-01" nType="-99"/>
        </Node>
      </Node>
    </BinaryTree>
    <BinaryTree type="DecisionTree" boostWeight="1.0000000000000000e+00" itree="628">
      <Node pos="s" depth="0" NCoef="0" IVar="1" Cut="1.7124882936477661e+00" cType="1" res="8.4315398707985878e-03" rms="4.4264045357704163e-01" purity="4.9967887997627258e-01" nType="0">
        <Node pos="l" depth="1" NCoef="0" IVar="5" Cut="8.5368957519531250e+01" cType="1" res="1.6540747135877609e-02" rms="4.4984978437423706e-01" purity="5.2337688207626343e-01" nType="0">
          <Node pos="l" depth="2" NCoef="0" IVar="-1" Cut="0.0000000000000000e+00" cType="1" res="1.4573620865121484e-03" rms="4.5545867085456848e-01" purity="4.7893789410591125e-01" nType="-99"/>
          <Node pos="r" depth="2" NCoef="0" IVar="-1" Cut="0.0000000000000000e+00" cType="1" res="9.2628188212984242e-06" rms="4.4701877236366272e-01" purity="5.3404998779296875e-01" nType="-99"/>
        </Node>
        <Node pos="r" depth="1" NCoef="0" IVar="-1" Cut="0.0000000000000000e+00" cType="1" res="-3.3432024065405130e-03" rms="2.4982422590255737e-01" purity="8.5962697863578796e-02" nType="-99"/>
      </Node>
    </BinaryTree>
    <BinaryTree type="DecisionTree" boostWeight="1.0000000000000000e+00" itree="629">
      <Node pos="s" depth="0" NCoef="0" IVar="3" Cut="2.2463082885742188e+02" cType="1" res="-1.9138514995574951e-02" rms="4.3280130624771118e-01" purity="4.7638368606567383e-01" nType="0">
        <Node pos="l" depth="1" NCoef="0" IVar="6" Cut="3.7466546893119812e-01" cType="1" res="-5.5800005793571472e-02" rms="4.4282189011573792e-01" purity="4.1590747237205505e-01" nType="0">
          <Node pos="l" depth="2" NCoef="0" IVar="-1" Cut="0.0000000000000000e+00" cType="1" res="9.5652457093819976e-04" rms="4.6102127432823181e-01" purity="5.8758527040481567e-01" nType="-99"/>
          <Node pos="r" depth="2" NCoef="0" IVar="-1" Cut="0.0000000000000000e+00" cType="1" res="-1.4189929934218526e-03" rms="4.3513506650924683e-01" purity="3.7956523895263672e-01" nType="-99"/>
        </Node>
        <Node pos="r" depth="1" NCoef="0" IVar="1" Cut="8.9909702539443970e-01" cType="1" res="2.8010440990328789e-02" rms="4.1482663154602051e-01" purity="5.5415982007980347e-01" nType="0">
          <Node pos="l" depth="2" NCoef="0" IVar="-1" Cut="0.0000000000000000e+00" cType="1" res="1.6835849964991212e-03" rms="3.6980122327804565e-01" purity="8.1907004117965698e-01" nType="-99"/>
          <Node pos="r" depth="2" NCoef="0" IVar="-1" Cut="0.0000000000000000e+00" cType="1" res="-4.3345240555936471e-05" rms="4.3229383230209351e-01" purity="4.2228659987449646e-01" nType="-99"/>
        </Node>
      </Node>
    </BinaryTree>
    <BinaryTree type="DecisionTree" boostWeight="1.0000000000000000e+00" itree="630">
      <Node pos="s" depth="0" NCoef="0" IVar="4" Cut="4.1964160156250000e+02" cType="1" res="5.7841753587126732e-03" rms="4.3683093786239624e-01" purity="5.1292943954467773e-01" nType="0">
        <Node pos="l" depth="1" NCoef="0" IVar="2" Cut="9.4828814268112183e-01" cType="1" res="-5.3155027329921722e-02" rms="4.1216814517974854e-01" purity="3.6707612872123718e-01" nType="0">
          <Node pos="l" depth="2" NCoef="0" IVar="-1" Cut="0.0000000000000000e+00" cType="1" res="-2.6045492850244045e-03" rms="3.3502212166786194e-01" purity="1.3311466574668884e-01" nType="-99"/>
          <Node pos="r" depth="2" NCoef="0" IVar="-1" Cut="0.0000000000000000e+00" cType="1" res="1.9196688663214445e-04" rms="4.6335068345069885e-01" purity="5.8456778526306152e-01" nType="-99"/>
        </Node>
        <Node pos="r" depth="1" NCoef="0" IVar="3" Cut="2.0165185546875000e+02" cType="1" res="3.9664555341005325e-02" rms="4.4689238071441650e-01" purity="5.9677118062973022e-01" nType="0">
          <Node pos="l" depth="2" NCoef="0" IVar="-1" Cut="0.0000000000000000e+00" cType="1" res="-5.3295824909582734e-04" rms="4.5853409171104431e-01" purity="4.8649960756301880e-01" nType="-99"/>
          <Node pos="r" depth="2" NCoef="0" IVar="-1" Cut="0.0000000000000000e+00" cType="1" res="1.2827393366023898e-03" rms="4.3680647015571594e-01" purity="6.5080022811889648e-01" nType="-99"/>
        </Node>
      </Node>
    </BinaryTree>
    <BinaryTree type="DecisionTree" boostWeight="1.0000000000000000e+00" itree="631">
      <Node pos="s" depth="0" NCoef="0" IVar="5" Cut="1.9713275146484375e+02" cType="1" res="2.2342065349221230e-03" rms="4.4522589445114136e-01" purity="4.9268525838851929e-01" nType="0">
        <Node pos="l" depth="1" NCoef="0" IVar="4" Cut="4.2886621093750000e+02" cType="1" res="2.0900601521134377e-02" rms="4.3990689516067505e-01" purity="4.9401837587356567e-01" nType="0">
          <Node pos="l" depth="2" NCoef="0" IVar="-1" Cut="0.0000000000000000e+00" cType="1" res="-2.6938860537484288e-04" rms="4.4220706820487976e-01" purity="3.9614588022232056e-01" nType="-99"/>
          <Node pos="r" depth="2" NCoef="0" IVar="-1" Cut="0.0000000000000000e+00" cType="1" res="9.7797822672873735e-04" rms="4.3440946936607361e-01" purity="5.9524017572402954e-01" nType="-99"/>
        </Node>
        <Node pos="r" depth="1" NCoef="0" IVar="3" Cut="2.8728472900390625e+02" cType="1" res="-9.6465520560741425e-02" rms="4.5993062853813171e-01" purity="4.8563638329505920e-01" nType="0">
          <Node pos="l" depth="2" NCoef="0" IVar="-1" Cut="0.0000000000000000e+00" cType="1" res="-3.6393441259860992e-03" rms="4.5056483149528503e-01" purity="3.8782614469528198e-01" nType="-99"/>
          <Node pos="r" depth="2" NCoef="0" IVar="-1" Cut="0.0000000000000000e+00" cType="1" res="-7.1119116910267621e-05" rms="4.4650506973266602e-01" purity="5.6469696760177612e-01" nType="-99"/>
        </Node>
      </Node>
    </BinaryTree>
    <BinaryTree type="DecisionTree" boostWeight="1.0000000000000000e+00" itree="632">
      <Node pos="s" depth="0" NCoef="0" IVar="6" Cut="7.8221893310546875e-01" cType="1" res="-7.0973583497107029e-03" rms="4.4794487953186035e-01" purity="4.8365750908851624e-01" nType="0">
        <Node pos="l" depth="1" NCoef="0" IVar="6" Cut="2.6703801751136780e-01" cType="1" res="-3.4304708242416382e-02" rms="4.3469452857971191e-01" purity="4.9195522069931030e-01" nType="0">
          <Node pos="l" depth="2" NCoef="0" IVar="-1" Cut="0.0000000000000000e+00" cType="1" res="1.1435172054916620e-03" rms="3.6797112226486206e-01" purity="6.4173334836959839e-01" nType="-99"/>
          <Node pos="r" depth="2" NCoef="0" IVar="-1" Cut="0.0000000000000000e+00" cType="1" res="-7.9497258411720395e-04" rms="4.4044804573059082e-01" purity="4.7404450178146362e-01" nType="-99"/>
        </Node>
        <Node pos="r" depth="1" NCoef="0" IVar="3" Cut="3.0681808471679688e+02" cType="1" res="3.9337553083896637e-02" rms="4.6604230999946594e-01" purity="4.6949580311775208e-01" nType="0">
          <Node pos="l" depth="2" NCoef="0" IVar="-1" Cut="0.0000000000000000e+00" cType="1" res="1.0603407863527536e-03" rms="4.7536715865135193e-01" purity="5.0833868980407715e-01" nType="-99"/>
          <Node pos="r" depth="2" NCoef="0" IVar="-1" Cut="0.0000000000000000e+00" cType="1" res="-5.0162570551037788e-04" rms="4.3228015303611755e-01" purity="3.6045455932617188e-01" nType="-99"/>
        </Node>
      </Node>
    </BinaryTree>
    <BinaryTree type="DecisionTree" boostWeight="1.0000000000000000e+00" itree="633">
      <Node pos="s" depth="0" NCoef="0" IVar="4" Cut="7.2042266845703125e+02" cType="1" res="1.7661128193140030e-02" rms="4.4322872161865234e-01" purity="5.1857572793960571e-01" nType="0">
        <Node pos="l" depth="1" NCoef="0" IVar="6" Cut="9.4713896512985229e-01" cType="1" res="6.3386540859937668e-03" rms="4.4308295845985413e-01" purity="4.9682840704917908e-01" nType="0">
          <Node pos="l" depth="2" NCoef="0" IVar="-1" Cut="0.0000000000000000e+00" cType="1" res="-1.8852407811209559e-04" rms="4.3806013464927673e-01" purity="5.0557219982147217e-01" nType="-99"/>
          <Node pos="r" depth="2" NCoef="0" IVar="-1" Cut="0.0000000000000000e+00" cType="1" res="1.4026805292814970e-03" rms="4.5644077658653259e-01" purity="4.6090841293334961e-01" nType="-99"/>
        </Node>
        <Node pos="r" depth="1" NCoef="0" IVar="-1" Cut="0.0000000000000000e+00" cType="1" res="2.0606373436748981e-03" rms="4.2913052439689636e-01" purity="7.3166632652282715e-01" nType="-99"/>
      </Node>
    </BinaryTree>
    <BinaryTree type="DecisionTree" boostWeight="1.0000000000000000e+00" itree="634">
      <Node pos="s" depth="0" NCoef="0" IVar="1" Cut="1.7201590538024902e+00" cType="1" res="2.0701961591839790e-02" rms="4.3380784988403320e-01" purity="5.2391952276229858e-01" nType="0">
        <Node pos="l" depth="1" NCoef="0" IVar="3" Cut="1.8665417480468750e+02" cType="1" res="2.9205428436398506e-02" rms="4.4090986251831055e-01" purity="5.4950249195098877e-01" nType="0">
          <Node pos="l" depth="2" NCoef="0" IVar="-1" Cut="0.0000000000000000e+00" cType="1" res="-5.9638143284246325e-05" rms="4.4893795251846313e-01" purity="4.4642505049705505e-01" nType="-99"/>
          <Node pos="r" depth="2" NCoef="0" IVar="-1" Cut="0.0000000000000000e+00" cType="1" res="8.9664972620084882e-04" rms="4.3355402350425720e-01" purity="6.2327706813812256e-01" nType="-99"/>
        </Node>
        <Node pos="r" depth="1" NCoef="0" IVar="-1" Cut="0.0000000000000000e+00" cType="1" res="-3.2296383287757635e-03" rms="2.4799518287181854e-01" purity="9.2076905071735382e-02" nType="-99"/>
      </Node>
    </BinaryTree>
    <BinaryTree type="DecisionTree" boostWeight="1.0000000000000000e+00" itree="635">
      <Node pos="s" depth="0" NCoef="0" IVar="2" Cut="9.6933382749557495e-01" cType="1" res="-9.1178808361291885e-03" rms="4.4132497906684875e-01" purity="4.7720858454704285e-01" nType="0">
        <Node pos="l" depth="1" NCoef="0" IVar="4" Cut="7.1011895751953125e+02" cType="1" res="-2.3776385933160782e-02" rms="4.5078617334365845e-01" purity="4.0881392359733582e-01" nType="0">
          <Node pos="l" depth="2" NCoef="0" IVar="-1" Cut="0.0000000000000000e+00" cType="1" res="-5.5046292254701257e-04" rms="4.5077213644981384e-01" purity="3.8737657666206360e-01" nType="-99"/>
          <Node pos="r" depth="2" NCoef="0" IVar="-1" Cut="0.0000000000000000e+00" cType="1" res="1.0248279431834817e-03" rms="4.4178402423858643e-01" purity="6.3909071683883667e-01" nType="-99"/>
        </Node>
        <Node pos="r" depth="1" NCoef="0" IVar="1" Cut="8.6599755287170410e-01" cType="1" res="5.8514885604381561e-02" rms="3.8763234019279480e-01" purity="7.9277408123016357e-01" nType="0">
          <Node pos="l" depth="2" NCoef="0" IVar="-1" Cut="0.0000000000000000e+00" cType="1" res="2.3748599924147129e-03" rms="2.8931668400764465e-01" purity="9.0798777341842651e-01" nType="-99"/>
          <Node pos="r" depth="2" NCoef="0" IVar="-1" Cut="0.0000000000000000e+00" cType="1" res="6.2421466282103211e-05" rms="4.5993092656135559e-01" purity="6.7633926868438721e-01" nType="-99"/>
        </Node>
      </Node>
    </BinaryTree>
    <BinaryTree type="DecisionTree" boostWeight="1.0000000000000000e+00" itree="636">
      <Node pos="s" depth="0" NCoef="0" IVar="6" Cut="9.4644016027450562e-01" cType="1" res="2.7918992564082146e-02" rms="4.3884450197219849e-01" purity="5.2525478601455688e-01" nType="0">
        <Node pos="l" depth="1" NCoef="0" IVar="4" Cut="7.3216864013671875e+02" cType="1" res="4.3308842927217484e-02" rms="4.3962347507476807e-01" purity="5.5606585741043091e-01" nType="0">
          <Node pos="l" depth="2" NCoef="0" IVar="-1" Cut="0.0000000000000000e+00" cType="1" res="5.3587363800033927e-04" rms="4.3993315100669861e-01" purity="5.3103905916213989e-01" nType="-99"/>
          <Node pos="r" depth="2" NCoef="0" IVar="-1" Cut="0.0000000000000000e+00" cType="1" res="2.3267257492989302e-03" rms="4.2493477463722229e-01" purity="7.5462085008621216e-01" nType="-99"/>
        </Node>
        <Node pos="r" depth="1" NCoef="0" IVar="5" Cut="1.0874269104003906e+02" cType="1" res="-5.8173853904008865e-02" rms="4.2428717017173767e-01" purity="3.5289373993873596e-01" nType="0">
          <Node pos="l" depth="2" NCoef="0" IVar="-1" Cut="0.0000000000000000e+00" cType="1" res="-2.3046932183206081e-03" rms="3.5988500714302063e-01" purity="2.3706652224063873e-01" nType="-99"/>
          <Node pos="r" depth="2" NCoef="0" IVar="-1" Cut="0.0000000000000000e+00" cType="1" res="-1.4629315410275012e-04" rms="4.6601149439811707e-01" purity="4.5056211948394775e-01" nType="-99"/>
        </Node>
      </Node>
    </BinaryTree>
    <BinaryTree type="DecisionTree" boostWeight="1.0000000000000000e+00" itree="637">
      <Node pos="s" depth="0" NCoef="0" IVar="4" Cut="3.4664492797851562e+02" cType="1" res="-2.0264515653252602e-02" rms="4.3941274285316467e-01" purity="4.7508266568183899e-01" nType="0">
        <Node pos="l" depth="1" NCoef="0" IVar="5" Cut="7.0384857177734375e+01" cType="1" res="-1.1666333675384521e-01" rms="3.8591989874839783e-01" purity="2.2819012403488159e-01" nType="0">
          <Node pos="l" depth="2" NCoef="0" IVar="-1" Cut="0.0000000000000000e+00" cType="1" res="-4.7018399345688522e-04" rms="3.9397248625755310e-01" purity="2.9010534286499023e-01" nType="-99"/>
          <Node pos="r" depth="2" NCoef="0" IVar="-1" Cut="0.0000000000000000e+00" cType="1" res="-3.3164347987622023e-03" rms="3.7210366129875183e-01" purity="1.9495841860771179e-01" nType="-99"/>
        </Node>
        <Node pos="r" depth="1" NCoef="0" IVar="4" Cut="4.7800634765625000e+02" cType="1" res="-5.3720560390502214e-04" rms="4.4702073931694031e-01" purity="5.2560740709304810e-01" nType="0">
          <Node pos="l" depth="2" NCoef="0" IVar="-1" Cut="0.0000000000000000e+00" cType="1" res="-4.6947385999374092e-04" rms="4.3386656045913696e-01" purity="4.4726750254631042e-01" nType="-99"/>
          <Node pos="r" depth="2" NCoef="0" IVar="-1" Cut="0.0000000000000000e+00" cType="1" res="4.0455986163578928e-04" rms="4.5761880278587341e-01" purity="5.9896111488342285e-01" nType="-99"/>
        </Node>
      </Node>
    </BinaryTree>
    <BinaryTree type="DecisionTree" boostWeight="1.0000000000000000e+00" itree="638">
      <Node pos="s" depth="0" NCoef="0" IVar="6" Cut="9.1372764110565186e-01" cType="1" res="1.3146019773557782e-04" rms="4.4086134433746338e-01" purity="5.0859630107879639e-01" nType="0">
        <Node pos="l" depth="1" NCoef="0" IVar="1" Cut="7.9841148853302002e-01" cType="1" res="-1.6666853800415993e-02" rms="4.3457335233688354e-01" purity="5.1628071069717407e-01" nType="0">
          <Node pos="l" depth="2" NCoef="0" IVar="-1" Cut="0.0000000000000000e+00" cType="1" res="5.3657841635867953e-04" rms="4.2985060811042786e-01" purity="6.3412910699844360e-01" nType="-99"/>
          <Node pos="r" depth="2" NCoef="0" IVar="-1" Cut="0.0000000000000000e+00" cType="1" res="-1.1453784536570311e-03" rms="4.3399286270141602e-01" purity="3.9783108234405518e-01" nType="-99"/>
        </Node>
        <Node pos="r" depth="1" NCoef="0" IVar="3" Cut="3.0913110351562500e+02" cType="1" res="6.0563050210475922e-02" rms="4.5770594477653503e-01" purity="4.8095181584358215e-01" nType="0">
          <Node pos="l" depth="2" NCoef="0" IVar="-1" Cut="0.0000000000000000e+00" cType="1" res="1.9938682671636343e-03" rms="4.7620618343353271e-01" purity="5.5769324302673340e-01" nType="-99"/>
          <Node pos="r" depth="2" NCoef="0" IVar="-1" Cut="0.0000000000000000e+00" cType="1" res="-1.8176786834374070e-03" rms="3.6278089880943298e-01" purity="2.6781129837036133e-01" nType="-99"/>
        </Node>
      </Node>
    </BinaryTree>
    <BinaryTree type="DecisionTree" boostWeight="1.0000000000000000e+00" itree="639">
      <Node pos="s" depth="0" NCoef="0" IVar="6" Cut="3.1049928069114685e-01" cType="1" res="-1.6616184264421463e-02" rms="4.4336959719657898e-01" purity="4.6828028559684753e-01" nType="0">
        <Node pos="l" depth="1" NCoef="0" IVar="-1" Cut="0.0000000000000000e+00" cType="1" res="-2.5376384146511555e-03" rms="4.4514331221580505e-01" purity="4.3328848481178284e-01" nType="-99"/>
        <Node pos="r" depth="1" NCoef="0" IVar="2" Cut="9.7539097070693970e-01" cType="1" res="-4.9529927782714367e-03" rms="4.4143068790435791e-01" purity="4.7160995006561279e-01" nType="0">
          <Node pos="l" depth="2" NCoef="0" IVar="-1" Cut="0.0000000000000000e+00" cType="1" res="-3.1274874345399439e-04" rms="4.5124420523643494e-01" purity="4.2499902844429016e-01" nType="-99"/>
          <Node pos="r" depth="2" NCoef="0" IVar="-1" Cut="0.0000000000000000e+00" cType="1" res="1.9173747859895229e-03" rms="3.3481398224830627e-01" purity="8.4764206409454346e-01" nType="-99"/>
        </Node>
      </Node>
    </BinaryTree>
    <BinaryTree type="DecisionTree" boostWeight="1.0000000000000000e+00" itree="640">
      <Node pos="s" depth="0" NCoef="0" IVar="4" Cut="3.3863940429687500e+02" cType="1" res="7.8830076381564140e-03" rms="4.2426535487174988e-01" purity="5.0031977891921997e-01" nType="0">
        <Node pos="l" depth="1" NCoef="0" IVar="5" Cut="7.8818542480468750e+01" cType="1" res="-1.1212660372257233e-01" rms="3.5007753968238831e-01" purity="1.9902049005031586e-01" nType="0">
          <Node pos="l" depth="2" NCoef="0" IVar="-1" Cut="0.0000000000000000e+00" cType="1" res="-8.9889502851292491e-04" rms="3.5408282279968262e-01" purity="2.5130751729011536e-01" nType="-99"/>
          <Node pos="r" depth="2" NCoef="0" IVar="-1" Cut="0.0000000000000000e+00" cType="1" res="-4.0033124387264252e-03" rms="3.2581475377082825e-01" purity="1.3264572620391846e-01" nType="-99"/>
        </Node>
        <Node pos="r" depth="1" NCoef="0" IVar="1" Cut="1.3641601800918579e+00" cType="1" res="2.5260435417294502e-02" rms="4.3119829893112183e-01" purity="5.4394799470901489e-01" nType="0">
          <Node pos="l" depth="2" NCoef="0" IVar="-1" Cut="0.0000000000000000e+00" cType="1" res="6.8924494553357363e-04" rms="4.3746411800384521e-01" purity="6.0790717601776123e-01" nType="-99"/>
          <Node pos="r" depth="2" NCoef="0" IVar="-1" Cut="0.0000000000000000e+00" cType="1" res="-1.0344529291614890e-03" rms="3.9218303561210632e-01" purity="2.4403166770935059e-01" nType="-99"/>
        </Node>
      </Node>
    </BinaryTree>
    <BinaryTree type="DecisionTree" boostWeight="1.0000000000000000e+00" itree="641">
      <Node pos="s" depth="0" NCoef="0" IVar="3" Cut="1.8242637634277344e+02" cType="1" res="-1.8701028311625123e-03" rms="4.4387063384056091e-01" purity="5.0537651777267456e-01" nType="0">
        <Node pos="l" depth="1" NCoef="0" IVar="0" Cut="2.3910955810546875e+02" cType="1" res="-3.8638226687908173e-02" rms="4.4517183303833008e-01" purity="4.0343704819679260e-01" nType="0">
          <Node pos="l" depth="2" NCoef="0" IVar="-1" Cut="0.0000000000000000e+00" cType="1" res="1.1999073904007673e-03" rms="4.4903448224067688e-01" purity="4.4223448634147644e-01" nType="-99"/>
          <Node pos="r" depth="2" NCoef="0" IVar="-1" Cut="0.0000000000000000e+00" cType="1" res="-1.6640418907627463e-03" rms="4.3200755119323730e-01" purity="3.8167214393615723e-01" nType="-99"/>
        </Node>
        <Node pos="r" depth="1" NCoef="0" IVar="1" Cut="6.4749729633331299e-01" cType="1" res="1.8227282911539078e-02" rms="4.4186648726463318e-01" purity="5.6109637022018433e-01" nType="0">
          <Node pos="l" depth="2" NCoef="0" IVar="-1" Cut="0.0000000000000000e+00" cType="1" res="1.5677205519750714e-03" rms="3.7508824467658997e-01" purity="7.8546607494354248e-01" nType="-99"/>
          <Node pos="r" depth="2" NCoef="0" IVar="-1" Cut="0.0000000000000000e+00" cType="1" res="5.8212340263708029e-06" rms="4.5542284846305847e-01" purity="5.0453156232833862e-01" nType="-99"/>
        </Node>
      </Node>
    </BinaryTree>
    <BinaryTree type="DecisionTree" boostWeight="1.0000000000000000e+00" itree="642">
      <Node pos="s" depth="0" NCoef="0" IVar="2" Cut="9.5982903242111206e-01" cType="1" res="2.1734816953539848e-02" rms="4.5005893707275391e-01" purity="5.3263592720031738e-01" nType="0">
        <Node pos="l" depth="1" NCoef="0" IVar="6" Cut="4.7183769941329956e-01" cType="1" res="4.6148393303155899e-02" rms="4.5626014471054077e-01" purity="4.5687934756278992e-01" nType="0">
          <Node pos="l" depth="2" NCoef="0" IVar="-1" Cut="0.0000000000000000e+00" cType="1" res="1.9347377819940448e-03" rms="4.5203375816345215e-01" purity="5.9389495849609375e-01" nType="-99"/>
          <Node pos="r" depth="2" NCoef="0" IVar="-1" Cut="0.0000000000000000e+00" cType="1" res="3.4970568958669901e-04" rms="4.5483967661857605e-01" purity="4.1049975156784058e-01" nType="-99"/>
        </Node>
        <Node pos="r" depth="1" NCoef="0" IVar="0" Cut="4.0071118164062500e+02" cType="1" res="-2.4436684325337410e-02" rms="4.3435567617416382e-01" purity="6.7590844631195068e-01" nType="0">
          <Node pos="l" depth="2" NCoef="0" IVar="-1" Cut="0.0000000000000000e+00" cType="1" res="2.6349513791501522e-04" rms="4.2486712336540222e-01" purity="7.0000678300857544e-01" nType="-99"/>
          <Node pos="r" depth="2" NCoef="0" IVar="-1" Cut="0.0000000000000000e+00" cType="1" res="-2.8259514365345240e-03" rms="4.4137451052665710e-01" purity="6.0703533887863159e-01" nType="-99"/>
        </Node>
      </Node>
    </BinaryTree>
    <BinaryTree type="DecisionTree" boostWeight="1.0000000000000000e+00" itree="643">
      <Node pos="s" depth="0" NCoef="0" IVar="2" Cut="9.1244363784790039e-01" cType="1" res="-1.5624791383743286e-02" rms="4.3179944157600403e-01" purity="4.7795376181602478e-01" nType="0">
        <Node pos="l" depth="1" NCoef="0" IVar="-1" Cut="0.0000000000000000e+00" cType="1" res="-3.0065155588090420e-03" rms="2.7329847216606140e-01" purity="9.1900415718555450e-02" nType="-99"/>
        <Node pos="r" depth="1" NCoef="0" IVar="1" Cut="7.4807798862457275e-01" cType="1" res="-6.6936663351953030e-03" rms="4.4043377041816711e-01" purity="5.0780761241912842e-01" nType="0">
          <Node pos="l" depth="2" NCoef="0" IVar="-1" Cut="0.0000000000000000e+00" cType="1" res="6.1975448625162244e-04" rms="4.3430379033088684e-01" purity="6.4144176244735718e-01" nType="-99"/>
          <Node pos="r" depth="2" NCoef="0" IVar="-1" Cut="0.0000000000000000e+00" cType="1" res="-5.0667027244344354e-04" rms="4.4181254506111145e-01" purity="4.4099152088165283e-01" nType="-99"/>
        </Node>
      </Node>
    </BinaryTree>
    <BinaryTree type="DecisionTree" boostWeight="1.0000000000000000e+00" itree="644">
      <Node pos="s" depth="0" NCoef="0" IVar="4" Cut="3.0371066284179688e+02" cType="1" res="-1.1046428233385086e-02" rms="4.3310660123825073e-01" purity="4.8740184307098389e-01" nType="0">
        <Node pos="l" depth="1" NCoef="0" IVar="-1" Cut="0.0000000000000000e+00" cType="1" res="-3.7157740443944931e-03" rms="3.2575258612632751e-01" purity="1.0220062732696533e-01" nType="-99"/>
        <Node pos="r" depth="1" NCoef="0" IVar="3" Cut="1.8079504394531250e+02" cType="1" res="-1.8297671340405941e-03" rms="4.3722751736640930e-01" purity="5.1124972105026245e-01" nType="0">
          <Node pos="l" depth="2" NCoef="0" IVar="-1" Cut="0.0000000000000000e+00" cType="1" res="-7.1960577042773366e-04" rms="4.4517627358436584e-01" purity="4.0991517901420593e-01" nType="-99"/>
          <Node pos="r" depth="2" NCoef="0" IVar="-1" Cut="0.0000000000000000e+00" cType="1" res="3.3045021700672805e-04" rms="4.3164205551147461e-01" purity="5.6341141462326050e-01" nType="-99"/>
        </Node>
      </Node>
    </BinaryTree>
    <BinaryTree type="DecisionTree" boostWeight="1.0000000000000000e+00" itree="645">
      <Node pos="s" depth="0" NCoef="0" IVar="0" Cut="3.9291149902343750e+02" cType="1" res="8.5340905934572220e-03" rms="4.4988626241683960e-01" purity="5.1202428340911865e-01" nType="0">
        <Node pos="l" depth="1" NCoef="0" IVar="4" Cut="3.7305749511718750e+02" cType="1" res="2.8063066303730011e-02" rms="4.4768548011779785e-01" purity="5.0460195541381836e-01" nType="0">
          <Node pos="l" depth="2" NCoef="0" IVar="-1" Cut="0.0000000000000000e+00" cType="1" res="-4.3712469050660729e-04" rms="4.4441372156143188e-01" purity="3.6440014839172363e-01" nType="-99"/>
          <Node pos="r" depth="2" NCoef="0" IVar="-1" Cut="0.0000000000000000e+00" cType="1" res="8.8934652740135789e-04" rms="4.4710722565650940e-01" purity="5.7139664888381958e-01" nType="-99"/>
        </Node>
        <Node pos="r" depth="1" NCoef="0" IVar="6" Cut="7.2184729576110840e-01" cType="1" res="-4.5867554843425751e-02" rms="4.5152890682220459e-01" purity="5.3270065784454346e-01" nType="0">
          <Node pos="l" depth="2" NCoef="0" IVar="-1" Cut="0.0000000000000000e+00" cType="1" res="-1.8555484712123871e-03" rms="4.4090291857719421e-01" purity="5.1199281215667725e-01" nType="-99"/>
          <Node pos="r" depth="2" NCoef="0" IVar="-1" Cut="0.0000000000000000e+00" cType="1" res="7.2007218841463327e-04" rms="4.5397058129310608e-01" purity="5.6510955095291138e-01" nType="-99"/>
        </Node>
      </Node>
    </BinaryTree>
    <BinaryTree type="DecisionTree" boostWeight="1.0000000000000000e+00" itree="646">
      <Node pos="s" depth="0" NCoef="0" IVar="1" Cut="5.0845825672149658e-01" cType="1" res="-1.4347877353429794e-02" rms="4.4438642263412476e-01" purity="4.8602911829948425e-01" nType="0">
        <Node pos="l" depth="1" NCoef="0" IVar="1" Cut="3.7520280480384827e-01" cType="1" res="6.9520443677902222e-02" rms="4.2507761716842651e-01" purity="6.8514794111251831e-01" nType="0">
          <Node pos="l" depth="2" NCoef="0" IVar="-1" Cut="0.0000000000000000e+00" cType="1" res="2.0947929006069899e-03" rms="3.9198040962219238e-01" purity="7.3132485151290894e-01" nType="-99"/>
          <Node pos="r" depth="2" NCoef="0" IVar="-1" Cut="0.0000000000000000e+00" cType="1" res="3.2060928060673177e-04" rms="4.4945576786994934e-01" purity="6.3983285427093506e-01" nType="-99"/>
        </Node>
        <Node pos="r" depth="1" NCoef="0" IVar="4" Cut="5.7706958007812500e+02" cType="1" res="-2.5891309604048729e-02" rms="4.4574502110481262e-01" purity="4.5862287282943726e-01" nType="0">
          <Node pos="l" depth="2" NCoef="0" IVar="-1" Cut="0.0000000000000000e+00" cType="1" res="-7.6134433038532734e-04" rms="4.3958449363708496e-01" purity="4.1396564245223999e-01" nType="-99"/>
          <Node pos="r" depth="2" NCoef="0" IVar="-1" Cut="0.0000000000000000e+00" cType="1" res="5.2935973508283496e-04" rms="4.6178129315376282e-01" purity="6.1246752738952637e-01" nType="-99"/>
        </Node>
      </Node>
    </BinaryTree>
    <BinaryTree type="DecisionTree" boostWeight="1.0000000000000000e+00" itree="647">
      <Node pos="s" depth="0" NCoef="0" IVar="3" Cut="2.2880743408203125e+02" cType="1" res="-4.1805718094110489e-02" rms="4.4011336565017700e-01" purity="4.6347242593765259e-01" nType="0">
        <Node pos="l" depth="1" NCoef="0" IVar="3" Cut="2.1415412902832031e+02" cType="1" res="-7.1931235492229462e-02" rms="4.4795379042625427e-01" purity="4.2447355389595032e-01" nType="0">
          <Node pos="l" depth="2" NCoef="0" IVar="-1" Cut="0.0000000000000000e+00" cType="1" res="-1.5393397770822048e-03" rms="4.4489276409149170e-01" purity="3.9589142799377441e-01" nType="-99"/>
          <Node pos="r" depth="2" NCoef="0" IVar="-1" Cut="0.0000000000000000e+00" cType="1" res="8.4862398216500878e-04" rms="4.5008456707000732e-01" purity="6.2401521205902100e-01" nType="-99"/>
        </Node>
        <Node pos="r" depth="1" NCoef="0" IVar="4" Cut="4.5023895263671875e+02" cType="1" res="1.2938013533130288e-03" rms="4.2494982481002808e-01" purity="5.1926678419113159e-01" nType="0">
          <Node pos="l" depth="2" NCoef="0" IVar="-1" Cut="0.0000000000000000e+00" cType="1" res="-2.4485923349857330e-03" rms="4.0088850259780884e-01" purity="2.5286263227462769e-01" nType="-99"/>
          <Node pos="r" depth="2" NCoef="0" IVar="-1" Cut="0.0000000000000000e+00" cType="1" res="6.8226351868361235e-04" rms="4.2538428306579590e-01" purity="6.0445231199264526e-01" nType="-99"/>
        </Node>
      </Node>
    </BinaryTree>
    <BinaryTree type="DecisionTree" boostWeight="1.0000000000000000e+00" itree="648">
      <Node pos="s" depth="0" NCoef="0" IVar="1" Cut="1.7201590538024902e+00" cType="1" res="3.6955454852432013e-03" rms="4.2632395029067993e-01" purity="4.9620300531387329e-01" nType="0">
        <Node pos="l" depth="1" NCoef="0" IVar="2" Cut="9.2932373285293579e-01" cType="1" res="1.1787799187004566e-02" rms="4.3409687280654907e-01" purity="5.2046358585357666e-01" nType="0">
          <Node pos="l" depth="2" NCoef="0" IVar="-1" Cut="0.0000000000000000e+00" cType="1" res="-9.1803527902811766e-04" rms="3.8104486465454102e-01" purity="2.4514704942703247e-01" nType="-99"/>
          <Node pos="r" depth="2" NCoef="0" IVar="-1" Cut="0.0000000000000000e+00" cType="1" res="4.8627704381942749e-04" rms="4.4709625840187073e-01" purity="6.0197228193283081e-01" nType="-99"/>
        </Node>
        <Node pos="r" depth="1" NCoef="0" IVar="-1" Cut="0.0000000000000000e+00" cType="1" res="-3.9629810489714146e-03" rms="1.9175140559673309e-01" purity="5.3654246032238007e-02" nType="-99"/>
      </Node>
    </BinaryTree>
    <BinaryTree type="DecisionTree" boostWeight="1.0000000000000000e+00" itree="649">
      <Node pos="s" depth="0" NCoef="0" IVar="4" Cut="3.8058901977539062e+02" cType="1" res="4.7500832006335258e-03" rms="4.3949729204177856e-01" purity="5.0105315446853638e-01" nType="0">
        <Node pos="l" depth="1" NCoef="0" IVar="5" Cut="9.0852546691894531e+01" cType="1" res="-5.3349804133176804e-02" rms="4.1670566797256470e-01" purity="3.1639003753662109e-01" nType="0">
          <Node pos="l" depth="2" NCoef="0" IVar="-1" Cut="0.0000000000000000e+00" cType="1" res="-3.2304538763128221e-04" rms="4.1406828165054321e-01" purity="3.3233007788658142e-01" nType="-99"/>
          <Node pos="r" depth="2" NCoef="0" IVar="-1" Cut="0.0000000000000000e+00" cType="1" res="-2.2189521696418524e-03" rms="4.1346597671508789e-01" purity="2.8795751929283142e-01" nType="-99"/>
        </Node>
        <Node pos="r" depth="1" NCoef="0" IVar="3" Cut="1.8333744812011719e+02" cType="1" res="2.4836150929331779e-02" rms="4.4534686207771301e-01" purity="5.6489413976669312e-01" nType="0">
          <Node pos="l" depth="2" NCoef="0" IVar="-1" Cut="0.0000000000000000e+00" cType="1" res="-6.0662970645353198e-04" rms="4.6501460671424866e-01" purity="4.3618643283843994e-01" nType="-99"/>
          <Node pos="r" depth="2" NCoef="0" IVar="-1" Cut="0.0000000000000000e+00" cType="1" res="7.7866797801107168e-04" rms="4.3644607067108154e-01" purity="6.0879236459732056e-01" nType="-99"/>
        </Node>
      </Node>
    </BinaryTree>
    <BinaryTree type="DecisionTree" boostWeight="1.0000000000000000e+00" itree="650">
      <Node pos="s" depth="0" NCoef="0" IVar="1" Cut="1.0332384109497070e+00" cType="1" res="3.6397341173142195e-03" rms="4.3557849526405334e-01" purity="5.1231604814529419e-01" nType="0">
        <Node pos="l" depth="1" NCoef="0" IVar="5" Cut="1.9958992004394531e+02" cType="1" res="2.6386803016066551e-02" rms="4.3656408786773682e-01" purity="6.1038082838058472e-01" nType="0">
          <Node pos="l" depth="2" NCoef="0" IVar="-1" Cut="0.0000000000000000e+00" cType="1" res="7.0456630783155560e-04" rms="4.2910766601562500e-01" purity="6.1235845088958740e-01" nType="-99"/>
          <Node pos="r" depth="2" NCoef="0" IVar="-1" Cut="0.0000000000000000e+00" cType="1" res="-8.3754124352708459e-04" rms="4.6377503871917725e-01" purity="6.0078209638595581e-01" nType="-99"/>
        </Node>
        <Node pos="r" depth="1" NCoef="0" IVar="1" Cut="1.0983450412750244e+00" cType="1" res="-3.4611228853464127e-02" rms="4.3121910095214844e-01" purity="3.4741255640983582e-01" nType="0">
          <Node pos="l" depth="2" NCoef="0" IVar="-1" Cut="0.0000000000000000e+00" cType="1" res="-2.0833080634474754e-03" rms="4.3591704964637756e-01" purity="4.2979019880294800e-01" nType="-99"/>
          <Node pos="r" depth="2" NCoef="0" IVar="-1" Cut="0.0000000000000000e+00" cType="1" res="-3.8693097303621471e-04" rms="4.2877712845802307e-01" purity="3.3394902944564819e-01" nType="-99"/>
        </Node>
      </Node>
    </BinaryTree>
    <BinaryTree type="DecisionTree" boostWeight="1.0000000000000000e+00" itree="651">
      <Node pos="s" depth="0" NCoef="0" IVar="3" Cut="1.2502891540527344e+02" cType="1" res="1.5850553289055824e-02" rms="4.4720372557640076e-01" purity="5.1458775997161865e-01" nType="0">
        <Node pos="l" depth="1" NCoef="0" IVar="-1" Cut="0.0000000000000000e+00" cType="1" res="-1.8314773915335536e-03" rms="4.1121751070022583e-01" purity="3.0743598937988281e-01" nType="-99"/>
        <Node pos="r" depth="1" NCoef="0" IVar="2" Cut="9.3514961004257202e-01" cType="1" res="2.4545844644308090e-02" rms="4.4858407974243164e-01" purity="5.3013992309570312e-01" nType="0">
          <Node pos="l" depth="2" NCoef="0" IVar="-1" Cut="0.0000000000000000e+00" cType="1" res="1.1884964769706130e-03" rms="4.4644725322723389e-01" purity="3.5697448253631592e-01" nType="-99"/>
          <Node pos="r" depth="2" NCoef="0" IVar="-1" Cut="0.0000000000000000e+00" cType="1" res="1.2664732639677823e-04" rms="4.4847714900970459e-01" purity="6.0657942295074463e-01" nType="-99"/>
        </Node>
      </Node>
    </BinaryTree>
    <BinaryTree type="DecisionTree" boostWeight="1.0000000000000000e+00" itree="652">
      <Node pos="s" depth="0" NCoef="0" IVar="6" Cut="1.1495714187622070e+00" cType="1" res="-2.2422470152378082e-02" rms="4.3931114673614502e-01" purity="4.7764453291893005e-01" nType="0">
        <Node pos="l" depth="1" NCoef="0" IVar="1" Cut="3.5890394449234009e-01" cType="1" res="-1.5520753338932991e-02" rms="4.3842995166778564e-01" purity="4.9321877956390381e-01" nType="0">
          <Node pos="l" depth="2" NCoef="0" IVar="-1" Cut="0.0000000000000000e+00" cType="1" res="-2.7090185321867466e-03" rms="4.3073102831840515e-01" purity="4.6281555294990540e-01" nType="-99"/>
          <Node pos="r" depth="2" NCoef="0" IVar="-1" Cut="0.0000000000000000e+00" cType="1" res="-1.3832685363013297e-04" rms="4.3767091631889343e-01" purity="4.9497890472412109e-01" nType="-99"/>
        </Node>
        <Node pos="r" depth="1" NCoef="0" IVar="-1" Cut="0.0000000000000000e+00" cType="1" res="-2.2991383448243141e-03" rms="4.3944191932678223e-01" purity="2.4281743168830872e-01" nType="-99"/>
      </Node>
    </BinaryTree>
    <BinaryTree type="DecisionTree" boostWeight="1.0000000000000000e+00" itree="653">
      <Node pos="s" depth="0" NCoef="0" IVar="5" Cut="9.0783882141113281e+01" cType="1" res="-1.5360514633357525e-02" rms="4.3172350525856018e-01" purity="4.7918793559074402e-01" nType="0">
        <Node pos="l" depth="1" NCoef="0" IVar="0" Cut="1.9897650146484375e+02" cType="1" res="5.2270233631134033e-02" rms="4.1574844717979431e-01" purity="4.5571026206016541e-01" nType="0">
          <Node pos="l" depth="2" NCoef="0" IVar="-1" Cut="0.0000000000000000e+00" cType="1" res="-1.9143328536301851e-03" rms="3.6813309788703918e-01" purity="1.7692936956882477e-01" nType="-99"/>
          <Node pos="r" depth="2" NCoef="0" IVar="-1" Cut="0.0000000000000000e+00" cType="1" res="1.5491376398131251e-03" rms="4.2011910676956177e-01" purity="5.2913677692413330e-01" nType="-99"/>
        </Node>
        <Node pos="r" depth="1" NCoef="0" IVar="3" Cut="2.2024368286132812e+02" cType="1" res="-3.8785137236118317e-02" rms="4.3467393517494202e-01" purity="4.8731967806816101e-01" nType="0">
          <Node pos="l" depth="2" NCoef="0" IVar="-1" Cut="0.0000000000000000e+00" cType="1" res="-1.4809558633714914e-03" rms="4.3421193957328796e-01" purity="4.1478180885314941e-01" nType="-99"/>
          <Node pos="r" depth="2" NCoef="0" IVar="-1" Cut="0.0000000000000000e+00" cType="1" res="6.9148460170254111e-05" rms="4.3061137199401855e-01" purity="5.5137115716934204e-01" nType="-99"/>
        </Node>
      </Node>
    </BinaryTree>
    <BinaryTree type="DecisionTree" boostWeight="1.0000000000000000e+00" itree="654">
      <Node pos="s" depth="0" NCoef="0" IVar="5" Cut="2.3788555908203125e+02" cType="1" res="1.4016707427799702e-02" rms="4.4261097908020020e-01" purity="5.1615619659423828e-01" nType="0">
        <Node pos="l" depth="1" NCoef="0" IVar="4" Cut="3.2166735839843750e+02" cType="1" res="2.3859577253460884e-02" rms="4.3822646141052246e-01" purity="5.1775890588760376e-01" nType="0">
          <Node pos="l" depth="2" NCoef="0" IVar="-1" Cut="0.0000000000000000e+00" cType="1" res="-1.2734270421788096e-03" rms="4.0931341052055359e-01" purity="2.5780972838401794e-01" nType="-99"/>
          <Node pos="r" depth="2" NCoef="0" IVar="-1" Cut="0.0000000000000000e+00" cType="1" res="5.8623583754524589e-04" rms="4.4031652808189392e-01" purity="5.4775393009185791e-01" nType="-99"/>
        </Node>
        <Node pos="r" depth="1" NCoef="0" IVar="-1" Cut="0.0000000000000000e+00" cType="1" res="-1.3194399653002620e-03" rms="4.7165852785110474e-01" purity="5.0131607055664062e-01" nType="-99"/>
      </Node>
    </BinaryTree>
    <BinaryTree type="DecisionTree" boostWeight="1.0000000000000000e+00" itree="655">
      <Node pos="s" depth="0" NCoef="0" IVar="3" Cut="3.6813024902343750e+02" cType="1" res="-5.5464725010097027e-03" rms="4.3472859263420105e-01" purity="5.0261920690536499e-01" nType="0">
        <Node pos="l" depth="1" NCoef="0" IVar="3" Cut="2.0036366271972656e+02" cType="1" res="5.9433272108435631e-03" rms="4.3593612313270569e-01" purity="5.2331513166427612e-01" nType="0">
          <Node pos="l" depth="2" NCoef="0" IVar="-1" Cut="0.0000000000000000e+00" cType="1" res="-3.9268287946470082e-04" rms="4.4572344422340393e-01" purity="4.4311720132827759e-01" nType="-99"/>
          <Node pos="r" depth="2" NCoef="0" IVar="-1" Cut="0.0000000000000000e+00" cType="1" res="6.7604897776618600e-04" rms="4.2274165153503418e-01" purity="6.1050212383270264e-01" nType="-99"/>
        </Node>
        <Node pos="r" depth="1" NCoef="0" IVar="-1" Cut="0.0000000000000000e+00" cType="1" res="-2.0835478790104389e-03" rms="4.0899017453193665e-01" purity="3.1419929862022400e-01" nType="-99"/>
      </Node>
    </BinaryTree>
    <BinaryTree type="DecisionTree" boostWeight="1.0000000000000000e+00" itree="656">
      <Node pos="s" depth="0" NCoef="0" IVar="6" Cut="1.1442830562591553e+00" cType="1" res="-1.3814822770655155e-02" rms="4.3683832883834839e-01" purity="4.8704048991203308e-01" nType="0">
        <Node pos="l" depth="1" NCoef="0" IVar="6" Cut="7.1613478660583496e-01" cType="1" res="-3.3699418418109417e-03" rms="4.3685322999954224e-01" purity="5.0707113742828369e-01" nType="0">
          <Node pos="l" depth="2" NCoef="0" IVar="-1" Cut="0.0000000000000000e+00" cType="1" res="-5.3693982772529125e-04" rms="4.3663659691810608e-01" purity="5.0825047492980957e-01" nType="-99"/>
          <Node pos="r" depth="2" NCoef="0" IVar="-1" Cut="0.0000000000000000e+00" cType="1" res="7.2505901334807277e-04" rms="4.3366301059722900e-01" purity="5.0514972209930420e-01" nType="-99"/>
        </Node>
        <Node pos="r" depth="1" NCoef="0" IVar="-1" Cut="0.0000000000000000e+00" cType="1" res="-3.7827433552592993e-03" rms="3.9865127205848694e-01" purity="1.5552185475826263e-01" nType="-99"/>
      </Node>
    </BinaryTree>
    <BinaryTree type="DecisionTree" boostWeight="1.0000000000000000e+00" itree="657">
      <Node pos="s" depth="0" NCoef="0" IVar="2" Cut="9.0958327054977417e-01" cType="1" res="2.6925890706479549e-03" rms="4.4054311513900757e-01" purity="4.9762487411499023e-01" nType="0">
        <Node pos="l" depth="1" NCoef="0" IVar="-1" Cut="0.0000000000000000e+00" cType="1" res="-3.0862665735185146e-03" rms="2.9014194011688232e-01" purity="1.0742784291505814e-01" nType="-99"/>
        <Node pos="r" depth="1" NCoef="0" IVar="6" Cut="1.0873707532882690e+00" cType="1" res="1.1724194511771202e-02" rms="4.4703558087348938e-01" purity="5.2285444736480713e-01" nType="0">
          <Node pos="l" depth="2" NCoef="0" IVar="-1" Cut="0.0000000000000000e+00" cType="1" res="3.7291797343641520e-04" rms="4.4711440801620483e-01" purity="5.4459589719772339e-01" nType="-99"/>
          <Node pos="r" depth="2" NCoef="0" IVar="-1" Cut="0.0000000000000000e+00" cType="1" res="-1.5682694502174854e-03" rms="4.3393155932426453e-01" purity="3.1249251961708069e-01" nType="-99"/>
        </Node>
      </Node>
    </BinaryTree>
    <BinaryTree type="DecisionTree" boostWeight="1.0000000000000000e+00" itree="658">
      <Node pos="s" depth="0" NCoef="0" IVar="4" Cut="4.6686920166015625e+02" cType="1" res="2.1578202024102211e-02" rms="4.4156089425086975e-01" purity="5.1183903217315674e-01" nType="0">
        <Node pos="l" depth="1" NCoef="0" IVar="5" Cut="1.2329508209228516e+02" cType="1" res="-1.2077754363417625e-02" rms="4.4601494073867798e-01" purity="4.1726034879684448e-01" nType="0">
          <Node pos="l" depth="2" NCoef="0" IVar="-1" Cut="0.0000000000000000e+00" cType="1" res="1.3647212472278625e-04" rms="4.4338825345039368e-01" purity="4.2447286844253540e-01" nType="-99"/>
          <Node pos="r" depth="2" NCoef="0" IVar="-1" Cut="0.0000000000000000e+00" cType="1" res="-2.1767562720924616e-03" rms="4.4411304593086243e-01" purity="3.7534785270690918e-01" nType="-99"/>
        </Node>
        <Node pos="r" depth="1" NCoef="0" IVar="1" Cut="1.2017825841903687e+00" cType="1" res="6.3185982406139374e-02" rms="4.3238532543182373e-01" purity="6.2876367568969727e-01" nType="0">
          <Node pos="l" depth="2" NCoef="0" IVar="-1" Cut="0.0000000000000000e+00" cType="1" res="1.6910240519791842e-03" rms="4.2273053526878357e-01" purity="7.1681618690490723e-01" nType="-99"/>
          <Node pos="r" depth="2" NCoef="0" IVar="-1" Cut="0.0000000000000000e+00" cType="1" res="-1.1463960399851203e-03" rms="4.4031664729118347e-01" purity="3.2945460081100464e-01" nType="-99"/>
        </Node>
      </Node>
    </BinaryTree>
    <BinaryTree type="DecisionTree" boostWeight="1.0000000000000000e+00" itree="659">
      <Node pos="s" depth="0" NCoef="0" IVar="1" Cut="6.5366989374160767e-01" cType="1" res="2.5629226583987474e-03" rms="4.3397259712219238e-01" purity="4.9704140424728394e-01" nType="0">
        <Node pos="l" depth="1" NCoef="0" IVar="1" Cut="4.9840345978736877e-01" cType="1" res="8.1825636327266693e-02" rms="4.2346400022506714e-01" purity="6.8813556432723999e-01" nType="0">
          <Node pos="l" depth="2" NCoef="0" IVar="-1" Cut="0.0000000000000000e+00" cType="1" res="-2.3196285474114120e-04" rms="4.2559248208999634e-01" purity="5.9643685817718506e-01" nType="-99"/>
          <Node pos="r" depth="2" NCoef="0" IVar="-1" Cut="0.0000000000000000e+00" cType="1" res="2.6175302919000387e-03" rms="4.0585267543792725e-01" purity="7.6196986436843872e-01" nType="-99"/>
        </Node>
        <Node pos="r" depth="1" NCoef="0" IVar="2" Cut="9.5238804817199707e-01" cType="1" res="-2.2083722054958344e-02" rms="4.3424990773200989e-01" purity="4.3762087821960449e-01" nType="0">
          <Node pos="l" depth="2" NCoef="0" IVar="-1" Cut="0.0000000000000000e+00" cType="1" res="-9.4119278946891427e-04" rms="4.2746809124946594e-01" purity="2.8006479144096375e-01" nType="-99"/>
          <Node pos="r" depth="2" NCoef="0" IVar="-1" Cut="0.0000000000000000e+00" cType="1" res="3.1437198049388826e-04" rms="4.4036701321601868e-01" purity="6.5746927261352539e-01" nType="-99"/>
        </Node>
      </Node>
    </BinaryTree>
    <BinaryTree type="DecisionTree" boostWeight="1.0000000000000000e+00" itree="660">
      <Node pos="s" depth="0" NCoef="0" IVar="0" Cut="2.1315304565429688e+02" cType="1" res="2.8359830379486084e-02" rms="4.4115778803825378e-01" purity="5.3304898738861084e-01" nType="0">
        <Node pos="l" depth="1" NCoef="0" IVar="-1" Cut="0.0000000000000000e+00" cType="1" res="2.2687399759888649e-03" rms="4.3092408776283264e-01" purity="4.7648239135742188e-01" nType="-99"/>
        <Node pos="r" depth="1" NCoef="0" IVar="4" Cut="3.3755941772460938e+02" cType="1" res="1.9293809309601784e-02" rms="4.4097709655761719e-01" purity="5.3823834657669067e-01" nType="0">
          <Node pos="l" depth="2" NCoef="0" IVar="-1" Cut="0.0000000000000000e+00" cType="1" res="-2.0585935562849045e-03" rms="4.0175712108612061e-01" purity="2.9088634252548218e-01" nType="-99"/>
          <Node pos="r" depth="2" NCoef="0" IVar="-1" Cut="0.0000000000000000e+00" cType="1" res="4.7901232028380036e-04" rms="4.4212815165519714e-01" purity="5.5513626337051392e-01" nType="-99"/>
        </Node>
      </Node>
    </BinaryTree>
    <BinaryTree type="DecisionTree" boostWeight="1.0000000000000000e+00" itree="661">
      <Node pos="s" depth="0" NCoef="0" IVar="3" Cut="2.0333737182617188e+02" cType="1" res="2.8702326118946075e-02" rms="4.3844330310821533e-01" purity="5.1632076501846313e-01" nType="0">
        <Node pos="l" depth="1" NCoef="0" IVar="5" Cut="1.0617364501953125e+02" cType="1" res="-8.8173905387520790e-03" rms="4.4505360722541809e-01" purity="4.3575754761695862e-01" nType="0">
          <Node pos="l" depth="2" NCoef="0" IVar="-1" Cut="0.0000000000000000e+00" cType="1" res="7.4007024522870779e-04" rms="4.3285882472991943e-01" purity="4.7111681103706360e-01" nType="-99"/>
          <Node pos="r" depth="2" NCoef="0" IVar="-1" Cut="0.0000000000000000e+00" cType="1" res="-1.2768504675477743e-03" rms="4.5188951492309570e-01" purity="3.8923287391662598e-01" nType="-99"/>
        </Node>
        <Node pos="r" depth="1" NCoef="0" IVar="3" Cut="4.6447711181640625e+02" cType="1" res="6.1964891850948334e-02" rms="4.2976805567741394e-01" purity="5.8774286508560181e-01" nType="0">
          <Node pos="l" depth="2" NCoef="0" IVar="-1" Cut="0.0000000000000000e+00" cType="1" res="1.4681579777970910e-03" rms="4.3287017941474915e-01" purity="6.3037306070327759e-01" nType="-99"/>
          <Node pos="r" depth="2" NCoef="0" IVar="-1" Cut="0.0000000000000000e+00" cType="1" res="-2.1292993333190680e-03" rms="3.6496233940124512e-01" purity="2.3956823348999023e-01" nType="-99"/>
        </Node>
      </Node>
    </BinaryTree>
    <BinaryTree type="DecisionTree" boostWeight="1.0000000000000000e+00" itree="662">
      <Node pos="s" depth="0" NCoef="0" IVar="5" Cut="1.4258073425292969e+02" cType="1" res="-2.1170800551772118e-02" rms="4.3759489059448242e-01" purity="4.7182986140251160e-01" nType="0">
        <Node pos="l" depth="1" NCoef="0" IVar="5" Cut="1.1660714721679688e+02" cType="1" res="1.2093747965991497e-02" rms="4.3491154909133911e-01" purity="4.7227334976196289e-01" nType="0">
          <Node pos="l" depth="2" NCoef="0" IVar="-1" Cut="0.0000000000000000e+00" cType="1" res="6.8552553420886397e-04" rms="4.3865320086479187e-01" purity="4.8106575012207031e-01" nType="-99"/>
          <Node pos="r" depth="2" NCoef="0" IVar="-1" Cut="0.0000000000000000e+00" cType="1" res="-1.2241526274010539e-03" rms="4.1336157917976379e-01" purity="4.4600635766983032e-01" nType="-99"/>
        </Node>
        <Node pos="r" depth="1" NCoef="0" IVar="3" Cut="1.9182597351074219e+02" cType="1" res="-7.9553872346878052e-02" rms="4.3617403507232666e-01" purity="4.7105151414871216e-01" nType="0">
          <Node pos="l" depth="2" NCoef="0" IVar="-1" Cut="0.0000000000000000e+00" cType="1" res="-4.1489824652671814e-03" rms="3.9355364441871643e-01" purity="2.3459748923778534e-01" nType="-99"/>
          <Node pos="r" depth="2" NCoef="0" IVar="-1" Cut="0.0000000000000000e+00" cType="1" res="-5.6556880008429289e-04" rms="4.3721914291381836e-01" purity="5.4245775938034058e-01" nType="-99"/>
        </Node>
      </Node>
    </BinaryTree>
    <BinaryTree type="DecisionTree" boostWeight="1.0000000000000000e+00" itree="663">
      <Node pos="s" depth="0" NCoef="0" IVar="5" Cut="1.1175025939941406e+02" cType="1" res="9.9117681384086609e-03" rms="4.4006133079528809e-01" purity="5.0860440731048584e-01" nType="0">
        <Node pos="l" depth="1" NCoef="0" IVar="4" Cut="4.2336383056640625e+02" cType="1" res="5.0338644534349442e-02" rms="4.2850896716117859e-01" purity="4.9103078246116638e-01" nType="0">
          <Node pos="l" depth="2" NCoef="0" IVar="-1" Cut="0.0000000000000000e+00" cType="1" res="2.9395264573395252e-04" rms="4.3025201559066772e-01" purity="4.2659541964530945e-01" nType="-99"/>
          <Node pos="r" depth="2" NCoef="0" IVar="-1" Cut="0.0000000000000000e+00" cType="1" res="2.8208645526319742e-03" rms="3.9995908737182617e-01" purity="7.1782088279724121e-01" nType="-99"/>
        </Node>
        <Node pos="r" depth="1" NCoef="0" IVar="4" Cut="6.9867596435546875e+02" cType="1" res="-2.3982975631952286e-02" rms="4.4670751690864563e-01" purity="5.2333849668502808e-01" nType="0">
          <Node pos="l" depth="2" NCoef="0" IVar="-1" Cut="0.0000000000000000e+00" cType="1" res="-6.8304716842249036e-04" rms="4.4965785741806030e-01" purity="4.9469408392906189e-01" nType="-99"/>
          <Node pos="r" depth="2" NCoef="0" IVar="-1" Cut="0.0000000000000000e+00" cType="1" res="8.6418131832033396e-04" rms="4.2454716563224792e-01" purity="6.5846437215805054e-01" nType="-99"/>
        </Node>
      </Node>
    </BinaryTree>
    <BinaryTree type="DecisionTree" boostWeight="1.0000000000000000e+00" itree="664">
      <Node pos="s" depth="0" NCoef="0" IVar="0" Cut="6.0816259765625000e+02" cType="1" res="-4.5808744616806507e-03" rms="4.4722107052803040e-01" purity="4.9906983971595764e-01" nType="0">
        <Node pos="l" depth="1" NCoef="0" IVar="0" Cut="4.2145538330078125e+02" cType="1" res="-1.0771168395876884e-02" rms="4.4864338636398315e-01" purity="4.8719000816345215e-01" nType="0">
          <Node pos="l" depth="2" NCoef="0" IVar="-1" Cut="0.0000000000000000e+00" cType="1" res="9.5690513262525201e-05" rms="4.4684049487113953e-01" purity="4.8712256550788879e-01" nType="-99"/>
          <Node pos="r" depth="2" NCoef="0" IVar="-1" Cut="0.0000000000000000e+00" cType="1" res="-1.5830246265977621e-03" rms="4.4906786084175110e-01" purity="4.8751488327980042e-01" nType="-99"/>
        </Node>
        <Node pos="r" depth="1" NCoef="0" IVar="-1" Cut="0.0000000000000000e+00" cType="1" res="1.7702139448374510e-03" rms="4.0566700696945190e-01" purity="7.1024924516677856e-01" nType="-99"/>
      </Node>
    </BinaryTree>
    <BinaryTree type="DecisionTree" boostWeight="1.0000000000000000e+00" itree="665">
      <Node pos="s" depth="0" NCoef="0" IVar="4" Cut="4.2834643554687500e+02" cType="1" res="3.0882072169333696e-03" rms="4.3669444322586060e-01" purity="5.0631010532379150e-01" nType="0">
        <Node pos="l" depth="1" NCoef="0" IVar="5" Cut="1.0472734832763672e+02" cType="1" res="-4.8841565847396851e-02" rms="4.3261441588401794e-01" purity="3.5026335716247559e-01" nType="0">
          <Node pos="l" depth="2" NCoef="0" IVar="-1" Cut="0.0000000000000000e+00" cType="1" res="-2.5094140437431633e-04" rms="4.3359246850013733e-01" purity="3.6850970983505249e-01" nType="-99"/>
          <Node pos="r" depth="2" NCoef="0" IVar="-1" Cut="0.0000000000000000e+00" cType="1" res="-2.4884094018489122e-03" rms="4.1691935062408447e-01" purity="3.0388370156288147e-01" nType="-99"/>
        </Node>
        <Node pos="r" depth="1" NCoef="0" IVar="3" Cut="1.9252270507812500e+02" cType="1" res="3.7932720035314560e-02" rms="4.3595680594444275e-01" purity="6.1101639270782471e-01" nType="0">
          <Node pos="l" depth="2" NCoef="0" IVar="-1" Cut="0.0000000000000000e+00" cType="1" res="-1.0174087947234511e-03" rms="4.5970577001571655e-01" purity="4.3660897016525269e-01" nType="-99"/>
          <Node pos="r" depth="2" NCoef="0" IVar="-1" Cut="0.0000000000000000e+00" cType="1" res="1.3227144954726100e-03" rms="4.1995429992675781e-01" purity="6.7923563718795776e-01" nType="-99"/>
        </Node>
      </Node>
    </BinaryTree>
    <BinaryTree type="DecisionTree" boostWeight="1.0000000000000000e+00" itree="666">
      <Node pos="s" depth="0" NCoef="0" IVar="6" Cut="3.1094717979431152e-01" cType="1" res="-1.0149762965738773e-02" rms="4.4123417139053345e-01" purity="4.8433658480644226e-01" nType="0">
        <Node pos="l" depth="1" NCoef="0" IVar="-1" Cut="0.0000000000000000e+00" cType="1" res="1.7699932213872671e-03" rms="4.2371684312820435e-01" purity="7.0116996765136719e-01" nType="-99"/>
        <Node pos="r" depth="1" NCoef="0" IVar="6" Cut="7.0043104887008667e-01" cType="1" res="-2.1280910819768906e-02" rms="4.4143030047416687e-01" purity="4.6248832345008850e-01" nType="0">
          <Node pos="l" depth="2" NCoef="0" IVar="-1" Cut="0.0000000000000000e+00" cType="1" res="-8.7692559463903308e-04" rms="4.3900859355926514e-01" purity="4.8181930184364319e-01" nType="-99"/>
          <Node pos="r" depth="2" NCoef="0" IVar="-1" Cut="0.0000000000000000e+00" cType="1" res="1.6496980970259756e-04" rms="4.4194719195365906e-01" purity="4.4205713272094727e-01" nType="-99"/>
        </Node>
      </Node>
    </BinaryTree>
    <BinaryTree type="DecisionTree" boostWeight="1.0000000000000000e+00" itree="667">
      <Node pos="s" depth="0" NCoef="0" IVar="3" Cut="3.4870803833007812e+02" cType="1" res="6.2516396865248680e-03" rms="4.4378015398979187e-01" purity="4.9759796261787415e-01" nType="0">
        <Node pos="l" depth="1" NCoef="0" IVar="3" Cut="1.3769137573242188e+02" cType="1" res="1.8748546019196510e-02" rms="4.4409090280532837e-01" purity="5.1449537277221680e-01" nType="0">
          <Node pos="l" depth="2" NCoef="0" IVar="-1" Cut="0.0000000000000000e+00" cType="1" res="-1.2741734972223639e-03" rms="4.4094157218933105e-01" purity="3.3548793196678162e-01" nType="-99"/>
          <Node pos="r" depth="2" NCoef="0" IVar="-1" Cut="0.0000000000000000e+00" cType="1" res="5.7144998572766781e-04" rms="4.4287070631980896e-01" purity="5.4272627830505371e-01" nType="-99"/>
        </Node>
        <Node pos="r" depth="1" NCoef="0" IVar="0" Cut="5.2668029785156250e+02" cType="1" res="-8.1740751862525940e-02" rms="4.3145793676376343e-01" purity="3.7862101197242737e-01" nType="0">
          <Node pos="l" depth="2" NCoef="0" IVar="-1" Cut="0.0000000000000000e+00" cType="1" res="-2.7468071784824133e-03" rms="3.7454429268836975e-01" purity="2.2116318345069885e-01" nType="-99"/>
          <Node pos="r" depth="2" NCoef="0" IVar="-1" Cut="0.0000000000000000e+00" cType="1" res="-3.7064752541482449e-04" rms="4.7989639639854431e-01" purity="5.5316936969757080e-01" nType="-99"/>
        </Node>
      </Node>
    </BinaryTree>
    <BinaryTree type="DecisionTree" boostWeight="1.0000000000000000e+00" itree="668">
      <Node pos="s" depth="0" NCoef="0" IVar="2" Cut="9.2390233278274536e-01" cType="1" res="-9.1647036606445909e-04" rms="4.3005222082138062e-01" purity="5.0282800197601318e-01" nType="0">
        <Node pos="l" depth="1" NCoef="0" IVar="1" Cut="7.7860319614410400e-01" cType="1" res="-8.5371710360050201e-02" rms="3.4507074952125549e-01" purity="1.6614840924739838e-01" nType="0">
          <Node pos="l" depth="2" NCoef="0" IVar="-1" Cut="0.0000000000000000e+00" cType="1" res="-3.4936051815748215e-03" rms="3.0757179856300354e-01" purity="1.2645269930362701e-01" nType="-99"/>
          <Node pos="r" depth="2" NCoef="0" IVar="-1" Cut="0.0000000000000000e+00" cType="1" res="-8.9175306493416429e-04" rms="3.5585156083106995e-01" purity="1.8772901594638824e-01" nType="-99"/>
        </Node>
        <Node pos="r" depth="1" NCoef="0" IVar="5" Cut="2.3276802062988281e+02" cType="1" res="1.4506469480693340e-02" rms="4.4207879900932312e-01" purity="5.6431132555007935e-01" nType="0">
          <Node pos="l" depth="2" NCoef="0" IVar="-1" Cut="0.0000000000000000e+00" cType="1" res="4.2633237899281085e-04" rms="4.3875122070312500e-01" purity="5.6641304492950439e-01" nType="-99"/>
          <Node pos="r" depth="2" NCoef="0" IVar="-1" Cut="0.0000000000000000e+00" cType="1" res="-1.3472213177010417e-03" rms="4.5964652299880981e-01" purity="5.4611313343048096e-01" nType="-99"/>
        </Node>
      </Node>
    </BinaryTree>
    <BinaryTree type="DecisionTree" boostWeight="1.0000000000000000e+00" itree="669">
      <Node pos="s" depth="0" NCoef="0" IVar="3" Cut="1.2007131195068359e+02" cType="1" res="-1.0270463826600462e-04" rms="4.4658207893371582e-01" purity="4.9504444003105164e-01" nType="0">
        <Node pos="l" depth="1" NCoef="0" IVar="-1" Cut="0.0000000000000000e+00" cType="1" res="-2.3851362057030201e-03" rms="4.1626784205436707e-01" purity="2.7392241358757019e-01" nType="-99"/>
        <Node pos="r" depth="1" NCoef="0" IVar="4" Cut="6.3678222656250000e+02" cType="1" res="7.8079472295939922e-03" rms="4.4725358486175537e-01" purity="5.0901854038238525e-01" nType="0">
          <Node pos="l" depth="2" NCoef="0" IVar="-1" Cut="0.0000000000000000e+00" cType="1" res="-7.3671122663654387e-05" rms="4.5061460137367249e-01" purity="4.7875526547431946e-01" nType="-99"/>
          <Node pos="r" depth="2" NCoef="0" IVar="-1" Cut="0.0000000000000000e+00" cType="1" res="1.1726598022505641e-03" rms="4.2449021339416504e-01" purity="6.6329234838485718e-01" nType="-99"/>
        </Node>
      </Node>
    </BinaryTree>
    <BinaryTree type="DecisionTree" boostWeight="1.0000000000000000e+00" itree="670">
      <Node pos="s" depth="0" NCoef="0" IVar="3" Cut="1.7642625427246094e+02" cType="1" res="-9.3509379075840116e-04" rms="4.3868264555931091e-01" purity="4.9424409866333008e-01" nType="0">
        <Node pos="l" depth="1" NCoef="0" IVar="5" Cut="9.5544120788574219e+01" cType="1" res="-6.4088679850101471e-02" rms="4.4055151939392090e-01" purity="3.7168222665786743e-01" nType="0">
          <Node pos="l" depth="2" NCoef="0" IVar="-1" Cut="0.0000000000000000e+00" cType="1" res="-1.4040205860510468e-04" rms="4.4771066308021545e-01" purity="4.0186110138893127e-01" nType="-99"/>
          <Node pos="r" depth="2" NCoef="0" IVar="-1" Cut="0.0000000000000000e+00" cType="1" res="-2.0445941481739283e-03" rms="4.2651554942131042e-01" purity="3.4246674180030823e-01" nType="-99"/>
        </Node>
        <Node pos="r" depth="1" NCoef="0" IVar="3" Cut="4.5134689331054688e+02" cType="1" res="2.9680548235774040e-02" rms="4.3448254466056824e-01" purity="5.5365973711013794e-01" nType="0">
          <Node pos="l" depth="2" NCoef="0" IVar="-1" Cut="0.0000000000000000e+00" cType="1" res="7.9452974023297429e-04" rms="4.3650606274604797e-01" purity="5.8251917362213135e-01" nType="-99"/>
          <Node pos="r" depth="2" NCoef="0" IVar="-1" Cut="0.0000000000000000e+00" cType="1" res="-3.5201271530240774e-03" rms="3.5707262158393860e-01" purity="2.1586881577968597e-01" nType="-99"/>
        </Node>
      </Node>
    </BinaryTree>
    <BinaryTree type="DecisionTree" boostWeight="1.0000000000000000e+00" itree="671">
      <Node pos="s" depth="0" NCoef="0" IVar="5" Cut="9.0783882141113281e+01" cType="1" res="-4.2649041861295700e-03" rms="4.5091083645820618e-01" purity="4.9877244234085083e-01" nType="0">
        <Node pos="l" depth="1" NCoef="0" IVar="6" Cut="5.4282355308532715e-01" cType="1" res="6.0517527163028717e-02" rms="4.4291868805885315e-01" purity="4.8085084557533264e-01" nType="0">
          <Node pos="l" depth="2" NCoef="0" IVar="-1" Cut="0.0000000000000000e+00" cType="1" res="2.9458268545567989e-03" rms="4.3819886445999146e-01" purity="6.3410186767578125e-01" nType="-99"/>
          <Node pos="r" depth="2" NCoef="0" IVar="-1" Cut="0.0000000000000000e+00" cType="1" res="3.2532506156712770e-04" rms="4.3677595257759094e-01" purity="4.2755508422851562e-01" nType="-99"/>
        </Node>
        <Node pos="r" depth="1" NCoef="0" IVar="6" Cut="2.7156794071197510e-01" cType="1" res="-2.3206649348139763e-02" rms="4.5146808028221130e-01" purity="5.0401258468627930e-01" nType="0">
          <Node pos="l" depth="2" NCoef="0" IVar="-1" Cut="0.0000000000000000e+00" cType="1" res="1.9470334518700838e-03" rms="3.5767036676406860e-01" purity="7.3312467336654663e-01" nType="-99"/>
          <Node pos="r" depth="2" NCoef="0" IVar="-1" Cut="0.0000000000000000e+00" cType="1" res="-5.7465420104563236e-04" rms="4.5608285069465637e-01" purity="4.8698988556861877e-01" nType="-99"/>
        </Node>
      </Node>
    </BinaryTree>
    <BinaryTree type="DecisionTree" boostWeight="1.0000000000000000e+00" itree="672">
      <Node pos="s" depth="0" NCoef="0" IVar="1" Cut="8.4874206781387329e-01" cType="1" res="1.3724560849368572e-02" rms="4.3632897734642029e-01" purity="5.1328092813491821e-01" nType="0">
        <Node pos="l" depth="1" NCoef="0" IVar="5" Cut="8.1823738098144531e+01" cType="1" res="5.1358204334974289e-02" rms="4.2276439070701599e-01" purity="6.3252055644989014e-01" nType="0">
          <Node pos="l" depth="2" NCoef="0" IVar="-1" Cut="0.0000000000000000e+00" cType="1" res="2.5558092165738344e-03" rms="3.7993341684341431e-01" purity="6.5401607751846313e-01" nType="-99"/>
          <Node pos="r" depth="2" NCoef="0" IVar="-1" Cut="0.0000000000000000e+00" cType="1" res="6.1313551850616932e-04" rms="4.2603939771652222e-01" purity="6.2952804565429688e-01" nType="-99"/>
        </Node>
        <Node pos="r" depth="1" NCoef="0" IVar="1" Cut="1.3957434892654419e+00" cType="1" res="-1.8036382272839546e-02" rms="4.4498729705810547e-01" purity="4.1264846920967102e-01" nType="0">
          <Node pos="l" depth="2" NCoef="0" IVar="-1" Cut="0.0000000000000000e+00" cType="1" res="-7.4660428799688816e-04" rms="4.4458693265914917e-01" purity="4.4177010655403137e-01" nType="-99"/>
          <Node pos="r" depth="2" NCoef="0" IVar="-1" Cut="0.0000000000000000e+00" cType="1" res="9.0862909564748406e-04" rms="4.3973806500434875e-01" purity="3.3993038535118103e-01" nType="-99"/>
        </Node>
      </Node>
    </BinaryTree>
    <BinaryTree type="DecisionTree" boostWeight="1.0000000000000000e+00" itree="673">
      <Node pos="s" depth="0" NCoef="0" IVar="3" Cut="1.4225012207031250e+02" cType="1" res="2.6849370915442705e-03" rms="4.3662163615226746e-01" purity="5.1116681098937988e-01" nType="0">
        <Node pos="l" depth="1" NCoef="0" IVar="6" Cut="6.1032062768936157e-01" cType="1" res="-9.8304823040962219e-02" rms="4.4092249870300293e-01" purity="3.3313223719596863e-01" nType="0">
          <Node pos="l" depth="2" NCoef="0" IVar="-1" Cut="0.0000000000000000e+00" cType="1" res="-3.6554967518895864e-03" rms="4.2414370179176331e-01" purity="2.5991329550743103e-01" nType="-99"/>
          <Node pos="r" depth="2" NCoef="0" IVar="-1" Cut="0.0000000000000000e+00" cType="1" res="5.5202143266797066e-04" rms="4.2510378360748291e-01" purity="4.1999089717864990e-01" nType="-99"/>
        </Node>
        <Node pos="r" depth="1" NCoef="0" IVar="1" Cut="6.3374370336532593e-01" cType="1" res="1.5276581048965454e-02" rms="4.3443953990936279e-01" purity="5.3336459398269653e-01" nType="0">
          <Node pos="l" depth="2" NCoef="0" IVar="-1" Cut="0.0000000000000000e+00" cType="1" res="1.7362586222589016e-03" rms="3.8184645771980286e-01" purity="7.4345088005065918e-01" nType="-99"/>
          <Node pos="r" depth="2" NCoef="0" IVar="-1" Cut="0.0000000000000000e+00" cType="1" res="-1.5708825958427042e-04" rms="4.4476604461669922e-01" purity="4.7555443644523621e-01" nType="-99"/>
        </Node>
      </Node>
    </BinaryTree>
    <BinaryTree type="DecisionTree" boostWeight="1.0000000000000000e+00" itree="674">
      <Node pos="s" depth="0" NCoef="0" IVar="1" Cut="5.4198551177978516e-01" cType="1" res="3.8942222017794847e-03" rms="4.4291558861732483e-01" purity="4.9169656634330750e-01" nType="0">
        <Node pos="l" depth="1" NCoef="0" IVar="1" Cut="4.2318260669708252e-01" cType="1" res="-8.7282195687294006e-02" rms="4.3877920508384705e-01" purity="5.0712496042251587e-01" nType="0">
          <Node pos="l" depth="2" NCoef="0" IVar="-1" Cut="0.0000000000000000e+00" cType="1" res="-3.6435248330235481e-04" rms="4.2088654637336731e-01" purity="5.9825301170349121e-01" nType="-99"/>
          <Node pos="r" depth="2" NCoef="0" IVar="-1" Cut="0.0000000000000000e+00" cType="1" res="-2.5626418646425009e-03" rms="4.4551616907119751e-01" purity="4.3153178691864014e-01" nType="-99"/>
        </Node>
        <Node pos="r" depth="1" NCoef="0" IVar="0" Cut="2.1220242309570312e+02" cType="1" res="1.9300645217299461e-02" rms="4.4175603985786438e-01" purity="4.8908957839012146e-01" nType="0">
          <Node pos="l" depth="2" NCoef="0" IVar="-1" Cut="0.0000000000000000e+00" cType="1" res="-2.2227545268833637e-03" rms="3.6767345666885376e-01" purity="2.1549846231937408e-01" nType="-99"/>
          <Node pos="r" depth="2" NCoef="0" IVar="-1" Cut="0.0000000000000000e+00" cType="1" res="5.8562762569636106e-04" rms="4.4694560766220093e-01" purity="5.1975643634796143e-01" nType="-99"/>
        </Node>
      </Node>
    </BinaryTree>
    <BinaryTree type="DecisionTree" boostWeight="1.0000000000000000e+00" itree="675">
      <Node pos="s" depth="0" NCoef="0" IVar="5" Cut="2.3788555908203125e+02" cType="1" res="-3.4260910470038652e-03" rms="4.4723132252693176e-01" purity="4.9314132332801819e-01" nType="0">
        <Node pos="l" depth="1" NCoef="0" IVar="6" Cut="1.1078538894653320e+00" cType="1" res="7.8731952235102654e-03" rms="4.4219526648521423e-01" purity="4.9258872866630554e-01" nType="0">
          <Node pos="l" depth="2" NCoef="0" IVar="-1" Cut="0.0000000000000000e+00" cType="1" res="-2.2114201783551835e-05" rms="4.3858131766319275e-01" purity="4.9479383230209351e-01" nType="-99"/>
          <Node pos="r" depth="2" NCoef="0" IVar="-1" Cut="0.0000000000000000e+00" cType="1" res="1.7768656834959984e-03" rms="4.6741971373558044e-01" purity="4.7011554241180420e-01" nType="-99"/>
        </Node>
        <Node pos="r" depth="1" NCoef="0" IVar="-1" Cut="0.0000000000000000e+00" cType="1" res="-1.8566733924672008e-03" rms="4.7889867424964905e-01" purity="4.9825298786163330e-01" nType="-99"/>
      </Node>
    </BinaryTree>
    <BinaryTree type="DecisionTree" boostWeight="1.0000000000000000e+00" itree="676">
      <Node pos="s" depth="0" NCoef="0" IVar="4" Cut="3.1220129394531250e+02" cType="1" res="1.1072617955505848e-02" rms="4.3014997243881226e-01" purity="5.1170867681503296e-01" nType="0">
        <Node pos="l" depth="1" NCoef="0" IVar="-1" Cut="0.0000000000000000e+00" cType="1" res="-2.1880557760596275e-03" rms="3.7620899081230164e-01" purity="1.8118102848529816e-01" nType="-99"/>
        <Node pos="r" depth="1" NCoef="0" IVar="2" Cut="9.6462380886077881e-01" cType="1" res="2.0509785041213036e-02" rms="4.3293219804763794e-01" purity="5.3886896371841431e-01" nType="0">
          <Node pos="l" depth="2" NCoef="0" IVar="-1" Cut="0.0000000000000000e+00" cType="1" res="-1.5868758055148646e-05" rms="4.4853445887565613e-01" purity="4.3566271662712097e-01" nType="-99"/>
          <Node pos="r" depth="2" NCoef="0" IVar="-1" Cut="0.0000000000000000e+00" cType="1" res="1.4074357459321618e-03" rms="3.8486310839653015e-01" purity="8.0251550674438477e-01" nType="-99"/>
        </Node>
      </Node>
    </BinaryTree>
    <BinaryTree type="DecisionTree" boostWeight="1.0000000000000000e+00" itree="677">
      <Node pos="s" depth="0" NCoef="0" IVar="5" Cut="1.2467711639404297e+02" cType="1" res="-1.6388907097280025e-03" rms="4.3939089775085449e-01" purity="4.9936535954475403e-01" nType="0">
        <Node pos="l" depth="1" NCoef="0" IVar="3" Cut="2.6955450439453125e+02" cType="1" res="3.5810891538858414e-02" rms="4.3852886557579041e-01" purity="4.9624186754226685e-01" nType="0">
          <Node pos="l" depth="2" NCoef="0" IVar="-1" Cut="0.0000000000000000e+00" cType="1" res="8.7421044008806348e-04" rms="4.4146901369094849e-01" purity="5.1764214038848877e-01" nType="-99"/>
          <Node pos="r" depth="2" NCoef="0" IVar="-1" Cut="0.0000000000000000e+00" cType="1" res="-1.7202167073264718e-03" rms="3.9395630359649658e-01" purity="3.2560828328132629e-01" nType="-99"/>
        </Node>
        <Node pos="r" depth="1" NCoef="0" IVar="3" Cut="1.7511174011230469e+02" cType="1" res="-4.6641863882541656e-02" rms="4.3619164824485779e-01" purity="5.0311887264251709e-01" nType="0">
          <Node pos="l" depth="2" NCoef="0" IVar="-1" Cut="0.0000000000000000e+00" cType="1" res="-4.3341615237295628e-03" rms="3.8207772374153137e-01" purity="1.9798749685287476e-01" nType="-99"/>
          <Node pos="r" depth="2" NCoef="0" IVar="-1" Cut="0.0000000000000000e+00" cType="1" res="-8.2340069639030844e-05" rms="4.3453401327133179e-01" purity="5.6493532657623291e-01" nType="-99"/>
        </Node>
      </Node>
    </BinaryTree>
    <BinaryTree type="DecisionTree" boostWeight="1.0000000000000000e+00" itree="678">
      <Node pos="s" depth="0" NCoef="0" IVar="2" Cut="9.4857501983642578e-01" cType="1" res="-1.2027849443256855e-02" rms="4.3510991334915161e-01" purity="4.8313444852828979e-01" nType="0">
        <Node pos="l" depth="1" NCoef="0" IVar="0" Cut="4.4868646240234375e+02" cType="1" res="-4.7475442290306091e-02" rms="4.2269334197044373e-01" purity="2.9571416974067688e-01" nType="0">
          <Node pos="l" depth="2" NCoef="0" IVar="-1" Cut="0.0000000000000000e+00" cType="1" res="-5.6470418348908424e-04" rms="4.1836476325988770e-01" purity="2.9346624016761780e-01" nType="-99"/>
          <Node pos="r" depth="2" NCoef="0" IVar="-1" Cut="0.0000000000000000e+00" cType="1" res="-2.1799199748784304e-03" rms="4.3431648612022400e-01" purity="3.0703175067901611e-01" nType="-99"/>
        </Node>
        <Node pos="r" depth="1" NCoef="0" IVar="1" Cut="1.0813026428222656e+00" cType="1" res="2.2159902378916740e-02" rms="4.4408604502677917e-01" purity="6.6389364004135132e-01" nType="0">
          <Node pos="l" depth="2" NCoef="0" IVar="-1" Cut="0.0000000000000000e+00" cType="1" res="-1.1712289415299892e-04" rms="4.3057629466056824e-01" purity="7.0452910661697388e-01" nType="-99"/>
          <Node pos="r" depth="2" NCoef="0" IVar="-1" Cut="0.0000000000000000e+00" cType="1" res="1.2420866405591369e-03" rms="4.6484288573265076e-01" purity="5.8180779218673706e-01" nType="-99"/>
        </Node>
      </Node>
    </BinaryTree>
    <BinaryTree type="DecisionTree" boostWeight="1.0000000000000000e+00" itree="679">
      <Node pos="s" depth="0" NCoef="0" IVar="0" Cut="6.1841857910156250e+02" cType="1" res="4.3377857655286789e-03" rms="4.3973317742347717e-01" purity="5.1132786273956299e-01" nType="0">
        <Node pos="l" depth="1" NCoef="0" IVar="1" Cut="6.3477021455764771e-01" cType="1" res="-3.5016520414501429e-03" rms="4.4032186269760132e-01" purity="4.9860662221908569e-01" nType="0">
          <Node pos="l" depth="2" NCoef="0" IVar="-1" Cut="0.0000000000000000e+00" cType="1" res="1.0545387631282210e-03" rms="4.1834601759910583e-01" purity="6.5587264299392700e-01" nType="-99"/>
          <Node pos="r" depth="2" NCoef="0" IVar="-1" Cut="0.0000000000000000e+00" cType="1" res="-3.8578495150431991e-04" rms="4.4468006491661072e-01" purity="4.5399764180183411e-01" nType="-99"/>
        </Node>
        <Node pos="r" depth="1" NCoef="0" IVar="-1" Cut="0.0000000000000000e+00" cType="1" res="2.4419948458671570e-03" rms="4.0311065316200256e-01" purity="7.4268561601638794e-01" nType="-99"/>
      </Node>
    </BinaryTree>
    <BinaryTree type="DecisionTree" boostWeight="1.0000000000000000e+00" itree="680">
      <Node pos="s" depth="0" NCoef="0" IVar="2" Cut="9.8141449689865112e-01" cType="1" res="-5.3625977598130703e-03" rms="4.3905586004257202e-01" purity="5.0532341003417969e-01" nType="0">
        <Node pos="l" depth="1" NCoef="0" IVar="3" Cut="2.3904220581054688e+02" cType="1" res="-1.4847641810774803e-02" rms="4.4764396548271179e-01" purity="4.6731966733932495e-01" nType="0">
          <Node pos="l" depth="2" NCoef="0" IVar="-1" Cut="0.0000000000000000e+00" cType="1" res="-6.1875983374193311e-04" rms="4.5462805032730103e-01" purity="4.3037754297256470e-01" nType="-99"/>
          <Node pos="r" depth="2" NCoef="0" IVar="-1" Cut="0.0000000000000000e+00" cType="1" res="3.7102276110090315e-04" rms="4.3323314189910889e-01" purity="5.2985399961471558e-01" nType="-99"/>
        </Node>
        <Node pos="r" depth="1" NCoef="0" IVar="-1" Cut="0.0000000000000000e+00" cType="1" res="1.7950464971363544e-03" rms="3.3206239342689514e-01" purity="8.7114602327346802e-01" nType="-99"/>
      </Node>
    </BinaryTree>
    <BinaryTree type="DecisionTree" boostWeight="1.0000000000000000e+00" itree="681">
      <Node pos="s" depth="0" NCoef="0" IVar="2" Cut="9.6220576763153076e-01" cType="1" res="6.5021896734833717e-03" rms="4.3780103325843811e-01" purity="5.0322347879409790e-01" nType="0">
        <Node pos="l" depth="1" NCoef="0" IVar="3" Cut="2.0596708679199219e+02" cType="1" res="-1.2125565670430660e-02" rms="4.4875404238700867e-01" purity="3.9269450306892395e-01" nType="0">
          <Node pos="l" depth="2" NCoef="0" IVar="-1" Cut="0.0000000000000000e+00" cType="1" res="-7.7342643635347486e-04" rms="4.4320896267890930e-01" purity="3.2706117630004883e-01" nType="-99"/>
          <Node pos="r" depth="2" NCoef="0" IVar="-1" Cut="0.0000000000000000e+00" cType="1" res="4.5538169797509909e-04" rms="4.5198762416839600e-01" purity="4.6814256906509399e-01" nType="-99"/>
        </Node>
        <Node pos="r" depth="1" NCoef="0" IVar="0" Cut="3.2725558471679688e+02" cType="1" res="5.0660073757171631e-02" rms="4.0728154778480530e-01" purity="7.6523715257644653e-01" nType="0">
          <Node pos="l" depth="2" NCoef="0" IVar="-1" Cut="0.0000000000000000e+00" cType="1" res="1.9850113894790411e-03" rms="3.8732296228408813e-01" purity="7.9909670352935791e-01" nType="-99"/>
          <Node pos="r" depth="2" NCoef="0" IVar="-1" Cut="0.0000000000000000e+00" cType="1" res="-2.0250258785381448e-06" rms="4.1472399234771729e-01" purity="7.3944956064224243e-01" nType="-99"/>
        </Node>
      </Node>
    </BinaryTree>
    <BinaryTree type="DecisionTree" boostWeight="1.0000000000000000e+00" itree="682">
      <Node pos="s" depth="0" NCoef="0" IVar="4" Cut="3.2062530517578125e+02" cType="1" res="-1.4954471960663795e-02" rms="4.3644034862518311e-01" purity="4.7305387258529663e-01" nType="0">
        <Node pos="l" depth="1" NCoef="0" IVar="-1" Cut="0.0000000000000000e+00" cType="1" res="-2.2025078069418669e-03" rms="3.8578042387962341e-01" purity="2.1265904605388641e-01" nType="-99"/>
        <Node pos="r" depth="1" NCoef="0" IVar="2" Cut="9.1799205541610718e-01" cType="1" res="-4.8946775496006012e-03" rms="4.4038361310958862e-01" purity="5.0116199254989624e-01" nType="0">
          <Node pos="l" depth="2" NCoef="0" IVar="-1" Cut="0.0000000000000000e+00" cType="1" res="-2.1213139407336712e-03" rms="3.3778440952301025e-01" purity="1.5176782011985779e-01" nType="-99"/>
          <Node pos="r" depth="2" NCoef="0" IVar="-1" Cut="0.0000000000000000e+00" cType="1" res="1.1555825767572969e-04" rms="4.5049193501472473e-01" purity="5.4585653543472290e-01" nType="-99"/>
        </Node>
      </Node>
    </BinaryTree>
    <BinaryTree type="DecisionTree" boostWeight="1.0000000000000000e+00" itree="683">
      <Node pos="s" depth="0" NCoef="0" IVar="1" Cut="6.6296696662902832e-01" cType="1" res="4.2550410144031048e-03" rms="4.4298473000526428e-01" purity="5.1624971628189087e-01" nType="0">
        <Node pos="l" depth="1" NCoef="0" IVar="6" Cut="4.2206382751464844e-01" cType="1" res="5.1782716065645218e-02" rms="4.3904966115951538e-01" purity="6.4390569925308228e-01" nType="0">
          <Node pos="l" depth="2" NCoef="0" IVar="-1" Cut="0.0000000000000000e+00" cType="1" res="1.6625194111838937e-03" rms="4.2265215516090393e-01" purity="6.9674855470657349e-01" nType="-99"/>
          <Node pos="r" depth="2" NCoef="0" IVar="-1" Cut="0.0000000000000000e+00" cType="1" res="2.2741463908459991e-04" rms="4.4910645484924316e-01" purity="5.9859627485275269e-01" nType="-99"/>
        </Node>
        <Node pos="r" depth="1" NCoef="0" IVar="1" Cut="1.0640180110931396e+00" cType="1" res="-1.3253870420157909e-02" rms="4.4314265251159668e-01" purity="4.6922197937965393e-01" nType="0">
          <Node pos="l" depth="2" NCoef="0" IVar="-1" Cut="0.0000000000000000e+00" cType="1" res="-8.5242674686014652e-04" rms="4.3460756540298462e-01" purity="5.1258504390716553e-01" nType="-99"/>
          <Node pos="r" depth="2" NCoef="0" IVar="-1" Cut="0.0000000000000000e+00" cType="1" res="5.2509811939671636e-04" rms="4.4950130581855774e-01" purity="4.1752332448959351e-01" nType="-99"/>
        </Node>
      </Node>
    </BinaryTree>
    <BinaryTree type="DecisionTree" boostWeight="1.0000000000000000e+00" itree="684">
      <Node pos="s" depth="0" NCoef="0" IVar="5" Cut="1.1109516906738281e+02" cType="1" res="3.2619487494230270e-02" rms="4.4883453845977783e-01" purity="5.3418761491775513e-01" nType="0">
        <Node pos="l" depth="1" NCoef="0" IVar="4" Cut="3.1635314941406250e+02" cType="1" res="6.2696792185306549e-02" rms="4.3765971064567566e-01" purity="4.9844643473625183e-01" nType="0">
          <Node pos="l" depth="2" NCoef="0" IVar="-1" Cut="0.0000000000000000e+00" cType="1" res="-4.9678405048325658e-04" rms="4.3174180388450623e-01" purity="2.7503710985183716e-01" nType="-99"/>
          <Node pos="r" depth="2" NCoef="0" IVar="-1" Cut="0.0000000000000000e+00" cType="1" res="1.4440242666751146e-03" rms="4.3647629022598267e-01" purity="5.5312049388885498e-01" nType="-99"/>
        </Node>
        <Node pos="r" depth="1" NCoef="0" IVar="4" Cut="8.4965148925781250e+02" cType="1" res="1.1134622618556023e-02" rms="4.5543494820594788e-01" purity="5.5971843004226685e-01" nType="0">
          <Node pos="l" depth="2" NCoef="0" IVar="-1" Cut="0.0000000000000000e+00" cType="1" res="-1.2654499732889235e-04" rms="4.5822259783744812e-01" purity="5.3402036428451538e-01" nType="-99"/>
          <Node pos="r" depth="2" NCoef="0" IVar="-1" Cut="0.0000000000000000e+00" cType="1" res="2.8826978523284197e-03" rms="3.9082437753677368e-01" purity="7.9386168718338013e-01" nType="-99"/>
        </Node>
      </Node>
    </BinaryTree>
    <BinaryTree type="DecisionTree" boostWeight="1.0000000000000000e+00" itree="685">
      <Node pos="s" depth="0" NCoef="0" IVar="1" Cut="1.1217409372329712e+00" cType="1" res="1.0587702505290508e-02" rms="4.4200053811073303e-01" purity="5.1114237308502197e-01" nType="0">
        <Node pos="l" depth="1" NCoef="0" IVar="6" Cut="9.7807180881500244e-01" cType="1" res="3.0833138152956963e-02" rms="4.4858387112617493e-01" purity="5.9691518545150757e-01" nType="0">
          <Node pos="l" depth="2" NCoef="0" IVar="-1" Cut="0.0000000000000000e+00" cType="1" res="2.7858774410560727e-04" rms="4.4796288013458252e-01" purity="5.9069496393203735e-01" nType="-99"/>
          <Node pos="r" depth="2" NCoef="0" IVar="-1" Cut="0.0000000000000000e+00" cType="1" res="2.6632335502654314e-03" rms="4.3054780364036560e-01" purity="6.5817624330520630e-01" nType="-99"/>
        </Node>
        <Node pos="r" depth="1" NCoef="0" IVar="2" Cut="9.2632102966308594e-01" cType="1" res="-3.4680061042308807e-02" rms="4.2342591285705566e-01" purity="3.1935882568359375e-01" nType="0">
          <Node pos="l" depth="2" NCoef="0" IVar="-1" Cut="0.0000000000000000e+00" cType="1" res="-3.3024584408849478e-03" rms="2.4309319257736206e-01" purity="6.7436710000038147e-02" nType="-99"/>
          <Node pos="r" depth="2" NCoef="0" IVar="-1" Cut="0.0000000000000000e+00" cType="1" res="-1.8877537513617426e-04" rms="4.5661252737045288e-01" purity="3.8635036349296570e-01" nType="-99"/>
        </Node>
      </Node>
    </BinaryTree>
    <BinaryTree type="DecisionTree" boostWeight="1.0000000000000000e+00" itree="686">
      <Node pos="s" depth="0" NCoef="0" IVar="2" Cut="9.5952153205871582e-01" cType="1" res="1.3135721907019615e-02" rms="4.5401549339294434e-01" purity="5.0931978225708008e-01" nType="0">
        <Node pos="l" depth="1" NCoef="0" IVar="2" Cut="9.1759914159774780e-01" cType="1" res="3.1760036945343018e-02" rms="4.5369353890419006e-01" purity="4.3314653635025024e-01" nType="0">
          <Node pos="l" depth="2" NCoef="0" IVar="-1" Cut="0.0000000000000000e+00" cType="1" res="-1.3772906968370080e-03" rms="3.3573541045188904e-01" purity="1.7302070558071136e-01" nType="-99"/>
          <Node pos="r" depth="2" NCoef="0" IVar="-1" Cut="0.0000000000000000e+00" cType="1" res="7.9480384010821581e-04" rms="4.6992272138595581e-01" purity="4.8047152161598206e-01" nType="-99"/>
        </Node>
        <Node pos="r" depth="1" NCoef="0" IVar="1" Cut="9.1189050674438477e-01" cType="1" res="-2.7708847075700760e-02" rms="4.5204204320907593e-01" purity="6.7637372016906738e-01" nType="0">
          <Node pos="l" depth="2" NCoef="0" IVar="-1" Cut="0.0000000000000000e+00" cType="1" res="-1.3880012556910515e-03" rms="4.3898120522499084e-01" purity="6.9667667150497437e-01" nType="-99"/>
          <Node pos="r" depth="2" NCoef="0" IVar="-1" Cut="0.0000000000000000e+00" cType="1" res="2.9749481473118067e-04" rms="4.6224650740623474e-01" purity="6.5324735641479492e-01" nType="-99"/>
        </Node>
      </Node>
    </BinaryTree>
    <BinaryTree type="DecisionTree" boostWeight="1.0000000000000000e+00" itree="687">
      <Node pos="s" depth="0" NCoef="0" IVar="3" Cut="2.8899514770507812e+02" cType="1" res="1.9772341474890709e-02" rms="4.4093418121337891e-01" purity="5.1819682121276855e-01" nType="0">
        <Node pos="l" depth="1" NCoef="0" IVar="3" Cut="2.0128924560546875e+02" cType="1" res="3.3834621310234070e-02" rms="4.4094479084014893e-01" purity="5.3528285026550293e-01" nType="0">
          <Node pos="l" depth="2" NCoef="0" IVar="-1" Cut="0.0000000000000000e+00" cType="1" res="3.5080356610706076e-05" rms="4.4621738791465759e-01" purity="4.4756472110748291e-01" nType="-99"/>
          <Node pos="r" depth="2" NCoef="0" IVar="-1" Cut="0.0000000000000000e+00" cType="1" res="1.2857203837484121e-03" rms="4.3050163984298706e-01" purity="6.4931678771972656e-01" nType="-99"/>
        </Node>
        <Node pos="r" depth="1" NCoef="0" IVar="1" Cut="1.0454065799713135e+00" cType="1" res="-3.3634491264820099e-02" rms="4.3678840994834900e-01" purity="4.5330610871315002e-01" nType="0">
          <Node pos="l" depth="2" NCoef="0" IVar="-1" Cut="0.0000000000000000e+00" cType="1" res="1.0050466516986489e-03" rms="4.5450338721275330e-01" purity="7.1217399835586548e-01" nType="-99"/>
          <Node pos="r" depth="2" NCoef="0" IVar="-1" Cut="0.0000000000000000e+00" cType="1" res="-1.7064269632101059e-03" rms="4.1511422395706177e-01" purity="2.9359790682792664e-01" nType="-99"/>
        </Node>
      </Node>
    </BinaryTree>
    <BinaryTree type="DecisionTree" boostWeight="1.0000000000000000e+00" itree="688">
      <Node pos="s" depth="0" NCoef="0" IVar="2" Cut="9.6820753812789917e-01" cType="1" res="-9.3977563083171844e-03" rms="4.3607735633850098e-01" purity="4.9145343899726868e-01" nType="0">
        <Node pos="l" depth="1" NCoef="0" IVar="4" Cut="7.1238677978515625e+02" cType="1" res="-3.0509378761053085e-02" rms="4.4686639308929443e-01" purity="3.9998525381088257e-01" nType="0">
          <Node pos="l" depth="2" NCoef="0" IVar="-1" Cut="0.0000000000000000e+00" cType="1" res="-7.8695284901186824e-04" rms="4.4245806336402893e-01" purity="3.7397727370262146e-01" nType="-99"/>
          <Node pos="r" depth="2" NCoef="0" IVar="-1" Cut="0.0000000000000000e+00" cType="1" res="1.5271535376086831e-03" rms="4.6549093723297119e-01" purity="6.4227664470672607e-01" nType="-99"/>
        </Node>
        <Node pos="r" depth="1" NCoef="0" IVar="3" Cut="2.6264501953125000e+02" cType="1" res="6.2465041875839233e-02" rms="3.8865885138511658e-01" purity="8.0280601978302002e-01" nType="0">
          <Node pos="l" depth="2" NCoef="0" IVar="-1" Cut="0.0000000000000000e+00" cType="1" res="1.8122275359928608e-03" rms="3.7342762947082520e-01" purity="8.3488005399703979e-01" nType="-99"/>
          <Node pos="r" depth="2" NCoef="0" IVar="-1" Cut="0.0000000000000000e+00" cType="1" res="-6.7184329964220524e-04" rms="4.1041550040245056e-01" purity="7.2043496370315552e-01" nType="-99"/>
        </Node>
      </Node>
    </BinaryTree>
    <BinaryTree type="DecisionTree" boostWeight="1.0000000000000000e+00" itree="689">
      <Node pos="s" depth="0" NCoef="0" IVar="4" Cut="3.0633499145507812e+02" cType="1" res="-1.0241857962682843e-03" rms="4.2829003930091858e-01" purity="4.9489021301269531e-01" nType="0">
        <Node pos="l" depth="1" NCoef="0" IVar="-1" Cut="0.0000000000000000e+00" cType="1" res="-3.5983736161142588e-03" rms="3.1877672672271729e-01" purity="1.1940335482358932e-01" nType="-99"/>
        <Node pos="r" depth="1" NCoef="0" IVar="4" Cut="6.4303839111328125e+02" cType="1" res="8.9531308040022850e-03" rms="4.3190667033195496e-01" purity="5.1728528738021851e-01" nType="0">
          <Node pos="l" depth="2" NCoef="0" IVar="-1" Cut="0.0000000000000000e+00" cType="1" res="-1.0849667160073295e-04" rms="4.3332824110984802e-01" purity="4.8364126682281494e-01" nType="-99"/>
          <Node pos="r" depth="2" NCoef="0" IVar="-1" Cut="0.0000000000000000e+00" cType="1" res="1.4631674857810140e-03" rms="4.1608539223670959e-01" purity="6.8854588270187378e-01" nType="-99"/>
        </Node>
      </Node>
    </BinaryTree>
    <BinaryTree type="DecisionTree" boostWeight="1.0000000000000000e+00" itree="690">
      <Node pos="s" depth="0" NCoef="0" IVar="2" Cut="9.5912927389144897e-01" cType="1" res="1.8832067027688026e-02" rms="4.3408766388893127e-01" purity="5.1636588573455811e-01" nType="0">
        <Node pos="l" depth="1" NCoef="0" IVar="2" Cut="9.3616348505020142e-01" cType="1" res="-7.0987283252179623e-03" rms="4.4748458266258240e-01" purity="3.8434323668479919e-01" nType="0">
          <Node pos="l" depth="2" NCoef="0" IVar="-1" Cut="0.0000000000000000e+00" cType="1" res="6.7836535163223743e-04" rms="4.3232437968254089e-01" purity="3.4237414598464966e-01" nType="-99"/>
          <Node pos="r" depth="2" NCoef="0" IVar="-1" Cut="0.0000000000000000e+00" cType="1" res="-8.2771852612495422e-04" rms="4.5813241600990295e-01" purity="4.2694196105003357e-01" nType="-99"/>
        </Node>
        <Node pos="r" depth="1" NCoef="0" IVar="5" Cut="9.1975234985351562e+01" cType="1" res="6.9706454873085022e-02" rms="4.0168848633766174e-01" purity="7.7538496255874634e-01" nType="0">
          <Node pos="l" depth="2" NCoef="0" IVar="-1" Cut="0.0000000000000000e+00" cType="1" res="3.2831791322678328e-03" rms="3.2716000080108643e-01" purity="8.6306709051132202e-01" nType="-99"/>
          <Node pos="r" depth="2" NCoef="0" IVar="-1" Cut="0.0000000000000000e+00" cType="1" res="5.7737017050385475e-04" rms="4.1252085566520691e-01" purity="7.5035530328750610e-01" nType="-99"/>
        </Node>
      </Node>
    </BinaryTree>
    <BinaryTree type="DecisionTree" boostWeight="1.0000000000000000e+00" itree="691">
      <Node pos="s" depth="0" NCoef="0" IVar="6" Cut="1.1856119632720947e+00" cType="1" res="-9.0982670371886343e-05" rms="4.3839702010154724e-01" purity="4.8700314760208130e-01" nType="0">
        <Node pos="l" depth="1" NCoef="0" IVar="1" Cut="1.0587594509124756e+00" cType="1" res="7.1433321572840214e-03" rms="4.3937462568283081e-01" purity="5.0208634138107300e-01" nType="0">
          <Node pos="l" depth="2" NCoef="0" IVar="-1" Cut="0.0000000000000000e+00" cType="1" res="5.4044579155743122e-04" rms="4.3980908393859863e-01" purity="5.8867275714874268e-01" nType="-99"/>
          <Node pos="r" depth="2" NCoef="0" IVar="-1" Cut="0.0000000000000000e+00" cType="1" res="-7.9803448170423508e-04" rms="4.3430584669113159e-01" purity="3.2988494634628296e-01" nType="-99"/>
        </Node>
        <Node pos="r" depth="1" NCoef="0" IVar="-1" Cut="0.0000000000000000e+00" cType="1" res="-2.5153120514005423e-03" rms="3.9993539452552795e-01" purity="2.2149239480495453e-01" nType="-99"/>
      </Node>
    </BinaryTree>
    <BinaryTree type="DecisionTree" boostWeight="1.0000000000000000e+00" itree="692">
      <Node pos="s" depth="0" NCoef="0" IVar="5" Cut="2.7746179199218750e+02" cType="1" res="5.0861458294093609e-03" rms="4.4173133373260498e-01" purity="4.9888819456100464e-01" nType="0">
        <Node pos="l" depth="1" NCoef="0" IVar="4" Cut="7.0268988037109375e+02" cType="1" res="1.9151663407683372e-02" rms="4.3775042891502380e-01" purity="5.0870084762573242e-01" nType="0">
          <Node pos="l" depth="2" NCoef="0" IVar="-1" Cut="0.0000000000000000e+00" cType="1" res="1.6840716125443578e-04" rms="4.4016671180725098e-01" purity="4.9294191598892212e-01" nType="-99"/>
          <Node pos="r" depth="2" NCoef="0" IVar="-1" Cut="0.0000000000000000e+00" cType="1" res="2.8287542518228292e-03" rms="3.5875004529953003e-01" purity="7.7503019571304321e-01" nType="-99"/>
        </Node>
        <Node pos="r" depth="1" NCoef="0" IVar="-1" Cut="0.0000000000000000e+00" cType="1" res="-4.4702314771711826e-03" rms="4.3205845355987549e-01" purity="3.1292626261711121e-01" nType="-99"/>
      </Node>
    </BinaryTree>
    <BinaryTree type="DecisionTree" boostWeight="1.0000000000000000e+00" itree="693">
      <Node pos="s" depth="0" NCoef="0" IVar="3" Cut="4.1869802856445312e+02" cType="1" res="5.5075632408261299e-03" rms="4.4004920125007629e-01" purity="5.0442737340927124e-01" nType="0">
        <Node pos="l" depth="1" NCoef="0" IVar="3" Cut="1.3771807861328125e+02" cType="1" res="1.3550141826272011e-02" rms="4.4014060497283936e-01" purity="5.1923865079879761e-01" nType="0">
          <Node pos="l" depth="2" NCoef="0" IVar="-1" Cut="0.0000000000000000e+00" cType="1" res="-1.3620372628793120e-03" rms="4.1015809774398804e-01" purity="3.4845194220542908e-01" nType="-99"/>
          <Node pos="r" depth="2" NCoef="0" IVar="-1" Cut="0.0000000000000000e+00" cType="1" res="4.3427161290310323e-04" rms="4.4250762462615967e-01" purity="5.4133772850036621e-01" nType="-99"/>
        </Node>
        <Node pos="r" depth="1" NCoef="0" IVar="-1" Cut="0.0000000000000000e+00" cType="1" res="-2.1147711668163538e-03" rms="4.2219117283821106e-01" purity="2.9191946983337402e-01" nType="-99"/>
      </Node>
    </BinaryTree>
    <BinaryTree type="DecisionTree" boostWeight="1.0000000000000000e+00" itree="694">
      <Node pos="s" depth="0" NCoef="0" IVar="5" Cut="6.8234909057617188e+01" cType="1" res="-1.1091775260865688e-02" rms="4.4510769844055176e-01" purity="4.6956568956375122e-01" nType="0">
        <Node pos="l" depth="1" NCoef="0" IVar="-1" Cut="0.0000000000000000e+00" cType="1" res="2.3968918249011040e-03" rms="4.9555650353431702e-01" purity="4.3054959177970886e-01" nType="-99"/>
        <Node pos="r" depth="1" NCoef="0" IVar="1" Cut="1.0679847002029419e+00" cType="1" res="-2.0049935206770897e-02" rms="4.4015201926231384e-01" purity="4.7208467125892639e-01" nType="0">
          <Node pos="l" depth="2" NCoef="0" IVar="-1" Cut="0.0000000000000000e+00" cType="1" res="1.1418951180530712e-04" rms="4.5215570926666260e-01" purity="5.7556945085525513e-01" nType="-99"/>
          <Node pos="r" depth="2" NCoef="0" IVar="-1" Cut="0.0000000000000000e+00" cType="1" res="-1.2164042564108968e-03" rms="4.1604328155517578e-01" purity="3.0280572175979614e-01" nType="-99"/>
        </Node>
      </Node>
    </BinaryTree>
    <BinaryTree type="DecisionTree" boostWeight="1.0000000000000000e+00" itree="695">
      <Node pos="s" depth="0" NCoef="0" IVar="1" Cut="1.1047523021697998e+00" cType="1" res="1.5609608031809330e-02" rms="4.4556158781051636e-01" purity="5.1857554912567139e-01" nType="0">
        <Node pos="l" depth="1" NCoef="0" IVar="6" Cut="6.9192153215408325e-01" cType="1" res="4.1470255702733994e-02" rms="4.4542893767356873e-01" purity="5.9777569770812988e-01" nType="0">
          <Node pos="l" depth="2" NCoef="0" IVar="-1" Cut="0.0000000000000000e+00" cType="1" res="3.0360044911503792e-04" rms="4.4434183835983276e-01" purity="5.8611434698104858e-01" nType="-99"/>
          <Node pos="r" depth="2" NCoef="0" IVar="-1" Cut="0.0000000000000000e+00" cType="1" res="1.5327510191127658e-03" rms="4.4332557916641235e-01" purity="6.2366455793380737e-01" nType="-99"/>
        </Node>
        <Node pos="r" depth="1" NCoef="0" IVar="4" Cut="4.5554135131835938e+02" cType="1" res="-4.0836300700902939e-02" rms="4.4061014056205750e-01" purity="3.4570583701133728e-01" nType="0">
          <Node pos="l" depth="2" NCoef="0" IVar="-1" Cut="0.0000000000000000e+00" cType="1" res="-1.9465703517198563e-03" rms="4.1674739122390747e-01" purity="2.3982651531696320e-01" nType="-99"/>
          <Node pos="r" depth="2" NCoef="0" IVar="-1" Cut="0.0000000000000000e+00" cType="1" res="4.3058214941993356e-04" rms="4.5845618844032288e-01" purity="4.7070544958114624e-01" nType="-99"/>
        </Node>
      </Node>
    </BinaryTree>
    <BinaryTree type="DecisionTree" boostWeight="1.0000000000000000e+00" itree="696">
      <Node pos="s" depth="0" NCoef="0" IVar="6" Cut="1.0964723825454712e+00" cType="1" res="-1.0124592110514641e-02" rms="4.3897923827171326e-01" purity="4.9458041787147522e-01" nType="0">
        <Node pos="l" depth="1" NCoef="0" IVar="5" Cut="1.2510549163818359e+02" cType="1" res="2.4710411671549082e-03" rms="4.4253021478652954e-01" purity="5.2036380767822266e-01" nType="0">
          <Node pos="l" depth="2" NCoef="0" IVar="-1" Cut="0.0000000000000000e+00" cType="1" res="6.8664766149595380e-04" rms="4.3708983063697815e-01" purity="5.1501113176345825e-01" nType="-99"/>
          <Node pos="r" depth="2" NCoef="0" IVar="-1" Cut="0.0000000000000000e+00" cType="1" res="-6.4027588814496994e-04" rms="4.4482666254043579e-01" purity="5.2601206302642822e-01" nType="-99"/>
        </Node>
        <Node pos="r" depth="1" NCoef="0" IVar="-1" Cut="0.0000000000000000e+00" cType="1" res="-2.7002755086869001e-03" rms="3.7782108783721924e-01" purity="2.3197932541370392e-01" nType="-99"/>
      </Node>
    </BinaryTree>
    <BinaryTree type="DecisionTree" boostWeight="1.0000000000000000e+00" itree="697">
      <Node pos="s" depth="0" NCoef="0" IVar="4" Cut="3.7468206787109375e+02" cType="1" res="5.8486929628998041e-04" rms="4.2929452657699585e-01" purity="4.9429184198379517e-01" nType="0">
        <Node pos="l" depth="1" NCoef="0" IVar="1" Cut="9.0043729543685913e-01" cType="1" res="-6.7472979426383972e-02" rms="4.1378870606422424e-01" purity="3.0989101529121399e-01" nType="0">
          <Node pos="l" depth="2" NCoef="0" IVar="-1" Cut="0.0000000000000000e+00" cType="1" res="-2.7364543639123440e-03" rms="3.5492947697639465e-01" purity="2.6502269506454468e-01" nType="-99"/>
          <Node pos="r" depth="2" NCoef="0" IVar="-1" Cut="0.0000000000000000e+00" cType="1" res="-2.6584573788568377e-04" rms="4.3772846460342407e-01" purity="3.3763504028320312e-01" nType="-99"/>
        </Node>
        <Node pos="r" depth="1" NCoef="0" IVar="2" Cut="9.2465227842330933e-01" cType="1" res="2.1464623510837555e-02" rms="4.3179559707641602e-01" purity="5.5086499452590942e-01" nType="0">
          <Node pos="l" depth="2" NCoef="0" IVar="-1" Cut="0.0000000000000000e+00" cType="1" res="-1.1553451186046004e-03" rms="3.9053559303283691e-01" purity="2.1902640163898468e-01" nType="-99"/>
          <Node pos="r" depth="2" NCoef="0" IVar="-1" Cut="0.0000000000000000e+00" cType="1" res="6.3421396771445870e-04" rms="4.3801409006118774e-01" purity="6.1920291185379028e-01" nType="-99"/>
        </Node>
      </Node>
    </BinaryTree>
    <BinaryTree type="DecisionTree" boostWeight="1.0000000000000000e+00" itree="698">
      <Node pos="s" depth="0" NCoef="0" IVar="1" Cut="1.0679847002029419e+00" cType="1" res="3.5329975187778473e-02" rms="4.4020608067512512e-01" purity="5.3201651573181152e-01" nType="0">
        <Node pos="l" depth="1" NCoef="0" IVar="1" Cut="5.0696665048599243e-01" cType="1" res="6.1089947819709778e-02" rms="4.4070056080818176e-01" purity="6.1759334802627563e-01" nType="0">
          <Node pos="l" depth="2" NCoef="0" IVar="-1" Cut="0.0000000000000000e+00" cType="1" res="-6.3936586957424879e-04" rms="4.3994402885437012e-01" purity="5.5038458108901978e-01" nType="-99"/>
          <Node pos="r" depth="2" NCoef="0" IVar="-1" Cut="0.0000000000000000e+00" cType="1" res="1.3807991053909063e-03" rms="4.3794813752174377e-01" purity="6.3222742080688477e-01" nType="-99"/>
        </Node>
        <Node pos="r" depth="1" NCoef="0" IVar="6" Cut="1.0830436944961548e+00" cType="1" res="-1.9670402631163597e-02" rms="4.3406161665916443e-01" purity="3.4930035471916199e-01" nType="0">
          <Node pos="l" depth="2" NCoef="0" IVar="-1" Cut="0.0000000000000000e+00" cType="1" res="1.5253553283400834e-04" rms="4.4102451205253601e-01" purity="3.7896499037742615e-01" nType="-99"/>
          <Node pos="r" depth="2" NCoef="0" IVar="-1" Cut="0.0000000000000000e+00" cType="1" res="-2.5308001786470413e-03" rms="3.9066827297210693e-01" purity="2.4004516005516052e-01" nType="-99"/>
        </Node>
      </Node>
    </BinaryTree>
    <BinaryTree type="DecisionTree" boostWeight="1.0000000000000000e+00" itree="699">
      <Node pos="s" depth="0" NCoef="0" IVar="3" Cut="1.7979666137695312e+02" cType="1" res="6.9436077028512955e-03" rms="4.3069177865982056e-01" purity="5.1624357700347900e-01" nType="0">
        <Node pos="l" depth="1" NCoef="0" IVar="5" Cut="1.0325049591064453e+02" cType="1" res="-3.6601442843675613e-02" rms="4.3530210852622986e-01" purity="4.0131890773773193e-01" nType="0">
          <Node pos="l" depth="2" NCoef="0" IVar="-1" Cut="0.0000000000000000e+00" cType="1" res="7.5368781108409166e-04" rms="4.1963514685630798e-01" purity="4.7179579734802246e-01" nType="-99"/>
          <Node pos="r" depth="2" NCoef="0" IVar="-1" Cut="0.0000000000000000e+00" cType="1" res="-2.3152064532041550e-03" rms="4.3484845757484436e-01" purity="3.1186190247535706e-01" nType="-99"/>
        </Node>
        <Node pos="r" depth="1" NCoef="0" IVar="1" Cut="1.4159518480300903e+00" cType="1" res="2.8963642194867134e-02" rms="4.2665290832519531e-01" purity="5.7435911893844604e-01" nType="0">
          <Node pos="l" depth="2" NCoef="0" IVar="-1" Cut="0.0000000000000000e+00" cType="1" res="7.9014222137629986e-04" rms="4.3436792492866516e-01" purity="6.4843922853469849e-01" nType="-99"/>
          <Node pos="r" depth="2" NCoef="0" IVar="-1" Cut="0.0000000000000000e+00" cType="1" res="-1.2028297642245889e-03" rms="3.7618279457092285e-01" purity="2.1670369803905487e-01" nType="-99"/>
        </Node>
      </Node>
    </BinaryTree>
    <BinaryTree type="DecisionTree" boostWeight="1.0000000000000000e+00" itree="700">
      <Node pos="s" depth="0" NCoef="0" IVar="4" Cut="4.0667080688476562e+02" cType="1" res="4.9725919961929321e-03" rms="4.4230619072914124e-01" purity="5.1088613271713257e-01" nType="0">
        <Node pos="l" depth="1" NCoef="0" IVar="6" Cut="4.8415672779083252e-01" cType="1" res="-3.5856690257787704e-02" rms="4.4556042551994324e-01" purity="3.6974704265594482e-01" nType="0">
          <Node pos="l" depth="2" NCoef="0" IVar="-1" Cut="0.0000000000000000e+00" cType="1" res="-1.9977048505097628e-03" rms="4.4205048680305481e-01" purity="3.3516040444374084e-01" nType="-99"/>
          <Node pos="r" depth="2" NCoef="0" IVar="-1" Cut="0.0000000000000000e+00" cType="1" res="-1.9519509805832058e-04" rms="4.4374197721481323e-01" purity="3.8088384270668030e-01" nType="-99"/>
        </Node>
        <Node pos="r" depth="1" NCoef="0" IVar="0" Cut="2.7817974853515625e+02" cType="1" res="2.9844924807548523e-02" rms="4.3845242261886597e-01" purity="5.9686505794525146e-01" nType="0">
          <Node pos="l" depth="2" NCoef="0" IVar="-1" Cut="0.0000000000000000e+00" cType="1" res="2.4535853881388903e-03" rms="4.2906880378723145e-01" purity="6.5596616268157959e-01" nType="-99"/>
          <Node pos="r" depth="2" NCoef="0" IVar="-1" Cut="0.0000000000000000e+00" cType="1" res="2.5396619457751513e-04" rms="4.3715885281562805e-01" purity="5.8970248699188232e-01" nType="-99"/>
        </Node>
      </Node>
    </BinaryTree>
    <BinaryTree type="DecisionTree" boostWeight="1.0000000000000000e+00" itree="701">
      <Node pos="s" depth="0" NCoef="0" IVar="4" Cut="7.2201507568359375e+02" cType="1" res="-2.6364525780081749e-02" rms="4.3741837143898010e-01" purity="4.6995848417282104e-01" nType="0">
        <Node pos="l" depth="1" NCoef="0" IVar="3" Cut="1.3391934204101562e+02" cType="1" res="-3.7889316678047180e-02" rms="4.3730077147483826e-01" purity="4.4436353445053101e-01" nType="0">
          <Node pos="l" depth="2" NCoef="0" IVar="-1" Cut="0.0000000000000000e+00" cType="1" res="-3.2083964906632900e-03" rms="3.7542134523391724e-01" purity="2.4571670591831207e-01" nType="-99"/>
          <Node pos="r" depth="2" NCoef="0" IVar="-1" Cut="0.0000000000000000e+00" cType="1" res="-4.7230903874151409e-04" rms="4.4069805741310120e-01" purity="4.6240881085395813e-01" nType="-99"/>
        </Node>
        <Node pos="r" depth="1" NCoef="0" IVar="-1" Cut="0.0000000000000000e+00" cType="1" res="1.3330061919987202e-03" rms="4.2421320080757141e-01" purity="7.0398402214050293e-01" nType="-99"/>
      </Node>
    </BinaryTree>
    <BinaryTree type="DecisionTree" boostWeight="1.0000000000000000e+00" itree="702">
      <Node pos="s" depth="0" NCoef="0" IVar="6" Cut="5.8203405141830444e-01" cType="1" res="-9.4315130263566971e-03" rms="4.3123245239257812e-01" purity="4.8872196674346924e-01" nType="0">
        <Node pos="l" depth="1" NCoef="0" IVar="6" Cut="5.1610225439071655e-01" cType="1" res="3.4206178039312363e-02" rms="4.3440961837768555e-01" purity="5.9179240465164185e-01" nType="0">
          <Node pos="l" depth="2" NCoef="0" IVar="-1" Cut="0.0000000000000000e+00" cType="1" res="1.4629999350290745e-04" rms="4.2891195416450500e-01" purity="5.7629376649856567e-01" nType="-99"/>
          <Node pos="r" depth="2" NCoef="0" IVar="-1" Cut="0.0000000000000000e+00" cType="1" res="2.8031999245285988e-03" rms="4.3763673305511475e-01" purity="6.7481493949890137e-01" nType="-99"/>
        </Node>
        <Node pos="r" depth="1" NCoef="0" IVar="2" Cut="9.5690095424652100e-01" cType="1" res="-3.9860367774963379e-02" rms="4.2636820673942566e-01" purity="4.1685026884078979e-01" nType="0">
          <Node pos="l" depth="2" NCoef="0" IVar="-1" Cut="0.0000000000000000e+00" cType="1" res="-1.2073367834091187e-03" rms="4.1326165199279785e-01" purity="2.8516632318496704e-01" nType="-99"/>
          <Node pos="r" depth="2" NCoef="0" IVar="-1" Cut="0.0000000000000000e+00" cType="1" res="1.4234153786674142e-04" rms="4.4663730263710022e-01" purity="6.7071241140365601e-01" nType="-99"/>
        </Node>
      </Node>
    </BinaryTree>
    <BinaryTree type="DecisionTree" boostWeight="1.0000000000000000e+00" itree="703">
      <Node pos="s" depth="0" NCoef="0" IVar="2" Cut="9.1704148054122925e-01" cType="1" res="-2.4297558702528477e-03" rms="4.4048762321472168e-01" purity="4.8468863964080811e-01" nType="0">
        <Node pos="l" depth="1" NCoef="0" IVar="6" Cut="6.2666678428649902e-01" cType="1" res="-8.8741883635520935e-02" rms="3.0755576491355896e-01" purity="1.2673081457614899e-01" nType="0">
          <Node pos="l" depth="2" NCoef="0" IVar="-1" Cut="0.0000000000000000e+00" cType="1" res="-2.8933510184288025e-03" rms="2.8741446137428284e-01" purity="1.1258877813816071e-01" nType="-99"/>
          <Node pos="r" depth="2" NCoef="0" IVar="-1" Cut="0.0000000000000000e+00" cType="1" res="-1.3544722460210323e-03" rms="3.2005605101585388e-01" purity="1.3941995799541473e-01" nType="-99"/>
        </Node>
        <Node pos="r" depth="1" NCoef="0" IVar="5" Cut="8.8568473815917969e+01" cType="1" res="8.0602774396538734e-03" rms="4.5287886261940002e-01" purity="5.2819341421127319e-01" nType="0">
          <Node pos="l" depth="2" NCoef="0" IVar="-1" Cut="0.0000000000000000e+00" cType="1" res="1.0595157509669662e-03" rms="4.4957146048545837e-01" purity="4.9126246571540833e-01" nType="-99"/>
          <Node pos="r" depth="2" NCoef="0" IVar="-1" Cut="0.0000000000000000e+00" cType="1" res="-1.1038817319786176e-04" rms="4.5265701413154602e-01" purity="5.3809207677841187e-01" nType="-99"/>
        </Node>
      </Node>
    </BinaryTree>
    <BinaryTree type="DecisionTree" boostWeight="1.0000000000000000e+00" itree="704">
      <Node pos="s" depth="0" NCoef="0" IVar="2" Cut="9.5197546482086182e-01" cType="1" res="1.4350407756865025e-02" rms="4.3530133366584778e-01" purity="5.2099984884262085e-01" nType="0">
        <Node pos="l" depth="1" NCoef="0" IVar="3" Cut="2.1695512390136719e+02" cType="1" res="-2.1943956613540649e-02" rms="4.3845596909523010e-01" purity="3.4837770462036133e-01" nType="0">
          <Node pos="l" depth="2" NCoef="0" IVar="-1" Cut="0.0000000000000000e+00" cType="1" res="-1.1461984831839800e-03" rms="4.1709575057029724e-01" purity="2.6566991209983826e-01" nType="-99"/>
          <Node pos="r" depth="2" NCoef="0" IVar="-1" Cut="0.0000000000000000e+00" cType="1" res="4.3947406811639667e-04" rms="4.5684629678726196e-01" purity="4.4191777706146240e-01" nType="-99"/>
        </Node>
        <Node pos="r" depth="1" NCoef="0" IVar="0" Cut="4.7251812744140625e+02" cType="1" res="5.6649532169103622e-02" rms="4.2772698402404785e-01" purity="7.2218161821365356e-01" nType="0">
          <Node pos="l" depth="2" NCoef="0" IVar="-1" Cut="0.0000000000000000e+00" cType="1" res="1.2481732992455363e-03" rms="4.2031681537628174e-01" purity="7.3248010873794556e-01" nType="-99"/>
          <Node pos="r" depth="2" NCoef="0" IVar="-1" Cut="0.0000000000000000e+00" cType="1" res="-9.1486837482079864e-04" rms="4.5666658878326416e-01" purity="6.5953409671783447e-01" nType="-99"/>
        </Node>
      </Node>
    </BinaryTree>
    <BinaryTree type="DecisionTree" boostWeight="1.0000000000000000e+00" itree="705">
      <Node pos="s" depth="0" NCoef="0" IVar="4" Cut="3.1980120849609375e+02" cType="1" res="-2.5789430364966393e-03" rms="4.3807142972946167e-01" purity="5.0240892171859741e-01" nType="0">
        <Node pos="l" depth="1" NCoef="0" IVar="-1" Cut="0.0000000000000000e+00" cType="1" res="-2.9528459999710321e-03" rms="3.2494825124740601e-01" purity="1.6246223449707031e-01" nType="-99"/>
        <Node pos="r" depth="1" NCoef="0" IVar="4" Cut="6.5213378906250000e+02" cType="1" res="7.8032552264630795e-03" rms="4.4395732879638672e-01" purity="5.2875727415084839e-01" nType="0">
          <Node pos="l" depth="2" NCoef="0" IVar="-1" Cut="0.0000000000000000e+00" cType="1" res="-4.1168295865645632e-05" rms="4.4442349672317505e-01" purity="4.9893060326576233e-01" nType="-99"/>
          <Node pos="r" depth="2" NCoef="0" IVar="-1" Cut="0.0000000000000000e+00" cType="1" res="8.9067319640889764e-04" rms="4.3893104791641235e-01" purity="6.6335463523864746e-01" nType="-99"/>
        </Node>
      </Node>
    </BinaryTree>
    <BinaryTree type="DecisionTree" boostWeight="1.0000000000000000e+00" itree="706">
      <Node pos="s" depth="0" NCoef="0" IVar="2" Cut="9.4665056467056274e-01" cType="1" res="1.0553056374192238e-02" rms="4.4064459204673767e-01" purity="5.0859922170639038e-01" nType="0">
        <Node pos="l" depth="1" NCoef="0" IVar="2" Cut="9.2238849401473999e-01" cType="1" res="-3.2363511621952057e-02" rms="4.4029790163040161e-01" purity="3.0251365900039673e-01" nType="0">
          <Node pos="l" depth="2" NCoef="0" IVar="-1" Cut="0.0000000000000000e+00" cType="1" res="6.7571928957477212e-04" rms="4.1454720497131348e-01" purity="2.8127947449684143e-01" nType="-99"/>
          <Node pos="r" depth="2" NCoef="0" IVar="-1" Cut="0.0000000000000000e+00" cType="1" res="-1.0724480962380767e-03" rms="4.4860723614692688e-01" purity="3.1236654520034790e-01" nType="-99"/>
        </Node>
        <Node pos="r" depth="1" NCoef="0" IVar="6" Cut="3.3293053507804871e-01" cType="1" res="4.8613358289003372e-02" rms="4.3744310736656189e-01" purity="6.9136506319046021e-01" nType="0">
          <Node pos="l" depth="2" NCoef="0" IVar="-1" Cut="0.0000000000000000e+00" cType="1" res="-1.1895863572135568e-03" rms="4.5349341630935669e-01" purity="6.4195889234542847e-01" nType="-99"/>
          <Node pos="r" depth="2" NCoef="0" IVar="-1" Cut="0.0000000000000000e+00" cType="1" res="1.0883401846513152e-03" rms="4.3232113122940063e-01" purity="6.9895023107528687e-01" nType="-99"/>
        </Node>
      </Node>
    </BinaryTree>
    <BinaryTree type="DecisionTree" boostWeight="1.0000000000000000e+00" itree="707">
      <Node pos="s" depth="0" NCoef="0" IVar="5" Cut="2.7631118774414062e+02" cType="1" res="1.9557396881282330e-03" rms="4.3253907561302185e-01" purity="5.0250959396362305e-01" nType="0">
        <Node pos="l" depth="1" NCoef="0" IVar="5" Cut="1.5205427551269531e+02" cType="1" res="-1.0169794782996178e-02" rms="4.3296140432357788e-01" purity="4.8310139775276184e-01" nType="0">
          <Node pos="l" depth="2" NCoef="0" IVar="-1" Cut="0.0000000000000000e+00" cType="1" res="2.7793514891527593e-04" rms="4.2792752385139465e-01" purity="4.8829096555709839e-01" nType="-99"/>
          <Node pos="r" depth="2" NCoef="0" IVar="-1" Cut="0.0000000000000000e+00" cType="1" res="-1.4053512131795287e-03" rms="4.3873986601829529e-01" purity="4.6922305226325989e-01" nType="-99"/>
        </Node>
        <Node pos="r" depth="1" NCoef="0" IVar="-1" Cut="0.0000000000000000e+00" cType="1" res="2.4353789631277323e-03" rms="4.0001562237739563e-01" purity="7.3422771692276001e-01" nType="-99"/>
      </Node>
    </BinaryTree>
    <BinaryTree type="DecisionTree" boostWeight="1.0000000000000000e+00" itree="708">
      <Node pos="s" depth="0" NCoef="0" IVar="3" Cut="4.2230728149414062e+02" cType="1" res="-2.3120503872632980e-02" rms="4.4235554337501526e-01" purity="4.7460323572158813e-01" nType="0">
        <Node pos="l" depth="1" NCoef="0" IVar="5" Cut="1.2337892150878906e+02" cType="1" res="-1.1172707192599773e-02" rms="4.4745662808418274e-01" purity="4.9450793862342834e-01" nType="0">
          <Node pos="l" depth="2" NCoef="0" IVar="-1" Cut="0.0000000000000000e+00" cType="1" res="3.0565648921765387e-04" rms="4.5014309883117676e-01" purity="4.7446414828300476e-01" nType="-99"/>
          <Node pos="r" depth="2" NCoef="0" IVar="-1" Cut="0.0000000000000000e+00" cType="1" res="-8.5090735228732228e-04" rms="4.4115397334098816e-01" purity="5.2043414115905762e-01" nType="-99"/>
        </Node>
        <Node pos="r" depth="1" NCoef="0" IVar="-1" Cut="0.0000000000000000e+00" cType="1" res="-2.9169667977839708e-03" rms="3.6124014854431152e-01" purity="2.6485946774482727e-01" nType="-99"/>
      </Node>
    </BinaryTree>
    <BinaryTree type="DecisionTree" boostWeight="1.0000000000000000e+00" itree="709">
      <Node pos="s" depth="0" NCoef="0" IVar="4" Cut="5.4635748291015625e+02" cType="1" res="1.9105127081274986e-02" rms="4.2712008953094482e-01" purity="5.1393604278564453e-01" nType="0">
        <Node pos="l" depth="1" NCoef="0" IVar="2" Cut="9.4096350669860840e-01" cType="1" res="-5.6418888270854950e-03" rms="4.2679014801979065e-01" purity="4.5011392235755920e-01" nType="0">
          <Node pos="l" depth="2" NCoef="0" IVar="-1" Cut="0.0000000000000000e+00" cType="1" res="-1.0274347150698304e-03" rms="3.9954429864883423e-01" purity="2.2889316082000732e-01" nType="-99"/>
          <Node pos="r" depth="2" NCoef="0" IVar="-1" Cut="0.0000000000000000e+00" cType="1" res="4.5874560601077974e-04" rms="4.4238492846488953e-01" purity="6.0935258865356445e-01" nType="-99"/>
        </Node>
        <Node pos="r" depth="1" NCoef="0" IVar="5" Cut="2.5457263183593750e+02" cType="1" res="7.6452478766441345e-02" rms="4.2234656214714050e-01" purity="6.6183382272720337e-01" nType="0">
          <Node pos="l" depth="2" NCoef="0" IVar="-1" Cut="0.0000000000000000e+00" cType="1" res="1.8340247916057706e-03" rms="4.1511932015419006e-01" purity="6.9073766469955444e-01" nType="-99"/>
          <Node pos="r" depth="2" NCoef="0" IVar="-1" Cut="0.0000000000000000e+00" cType="1" res="-3.1352188671007752e-04" rms="4.2880141735076904e-01" purity="5.7832688093185425e-01" nType="-99"/>
        </Node>
      </Node>
    </BinaryTree>
    <BinaryTree type="DecisionTree" boostWeight="1.0000000000000000e+00" itree="710">
      <Node pos="s" depth="0" NCoef="0" IVar="3" Cut="2.3952200317382812e+02" cType="1" res="1.2341696768999100e-02" rms="4.4350481033325195e-01" purity="5.1437866687774658e-01" nType="0">
        <Node pos="l" depth="1" NCoef="0" IVar="2" Cut="9.4699889421463013e-01" cType="1" res="-1.3344553299248219e-02" rms="4.4122228026390076e-01" purity="4.8134216666221619e-01" nType="0">
          <Node pos="l" depth="2" NCoef="0" IVar="-1" Cut="0.0000000000000000e+00" cType="1" res="-1.1104471050202847e-03" rms="4.1290196776390076e-01" purity="2.6543638110160828e-01" nType="-99"/>
          <Node pos="r" depth="2" NCoef="0" IVar="-1" Cut="0.0000000000000000e+00" cType="1" res="4.1313949623145163e-04" rms="4.5884203910827637e-01" purity="6.5306013822555542e-01" nType="-99"/>
        </Node>
        <Node pos="r" depth="1" NCoef="0" IVar="2" Cut="9.4679903984069824e-01" cType="1" res="5.1293924450874329e-02" rms="4.4411835074424744e-01" purity="5.6447732448577881e-01" nType="0">
          <Node pos="l" depth="2" NCoef="0" IVar="-1" Cut="0.0000000000000000e+00" cType="1" res="1.8376668449491262e-03" rms="4.4825407862663269e-01" purity="4.7579288482666016e-01" nType="-99"/>
          <Node pos="r" depth="2" NCoef="0" IVar="-1" Cut="0.0000000000000000e+00" cType="1" res="1.0970736639137613e-06" rms="4.3398192524909973e-01" purity="6.4950251579284668e-01" nType="-99"/>
        </Node>
      </Node>
    </BinaryTree>
    <BinaryTree type="DecisionTree" boostWeight="1.0000000000000000e+00" itree="711">
      <Node pos="s" depth="0" NCoef="0" IVar="1" Cut="8.4866744279861450e-01" cType="1" res="-1.8147515133023262e-02" rms="4.3817615509033203e-01" purity="4.8828655481338501e-01" nType="0">
        <Node pos="l" depth="1" NCoef="0" IVar="3" Cut="2.2696040344238281e+02" cType="1" res="2.5430094450712204e-02" rms="4.3150100111961365e-01" purity="6.2206435203552246e-01" nType="0">
          <Node pos="l" depth="2" NCoef="0" IVar="-1" Cut="0.0000000000000000e+00" cType="1" res="-4.1708226490300149e-05" rms="4.5428556203842163e-01" purity="5.3699427843093872e-01" nType="-99"/>
          <Node pos="r" depth="2" NCoef="0" IVar="-1" Cut="0.0000000000000000e+00" cType="1" res="1.5711550367996097e-03" rms="3.7186047434806824e-01" purity="8.0231785774230957e-01" nType="-99"/>
        </Node>
        <Node pos="r" depth="1" NCoef="0" IVar="5" Cut="1.8506045532226562e+02" cType="1" res="-5.5208776146173477e-02" rms="4.4039407372474670e-01" purity="3.7451317906379700e-01" nType="0">
          <Node pos="l" depth="2" NCoef="0" IVar="-1" Cut="0.0000000000000000e+00" cType="1" res="-1.3612025650218129e-03" rms="4.3803834915161133e-01" purity="3.3096107840538025e-01" nType="-99"/>
          <Node pos="r" depth="2" NCoef="0" IVar="-1" Cut="0.0000000000000000e+00" cType="1" res="2.4247702094726264e-04" rms="4.4280350208282471e-01" purity="5.4753255844116211e-01" nType="-99"/>
        </Node>
      </Node>
    </BinaryTree>
    <BinaryTree type="DecisionTree" boostWeight="1.0000000000000000e+00" itree="712">
      <Node pos="s" depth="0" NCoef="0" IVar="3" Cut="3.1944964599609375e+02" cType="1" res="-1.3927581720054150e-02" rms="4.4375091791152954e-01" purity="4.7985315322875977e-01" nType="0">
        <Node pos="l" depth="1" NCoef="0" IVar="3" Cut="1.8524081420898438e+02" cType="1" res="-1.6115191392600536e-03" rms="4.4517096877098083e-01" purity="4.9781379103660583e-01" nType="0">
          <Node pos="l" depth="2" NCoef="0" IVar="-1" Cut="0.0000000000000000e+00" cType="1" res="-6.6756253363564610e-04" rms="4.4751355051994324e-01" purity="3.9451733231544495e-01" nType="-99"/>
          <Node pos="r" depth="2" NCoef="0" IVar="-1" Cut="0.0000000000000000e+00" cType="1" res="4.5458576641976833e-04" rms="4.4136580824851990e-01" purity="5.7598459720611572e-01" nType="-99"/>
        </Node>
        <Node pos="r" depth="1" NCoef="0" IVar="1" Cut="1.0494691133499146e+00" cType="1" res="-7.9818315804004669e-02" rms="4.3012598156929016e-01" purity="3.8376408815383911e-01" nType="0">
          <Node pos="l" depth="2" NCoef="0" IVar="-1" Cut="0.0000000000000000e+00" cType="1" res="1.0579470108496025e-04" rms="4.7128254175186157e-01" purity="6.5583467483520508e-01" nType="-99"/>
          <Node pos="r" depth="2" NCoef="0" IVar="-1" Cut="0.0000000000000000e+00" cType="1" res="-2.5708964094519615e-03" rms="3.9569947123527527e-01" purity="2.2549982368946075e-01" nType="-99"/>
        </Node>
      </Node>
    </BinaryTree>
    <BinaryTree type="DecisionTree" boostWeight="1.0000000000000000e+00" itree="713">
      <Node pos="s" depth="0" NCoef="0" IVar="4" Cut="6.0909661865234375e+02" cType="1" res="-2.9804453253746033e-02" rms="4.3640378117561340e-01" purity="4.6592181921005249e-01" nType="0">
        <Node pos="l" depth="1" NCoef="0" IVar="6" Cut="6.5804475545883179e-01" cType="1" res="-4.5490778982639313e-02" rms="4.3645527958869934e-01" purity="4.2486461997032166e-01" nType="0">
          <Node pos="l" depth="2" NCoef="0" IVar="-1" Cut="0.0000000000000000e+00" cType="1" res="-1.6480769263580441e-03" rms="4.3768730759620667e-01" purity="4.3848493695259094e-01" nType="-99"/>
          <Node pos="r" depth="2" NCoef="0" IVar="-1" Cut="0.0000000000000000e+00" cType="1" res="-1.7079391909646802e-05" rms="4.3058967590332031e-01" purity="4.1173407435417175e-01" nType="-99"/>
        </Node>
        <Node pos="r" depth="1" NCoef="0" IVar="2" Cut="9.4732010364532471e-01" cType="1" res="3.5612143576145172e-02" rms="4.3006429076194763e-01" purity="6.3714241981506348e-01" nType="0">
          <Node pos="l" depth="2" NCoef="0" IVar="-1" Cut="0.0000000000000000e+00" cType="1" res="-5.1172712119296193e-04" rms="4.5835712552070618e-01" purity="4.5230352878570557e-01" nType="-99"/>
          <Node pos="r" depth="2" NCoef="0" IVar="-1" Cut="0.0000000000000000e+00" cType="1" res="1.5736254863440990e-03" rms="3.9908060431480408e-01" purity="7.7900350093841553e-01" nType="-99"/>
        </Node>
      </Node>
    </BinaryTree>
    <BinaryTree type="DecisionTree" boostWeight="1.0000000000000000e+00" itree="714">
      <Node pos="s" depth="0" NCoef="0" IVar="1" Cut="5.2056711912155151e-01" cType="1" res="1.0482026264071465e-02" rms="4.4159385561943054e-01" purity="5.0547754764556885e-01" nType="0">
        <Node pos="l" depth="1" NCoef="0" IVar="4" Cut="5.2135241699218750e+02" cType="1" res="8.2696288824081421e-02" rms="4.1183328628540039e-01" purity="6.7095041275024414e-01" nType="0">
          <Node pos="l" depth="2" NCoef="0" IVar="-1" Cut="0.0000000000000000e+00" cType="1" res="2.0652716048061848e-03" rms="3.8848406076431274e-01" purity="6.8971771001815796e-01" nType="-99"/>
          <Node pos="r" depth="2" NCoef="0" IVar="-1" Cut="0.0000000000000000e+00" cType="1" res="6.1930296942591667e-04" rms="4.2973428964614868e-01" purity="6.5138000249862671e-01" nType="-99"/>
        </Node>
        <Node pos="r" depth="1" NCoef="0" IVar="1" Cut="8.9968776702880859e-01" cType="1" res="-2.6211459189653397e-03" rms="4.4552856683731079e-01" purity="4.7545275092124939e-01" nType="0">
          <Node pos="l" depth="2" NCoef="0" IVar="-1" Cut="0.0000000000000000e+00" cType="1" res="-4.4439698103815317e-04" rms="4.4790899753570557e-01" purity="5.3846859931945801e-01" nType="-99"/>
          <Node pos="r" depth="2" NCoef="0" IVar="-1" Cut="0.0000000000000000e+00" cType="1" res="2.7872397913597524e-04" rms="4.4284456968307495e-01" purity="4.2688742280006409e-01" nType="-99"/>
        </Node>
      </Node>
    </BinaryTree>
    <BinaryTree type="DecisionTree" boostWeight="1.0000000000000000e+00" itree="715">
      <Node pos="s" depth="0" NCoef="0" IVar="3" Cut="1.4206628417968750e+02" cType="1" res="-2.8052760288119316e-02" rms="4.3877708911895752e-01" purity="4.7339910268783569e-01" nType="0">
        <Node pos="l" depth="1" NCoef="0" IVar="0" Cut="2.4260484313964844e+02" cType="1" res="-1.5438616275787354e-01" rms="4.2946636676788330e-01" purity="2.9213470220565796e-01" nType="0">
          <Node pos="l" depth="2" NCoef="0" IVar="-1" Cut="0.0000000000000000e+00" cType="1" res="-4.0802433431963436e-06" rms="4.4054430723190308e-01" purity="4.3014347553253174e-01" nType="-99"/>
          <Node pos="r" depth="2" NCoef="0" IVar="-1" Cut="0.0000000000000000e+00" cType="1" res="-4.7338921576738358e-03" rms="3.7620982527732849e-01" purity="1.7983910441398621e-01" nType="-99"/>
        </Node>
        <Node pos="r" depth="1" NCoef="0" IVar="3" Cut="3.1753707885742188e+02" cType="1" res="-1.0400593280792236e-02" rms="4.3716499209403992e-01" purity="4.9872663617134094e-01" nType="0">
          <Node pos="l" depth="2" NCoef="0" IVar="-1" Cut="0.0000000000000000e+00" cType="1" res="3.0072181834839284e-04" rms="4.3582493066787720e-01" purity="5.3580635786056519e-01" nType="-99"/>
          <Node pos="r" depth="2" NCoef="0" IVar="-1" Cut="0.0000000000000000e+00" cType="1" res="-2.6936116628348827e-03" rms="4.1924998164176941e-01" purity="3.2271447777748108e-01" nType="-99"/>
        </Node>
      </Node>
    </BinaryTree>
    <BinaryTree type="DecisionTree" boostWeight="1.0000000000000000e+00" itree="716">
      <Node pos="s" depth="0" NCoef="0" IVar="4" Cut="6.3002770996093750e+02" cType="1" res="7.1171009913086891e-03" rms="4.3519058823585510e-01" purity="5.0678533315658569e-01" nType="0">
        <Node pos="l" depth="1" NCoef="0" IVar="6" Cut="6.3281482458114624e-01" cType="1" res="-1.1300729587674141e-02" rms="4.3569755554199219e-01" purity="4.6828410029411316e-01" nType="0">
          <Node pos="l" depth="2" NCoef="0" IVar="-1" Cut="0.0000000000000000e+00" cType="1" res="-8.8808359578251839e-04" rms="4.2881911993026733e-01" purity="4.7958680987358093e-01" nType="-99"/>
          <Node pos="r" depth="2" NCoef="0" IVar="-1" Cut="0.0000000000000000e+00" cType="1" res="3.4577853512018919e-04" rms="4.3872264027595520e-01" purity="4.5928290486335754e-01" nType="-99"/>
        </Node>
        <Node pos="r" depth="1" NCoef="0" IVar="2" Cut="9.3737506866455078e-01" cType="1" res="1.0145225375890732e-01" rms="4.2011043429374695e-01" purity="7.0398664474487305e-01" nType="0">
          <Node pos="l" depth="2" NCoef="0" IVar="-1" Cut="0.0000000000000000e+00" cType="1" res="2.8320909477770329e-03" rms="4.4028294086456299e-01" purity="6.7374956607818604e-01" nType="-99"/>
          <Node pos="r" depth="2" NCoef="0" IVar="-1" Cut="0.0000000000000000e+00" cType="1" res="8.0927816452458501e-04" rms="3.9700242877006531e-01" purity="7.2280496358871460e-01" nType="-99"/>
        </Node>
      </Node>
    </BinaryTree>
    <BinaryTree type="DecisionTree" boostWeight="1.0000000000000000e+00" itree="717">
      <Node pos="s" depth="0" NCoef="0" IVar="2" Cut="9.1694241762161255e-01" cType="1" res="-1.3440309092402458e-02" rms="4.4619143009185791e-01" purity="4.8588675260543823e-01" nType="0">
        <Node pos="l" depth="1" NCoef="0" IVar="6" Cut="7.1239310503005981e-01" cType="1" res="8.2693569362163544e-02" rms="4.2239266633987427e-01" purity="3.3062252402305603e-01" nType="0">
          <Node pos="l" depth="2" NCoef="0" IVar="-1" Cut="0.0000000000000000e+00" cType="1" res="3.4124721423722804e-04" rms="3.9047336578369141e-01" purity="2.9823666810989380e-01" nType="-99"/>
          <Node pos="r" depth="2" NCoef="0" IVar="-1" Cut="0.0000000000000000e+00" cType="1" res="3.5224761813879013e-03" rms="4.4228956103324890e-01" purity="3.6296206712722778e-01" nType="-99"/>
        </Node>
        <Node pos="r" depth="1" NCoef="0" IVar="2" Cut="9.8331880569458008e-01" cType="1" res="-2.4429095908999443e-02" rms="4.4751816987991333e-01" purity="5.0363451242446899e-01" nType="0">
          <Node pos="l" depth="2" NCoef="0" IVar="-1" Cut="0.0000000000000000e+00" cType="1" res="-5.7443976402282715e-04" rms="4.5574969053268433e-01" purity="4.7693982720375061e-01" nType="-99"/>
          <Node pos="r" depth="2" NCoef="0" IVar="-1" Cut="0.0000000000000000e+00" cType="1" res="2.2489570546895266e-03" rms="2.7618122100830078e-01" purity="8.8211977481842041e-01" nType="-99"/>
        </Node>
      </Node>
    </BinaryTree>
    <BinaryTree type="DecisionTree" boostWeight="1.0000000000000000e+00" itree="718">
      <Node pos="s" depth="0" NCoef="0" IVar="4" Cut="8.8454937744140625e+02" cType="1" res="5.0569358281791210e-03" rms="4.3884062767028809e-01" purity="4.9831533432006836e-01" nType="0">
        <Node pos="l" depth="1" NCoef="0" IVar="3" Cut="1.2024502563476562e+02" cType="1" res="-6.0562388971447945e-03" rms="4.3742311000823975e-01" purity="4.8242253065109253e-01" nType="0">
          <Node pos="l" depth="2" NCoef="0" IVar="-1" Cut="0.0000000000000000e+00" cType="1" res="-2.4038548581302166e-03" rms="4.0513792634010315e-01" purity="3.0643439292907715e-01" nType="-99"/>
          <Node pos="r" depth="2" NCoef="0" IVar="-1" Cut="0.0000000000000000e+00" cType="1" res="1.4430678675125819e-05" rms="4.3813562393188477e-01" purity="4.9224910140037537e-01" nType="-99"/>
        </Node>
        <Node pos="r" depth="1" NCoef="0" IVar="-1" Cut="0.0000000000000000e+00" cType="1" res="2.8315011877566576e-03" rms="4.2010465264320374e-01" purity="7.6546204090118408e-01" nType="-99"/>
      </Node>
    </BinaryTree>
    <BinaryTree type="DecisionTree" boostWeight="1.0000000000000000e+00" itree="719">
      <Node pos="s" depth="0" NCoef="0" IVar="4" Cut="5.6644763183593750e+02" cType="1" res="1.2005853466689587e-02" rms="4.2933088541030884e-01" purity="5.0861912965774536e-01" nType="0">
        <Node pos="l" depth="1" NCoef="0" IVar="4" Cut="3.2801693725585938e+02" cType="1" res="-1.1919428594410419e-02" rms="4.2533719539642334e-01" purity="4.5330616831779480e-01" nType="0">
          <Node pos="l" depth="2" NCoef="0" IVar="-1" Cut="0.0000000000000000e+00" cType="1" res="-2.4512012023478746e-03" rms="3.4413787722587585e-01" purity="1.7661273479461670e-01" nType="-99"/>
          <Node pos="r" depth="2" NCoef="0" IVar="-1" Cut="0.0000000000000000e+00" cType="1" res="9.5343115390278399e-05" rms="4.3512088060379028e-01" purity="4.9986597895622253e-01" nType="-99"/>
        </Node>
        <Node pos="r" depth="1" NCoef="0" IVar="5" Cut="2.4724287414550781e+02" cType="1" res="8.2417041063308716e-02" rms="4.3327566981315613e-01" purity="6.7140305042266846e-01" nType="0">
          <Node pos="l" depth="2" NCoef="0" IVar="-1" Cut="0.0000000000000000e+00" cType="1" res="1.8494344549253583e-03" rms="4.2735648155212402e-01" purity="7.0115715265274048e-01" nType="-99"/>
          <Node pos="r" depth="2" NCoef="0" IVar="-1" Cut="0.0000000000000000e+00" cType="1" res="2.1585746435448527e-04" rms="4.3902495503425598e-01" purity="6.0163974761962891e-01" nType="-99"/>
        </Node>
      </Node>
    </BinaryTree>
    <BinaryTree type="DecisionTree" boostWeight="1.0000000000000000e+00" itree="720">
      <Node pos="s" depth="0" NCoef="0" IVar="2" Cut="9.0962141752243042e-01" cType="1" res="1.4596530236303806e-02" rms="4.3348571658134460e-01" purity="5.1549458503723145e-01" nType="0">
        <Node pos="l" depth="1" NCoef="0" IVar="-1" Cut="0.0000000000000000e+00" cType="1" res="-2.4059063289314508e-03" rms="2.9473501443862915e-01" purity="1.2077905237674713e-01" nType="-99"/>
        <Node pos="r" depth="1" NCoef="0" IVar="6" Cut="5.7908058166503906e-01" cType="1" res="2.4095101282000542e-02" rms="4.4097998738288879e-01" purity="5.4600745439529419e-01" nType="0">
          <Node pos="l" depth="2" NCoef="0" IVar="-1" Cut="0.0000000000000000e+00" cType="1" res="1.1316736927255988e-03" rms="4.2237505316734314e-01" purity="6.5245658159255981e-01" nType="-99"/>
          <Node pos="r" depth="2" NCoef="0" IVar="-1" Cut="0.0000000000000000e+00" cType="1" res="-6.2873499700799584e-05" rms="4.5092475414276123e-01" purity="4.7458747029304504e-01" nType="-99"/>
        </Node>
      </Node>
    </BinaryTree>
    <BinaryTree type="DecisionTree" boostWeight="1.0000000000000000e+00" itree="721">
      <Node pos="s" depth="0" NCoef="0" IVar="2" Cut="9.5911502838134766e-01" cType="1" res="1.5049786306917667e-02" rms="4.3049055337905884e-01" purity="5.1906979084014893e-01" nType="0">
        <Node pos="l" depth="1" NCoef="0" IVar="2" Cut="9.0983498096466064e-01" cType="1" res="-1.0815622285008430e-02" rms="4.4009470939636230e-01" purity="3.8449385762214661e-01" nType="0">
          <Node pos="l" depth="2" NCoef="0" IVar="-1" Cut="0.0000000000000000e+00" cType="1" res="-2.3694362025707960e-03" rms="2.7634808421134949e-01" purity="1.1988455802202225e-01" nType="-99"/>
          <Node pos="r" depth="2" NCoef="0" IVar="-1" Cut="0.0000000000000000e+00" cType="1" res="-6.3280867834691890e-06" rms="4.5417246222496033e-01" purity="4.1525104641914368e-01" nType="-99"/>
        </Node>
        <Node pos="r" depth="1" NCoef="0" IVar="5" Cut="1.4624485778808594e+02" cType="1" res="6.1157379299402237e-02" rms="4.0877729654312134e-01" purity="7.5896441936492920e-01" nType="0">
          <Node pos="l" depth="2" NCoef="0" IVar="-1" Cut="0.0000000000000000e+00" cType="1" res="1.7994185909628868e-03" rms="3.9599871635437012e-01" purity="7.8096562623977661e-01" nType="-99"/>
          <Node pos="r" depth="2" NCoef="0" IVar="-1" Cut="0.0000000000000000e+00" cType="1" res="-5.1809696014970541e-04" rms="4.1856464743614197e-01" purity="7.1670198440551758e-01" nType="-99"/>
        </Node>
      </Node>
    </BinaryTree>
    <BinaryTree type="DecisionTree" boostWeight="1.0000000000000000e+00" itree="722">
      <Node pos="s" depth="0" NCoef="0" IVar="5" Cut="8.5368957519531250e+01" cType="1" res="-1.6480231657624245e-02" rms="4.3961805105209351e-01" purity="4.7917103767395020e-01" nType="0">
        <Node pos="l" depth="1" NCoef="0" IVar="4" Cut="3.0748348999023438e+02" cType="1" res="4.4663459062576294e-02" rms="4.2430633306503296e-01" purity="4.5703351497650146e-01" nType="0">
          <Node pos="l" depth="2" NCoef="0" IVar="-1" Cut="0.0000000000000000e+00" cType="1" res="-1.4893033076077700e-03" rms="3.9113140106201172e-01" purity="2.1838027238845825e-01" nType="-99"/>
          <Node pos="r" depth="2" NCoef="0" IVar="-1" Cut="0.0000000000000000e+00" cType="1" res="1.4697251608595252e-03" rms="4.2777380347251892e-01" purity="5.4311358928680420e-01" nType="-99"/>
        </Node>
        <Node pos="r" depth="1" NCoef="0" IVar="6" Cut="3.3010956645011902e-01" cType="1" res="-3.1031265854835510e-02" rms="4.4193965196609497e-01" purity="4.8443934321403503e-01" nType="0">
          <Node pos="l" depth="2" NCoef="0" IVar="-1" Cut="0.0000000000000000e+00" cType="1" res="-2.0219536963850260e-03" rms="4.2813944816589355e-01" purity="4.0605336427688599e-01" nType="-99"/>
          <Node pos="r" depth="2" NCoef="0" IVar="-1" Cut="0.0000000000000000e+00" cType="1" res="-3.6604443448595703e-04" rms="4.4257733225822449e-01" purity="4.9403941631317139e-01" nType="-99"/>
        </Node>
      </Node>
    </BinaryTree>
    <BinaryTree type="DecisionTree" boostWeight="1.0000000000000000e+00" itree="723">
      <Node pos="s" depth="0" NCoef="0" IVar="6" Cut="6.8736022710800171e-01" cType="1" res="-3.2367026433348656e-03" rms="4.4199106097221375e-01" purity="4.9449431896209717e-01" nType="0">
        <Node pos="l" depth="1" NCoef="0" IVar="2" Cut="9.4895613193511963e-01" cType="1" res="-3.6387283354997635e-02" rms="4.2970293760299683e-01" purity="5.1185166835784912e-01" nType="0">
          <Node pos="l" depth="2" NCoef="0" IVar="-1" Cut="0.0000000000000000e+00" cType="1" res="-1.5132280532270670e-03" rms="4.2831763625144958e-01" purity="2.8659793734550476e-01" nType="-99"/>
          <Node pos="r" depth="2" NCoef="0" IVar="-1" Cut="0.0000000000000000e+00" cType="1" res="1.5765515854582191e-04" rms="4.2602565884590149e-01" purity="7.1760421991348267e-01" nType="-99"/>
        </Node>
        <Node pos="r" depth="1" NCoef="0" IVar="6" Cut="8.3425641059875488e-01" cType="1" res="3.5049967467784882e-02" rms="4.5276045799255371e-01" purity="4.7444784641265869e-01" nType="0">
          <Node pos="l" depth="2" NCoef="0" IVar="-1" Cut="0.0000000000000000e+00" cType="1" res="1.2554574059322476e-03" rms="4.3693578243255615e-01" purity="5.6504690647125244e-01" nType="-99"/>
          <Node pos="r" depth="2" NCoef="0" IVar="-1" Cut="0.0000000000000000e+00" cType="1" res="1.7038700752891600e-04" rms="4.6093559265136719e-01" purity="4.1554617881774902e-01" nType="-99"/>
        </Node>
      </Node>
    </BinaryTree>
    <BinaryTree type="DecisionTree" boostWeight="1.0000000000000000e+00" itree="724">
      <Node pos="s" depth="0" NCoef="0" IVar="1" Cut="1.4926571846008301e+00" cType="1" res="1.0490561835467815e-02" rms="4.4425159692764282e-01" purity="5.0444114208221436e-01" nType="0">
        <Node pos="l" depth="1" NCoef="0" IVar="2" Cut="9.4824463129043579e-01" cType="1" res="2.5439467281103134e-02" rms="4.5432022213935852e-01" purity="5.5127859115600586e-01" nType="0">
          <Node pos="l" depth="2" NCoef="0" IVar="-1" Cut="0.0000000000000000e+00" cType="1" res="1.1176569387316704e-03" rms="4.6000689268112183e-01" purity="4.4431999325752258e-01" nType="-99"/>
          <Node pos="r" depth="2" NCoef="0" IVar="-1" Cut="0.0000000000000000e+00" cType="1" res="-2.4437526008114219e-04" rms="4.4521492719650269e-01" purity="6.5450501441955566e-01" nType="-99"/>
        </Node>
        <Node pos="r" depth="1" NCoef="0" IVar="2" Cut="9.4604742527008057e-01" cType="1" res="-9.7280375659465790e-02" rms="3.4483149647712708e-01" purity="1.6677688062191010e-01" nType="0">
          <Node pos="l" depth="2" NCoef="0" IVar="-1" Cut="0.0000000000000000e+00" cType="1" res="-1.3975091278553009e-03" rms="3.0014219880104065e-01" purity="1.1638783663511276e-01" nType="-99"/>
          <Node pos="r" depth="2" NCoef="0" IVar="-1" Cut="0.0000000000000000e+00" cType="1" res="-2.7618648018687963e-03" rms="3.7993896007537842e-01" purity="2.2078311443328857e-01" nType="-99"/>
        </Node>
      </Node>
    </BinaryTree>
    <BinaryTree type="DecisionTree" boostWeight="1.0000000000000000e+00" itree="725">
      <Node pos="s" depth="0" NCoef="0" IVar="1" Cut="6.4541393518447876e-01" cType="1" res="5.7675899006426334e-03" rms="4.4185778498649597e-01" purity="5.0250810384750366e-01" nType="0">
        <Node pos="l" depth="1" NCoef="0" IVar="2" Cut="9.5982903242111206e-01" cType="1" res="8.5422381758689880e-02" rms="4.2456904053688049e-01" purity="6.7051208019256592e-01" nType="0">
          <Node pos="l" depth="2" NCoef="0" IVar="-1" Cut="0.0000000000000000e+00" cType="1" res="2.1235460881143808e-03" rms="4.3603080511093140e-01" purity="6.0783785581588745e-01" nType="-99"/>
          <Node pos="r" depth="2" NCoef="0" IVar="-1" Cut="0.0000000000000000e+00" cType="1" res="3.8446363760158420e-05" rms="3.9076295495033264e-01" purity="7.7473777532577515e-01" nType="-99"/>
        </Node>
        <Node pos="r" depth="1" NCoef="0" IVar="6" Cut="8.5421913862228394e-01" cType="1" res="-1.8546398729085922e-02" rms="4.4416522979736328e-01" purity="4.5122623443603516e-01" nType="0">
          <Node pos="l" depth="2" NCoef="0" IVar="-1" Cut="0.0000000000000000e+00" cType="1" res="4.1485363908577710e-05" rms="4.5185416936874390e-01" purity="4.9846145510673523e-01" nType="-99"/>
          <Node pos="r" depth="2" NCoef="0" IVar="-1" Cut="0.0000000000000000e+00" cType="1" res="-1.1891090543940663e-03" rms="4.2413762211799622e-01" purity="3.5171401500701904e-01" nType="-99"/>
        </Node>
      </Node>
    </BinaryTree>
    <BinaryTree type="DecisionTree" boostWeight="1.0000000000000000e+00" itree="726">
      <Node pos="s" depth="0" NCoef="0" IVar="4" Cut="3.0921679687500000e+02" cType="1" res="2.2703262511640787e-03" rms="4.4405770301818848e-01" purity="4.9683398008346558e-01" nType="0">
        <Node pos="l" depth="1" NCoef="0" IVar="-1" Cut="0.0000000000000000e+00" cType="1" res="-2.0299716852605343e-03" rms="3.9770776033401489e-01" purity="2.2101998329162598e-01" nType="-99"/>
        <Node pos="r" depth="1" NCoef="0" IVar="5" Cut="9.9547256469726562e+01" cType="1" res="9.8741305992007256e-03" rms="4.4647482037544250e-01" purity="5.1782900094985962e-01" nType="0">
          <Node pos="l" depth="2" NCoef="0" IVar="-1" Cut="0.0000000000000000e+00" cType="1" res="1.1284993961453438e-03" rms="4.3061774969100952e-01" purity="5.2010321617126465e-01" nType="-99"/>
          <Node pos="r" depth="2" NCoef="0" IVar="-1" Cut="0.0000000000000000e+00" cType="1" res="-2.0826641411986202e-04" rms="4.5078420639038086e-01" purity="5.1692467927932739e-01" nType="-99"/>
        </Node>
      </Node>
    </BinaryTree>
    <BinaryTree type="DecisionTree" boostWeight="1.0000000000000000e+00" itree="727">
      <Node pos="s" depth="0" NCoef="0" IVar="5" Cut="2.3265061950683594e+02" cType="1" res="-8.4314716514199972e-04" rms="4.3426823616027832e-01" purity="4.9403548240661621e-01" nType="0">
        <Node pos="l" depth="1" NCoef="0" IVar="5" Cut="1.8262771606445312e+02" cType="1" res="1.1018482968211174e-02" rms="4.3165940046310425e-01" purity="4.9530816078186035e-01" nType="0">
          <Node pos="l" depth="2" NCoef="0" IVar="-1" Cut="0.0000000000000000e+00" cType="1" res="-4.2494382796576247e-05" rms="4.3080255389213562e-01" purity="4.6956965327262878e-01" nType="-99"/>
          <Node pos="r" depth="2" NCoef="0" IVar="-1" Cut="0.0000000000000000e+00" cType="1" res="2.1024851594120264e-03" rms="4.2097392678260803e-01" purity="7.2232013940811157e-01" nType="-99"/>
        </Node>
        <Node pos="r" depth="1" NCoef="0" IVar="4" Cut="7.3015716552734375e+02" cType="1" res="-9.3451462686061859e-02" rms="4.4334134459495544e-01" purity="4.8409944772720337e-01" nType="0">
          <Node pos="l" depth="2" NCoef="0" IVar="-1" Cut="0.0000000000000000e+00" cType="1" res="-2.9537691734731197e-03" rms="4.3136516213417053e-01" purity="3.4836041927337646e-01" nType="-99"/>
          <Node pos="r" depth="2" NCoef="0" IVar="-1" Cut="0.0000000000000000e+00" cType="1" res="-5.4873881163075566e-04" rms="4.4291332364082336e-01" purity="5.9425324201583862e-01" nType="-99"/>
        </Node>
      </Node>
    </BinaryTree>
    <BinaryTree type="DecisionTree" boostWeight="1.0000000000000000e+00" itree="728">
      <Node pos="s" depth="0" NCoef="0" IVar="1" Cut="3.9458853006362915e-01" cType="1" res="1.5525927767157555e-02" rms="4.3244445323944092e-01" purity="5.0630968809127808e-01" nType="0">
        <Node pos="l" depth="1" NCoef="0" IVar="-1" Cut="0.0000000000000000e+00" cType="1" res="2.4878820404410362e-03" rms="3.8433173298835754e-01" purity="7.4204862117767334e-01" nType="-99"/>
        <Node pos="r" depth="1" NCoef="0" IVar="3" Cut="3.2100866699218750e+02" cType="1" res="5.7293847203254700e-03" rms="4.3420252203941345e-01" purity="4.8882967233657837e-01" nType="0">
          <Node pos="l" depth="2" NCoef="0" IVar="-1" Cut="0.0000000000000000e+00" cType="1" res="3.5870607825927436e-04" rms="4.3767622113227844e-01" purity="5.1289701461791992e-01" nType="-99"/>
          <Node pos="r" depth="2" NCoef="0" IVar="-1" Cut="0.0000000000000000e+00" cType="1" res="-1.2005090247839689e-03" rms="4.1107967495918274e-01" purity="3.7862372398376465e-01" nType="-99"/>
        </Node>
      </Node>
    </BinaryTree>
    <BinaryTree type="DecisionTree" boostWeight="1.0000000000000000e+00" itree="729">
      <Node pos="s" depth="0" NCoef="0" IVar="5" Cut="1.2169512939453125e+02" cType="1" res="4.6077128499746323e-03" rms="4.4191551208496094e-01" purity="5.0325149297714233e-01" nType="0">
        <Node pos="l" depth="1" NCoef="0" IVar="0" Cut="3.0064151000976562e+02" cType="1" res="3.7449687719345093e-02" rms="4.4330570101737976e-01" purity="4.7541165351867676e-01" nType="0">
          <Node pos="l" depth="2" NCoef="0" IVar="-1" Cut="0.0000000000000000e+00" cType="1" res="2.4270093126688153e-04" rms="4.5668375492095947e-01" purity="4.1857364773750305e-01" nType="-99"/>
          <Node pos="r" depth="2" NCoef="0" IVar="-1" Cut="0.0000000000000000e+00" cType="1" res="2.3134844377636909e-03" rms="3.6790496110916138e-01" purity="7.0774143934249878e-01" nType="-99"/>
        </Node>
        <Node pos="r" depth="1" NCoef="0" IVar="6" Cut="8.3673691749572754e-01" cType="1" res="-3.0974047258496284e-02" rms="4.3763154745101929e-01" purity="5.3341382741928101e-01" nType="0">
          <Node pos="l" depth="2" NCoef="0" IVar="-1" Cut="0.0000000000000000e+00" cType="1" res="-9.4353506574407220e-04" rms="4.3472644686698914e-01" purity="5.3401279449462891e-01" nType="-99"/>
          <Node pos="r" depth="2" NCoef="0" IVar="-1" Cut="0.0000000000000000e+00" cType="1" res="7.6991115929558873e-04" rms="4.3883475661277771e-01" purity="5.3144514560699463e-01" nType="-99"/>
        </Node>
      </Node>
    </BinaryTree>
    <BinaryTree type="DecisionTree" boostWeight="1.0000000000000000e+00" itree="730">
      <Node pos="s" depth="0" NCoef="0" IVar="3" Cut="3.4493664550781250e+02" cType="1" res="-4.8759323544800282e-03" rms="4.3853813409805298e-01" purity="4.8824074864387512e-01" nType="0">
        <Node pos="l" depth="1" NCoef="0" IVar="4" Cut="4.1495388793945312e+02" cType="1" res="7.4780699796974659e-03" rms="4.4224396347999573e-01" purity="5.1014471054077148e-01" nType="0">
          <Node pos="l" depth="2" NCoef="0" IVar="-1" Cut="0.0000000000000000e+00" cType="1" res="-5.6299159768968821e-04" rms="4.3079236149787903e-01" purity="3.9057204127311707e-01" nType="-99"/>
          <Node pos="r" depth="2" NCoef="0" IVar="-1" Cut="0.0000000000000000e+00" cType="1" res="6.1024230672046542e-04" rms="4.4835808873176575e-01" purity="5.9837877750396729e-01" nType="-99"/>
        </Node>
        <Node pos="r" depth="1" NCoef="0" IVar="5" Cut="1.7361476135253906e+02" cType="1" res="-8.2781434059143066e-02" rms="4.0583345293998718e-01" purity="3.5011261701583862e-01" nType="0">
          <Node pos="l" depth="2" NCoef="0" IVar="-1" Cut="0.0000000000000000e+00" cType="1" res="-3.8574328646063805e-03" rms="3.1322693824768066e-01" purity="1.2022884190082550e-01" nType="-99"/>
          <Node pos="r" depth="2" NCoef="0" IVar="-1" Cut="0.0000000000000000e+00" cType="1" res="-2.2659073874820024e-04" rms="4.4789785146713257e-01" purity="5.1380568742752075e-01" nType="-99"/>
        </Node>
      </Node>
    </BinaryTree>
    <BinaryTree type="DecisionTree" boostWeight="1.0000000000000000e+00" itree="731">
      <Node pos="s" depth="0" NCoef="0" IVar="3" Cut="4.2230728149414062e+02" cType="1" res="1.3111880980432034e-02" rms="4.4340962171554565e-01" purity="4.9814203381538391e-01" nType="0">
        <Node pos="l" depth="1" NCoef="0" IVar="4" Cut="6.1863873291015625e+02" cType="1" res="2.2122133523225784e-02" rms="4.4419196248054504e-01" purity="5.1440846920013428e-01" nType="0">
          <Node pos="l" depth="2" NCoef="0" IVar="-1" Cut="0.0000000000000000e+00" cType="1" res="6.4366882725153118e-05" rms="4.4536256790161133e-01" purity="4.7939619421958923e-01" nType="-99"/>
          <Node pos="r" depth="2" NCoef="0" IVar="-1" Cut="0.0000000000000000e+00" cType="1" res="2.3146015591919422e-03" rms="4.1802200675010681e-01" purity="7.3662620782852173e-01" nType="-99"/>
        </Node>
        <Node pos="r" depth="1" NCoef="0" IVar="-1" Cut="0.0000000000000000e+00" cType="1" res="-1.8773996271193027e-03" rms="4.1873672604560852e-01" purity="3.0131423473358154e-01" nType="-99"/>
      </Node>
    </BinaryTree>
    <BinaryTree type="DecisionTree" boostWeight="1.0000000000000000e+00" itree="732">
      <Node pos="s" depth="0" NCoef="0" IVar="6" Cut="3.8789886236190796e-01" cType="1" res="1.0491641005501151e-03" rms="4.3943402171134949e-01" purity="4.9089789390563965e-01" nType="0">
        <Node pos="l" depth="1" NCoef="0" IVar="3" Cut="1.9765026855468750e+02" cType="1" res="-7.3932833969593048e-02" rms="4.3061813712120056e-01" purity="4.7867593169212341e-01" nType="0">
          <Node pos="l" depth="2" NCoef="0" IVar="-1" Cut="0.0000000000000000e+00" cType="1" res="-2.2724517621099949e-03" rms="4.4886642694473267e-01" purity="3.5196173191070557e-01" nType="-99"/>
          <Node pos="r" depth="2" NCoef="0" IVar="-1" Cut="0.0000000000000000e+00" cType="1" res="7.4791978113353252e-04" rms="3.6794888973236084e-01" purity="7.1525245904922485e-01" nType="-99"/>
        </Node>
        <Node pos="r" depth="1" NCoef="0" IVar="1" Cut="8.3371800184249878e-01" cType="1" res="1.6913264989852905e-02" rms="4.3964061141014099e-01" purity="4.9348369240760803e-01" nType="0">
          <Node pos="l" depth="2" NCoef="0" IVar="-1" Cut="0.0000000000000000e+00" cType="1" res="9.6570595633238554e-04" rms="4.4341468811035156e-01" purity="6.1627000570297241e-01" nType="-99"/>
          <Node pos="r" depth="2" NCoef="0" IVar="-1" Cut="0.0000000000000000e+00" cType="1" res="-1.1323775106575340e-04" rms="4.3580123782157898e-01" purity="4.2444032430648804e-01" nType="-99"/>
        </Node>
      </Node>
    </BinaryTree>
    <BinaryTree type="DecisionTree" boostWeight="1.0000000000000000e+00" itree="733">
      <Node pos="s" depth="0" NCoef="0" IVar="4" Cut="5.5467431640625000e+02" cType="1" res="6.3041825778782368e-03" rms="4.2978754639625549e-01" purity="4.9433621764183044e-01" nType="0">
        <Node pos="l" depth="1" NCoef="0" IVar="5" Cut="1.2565237426757812e+02" cType="1" res="-1.8226422369480133e-02" rms="4.3166443705558777e-01" purity="4.4233527779579163e-01" nType="0">
          <Node pos="l" depth="2" NCoef="0" IVar="-1" Cut="0.0000000000000000e+00" cType="1" res="1.1471898324089125e-04" rms="4.2634505033493042e-01" purity="4.4521319866180420e-01" nType="-99"/>
          <Node pos="r" depth="2" NCoef="0" IVar="-1" Cut="0.0000000000000000e+00" cType="1" res="-1.4969891635701060e-03" rms="4.3886509537696838e-01" purity="4.3461567163467407e-01" nType="-99"/>
        </Node>
        <Node pos="r" depth="1" NCoef="0" IVar="4" Cut="7.0004034423828125e+02" cType="1" res="8.2365609705448151e-02" rms="4.1479247808456421e-01" purity="6.5557408332824707e-01" nType="0">
          <Node pos="l" depth="2" NCoef="0" IVar="-1" Cut="0.0000000000000000e+00" cType="1" res="7.0784107083454728e-04" rms="4.1368079185485840e-01" purity="6.0130137205123901e-01" nType="-99"/>
          <Node pos="r" depth="2" NCoef="0" IVar="-1" Cut="0.0000000000000000e+00" cType="1" res="2.2981120273470879e-03" rms="4.0877497196197510e-01" purity="7.3612564802169800e-01" nType="-99"/>
        </Node>
      </Node>
    </BinaryTree>
    <BinaryTree type="DecisionTree" boostWeight="1.0000000000000000e+00" itree="734">
      <Node pos="s" depth="0" NCoef="0" IVar="5" Cut="1.9232403564453125e+02" cType="1" res="2.7258712798357010e-03" rms="4.4355374574661255e-01" purity="4.9513536691665649e-01" nType="0">
        <Node pos="l" depth="1" NCoef="0" IVar="0" Cut="2.9827557373046875e+02" cType="1" res="1.6671111807227135e-02" rms="4.3750724196434021e-01" purity="4.9302738904953003e-01" nType="0">
          <Node pos="l" depth="2" NCoef="0" IVar="-1" Cut="0.0000000000000000e+00" cType="1" res="-3.3396438811905682e-04" rms="4.3866792321205139e-01" purity="3.9685487747192383e-01" nType="-99"/>
          <Node pos="r" depth="2" NCoef="0" IVar="-1" Cut="0.0000000000000000e+00" cType="1" res="1.0096163023263216e-03" rms="4.3249624967575073e-01" purity="6.0722041130065918e-01" nType="-99"/>
        </Node>
        <Node pos="r" depth="1" NCoef="0" IVar="4" Cut="8.1182995605468750e+02" cType="1" res="-7.0938616991043091e-02" rms="4.6736207604408264e-01" purity="5.0627058744430542e-01" nType="0">
          <Node pos="l" depth="2" NCoef="0" IVar="-1" Cut="0.0000000000000000e+00" cType="1" res="-2.0454300101846457e-03" rms="4.5712503790855408e-01" purity="4.3940061330795288e-01" nType="-99"/>
          <Node pos="r" depth="2" NCoef="0" IVar="-1" Cut="0.0000000000000000e+00" cType="1" res="2.1558901062235236e-04" rms="4.7433412075042725e-01" purity="6.2973445653915405e-01" nType="-99"/>
        </Node>
      </Node>
    </BinaryTree>
    <BinaryTree type="DecisionTree" boostWeight="1.0000000000000000e+00" itree="735">
      <Node pos="s" depth="0" NCoef="0" IVar="3" Cut="3.4493664550781250e+02" cType="1" res="-3.1968823168426752e-03" rms="4.3845295906066895e-01" purity="4.9696698784828186e-01" nType="0">
        <Node pos="l" depth="1" NCoef="0" IVar="3" Cut="2.6968045043945312e+02" cType="1" res="9.2546390369534492e-03" rms="4.4143563508987427e-01" purity="5.1962625980377197e-01" nType="0">
          <Node pos="l" depth="2" NCoef="0" IVar="-1" Cut="0.0000000000000000e+00" cType="1" res="-6.5743581217247993e-05" rms="4.4128790497779846e-01" purity="4.9593836069107056e-01" nType="-99"/>
          <Node pos="r" depth="2" NCoef="0" IVar="-1" Cut="0.0000000000000000e+00" cType="1" res="1.2911712983623147e-03" rms="4.3616026639938354e-01" purity="6.4109301567077637e-01" nType="-99"/>
        </Node>
        <Node pos="r" depth="1" NCoef="0" IVar="4" Cut="6.3943127441406250e+02" cType="1" res="-9.4079829752445221e-02" rms="4.0459153056144714e-01" purity="3.3157813549041748e-01" nType="0">
          <Node pos="l" depth="2" NCoef="0" IVar="-1" Cut="0.0000000000000000e+00" cType="1" res="-4.0139947086572647e-03" rms="2.9001075029373169e-01" purity="1.3240641355514526e-01" nType="-99"/>
          <Node pos="r" depth="2" NCoef="0" IVar="-1" Cut="0.0000000000000000e+00" cType="1" res="-2.7408267487771809e-04" rms="4.7708609700202942e-01" purity="5.2248895168304443e-01" nType="-99"/>
        </Node>
      </Node>
    </BinaryTree>
    <BinaryTree type="DecisionTree" boostWeight="1.0000000000000000e+00" itree="736">
      <Node pos="s" depth="0" NCoef="0" IVar="3" Cut="1.3184167480468750e+02" cType="1" res="1.1646042577922344e-02" rms="4.3809601664543152e-01" purity="5.1309758424758911e-01" nType="0">
        <Node pos="l" depth="1" NCoef="0" IVar="-1" Cut="0.0000000000000000e+00" cType="1" res="-1.6911545535549521e-03" rms="4.2890611290931702e-01" purity="3.1742498278617859e-01" nType="-99"/>
        <Node pos="r" depth="1" NCoef="0" IVar="1" Cut="6.5366989374160767e-01" cType="1" res="2.0667035132646561e-02" rms="4.3758031725883484e-01" purity="5.2884256839752197e-01" nType="0">
          <Node pos="l" depth="2" NCoef="0" IVar="-1" Cut="0.0000000000000000e+00" cType="1" res="1.5836030943319201e-03" rms="4.1917252540588379e-01" purity="6.9818818569183350e-01" nType="-99"/>
          <Node pos="r" depth="2" NCoef="0" IVar="-1" Cut="0.0000000000000000e+00" cType="1" res="-6.3276194850914180e-05" rms="4.4084051251411438e-01" purity="4.7275984287261963e-01" nType="-99"/>
        </Node>
      </Node>
    </BinaryTree>
    <BinaryTree type="DecisionTree" boostWeight="1.0000000000000000e+00" itree="737">
      <Node pos="s" depth="0" NCoef="0" IVar="2" Cut="9.1176122426986694e-01" cType="1" res="-9.4003099948167801e-03" rms="4.4250544905662537e-01" purity="4.9114227294921875e-01" nType="0">
        <Node pos="l" depth="1" NCoef="0" IVar="-1" Cut="0.0000000000000000e+00" cType="1" res="-3.5107326693832874e-03" rms="2.6178044080734253e-01" purity="8.3748444914817810e-02" nType="-99"/>
        <Node pos="r" depth="1" NCoef="0" IVar="2" Cut="9.3425631523132324e-01" cType="1" res="8.3493831334635615e-04" rms="4.5126533508300781e-01" purity="5.2109730243682861e-01" nType="0">
          <Node pos="l" depth="2" NCoef="0" IVar="-1" Cut="0.0000000000000000e+00" cType="1" res="1.0561193339526653e-03" rms="4.6404942870140076e-01" purity="3.7396064400672913e-01" nType="-99"/>
          <Node pos="r" depth="2" NCoef="0" IVar="-1" Cut="0.0000000000000000e+00" cType="1" res="-2.9481863020919263e-04" rms="4.4562593102455139e-01" purity="5.6760460138320923e-01" nType="-99"/>
        </Node>
      </Node>
    </BinaryTree>
    <BinaryTree type="DecisionTree" boostWeight="1.0000000000000000e+00" itree="738">
      <Node pos="s" depth="0" NCoef="0" IVar="5" Cut="1.9834065246582031e+02" cType="1" res="1.2192413851153105e-04" rms="4.3910059332847595e-01" purity="4.9849760532379150e-01" nType="0">
        <Node pos="l" depth="1" NCoef="0" IVar="2" Cut="9.8195225000381470e-01" cType="1" res="1.1574209667742252e-02" rms="4.3584454059600830e-01" purity="4.9248704314231873e-01" nType="0">
          <Node pos="l" depth="2" NCoef="0" IVar="-1" Cut="0.0000000000000000e+00" cType="1" res="1.7152622604044154e-05" rms="4.4619593024253845e-01" purity="4.5293593406677246e-01" nType="-99"/>
          <Node pos="r" depth="2" NCoef="0" IVar="-1" Cut="0.0000000000000000e+00" cType="1" res="2.5174880865961313e-03" rms="2.8701815009117126e-01" purity="9.0147763490676880e-01" nType="-99"/>
        </Node>
        <Node pos="r" depth="1" NCoef="0" IVar="6" Cut="4.9902933835983276e-01" cType="1" res="-6.7587353289127350e-02" rms="4.5198756456375122e-01" purity="5.3403401374816895e-01" nType="0">
          <Node pos="l" depth="2" NCoef="0" IVar="-1" Cut="0.0000000000000000e+00" cType="1" res="9.2461821623146534e-04" rms="4.0869078040122986e-01" purity="7.0222657918930054e-01" nType="-99"/>
          <Node pos="r" depth="2" NCoef="0" IVar="-1" Cut="0.0000000000000000e+00" cType="1" res="-3.0491370707750320e-03" rms="4.6093681454658508e-01" purity="4.0505635738372803e-01" nType="-99"/>
        </Node>
      </Node>
    </BinaryTree>
    <BinaryTree type="DecisionTree" boostWeight="1.0000000000000000e+00" itree="739">
      <Node pos="s" depth="0" NCoef="0" IVar="5" Cut="1.2231950378417969e+02" cType="1" res="7.0375381037592888e-03" rms="4.5317718386650085e-01" purity="5.0685924291610718e-01" nType="0">
        <Node pos="l" depth="1" NCoef="0" IVar="5" Cut="1.1217059326171875e+02" cType="1" res="4.1694495826959610e-02" rms="4.5338866114616394e-01" purity="4.9636664986610413e-01" nType="0">
          <Node pos="l" depth="2" NCoef="0" IVar="-1" Cut="0.0000000000000000e+00" cType="1" res="1.1102363932877779e-03" rms="4.4324386119842529e-01" purity="5.1076382398605347e-01" nType="-99"/>
          <Node pos="r" depth="2" NCoef="0" IVar="-1" Cut="0.0000000000000000e+00" cType="1" res="-1.3017802266404033e-03" rms="4.8861458897590637e-01" purity="4.1822409629821777e-01" nType="-99"/>
        </Node>
        <Node pos="r" depth="1" NCoef="0" IVar="6" Cut="6.8554317951202393e-01" cType="1" res="-3.1946219503879547e-02" rms="4.4975894689559937e-01" purity="5.1866179704666138e-01" nType="0">
          <Node pos="l" depth="2" NCoef="0" IVar="-1" Cut="0.0000000000000000e+00" cType="1" res="-1.0411347029730678e-03" rms="4.3917289376258850e-01" purity="5.2982187271118164e-01" nType="-99"/>
          <Node pos="r" depth="2" NCoef="0" IVar="-1" Cut="0.0000000000000000e+00" cType="1" res="1.8526766507420689e-04" rms="4.6198394894599915e-01" purity="5.0189566612243652e-01" nType="-99"/>
        </Node>
      </Node>
    </BinaryTree>
    <BinaryTree type="DecisionTree" boostWeight="1.0000000000000000e+00" itree="740">
      <Node pos="s" depth="0" NCoef="0" IVar="5" Cut="1.2236185455322266e+02" cType="1" res="7.4396757408976555e-03" rms="4.3706583976745605e-01" purity="5.0778830051422119e-01" nType="0">
        <Node pos="l" depth="1" NCoef="0" IVar="3" Cut="1.5025308227539062e+02" cType="1" res="2.9570870101451874e-02" rms="4.3739071488380432e-01" purity="4.7867545485496521e-01" nType="0">
          <Node pos="l" depth="2" NCoef="0" IVar="-1" Cut="0.0000000000000000e+00" cType="1" res="1.6401127213612199e-03" rms="4.4499689340591431e-01" purity="5.0502812862396240e-01" nType="-99"/>
          <Node pos="r" depth="2" NCoef="0" IVar="-1" Cut="0.0000000000000000e+00" cType="1" res="1.8395604274701327e-04" rms="4.3328481912612915e-01" purity="4.7113645076751709e-01" nType="-99"/>
        </Node>
        <Node pos="r" depth="1" NCoef="0" IVar="3" Cut="2.3656117248535156e+02" cType="1" res="-1.6384631395339966e-02" rms="4.3546053767204285e-01" purity="5.3912842273712158e-01" nType="0">
          <Node pos="l" depth="2" NCoef="0" IVar="-1" Cut="0.0000000000000000e+00" cType="1" res="-1.1710901744663715e-03" rms="4.5019510388374329e-01" purity="4.3697655200958252e-01" nType="-99"/>
          <Node pos="r" depth="2" NCoef="0" IVar="-1" Cut="0.0000000000000000e+00" cType="1" res="5.7849072618409991e-04" rms="4.1596913337707520e-01" purity="6.3097709417343140e-01" nType="-99"/>
        </Node>
      </Node>
    </BinaryTree>
    <BinaryTree type="DecisionTree" boostWeight="1.0000000000000000e+00" itree="741">
      <Node pos="s" depth="0" NCoef="0" IVar="4" Cut="4.6051977539062500e+02" cType="1" res="-4.5257476158440113e-03" rms="4.3458575010299683e-01" purity="4.8946025967597961e-01" nType="0">
        <Node pos="l" depth="1" NCoef="0" IVar="2" Cut="9.5817220211029053e-01" cType="1" res="-3.3043015748262405e-02" rms="4.2618322372436523e-01" purity="4.0594792366027832e-01" nType="0">
          <Node pos="l" depth="2" NCoef="0" IVar="-1" Cut="0.0000000000000000e+00" cType="1" res="-1.2249877909198403e-03" rms="4.1877013444900513e-01" purity="2.6385900378227234e-01" nType="-99"/>
          <Node pos="r" depth="2" NCoef="0" IVar="-1" Cut="0.0000000000000000e+00" cType="1" res="6.7108322400599718e-04" rms="4.3313792347908020e-01" purity="7.1523308753967285e-01" nType="-99"/>
        </Node>
        <Node pos="r" depth="1" NCoef="0" IVar="0" Cut="3.2091320800781250e+02" cType="1" res="2.8821071609854698e-02" rms="4.4188156723976135e-01" purity="5.8711594343185425e-01" nType="0">
          <Node pos="l" depth="2" NCoef="0" IVar="-1" Cut="0.0000000000000000e+00" cType="1" res="2.5720596313476562e-03" rms="4.4742783904075623e-01" purity="6.7226678133010864e-01" nType="-99"/>
          <Node pos="r" depth="2" NCoef="0" IVar="-1" Cut="0.0000000000000000e+00" cType="1" res="1.7009518342092633e-04" rms="4.3795001506805420e-01" purity="5.7418203353881836e-01" nType="-99"/>
        </Node>
      </Node>
    </BinaryTree>
    <BinaryTree type="DecisionTree" boostWeight="1.0000000000000000e+00" itree="742">
      <Node pos="s" depth="0" NCoef="0" IVar="3" Cut="3.0897036743164062e+02" cType="1" res="-2.3548079654574394e-02" rms="4.2829495668411255e-01" purity="4.6897256374359131e-01" nType="0">
        <Node pos="l" depth="1" NCoef="0" IVar="3" Cut="2.1605552673339844e+02" cType="1" res="-4.8633366823196411e-03" rms="4.3024569749832153e-01" purity="4.9743008613586426e-01" nType="0">
          <Node pos="l" depth="2" NCoef="0" IVar="-1" Cut="0.0000000000000000e+00" cType="1" res="-7.7885977225378156e-04" rms="4.2980289459228516e-01" purity="4.1624459624290466e-01" nType="-99"/>
          <Node pos="r" depth="2" NCoef="0" IVar="-1" Cut="0.0000000000000000e+00" cType="1" res="1.0288812918588519e-03" rms="4.2327275872230530e-01" purity="6.2786853313446045e-01" nType="-99"/>
        </Node>
        <Node pos="r" depth="1" NCoef="0" IVar="6" Cut="7.8403037786483765e-01" cType="1" res="-1.0662548989057541e-01" rms="4.0931141376495361e-01" purity="3.4244245290756226e-01" nType="0">
          <Node pos="l" depth="2" NCoef="0" IVar="-1" Cut="0.0000000000000000e+00" cType="1" res="-1.0368040530011058e-03" rms="4.3794617056846619e-01" purity="4.5695260167121887e-01" nType="-99"/>
          <Node pos="r" depth="2" NCoef="0" IVar="-1" Cut="0.0000000000000000e+00" cType="1" res="-3.5493513569235802e-03" rms="3.5652670264244080e-01" purity="1.8745854496955872e-01" nType="-99"/>
        </Node>
      </Node>
    </BinaryTree>
    <BinaryTree type="DecisionTree" boostWeight="1.0000000000000000e+00" itree="743">
      <Node pos="s" depth="0" NCoef="0" IVar="6" Cut="7.4374908208847046e-01" cType="1" res="1.3501289300620556e-02" rms="4.4202426075935364e-01" purity="5.0711220502853394e-01" nType="0">
        <Node pos="l" depth="1" NCoef="0" IVar="6" Cut="6.2129563093185425e-01" cType="1" res="-1.0820345953106880e-02" rms="4.4556012749671936e-01" purity="5.2411150932312012e-01" nType="0">
          <Node pos="l" depth="2" NCoef="0" IVar="-1" Cut="0.0000000000000000e+00" cType="1" res="1.3220016262494028e-04" rms="4.4466093182563782e-01" purity="5.5977904796600342e-01" nType="-99"/>
          <Node pos="r" depth="2" NCoef="0" IVar="-1" Cut="0.0000000000000000e+00" cType="1" res="-1.2192352442070842e-03" rms="4.4335576891899109e-01" purity="4.1141036152839661e-01" nType="-99"/>
        </Node>
        <Node pos="r" depth="1" NCoef="0" IVar="3" Cut="3.6070996093750000e+02" cType="1" res="5.1087409257888794e-02" rms="4.3383011221885681e-01" purity="4.8084181547164917e-01" nType="0">
          <Node pos="l" depth="2" NCoef="0" IVar="-1" Cut="0.0000000000000000e+00" cType="1" res="1.3973517343401909e-03" rms="4.3353217840194702e-01" purity="5.2197206020355225e-01" nType="-99"/>
          <Node pos="r" depth="2" NCoef="0" IVar="-1" Cut="0.0000000000000000e+00" cType="1" res="-3.0418243259191513e-03" rms="3.8482651114463806e-01" purity="2.0006000995635986e-01" nType="-99"/>
        </Node>
      </Node>
    </BinaryTree>
    <BinaryTree type="DecisionTree" boostWeight="1.0000000000000000e+00" itree="744">
      <Node pos="s" depth="0" NCoef="0" IVar="1" Cut="5.3756725788116455e-01" cType="1" res="4.8637166619300842e-03" rms="4.3513894081115723e-01" purity="5.0866389274597168e-01" nType="0">
        <Node pos="l" depth="1" NCoef="0" IVar="4" Cut="5.2911010742187500e+02" cType="1" res="1.0161062330007553e-01" rms="4.1693642735481262e-01" purity="6.8520557880401611e-01" nType="0">
          <Node pos="l" depth="2" NCoef="0" IVar="-1" Cut="0.0000000000000000e+00" cType="1" res="8.9688983280211687e-04" rms="4.4836685061454773e-01" purity="5.8967757225036621e-01" nType="-99"/>
          <Node pos="r" depth="2" NCoef="0" IVar="-1" Cut="0.0000000000000000e+00" cType="1" res="2.6491580065339804e-03" rms="3.6506348848342896e-01" purity="8.0615061521530151e-01" nType="-99"/>
        </Node>
        <Node pos="r" depth="1" NCoef="0" IVar="2" Cut="9.0975230932235718e-01" cType="1" res="-9.1733476147055626e-03" rms="4.3593707680702209e-01" purity="4.8304933309555054e-01" nType="0">
          <Node pos="l" depth="2" NCoef="0" IVar="-1" Cut="0.0000000000000000e+00" cType="1" res="-4.6386923640966415e-03" rms="1.3661551475524902e-01" purity="2.0836964249610901e-02" nType="-99"/>
          <Node pos="r" depth="2" NCoef="0" IVar="-1" Cut="0.0000000000000000e+00" cType="1" res="2.1647780158673413e-05" rms="4.4560402631759644e-01" purity="5.1116025447845459e-01" nType="-99"/>
        </Node>
      </Node>
    </BinaryTree>
    <BinaryTree type="DecisionTree" boostWeight="1.0000000000000000e+00" itree="745">
      <Node pos="s" depth="0" NCoef="0" IVar="3" Cut="1.7383233642578125e+02" cType="1" res="-3.7115411832928658e-03" rms="4.3616056442260742e-01" purity="4.9529331922531128e-01" nType="0">
        <Node pos="l" depth="1" NCoef="0" IVar="5" Cut="1.0983886718750000e+02" cType="1" res="-7.0480205118656158e-02" rms="4.3472081422805786e-01" purity="3.5789328813552856e-01" nType="0">
          <Node pos="l" depth="2" NCoef="0" IVar="-1" Cut="0.0000000000000000e+00" cType="1" res="1.4335193554870784e-04" rms="4.3846386671066284e-01" purity="4.3593469262123108e-01" nType="-99"/>
          <Node pos="r" depth="2" NCoef="0" IVar="-1" Cut="0.0000000000000000e+00" cType="1" res="-3.4887862857431173e-03" rms="3.9614072442054749e-01" purity="2.2967503964900970e-01" nType="-99"/>
        </Node>
        <Node pos="r" depth="1" NCoef="0" IVar="4" Cut="7.5580511474609375e+02" cType="1" res="2.3445781320333481e-02" rms="4.3381476402282715e-01" purity="5.5117905139923096e-01" nType="0">
          <Node pos="l" depth="2" NCoef="0" IVar="-1" Cut="0.0000000000000000e+00" cType="1" res="2.5593987083993852e-04" rms="4.3533748388290405e-01" purity="5.3551018238067627e-01" nType="-99"/>
          <Node pos="r" depth="2" NCoef="0" IVar="-1" Cut="0.0000000000000000e+00" cType="1" res="2.2618514485657215e-03" rms="3.9917644858360291e-01" purity="7.4001276493072510e-01" nType="-99"/>
        </Node>
      </Node>
    </BinaryTree>
    <BinaryTree type="DecisionTree" boostWeight="1.0000000000000000e+00" itree="746">
      <Node pos="s" depth="0" NCoef="0" IVar="0" Cut="5.6818688964843750e+02" cType="1" res="4.5753009617328644e-03" rms="4.3920847773551941e-01" purity="5.0603574514389038e-01" nType="0">
        <Node pos="l" depth="1" NCoef="0" IVar="6" Cut="8.8160932064056396e-01" cType="1" res="1.5478728339076042e-02" rms="4.3531101942062378e-01" purity="5.0777745246887207e-01" nType="0">
          <Node pos="l" depth="2" NCoef="0" IVar="-1" Cut="0.0000000000000000e+00" cType="1" res="5.6938041234388947e-04" rms="4.3653064966201782e-01" purity="5.4960453510284424e-01" nType="-99"/>
          <Node pos="r" depth="2" NCoef="0" IVar="-1" Cut="0.0000000000000000e+00" cType="1" res="-7.8781682532280684e-04" rms="4.2602458596229553e-01" purity="3.6603191494941711e-01" nType="-99"/>
        </Node>
        <Node pos="r" depth="1" NCoef="0" IVar="-1" Cut="0.0000000000000000e+00" cType="1" res="-3.1721978448331356e-03" rms="4.6400892734527588e-01" purity="4.7893074154853821e-01" nType="-99"/>
      </Node>
    </BinaryTree>
    <BinaryTree type="DecisionTree" boostWeight="1.0000000000000000e+00" itree="747">
      <Node pos="s" depth="0" NCoef="0" IVar="0" Cut="2.3720089721679688e+02" cType="1" res="-2.4071845691651106e-03" rms="4.4703987240791321e-01" purity="5.0642776489257812e-01" nType="0">
        <Node pos="l" depth="1" NCoef="0" IVar="2" Cut="9.4676387310028076e-01" cType="1" res="8.1689722836017609e-02" rms="4.6300533413887024e-01" purity="4.6753144264221191e-01" nType="0">
          <Node pos="l" depth="2" NCoef="0" IVar="-1" Cut="0.0000000000000000e+00" cType="1" res="3.4756797831505537e-03" rms="4.6686640381813049e-01" purity="3.8312831521034241e-01" nType="-99"/>
          <Node pos="r" depth="2" NCoef="0" IVar="-1" Cut="0.0000000000000000e+00" cType="1" res="4.6996315177239012e-06" rms="4.4448220729827881e-01" purity="5.5284088850021362e-01" nType="-99"/>
        </Node>
        <Node pos="r" depth="1" NCoef="0" IVar="5" Cut="1.1653629302978516e+02" cType="1" res="-1.9294984638690948e-02" rms="4.4183883070945740e-01" purity="5.1423871517181396e-01" nType="0">
          <Node pos="l" depth="2" NCoef="0" IVar="-1" Cut="0.0000000000000000e+00" cType="1" res="5.7946733431890607e-04" rms="4.4579273462295532e-01" purity="5.3553926944732666e-01" nType="-99"/>
          <Node pos="r" depth="2" NCoef="0" IVar="-1" Cut="0.0000000000000000e+00" cType="1" res="-8.4630772471427917e-04" rms="4.3692415952682495e-01" purity="5.0249433517456055e-01" nType="-99"/>
        </Node>
      </Node>
    </BinaryTree>
    <BinaryTree type="DecisionTree" boostWeight="1.0000000000000000e+00" itree="748">
      <Node pos="s" depth="0" NCoef="0" IVar="5" Cut="1.9177699279785156e+02" cType="1" res="1.7975972732529044e-03" rms="4.4178447127342224e-01" purity="5.0204420089721680e-01" nType="0">
        <Node pos="l" depth="1" NCoef="0" IVar="4" Cut="4.5297698974609375e+02" cType="1" res="1.8350420519709587e-02" rms="4.3715044856071472e-01" purity="5.0358682870864868e-01" nType="0">
          <Node pos="l" depth="2" NCoef="0" IVar="-1" Cut="0.0000000000000000e+00" cType="1" res="-2.8107804246246815e-04" rms="4.2946943640708923e-01" purity="4.1402897238731384e-01" nType="-99"/>
          <Node pos="r" depth="2" NCoef="0" IVar="-1" Cut="0.0000000000000000e+00" cType="1" res="1.2287249555811286e-03" rms="4.4376316666603088e-01" purity="6.4325124025344849e-01" nType="-99"/>
        </Node>
        <Node pos="r" depth="1" NCoef="0" IVar="3" Cut="2.6778717041015625e+02" cType="1" res="-8.4601424634456635e-02" rms="4.5556333661079407e-01" purity="4.9399238824844360e-01" nType="0">
          <Node pos="l" depth="2" NCoef="0" IVar="-1" Cut="0.0000000000000000e+00" cType="1" res="-3.1626909039914608e-03" rms="4.8007756471633911e-01" purity="4.1859424114227295e-01" nType="-99"/>
          <Node pos="r" depth="2" NCoef="0" IVar="-1" Cut="0.0000000000000000e+00" cType="1" res="-4.9974920693784952e-04" rms="4.3075290322303772e-01" purity="5.3924953937530518e-01" nType="-99"/>
        </Node>
      </Node>
    </BinaryTree>
    <BinaryTree type="DecisionTree" boostWeight="1.0000000000000000e+00" itree="749">
      <Node pos="s" depth="0" NCoef="0" IVar="1" Cut="1.0345797538757324e+00" cType="1" res="1.8135713413357735e-02" rms="4.3135276436805725e-01" purity="5.1517057418823242e-01" nType="0">
        <Node pos="l" depth="1" NCoef="0" IVar="3" Cut="2.2023063659667969e+02" cType="1" res="4.7389753162860870e-02" rms="4.3172308802604675e-01" purity="6.1245143413543701e-01" nType="0">
          <Node pos="l" depth="2" NCoef="0" IVar="-1" Cut="0.0000000000000000e+00" cType="1" res="3.8763010525144637e-04" rms="4.5046991109848022e-01" purity="5.1385533809661865e-01" nType="-99"/>
          <Node pos="r" depth="2" NCoef="0" IVar="-1" Cut="0.0000000000000000e+00" cType="1" res="1.6239191172644496e-03" rms="3.9290213584899902e-01" purity="7.8643339872360229e-01" nType="-99"/>
        </Node>
        <Node pos="r" depth="1" NCoef="0" IVar="3" Cut="2.8020684814453125e+02" cType="1" res="-3.3407796174287796e-02" rms="4.2583736777305603e-01" purity="3.4376877546310425e-01" nType="0">
          <Node pos="l" depth="2" NCoef="0" IVar="-1" Cut="0.0000000000000000e+00" cType="1" res="4.3978140456601977e-04" rms="4.4451916217803955e-01" purity="4.1268116235733032e-01" nType="-99"/>
          <Node pos="r" depth="2" NCoef="0" IVar="-1" Cut="0.0000000000000000e+00" cType="1" res="-2.2987553384155035e-03" rms="3.8100624084472656e-01" purity="2.4184535443782806e-01" nType="-99"/>
        </Node>
      </Node>
    </BinaryTree>
    <BinaryTree type="DecisionTree" boostWeight="1.0000000000000000e+00" itree="750">
      <Node pos="s" depth="0" NCoef="0" IVar="6" Cut="7.6518183946609497e-01" cType="1" res="8.5732117295265198e-03" rms="4.4019469618797302e-01" purity="5.0263333320617676e-01" nType="0">
        <Node pos="l" depth="1" NCoef="0" IVar="4" Cut="6.2512762451171875e+02" cType="1" res="-3.2786902040243149e-02" rms="4.2606776952743530e-01" purity="5.0238776206970215e-01" nType="0">
          <Node pos="l" depth="2" NCoef="0" IVar="-1" Cut="0.0000000000000000e+00" cType="1" res="-1.0286401957273483e-03" rms="4.2385986447334290e-01" purity="4.5454806089401245e-01" nType="-99"/>
          <Node pos="r" depth="2" NCoef="0" IVar="-1" Cut="0.0000000000000000e+00" cType="1" res="1.2886482290923595e-03" rms="4.1808104515075684e-01" purity="7.0829689502716064e-01" nType="-99"/>
        </Node>
        <Node pos="r" depth="1" NCoef="0" IVar="3" Cut="3.6580718994140625e+02" cType="1" res="7.7489495277404785e-02" rms="4.5449149608612061e-01" purity="5.0304239988327026e-01" nType="0">
          <Node pos="l" depth="2" NCoef="0" IVar="-1" Cut="0.0000000000000000e+00" cType="1" res="1.7591862706467509e-03" rms="4.5583671331405640e-01" purity="5.4228490591049194e-01" nType="-99"/>
          <Node pos="r" depth="2" NCoef="0" IVar="-1" Cut="0.0000000000000000e+00" cType="1" res="-1.6088900156319141e-03" rms="4.1358906030654907e-01" purity="2.4740912020206451e-01" nType="-99"/>
        </Node>
      </Node>
    </BinaryTree>
    <BinaryTree type="DecisionTree" boostWeight="1.0000000000000000e+00" itree="751">
      <Node pos="s" depth="0" NCoef="0" IVar="3" Cut="2.1995507812500000e+02" cType="1" res="-1.2993210926651955e-02" rms="4.3504855036735535e-01" purity="4.6680030226707458e-01" nType="0">
        <Node pos="l" depth="1" NCoef="0" IVar="5" Cut="1.0119116973876953e+02" cType="1" res="-4.6364080160856247e-02" rms="4.4575092196464539e-01" purity="3.9704245328903198e-01" nType="0">
          <Node pos="l" depth="2" NCoef="0" IVar="-1" Cut="0.0000000000000000e+00" cType="1" res="3.4652254544198513e-04" rms="4.4559463858604431e-01" purity="4.3454331159591675e-01" nType="-99"/>
          <Node pos="r" depth="2" NCoef="0" IVar="-1" Cut="0.0000000000000000e+00" cType="1" res="-1.9789508078247309e-03" rms="4.3573662638664246e-01" purity="3.5868453979492188e-01" nType="-99"/>
        </Node>
        <Node pos="r" depth="1" NCoef="0" IVar="1" Cut="6.5650635957717896e-01" cType="1" res="2.7519324794411659e-02" rms="4.1812679171562195e-01" purity="5.5148690938949585e-01" nType="0">
          <Node pos="l" depth="2" NCoef="0" IVar="-1" Cut="0.0000000000000000e+00" cType="1" res="3.2384346704930067e-03" rms="2.8936269879341125e-01" purity="9.0428549051284790e-01" nType="-99"/>
          <Node pos="r" depth="2" NCoef="0" IVar="-1" Cut="0.0000000000000000e+00" cType="1" res="-5.6485414461349137e-06" rms="4.3292391300201416e-01" purity="4.8402893543243408e-01" nType="-99"/>
        </Node>
      </Node>
    </BinaryTree>
    <BinaryTree type="DecisionTree" boostWeight="1.0000000000000000e+00" itree="752">
      <Node pos="s" depth="0" NCoef="0" IVar="2" Cut="9.0777313709259033e-01" cType="1" res="1.8104199320077896e-02" rms="4.3715709447860718e-01" purity="5.2042806148529053e-01" nType="0">
        <Node pos="l" depth="1" NCoef="0" IVar="-1" Cut="0.0000000000000000e+00" cType="1" res="-3.4356613177806139e-03" rms="2.2855356335639954e-01" purity="7.1471385657787323e-02" nType="-99"/>
        <Node pos="r" depth="1" NCoef="0" IVar="0" Cut="5.6413848876953125e+02" cType="1" res="2.7122359722852707e-02" rms="4.4420582056045532e-01" purity="5.4548633098602295e-01" nType="0">
          <Node pos="l" depth="2" NCoef="0" IVar="-1" Cut="0.0000000000000000e+00" cType="1" res="6.1527104116976261e-04" rms="4.4337686896324158e-01" purity="5.4789805412292480e-01" nType="-99"/>
          <Node pos="r" depth="2" NCoef="0" IVar="-1" Cut="0.0000000000000000e+00" cType="1" res="-1.7038286896422505e-03" rms="4.3828898668289185e-01" purity="5.1155406236648560e-01" nType="-99"/>
        </Node>
      </Node>
    </BinaryTree>
    <BinaryTree type="DecisionTree" boostWeight="1.0000000000000000e+00" itree="753">
      <Node pos="s" depth="0" NCoef="0" IVar="5" Cut="2.2846635437011719e+02" cType="1" res="1.7984148114919662e-02" rms="4.4492101669311523e-01" purity="5.1707947254180908e-01" nType="0">
        <Node pos="l" depth="1" NCoef="0" IVar="5" Cut="1.7617088317871094e+02" cType="1" res="2.7659751474857330e-02" rms="4.3921360373497009e-01" purity="5.1931041479110718e-01" nType="0">
          <Node pos="l" depth="2" NCoef="0" IVar="-1" Cut="0.0000000000000000e+00" cType="1" res="2.6289804372936487e-04" rms="4.4272989034652710e-01" purity="4.9662780761718750e-01" nType="-99"/>
          <Node pos="r" depth="2" NCoef="0" IVar="-1" Cut="0.0000000000000000e+00" cType="1" res="2.1341256797313690e-03" rms="3.9927363395690918e-01" purity="6.8870013952255249e-01" nType="-99"/>
        </Node>
        <Node pos="r" depth="1" NCoef="0" IVar="2" Cut="9.4773453474044800e-01" cType="1" res="-6.4501009881496429e-02" rms="4.8308518528938293e-01" purity="4.9806031584739685e-01" nType="0">
          <Node pos="l" depth="2" NCoef="0" IVar="-1" Cut="0.0000000000000000e+00" cType="1" res="-1.6928419063333422e-04" rms="4.7734594345092773e-01" purity="4.3420496582984924e-01" nType="-99"/>
          <Node pos="r" depth="2" NCoef="0" IVar="-1" Cut="0.0000000000000000e+00" cType="1" res="-2.3110366892069578e-03" rms="4.8249116539955139e-01" purity="5.6817167997360229e-01" nType="-99"/>
        </Node>
      </Node>
    </BinaryTree>
    <BinaryTree type="DecisionTree" boostWeight="1.0000000000000000e+00" itree="754">
      <Node pos="s" depth="0" NCoef="0" IVar="1" Cut="7.8042089939117432e-01" cType="1" res="6.4441184513270855e-03" rms="4.3827489018440247e-01" purity="4.9668738245964050e-01" nType="0">
        <Node pos="l" depth="1" NCoef="0" IVar="4" Cut="6.5615734863281250e+02" cType="1" res="4.5180026441812515e-02" rms="4.2772802710533142e-01" purity="6.3061439990997314e-01" nType="0">
          <Node pos="l" depth="2" NCoef="0" IVar="-1" Cut="0.0000000000000000e+00" cType="1" res="4.6838383423164487e-04" rms="4.3773141503334045e-01" purity="5.8979243040084839e-01" nType="-99"/>
          <Node pos="r" depth="2" NCoef="0" IVar="-1" Cut="0.0000000000000000e+00" cType="1" res="2.3737063165754080e-03" rms="3.5989072918891907e-01" purity="8.3782774209976196e-01" nType="-99"/>
        </Node>
        <Node pos="r" depth="1" NCoef="0" IVar="0" Cut="4.7232992553710938e+02" cType="1" res="-1.5651114284992218e-02" rms="4.4266316294670105e-01" purity="4.2029443383216858e-01" nType="0">
          <Node pos="l" depth="2" NCoef="0" IVar="-1" Cut="0.0000000000000000e+00" cType="1" res="-3.4565848181955516e-05" rms="4.3744909763336182e-01" purity="4.2110922932624817e-01" nType="-99"/>
          <Node pos="r" depth="2" NCoef="0" IVar="-1" Cut="0.0000000000000000e+00" cType="1" res="-2.0989344920963049e-03" rms="4.6708646416664124e-01" purity="4.1425606608390808e-01" nType="-99"/>
        </Node>
      </Node>
    </BinaryTree>
    <BinaryTree type="DecisionTree" boostWeight="1.0000000000000000e+00" itree="755">
      <Node pos="s" depth="0" NCoef="0" IVar="2" Cut="9.4141221046447754e-01" cType="1" res="1.6093848273158073e-02" rms="4.3689590692520142e-01" purity="5.1181077957153320e-01" nType="0">
        <Node pos="l" depth="1" NCoef="0" IVar="1" Cut="8.9771145582199097e-01" cType="1" res="-2.6159750297665596e-02" rms="4.2864707112312317e-01" purity="2.8860178589820862e-01" nType="0">
          <Node pos="l" depth="2" NCoef="0" IVar="-1" Cut="0.0000000000000000e+00" cType="1" res="-1.0535693727433681e-03" rms="4.3349179625511169e-01" purity="2.9174718260765076e-01" nType="-99"/>
          <Node pos="r" depth="2" NCoef="0" IVar="-1" Cut="0.0000000000000000e+00" cType="1" res="5.7520246627973393e-05" rms="4.2246204614639282e-01" purity="2.8606125712394714e-01" nType="-99"/>
        </Node>
        <Node pos="r" depth="1" NCoef="0" IVar="1" Cut="6.2261629104614258e-01" cType="1" res="4.2326230555772781e-02" rms="4.3990230560302734e-01" purity="6.5038603544235229e-01" nType="0">
          <Node pos="l" depth="2" NCoef="0" IVar="-1" Cut="0.0000000000000000e+00" cType="1" res="1.4875730266794562e-03" rms="3.9371946454048157e-01" purity="7.8179299831390381e-01" nType="-99"/>
          <Node pos="r" depth="2" NCoef="0" IVar="-1" Cut="0.0000000000000000e+00" cType="1" res="4.5272003626450896e-04" rms="4.5414057374000549e-01" purity="6.0385048389434814e-01" nType="-99"/>
        </Node>
      </Node>
    </BinaryTree>
    <BinaryTree type="DecisionTree" boostWeight="1.0000000000000000e+00" itree="756">
      <Node pos="s" depth="0" NCoef="0" IVar="2" Cut="9.3038827180862427e-01" cType="1" res="8.2327909767627716e-03" rms="4.3929120898246765e-01" purity="5.1646089553833008e-01" nType="0">
        <Node pos="l" depth="1" NCoef="0" IVar="4" Cut="4.3258319091796875e+02" cType="1" res="-6.3913933932781219e-02" rms="3.8125339150428772e-01" purity="2.1441502869129181e-01" nType="0">
          <Node pos="l" depth="2" NCoef="0" IVar="-1" Cut="0.0000000000000000e+00" cType="1" res="-2.8431294485926628e-03" rms="3.0113163590431213e-01" purity="8.9733377099037170e-02" nType="-99"/>
          <Node pos="r" depth="2" NCoef="0" IVar="-1" Cut="0.0000000000000000e+00" cType="1" res="-2.5423255283385515e-04" rms="4.3647581338882446e-01" purity="3.2926788926124573e-01" nType="-99"/>
        </Node>
        <Node pos="r" depth="1" NCoef="0" IVar="0" Cut="2.6569183349609375e+02" cType="1" res="2.9327699914574623e-02" rms="4.5269656181335449e-01" purity="6.0477578639984131e-01" nType="0">
          <Node pos="l" depth="2" NCoef="0" IVar="-1" Cut="0.0000000000000000e+00" cType="1" res="1.4311390696093440e-03" rms="4.7159472107887268e-01" purity="5.6924664974212646e-01" nType="-99"/>
          <Node pos="r" depth="2" NCoef="0" IVar="-1" Cut="0.0000000000000000e+00" cType="1" res="8.5858519014436752e-05" rms="4.4236984848976135e-01" purity="6.1946928501129150e-01" nType="-99"/>
        </Node>
      </Node>
    </BinaryTree>
    <BinaryTree type="DecisionTree" boostWeight="1.0000000000000000e+00" itree="757">
      <Node pos="s" depth="0" NCoef="0" IVar="1" Cut="1.3429838418960571e+00" cType="1" res="-4.4152229093015194e-03" rms="4.3490219116210938e-01" purity="4.9867385625839233e-01" nType="0">
        <Node pos="l" depth="1" NCoef="0" IVar="6" Cut="2.5944590568542480e-01" cType="1" res="1.2768059037625790e-02" rms="4.4611293077468872e-01" purity="5.5849164724349976e-01" nType="0">
          <Node pos="l" depth="2" NCoef="0" IVar="-1" Cut="0.0000000000000000e+00" cType="1" res="2.4107336066663265e-03" rms="3.6758980154991150e-01" purity="7.2919905185699463e-01" nType="-99"/>
          <Node pos="r" depth="2" NCoef="0" IVar="-1" Cut="0.0000000000000000e+00" cType="1" res="5.0642320275073871e-05" rms="4.5006087422370911e-01" purity="5.4543286561965942e-01" nType="-99"/>
        </Node>
        <Node pos="r" depth="1" NCoef="0" IVar="3" Cut="2.8356439208984375e+02" cType="1" res="-9.2803597450256348e-02" rms="3.5917073488235474e-01" purity="1.9097952544689178e-01" nType="0">
          <Node pos="l" depth="2" NCoef="0" IVar="-1" Cut="0.0000000000000000e+00" cType="1" res="-7.1570917498320341e-04" rms="4.0889900922775269e-01" purity="2.5989228487014771e-01" nType="-99"/>
          <Node pos="r" depth="2" NCoef="0" IVar="-1" Cut="0.0000000000000000e+00" cType="1" res="-3.5165424924343824e-03" rms="2.8610786795616150e-01" purity="1.1895085126161575e-01" nType="-99"/>
        </Node>
      </Node>
    </BinaryTree>
    <BinaryTree type="DecisionTree" boostWeight="1.0000000000000000e+00" itree="758">
      <Node pos="s" depth="0" NCoef="0" IVar="2" Cut="9.7461473941802979e-01" cType="1" res="3.2426177058368921e-03" rms="4.3519574403762817e-01" purity="5.0384044647216797e-01" nType="0">
        <Node pos="l" depth="1" NCoef="0" IVar="4" Cut="7.3050817871093750e+02" cType="1" res="-1.0913686826825142e-02" rms="4.4657534360885620e-01" purity="4.4284313917160034e-01" nType="0">
          <Node pos="l" depth="2" NCoef="0" IVar="-1" Cut="0.0000000000000000e+00" cType="1" res="-4.1669455822557211e-04" rms="4.4281876087188721e-01" purity="4.1854897141456604e-01" nType="-99"/>
          <Node pos="r" depth="2" NCoef="0" IVar="-1" Cut="0.0000000000000000e+00" cType="1" res="1.7169640632346272e-03" rms="4.6399453282356262e-01" purity="6.7708343267440796e-01" nType="-99"/>
        </Node>
        <Node pos="r" depth="1" NCoef="0" IVar="6" Cut="7.0769876241683960e-01" cType="1" res="8.3684287965297699e-02" rms="3.5322436690330505e-01" purity="8.5045117139816284e-01" nType="0">
          <Node pos="l" depth="2" NCoef="0" IVar="-1" Cut="0.0000000000000000e+00" cType="1" res="6.5197487128898501e-04" rms="3.6250025033950806e-01" purity="8.3863484859466553e-01" nType="-99"/>
          <Node pos="r" depth="2" NCoef="0" IVar="-1" Cut="0.0000000000000000e+00" cType="1" res="2.7699687052518129e-03" rms="3.2624024152755737e-01" purity="8.6598461866378784e-01" nType="-99"/>
        </Node>
      </Node>
    </BinaryTree>
    <BinaryTree type="DecisionTree" boostWeight="1.0000000000000000e+00" itree="759">
      <Node pos="s" depth="0" NCoef="0" IVar="5" Cut="9.9944847106933594e+01" cType="1" res="-1.0673512704670429e-02" rms="4.4583508372306824e-01" purity="4.9178162217140198e-01" nType="0">
        <Node pos="l" depth="1" NCoef="0" IVar="3" Cut="1.6351385498046875e+02" cType="1" res="2.2602949291467667e-02" rms="4.3764337897300720e-01" purity="4.5253825187683105e-01" nType="0">
          <Node pos="l" depth="2" NCoef="0" IVar="-1" Cut="0.0000000000000000e+00" cType="1" res="1.4281200710684061e-03" rms="4.4592234492301941e-01" purity="5.1451426744461060e-01" nType="-99"/>
          <Node pos="r" depth="2" NCoef="0" IVar="-1" Cut="0.0000000000000000e+00" cType="1" res="-3.7110701669007540e-04" rms="4.2658841609954834e-01" purity="4.0860062837600708e-01" nType="-99"/>
        </Node>
        <Node pos="r" depth="1" NCoef="0" IVar="4" Cut="6.3248468017578125e+02" cType="1" res="-2.8519380837678909e-02" rms="4.4915235042572021e-01" purity="5.1282745599746704e-01" nType="0">
          <Node pos="l" depth="2" NCoef="0" IVar="-1" Cut="0.0000000000000000e+00" cType="1" res="-9.9826522637158632e-04" rms="4.4205898046493530e-01" purity="4.6564614772796631e-01" nType="-99"/>
          <Node pos="r" depth="2" NCoef="0" IVar="-1" Cut="0.0000000000000000e+00" cType="1" res="9.1815192718058825e-04" rms="4.5991450548171997e-01" purity="6.5406870841979980e-01" nType="-99"/>
        </Node>
      </Node>
    </BinaryTree>
    <BinaryTree type="DecisionTree" boostWeight="1.0000000000000000e+00" itree="760">
      <Node pos="s" depth="0" NCoef="0" IVar="6" Cut="7.1171128749847412e-01" cType="1" res="3.0814025085419416e-03" rms="4.4239205121994019e-01" purity="4.9744579195976257e-01" nType="0">
        <Node pos="l" depth="1" NCoef="0" IVar="2" Cut="9.4814020395278931e-01" cType="1" res="-1.6224410384893417e-02" rms="4.3431204557418823e-01" purity="5.1719206571578979e-01" nType="0">
          <Node pos="l" depth="2" NCoef="0" IVar="-1" Cut="0.0000000000000000e+00" cType="1" res="-8.9387263869866729e-04" rms="4.3881303071975708e-01" purity="3.2995375990867615e-01" nType="-99"/>
          <Node pos="r" depth="2" NCoef="0" IVar="-1" Cut="0.0000000000000000e+00" cType="1" res="2.9978191014379263e-04" rms="4.2736428976058960e-01" purity="6.9317138195037842e-01" nType="-99"/>
        </Node>
        <Node pos="r" depth="1" NCoef="0" IVar="2" Cut="9.7022157907485962e-01" cType="1" res="2.9869722202420235e-02" rms="4.5200133323669434e-01" purity="4.7004637122154236e-01" nType="0">
          <Node pos="l" depth="2" NCoef="0" IVar="-1" Cut="0.0000000000000000e+00" cType="1" res="8.2403718261048198e-04" rms="4.5078793168067932e-01" purity="4.3807047605514526e-01" nType="-99"/>
          <Node pos="r" depth="2" NCoef="0" IVar="-1" Cut="0.0000000000000000e+00" cType="1" res="-1.0237550595775247e-03" rms="4.4879123568534851e-01" purity="6.4309656620025635e-01" nType="-99"/>
        </Node>
      </Node>
    </BinaryTree>
    <BinaryTree type="DecisionTree" boostWeight="1.0000000000000000e+00" itree="761">
      <Node pos="s" depth="0" NCoef="0" IVar="6" Cut="4.2512094974517822e-01" cType="1" res="-1.1456872336566448e-02" rms="4.4382879137992859e-01" purity="4.7801432013511658e-01" nType="0">
        <Node pos="l" depth="1" NCoef="0" IVar="0" Cut="2.7348782348632812e+02" cType="1" res="7.6261363923549652e-02" rms="4.2977955937385559e-01" purity="6.6425943374633789e-01" nType="0">
          <Node pos="l" depth="2" NCoef="0" IVar="-1" Cut="0.0000000000000000e+00" cType="1" res="3.4915884025394917e-03" rms="4.6590110659599304e-01" purity="6.3122612237930298e-01" nType="-99"/>
          <Node pos="r" depth="2" NCoef="0" IVar="-1" Cut="0.0000000000000000e+00" cType="1" res="4.5499252155423164e-04" rms="4.0317940711975098e-01" purity="6.7725294828414917e-01" nType="-99"/>
        </Node>
        <Node pos="r" depth="1" NCoef="0" IVar="2" Cut="9.4130545854568481e-01" cType="1" res="-3.2411105930805206e-02" rms="4.4456580281257629e-01" purity="4.3352383375167847e-01" nType="0">
          <Node pos="l" depth="2" NCoef="0" IVar="-1" Cut="0.0000000000000000e+00" cType="1" res="3.2137068046722561e-05" rms="4.2613032460212708e-01" purity="2.9984673857688904e-01" nType="-99"/>
          <Node pos="r" depth="2" NCoef="0" IVar="-1" Cut="0.0000000000000000e+00" cType="1" res="-9.8983920179307461e-04" rms="4.5611345767974854e-01" purity="5.3261548280715942e-01" nType="-99"/>
        </Node>
      </Node>
    </BinaryTree>
    <BinaryTree type="DecisionTree" boostWeight="1.0000000000000000e+00" itree="762">
      <Node pos="s" depth="0" NCoef="0" IVar="1" Cut="7.3652112483978271e-01" cType="1" res="-5.7722707279026508e-03" rms="4.3356430530548096e-01" purity="4.9948266148567200e-01" nType="0">
        <Node pos="l" depth="1" NCoef="0" IVar="3" Cut="1.8978747558593750e+02" cType="1" res="6.0417376458644867e-02" rms="4.1562530398368835e-01" purity="6.7124861478805542e-01" nType="0">
          <Node pos="l" depth="2" NCoef="0" IVar="-1" Cut="0.0000000000000000e+00" cType="1" res="3.6427826853469014e-04" rms="4.4579929113388062e-01" purity="5.3191947937011719e-01" nType="-99"/>
          <Node pos="r" depth="2" NCoef="0" IVar="-1" Cut="0.0000000000000000e+00" cType="1" res="1.7874456243589520e-03" rms="3.8108053803443909e-01" purity="8.0390530824661255e-01" nType="-99"/>
        </Node>
        <Node pos="r" depth="1" NCoef="0" IVar="4" Cut="5.5467431640625000e+02" cType="1" res="-3.5284869372844696e-02" rms="4.3811634182929993e-01" purity="4.2289578914642334e-01" nType="0">
          <Node pos="l" depth="2" NCoef="0" IVar="-1" Cut="0.0000000000000000e+00" cType="1" res="-1.0317788692191243e-03" rms="4.2883750796318054e-01" purity="3.7630355358123779e-01" nType="-99"/>
          <Node pos="r" depth="2" NCoef="0" IVar="-1" Cut="0.0000000000000000e+00" cType="1" res="5.3739227587357163e-04" rms="4.6040406823158264e-01" purity="5.7376861572265625e-01" nType="-99"/>
        </Node>
      </Node>
    </BinaryTree>
    <BinaryTree type="DecisionTree" boostWeight="1.0000000000000000e+00" itree="763">
      <Node pos="s" depth="0" NCoef="0" IVar="1" Cut="6.3374370336532593e-01" cType="1" res="7.5015430338680744e-03" rms="4.3220925331115723e-01" purity="5.1327258348464966e-01" nType="0">
        <Node pos="l" depth="1" NCoef="0" IVar="2" Cut="9.5858573913574219e-01" cType="1" res="7.2188898921012878e-02" rms="4.1335836052894592e-01" purity="6.8748319149017334e-01" nType="0">
          <Node pos="l" depth="2" NCoef="0" IVar="-1" Cut="0.0000000000000000e+00" cType="1" res="1.6956122126430273e-03" rms="4.3452525138854980e-01" purity="6.0750848054885864e-01" nType="-99"/>
          <Node pos="r" depth="2" NCoef="0" IVar="-1" Cut="0.0000000000000000e+00" cType="1" res="4.0635347249917686e-04" rms="3.7572017312049866e-01" purity="7.9891127347946167e-01" nType="-99"/>
        </Node>
        <Node pos="r" depth="1" NCoef="0" IVar="2" Cut="9.3658012151718140e-01" cType="1" res="-1.2431323528289795e-02" rms="4.3592408299446106e-01" purity="4.5959106087684631e-01" nType="0">
          <Node pos="l" depth="2" NCoef="0" IVar="-1" Cut="0.0000000000000000e+00" cType="1" res="-1.4138019178062677e-03" rms="3.8926169276237488e-01" purity="2.0614123344421387e-01" nType="-99"/>
          <Node pos="r" depth="2" NCoef="0" IVar="-1" Cut="0.0000000000000000e+00" cType="1" res="2.2247662127483636e-04" rms="4.5325180888175964e-01" purity="5.7490736246109009e-01" nType="-99"/>
        </Node>
      </Node>
    </BinaryTree>
    <BinaryTree type="DecisionTree" boostWeight="1.0000000000000000e+00" itree="764">
      <Node pos="s" depth="0" NCoef="0" IVar="4" Cut="6.1964752197265625e+02" cType="1" res="7.9666469246149063e-03" rms="4.3360689282417297e-01" purity="5.1756370067596436e-01" nType="0">
        <Node pos="l" depth="1" NCoef="0" IVar="4" Cut="5.6601904296875000e+02" cType="1" res="-1.1456984095275402e-02" rms="4.3215319514274597e-01" purity="4.7464674711227417e-01" nType="0">
          <Node pos="l" depth="2" NCoef="0" IVar="-1" Cut="0.0000000000000000e+00" cType="1" res="-3.8249682984314859e-04" rms="4.3290099501609802e-01" purity="4.5761299133300781e-01" nType="-99"/>
          <Node pos="r" depth="2" NCoef="0" IVar="-1" Cut="0.0000000000000000e+00" cType="1" res="1.8924511969089508e-03" rms="4.0171802043914795e-01" purity="6.9278627634048462e-01" nType="-99"/>
        </Node>
        <Node pos="r" depth="1" NCoef="0" IVar="0" Cut="5.6762817382812500e+02" cType="1" res="9.3786053359508514e-02" rms="4.2958545684814453e-01" purity="7.0718359947204590e-01" nType="0">
          <Node pos="l" depth="2" NCoef="0" IVar="-1" Cut="0.0000000000000000e+00" cType="1" res="2.7831939514726400e-03" rms="3.8277822732925415e-01" purity="7.8463107347488403e-01" nType="-99"/>
          <Node pos="r" depth="2" NCoef="0" IVar="-1" Cut="0.0000000000000000e+00" cType="1" res="-5.1347987027838826e-04" rms="4.7092276811599731e-01" purity="5.8079564571380615e-01" nType="-99"/>
        </Node>
      </Node>
    </BinaryTree>
    <BinaryTree type="DecisionTree" boostWeight="1.0000000000000000e+00" itree="765">
      <Node pos="s" depth="0" NCoef="0" IVar="6" Cut="7.6479500532150269e-01" cType="1" res="1.4485334977507591e-03" rms="4.4261968135833740e-01" purity="4.9633762240409851e-01" nType="0">
        <Node pos="l" depth="1" NCoef="0" IVar="6" Cut="5.8583837747573853e-01" cType="1" res="-2.1913962438702583e-02" rms="4.3714308738708496e-01" purity="5.0953590869903564e-01" nType="0">
          <Node pos="l" depth="2" NCoef="0" IVar="-1" Cut="0.0000000000000000e+00" cType="1" res="1.5874615928623825e-04" rms="4.2932346463203430e-01" purity="5.6371682882308960e-01" nType="-99"/>
          <Node pos="r" depth="2" NCoef="0" IVar="-1" Cut="0.0000000000000000e+00" cType="1" res="-1.2818144168704748e-03" rms="4.4505789875984192e-01" purity="4.2072585225105286e-01" nType="-99"/>
        </Node>
        <Node pos="r" depth="1" NCoef="0" IVar="2" Cut="9.6972066164016724e-01" cType="1" res="4.1349962353706360e-02" rms="4.4901761412620544e-01" purity="4.7379598021507263e-01" nType="0">
          <Node pos="l" depth="2" NCoef="0" IVar="-1" Cut="0.0000000000000000e+00" cType="1" res="9.9684577435255051e-04" rms="4.4949045777320862e-01" purity="4.3685576319694519e-01" nType="-99"/>
          <Node pos="r" depth="2" NCoef="0" IVar="-1" Cut="0.0000000000000000e+00" cType="1" res="-4.8867723671719432e-04" rms="4.4045275449752808e-01" purity="6.5970385074615479e-01" nType="-99"/>
        </Node>
      </Node>
    </BinaryTree>
    <BinaryTree type="DecisionTree" boostWeight="1.0000000000000000e+00" itree="766">
      <Node pos="s" depth="0" NCoef="0" IVar="2" Cut="9.7508591413497925e-01" cType="1" res="1.1118706315755844e-02" rms="4.2920103669166565e-01" purity="5.2579784393310547e-01" nType="0">
        <Node pos="l" depth="1" NCoef="0" IVar="6" Cut="2.9819285869598389e-01" cType="1" res="-2.0896240603178740e-03" rms="4.4179049134254456e-01" purity="4.6824473142623901e-01" nType="0">
          <Node pos="l" depth="2" NCoef="0" IVar="-1" Cut="0.0000000000000000e+00" cType="1" res="1.5683290548622608e-03" rms="4.5166108012199402e-01" purity="6.3256418704986572e-01" nType="-99"/>
          <Node pos="r" depth="2" NCoef="0" IVar="-1" Cut="0.0000000000000000e+00" cType="1" res="-1.8491112859919667e-04" rms="4.3991205096244812e-01" purity="4.5371448993682861e-01" nType="-99"/>
        </Node>
        <Node pos="r" depth="1" NCoef="0" IVar="0" Cut="3.4019027709960938e+02" cType="1" res="8.8816478848457336e-02" rms="3.3562934398651123e-01" purity="8.6435270309448242e-01" nType="0">
          <Node pos="l" depth="2" NCoef="0" IVar="-1" Cut="0.0000000000000000e+00" cType="1" res="3.2004155218601227e-03" rms="2.5283372402191162e-01" purity="9.2296296358108521e-01" nType="-99"/>
          <Node pos="r" depth="2" NCoef="0" IVar="-1" Cut="0.0000000000000000e+00" cType="1" res="1.6758473066147417e-05" rms="3.8892239332199097e-01" purity="8.0005902051925659e-01" nType="-99"/>
        </Node>
      </Node>
    </BinaryTree>
    <BinaryTree type="DecisionTree" boostWeight="1.0000000000000000e+00" itree="767">
      <Node pos="s" depth="0" NCoef="0" IVar="4" Cut="4.2906375122070312e+02" cType="1" res="2.9749827459454536e-02" rms="4.3376517295837402e-01" purity="5.2759772539138794e-01" nType="0">
        <Node pos="l" depth="1" NCoef="0" IVar="5" Cut="8.8464073181152344e+01" cType="1" res="-9.1206915676593781e-03" rms="4.3717789649963379e-01" purity="3.9970710873603821e-01" nType="0">
          <Node pos="l" depth="2" NCoef="0" IVar="-1" Cut="0.0000000000000000e+00" cType="1" res="1.0004389332607388e-03" rms="4.3998584151268005e-01" purity="4.1346201300621033e-01" nType="-99"/>
          <Node pos="r" depth="2" NCoef="0" IVar="-1" Cut="0.0000000000000000e+00" cType="1" res="-1.1244025081396103e-03" rms="4.2779758572578430e-01" purity="3.8812482357025146e-01" nType="-99"/>
        </Node>
        <Node pos="r" depth="1" NCoef="0" IVar="1" Cut="5.2355396747589111e-01" cType="1" res="5.9453677386045456e-02" rms="4.2877027392387390e-01" purity="6.2532830238342285e-01" nType="0">
          <Node pos="l" depth="2" NCoef="0" IVar="-1" Cut="0.0000000000000000e+00" cType="1" res="-2.2382220777217299e-04" rms="4.3687829375267029e-01" purity="6.1920303106307983e-01" nType="-99"/>
          <Node pos="r" depth="2" NCoef="0" IVar="-1" Cut="0.0000000000000000e+00" cType="1" res="1.2879552086815238e-03" rms="4.2492598295211792e-01" purity="6.2682384252548218e-01" nType="-99"/>
        </Node>
      </Node>
    </BinaryTree>
    <BinaryTree type="DecisionTree" boostWeight="1.0000000000000000e+00" itree="768">
      <Node pos="s" depth="0" NCoef="0" IVar="5" Cut="1.0853381347656250e+02" cType="1" res="1.5167220495641232e-02" rms="4.4520643353462219e-01" purity="5.1665270328521729e-01" nType="0">
        <Node pos="l" depth="1" NCoef="0" IVar="0" Cut="2.9311660766601562e+02" cType="1" res="5.0619728863239288e-02" rms="4.5069992542266846e-01" purity="4.7831106185913086e-01" nType="0">
          <Node pos="l" depth="2" NCoef="0" IVar="-1" Cut="0.0000000000000000e+00" cType="1" res="5.9798586880788207e-04" rms="4.5363795757293701e-01" purity="4.4166409969329834e-01" nType="-99"/>
          <Node pos="r" depth="2" NCoef="0" IVar="-1" Cut="0.0000000000000000e+00" cType="1" res="2.7121237944811583e-03" rms="4.1409584879875183e-01" purity="7.1186929941177368e-01" nType="-99"/>
        </Node>
        <Node pos="r" depth="1" NCoef="0" IVar="3" Cut="1.7511514282226562e+02" cType="1" res="-7.7669508755207062e-03" rms="4.4009760022163391e-01" purity="5.4145580530166626e-01" nType="0">
          <Node pos="l" depth="2" NCoef="0" IVar="-1" Cut="0.0000000000000000e+00" cType="1" res="-1.3627916341647506e-03" rms="4.5265591144561768e-01" purity="3.7672773003578186e-01" nType="-99"/>
          <Node pos="r" depth="2" NCoef="0" IVar="-1" Cut="0.0000000000000000e+00" cType="1" res="1.6270494961645454e-04" rms="4.3535995483398438e-01" purity="5.7952970266342163e-01" nType="-99"/>
        </Node>
      </Node>
    </BinaryTree>
    <BinaryTree type="DecisionTree" boostWeight="1.0000000000000000e+00" itree="769">
      <Node pos="s" depth="0" NCoef="0" IVar="0" Cut="3.0999893188476562e+02" cType="1" res="9.4647929072380066e-03" rms="4.3511858582496643e-01" purity="5.0349825620651245e-01" nType="0">
        <Node pos="l" depth="1" NCoef="0" IVar="5" Cut="1.2083251953125000e+02" cType="1" res="-3.0202407389879227e-02" rms="4.2323163151741028e-01" purity="3.8937652111053467e-01" nType="0">
          <Node pos="l" depth="2" NCoef="0" IVar="-1" Cut="0.0000000000000000e+00" cType="1" res="-1.7763073265086859e-04" rms="4.2584529519081116e-01" purity="4.0634021162986755e-01" nType="-99"/>
          <Node pos="r" depth="2" NCoef="0" IVar="-1" Cut="0.0000000000000000e+00" cType="1" res="-2.8478095773607492e-03" rms="3.8250282406806946e-01" purity="2.8272184729576111e-01" nType="-99"/>
        </Node>
        <Node pos="r" depth="1" NCoef="0" IVar="5" Cut="2.2436018371582031e+02" cType="1" res="4.5343231409788132e-02" rms="4.4254535436630249e-01" purity="6.0671979188919067e-01" nType="0">
          <Node pos="l" depth="2" NCoef="0" IVar="-1" Cut="0.0000000000000000e+00" cType="1" res="1.2743612751364708e-03" rms="4.3381863832473755e-01" purity="6.2678420543670654e-01" nType="-99"/>
          <Node pos="r" depth="2" NCoef="0" IVar="-1" Cut="0.0000000000000000e+00" cType="1" res="-1.0235653026029468e-03" rms="4.5806056261062622e-01" purity="5.3193706274032593e-01" nType="-99"/>
        </Node>
      </Node>
    </BinaryTree>
    <BinaryTree type="DecisionTree" boostWeight="1.0000000000000000e+00" itree="770">
      <Node pos="s" depth="0" NCoef="0" IVar="5" Cut="2.2421179199218750e+02" cType="1" res="2.2233361378312111e-02" rms="4.4244092702865601e-01" purity="5.1969492435455322e-01" nType="0">
        <Node pos="l" depth="1" NCoef="0" IVar="0" Cut="2.0417814636230469e+02" cType="1" res="3.4805133938789368e-02" rms="4.3667426705360413e-01" purity="5.2124351263046265e-01" nType="0">
          <Node pos="l" depth="2" NCoef="0" IVar="-1" Cut="0.0000000000000000e+00" cType="1" res="-1.3519750209525228e-03" rms="3.8576138019561768e-01" purity="2.6403465867042542e-01" nType="-99"/>
          <Node pos="r" depth="2" NCoef="0" IVar="-1" Cut="0.0000000000000000e+00" cType="1" res="7.1698037208989263e-04" rms="4.3890565633773804e-01" purity="5.3757327795028687e-01" nType="-99"/>
        </Node>
        <Node pos="r" depth="1" NCoef="0" IVar="6" Cut="6.0930842161178589e-01" cType="1" res="-8.0191127955913544e-02" rms="4.7463470697402954e-01" purity="5.0707793235778809e-01" nType="0">
          <Node pos="l" depth="2" NCoef="0" IVar="-1" Cut="0.0000000000000000e+00" cType="1" res="4.9813959049060941e-04" rms="4.2603853344917297e-01" purity="6.5255182981491089e-01" nType="-99"/>
          <Node pos="r" depth="2" NCoef="0" IVar="-1" Cut="0.0000000000000000e+00" cType="1" res="-3.5602869465947151e-03" rms="4.9627810716629028e-01" purity="3.4044632315635681e-01" nType="-99"/>
        </Node>
      </Node>
    </BinaryTree>
    <BinaryTree type="DecisionTree" boostWeight="1.0000000000000000e+00" itree="771">
      <Node pos="s" depth="0" NCoef="0" IVar="5" Cut="8.5368957519531250e+01" cType="1" res="-1.1243943125009537e-02" rms="4.4334474205970764e-01" purity="4.7885066270828247e-01" nType="0">
        <Node pos="l" depth="1" NCoef="0" IVar="5" Cut="7.4519065856933594e+01" cType="1" res="5.6805279105901718e-02" rms="4.3892708420753479e-01" purity="4.4201278686523438e-01" nType="0">
          <Node pos="l" depth="2" NCoef="0" IVar="-1" Cut="0.0000000000000000e+00" cType="1" res="-1.4261766409617849e-05" rms="4.4568368792533875e-01" purity="3.5218316316604614e-01" nType="-99"/>
          <Node pos="r" depth="2" NCoef="0" IVar="-1" Cut="0.0000000000000000e+00" cType="1" res="2.3717253934592009e-03" rms="4.1515544056892395e-01" purity="5.7164770364761353e-01" nType="-99"/>
        </Node>
        <Node pos="r" depth="1" NCoef="0" IVar="1" Cut="1.6625981330871582e+00" cType="1" res="-2.7265669777989388e-02" rms="4.4286033511161804e-01" purity="4.8752388358116150e-01" nType="0">
          <Node pos="l" depth="2" NCoef="0" IVar="-1" Cut="0.0000000000000000e+00" cType="1" res="-3.5778622259385884e-04" rms="4.5211789011955261e-01" purity="5.1523756980895996e-01" nType="-99"/>
          <Node pos="r" depth="2" NCoef="0" IVar="-1" Cut="0.0000000000000000e+00" cType="1" res="-3.2965347636491060e-03" rms="2.5759664177894592e-01" purity="8.5209324955940247e-02" nType="-99"/>
        </Node>
      </Node>
    </BinaryTree>
    <BinaryTree type="DecisionTree" boostWeight="1.0000000000000000e+00" itree="772">
      <Node pos="s" depth="0" NCoef="0" IVar="3" Cut="1.5347526550292969e+02" cType="1" res="-3.1878685113042593e-03" rms="4.3877419829368591e-01" purity="4.9802011251449585e-01" nType="0">
        <Node pos="l" depth="1" NCoef="0" IVar="2" Cut="9.5855855941772461e-01" cType="1" res="-8.2589149475097656e-02" rms="4.5989018678665161e-01" purity="3.6753818392753601e-01" nType="0">
          <Node pos="l" depth="2" NCoef="0" IVar="-1" Cut="0.0000000000000000e+00" cType="1" res="-3.2108620507642627e-04" rms="4.3587774038314819e-01" purity="3.0117833614349365e-01" nType="-99"/>
          <Node pos="r" depth="2" NCoef="0" IVar="-1" Cut="0.0000000000000000e+00" cType="1" res="-3.2229591161012650e-03" rms="4.7730499505996704e-01" purity="4.6839720010757446e-01" nType="-99"/>
        </Node>
        <Node pos="r" depth="1" NCoef="0" IVar="1" Cut="4.1942140460014343e-01" cType="1" res="1.0558787733316422e-02" rms="4.3354007601737976e-01" purity="5.2061033248901367e-01" nType="0">
          <Node pos="l" depth="2" NCoef="0" IVar="-1" Cut="0.0000000000000000e+00" cType="1" res="-1.5546230133622885e-03" rms="4.3760791420936584e-01" purity="4.8914462327957153e-01" nType="-99"/>
          <Node pos="r" depth="2" NCoef="0" IVar="-1" Cut="0.0000000000000000e+00" cType="1" res="3.2811550772748888e-04" rms="4.3221330642700195e-01" purity="5.2303743362426758e-01" nType="-99"/>
        </Node>
      </Node>
    </BinaryTree>
    <BinaryTree type="DecisionTree" boostWeight="1.0000000000000000e+00" itree="773">
      <Node pos="s" depth="0" NCoef="0" IVar="4" Cut="8.1842510986328125e+02" cType="1" res="-1.9952952861785889e-03" rms="4.2461320757865906e-01" purity="5.0355595350265503e-01" nType="0">
        <Node pos="l" depth="1" NCoef="0" IVar="4" Cut="3.3677273559570312e+02" cType="1" res="-8.9141307398676872e-03" rms="4.2576426267623901e-01" purity="4.8950713872909546e-01" nType="0">
          <Node pos="l" depth="2" NCoef="0" IVar="-1" Cut="0.0000000000000000e+00" cType="1" res="-1.8377755768597126e-03" rms="3.9234560728073120e-01" purity="2.4571663141250610e-01" nType="-99"/>
          <Node pos="r" depth="2" NCoef="0" IVar="-1" Cut="0.0000000000000000e+00" cType="1" res="6.5352163801435381e-05" rms="4.2931154370307922e-01" purity="5.2715343236923218e-01" nType="-99"/>
        </Node>
        <Node pos="r" depth="1" NCoef="0" IVar="-1" Cut="0.0000000000000000e+00" cType="1" res="1.8523375038057566e-03" rms="3.9077648520469666e-01" purity="7.2229242324829102e-01" nType="-99"/>
      </Node>
    </BinaryTree>
    <BinaryTree type="DecisionTree" boostWeight="1.0000000000000000e+00" itree="774">
      <Node pos="s" depth="0" NCoef="0" IVar="4" Cut="3.8528991699218750e+02" cType="1" res="-1.3528654817491770e-03" rms="4.3611711263656616e-01" purity="5.0036674737930298e-01" nType="0">
        <Node pos="l" depth="1" NCoef="0" IVar="5" Cut="9.0252311706542969e+01" cType="1" res="-6.3240334391593933e-02" rms="4.1530200839042664e-01" purity="3.1909903883934021e-01" nType="0">
          <Node pos="l" depth="2" NCoef="0" IVar="-1" Cut="0.0000000000000000e+00" cType="1" res="-2.3506880097556859e-05" rms="4.2040947079658508e-01" purity="3.7422904372215271e-01" nType="-99"/>
          <Node pos="r" depth="2" NCoef="0" IVar="-1" Cut="0.0000000000000000e+00" cType="1" res="-3.4090194385498762e-03" rms="3.7987759709358215e-01" purity="2.1707835793495178e-01" nType="-99"/>
        </Node>
        <Node pos="r" depth="1" NCoef="0" IVar="5" Cut="1.7255004882812500e+02" cType="1" res="2.1875109523534775e-02" rms="4.4144394993782043e-01" purity="5.6840121746063232e-01" nType="0">
          <Node pos="l" depth="2" NCoef="0" IVar="-1" Cut="0.0000000000000000e+00" cType="1" res="8.0820912262424827e-04" rms="4.4236946105957031e-01" purity="5.7998389005661011e-01" nType="-99"/>
          <Node pos="r" depth="2" NCoef="0" IVar="-1" Cut="0.0000000000000000e+00" cType="1" res="-5.7409872533753514e-04" rms="4.3429666757583618e-01" purity="5.4331403970718384e-01" nType="-99"/>
        </Node>
      </Node>
    </BinaryTree>
    <BinaryTree type="DecisionTree" boostWeight="1.0000000000000000e+00" itree="775">
      <Node pos="s" depth="0" NCoef="0" IVar="1" Cut="4.2953014373779297e-01" cType="1" res="-2.4525245651602745e-02" rms="4.2403361201286316e-01" purity="4.8158392310142517e-01" nType="0">
        <Node pos="l" depth="1" NCoef="0" IVar="-1" Cut="0.0000000000000000e+00" cType="1" res="1.6041765920817852e-03" rms="3.6332729458808899e-01" purity="7.2257280349731445e-01" nType="-99"/>
        <Node pos="r" depth="1" NCoef="0" IVar="2" Cut="9.5855855941772461e-01" cType="1" res="-3.4493200480937958e-02" rms="4.2740720510482788e-01" purity="4.6079376339912415e-01" nType="0">
          <Node pos="l" depth="2" NCoef="0" IVar="-1" Cut="0.0000000000000000e+00" cType="1" res="-1.0422532213851810e-03" rms="4.2470580339431763e-01" purity="3.2690206170082092e-01" nType="-99"/>
          <Node pos="r" depth="2" NCoef="0" IVar="-1" Cut="0.0000000000000000e+00" cType="1" res="2.2083533986005932e-04" rms="4.2868408560752869e-01" purity="7.1637570858001709e-01" nType="-99"/>
        </Node>
      </Node>
    </BinaryTree>
    <BinaryTree type="DecisionTree" boostWeight="1.0000000000000000e+00" itree="776">
      <Node pos="s" depth="0" NCoef="0" IVar="6" Cut="3.8283085823059082e-01" cType="1" res="-1.9118847325444221e-02" rms="4.2847967147827148e-01" purity="4.7177508473396301e-01" nType="0">
        <Node pos="l" depth="1" NCoef="0" IVar="6" Cut="3.2551068067550659e-01" cType="1" res="-9.7723409533500671e-02" rms="4.5708200335502625e-01" purity="4.6371972560882568e-01" nType="0">
          <Node pos="l" depth="2" NCoef="0" IVar="-1" Cut="0.0000000000000000e+00" cType="1" res="-1.1613349197432399e-03" rms="4.5456355810165405e-01" purity="4.9053004384040833e-01" nType="-99"/>
          <Node pos="r" depth="2" NCoef="0" IVar="-1" Cut="0.0000000000000000e+00" cType="1" res="-2.7374590281397104e-03" rms="4.5610097050666809e-01" purity="4.1967537999153137e-01" nType="-99"/>
        </Node>
        <Node pos="r" depth="1" NCoef="0" IVar="0" Cut="2.8523834228515625e+02" cType="1" res="-4.2084110900759697e-03" rms="4.2118385434150696e-01" purity="4.7330302000045776e-01" nType="0">
          <Node pos="l" depth="2" NCoef="0" IVar="-1" Cut="0.0000000000000000e+00" cType="1" res="-1.0080341016873717e-03" rms="4.0579289197921753e-01" purity="3.3601856231689453e-01" nType="-99"/>
          <Node pos="r" depth="2" NCoef="0" IVar="-1" Cut="0.0000000000000000e+00" cType="1" res="5.2300217794254422e-04" rms="4.2829430103302002e-01" purity="5.6967747211456299e-01" nType="-99"/>
        </Node>
      </Node>
    </BinaryTree>
    <BinaryTree type="DecisionTree" boostWeight="1.0000000000000000e+00" itree="777">
      <Node pos="s" depth="0" NCoef="0" IVar="1" Cut="6.4541393518447876e-01" cType="1" res="5.5603184737265110e-03" rms="4.3641564249992371e-01" purity="5.0573396682739258e-01" nType="0">
        <Node pos="l" depth="1" NCoef="0" IVar="2" Cut="9.3588036298751831e-01" cType="1" res="7.2710797190666199e-02" rms="4.2523294687271118e-01" purity="6.6154307126998901e-01" nType="0">
          <Node pos="l" depth="2" NCoef="0" IVar="-1" Cut="0.0000000000000000e+00" cType="1" res="2.4104283656924963e-03" rms="4.5318627357482910e-01" purity="5.1959770917892456e-01" nType="-99"/>
          <Node pos="r" depth="2" NCoef="0" IVar="-1" Cut="0.0000000000000000e+00" cType="1" res="6.6922552650794387e-04" rms="4.0664356946945190e-01" purity="7.2866183519363403e-01" nType="-99"/>
        </Node>
        <Node pos="r" depth="1" NCoef="0" IVar="4" Cut="6.2435778808593750e+02" cType="1" res="-1.6196029260754585e-02" rms="4.3777415156364441e-01" purity="4.5525276660919189e-01" nType="0">
          <Node pos="l" depth="2" NCoef="0" IVar="-1" Cut="0.0000000000000000e+00" cType="1" res="-5.5256421910598874e-04" rms="4.2932167649269104e-01" purity="4.2394438385963440e-01" nType="-99"/>
          <Node pos="r" depth="2" NCoef="0" IVar="-1" Cut="0.0000000000000000e+00" cType="1" res="9.3404261860996485e-04" rms="4.7247672080993652e-01" purity="6.1799603700637817e-01" nType="-99"/>
        </Node>
      </Node>
    </BinaryTree>
    <BinaryTree type="DecisionTree" boostWeight="1.0000000000000000e+00" itree="778">
      <Node pos="s" depth="0" NCoef="0" IVar="5" Cut="1.0503750610351562e+02" cType="1" res="2.8706355020403862e-02" rms="4.4244027137756348e-01" purity="5.1900976896286011e-01" nType="0">
        <Node pos="l" depth="1" NCoef="0" IVar="4" Cut="4.2185488891601562e+02" cType="1" res="7.2901502251625061e-02" rms="4.2939341068267822e-01" purity="4.9760043621063232e-01" nType="0">
          <Node pos="l" depth="2" NCoef="0" IVar="-1" Cut="0.0000000000000000e+00" cType="1" res="7.2351802373304963e-04" rms="4.2478671669960022e-01" purity="4.3875971436500549e-01" nType="-99"/>
          <Node pos="r" depth="2" NCoef="0" IVar="-1" Cut="0.0000000000000000e+00" cType="1" res="3.7298647221177816e-03" rms="4.1584083437919617e-01" purity="7.8175324201583862e-01" nType="-99"/>
        </Node>
        <Node pos="r" depth="1" NCoef="0" IVar="3" Cut="1.8079504394531250e+02" cType="1" res="3.3991544041782618e-03" rms="4.4778108596801758e-01" purity="5.3126925230026245e-01" nType="0">
          <Node pos="l" depth="2" NCoef="0" IVar="-1" Cut="0.0000000000000000e+00" cType="1" res="-1.2163862120360136e-03" rms="4.7224134206771851e-01" purity="3.7015703320503235e-01" nType="-99"/>
          <Node pos="r" depth="2" NCoef="0" IVar="-1" Cut="0.0000000000000000e+00" cType="1" res="4.5211493852548301e-04" rms="4.3768405914306641e-01" purity="5.7966399192810059e-01" nType="-99"/>
        </Node>
      </Node>
    </BinaryTree>
    <BinaryTree type="DecisionTree" boostWeight="1.0000000000000000e+00" itree="779">
      <Node pos="s" depth="0" NCoef="0" IVar="6" Cut="4.9144425988197327e-01" cType="1" res="9.1738328337669373e-03" rms="4.2935469746589661e-01" purity="5.1045376062393188e-01" nType="0">
        <Node pos="l" depth="1" NCoef="0" IVar="1" Cut="4.7816661000251770e-01" cType="1" res="7.3899731040000916e-02" rms="4.2396461963653564e-01" purity="6.3021641969680786e-01" nType="0">
          <Node pos="l" depth="2" NCoef="0" IVar="-1" Cut="0.0000000000000000e+00" cType="1" res="-1.1932080815313384e-04" rms="4.1480991244316101e-01" purity="5.7727694511413574e-01" nType="-99"/>
          <Node pos="r" depth="2" NCoef="0" IVar="-1" Cut="0.0000000000000000e+00" cType="1" res="1.9163880497217178e-03" rms="4.2313700914382935e-01" purity="6.5326654911041260e-01" nType="-99"/>
        </Node>
        <Node pos="r" depth="1" NCoef="0" IVar="6" Cut="7.9659080505371094e-01" cType="1" res="-1.9924985244870186e-02" rms="4.2858260869979858e-01" purity="4.5661199092864990e-01" nType="0">
          <Node pos="l" depth="2" NCoef="0" IVar="-1" Cut="0.0000000000000000e+00" cType="1" res="-9.8327710293233395e-04" rms="4.1617238521575928e-01" purity="4.5734253525733948e-01" nType="-99"/>
          <Node pos="r" depth="2" NCoef="0" IVar="-1" Cut="0.0000000000000000e+00" cType="1" res="4.1049977880902588e-04" rms="4.3864893913269043e-01" purity="4.5577061176300049e-01" nType="-99"/>
        </Node>
      </Node>
    </BinaryTree>
    <BinaryTree type="DecisionTree" boostWeight="1.0000000000000000e+00" itree="780">
      <Node pos="s" depth="0" NCoef="0" IVar="3" Cut="2.1428259277343750e+02" cType="1" res="2.0194713026285172e-02" rms="4.3774095177650452e-01" purity="5.1303380727767944e-01" nType="0">
        <Node pos="l" depth="1" NCoef="0" IVar="0" Cut="3.9909280395507812e+02" cType="1" res="-2.5816301349550486e-03" rms="4.4076550006866455e-01" purity="4.6241226792335510e-01" nType="0">
          <Node pos="l" depth="2" NCoef="0" IVar="-1" Cut="0.0000000000000000e+00" cType="1" res="4.0238504880107939e-04" rms="4.3713963031768799e-01" purity="4.8172056674957275e-01" nType="-99"/>
          <Node pos="r" depth="2" NCoef="0" IVar="-1" Cut="0.0000000000000000e+00" cType="1" res="-2.8423091862350702e-03" rms="4.2701971530914307e-01" purity="3.3634537458419800e-01" nType="-99"/>
        </Node>
        <Node pos="r" depth="1" NCoef="0" IVar="1" Cut="1.0040848255157471e+00" cType="1" res="4.7355566173791885e-02" rms="4.3254157900810242e-01" purity="5.7339996099472046e-01" nType="0">
          <Node pos="l" depth="2" NCoef="0" IVar="-1" Cut="0.0000000000000000e+00" cType="1" res="2.0039202645421028e-03" rms="4.0056493878364563e-01" purity="7.9451584815979004e-01" nType="-99"/>
          <Node pos="r" depth="2" NCoef="0" IVar="-1" Cut="0.0000000000000000e+00" cType="1" res="-1.5060216537676752e-04" rms="4.4919973611831665e-01" purity="3.9422032237052917e-01" nType="-99"/>
        </Node>
      </Node>
    </BinaryTree>
    <BinaryTree type="DecisionTree" boostWeight="1.0000000000000000e+00" itree="781">
      <Node pos="s" depth="0" NCoef="0" IVar="6" Cut="6.9924378395080566e-01" cType="1" res="-1.3389362022280693e-02" rms="4.4105750322341919e-01" purity="4.9054917693138123e-01" nType="0">
        <Node pos="l" depth="1" NCoef="0" IVar="1" Cut="1.2397840023040771e+00" cType="1" res="-4.1540004312992096e-02" rms="4.2997145652770996e-01" purity="5.0912481546401978e-01" nType="0">
          <Node pos="l" depth="2" NCoef="0" IVar="-1" Cut="0.0000000000000000e+00" cType="1" res="-4.8559473361819983e-04" rms="4.3783316016197205e-01" purity="5.4635417461395264e-01" nType="-99"/>
          <Node pos="r" depth="2" NCoef="0" IVar="-1" Cut="0.0000000000000000e+00" cType="1" res="-3.7999718915671110e-03" rms="3.1225368380546570e-01" purity="1.3997329771518707e-01" nType="-99"/>
        </Node>
        <Node pos="r" depth="1" NCoef="0" IVar="5" Cut="1.0356729125976562e+02" cType="1" res="2.3415546864271164e-02" rms="4.5251068472862244e-01" purity="4.6626287698745728e-01" nType="0">
          <Node pos="l" depth="2" NCoef="0" IVar="-1" Cut="0.0000000000000000e+00" cType="1" res="1.2654513120651245e-03" rms="4.3803218007087708e-01" purity="4.5523744821548462e-01" nType="-99"/>
          <Node pos="r" depth="2" NCoef="0" IVar="-1" Cut="0.0000000000000000e+00" cType="1" res="-2.1305363043211401e-04" rms="4.6030220389366150e-01" purity="4.7482025623321533e-01" nType="-99"/>
        </Node>
      </Node>
    </BinaryTree>
    <BinaryTree type="DecisionTree" boostWeight="1.0000000000000000e+00" itree="782">
      <Node pos="s" depth="0" NCoef="0" IVar="2" Cut="9.5404827594757080e-01" cType="1" res="-1.7902156338095665e-02" rms="4.3570822477340698e-01" purity="4.7028377652168274e-01" nType="0">
        <Node pos="l" depth="1" NCoef="0" IVar="6" Cut="3.8640552759170532e-01" cType="1" res="-4.1490104049444199e-02" rms="4.3757292628288269e-01" purity="3.2171967625617981e-01" nType="0">
          <Node pos="l" depth="2" NCoef="0" IVar="-1" Cut="0.0000000000000000e+00" cType="1" res="6.8308669142425060e-04" rms="4.6997597813606262e-01" purity="4.4417825341224670e-01" nType="-99"/>
          <Node pos="r" depth="2" NCoef="0" IVar="-1" Cut="0.0000000000000000e+00" cType="1" res="-1.1224348563700914e-03" rms="4.2685851454734802e-01" purity="2.9196065664291382e-01" nType="-99"/>
        </Node>
        <Node pos="r" depth="1" NCoef="0" IVar="5" Cut="8.6468025207519531e+01" cType="1" res="1.7697891220450401e-02" rms="4.3043801188468933e-01" purity="6.9450372457504272e-01" nType="0">
          <Node pos="l" depth="2" NCoef="0" IVar="-1" Cut="0.0000000000000000e+00" cType="1" res="2.1632176358252764e-03" rms="3.8634824752807617e-01" purity="7.5843161344528198e-01" nType="-99"/>
          <Node pos="r" depth="2" NCoef="0" IVar="-1" Cut="0.0000000000000000e+00" cType="1" res="-1.4524020662065595e-04" rms="4.3447378277778625e-01" purity="6.8147659301757812e-01" nType="-99"/>
        </Node>
      </Node>
    </BinaryTree>
    <BinaryTree type="DecisionTree" boostWeight="1.0000000000000000e+00" itree="783">
      <Node pos="s" depth="0" NCoef="0" IVar="2" Cut="9.3050456047058105e-01" cType="1" res="-1.4542184770107269e-02" rms="4.2637395858764648e-01" purity="4.8365622758865356e-01" nType="0">
        <Node pos="l" depth="1" NCoef="0" IVar="4" Cut="4.7185409545898438e+02" cType="1" res="-7.3093079030513763e-02" rms="3.6649847030639648e-01" purity="2.0309646427631378e-01" nType="0">
          <Node pos="l" depth="2" NCoef="0" IVar="-1" Cut="0.0000000000000000e+00" cType="1" res="-2.6280733291059732e-03" rms="3.0016222596168518e-01" purity="1.1350511014461517e-01" nType="-99"/>
          <Node pos="r" depth="2" NCoef="0" IVar="-1" Cut="0.0000000000000000e+00" cType="1" res="-5.2599123591789976e-05" rms="4.5116060972213745e-01" purity="3.5897195339202881e-01" nType="-99"/>
        </Node>
        <Node pos="r" depth="1" NCoef="0" IVar="3" Cut="3.1944113159179688e+02" cType="1" res="4.4613941572606564e-03" rms="4.4241297245025635e-01" purity="5.7471615076065063e-01" nType="0">
          <Node pos="l" depth="2" NCoef="0" IVar="-1" Cut="0.0000000000000000e+00" cType="1" res="2.7079833671450615e-04" rms="4.4668364524841309e-01" purity="5.9900516271591187e-01" nType="-99"/>
          <Node pos="r" depth="2" NCoef="0" IVar="-1" Cut="0.0000000000000000e+00" cType="1" res="-1.2039584107697010e-03" rms="4.1049325466156006e-01" purity="4.3414905667304993e-01" nType="-99"/>
        </Node>
      </Node>
    </BinaryTree>
    <BinaryTree type="DecisionTree" boostWeight="1.0000000000000000e+00" itree="784">
      <Node pos="s" depth="0" NCoef="0" IVar="4" Cut="4.8518270874023438e+02" cType="1" res="-4.8723402433097363e-03" rms="4.3009832501411438e-01" purity="4.9152517318725586e-01" nType="0">
        <Node pos="l" depth="1" NCoef="0" IVar="2" Cut="9.2904514074325562e-01" cType="1" res="-3.5840127617120743e-02" rms="4.2297095060348511e-01" purity="4.1444262862205505e-01" nType="0">
          <Node pos="l" depth="2" NCoef="0" IVar="-1" Cut="0.0000000000000000e+00" cType="1" res="-3.0956962145864964e-03" rms="2.6974219083786011e-01" purity="8.7052121758460999e-02" nType="-99"/>
          <Node pos="r" depth="2" NCoef="0" IVar="-1" Cut="0.0000000000000000e+00" cType="1" res="-1.0015866428148001e-04" rms="4.5715036988258362e-01" purity="5.1865106821060181e-01" nType="-99"/>
        </Node>
        <Node pos="r" depth="1" NCoef="0" IVar="3" Cut="3.5542324829101562e+02" cType="1" res="4.0520239621400833e-02" rms="4.3638360500335693e-01" purity="6.0451281070709229e-01" nType="0">
          <Node pos="l" depth="2" NCoef="0" IVar="-1" Cut="0.0000000000000000e+00" cType="1" res="1.1305707739666104e-03" rms="4.3478277325630188e-01" purity="6.5493017435073853e-01" nType="-99"/>
          <Node pos="r" depth="2" NCoef="0" IVar="-1" Cut="0.0000000000000000e+00" cType="1" res="-9.1911910567432642e-04" rms="4.2907923460006714e-01" purity="4.2836323380470276e-01" nType="-99"/>
        </Node>
      </Node>
    </BinaryTree>
    <BinaryTree type="DecisionTree" boostWeight="1.0000000000000000e+00" itree="785">
      <Node pos="s" depth="0" NCoef="0" IVar="2" Cut="9.3581044673919678e-01" cType="1" res="1.1130073107779026e-02" rms="4.3103998899459839e-01" purity="5.1379019021987915e-01" nType="0">
        <Node pos="l" depth="1" NCoef="0" IVar="6" Cut="8.5637408494949341e-01" cType="1" res="-3.6125916987657547e-02" rms="4.0806913375854492e-01" purity="2.5989660620689392e-01" nType="0">
          <Node pos="l" depth="2" NCoef="0" IVar="-1" Cut="0.0000000000000000e+00" cType="1" res="-1.1791696306318045e-03" rms="3.9791595935821533e-01" purity="2.5502976775169373e-01" nType="-99"/>
          <Node pos="r" depth="2" NCoef="0" IVar="-1" Cut="0.0000000000000000e+00" cType="1" res="6.9304514909163117e-04" rms="4.2663922905921936e-01" purity="2.7286133170127869e-01" nType="-99"/>
        </Node>
        <Node pos="r" depth="1" NCoef="0" IVar="6" Cut="8.6420226097106934e-01" cType="1" res="3.2589890062808990e-02" rms="4.3940189480781555e-01" purity="6.2908804416656494e-01" nType="0">
          <Node pos="l" depth="2" NCoef="0" IVar="-1" Cut="0.0000000000000000e+00" cType="1" res="8.5379881784319878e-04" rms="4.3199107050895691e-01" purity="6.7358022928237915e-01" nType="-99"/>
          <Node pos="r" depth="2" NCoef="0" IVar="-1" Cut="0.0000000000000000e+00" cType="1" res="-4.9063097685575485e-04" rms="4.5944610238075256e-01" purity="4.7266608476638794e-01" nType="-99"/>
        </Node>
      </Node>
    </BinaryTree>
    <BinaryTree type="DecisionTree" boostWeight="1.0000000000000000e+00" itree="786">
      <Node pos="s" depth="0" NCoef="0" IVar="2" Cut="9.7533100843429565e-01" cType="1" res="8.3563234657049179e-03" rms="4.3039396405220032e-01" purity="5.0847011804580688e-01" nType="0">
        <Node pos="l" depth="1" NCoef="0" IVar="2" Cut="9.6622562408447266e-01" cType="1" res="-5.0731762312352657e-03" rms="4.4178453087806702e-01" purity="4.5830208063125610e-01" nType="0">
          <Node pos="l" depth="2" NCoef="0" IVar="-1" Cut="0.0000000000000000e+00" cType="1" res="1.3468535325955600e-04" rms="4.3712636828422546e-01" purity="4.3052545189857483e-01" nType="-99"/>
          <Node pos="r" depth="2" NCoef="0" IVar="-1" Cut="0.0000000000000000e+00" cType="1" res="-1.4587164623662829e-03" rms="4.6117541193962097e-01" purity="6.2307375669479370e-01" nType="-99"/>
        </Node>
        <Node pos="r" depth="1" NCoef="0" IVar="3" Cut="2.1283752441406250e+02" cType="1" res="1.0634478181600571e-01" rms="3.1911331415176392e-01" purity="8.7452155351638794e-01" nType="0">
          <Node pos="l" depth="2" NCoef="0" IVar="-1" Cut="0.0000000000000000e+00" cType="1" res="2.7277660556137562e-03" rms="2.7171060442924500e-01" purity="9.0703928470611572e-01" nType="-99"/>
          <Node pos="r" depth="2" NCoef="0" IVar="-1" Cut="0.0000000000000000e+00" cType="1" res="1.4959491090849042e-03" rms="3.5600876808166504e-01" purity="8.4238582849502563e-01" nType="-99"/>
        </Node>
      </Node>
    </BinaryTree>
    <BinaryTree type="DecisionTree" boostWeight="1.0000000000000000e+00" itree="787">
      <Node pos="s" depth="0" NCoef="0" IVar="3" Cut="3.1848526000976562e+02" cType="1" res="-2.1458664909005165e-02" rms="4.3629267811775208e-01" purity="4.7287660837173462e-01" nType="0">
        <Node pos="l" depth="1" NCoef="0" IVar="4" Cut="4.3769564819335938e+02" cType="1" res="-4.3760612607002258e-03" rms="4.4216129183769226e-01" purity="4.9986460804939270e-01" nType="0">
          <Node pos="l" depth="2" NCoef="0" IVar="-1" Cut="0.0000000000000000e+00" cType="1" res="-9.7722583450376987e-04" rms="4.3799912929534912e-01" purity="3.7331074476242065e-01" nType="-99"/>
          <Node pos="r" depth="2" NCoef="0" IVar="-1" Cut="0.0000000000000000e+00" cType="1" res="8.0098520265892148e-04" rms="4.4065472483634949e-01" purity="6.3065826892852783e-01" nType="-99"/>
        </Node>
        <Node pos="r" depth="1" NCoef="0" IVar="6" Cut="7.5421869754791260e-01" cType="1" res="-1.1132560670375824e-01" rms="3.9194300770759583e-01" purity="3.3089983463287354e-01" nType="0">
          <Node pos="l" depth="2" NCoef="0" IVar="-1" Cut="0.0000000000000000e+00" cType="1" res="-3.0583996704081073e-05" rms="4.4396585226058960e-01" purity="5.3192943334579468e-01" nType="-99"/>
          <Node pos="r" depth="2" NCoef="0" IVar="-1" Cut="0.0000000000000000e+00" cType="1" res="-4.3140705674886703e-03" rms="3.0884361267089844e-01" purity="1.5377144515514374e-01" nType="-99"/>
        </Node>
      </Node>
    </BinaryTree>
    <BinaryTree type="DecisionTree" boostWeight="1.0000000000000000e+00" itree="788">
      <Node pos="s" depth="0" NCoef="0" IVar="2" Cut="9.8049366474151611e-01" cType="1" res="9.0229595080018044e-03" rms="4.3424338102340698e-01" purity="5.0297093391418457e-01" nType="0">
        <Node pos="l" depth="1" NCoef="0" IVar="5" Cut="2.7631118774414062e+02" cType="1" res="-1.5539770247414708e-03" rms="4.4463920593261719e-01" purity="4.6475595235824585e-01" nType="0">
          <Node pos="l" depth="2" NCoef="0" IVar="-1" Cut="0.0000000000000000e+00" cType="1" res="1.1124533921247348e-04" rms="4.4123533368110657e-01" purity="4.6706873178482056e-01" nType="-99"/>
          <Node pos="r" depth="2" NCoef="0" IVar="-1" Cut="0.0000000000000000e+00" cType="1" res="-2.4297898635268211e-03" rms="4.7919616103172302e-01" purity="4.2484045028686523e-01" nType="-99"/>
        </Node>
        <Node pos="r" depth="1" NCoef="0" IVar="-1" Cut="0.0000000000000000e+00" cType="1" res="2.5607950519770384e-03" rms="2.7766159176826477e-01" purity="9.1089791059494019e-01" nType="-99"/>
      </Node>
    </BinaryTree>
    <BinaryTree type="DecisionTree" boostWeight="1.0000000000000000e+00" itree="789">
      <Node pos="s" depth="0" NCoef="0" IVar="3" Cut="1.3184167480468750e+02" cType="1" res="-1.1290001682937145e-02" rms="4.3908685445785522e-01" purity="4.7730606794357300e-01" nType="0">
        <Node pos="l" depth="1" NCoef="0" IVar="-1" Cut="0.0000000000000000e+00" cType="1" res="-2.7869509067386389e-03" rms="3.9855363965034485e-01" purity="2.5675392150878906e-01" nType="-99"/>
        <Node pos="r" depth="1" NCoef="0" IVar="3" Cut="4.0576135253906250e+02" cType="1" res="-3.8956507341936231e-04" rms="4.4038927555084229e-01" purity="4.9509048461914062e-01" nType="0">
          <Node pos="l" depth="2" NCoef="0" IVar="-1" Cut="0.0000000000000000e+00" cType="1" res="1.2696547491941601e-04" rms="4.4112637639045715e-01" purity="5.1474899053573608e-01" nType="-99"/>
          <Node pos="r" depth="2" NCoef="0" IVar="-1" Cut="0.0000000000000000e+00" cType="1" res="-1.6622873954474926e-03" rms="4.2426151037216187e-01" purity="2.8846877813339233e-01" nType="-99"/>
        </Node>
      </Node>
    </BinaryTree>
    <BinaryTree type="DecisionTree" boostWeight="1.0000000000000000e+00" itree="790">
      <Node pos="s" depth="0" NCoef="0" IVar="2" Cut="9.4096350669860840e-01" cType="1" res="-1.1230438947677612e-02" rms="4.2792975902557373e-01" purity="4.9633285403251648e-01" nType="0">
        <Node pos="l" depth="1" NCoef="0" IVar="5" Cut="1.9177699279785156e+02" cType="1" res="-5.4834626615047455e-02" rms="4.0376356244087219e-01" purity="2.5010165572166443e-01" nType="0">
          <Node pos="l" depth="2" NCoef="0" IVar="-1" Cut="0.0000000000000000e+00" cType="1" res="-5.7510042097419500e-04" rms="4.0780484676361084e-01" purity="2.5435605645179749e-01" nType="-99"/>
          <Node pos="r" depth="2" NCoef="0" IVar="-1" Cut="0.0000000000000000e+00" cType="1" res="-3.2575640361756086e-03" rms="3.5704490542411804e-01" purity="2.2911889851093292e-01" nType="-99"/>
        </Node>
        <Node pos="r" depth="1" NCoef="0" IVar="3" Cut="1.3768147277832031e+02" cType="1" res="1.4318257570266724e-02" rms="4.3946957588195801e-01" purity="6.4060539007186890e-01" nType="0">
          <Node pos="l" depth="2" NCoef="0" IVar="-1" Cut="0.0000000000000000e+00" cType="1" res="-1.1310013942420483e-03" rms="4.8866635560989380e-01" purity="4.6556669473648071e-01" nType="-99"/>
          <Node pos="r" depth="2" NCoef="0" IVar="-1" Cut="0.0000000000000000e+00" cType="1" res="4.1293184040114284e-04" rms="4.3278685212135315e-01" purity="6.5951210260391235e-01" nType="-99"/>
        </Node>
      </Node>
    </BinaryTree>
    <BinaryTree type="DecisionTree" boostWeight="1.0000000000000000e+00" itree="791">
      <Node pos="s" depth="0" NCoef="0" IVar="0" Cut="6.3947216796875000e+02" cType="1" res="6.7171431146562099e-03" rms="4.4358327984809875e-01" purity="5.0227808952331543e-01" nType="0">
        <Node pos="l" depth="1" NCoef="0" IVar="5" Cut="2.1880284118652344e+02" cType="1" res="-1.8156486330553889e-03" rms="4.4258949160575867e-01" purity="4.8847916722297668e-01" nType="0">
          <Node pos="l" depth="2" NCoef="0" IVar="-1" Cut="0.0000000000000000e+00" cType="1" res="1.2478622375056148e-04" rms="4.4032314419746399e-01" purity="4.8832857608795166e-01" nType="-99"/>
          <Node pos="r" depth="2" NCoef="0" IVar="-1" Cut="0.0000000000000000e+00" cType="1" res="-1.7216868000105023e-03" rms="4.5581740140914917e-01" purity="4.9017253518104553e-01" nType="-99"/>
        </Node>
        <Node pos="r" depth="1" NCoef="0" IVar="-1" Cut="0.0000000000000000e+00" cType="1" res="2.5740654673427343e-03" rms="4.3505999445915222e-01" purity="7.3835009336471558e-01" nType="-99"/>
      </Node>
    </BinaryTree>
    <BinaryTree type="DecisionTree" boostWeight="1.0000000000000000e+00" itree="792">
      <Node pos="s" depth="0" NCoef="0" IVar="2" Cut="9.8100805282592773e-01" cType="1" res="3.1283290591090918e-03" rms="4.3622082471847534e-01" purity="4.9663436412811279e-01" nType="0">
        <Node pos="l" depth="1" NCoef="0" IVar="3" Cut="2.0596708679199219e+02" cType="1" res="-3.4315562807023525e-03" rms="4.4335308670997620e-01" purity="4.6626126766204834e-01" nType="0">
          <Node pos="l" depth="2" NCoef="0" IVar="-1" Cut="0.0000000000000000e+00" cType="1" res="-4.2593409307301044e-04" rms="4.4259333610534668e-01" purity="4.0295216441154480e-01" nType="-99"/>
          <Node pos="r" depth="2" NCoef="0" IVar="-1" Cut="0.0000000000000000e+00" cType="1" res="2.8868886874988675e-04" rms="4.4313141703605652e-01" purity="5.2374976873397827e-01" nType="-99"/>
        </Node>
        <Node pos="r" depth="1" NCoef="0" IVar="-1" Cut="0.0000000000000000e+00" cType="1" res="1.8907078774645925e-03" rms="3.2331529259681702e-01" purity="8.7661451101303101e-01" nType="-99"/>
      </Node>
    </BinaryTree>
    <BinaryTree type="DecisionTree" boostWeight="1.0000000000000000e+00" itree="793">
      <Node pos="s" depth="0" NCoef="0" IVar="1" Cut="7.2542232275009155e-01" cType="1" res="4.7383522614836693e-03" rms="4.4165316224098206e-01" purity="5.0203585624694824e-01" nType="0">
        <Node pos="l" depth="1" NCoef="0" IVar="1" Cut="6.1034893989562988e-01" cType="1" res="5.3504895418882370e-02" rms="4.3592116236686707e-01" purity="6.2671864032745361e-01" nType="0">
          <Node pos="l" depth="2" NCoef="0" IVar="-1" Cut="0.0000000000000000e+00" cType="1" res="4.4755364069715142e-04" rms="4.3388637900352478e-01" purity="6.2619870901107788e-01" nType="-99"/>
          <Node pos="r" depth="2" NCoef="0" IVar="-1" Cut="0.0000000000000000e+00" cType="1" res="1.7632374074310064e-03" rms="4.3492043018341064e-01" purity="6.2770986557006836e-01" nType="-99"/>
        </Node>
        <Node pos="r" depth="1" NCoef="0" IVar="5" Cut="2.3442358398437500e+02" cType="1" res="-1.8432237207889557e-02" rms="4.4247117638587952e-01" purity="4.4279497861862183e-01" nType="0">
          <Node pos="l" depth="2" NCoef="0" IVar="-1" Cut="0.0000000000000000e+00" cType="1" res="-6.4709165599197149e-05" rms="4.3991649150848389e-01" purity="4.4933244585990906e-01" nType="-99"/>
          <Node pos="r" depth="2" NCoef="0" IVar="-1" Cut="0.0000000000000000e+00" cType="1" res="-2.7102218009531498e-03" rms="4.4269391894340515e-01" purity="3.8359281420707703e-01" nType="-99"/>
        </Node>
      </Node>
    </BinaryTree>
    <BinaryTree type="DecisionTree" boostWeight="1.0000000000000000e+00" itree="794">
      <Node pos="s" depth="0" NCoef="0" IVar="0" Cut="2.2840068054199219e+02" cType="1" res="1.2708729133009911e-02" rms="4.4252973794937134e-01" purity="5.0372862815856934e-01" nType="0">
        <Node pos="l" depth="1" NCoef="0" IVar="2" Cut="9.3170797824859619e-01" cType="1" res="7.1651339530944824e-02" rms="4.2803594470024109e-01" purity="4.0600010752677917e-01" nType="0">
          <Node pos="l" depth="2" NCoef="0" IVar="-1" Cut="0.0000000000000000e+00" cType="1" res="-1.0431776754558086e-03" rms="3.2673725485801697e-01" purity="1.3630531728267670e-01" nType="-99"/>
          <Node pos="r" depth="2" NCoef="0" IVar="-1" Cut="0.0000000000000000e+00" cType="1" res="2.3232533130794764e-03" rms="4.6770191192626953e-01" purity="5.7556903362274170e-01" nType="-99"/>
        </Node>
        <Node pos="r" depth="1" NCoef="0" IVar="0" Cut="3.0903274536132812e+02" cType="1" res="2.1017971448600292e-03" rms="4.4425836205482483e-01" purity="5.2131521701812744e-01" nType="0">
          <Node pos="l" depth="2" NCoef="0" IVar="-1" Cut="0.0000000000000000e+00" cType="1" res="-6.8910751724615693e-04" rms="4.4253110885620117e-01" purity="4.0283229947090149e-01" nType="-99"/>
          <Node pos="r" depth="2" NCoef="0" IVar="-1" Cut="0.0000000000000000e+00" cType="1" res="5.7721667690202594e-04" rms="4.4298610091209412e-01" purity="6.1065685749053955e-01" nType="-99"/>
        </Node>
      </Node>
    </BinaryTree>
    <BinaryTree type="DecisionTree" boostWeight="1.0000000000000000e+00" itree="795">
      <Node pos="s" depth="0" NCoef="0" IVar="6" Cut="2.4206970632076263e-01" cType="1" res="1.6004053875803947e-02" rms="4.3462780117988586e-01" purity="5.1402026414871216e-01" nType="0">
        <Node pos="l" depth="1" NCoef="0" IVar="-1" Cut="0.0000000000000000e+00" cType="1" res="2.2567128762602806e-03" rms="4.1907206177711487e-01" purity="6.7035025358200073e-01" nType="-99"/>
        <Node pos="r" depth="1" NCoef="0" IVar="1" Cut="4.3529021739959717e-01" cType="1" res="9.6270535141229630e-03" rms="4.3455511331558228e-01" purity="5.0550085306167603e-01" nType="0">
          <Node pos="l" depth="2" NCoef="0" IVar="-1" Cut="0.0000000000000000e+00" cType="1" res="-1.3021603226661682e-03" rms="4.4622477889060974e-01" purity="5.1026362180709839e-01" nType="-99"/>
          <Node pos="r" depth="2" NCoef="0" IVar="-1" Cut="0.0000000000000000e+00" cType="1" res="2.7425552252680063e-04" rms="4.3310174345970154e-01" purity="5.0515568256378174e-01" nType="-99"/>
        </Node>
      </Node>
    </BinaryTree>
    <BinaryTree type="DecisionTree" boostWeight="1.0000000000000000e+00" itree="796">
      <Node pos="s" depth="0" NCoef="0" IVar="3" Cut="1.3184167480468750e+02" cType="1" res="-7.7889137901365757e-03" rms="4.4003614783287048e-01" purity="4.9355536699295044e-01" nType="0">
        <Node pos="l" depth="1" NCoef="0" IVar="-1" Cut="0.0000000000000000e+00" cType="1" res="-2.7312017045915127e-03" rms="3.9474153518676758e-01" purity="2.6446819305419922e-01" nType="-99"/>
        <Node pos="r" depth="1" NCoef="0" IVar="3" Cut="3.3711746215820312e+02" cType="1" res="4.5358017086982727e-03" rms="4.4167232513427734e-01" purity="5.1368820667266846e-01" nType="0">
          <Node pos="l" depth="2" NCoef="0" IVar="-1" Cut="0.0000000000000000e+00" cType="1" res="3.6328597343526781e-04" rms="4.4403970241546631e-01" purity="5.4064041376113892e-01" nType="-99"/>
          <Node pos="r" depth="2" NCoef="0" IVar="-1" Cut="0.0000000000000000e+00" cType="1" res="-1.7036214703693986e-03" rms="4.1501700878143311e-01" purity="3.5759171843528748e-01" nType="-99"/>
        </Node>
      </Node>
    </BinaryTree>
    <BinaryTree type="DecisionTree" boostWeight="1.0000000000000000e+00" itree="797">
      <Node pos="s" depth="0" NCoef="0" IVar="4" Cut="3.1511917114257812e+02" cType="1" res="-8.3221792010590434e-04" rms="4.4976696372032166e-01" purity="5.0229245424270630e-01" nType="0">
        <Node pos="l" depth="1" NCoef="0" IVar="-1" Cut="0.0000000000000000e+00" cType="1" res="-1.9327185582369566e-03" rms="3.6201900243759155e-01" purity="2.1571749448776245e-01" nType="-99"/>
        <Node pos="r" depth="1" NCoef="0" IVar="2" Cut="9.4823700189590454e-01" cType="1" res="6.3456245698034763e-03" rms="4.5534360408782959e-01" purity="5.2537912130355835e-01" nType="0">
          <Node pos="l" depth="2" NCoef="0" IVar="-1" Cut="0.0000000000000000e+00" cType="1" res="5.2608933765441179e-04" rms="4.6218493580818176e-01" purity="3.9900147914886475e-01" nType="-99"/>
          <Node pos="r" depth="2" NCoef="0" IVar="-1" Cut="0.0000000000000000e+00" cType="1" res="-2.8519891202449799e-04" rms="4.4764766097068787e-01" purity="6.4373266696929932e-01" nType="-99"/>
        </Node>
      </Node>
    </BinaryTree>
    <BinaryTree type="DecisionTree" boostWeight="1.0000000000000000e+00" itree="798">
      <Node pos="s" depth="0" NCoef="0" IVar="6" Cut="1.0405917167663574e+00" cType="1" res="1.3159679248929024e-02" rms="4.4607630372047424e-01" purity="5.0812762975692749e-01" nType="0">
        <Node pos="l" depth="1" NCoef="0" IVar="3" Cut="3.6122671508789062e+02" cType="1" res="2.3019218817353249e-02" rms="4.4795364141464233e-01" purity="5.3227013349533081e-01" nType="0">
          <Node pos="l" depth="2" NCoef="0" IVar="-1" Cut="0.0000000000000000e+00" cType="1" res="5.7495664805173874e-04" rms="4.4826245307922363e-01" purity="5.5015408992767334e-01" nType="-99"/>
          <Node pos="r" depth="2" NCoef="0" IVar="-1" Cut="0.0000000000000000e+00" cType="1" res="-1.0190630564466119e-03" rms="4.3756687641143799e-01" purity="3.9008072018623352e-01" nType="-99"/>
        </Node>
        <Node pos="r" depth="1" NCoef="0" IVar="0" Cut="2.9289456176757812e+02" cType="1" res="-6.2651909887790680e-02" rms="4.2377316951751709e-01" purity="3.2249218225479126e-01" nType="0">
          <Node pos="l" depth="2" NCoef="0" IVar="-1" Cut="0.0000000000000000e+00" cType="1" res="-3.0477505642920732e-03" rms="3.5754868388175964e-01" purity="1.8204230070114136e-01" nType="-99"/>
          <Node pos="r" depth="2" NCoef="0" IVar="-1" Cut="0.0000000000000000e+00" cType="1" res="1.4031855971552432e-04" rms="4.6227708458900452e-01" purity="4.4433307647705078e-01" nType="-99"/>
        </Node>
      </Node>
    </BinaryTree>
    <BinaryTree type="DecisionTree" boostWeight="1.0000000000000000e+00" itree="799">
      <Node pos="s" depth="0" NCoef="0" IVar="2" Cut="9.7561293840408325e-01" cType="1" res="8.1839123740792274e-03" rms="4.2917034029960632e-01" purity="5.0554215908050537e-01" nType="0">
        <Node pos="l" depth="1" NCoef="0" IVar="1" Cut="1.6383713483810425e+00" cType="1" res="-3.8019197527319193e-03" rms="4.4086977839469910e-01" purity="4.5230183005332947e-01" nType="0">
          <Node pos="l" depth="2" NCoef="0" IVar="-1" Cut="0.0000000000000000e+00" cType="1" res="6.8172856117598712e-05" rms="4.5005145668983459e-01" purity="4.7948604822158813e-01" nType="-99"/>
          <Node pos="r" depth="2" NCoef="0" IVar="-1" Cut="0.0000000000000000e+00" cType="1" res="-3.0281555373221636e-03" rms="2.6667031645774841e-01" purity="8.2567498087882996e-02" nType="-99"/>
        </Node>
        <Node pos="r" depth="1" NCoef="0" IVar="1" Cut="8.6772203445434570e-01" cType="1" res="8.8257789611816406e-02" rms="3.2986795902252197e-01" purity="8.6122530698776245e-01" nType="0">
          <Node pos="l" depth="2" NCoef="0" IVar="-1" Cut="0.0000000000000000e+00" cType="1" res="1.2382853310555220e-03" rms="3.1892213225364685e-01" purity="8.8226526975631714e-01" nType="-99"/>
          <Node pos="r" depth="2" NCoef="0" IVar="-1" Cut="0.0000000000000000e+00" cType="1" res="2.3112806957215071e-03" rms="3.3686259388923645e-01" purity="8.3756375312805176e-01" nType="-99"/>
        </Node>
      </Node>
    </BinaryTree>
    <BinaryTree type="DecisionTree" boostWeight="1.0000000000000000e+00" itree="800">
      <Node pos="s" depth="0" NCoef="0" IVar="4" Cut="7.3216864013671875e+02" cType="1" res="-1.4117007143795490e-02" rms="4.4410264492034912e-01" purity="4.8047170042991638e-01" nType="0">
        <Node pos="l" depth="1" NCoef="0" IVar="5" Cut="2.0542707824707031e+02" cType="1" res="-2.4645674973726273e-02" rms="4.4420853257179260e-01" purity="4.5651438832283020e-01" nType="0">
          <Node pos="l" depth="2" NCoef="0" IVar="-1" Cut="0.0000000000000000e+00" cType="1" res="-2.5399922742508352e-04" rms="4.4000262022018433e-01" purity="4.6347793936729431e-01" nType="-99"/>
          <Node pos="r" depth="2" NCoef="0" IVar="-1" Cut="0.0000000000000000e+00" cType="1" res="-2.6816765312105417e-03" rms="4.7427240014076233e-01" purity="3.6890113353729248e-01" nType="-99"/>
        </Node>
        <Node pos="r" depth="1" NCoef="0" IVar="-1" Cut="0.0000000000000000e+00" cType="1" res="1.3503713998943567e-03" rms="4.3164721131324768e-01" purity="6.9700515270233154e-01" nType="-99"/>
      </Node>
    </BinaryTree>
    <BinaryTree type="DecisionTree" boostWeight="1.0000000000000000e+00" itree="801">
      <Node pos="s" depth="0" NCoef="0" IVar="1" Cut="9.7694593667984009e-01" cType="1" res="2.5946914684027433e-03" rms="4.3237695097923279e-01" purity="4.9449816346168518e-01" nType="0">
        <Node pos="l" depth="1" NCoef="0" IVar="1" Cut="9.0058237314224243e-01" cType="1" res="2.8429863974452019e-02" rms="4.3206170201301575e-01" purity="5.9535437822341919e-01" nType="0">
          <Node pos="l" depth="2" NCoef="0" IVar="-1" Cut="0.0000000000000000e+00" cType="1" res="1.8912038649432361e-04" rms="4.2873051762580872e-01" purity="5.8506095409393311e-01" nType="-99"/>
          <Node pos="r" depth="2" NCoef="0" IVar="-1" Cut="0.0000000000000000e+00" cType="1" res="2.4003107100725174e-03" rms="4.3622440099716187e-01" purity="6.6479009389877319e-01" nType="-99"/>
        </Node>
        <Node pos="r" depth="1" NCoef="0" IVar="2" Cut="9.4673287868499756e-01" cType="1" res="-3.1524542719125748e-02" rms="4.3042320013046265e-01" purity="3.6130228638648987e-01" nType="0">
          <Node pos="l" depth="2" NCoef="0" IVar="-1" Cut="0.0000000000000000e+00" cType="1" res="-1.4211676316335797e-03" rms="3.8299077749252319e-01" purity="1.9867889583110809e-01" nType="-99"/>
          <Node pos="r" depth="2" NCoef="0" IVar="-1" Cut="0.0000000000000000e+00" cType="1" res="1.3693887740373611e-04" rms="4.7521454095840454e-01" purity="5.4488396644592285e-01" nType="-99"/>
        </Node>
      </Node>
    </BinaryTree>
    <BinaryTree type="DecisionTree" boostWeight="1.0000000000000000e+00" itree="802">
      <Node pos="s" depth="0" NCoef="0" IVar="6" Cut="9.3777537345886230e-01" cType="1" res="1.4892245642840862e-02" rms="4.4366604089736938e-01" purity="5.1696771383285522e-01" nType="0">
        <Node pos="l" depth="1" NCoef="0" IVar="3" Cut="2.4727574157714844e+02" cType="1" res="2.6438001543283463e-02" rms="4.4305086135864258e-01" purity="5.5068248510360718e-01" nType="0">
          <Node pos="l" depth="2" NCoef="0" IVar="-1" Cut="0.0000000000000000e+00" cType="1" res="1.1589017958613113e-04" rms="4.5071080327033997e-01" purity="5.2096539735794067e-01" nType="-99"/>
          <Node pos="r" depth="2" NCoef="0" IVar="-1" Cut="0.0000000000000000e+00" cType="1" res="1.2633289443328977e-03" rms="4.2160201072692871e-01" purity="6.1857730150222778e-01" nType="-99"/>
        </Node>
        <Node pos="r" depth="1" NCoef="0" IVar="3" Cut="2.5559161376953125e+02" cType="1" res="-3.3884208649396896e-02" rms="4.4294661283493042e-01" purity="3.7453567981719971e-01" nType="0">
          <Node pos="l" depth="2" NCoef="0" IVar="-1" Cut="0.0000000000000000e+00" cType="1" res="2.8052262496203184e-04" rms="4.7254005074501038e-01" purity="4.5650789141654968e-01" nType="-99"/>
          <Node pos="r" depth="2" NCoef="0" IVar="-1" Cut="0.0000000000000000e+00" cType="1" res="-2.3440360091626644e-03" rms="3.7806126475334167e-01" purity="2.4449592828750610e-01" nType="-99"/>
        </Node>
      </Node>
    </BinaryTree>
    <BinaryTree type="DecisionTree" boostWeight="1.0000000000000000e+00" itree="803">
      <Node pos="s" depth="0" NCoef="0" IVar="6" Cut="2.5431948900222778e-01" cType="1" res="1.6175871714949608e-02" rms="4.3886831402778625e-01" purity="5.1369589567184448e-01" nType="0">
        <Node pos="l" depth="1" NCoef="0" IVar="-1" Cut="0.0000000000000000e+00" cType="1" res="2.3590808268636465e-03" rms="4.3955549597740173e-01" purity="7.1376955509185791e-01" nType="-99"/>
        <Node pos="r" depth="1" NCoef="0" IVar="5" Cut="1.4211108398437500e+02" cType="1" res="8.9721521362662315e-03" rms="4.3768346309661865e-01" purity="5.0281083583831787e-01" nType="0">
          <Node pos="l" depth="2" NCoef="0" IVar="-1" Cut="0.0000000000000000e+00" cType="1" res="5.3080928046256304e-04" rms="4.3583416938781738e-01" purity="4.8625159263610840e-01" nType="-99"/>
          <Node pos="r" depth="2" NCoef="0" IVar="-1" Cut="0.0000000000000000e+00" cType="1" res="-5.1654427079483867e-04" rms="4.3857604265213013e-01" purity="5.3362822532653809e-01" nType="-99"/>
        </Node>
      </Node>
    </BinaryTree>
    <BinaryTree type="DecisionTree" boostWeight="1.0000000000000000e+00" itree="804">
      <Node pos="s" depth="0" NCoef="0" IVar="6" Cut="8.8160932064056396e-01" cType="1" res="-1.9583670422434807e-02" rms="4.3740248680114746e-01" purity="4.8099440336227417e-01" nType="0">
        <Node pos="l" depth="1" NCoef="0" IVar="2" Cut="9.4766455888748169e-01" cType="1" res="-9.0459390776231885e-04" rms="4.4294583797454834e-01" purity="5.3062438964843750e-01" nType="0">
          <Node pos="l" depth="2" NCoef="0" IVar="-1" Cut="0.0000000000000000e+00" cType="1" res="6.3538167160004377e-04" rms="4.5151978731155396e-01" purity="4.0538996458053589e-01" nType="-99"/>
          <Node pos="r" depth="2" NCoef="0" IVar="-1" Cut="0.0000000000000000e+00" cType="1" res="-6.0885807033628225e-04" rms="4.3255656957626343e-01" purity="6.4050048589706421e-01" nType="-99"/>
        </Node>
        <Node pos="r" depth="1" NCoef="0" IVar="5" Cut="1.4393513488769531e+02" cType="1" res="-7.8913651406764984e-02" rms="4.1375377774238586e-01" purity="3.2335552573204041e-01" nType="0">
          <Node pos="l" depth="2" NCoef="0" IVar="-1" Cut="0.0000000000000000e+00" cType="1" res="-9.8299083765596151e-04" rms="4.1161748766899109e-01" purity="3.2558056712150574e-01" nType="-99"/>
          <Node pos="r" depth="2" NCoef="0" IVar="-1" Cut="0.0000000000000000e+00" cType="1" res="-2.4532519746571779e-03" rms="4.1162416338920593e-01" purity="3.1823676824569702e-01" nType="-99"/>
        </Node>
      </Node>
    </BinaryTree>
    <BinaryTree type="DecisionTree" boostWeight="1.0000000000000000e+00" itree="805">
      <Node pos="s" depth="0" NCoef="0" IVar="2" Cut="9.3865907192230225e-01" cType="1" res="8.7070129811763763e-03" rms="4.3179494142532349e-01" purity="5.1273643970489502e-01" nType="0">
        <Node pos="l" depth="1" NCoef="0" IVar="3" Cut="2.9065945434570312e+02" cType="1" res="-4.2008321732282639e-02" rms="4.1425600647926331e-01" purity="2.6895812153816223e-01" nType="0">
          <Node pos="l" depth="2" NCoef="0" IVar="-1" Cut="0.0000000000000000e+00" cType="1" res="-3.7691797479055822e-04" rms="4.3037128448486328e-01" purity="2.9197490215301514e-01" nType="-99"/>
          <Node pos="r" depth="2" NCoef="0" IVar="-1" Cut="0.0000000000000000e+00" cType="1" res="-2.5217044167220592e-03" rms="3.4086152911186218e-01" purity="1.8801979720592499e-01" nType="-99"/>
        </Node>
        <Node pos="r" depth="1" NCoef="0" IVar="5" Cut="9.4201896667480469e+01" cType="1" res="3.4264426678419113e-02" rms="4.3814998865127563e-01" purity="6.3558578491210938e-01" nType="0">
          <Node pos="l" depth="2" NCoef="0" IVar="-1" Cut="0.0000000000000000e+00" cType="1" res="2.1669913548976183e-03" rms="4.2112493515014648e-01" purity="6.5597450733184814e-01" nType="-99"/>
          <Node pos="r" depth="2" NCoef="0" IVar="-1" Cut="0.0000000000000000e+00" cType="1" res="-1.2374594007269479e-05" rms="4.3854835629463196e-01" purity="6.2849420309066772e-01" nType="-99"/>
        </Node>
      </Node>
    </BinaryTree>
    <BinaryTree type="DecisionTree" boostWeight="1.0000000000000000e+00" itree="806">
      <Node pos="s" depth="0" NCoef="0" IVar="4" Cut="6.4798809814453125e+02" cType="1" res="5.5296807549893856e-03" rms="4.2742526531219482e-01" purity="5.0388896465301514e-01" nType="0">
        <Node pos="l" depth="1" NCoef="0" IVar="6" Cut="7.6597547531127930e-01" cType="1" res="-1.1697343550622463e-02" rms="4.2989060282707214e-01" purity="4.6586203575134277e-01" nType="0">
          <Node pos="l" depth="2" NCoef="0" IVar="-1" Cut="0.0000000000000000e+00" cType="1" res="-6.7557726288214326e-04" rms="4.2627537250518799e-01" purity="4.7195267677307129e-01" nType="-99"/>
          <Node pos="r" depth="2" NCoef="0" IVar="-1" Cut="0.0000000000000000e+00" cType="1" res="6.1497633578255773e-04" rms="4.3244323134422302e-01" purity="4.5523980259895325e-01" nType="-99"/>
        </Node>
        <Node pos="r" depth="1" NCoef="0" IVar="1" Cut="9.7254925966262817e-01" cType="1" res="8.9550301432609558e-02" rms="4.0481737256050110e-01" purity="6.8935626745223999e-01" nType="0">
          <Node pos="l" depth="2" NCoef="0" IVar="-1" Cut="0.0000000000000000e+00" cType="1" res="2.1190657280385494e-03" rms="3.7802380323410034e-01" purity="7.8749918937683105e-01" nType="-99"/>
          <Node pos="r" depth="2" NCoef="0" IVar="-1" Cut="0.0000000000000000e+00" cType="1" res="6.8566296249628067e-04" rms="4.3521502614021301e-01" purity="5.5109530687332153e-01" nType="-99"/>
        </Node>
      </Node>
    </BinaryTree>
    <BinaryTree type="DecisionTree" boostWeight="1.0000000000000000e+00" itree="807">
      <Node pos="s" depth="0" NCoef="0" IVar="3" Cut="1.9048048400878906e+02" cType="1" res="9.8022306337952614e-03" rms="4.3207693099975586e-01" purity="5.0934314727783203e-01" nType="0">
        <Node pos="l" depth="1" NCoef="0" IVar="5" Cut="1.2547414398193359e+02" cType="1" res="-4.3604347854852676e-02" rms="4.4965538382530212e-01" purity="3.9438292384147644e-01" nType="0">
          <Node pos="l" depth="2" NCoef="0" IVar="-1" Cut="0.0000000000000000e+00" cType="1" res="-2.5976580218411982e-04" rms="4.3811920285224915e-01" purity="4.0712231397628784e-01" nType="-99"/>
          <Node pos="r" depth="2" NCoef="0" IVar="-1" Cut="0.0000000000000000e+00" cType="1" res="-2.0099333487451077e-03" rms="4.6975284814834595e-01" purity="3.6193522810935974e-01" nType="-99"/>
        </Node>
        <Node pos="r" depth="1" NCoef="0" IVar="1" Cut="1.6679199934005737e+00" cType="1" res="4.5051768422126770e-02" rms="4.1633564233779907e-01" purity="5.8521944284439087e-01" nType="0">
          <Node pos="l" depth="2" NCoef="0" IVar="-1" Cut="0.0000000000000000e+00" cType="1" res="1.0692604118958116e-03" rms="4.2685681581497192e-01" purity="6.4237064123153687e-01" nType="-99"/>
          <Node pos="r" depth="2" NCoef="0" IVar="-1" Cut="0.0000000000000000e+00" cType="1" res="-2.5349652860313654e-03" rms="2.7786800265312195e-01" purity="1.0286977142095566e-01" nType="-99"/>
        </Node>
      </Node>
    </BinaryTree>
    <BinaryTree type="DecisionTree" boostWeight="1.0000000000000000e+00" itree="808">
      <Node pos="s" depth="0" NCoef="0" IVar="6" Cut="6.5753096342086792e-01" cType="1" res="2.5058717001229525e-03" rms="4.4464412331581116e-01" purity="4.9802681803703308e-01" nType="0">
        <Node pos="l" depth="1" NCoef="0" IVar="1" Cut="6.9346052408218384e-01" cType="1" res="-4.0298558771610260e-02" rms="4.3869069218635559e-01" purity="5.0746071338653564e-01" nType="0">
          <Node pos="l" depth="2" NCoef="0" IVar="-1" Cut="0.0000000000000000e+00" cType="1" res="1.2820678239222616e-04" rms="4.2949002981185913e-01" purity="6.0621416568756104e-01" nType="-99"/>
          <Node pos="r" depth="2" NCoef="0" IVar="-1" Cut="0.0000000000000000e+00" cType="1" res="-1.4067994197830558e-03" rms="4.4230595231056213e-01" purity="4.2562699317932129e-01" nType="-99"/>
        </Node>
        <Node pos="r" depth="1" NCoef="0" IVar="4" Cut="4.7988442993164062e+02" cType="1" res="4.4596921652555466e-02" rms="4.4643732905387878e-01" purity="4.8875021934509277e-01" nType="0">
          <Node pos="l" depth="2" NCoef="0" IVar="-1" Cut="0.0000000000000000e+00" cType="1" res="3.5572855267673731e-04" rms="4.4067347049713135e-01" purity="4.2031675577163696e-01" nType="-99"/>
          <Node pos="r" depth="2" NCoef="0" IVar="-1" Cut="0.0000000000000000e+00" cType="1" res="1.5412624925374985e-03" rms="4.5304283499717712e-01" purity="6.1083680391311646e-01" nType="-99"/>
        </Node>
      </Node>
    </BinaryTree>
    <BinaryTree type="DecisionTree" boostWeight="1.0000000000000000e+00" itree="809">
      <Node pos="s" depth="0" NCoef="0" IVar="0" Cut="4.5610885620117188e+02" cType="1" res="1.8071020022034645e-02" rms="4.4205099344253540e-01" purity="5.1652854681015015e-01" nType="0">
        <Node pos="l" depth="1" NCoef="0" IVar="1" Cut="1.6193000078201294e+00" cType="1" res="3.2719414681196213e-02" rms="4.3953123688697815e-01" purity="5.1032471656799316e-01" nType="0">
          <Node pos="l" depth="2" NCoef="0" IVar="-1" Cut="0.0000000000000000e+00" cType="1" res="7.1352935628965497e-04" rms="4.4875392317771912e-01" purity="5.4250675439834595e-01" nType="-99"/>
          <Node pos="r" depth="2" NCoef="0" IVar="-1" Cut="0.0000000000000000e+00" cType="1" res="-1.6755816759541631e-03" rms="3.0151897668838501e-01" purity="1.5018720924854279e-01" nType="-99"/>
        </Node>
        <Node pos="r" depth="1" NCoef="0" IVar="6" Cut="4.9511605501174927e-01" cType="1" res="-5.6730281561613083e-02" rms="4.4728228449821472e-01" purity="5.4820829629898071e-01" nType="0">
          <Node pos="l" depth="2" NCoef="0" IVar="-1" Cut="0.0000000000000000e+00" cType="1" res="1.6277943504974246e-03" rms="3.5459315776824951e-01" purity="7.5958675146102905e-01" nType="-99"/>
          <Node pos="r" depth="2" NCoef="0" IVar="-1" Cut="0.0000000000000000e+00" cType="1" res="-2.6083916891366243e-03" rms="4.7486451268196106e-01" purity="4.1445952653884888e-01" nType="-99"/>
        </Node>
      </Node>
    </BinaryTree>
    <BinaryTree type="DecisionTree" boostWeight="1.0000000000000000e+00" itree="810">
      <Node pos="s" depth="0" NCoef="0" IVar="0" Cut="5.9504876708984375e+02" cType="1" res="-7.4155186302959919e-03" rms="4.3735325336456299e-01" purity="4.9970269203186035e-01" nType="0">
        <Node pos="l" depth="1" NCoef="0" IVar="0" Cut="4.0007666015625000e+02" cType="1" res="-2.0022509619593620e-02" rms="4.3891870975494385e-01" purity="4.7805717587471008e-01" nType="0">
          <Node pos="l" depth="2" NCoef="0" IVar="-1" Cut="0.0000000000000000e+00" cType="1" res="-2.9274491680553183e-05" rms="4.3669229745864868e-01" purity="4.7073781490325928e-01" nType="-99"/>
          <Node pos="r" depth="2" NCoef="0" IVar="-1" Cut="0.0000000000000000e+00" cType="1" res="-1.6834610141813755e-03" rms="4.4032841920852661e-01" purity="5.0595593452453613e-01" nType="-99"/>
        </Node>
        <Node pos="r" depth="1" NCoef="0" IVar="-1" Cut="0.0000000000000000e+00" cType="1" res="2.3638464044779539e-03" rms="3.8902932405471802e-01" purity="7.5405943393707275e-01" nType="-99"/>
      </Node>
    </BinaryTree>
    <BinaryTree type="DecisionTree" boostWeight="1.0000000000000000e+00" itree="811">
      <Node pos="s" depth="0" NCoef="0" IVar="1" Cut="1.3686639070510864e+00" cType="1" res="7.8902058303356171e-03" rms="4.3259474635124207e-01" purity="5.0005280971527100e-01" nType="0">
        <Node pos="l" depth="1" NCoef="0" IVar="3" Cut="1.5579565429687500e+02" cType="1" res="2.0015800371766090e-02" rms="4.4104087352752686e-01" purity="5.5846112966537476e-01" nType="0">
          <Node pos="l" depth="2" NCoef="0" IVar="-1" Cut="0.0000000000000000e+00" cType="1" res="-1.2191830901429057e-03" rms="4.6696186065673828e-01" purity="3.5152494907379150e-01" nType="-99"/>
          <Node pos="r" depth="2" NCoef="0" IVar="-1" Cut="0.0000000000000000e+00" cType="1" res="7.0257316110655665e-04" rms="4.3183249235153198e-01" purity="6.0815095901489258e-01" nType="-99"/>
        </Node>
        <Node pos="r" depth="1" NCoef="0" IVar="4" Cut="5.1707702636718750e+02" cType="1" res="-4.9002677202224731e-02" rms="3.8547408580780029e-01" purity="2.2600257396697998e-01" nType="0">
          <Node pos="l" depth="2" NCoef="0" IVar="-1" Cut="0.0000000000000000e+00" cType="1" res="-2.0284643396735191e-03" rms="3.6462259292602539e-01" purity="1.7057141661643982e-01" nType="-99"/>
          <Node pos="r" depth="2" NCoef="0" IVar="-1" Cut="0.0000000000000000e+00" cType="1" res="6.9453043397516012e-04" rms="4.1725984215736389e-01" purity="3.5424149036407471e-01" nType="-99"/>
        </Node>
      </Node>
    </BinaryTree>
    <BinaryTree type="DecisionTree" boostWeight="1.0000000000000000e+00" itree="812">
      <Node pos="s" depth="0" NCoef="0" IVar="4" Cut="4.1661282348632812e+02" cType="1" res="1.0285866446793079e-03" rms="4.3674123287200928e-01" purity="5.0663608312606812e-01" nType="0">
        <Node pos="l" depth="1" NCoef="0" IVar="1" Cut="1.3330724239349365e+00" cType="1" res="-3.7703614681959152e-02" rms="4.1294661164283752e-01" purity="3.5323143005371094e-01" nType="0">
          <Node pos="l" depth="2" NCoef="0" IVar="-1" Cut="0.0000000000000000e+00" cType="1" res="-2.0502794359344989e-04" rms="4.3385654687881470e-01" purity="4.2313802242279053e-01" nType="-99"/>
          <Node pos="r" depth="2" NCoef="0" IVar="-1" Cut="0.0000000000000000e+00" cType="1" res="-3.3006374724209309e-03" rms="3.0810374021530151e-01" purity="1.0007298737764359e-01" nType="-99"/>
        </Node>
        <Node pos="r" depth="1" NCoef="0" IVar="2" Cut="9.4390124082565308e-01" cType="1" res="2.3292815312743187e-02" rms="4.4833767414093018e-01" purity="5.9481680393218994e-01" nType="0">
          <Node pos="l" depth="2" NCoef="0" IVar="-1" Cut="0.0000000000000000e+00" cType="1" res="8.9948327513411641e-04" rms="4.5423310995101929e-01" purity="4.5364189147949219e-01" nType="-99"/>
          <Node pos="r" depth="2" NCoef="0" IVar="-1" Cut="0.0000000000000000e+00" cType="1" res="6.0340378695400432e-05" rms="4.4341114163398743e-01" purity="6.8429273366928101e-01" nType="-99"/>
        </Node>
      </Node>
    </BinaryTree>
    <BinaryTree type="DecisionTree" boostWeight="1.0000000000000000e+00" itree="813">
      <Node pos="s" depth="0" NCoef="0" IVar="4" Cut="8.6772296142578125e+02" cType="1" res="7.0718177594244480e-03" rms="4.4797956943511963e-01" purity="5.0049805641174316e-01" nType="0">
        <Node pos="l" depth="1" NCoef="0" IVar="5" Cut="2.3138456726074219e+02" cType="1" res="-1.4100167900323868e-03" rms="4.4702115654945374e-01" purity="4.8579964041709900e-01" nType="0">
          <Node pos="l" depth="2" NCoef="0" IVar="-1" Cut="0.0000000000000000e+00" cType="1" res="1.5213573351502419e-04" rms="4.4681489467620850e-01" purity="4.8989951610565186e-01" nType="-99"/>
          <Node pos="r" depth="2" NCoef="0" IVar="-1" Cut="0.0000000000000000e+00" cType="1" res="-2.8964662924408913e-03" rms="4.2035081982612610e-01" purity="4.2123600840568542e-01" nType="-99"/>
        </Node>
        <Node pos="r" depth="1" NCoef="0" IVar="-1" Cut="0.0000000000000000e+00" cType="1" res="2.2870220709592104e-03" rms="4.4064921140670776e-01" purity="7.4204087257385254e-01" nType="-99"/>
      </Node>
    </BinaryTree>
    <BinaryTree type="DecisionTree" boostWeight="1.0000000000000000e+00" itree="814">
      <Node pos="s" depth="0" NCoef="0" IVar="3" Cut="3.5605181884765625e+02" cType="1" res="8.6855811787245329e-07" rms="4.3412721157073975e-01" purity="4.9648839235305786e-01" nType="0">
        <Node pos="l" depth="1" NCoef="0" IVar="3" Cut="1.9471476745605469e+02" cType="1" res="1.2096192687749863e-02" rms="4.3955567479133606e-01" purity="5.1758128404617310e-01" nType="0">
          <Node pos="l" depth="2" NCoef="0" IVar="-1" Cut="0.0000000000000000e+00" cType="1" res="-5.2983412751927972e-04" rms="4.4647696614265442e-01" purity="4.2115801572799683e-01" nType="-99"/>
          <Node pos="r" depth="2" NCoef="0" IVar="-1" Cut="0.0000000000000000e+00" cType="1" res="9.4258325407281518e-04" rms="4.2880645394325256e-01" purity="6.1074572801589966e-01" nType="-99"/>
        </Node>
        <Node pos="r" depth="1" NCoef="0" IVar="3" Cut="4.7479949951171875e+02" cType="1" res="-9.5091298222541809e-02" rms="3.7548205256462097e-01" purity="3.3065840601921082e-01" nType="0">
          <Node pos="l" depth="2" NCoef="0" IVar="-1" Cut="0.0000000000000000e+00" cType="1" res="-6.4990797545760870e-04" rms="3.9330443739891052e-01" purity="4.1202715039253235e-01" nType="-99"/>
          <Node pos="r" depth="2" NCoef="0" IVar="-1" Cut="0.0000000000000000e+00" cType="1" res="-3.1437429133802652e-03" rms="3.3875003457069397e-01" purity="2.3272098600864410e-01" nType="-99"/>
        </Node>
      </Node>
    </BinaryTree>
    <BinaryTree type="DecisionTree" boostWeight="1.0000000000000000e+00" itree="815">
      <Node pos="s" depth="0" NCoef="0" IVar="3" Cut="2.4969708251953125e+02" cType="1" res="-1.0022141039371490e-02" rms="4.3750691413879395e-01" purity="4.9649783968925476e-01" nType="0">
        <Node pos="l" depth="1" NCoef="0" IVar="5" Cut="9.4232666015625000e+01" cType="1" res="-2.8243465349078178e-02" rms="4.3982976675033569e-01" purity="4.7538688778877258e-01" nType="0">
          <Node pos="l" depth="2" NCoef="0" IVar="-1" Cut="0.0000000000000000e+00" cType="1" res="3.7317999522201717e-04" rms="4.3040892481803894e-01" purity="4.8191863298416138e-01" nType="-99"/>
          <Node pos="r" depth="2" NCoef="0" IVar="-1" Cut="0.0000000000000000e+00" cType="1" res="-1.0177048388868570e-03" rms="4.4279840588569641e-01" purity="4.7135123610496521e-01" nType="-99"/>
        </Node>
        <Node pos="r" depth="1" NCoef="0" IVar="6" Cut="5.3237867355346680e-01" cType="1" res="2.4470258504152298e-02" rms="4.3097141385078430e-01" purity="5.3646010160446167e-01" nType="0">
          <Node pos="l" depth="2" NCoef="0" IVar="-1" Cut="0.0000000000000000e+00" cType="1" res="1.9920403137803078e-03" rms="3.8340482115745544e-01" purity="7.4377900362014771e-01" nType="-99"/>
          <Node pos="r" depth="2" NCoef="0" IVar="-1" Cut="0.0000000000000000e+00" cType="1" res="-1.3190951722208411e-04" rms="4.4444513320922852e-01" purity="4.5449954271316528e-01" nType="-99"/>
        </Node>
      </Node>
    </BinaryTree>
    <BinaryTree type="DecisionTree" boostWeight="1.0000000000000000e+00" itree="816">
      <Node pos="s" depth="0" NCoef="0" IVar="6" Cut="1.0226347446441650e+00" cType="1" res="-1.4076595194637775e-02" rms="4.3994450569152832e-01" purity="4.6321192383766174e-01" nType="0">
        <Node pos="l" depth="1" NCoef="0" IVar="1" Cut="5.3568685054779053e-01" cType="1" res="-2.3687274660915136e-03" rms="4.4585162401199341e-01" purity="4.9399363994598389e-01" nType="0">
          <Node pos="l" depth="2" NCoef="0" IVar="-1" Cut="0.0000000000000000e+00" cType="1" res="-1.4686663635075092e-03" rms="4.4654893875122070e-01" purity="5.1191931962966919e-01" nType="-99"/>
          <Node pos="r" depth="2" NCoef="0" IVar="-1" Cut="0.0000000000000000e+00" cType="1" res="2.1768111037090421e-04" rms="4.4411581754684448e-01" purity="4.9080687761306763e-01" nType="-99"/>
        </Node>
        <Node pos="r" depth="1" NCoef="0" IVar="1" Cut="1.3891096115112305e+00" cType="1" res="-8.9285001158714294e-02" rms="3.9166551828384399e-01" purity="2.6547786593437195e-01" nType="0">
          <Node pos="l" depth="2" NCoef="0" IVar="-1" Cut="0.0000000000000000e+00" cType="1" res="-5.9668254107236862e-04" rms="4.4993439316749573e-01" purity="3.7766641378402710e-01" nType="-99"/>
          <Node pos="r" depth="2" NCoef="0" IVar="-1" Cut="0.0000000000000000e+00" cType="1" res="-4.0188943967223167e-03" rms="2.7482604980468750e-01" purity="1.1092165112495422e-01" nType="-99"/>
        </Node>
      </Node>
    </BinaryTree>
    <BinaryTree type="DecisionTree" boostWeight="1.0000000000000000e+00" itree="817">
      <Node pos="s" depth="0" NCoef="0" IVar="1" Cut="1.7254369258880615e+00" cType="1" res="3.0383493285626173e-03" rms="4.4082120060920715e-01" purity="4.8847156763076782e-01" nType="0">
        <Node pos="l" depth="1" NCoef="0" IVar="3" Cut="2.2136958312988281e+02" cType="1" res="8.7515041232109070e-03" rms="4.4873642921447754e-01" purity="5.1281535625457764e-01" nType="0">
          <Node pos="l" depth="2" NCoef="0" IVar="-1" Cut="0.0000000000000000e+00" cType="1" res="-9.2665679403580725e-05" rms="4.5151698589324951e-01" purity="4.5465904474258423e-01" nType="-99"/>
          <Node pos="r" depth="2" NCoef="0" IVar="-1" Cut="0.0000000000000000e+00" cType="1" res="5.2392220823094249e-04" rms="4.4380083680152893e-01" purity="5.9828442335128784e-01" nType="-99"/>
        </Node>
        <Node pos="r" depth="1" NCoef="0" IVar="-1" Cut="0.0000000000000000e+00" cType="1" res="-2.2695104125887156e-03" rms="2.8043633699417114e-01" purity="1.1658219248056412e-01" nType="-99"/>
      </Node>
    </BinaryTree>
    <BinaryTree type="DecisionTree" boostWeight="1.0000000000000000e+00" itree="818">
      <Node pos="s" depth="0" NCoef="0" IVar="3" Cut="3.2122744750976562e+02" cType="1" res="2.3592165671288967e-03" rms="4.2830622196197510e-01" purity="5.1386123895645142e-01" nType="0">
        <Node pos="l" depth="1" NCoef="0" IVar="4" Cut="6.3063690185546875e+02" cType="1" res="1.6218760982155800e-02" rms="4.2957657575607300e-01" purity="5.3856605291366577e-01" nType="0">
          <Node pos="l" depth="2" NCoef="0" IVar="-1" Cut="0.0000000000000000e+00" cType="1" res="3.4228956792503595e-05" rms="4.3443113565444946e-01" purity="5.0798612833023071e-01" nType="-99"/>
          <Node pos="r" depth="2" NCoef="0" IVar="-1" Cut="0.0000000000000000e+00" cType="1" res="2.3327691014856100e-03" rms="3.6570006608963013e-01" purity="7.9336959123611450e-01" nType="-99"/>
        </Node>
        <Node pos="r" depth="1" NCoef="0" IVar="6" Cut="5.7079672813415527e-01" cType="1" res="-7.0650778710842133e-02" rms="4.1395995020866394e-01" purity="3.8371980190277100e-01" nType="0">
          <Node pos="l" depth="2" NCoef="0" IVar="-1" Cut="0.0000000000000000e+00" cType="1" res="9.8969531245529652e-04" rms="4.0873718261718750e-01" purity="6.1560088396072388e-01" nType="-99"/>
          <Node pos="r" depth="2" NCoef="0" IVar="-1" Cut="0.0000000000000000e+00" cType="1" res="-2.6102673728018999e-03" rms="4.0293321013450623e-01" purity="2.7370965480804443e-01" nType="-99"/>
        </Node>
      </Node>
    </BinaryTree>
    <BinaryTree type="DecisionTree" boostWeight="1.0000000000000000e+00" itree="819">
      <Node pos="s" depth="0" NCoef="0" IVar="6" Cut="9.4644016027450562e-01" cType="1" res="-9.3008263502269983e-04" rms="4.4071000814437866e-01" purity="5.0436812639236450e-01" nType="0">
        <Node pos="l" depth="1" NCoef="0" IVar="4" Cut="7.4464385986328125e+02" cType="1" res="1.3333682902157307e-02" rms="4.4153025746345520e-01" purity="5.3784823417663574e-01" nType="0">
          <Node pos="l" depth="2" NCoef="0" IVar="-1" Cut="0.0000000000000000e+00" cType="1" res="4.8216574214166030e-05" rms="4.4199490547180176e-01" purity="5.1400607824325562e-01" nType="-99"/>
          <Node pos="r" depth="2" NCoef="0" IVar="-1" Cut="0.0000000000000000e+00" cType="1" res="1.7720847390592098e-03" rms="4.2664492130279541e-01" purity="7.4334317445755005e-01" nType="-99"/>
        </Node>
        <Node pos="r" depth="1" NCoef="0" IVar="2" Cut="9.4586998224258423e-01" cType="1" res="-7.5667530298233032e-02" rms="4.2869782447814941e-01" purity="3.2894349098205566e-01" nType="0">
          <Node pos="l" depth="2" NCoef="0" IVar="-1" Cut="0.0000000000000000e+00" cType="1" res="-6.1748863663524389e-04" rms="3.8280427455902100e-01" purity="2.3215547204017639e-01" nType="-99"/>
          <Node pos="r" depth="2" NCoef="0" IVar="-1" Cut="0.0000000000000000e+00" cType="1" res="-2.1198026370257139e-03" rms="4.6246579289436340e-01" purity="4.1749572753906250e-01" nType="-99"/>
        </Node>
      </Node>
    </BinaryTree>
    <BinaryTree type="DecisionTree" boostWeight="1.0000000000000000e+00" itree="820">
      <Node pos="s" depth="0" NCoef="0" IVar="5" Cut="2.8410845947265625e+02" cType="1" res="-2.7321749366819859e-03" rms="4.4310155510902405e-01" purity="4.8825550079345703e-01" nType="0">
        <Node pos="l" depth="1" NCoef="0" IVar="5" Cut="1.2069671630859375e+02" cType="1" res="5.4888445883989334e-03" rms="4.4298279285430908e-01" purity="4.9045300483703613e-01" nType="0">
          <Node pos="l" depth="2" NCoef="0" IVar="-1" Cut="0.0000000000000000e+00" cType="1" res="5.8660941431298852e-04" rms="4.3934237957000732e-01" purity="4.7257712483406067e-01" nType="-99"/>
          <Node pos="r" depth="2" NCoef="0" IVar="-1" Cut="0.0000000000000000e+00" cType="1" res="-5.2146107191219926e-04" rms="4.4511321187019348e-01" purity="5.1306176185607910e-01" nType="-99"/>
        </Node>
        <Node pos="r" depth="1" NCoef="0" IVar="-1" Cut="0.0000000000000000e+00" cType="1" res="-2.5189586449414492e-03" rms="4.2181193828582764e-01" purity="4.5136687159538269e-01" nType="-99"/>
      </Node>
    </BinaryTree>
    <BinaryTree type="DecisionTree" boostWeight="1.0000000000000000e+00" itree="821">
      <Node pos="s" depth="0" NCoef="0" IVar="3" Cut="1.7021449279785156e+02" cType="1" res="1.0543224401772022e-02" rms="4.4169712066650391e-01" purity="5.1414775848388672e-01" nType="0">
        <Node pos="l" depth="1" NCoef="0" IVar="3" Cut="1.3936791992187500e+02" cType="1" res="7.5489230453968048e-02" rms="4.5645341277122498e-01" purity="5.0645154714584351e-01" nType="0">
          <Node pos="l" depth="2" NCoef="0" IVar="-1" Cut="0.0000000000000000e+00" cType="1" res="-5.7228526566177607e-04" rms="4.3201225996017456e-01" purity="3.6791050434112549e-01" nType="-99"/>
          <Node pos="r" depth="2" NCoef="0" IVar="-1" Cut="0.0000000000000000e+00" cType="1" res="2.3166653700172901e-03" rms="4.5874407887458801e-01" purity="5.8662307262420654e-01" nType="-99"/>
        </Node>
        <Node pos="r" depth="1" NCoef="0" IVar="0" Cut="2.3853810119628906e+02" cType="1" res="-1.4555613510310650e-02" rms="4.3326029181480408e-01" purity="5.1712197065353394e-01" nType="0">
          <Node pos="l" depth="2" NCoef="0" IVar="-1" Cut="0.0000000000000000e+00" cType="1" res="-3.3628738019615412e-03" rms="3.4814494848251343e-01" purity="1.6924676299095154e-01" nType="-99"/>
          <Node pos="r" depth="2" NCoef="0" IVar="-1" Cut="0.0000000000000000e+00" cType="1" res="-5.4614596592728049e-05" rms="4.3718248605728149e-01" purity="5.4441308975219727e-01" nType="-99"/>
        </Node>
      </Node>
    </BinaryTree>
    <BinaryTree type="DecisionTree" boostWeight="1.0000000000000000e+00" itree="822">
      <Node pos="s" depth="0" NCoef="0" IVar="2" Cut="9.4158875942230225e-01" cType="1" res="3.2361566554754972e-03" rms="4.2786151170730591e-01" purity="4.9626970291137695e-01" nType="0">
        <Node pos="l" depth="1" NCoef="0" IVar="6" Cut="3.7206518650054932e-01" cType="1" res="-3.4168340265750885e-02" rms="4.1445541381835938e-01" purity="2.7421358227729797e-01" nType="0">
          <Node pos="l" depth="2" NCoef="0" IVar="-1" Cut="0.0000000000000000e+00" cType="1" res="-2.6614211965352297e-03" rms="3.8066440820693970e-01" purity="1.8573357164859772e-01" nType="-99"/>
          <Node pos="r" depth="2" NCoef="0" IVar="-1" Cut="0.0000000000000000e+00" cType="1" res="-2.3998672259040177e-04" rms="4.1778001189231873e-01" purity="2.9225850105285645e-01" nType="-99"/>
        </Node>
        <Node pos="r" depth="1" NCoef="0" IVar="6" Cut="5.1670968532562256e-01" cType="1" res="2.8957054018974304e-02" rms="4.3497911095619202e-01" purity="6.4896476268768311e-01" nType="0">
          <Node pos="l" depth="2" NCoef="0" IVar="-1" Cut="0.0000000000000000e+00" cType="1" res="1.0152021422982216e-03" rms="3.9496728777885437e-01" purity="7.5664281845092773e-01" nType="-99"/>
          <Node pos="r" depth="2" NCoef="0" IVar="-1" Cut="0.0000000000000000e+00" cType="1" res="2.3120616970118135e-04" rms="4.5501473546028137e-01" purity="5.8895993232727051e-01" nType="-99"/>
        </Node>
      </Node>
    </BinaryTree>
    <BinaryTree type="DecisionTree" boostWeight="1.0000000000000000e+00" itree="823">
      <Node pos="s" depth="0" NCoef="0" IVar="5" Cut="1.9413470458984375e+02" cType="1" res="-1.0244087316095829e-03" rms="4.4128334522247314e-01" purity="5.0190168619155884e-01" nType="0">
        <Node pos="l" depth="1" NCoef="0" IVar="4" Cut="3.0503713989257812e+02" cType="1" res="1.1794566176831722e-02" rms="4.3316978216171265e-01" purity="4.9712997674942017e-01" nType="0">
          <Node pos="l" depth="2" NCoef="0" IVar="-1" Cut="0.0000000000000000e+00" cType="1" res="-2.0798509940505028e-03" rms="3.5033184289932251e-01" purity="1.6946059465408325e-01" nType="-99"/>
          <Node pos="r" depth="2" NCoef="0" IVar="-1" Cut="0.0000000000000000e+00" cType="1" res="3.4713861532509327e-04" rms="4.3806308507919312e-01" purity="5.2305310964584351e-01" nType="-99"/>
        </Node>
        <Node pos="r" depth="1" NCoef="0" IVar="4" Cut="7.4173712158203125e+02" cType="1" res="-6.5548859536647797e-02" rms="4.7481876611709595e-01" purity="5.2592003345489502e-01" nType="0">
          <Node pos="l" depth="2" NCoef="0" IVar="-1" Cut="0.0000000000000000e+00" cType="1" res="-3.1966252718120813e-03" rms="4.6625000238418579e-01" purity="4.1803753376007080e-01" nType="-99"/>
          <Node pos="r" depth="2" NCoef="0" IVar="-1" Cut="0.0000000000000000e+00" cType="1" res="6.9771677954122424e-04" rms="4.5656919479370117e-01" purity="6.2155604362487793e-01" nType="-99"/>
        </Node>
      </Node>
    </BinaryTree>
    <BinaryTree type="DecisionTree" boostWeight="1.0000000000000000e+00" itree="824">
      <Node pos="s" depth="0" NCoef="0" IVar="2" Cut="9.3659770488739014e-01" cType="1" res="-6.6315811127424240e-03" rms="4.3571555614471436e-01" purity="4.9186569452285767e-01" nType="0">
        <Node pos="l" depth="1" NCoef="0" IVar="4" Cut="6.1964752197265625e+02" cType="1" res="-4.6476025134325027e-02" rms="3.9953005313873291e-01" purity="2.4835541844367981e-01" nType="0">
          <Node pos="l" depth="2" NCoef="0" IVar="-1" Cut="0.0000000000000000e+00" cType="1" res="-1.4619490830227733e-03" rms="3.7227791547775269e-01" purity="1.9415450096130371e-01" nType="-99"/>
          <Node pos="r" depth="2" NCoef="0" IVar="-1" Cut="0.0000000000000000e+00" cType="1" res="1.0308114578947425e-03" rms="4.9171364307403564e-01" purity="4.9780690670013428e-01" nType="-99"/>
        </Node>
        <Node pos="r" depth="1" NCoef="0" IVar="5" Cut="1.0377124786376953e+02" cType="1" res="1.1584722436964512e-02" rms="4.5012027025222778e-01" purity="6.0319507122039795e-01" nType="0">
          <Node pos="l" depth="2" NCoef="0" IVar="-1" Cut="0.0000000000000000e+00" cType="1" res="1.0613723425194621e-03" rms="4.4846615195274353e-01" purity="5.8958202600479126e-01" nType="-99"/>
          <Node pos="r" depth="2" NCoef="0" IVar="-1" Cut="0.0000000000000000e+00" cType="1" res="-2.4503993336111307e-04" rms="4.4867947697639465e-01" purity="6.0974699258804321e-01" nType="-99"/>
        </Node>
      </Node>
    </BinaryTree>
    <BinaryTree type="DecisionTree" boostWeight="1.0000000000000000e+00" itree="825">
      <Node pos="s" depth="0" NCoef="0" IVar="4" Cut="6.0551354980468750e+02" cType="1" res="6.0134800150990486e-03" rms="4.3600606918334961e-01" purity="5.0289011001586914e-01" nType="0">
        <Node pos="l" depth="1" NCoef="0" IVar="3" Cut="3.1959115600585938e+02" cType="1" res="-1.4745864085853100e-02" rms="4.3476492166519165e-01" purity="4.5959684252738953e-01" nType="0">
          <Node pos="l" depth="2" NCoef="0" IVar="-1" Cut="0.0000000000000000e+00" cType="1" res="-3.3252124467253452e-06" rms="4.3985217809677124e-01" purity="4.8836475610733032e-01" nType="-99"/>
          <Node pos="r" depth="2" NCoef="0" IVar="-1" Cut="0.0000000000000000e+00" cType="1" res="-3.1635663472115993e-03" rms="3.5462811589241028e-01" purity="1.8677666783332825e-01" nType="-99"/>
        </Node>
        <Node pos="r" depth="1" NCoef="0" IVar="0" Cut="4.9353189086914062e+02" cType="1" res="9.6503034234046936e-02" rms="4.2982017993927002e-01" purity="6.9160437583923340e-01" nType="0">
          <Node pos="l" depth="2" NCoef="0" IVar="-1" Cut="0.0000000000000000e+00" cType="1" res="2.9649334028363228e-03" rms="3.9731049537658691e-01" purity="7.6110064983367920e-01" nType="-99"/>
          <Node pos="r" depth="2" NCoef="0" IVar="-1" Cut="0.0000000000000000e+00" cType="1" res="7.8786408994346857e-04" rms="4.4208034873008728e-01" purity="6.4815115928649902e-01" nType="-99"/>
        </Node>
      </Node>
    </BinaryTree>
    <BinaryTree type="DecisionTree" boostWeight="1.0000000000000000e+00" itree="826">
      <Node pos="s" depth="0" NCoef="0" IVar="4" Cut="5.5951617431640625e+02" cType="1" res="2.0689857192337513e-03" rms="4.3513265252113342e-01" purity="5.0062972307205200e-01" nType="0">
        <Node pos="l" depth="1" NCoef="0" IVar="5" Cut="1.4944006347656250e+02" cType="1" res="-2.0042322576045990e-02" rms="4.3740126490592957e-01" purity="4.4056242704391479e-01" nType="0">
          <Node pos="l" depth="2" NCoef="0" IVar="-1" Cut="0.0000000000000000e+00" cType="1" res="-5.5842632718849927e-05" rms="4.3022200465202332e-01" purity="4.5051065087318420e-01" nType="-99"/>
          <Node pos="r" depth="2" NCoef="0" IVar="-1" Cut="0.0000000000000000e+00" cType="1" res="-2.5312872603535652e-03" rms="4.6734070777893066e-01" purity="3.7237188220024109e-01" nType="-99"/>
        </Node>
        <Node pos="r" depth="1" NCoef="0" IVar="6" Cut="8.3554595708847046e-01" cType="1" res="6.1231680214405060e-02" rms="4.2336231470108032e-01" purity="6.6135060787200928e-01" nType="0">
          <Node pos="l" depth="2" NCoef="0" IVar="-1" Cut="0.0000000000000000e+00" cType="1" res="6.6263473127037287e-04" rms="4.2541244626045227e-01" purity="6.6287660598754883e-01" nType="-99"/>
          <Node pos="r" depth="2" NCoef="0" IVar="-1" Cut="0.0000000000000000e+00" cType="1" res="2.5065680965781212e-03" rms="4.0335693955421448e-01" purity="6.5555906295776367e-01" nType="-99"/>
        </Node>
      </Node>
    </BinaryTree>
    <BinaryTree type="DecisionTree" boostWeight="1.0000000000000000e+00" itree="827">
      <Node pos="s" depth="0" NCoef="0" IVar="4" Cut="6.4040643310546875e+02" cType="1" res="-1.4284773496910930e-03" rms="4.3916389346122742e-01" purity="5.0145858526229858e-01" nType="0">
        <Node pos="l" depth="1" NCoef="0" IVar="5" Cut="1.6796568298339844e+02" cType="1" res="-1.3081515207886696e-02" rms="4.3484678864479065e-01" purity="4.7164773941040039e-01" nType="0">
          <Node pos="l" depth="2" NCoef="0" IVar="-1" Cut="0.0000000000000000e+00" cType="1" res="3.9870530599728227e-05" rms="4.3483653664588928e-01" purity="4.8068967461585999e-01" nType="-99"/>
          <Node pos="r" depth="2" NCoef="0" IVar="-1" Cut="0.0000000000000000e+00" cType="1" res="-2.1278809290379286e-03" rms="4.2058858275413513e-01" purity="4.1057965159416199e-01" nType="-99"/>
        </Node>
        <Node pos="r" depth="1" NCoef="0" IVar="4" Cut="7.4354333496093750e+02" cType="1" res="6.0698568820953369e-02" rms="4.5650589466094971e-01" purity="6.6039246320724487e-01" nType="0">
          <Node pos="l" depth="2" NCoef="0" IVar="-1" Cut="0.0000000000000000e+00" cType="1" res="2.5517411995679140e-03" rms="4.0955010056495667e-01" purity="7.5185346603393555e-01" nType="-99"/>
          <Node pos="r" depth="2" NCoef="0" IVar="-1" Cut="0.0000000000000000e+00" cType="1" res="-9.7355555044487119e-04" rms="4.7981274127960205e-01" purity="5.5597519874572754e-01" nType="-99"/>
        </Node>
      </Node>
    </BinaryTree>
    <BinaryTree type="DecisionTree" boostWeight="1.0000000000000000e+00" itree="828">
      <Node pos="s" depth="0" NCoef="0" IVar="1" Cut="1.6337294578552246e+00" cType="1" res="3.4361883997917175e-02" rms="4.3641120195388794e-01" purity="5.3728377819061279e-01" nType="0">
        <Node pos="l" depth="1" NCoef="0" IVar="1" Cut="9.5100671052932739e-01" cType="1" res="4.2099148035049438e-02" rms="4.4363263249397278e-01" purity="5.6866699457168579e-01" nType="0">
          <Node pos="l" depth="2" NCoef="0" IVar="-1" Cut="0.0000000000000000e+00" cType="1" res="3.0919938581064343e-04" rms="4.2851999402046204e-01" purity="5.9922891855239868e-01" nType="-99"/>
          <Node pos="r" depth="2" NCoef="0" IVar="-1" Cut="0.0000000000000000e+00" cType="1" res="1.3401673641055822e-03" rms="4.6300473809242249e-01" purity="5.2285808324813843e-01" nType="-99"/>
        </Node>
        <Node pos="r" depth="1" NCoef="0" IVar="-1" Cut="0.0000000000000000e+00" cType="1" res="-1.3900030171498656e-03" rms="3.2525449991226196e-01" purity="1.6443394124507904e-01" nType="-99"/>
      </Node>
    </BinaryTree>
    <BinaryTree type="DecisionTree" boostWeight="1.0000000000000000e+00" itree="829">
      <Node pos="s" depth="0" NCoef="0" IVar="6" Cut="1.1608102321624756e+00" cType="1" res="1.5870204195380211e-02" rms="4.3345439434051514e-01" purity="5.1606416702270508e-01" nType="0">
        <Node pos="l" depth="1" NCoef="0" IVar="6" Cut="2.8250446915626526e-01" cType="1" res="2.4463826790452003e-02" rms="4.3658855557441711e-01" purity="5.3202456235885620e-01" nType="0">
          <Node pos="l" depth="2" NCoef="0" IVar="-1" Cut="0.0000000000000000e+00" cType="1" res="-1.7880242085084319e-03" rms="4.4032984972000122e-01" purity="4.9622401595115662e-01" nType="-99"/>
          <Node pos="r" depth="2" NCoef="0" IVar="-1" Cut="0.0000000000000000e+00" cType="1" res="6.0456560458987951e-04" rms="4.3488776683807373e-01" purity="5.3482872247695923e-01" nType="-99"/>
        </Node>
        <Node pos="r" depth="1" NCoef="0" IVar="-1" Cut="0.0000000000000000e+00" cType="1" res="-2.2353332024067640e-03" rms="3.5458323359489441e-01" purity="2.6554986834526062e-01" nType="-99"/>
      </Node>
    </BinaryTree>
    <BinaryTree type="DecisionTree" boostWeight="1.0000000000000000e+00" itree="830">
      <Node pos="s" depth="0" NCoef="0" IVar="4" Cut="3.0814672851562500e+02" cType="1" res="-2.0190710201859474e-02" rms="4.4595777988433838e-01" purity="4.9318131804466248e-01" nType="0">
        <Node pos="l" depth="1" NCoef="0" IVar="-1" Cut="0.0000000000000000e+00" cType="1" res="-2.9936796054244041e-03" rms="3.5854503512382507e-01" purity="1.6105733811855316e-01" nType="-99"/>
        <Node pos="r" depth="1" NCoef="0" IVar="5" Cut="9.2762275695800781e+01" cType="1" res="-1.3314246200025082e-02" rms="4.4967973232269287e-01" purity="5.1290804147720337e-01" nType="0">
          <Node pos="l" depth="2" NCoef="0" IVar="-1" Cut="0.0000000000000000e+00" cType="1" res="7.5970200123265386e-04" rms="4.3574124574661255e-01" purity="5.1836162805557251e-01" nType="-99"/>
          <Node pos="r" depth="2" NCoef="0" IVar="-1" Cut="0.0000000000000000e+00" cType="1" res="-5.0297990674152970e-04" rms="4.5215389132499695e-01" purity="5.1143586635589600e-01" nType="-99"/>
        </Node>
      </Node>
    </BinaryTree>
    <BinaryTree type="DecisionTree" boostWeight="1.0000000000000000e+00" itree="831">
      <Node pos="s" depth="0" NCoef="0" IVar="1" Cut="8.1774717569351196e-01" cType="1" res="2.7034768834710121e-02" rms="4.3699949979782104e-01" purity="5.2891504764556885e-01" nType="0">
        <Node pos="l" depth="1" NCoef="0" IVar="2" Cut="9.6480351686477661e-01" cType="1" res="6.2173016369342804e-02" rms="4.3616232275962830e-01" purity="6.4799940586090088e-01" nType="0">
          <Node pos="l" depth="2" NCoef="0" IVar="-1" Cut="0.0000000000000000e+00" cType="1" res="1.3424828648567200e-03" rms="4.4764193892478943e-01" purity="5.9719717502593994e-01" nType="-99"/>
          <Node pos="r" depth="2" NCoef="0" IVar="-1" Cut="0.0000000000000000e+00" cType="1" res="-1.5294738113880157e-04" rms="3.9390841126441956e-01" purity="7.9131591320037842e-01" nType="-99"/>
        </Node>
        <Node pos="r" depth="1" NCoef="0" IVar="4" Cut="5.9471514892578125e+02" cType="1" res="2.6250670198351145e-03" rms="4.3591606616973877e-01" purity="4.4618993997573853e-01" nType="0">
          <Node pos="l" depth="2" NCoef="0" IVar="-1" Cut="0.0000000000000000e+00" cType="1" res="-3.1021283939480782e-04" rms="4.3261724710464478e-01" purity="4.1532096266746521e-01" nType="-99"/>
          <Node pos="r" depth="2" NCoef="0" IVar="-1" Cut="0.0000000000000000e+00" cType="1" res="1.7509310273453593e-03" rms="4.3891334533691406e-01" purity="6.1113148927688599e-01" nType="-99"/>
        </Node>
      </Node>
    </BinaryTree>
    <BinaryTree type="DecisionTree" boostWeight="1.0000000000000000e+00" itree="832">
      <Node pos="s" depth="0" NCoef="0" IVar="1" Cut="4.0068241953849792e-01" cType="1" res="-7.8063420951366425e-03" rms="4.4830417633056641e-01" purity="4.9460339546203613e-01" nType="0">
        <Node pos="l" depth="1" NCoef="0" IVar="-1" Cut="0.0000000000000000e+00" cType="1" res="2.5364293251186609e-03" rms="3.7847825884819031e-01" purity="7.8327929973602295e-01" nType="-99"/>
        <Node pos="r" depth="1" NCoef="0" IVar="3" Cut="1.6571212768554688e+02" cType="1" res="-2.0033029839396477e-02" rms="4.5126947760581970e-01" purity="4.7126951813697815e-01" nType="0">
          <Node pos="l" depth="2" NCoef="0" IVar="-1" Cut="0.0000000000000000e+00" cType="1" res="9.7314664162695408e-04" rms="4.6673586964607239e-01" purity="4.8019698262214661e-01" nType="-99"/>
          <Node pos="r" depth="2" NCoef="0" IVar="-1" Cut="0.0000000000000000e+00" cType="1" res="-8.2364893751218915e-04" rms="4.4304293394088745e-01" purity="4.6827918291091919e-01" nType="-99"/>
        </Node>
      </Node>
    </BinaryTree>
    <BinaryTree type="DecisionTree" boostWeight="1.0000000000000000e+00" itree="833">
      <Node pos="s" depth="0" NCoef="0" IVar="1" Cut="1.3531198501586914e+00" cType="1" res="1.4252163469791412e-02" rms="4.4536674022674561e-01" purity="5.0661838054656982e-01" nType="0">
        <Node pos="l" depth="1" NCoef="0" IVar="5" Cut="9.6370262145996094e+01" cType="1" res="-2.6340943295508623e-03" rms="4.4483152031898499e-01" purity="5.3425610065460205e-01" nType="0">
          <Node pos="l" depth="2" NCoef="0" IVar="-1" Cut="0.0000000000000000e+00" cType="1" res="7.7599642099812627e-04" rms="4.5345911383628845e-01" purity="4.8715066909790039e-01" nType="-99"/>
          <Node pos="r" depth="2" NCoef="0" IVar="-1" Cut="0.0000000000000000e+00" cType="1" res="-3.8022536318749189e-04" rms="4.3988046050071716e-01" purity="5.5307567119598389e-01" nType="-99"/>
        </Node>
        <Node pos="r" depth="1" NCoef="0" IVar="2" Cut="9.4602340459823608e-01" cType="1" res="9.8185405135154724e-02" rms="4.3847200274467468e-01" purity="3.6924546957015991e-01" nType="0">
          <Node pos="l" depth="2" NCoef="0" IVar="-1" Cut="0.0000000000000000e+00" cType="1" res="4.0007478673942387e-04" rms="3.8565689325332642e-01" purity="1.9921118021011353e-01" nType="-99"/>
          <Node pos="r" depth="2" NCoef="0" IVar="-1" Cut="0.0000000000000000e+00" cType="1" res="3.2456677872687578e-03" rms="4.7670730948448181e-01" purity="5.8225888013839722e-01" nType="-99"/>
        </Node>
      </Node>
    </BinaryTree>
    <BinaryTree type="DecisionTree" boostWeight="1.0000000000000000e+00" itree="834">
      <Node pos="s" depth="0" NCoef="0" IVar="5" Cut="1.3888023376464844e+02" cType="1" res="-1.0069908574223518e-02" rms="4.3006426095962524e-01" purity="4.8571011424064636e-01" nType="0">
        <Node pos="l" depth="1" NCoef="0" IVar="4" Cut="4.2533633422851562e+02" cType="1" res="1.3848309405148029e-02" rms="4.2388385534286499e-01" purity="4.7290673851966858e-01" nType="0">
          <Node pos="l" depth="2" NCoef="0" IVar="-1" Cut="0.0000000000000000e+00" cType="1" res="-2.2896382142789662e-04" rms="4.3196472525596619e-01" purity="3.9375236630439758e-01" nType="-99"/>
          <Node pos="r" depth="2" NCoef="0" IVar="-1" Cut="0.0000000000000000e+00" cType="1" res="1.0881003690883517e-03" rms="4.0401428937911987e-01" purity="6.1971974372863770e-01" nType="-99"/>
        </Node>
        <Node pos="r" depth="1" NCoef="0" IVar="3" Cut="2.0820399475097656e+02" cType="1" res="-5.1727596670389175e-02" rms="4.3751069903373718e-01" purity="5.0800937414169312e-01" nType="0">
          <Node pos="l" depth="2" NCoef="0" IVar="-1" Cut="0.0000000000000000e+00" cType="1" res="-2.2605962585657835e-03" rms="4.3478149175643921e-01" purity="3.3901616930961609e-01" nType="-99"/>
          <Node pos="r" depth="2" NCoef="0" IVar="-1" Cut="0.0000000000000000e+00" cType="1" res="-3.9119535358622670e-04" rms="4.3452918529510498e-01" purity="5.7034623622894287e-01" nType="-99"/>
        </Node>
      </Node>
    </BinaryTree>
    <BinaryTree type="DecisionTree" boostWeight="1.0000000000000000e+00" itree="835">
      <Node pos="s" depth="0" NCoef="0" IVar="1" Cut="1.0679847002029419e+00" cType="1" res="-7.2348695248365402e-03" rms="4.3937575817108154e-01" purity="4.9040013551712036e-01" nType="0">
        <Node pos="l" depth="1" NCoef="0" IVar="5" Cut="9.3712821960449219e+01" cType="1" res="1.6730453819036484e-02" rms="4.4562521576881409e-01" purity="5.8689445257186890e-01" nType="0">
          <Node pos="l" depth="2" NCoef="0" IVar="-1" Cut="0.0000000000000000e+00" cType="1" res="1.3107794802635908e-03" rms="4.5107677578926086e-01" purity="5.9180498123168945e-01" nType="-99"/>
          <Node pos="r" depth="2" NCoef="0" IVar="-1" Cut="0.0000000000000000e+00" cType="1" res="-7.2277820436283946e-05" rms="4.4181165099143982e-01" purity="5.8524370193481445e-01" nType="-99"/>
        </Node>
        <Node pos="r" depth="1" NCoef="0" IVar="4" Cut="6.2911791992187500e+02" cType="1" res="-5.3693719208240509e-02" rms="4.2315173149108887e-01" purity="3.0333760380744934e-01" nType="0">
          <Node pos="l" depth="2" NCoef="0" IVar="-1" Cut="0.0000000000000000e+00" cType="1" res="-1.7264399211853743e-03" rms="4.0466263890266418e-01" purity="2.5624871253967285e-01" nType="-99"/>
          <Node pos="r" depth="2" NCoef="0" IVar="-1" Cut="0.0000000000000000e+00" cType="1" res="1.9177083158865571e-03" rms="4.7771459817886353e-01" purity="5.6528633832931519e-01" nType="-99"/>
        </Node>
      </Node>
    </BinaryTree>
    <BinaryTree type="DecisionTree" boostWeight="1.0000000000000000e+00" itree="836">
      <Node pos="s" depth="0" NCoef="0" IVar="2" Cut="9.7509497404098511e-01" cType="1" res="-2.8302486985921860e-02" rms="4.2442241311073303e-01" purity="4.7758662700653076e-01" nType="0">
        <Node pos="l" depth="1" NCoef="0" IVar="1" Cut="6.5366989374160767e-01" cType="1" res="-4.7074809670448303e-02" rms="4.3452578783035278e-01" purity="4.1646116971969604e-01" nType="0">
          <Node pos="l" depth="2" NCoef="0" IVar="-1" Cut="0.0000000000000000e+00" cType="1" res="-2.2294553928077221e-03" rms="4.2574071884155273e-01" purity="4.3013620376586914e-01" nType="-99"/>
          <Node pos="r" depth="2" NCoef="0" IVar="-1" Cut="0.0000000000000000e+00" cType="1" res="-4.1365041397511959e-04" rms="4.3430316448211670e-01" purity="4.1242143511772156e-01" nType="-99"/>
        </Node>
        <Node pos="r" depth="1" NCoef="0" IVar="4" Cut="5.0204571533203125e+02" cType="1" res="9.1247864067554474e-02" rms="3.2913640141487122e-01" purity="8.6686044931411743e-01" nType="0">
          <Node pos="l" depth="2" NCoef="0" IVar="-1" Cut="0.0000000000000000e+00" cType="1" res="2.4748938158154488e-03" rms="3.0183076858520508e-01" purity="8.7369471788406372e-01" nType="-99"/>
          <Node pos="r" depth="2" NCoef="0" IVar="-1" Cut="0.0000000000000000e+00" cType="1" res="8.8692043209448457e-04" rms="3.5183966159820557e-01" purity="8.5860639810562134e-01" nType="-99"/>
        </Node>
      </Node>
    </BinaryTree>
    <BinaryTree type="DecisionTree" boostWeight="1.0000000000000000e+00" itree="837">
      <Node pos="s" depth="0" NCoef="0" IVar="3" Cut="1.3184167480468750e+02" cType="1" res="1.6254248097538948e-02" rms="4.3338668346405029e-01" purity="5.2342915534973145e-01" nType="0">
        <Node pos="l" depth="1" NCoef="0" IVar="-1" Cut="0.0000000000000000e+00" cType="1" res="-1.7848910065367818e-03" rms="4.1807961463928223e-01" purity="3.2000115513801575e-01" nType="-99"/>
        <Node pos="r" depth="1" NCoef="0" IVar="6" Cut="1.0649155378341675e+00" cType="1" res="2.7143303304910660e-02" rms="4.3325871229171753e-01" purity="5.4289197921752930e-01" nType="0">
          <Node pos="l" depth="2" NCoef="0" IVar="-1" Cut="0.0000000000000000e+00" cType="1" res="6.4057385316118598e-04" rms="4.2945885658264160e-01" purity="5.6293863058090210e-01" nType="-99"/>
          <Node pos="r" depth="2" NCoef="0" IVar="-1" Cut="0.0000000000000000e+00" cType="1" res="-9.6114992629736662e-04" rms="4.5728519558906555e-01" purity="3.6997866630554199e-01" nType="-99"/>
        </Node>
      </Node>
    </BinaryTree>
    <BinaryTree type="DecisionTree" boostWeight="1.0000000000000000e+00" itree="838">
      <Node pos="s" depth="0" NCoef="0" IVar="3" Cut="1.3459661865234375e+02" cType="1" res="7.6023754663765430e-03" rms="4.4569528102874756e-01" purity="4.9634999036788940e-01" nType="0">
        <Node pos="l" depth="1" NCoef="0" IVar="6" Cut="5.7577395439147949e-01" cType="1" res="-7.1465246379375458e-02" rms="4.1272267699241638e-01" purity="3.4259250760078430e-01" nType="0">
          <Node pos="l" depth="2" NCoef="0" IVar="-1" Cut="0.0000000000000000e+00" cType="1" res="-3.4601363586261868e-04" rms="4.4101396203041077e-01" purity="4.4937032461166382e-01" nType="-99"/>
          <Node pos="r" depth="2" NCoef="0" IVar="-1" Cut="0.0000000000000000e+00" cType="1" res="-2.4830279871821404e-03" rms="3.7620669603347778e-01" purity="2.3785594105720520e-01" nType="-99"/>
        </Node>
        <Node pos="r" depth="1" NCoef="0" IVar="2" Cut="9.5379322767257690e-01" cType="1" res="1.6690792515873909e-02" rms="4.4843786954879761e-01" purity="5.1402366161346436e-01" nType="0">
          <Node pos="l" depth="2" NCoef="0" IVar="-1" Cut="0.0000000000000000e+00" cType="1" res="6.2836759025231004e-04" rms="4.4709172844886780e-01" purity="4.0870818495750427e-01" nType="-99"/>
          <Node pos="r" depth="2" NCoef="0" IVar="-1" Cut="0.0000000000000000e+00" cType="1" res="-2.4899045820347965e-04" rms="4.4889891147613525e-01" purity="6.8065357208251953e-01" nType="-99"/>
        </Node>
      </Node>
    </BinaryTree>
    <BinaryTree type="DecisionTree" boostWeight="1.0000000000000000e+00" itree="839">
      <Node pos="s" depth="0" NCoef="0" IVar="3" Cut="2.0333737182617188e+02" cType="1" res="-4.3065226636826992e-03" rms="4.4181314110755920e-01" purity="4.8595499992370605e-01" nType="0">
        <Node pos="l" depth="1" NCoef="0" IVar="5" Cut="1.1581461334228516e+02" cType="1" res="-3.4776050597429276e-02" rms="4.5231539011001587e-01" purity="4.0637114644050598e-01" nType="0">
          <Node pos="l" depth="2" NCoef="0" IVar="-1" Cut="0.0000000000000000e+00" cType="1" res="1.6536400653421879e-04" rms="4.4829693436622620e-01" purity="4.3584188818931580e-01" nType="-99"/>
          <Node pos="r" depth="2" NCoef="0" IVar="-1" Cut="0.0000000000000000e+00" cType="1" res="-1.6861680196598172e-03" rms="4.5032474398612976e-01" purity="3.6250460147857666e-01" nType="-99"/>
        </Node>
        <Node pos="r" depth="1" NCoef="0" IVar="1" Cut="1.6542845964431763e+00" cType="1" res="2.2256271913647652e-02" rms="4.3069425225257874e-01" purity="5.5533480644226074e-01" nType="0">
          <Node pos="l" depth="2" NCoef="0" IVar="-1" Cut="0.0000000000000000e+00" cType="1" res="6.5909087425097823e-04" rms="4.4194284081459045e-01" purity="6.0792130231857300e-01" nType="-99"/>
          <Node pos="r" depth="2" NCoef="0" IVar="-1" Cut="0.0000000000000000e+00" cType="1" res="-3.2462752424180508e-03" rms="2.7662783861160278e-01" purity="8.8568784296512604e-02" nType="-99"/>
        </Node>
      </Node>
    </BinaryTree>
    <BinaryTree type="DecisionTree" boostWeight="1.0000000000000000e+00" itree="840">
      <Node pos="s" depth="0" NCoef="0" IVar="3" Cut="3.6595104980468750e+02" cType="1" res="-1.2509684078395367e-02" rms="4.3969565629959106e-01" purity="4.9082788825035095e-01" nType="0">
        <Node pos="l" depth="1" NCoef="0" IVar="3" Cut="1.9806742858886719e+02" cType="1" res="-3.1639095395803452e-03" rms="4.4162100553512573e-01" purity="5.1199704408645630e-01" nType="0">
          <Node pos="l" depth="2" NCoef="0" IVar="-1" Cut="0.0000000000000000e+00" cType="1" res="-6.1666418332606554e-04" rms="4.4641613960266113e-01" purity="4.2107793688774109e-01" nType="-99"/>
          <Node pos="r" depth="2" NCoef="0" IVar="-1" Cut="0.0000000000000000e+00" cType="1" res="5.1392894238233566e-04" rms="4.3449148535728455e-01" purity="6.0178244113922119e-01" nType="-99"/>
        </Node>
        <Node pos="r" depth="1" NCoef="0" IVar="-1" Cut="0.0000000000000000e+00" cType="1" res="-1.8987919902428985e-03" rms="4.1278260946273804e-01" purity="3.0150446295738220e-01" nType="-99"/>
      </Node>
    </BinaryTree>
    <BinaryTree type="DecisionTree" boostWeight="1.0000000000000000e+00" itree="841">
      <Node pos="s" depth="0" NCoef="0" IVar="3" Cut="4.5342269897460938e+02" cType="1" res="4.3410826474428177e-03" rms="4.4278639554977417e-01" purity="5.1597076654434204e-01" nType="0">
        <Node pos="l" depth="1" NCoef="0" IVar="4" Cut="7.1123059082031250e+02" cType="1" res="1.3512847945094109e-02" rms="4.4591936469078064e-01" purity="5.3366637229919434e-01" nType="0">
          <Node pos="l" depth="2" NCoef="0" IVar="-1" Cut="0.0000000000000000e+00" cType="1" res="1.5469204299733974e-05" rms="4.4875743985176086e-01" purity="5.0719404220581055e-01" nType="-99"/>
          <Node pos="r" depth="2" NCoef="0" IVar="-1" Cut="0.0000000000000000e+00" cType="1" res="2.2272979840636253e-03" rms="4.0044665336608887e-01" purity="7.7787613868713379e-01" nType="-99"/>
        </Node>
        <Node pos="r" depth="1" NCoef="0" IVar="-1" Cut="0.0000000000000000e+00" cType="1" res="-2.6006845291703939e-03" rms="3.6418381333351135e-01" purity="2.4571160972118378e-01" nType="-99"/>
      </Node>
    </BinaryTree>
    <BinaryTree type="DecisionTree" boostWeight="1.0000000000000000e+00" itree="842">
      <Node pos="s" depth="0" NCoef="0" IVar="4" Cut="4.4471649169921875e+02" cType="1" res="-8.5978647693991661e-03" rms="4.3445289134979248e-01" purity="4.9627947807312012e-01" nType="0">
        <Node pos="l" depth="1" NCoef="0" IVar="5" Cut="1.1059529876708984e+02" cType="1" res="-3.9104975759983063e-02" rms="4.2467391490936279e-01" purity="3.9042112231254578e-01" nType="0">
          <Node pos="l" depth="2" NCoef="0" IVar="-1" Cut="0.0000000000000000e+00" cType="1" res="-2.9399871709756553e-04" rms="4.2509642243385315e-01" purity="3.9851078391075134e-01" nType="-99"/>
          <Node pos="r" depth="2" NCoef="0" IVar="-1" Cut="0.0000000000000000e+00" cType="1" res="-2.1828745957463980e-03" rms="4.1438779234886169e-01" purity="3.6414334177970886e-01" nType="-99"/>
        </Node>
        <Node pos="r" depth="1" NCoef="0" IVar="1" Cut="7.3358786106109619e-01" cType="1" res="1.7705418169498444e-02" rms="4.4102007150650024e-01" purity="5.8755069971084595e-01" nType="0">
          <Node pos="l" depth="2" NCoef="0" IVar="-1" Cut="0.0000000000000000e+00" cType="1" res="-9.6603762358427048e-04" rms="4.2240330576896667e-01" purity="5.7848137617111206e-01" nType="-99"/>
          <Node pos="r" depth="2" NCoef="0" IVar="-1" Cut="0.0000000000000000e+00" cType="1" res="1.0104755638167262e-03" rms="4.4672071933746338e-01" purity="5.9307777881622314e-01" nType="-99"/>
        </Node>
      </Node>
    </BinaryTree>
    <BinaryTree type="DecisionTree" boostWeight="1.0000000000000000e+00" itree="843">
      <Node pos="s" depth="0" NCoef="0" IVar="2" Cut="9.8066824674606323e-01" cType="1" res="1.0609980672597885e-02" rms="4.3496289849281311e-01" purity="5.0846612453460693e-01" nType="0">
        <Node pos="l" depth="1" NCoef="0" IVar="2" Cut="9.6158158779144287e-01" cType="1" res="-2.2190706804394722e-03" rms="4.4385838508605957e-01" purity="4.7292268276214600e-01" nType="0">
          <Node pos="l" depth="2" NCoef="0" IVar="-1" Cut="0.0000000000000000e+00" cType="1" res="2.2208454902283847e-04" rms="4.4313716888427734e-01" purity="4.1874256730079651e-01" nType="-99"/>
          <Node pos="r" depth="2" NCoef="0" IVar="-1" Cut="0.0000000000000000e+00" cType="1" res="-9.3429227126762271e-04" rms="4.4271937012672424e-01" purity="6.4756953716278076e-01" nType="-99"/>
        </Node>
        <Node pos="r" depth="1" NCoef="0" IVar="-1" Cut="0.0000000000000000e+00" cType="1" res="3.2691010273993015e-03" rms="2.6629474759101868e-01" purity="9.3139052391052246e-01" nType="-99"/>
      </Node>
    </BinaryTree>
    <BinaryTree type="DecisionTree" boostWeight="1.0000000000000000e+00" itree="844">
      <Node pos="s" depth="0" NCoef="0" IVar="5" Cut="1.3505383300781250e+02" cType="1" res="7.7361944131553173e-03" rms="4.3785852193832397e-01" purity="4.9540519714355469e-01" nType="0">
        <Node pos="l" depth="1" NCoef="0" IVar="2" Cut="9.1820335388183594e-01" cType="1" res="3.5760514438152313e-02" rms="4.2863455414772034e-01" purity="4.7888705134391785e-01" nType="0">
          <Node pos="l" depth="2" NCoef="0" IVar="-1" Cut="0.0000000000000000e+00" cType="1" res="-2.3505634162575006e-03" rms="2.5527173280715942e-01" purity="8.0990269780158997e-02" nType="-99"/>
          <Node pos="r" depth="2" NCoef="0" IVar="-1" Cut="0.0000000000000000e+00" cType="1" res="9.1397768119350076e-04" rms="4.4587481021881104e-01" purity="5.3765922784805298e-01" nType="-99"/>
        </Node>
        <Node pos="r" depth="1" NCoef="0" IVar="6" Cut="3.8789886236190796e-01" cType="1" res="-3.5089027136564255e-02" rms="4.4821828603744507e-01" purity="5.2064728736877441e-01" nType="0">
          <Node pos="l" depth="2" NCoef="0" IVar="-1" Cut="0.0000000000000000e+00" cType="1" res="-2.9928737785667181e-03" rms="4.4621410965919495e-01" purity="4.0444087982177734e-01" nType="-99"/>
          <Node pos="r" depth="2" NCoef="0" IVar="-1" Cut="0.0000000000000000e+00" cType="1" res="-1.0273647785652429e-04" rms="4.4379419088363647e-01" purity="5.4840439558029175e-01" nType="-99"/>
        </Node>
      </Node>
    </BinaryTree>
    <BinaryTree type="DecisionTree" boostWeight="1.0000000000000000e+00" itree="845">
      <Node pos="s" depth="0" NCoef="0" IVar="1" Cut="8.3920639753341675e-01" cType="1" res="8.1207766197621822e-04" rms="4.3784797191619873e-01" purity="4.9646735191345215e-01" nType="0">
        <Node pos="l" depth="1" NCoef="0" IVar="3" Cut="1.9461415100097656e+02" cType="1" res="4.6048067510128021e-02" rms="4.2664307355880737e-01" purity="6.3621079921722412e-01" nType="0">
          <Node pos="l" depth="2" NCoef="0" IVar="-1" Cut="0.0000000000000000e+00" cType="1" res="-1.8341474060434848e-04" rms="4.5836377143859863e-01" purity="4.7318249940872192e-01" nType="-99"/>
          <Node pos="r" depth="2" NCoef="0" IVar="-1" Cut="0.0000000000000000e+00" cType="1" res="1.8923963652923703e-03" rms="3.8050639629364014e-01" purity="8.1066077947616577e-01" nType="-99"/>
        </Node>
        <Node pos="r" depth="1" NCoef="0" IVar="5" Cut="1.8966136169433594e+02" cType="1" res="-3.4077424556016922e-02" rms="4.4315496087074280e-01" purity="3.8868632912635803e-01" nType="0">
          <Node pos="l" depth="2" NCoef="0" IVar="-1" Cut="0.0000000000000000e+00" cType="1" res="-2.5784931494854391e-04" rms="4.3589308857917786e-01" purity="3.9467349648475647e-01" nType="-99"/>
          <Node pos="r" depth="2" NCoef="0" IVar="-1" Cut="0.0000000000000000e+00" cType="1" res="-2.8542662039399147e-03" rms="4.6655511856079102e-01" purity="3.4983673691749573e-01" nType="-99"/>
        </Node>
      </Node>
    </BinaryTree>
    <BinaryTree type="DecisionTree" boostWeight="1.0000000000000000e+00" itree="846">
      <Node pos="s" depth="0" NCoef="0" IVar="1" Cut="1.5535527467727661e+00" cType="1" res="8.8651041733101010e-04" rms="4.3777126073837280e-01" purity="5.1063251495361328e-01" nType="0">
        <Node pos="l" depth="1" NCoef="0" IVar="5" Cut="1.1492157745361328e+02" cType="1" res="9.7476467490196228e-03" rms="4.4612973928451538e-01" purity="5.4651373624801636e-01" nType="0">
          <Node pos="l" depth="2" NCoef="0" IVar="-1" Cut="0.0000000000000000e+00" cType="1" res="8.1973616033792496e-04" rms="4.4854927062988281e-01" purity="5.2036720514297485e-01" nType="-99"/>
          <Node pos="r" depth="2" NCoef="0" IVar="-1" Cut="0.0000000000000000e+00" cType="1" res="-3.1923834467306733e-04" rms="4.4216412305831909e-01" purity="5.6659382581710815e-01" nType="-99"/>
        </Node>
        <Node pos="r" depth="1" NCoef="0" IVar="-1" Cut="0.0000000000000000e+00" cType="1" res="-2.1589885000139475e-03" rms="3.2867589592933655e-01" purity="1.4746567606925964e-01" nType="-99"/>
      </Node>
    </BinaryTree>
    <BinaryTree type="DecisionTree" boostWeight="1.0000000000000000e+00" itree="847">
      <Node pos="s" depth="0" NCoef="0" IVar="1" Cut="7.7165293693542480e-01" cType="1" res="2.2283868864178658e-02" rms="4.4312244653701782e-01" purity="5.2464902400970459e-01" nType="0">
        <Node pos="l" depth="1" NCoef="0" IVar="2" Cut="9.3683016300201416e-01" cType="1" res="6.3502803444862366e-02" rms="4.4710499048233032e-01" purity="6.5039128065109253e-01" nType="0">
          <Node pos="l" depth="2" NCoef="0" IVar="-1" Cut="0.0000000000000000e+00" cType="1" res="2.5226306170225143e-03" rms="4.6373701095581055e-01" purity="5.1402008533477783e-01" nType="-99"/>
          <Node pos="r" depth="2" NCoef="0" IVar="-1" Cut="0.0000000000000000e+00" cType="1" res="3.3596053253859282e-04" rms="4.3183663487434387e-01" purity="7.1670413017272949e-01" nType="-99"/>
        </Node>
        <Node pos="r" depth="1" NCoef="0" IVar="6" Cut="5.8020561933517456e-01" cType="1" res="-2.0590575877577066e-03" rms="4.3893930315971375e-01" purity="4.5038861036300659e-01" nType="0">
          <Node pos="l" depth="2" NCoef="0" IVar="-1" Cut="0.0000000000000000e+00" cType="1" res="-1.3172903563827276e-03" rms="4.4148927927017212e-01" purity="4.2833244800567627e-01" nType="-99"/>
          <Node pos="r" depth="2" NCoef="0" IVar="-1" Cut="0.0000000000000000e+00" cType="1" res="3.6829308373853564e-04" rms="4.3566620349884033e-01" purity="4.5752781629562378e-01" nType="-99"/>
        </Node>
      </Node>
    </BinaryTree>
    <BinaryTree type="DecisionTree" boostWeight="1.0000000000000000e+00" itree="848">
      <Node pos="s" depth="0" NCoef="0" IVar="2" Cut="9.5855855941772461e-01" cType="1" res="1.2058472260832787e-02" rms="4.4630229473114014e-01" purity="5.1735413074493408e-01" nType="0">
        <Node pos="l" depth="1" NCoef="0" IVar="2" Cut="9.1169238090515137e-01" cType="1" res="2.9790179803967476e-02" rms="4.4818136096000671e-01" purity="4.2378741502761841e-01" nType="0">
          <Node pos="l" depth="2" NCoef="0" IVar="-1" Cut="0.0000000000000000e+00" cType="1" res="-1.5237480401992798e-03" rms="3.3576297760009766e-01" purity="1.6362576186656952e-01" nType="-99"/>
          <Node pos="r" depth="2" NCoef="0" IVar="-1" Cut="0.0000000000000000e+00" cType="1" res="6.9619971327483654e-04" rms="4.5916286110877991e-01" purity="4.5689371228218079e-01" nType="-99"/>
        </Node>
        <Node pos="r" depth="1" NCoef="0" IVar="2" Cut="9.7571313381195068e-01" cType="1" res="-2.0278025418519974e-02" rms="4.4102329015731812e-01" purity="6.8798744678497314e-01" nType="0">
          <Node pos="l" depth="2" NCoef="0" IVar="-1" Cut="0.0000000000000000e+00" cType="1" res="-9.5721567049622536e-04" rms="4.6821844577789307e-01" purity="6.1794692277908325e-01" nType="-99"/>
          <Node pos="r" depth="2" NCoef="0" IVar="-1" Cut="0.0000000000000000e+00" cType="1" res="9.0382818598300219e-04" rms="3.7847760319709778e-01" purity="8.1575095653533936e-01" nType="-99"/>
        </Node>
      </Node>
    </BinaryTree>
    <BinaryTree type="DecisionTree" boostWeight="1.0000000000000000e+00" itree="849">
      <Node pos="s" depth="0" NCoef="0" IVar="1" Cut="8.0191415548324585e-01" cType="1" res="-9.9034951999783516e-03" rms="4.2672941088676453e-01" purity="4.8168900609016418e-01" nType="0">
        <Node pos="l" depth="1" NCoef="0" IVar="3" Cut="2.2073245239257812e+02" cType="1" res="3.4587133675813675e-02" rms="4.1898298263549805e-01" purity="6.1911278963088989e-01" nType="0">
          <Node pos="l" depth="2" NCoef="0" IVar="-1" Cut="0.0000000000000000e+00" cType="1" res="-3.1968139228411019e-04" rms="4.4526049494743347e-01" purity="4.9923956394195557e-01" nType="-99"/>
          <Node pos="r" depth="2" NCoef="0" IVar="-1" Cut="0.0000000000000000e+00" cType="1" res="2.9317082371562719e-03" rms="3.1765970587730408e-01" purity="8.9709794521331787e-01" nType="-99"/>
        </Node>
        <Node pos="r" depth="1" NCoef="0" IVar="2" Cut="9.7540009021759033e-01" cType="1" res="-3.7043787539005280e-02" rms="4.2912739515304565e-01" purity="3.9785736799240112e-01" nType="0">
          <Node pos="l" depth="2" NCoef="0" IVar="-1" Cut="0.0000000000000000e+00" cType="1" res="-9.1280398191884160e-04" rms="4.3398654460906982e-01" purity="3.5243675112724304e-01" nType="-99"/>
          <Node pos="r" depth="2" NCoef="0" IVar="-1" Cut="0.0000000000000000e+00" cType="1" res="1.9036172889173031e-03" rms="3.5062313079833984e-01" purity="8.5493630170822144e-01" nType="-99"/>
        </Node>
      </Node>
    </BinaryTree>
    <BinaryTree type="DecisionTree" boostWeight="1.0000000000000000e+00" itree="850">
      <Node pos="s" depth="0" NCoef="0" IVar="6" Cut="6.7103642225265503e-01" cType="1" res="1.3035940937697887e-02" rms="4.4486126303672791e-01" purity="5.1274663209915161e-01" nType="0">
        <Node pos="l" depth="1" NCoef="0" IVar="1" Cut="8.0191892385482788e-01" cType="1" res="-2.5311743840575218e-02" rms="4.2824774980545044e-01" purity="5.1614767313003540e-01" nType="0">
          <Node pos="l" depth="2" NCoef="0" IVar="-1" Cut="0.0000000000000000e+00" cType="1" res="2.2018674644641578e-04" rms="4.1370546817779541e-01" purity="6.0258388519287109e-01" nType="-99"/>
          <Node pos="r" depth="2" NCoef="0" IVar="-1" Cut="0.0000000000000000e+00" cType="1" res="-1.6755834221839905e-03" rms="4.4499078392982483e-01" purity="3.6585408449172974e-01" nType="-99"/>
        </Node>
        <Node pos="r" depth="1" NCoef="0" IVar="0" Cut="2.3141780090332031e+02" cType="1" res="5.5073160678148270e-02" rms="4.5871931314468384e-01" purity="5.0901818275451660e-01" nType="0">
          <Node pos="l" depth="2" NCoef="0" IVar="-1" Cut="0.0000000000000000e+00" cType="1" res="2.6162508875131607e-03" rms="4.1709202527999878e-01" purity="4.8673117160797119e-01" nType="-99"/>
          <Node pos="r" depth="2" NCoef="0" IVar="-1" Cut="0.0000000000000000e+00" cType="1" res="6.0475280042737722e-04" rms="4.6623644232749939e-01" purity="5.1453328132629395e-01" nType="-99"/>
        </Node>
      </Node>
    </BinaryTree>
    <BinaryTree type="DecisionTree" boostWeight="1.0000000000000000e+00" itree="851">
      <Node pos="s" depth="0" NCoef="0" IVar="1" Cut="1.1256020069122314e+00" cType="1" res="8.9702028781175613e-03" rms="4.3649277091026306e-01" purity="5.1458340883255005e-01" nType="0">
        <Node pos="l" depth="1" NCoef="0" IVar="2" Cut="9.2238867282867432e-01" cType="1" res="2.7869174256920815e-02" rms="4.4025567173957825e-01" purity="6.0299313068389893e-01" nType="0">
          <Node pos="l" depth="2" NCoef="0" IVar="-1" Cut="0.0000000000000000e+00" cType="1" res="2.4849153123795986e-03" rms="4.6511146426200867e-01" purity="4.3404707312583923e-01" nType="-99"/>
          <Node pos="r" depth="2" NCoef="0" IVar="-1" Cut="0.0000000000000000e+00" cType="1" res="1.7709071107674390e-04" rms="4.3353521823883057e-01" purity="6.3054293394088745e-01" nType="-99"/>
        </Node>
        <Node pos="r" depth="1" NCoef="0" IVar="4" Cut="5.7687322998046875e+02" cType="1" res="-3.6876294761896133e-02" rms="4.2373853921890259e-01" purity="3.0011257529258728e-01" nType="0">
          <Node pos="l" depth="2" NCoef="0" IVar="-1" Cut="0.0000000000000000e+00" cType="1" res="-1.2818842660635710e-03" rms="4.0841588377952576e-01" purity="2.6248568296432495e-01" nType="-99"/>
          <Node pos="r" depth="2" NCoef="0" IVar="-1" Cut="0.0000000000000000e+00" cType="1" res="1.3904249062761664e-03" rms="4.6721640229225159e-01" purity="4.6399968862533569e-01" nType="-99"/>
        </Node>
      </Node>
    </BinaryTree>
    <BinaryTree type="DecisionTree" boostWeight="1.0000000000000000e+00" itree="852">
      <Node pos="s" depth="0" NCoef="0" IVar="5" Cut="1.4301843261718750e+02" cType="1" res="6.5970709547400475e-03" rms="4.3528831005096436e-01" purity="5.0903481245040894e-01" nType="0">
        <Node pos="l" depth="1" NCoef="0" IVar="2" Cut="9.5802474021911621e-01" cType="1" res="2.6040278375148773e-02" rms="4.2700791358947754e-01" purity="4.9962589144706726e-01" nType="0">
          <Node pos="l" depth="2" NCoef="0" IVar="-1" Cut="0.0000000000000000e+00" cType="1" res="-1.9291104763397016e-05" rms="4.4001320004463196e-01" purity="3.5184994339942932e-01" nType="-99"/>
          <Node pos="r" depth="2" NCoef="0" IVar="-1" Cut="0.0000000000000000e+00" cType="1" res="1.3351358938962221e-03" rms="3.9721560478210449e-01" purity="7.7124321460723877e-01" nType="-99"/>
        </Node>
        <Node pos="r" depth="1" NCoef="0" IVar="4" Cut="5.0074240112304688e+02" cType="1" res="-2.9357746243476868e-02" rms="4.4798198342323303e-01" purity="5.2643382549285889e-01" nType="0">
          <Node pos="l" depth="2" NCoef="0" IVar="-1" Cut="0.0000000000000000e+00" cType="1" res="-2.6146909222006798e-03" rms="4.1454920172691345e-01" purity="3.3840149641036987e-01" nType="-99"/>
          <Node pos="r" depth="2" NCoef="0" IVar="-1" Cut="0.0000000000000000e+00" cType="1" res="3.2822886169014964e-06" rms="4.5201709866523743e-01" purity="5.7698005437850952e-01" nType="-99"/>
        </Node>
      </Node>
    </BinaryTree>
    <BinaryTree type="DecisionTree" boostWeight="1.0000000000000000e+00" itree="853">
      <Node pos="s" depth="0" NCoef="0" IVar="1" Cut="1.6034473180770874e+00" cType="1" res="1.2758269906044006e-02" rms="4.4835209846496582e-01" purity="5.1230359077453613e-01" nType="0">
        <Node pos="l" depth="1" NCoef="0" IVar="1" Cut="6.0745275020599365e-01" cType="1" res="4.0968004614114761e-03" rms="4.5020976662635803e-01" purity="5.3180384635925293e-01" nType="0">
          <Node pos="l" depth="2" NCoef="0" IVar="-1" Cut="0.0000000000000000e+00" cType="1" res="1.0242994176223874e-03" rms="4.1738837957382202e-01" purity="6.7983901500701904e-01" nType="-99"/>
          <Node pos="r" depth="2" NCoef="0" IVar="-1" Cut="0.0000000000000000e+00" cType="1" res="-2.0619262068066746e-04" rms="4.5814433693885803e-01" purity="4.8854812979698181e-01" nType="-99"/>
        </Node>
        <Node pos="r" depth="1" NCoef="0" IVar="-1" Cut="0.0000000000000000e+00" cType="1" res="2.3417170159518719e-03" rms="4.2030268907546997e-01" purity="3.2079681754112244e-01" nType="-99"/>
      </Node>
    </BinaryTree>
    <BinaryTree type="DecisionTree" boostWeight="1.0000000000000000e+00" itree="854">
      <Node pos="s" depth="0" NCoef="0" IVar="1" Cut="1.7213929891586304e+00" cType="1" res="8.6144665256142616e-03" rms="4.4145900011062622e-01" purity="5.0437575578689575e-01" nType="0">
        <Node pos="l" depth="1" NCoef="0" IVar="6" Cut="6.8836963176727295e-01" cType="1" res="1.5478728339076042e-02" rms="4.4779470562934875e-01" purity="5.2723330259323120e-01" nType="0">
          <Node pos="l" depth="2" NCoef="0" IVar="-1" Cut="0.0000000000000000e+00" cType="1" res="-2.0004890393465757e-04" rms="4.3840029835700989e-01" purity="5.3245896100997925e-01" nType="-99"/>
          <Node pos="r" depth="2" NCoef="0" IVar="-1" Cut="0.0000000000000000e+00" cType="1" res="8.3288445603102446e-04" rms="4.5707273483276367e-01" purity="5.2067345380783081e-01" nType="-99"/>
        </Node>
        <Node pos="r" depth="1" NCoef="0" IVar="-1" Cut="0.0000000000000000e+00" cType="1" res="-3.4158199559897184e-03" rms="2.7524489164352417e-01" purity="8.7992176413536072e-02" nType="-99"/>
      </Node>
    </BinaryTree>
    <BinaryTree type="DecisionTree" boostWeight="1.0000000000000000e+00" itree="855">
      <Node pos="s" depth="0" NCoef="0" IVar="5" Cut="2.0074967956542969e+02" cType="1" res="3.2997302711009979e-02" rms="4.4732487201690674e-01" purity="5.2332711219787598e-01" nType="0">
        <Node pos="l" depth="1" NCoef="0" IVar="4" Cut="6.2556756591796875e+02" cType="1" res="4.5834273099899292e-02" rms="4.4568160176277161e-01" purity="5.1911425590515137e-01" nType="0">
          <Node pos="l" depth="2" NCoef="0" IVar="-1" Cut="0.0000000000000000e+00" cType="1" res="6.2315375544130802e-04" rms="4.4876810908317566e-01" purity="4.9782648682594299e-01" nType="-99"/>
          <Node pos="r" depth="2" NCoef="0" IVar="-1" Cut="0.0000000000000000e+00" cType="1" res="2.9805658850818872e-03" rms="3.8279601931571960e-01" purity="7.7386921644210815e-01" nType="-99"/>
        </Node>
        <Node pos="r" depth="1" NCoef="0" IVar="1" Cut="9.1812163591384888e-01" cType="1" res="-4.7757852822542191e-02" rms="4.4919157028198242e-01" purity="5.4982942342758179e-01" nType="0">
          <Node pos="l" depth="2" NCoef="0" IVar="-1" Cut="0.0000000000000000e+00" cType="1" res="-1.1274698772467673e-04" rms="4.3537491559982300e-01" purity="6.6900140047073364e-01" nType="-99"/>
          <Node pos="r" depth="2" NCoef="0" IVar="-1" Cut="0.0000000000000000e+00" cType="1" res="-2.1249162964522839e-03" rms="4.6253037452697754e-01" purity="3.6413979530334473e-01" nType="-99"/>
        </Node>
      </Node>
    </BinaryTree>
    <BinaryTree type="DecisionTree" boostWeight="1.0000000000000000e+00" itree="856">
      <Node pos="s" depth="0" NCoef="0" IVar="0" Cut="2.0940931701660156e+02" cType="1" res="4.5012342743575573e-03" rms="4.3361851572990417e-01" purity="5.0773763656616211e-01" nType="0">
        <Node pos="l" depth="1" NCoef="0" IVar="-1" Cut="0.0000000000000000e+00" cType="1" res="-3.6540997680276632e-03" rms="2.9454815387725830e-01" purity="1.3626177608966827e-01" nType="-99"/>
        <Node pos="r" depth="1" NCoef="0" IVar="6" Cut="3.7180605530738831e-01" cType="1" res="1.8435057252645493e-02" rms="4.3984809517860413e-01" purity="5.3734576702117920e-01" nType="0">
          <Node pos="l" depth="2" NCoef="0" IVar="-1" Cut="0.0000000000000000e+00" cType="1" res="-1.0414262069389224e-03" rms="4.4525581598281860e-01" purity="5.4722809791564941e-01" nType="-99"/>
          <Node pos="r" depth="2" NCoef="0" IVar="-1" Cut="0.0000000000000000e+00" cType="1" res="5.5940786842256784e-04" rms="4.3748393654823303e-01" purity="5.3562104701995850e-01" nType="-99"/>
        </Node>
      </Node>
    </BinaryTree>
    <BinaryTree type="DecisionTree" boostWeight="1.0000000000000000e+00" itree="857">
      <Node pos="s" depth="0" NCoef="0" IVar="1" Cut="6.9564235210418701e-01" cType="1" res="-1.0621509281918406e-03" rms="4.2883041501045227e-01" purity="4.9635103344917297e-01" nType="0">
        <Node pos="l" depth="1" NCoef="0" IVar="3" Cut="2.3686634826660156e+02" cType="1" res="6.2590472400188446e-02" rms="4.2472296953201294e-01" purity="6.4922469854354858e-01" nType="0">
          <Node pos="l" depth="2" NCoef="0" IVar="-1" Cut="0.0000000000000000e+00" cType="1" res="6.2927952967584133e-04" rms="4.4745975732803345e-01" purity="5.8266490697860718e-01" nType="-99"/>
          <Node pos="r" depth="2" NCoef="0" IVar="-1" Cut="0.0000000000000000e+00" cType="1" res="2.9133234638720751e-03" rms="3.1320554018020630e-01" purity="8.9072859287261963e-01" nType="-99"/>
        </Node>
        <Node pos="r" depth="1" NCoef="0" IVar="2" Cut="9.7462713718414307e-01" cType="1" res="-2.9882647097110748e-02" rms="4.2757198214530945e-01" purity="4.2713323235511780e-01" nType="0">
          <Node pos="l" depth="2" NCoef="0" IVar="-1" Cut="0.0000000000000000e+00" cType="1" res="-7.1775738615542650e-04" rms="4.3299922347068787e-01" purity="3.8245660066604614e-01" nType="-99"/>
          <Node pos="r" depth="2" NCoef="0" IVar="-1" Cut="0.0000000000000000e+00" cType="1" res="9.6024567028507590e-04" rms="3.7093898653984070e-01" purity="7.9368537664413452e-01" nType="-99"/>
        </Node>
      </Node>
    </BinaryTree>
    <BinaryTree type="DecisionTree" boostWeight="1.0000000000000000e+00" itree="858">
      <Node pos="s" depth="0" NCoef="0" IVar="6" Cut="9.8257750272750854e-01" cType="1" res="2.8201055247336626e-03" rms="4.3813428282737732e-01" purity="4.9670559167861938e-01" nType="0">
        <Node pos="l" depth="1" NCoef="0" IVar="5" Cut="1.0133084869384766e+02" cType="1" res="1.3356816954910755e-02" rms="4.3875151872634888e-01" purity="5.2727425098419189e-01" nType="0">
          <Node pos="l" depth="2" NCoef="0" IVar="-1" Cut="0.0000000000000000e+00" cType="1" res="6.9475936470553279e-04" rms="4.4567474722862244e-01" purity="4.8322769999504089e-01" nType="-99"/>
          <Node pos="r" depth="2" NCoef="0" IVar="-1" Cut="0.0000000000000000e+00" cType="1" res="-7.1354525061906315e-06" rms="4.3426081538200378e-01" purity="5.5164742469787598e-01" nType="-99"/>
        </Node>
        <Node pos="r" depth="1" NCoef="0" IVar="0" Cut="3.3312417602539062e+02" cType="1" res="-5.6174322962760925e-02" rms="4.2991778254508972e-01" purity="3.2555377483367920e-01" nType="0">
          <Node pos="l" depth="2" NCoef="0" IVar="-1" Cut="0.0000000000000000e+00" cType="1" res="-2.5684616412036121e-04" rms="4.0761631727218628e-01" purity="3.2893243432044983e-01" nType="-99"/>
          <Node pos="r" depth="2" NCoef="0" IVar="-1" Cut="0.0000000000000000e+00" cType="1" res="-2.4949973449110985e-03" rms="4.5747071504592896e-01" purity="3.1939411163330078e-01" nType="-99"/>
        </Node>
      </Node>
    </BinaryTree>
    <BinaryTree type="DecisionTree" boostWeight="1.0000000000000000e+00" itree="859">
      <Node pos="s" depth="0" NCoef="0" IVar="1" Cut="1.7633244991302490e+00" cType="1" res="1.1918295174837112e-02" rms="4.4247603416442871e-01" purity="5.0257295370101929e-01" nType="0">
        <Node pos="l" depth="1" NCoef="0" IVar="1" Cut="1.5545697212219238e+00" cType="1" res="1.9096361473202705e-02" rms="4.4914501905441284e-01" purity="5.2547538280487061e-01" nType="0">
          <Node pos="l" depth="2" NCoef="0" IVar="-1" Cut="0.0000000000000000e+00" cType="1" res="1.5754267224110663e-04" rms="4.4590771198272705e-01" purity="5.3089177608489990e-01" nType="-99"/>
          <Node pos="r" depth="2" NCoef="0" IVar="-1" Cut="0.0000000000000000e+00" cType="1" res="3.5695577971637249e-03" rms="4.6999201178550720e-01" purity="4.4065278768539429e-01" nType="-99"/>
        </Node>
        <Node pos="r" depth="1" NCoef="0" IVar="-1" Cut="0.0000000000000000e+00" cType="1" res="-3.4363847225904465e-03" rms="2.5576475262641907e-01" purity="7.3736898601055145e-02" nType="-99"/>
      </Node>
    </BinaryTree>
    <BinaryTree type="DecisionTree" boostWeight="1.0000000000000000e+00" itree="860">
      <Node pos="s" depth="0" NCoef="0" IVar="4" Cut="3.9534414672851562e+02" cType="1" res="1.3205886818468571e-02" rms="4.3865308165550232e-01" purity="5.0458174943923950e-01" nType="0">
        <Node pos="l" depth="1" NCoef="0" IVar="5" Cut="9.4753593444824219e+01" cType="1" res="-2.4007635191082954e-02" rms="4.3651685118675232e-01" purity="3.5160881280899048e-01" nType="0">
          <Node pos="l" depth="2" NCoef="0" IVar="-1" Cut="0.0000000000000000e+00" cType="1" res="-1.4292726991698146e-03" rms="4.0433460474014282e-01" purity="2.9875665903091431e-01" nType="-99"/>
          <Node pos="r" depth="2" NCoef="0" IVar="-1" Cut="0.0000000000000000e+00" cType="1" res="1.1595055693760514e-03" rms="4.7441509366035461e-01" purity="4.4278234243392944e-01" nType="-99"/>
        </Node>
        <Node pos="r" depth="1" NCoef="0" IVar="5" Cut="9.6483230590820312e+01" cType="1" res="3.0254183337092400e-02" rms="4.3857491016387939e-01" purity="5.7466185092926025e-01" nType="0">
          <Node pos="l" depth="2" NCoef="0" IVar="-1" Cut="0.0000000000000000e+00" cType="1" res="3.0182597693055868e-03" rms="4.2945247888565063e-01" purity="7.0767259597778320e-01" nType="-99"/>
          <Node pos="r" depth="2" NCoef="0" IVar="-1" Cut="0.0000000000000000e+00" cType="1" res="2.4475497775711119e-04" rms="4.3661281466484070e-01" purity="5.5993568897247314e-01" nType="-99"/>
        </Node>
      </Node>
    </BinaryTree>
    <BinaryTree type="DecisionTree" boostWeight="1.0000000000000000e+00" itree="861">
      <Node pos="s" depth="0" NCoef="0" IVar="5" Cut="2.7303140258789062e+02" cType="1" res="-5.1657054573297501e-03" rms="4.3802899122238159e-01" purity="4.8462414741516113e-01" nType="0">
        <Node pos="l" depth="1" NCoef="0" IVar="4" Cut="3.4387286376953125e+02" cType="1" res="2.7321928646415472e-03" rms="4.3568366765975952e-01" purity="4.8843201994895935e-01" nType="0">
          <Node pos="l" depth="2" NCoef="0" IVar="-1" Cut="0.0000000000000000e+00" cType="1" res="-1.3214908540248871e-03" rms="4.0145474672317505e-01" purity="2.6281872391700745e-01" nType="-99"/>
          <Node pos="r" depth="2" NCoef="0" IVar="-1" Cut="0.0000000000000000e+00" cType="1" res="3.0829568277113140e-04" rms="4.4129270315170288e-01" purity="5.3686356544494629e-01" nType="-99"/>
        </Node>
        <Node pos="r" depth="1" NCoef="0" IVar="-1" Cut="0.0000000000000000e+00" cType="1" res="-2.2873575799167156e-03" rms="4.5570313930511475e-01" purity="4.2636767029762268e-01" nType="-99"/>
      </Node>
    </BinaryTree>
    <BinaryTree type="DecisionTree" boostWeight="1.0000000000000000e+00" itree="862">
      <Node pos="s" depth="0" NCoef="0" IVar="1" Cut="1.4795510768890381e+00" cType="1" res="9.1209830716252327e-03" rms="4.4997391104698181e-01" purity="5.0715070962905884e-01" nType="0">
        <Node pos="l" depth="1" NCoef="0" IVar="4" Cut="7.1623461914062500e+02" cType="1" res="-1.2718946672976017e-02" rms="4.4618746638298035e-01" purity="5.2029663324356079e-01" nType="0">
          <Node pos="l" depth="2" NCoef="0" IVar="-1" Cut="0.0000000000000000e+00" cType="1" res="-4.1024721576832235e-04" rms="4.4913658499717712e-01" purity="4.9857690930366516e-01" nType="-99"/>
          <Node pos="r" depth="2" NCoef="0" IVar="-1" Cut="0.0000000000000000e+00" cType="1" res="1.8492692615836859e-03" rms="3.9426764845848083e-01" purity="7.5322026014328003e-01" nType="-99"/>
        </Node>
        <Node pos="r" depth="1" NCoef="0" IVar="3" Cut="2.9527023315429688e+02" cType="1" res="1.5270678699016571e-01" rms="4.4836667180061340e-01" purity="4.2072319984436035e-01" nType="0">
          <Node pos="l" depth="2" NCoef="0" IVar="-1" Cut="0.0000000000000000e+00" cType="1" res="5.4785432294011116e-03" rms="4.8367804288864136e-01" purity="5.8060675859451294e-01" nType="-99"/>
          <Node pos="r" depth="2" NCoef="0" IVar="-1" Cut="0.0000000000000000e+00" cType="1" res="1.3787844218313694e-03" rms="3.9756932854652405e-01" purity="3.1028309464454651e-01" nType="-99"/>
        </Node>
      </Node>
    </BinaryTree>
    <BinaryTree type="DecisionTree" boostWeight="1.0000000000000000e+00" itree="863">
      <Node pos="s" depth="0" NCoef="0" IVar="1" Cut="1.4425539970397949e+00" cType="1" res="-9.9873840808868408e-03" rms="4.4640764594078064e-01" purity="4.8904532194137573e-01" nType="0">
        <Node pos="l" depth="1" NCoef="0" IVar="4" Cut="7.1238677978515625e+02" cType="1" res="-2.8526652604341507e-02" rms="4.4439134001731873e-01" purity="4.9854740500450134e-01" nType="0">
          <Node pos="l" depth="2" NCoef="0" IVar="-1" Cut="0.0000000000000000e+00" cType="1" res="-6.9146137684583664e-04" rms="4.4342240691184998e-01" purity="4.7362974286079407e-01" nType="-99"/>
          <Node pos="r" depth="2" NCoef="0" IVar="-1" Cut="0.0000000000000000e+00" cType="1" res="8.7569648167118430e-04" rms="4.4348427653312683e-01" purity="6.8961358070373535e-01" nType="-99"/>
        </Node>
        <Node pos="r" depth="1" NCoef="0" IVar="2" Cut="9.4828093051910400e-01" cType="1" res="1.2726919353008270e-01" rms="4.3725696206092834e-01" purity="4.1869640350341797e-01" nType="0">
          <Node pos="l" depth="2" NCoef="0" IVar="-1" Cut="0.0000000000000000e+00" cType="1" res="-2.7406158551457338e-05" rms="3.7569418549537659e-01" purity="1.8745626509189606e-01" nType="-99"/>
          <Node pos="r" depth="2" NCoef="0" IVar="-1" Cut="0.0000000000000000e+00" cType="1" res="3.9544361643493176e-03" rms="4.5623853802680969e-01" purity="6.3212013244628906e-01" nType="-99"/>
        </Node>
      </Node>
    </BinaryTree>
    <BinaryTree type="DecisionTree" boostWeight="1.0000000000000000e+00" itree="864">
      <Node pos="s" depth="0" NCoef="0" IVar="1" Cut="5.2355396747589111e-01" cType="1" res="9.3388836830854416e-03" rms="4.4479101896286011e-01" purity="5.0445610284805298e-01" nType="0">
        <Node pos="l" depth="1" NCoef="0" IVar="2" Cut="9.4975942373275757e-01" cType="1" res="-6.5652877092361450e-02" rms="4.2186662554740906e-01" purity="5.6481748819351196e-01" nType="0">
          <Node pos="l" depth="2" NCoef="0" IVar="-1" Cut="0.0000000000000000e+00" cType="1" res="-3.0747114215046167e-03" rms="4.0635764598846436e-01" purity="2.6196733117103577e-01" nType="-99"/>
          <Node pos="r" depth="2" NCoef="0" IVar="-1" Cut="0.0000000000000000e+00" cType="1" res="2.9543571872636676e-04" rms="4.1291651129722595e-01" purity="7.6915198564529419e-01" nType="-99"/>
        </Node>
        <Node pos="r" depth="1" NCoef="0" IVar="1" Cut="7.0816516876220703e-01" cType="1" res="2.0598480477929115e-02" rms="4.4704687595367432e-01" purity="4.9539315700531006e-01" nType="0">
          <Node pos="l" depth="2" NCoef="0" IVar="-1" Cut="0.0000000000000000e+00" cType="1" res="1.4123594155535102e-03" rms="4.3808922171592712e-01" purity="6.5302544832229614e-01" nType="-99"/>
          <Node pos="r" depth="2" NCoef="0" IVar="-1" Cut="0.0000000000000000e+00" cType="1" res="1.0236327943857759e-04" rms="4.4800558686256409e-01" purity="4.5629236102104187e-01" nType="-99"/>
        </Node>
      </Node>
    </BinaryTree>
    <BinaryTree type="DecisionTree" boostWeight="1.0000000000000000e+00" itree="865">
      <Node pos="s" depth="0" NCoef="0" IVar="1" Cut="1.5267460346221924e+00" cType="1" res="7.8546842560172081e-03" rms="4.3415072560310364e-01" purity="5.0553733110427856e-01" nType="0">
        <Node pos="l" depth="1" NCoef="0" IVar="3" Cut="1.2546311187744141e+02" cType="1" res="1.6889654099941254e-02" rms="4.4193452596664429e-01" purity="5.4477214813232422e-01" nType="0">
          <Node pos="l" depth="2" NCoef="0" IVar="-1" Cut="0.0000000000000000e+00" cType="1" res="-1.5746654244139791e-03" rms="4.5054543018341064e-01" purity="3.6813014745712280e-01" nType="-99"/>
          <Node pos="r" depth="2" NCoef="0" IVar="-1" Cut="0.0000000000000000e+00" cType="1" res="4.2552308877930045e-04" rms="4.4024494290351868e-01" purity="5.5769979953765869e-01" nType="-99"/>
        </Node>
        <Node pos="r" depth="1" NCoef="0" IVar="3" Cut="3.1358557128906250e+02" cType="1" res="-7.0001147687435150e-02" rms="3.5065504908561707e-01" purity="1.6744466125965118e-01" nType="0">
          <Node pos="l" depth="2" NCoef="0" IVar="-1" Cut="0.0000000000000000e+00" cType="1" res="-8.7540494860149920e-05" rms="4.0044897794723511e-01" purity="2.3453603684902191e-01" nType="-99"/>
          <Node pos="r" depth="2" NCoef="0" IVar="-1" Cut="0.0000000000000000e+00" cType="1" res="-3.4268980380147696e-03" rms="2.7431750297546387e-01" purity="9.8334059119224548e-02" nType="-99"/>
        </Node>
      </Node>
    </BinaryTree>
    <BinaryTree type="DecisionTree" boostWeight="1.0000000000000000e+00" itree="866">
      <Node pos="s" depth="0" NCoef="0" IVar="4" Cut="3.9630221557617188e+02" cType="1" res="-1.0123567335540429e-04" rms="4.3335387110710144e-01" purity="4.9264723062515259e-01" nType="0">
        <Node pos="l" depth="1" NCoef="0" IVar="4" Cut="3.4294589233398438e+02" cType="1" res="3.8313940167427063e-02" rms="4.4585010409355164e-01" purity="4.4434690475463867e-01" nType="0">
          <Node pos="l" depth="2" NCoef="0" IVar="-1" Cut="0.0000000000000000e+00" cType="1" res="-4.9755373038351536e-04" rms="4.4643768668174744e-01" purity="3.3681884407997131e-01" nType="-99"/>
          <Node pos="r" depth="2" NCoef="0" IVar="-1" Cut="0.0000000000000000e+00" cType="1" res="1.4374784659594297e-03" rms="4.3923076987266541e-01" purity="5.2495425939559937e-01" nType="-99"/>
        </Node>
        <Node pos="r" depth="1" NCoef="0" IVar="2" Cut="9.5246231555938721e-01" cType="1" res="-1.9318712875247002e-02" rms="4.2566633224487305e-01" purity="5.1680988073348999e-01" nType="0">
          <Node pos="l" depth="2" NCoef="0" IVar="-1" Cut="0.0000000000000000e+00" cType="1" res="-8.3169364370405674e-04" rms="4.3184432387351990e-01" purity="3.5346475243568420e-01" nType="-99"/>
          <Node pos="r" depth="2" NCoef="0" IVar="-1" Cut="0.0000000000000000e+00" cType="1" res="3.4190106089226902e-04" rms="4.1455677151679993e-01" purity="7.2527742385864258e-01" nType="-99"/>
        </Node>
      </Node>
    </BinaryTree>
    <BinaryTree type="DecisionTree" boostWeight="1.0000000000000000e+00" itree="867">
      <Node pos="s" depth="0" NCoef="0" IVar="4" Cut="7.7988208007812500e+02" cType="1" res="-3.4527316689491272e-02" rms="4.3790122866630554e-01" purity="4.6246239542961121e-01" nType="0">
        <Node pos="l" depth="1" NCoef="0" IVar="1" Cut="6.9037735462188721e-01" cType="1" res="-4.2961161583662033e-02" rms="4.3544629216194153e-01" purity="4.4573500752449036e-01" nType="0">
          <Node pos="l" depth="2" NCoef="0" IVar="-1" Cut="0.0000000000000000e+00" cType="1" res="-1.2277816131245345e-04" rms="4.4729879498481750e-01" purity="5.7891470193862915e-01" nType="-99"/>
          <Node pos="r" depth="2" NCoef="0" IVar="-1" Cut="0.0000000000000000e+00" cType="1" res="-1.0624817805364728e-03" rms="4.2980176210403442e-01" purity="3.9271563291549683e-01" nType="-99"/>
        </Node>
        <Node pos="r" depth="1" NCoef="0" IVar="-1" Cut="0.0000000000000000e+00" cType="1" res="1.2132797855883837e-03" rms="4.5455116033554077e-01" purity="6.7529636621475220e-01" nType="-99"/>
      </Node>
    </BinaryTree>
    <BinaryTree type="DecisionTree" boostWeight="1.0000000000000000e+00" itree="868">
      <Node pos="s" depth="0" NCoef="0" IVar="4" Cut="4.8677221679687500e+02" cType="1" res="-1.1595009826123714e-02" rms="4.4627630710601807e-01" purity="4.9149164557456970e-01" nType="0">
        <Node pos="l" depth="1" NCoef="0" IVar="5" Cut="6.9573898315429688e+01" cType="1" res="1.5129788778722286e-02" rms="4.3976688385009766e-01" purity="4.7361215949058533e-01" nType="0">
          <Node pos="l" depth="2" NCoef="0" IVar="-1" Cut="0.0000000000000000e+00" cType="1" res="3.0056955292820930e-03" rms="4.2655214667320251e-01" purity="5.3245609998703003e-01" nType="-99"/>
          <Node pos="r" depth="2" NCoef="0" IVar="-1" Cut="0.0000000000000000e+00" cType="1" res="2.0988605683669448e-05" rms="4.3842014670372009e-01" purity="4.6806883811950684e-01" nType="-99"/>
        </Node>
        <Node pos="r" depth="1" NCoef="0" IVar="2" Cut="9.6931481361389160e-01" cType="1" res="-5.0752274692058563e-02" rms="4.5280626416206360e-01" purity="5.1768863201141357e-01" nType="0">
          <Node pos="l" depth="2" NCoef="0" IVar="-1" Cut="0.0000000000000000e+00" cType="1" res="-2.6845690445043147e-04" rms="4.3727508187294006e-01" purity="5.0458002090454102e-01" nType="-99"/>
          <Node pos="r" depth="2" NCoef="0" IVar="-1" Cut="0.0000000000000000e+00" cType="1" res="-4.4713178649544716e-03" rms="4.8640498518943787e-01" purity="5.7258659601211548e-01" nType="-99"/>
        </Node>
      </Node>
    </BinaryTree>
    <BinaryTree type="DecisionTree" boostWeight="1.0000000000000000e+00" itree="869">
      <Node pos="s" depth="0" NCoef="0" IVar="2" Cut="9.5197546482086182e-01" cType="1" res="-8.6575318127870560e-03" rms="4.3373152613639832e-01" purity="4.9008509516716003e-01" nType="0">
        <Node pos="l" depth="1" NCoef="0" IVar="5" Cut="1.0740599822998047e+02" cType="1" res="-4.3568067252635956e-02" rms="4.3254929780960083e-01" purity="3.1549057364463806e-01" nType="0">
          <Node pos="l" depth="2" NCoef="0" IVar="-1" Cut="0.0000000000000000e+00" cType="1" res="2.0261414465494454e-04" rms="4.2635864019393921e-01" purity="3.0973622202873230e-01" nType="-99"/>
          <Node pos="r" depth="2" NCoef="0" IVar="-1" Cut="0.0000000000000000e+00" cType="1" res="-1.4281548792496324e-03" rms="4.3278604745864868e-01" purity="3.1966453790664673e-01" nType="-99"/>
        </Node>
        <Node pos="r" depth="1" NCoef="0" IVar="4" Cut="5.7200903320312500e+02" cType="1" res="3.3676851540803909e-02" rms="4.3138712644577026e-01" purity="7.0180761814117432e-01" nType="0">
          <Node pos="l" depth="2" NCoef="0" IVar="-1" Cut="0.0000000000000000e+00" cType="1" res="1.0840263712452725e-04" rms="4.5355093479156494e-01" purity="6.4403700828552246e-01" nType="-99"/>
          <Node pos="r" depth="2" NCoef="0" IVar="-1" Cut="0.0000000000000000e+00" cType="1" res="1.7891807947307825e-03" rms="3.6918103694915771e-01" purity="8.3230459690093994e-01" nType="-99"/>
        </Node>
      </Node>
    </BinaryTree>
    <BinaryTree type="DecisionTree" boostWeight="1.0000000000000000e+00" itree="870">
      <Node pos="s" depth="0" NCoef="0" IVar="6" Cut="5.5294489860534668e-01" cType="1" res="-1.5418075956404209e-02" rms="4.3362820148468018e-01" purity="4.9764642119407654e-01" nType="0">
        <Node pos="l" depth="1" NCoef="0" IVar="4" Cut="6.5329760742187500e+02" cType="1" res="3.7069976329803467e-02" rms="4.2624709010124207e-01" purity="6.1985331773757935e-01" nType="0">
          <Node pos="l" depth="2" NCoef="0" IVar="-1" Cut="0.0000000000000000e+00" cType="1" res="2.9778436874039471e-04" rms="4.4260954856872559e-01" purity="5.7275009155273438e-01" nType="-99"/>
          <Node pos="r" depth="2" NCoef="0" IVar="-1" Cut="0.0000000000000000e+00" cType="1" res="2.3533911444246769e-03" rms="3.3026382327079773e-01" purity="8.2920944690704346e-01" nType="-99"/>
        </Node>
        <Node pos="r" depth="1" NCoef="0" IVar="5" Cut="2.2224942016601562e+02" cType="1" res="-4.7002930194139481e-02" rms="4.3496805429458618e-01" purity="4.2410805821418762e-01" nType="0">
          <Node pos="l" depth="2" NCoef="0" IVar="-1" Cut="0.0000000000000000e+00" cType="1" res="-4.9633270828053355e-04" rms="4.3022853136062622e-01" purity="4.3354612588882446e-01" nType="-99"/>
          <Node pos="r" depth="2" NCoef="0" IVar="-1" Cut="0.0000000000000000e+00" cType="1" res="-4.3721669353544712e-03" rms="4.3580901622772217e-01" purity="3.3096924424171448e-01" nType="-99"/>
        </Node>
      </Node>
    </BinaryTree>
    <BinaryTree type="DecisionTree" boostWeight="1.0000000000000000e+00" itree="871">
      <Node pos="s" depth="0" NCoef="0" IVar="6" Cut="3.5981130599975586e-01" cType="1" res="-1.4472387731075287e-02" rms="4.3463149666786194e-01" purity="4.8016285896301270e-01" nType="0">
        <Node pos="l" depth="1" NCoef="0" IVar="6" Cut="2.6182666420936584e-01" cType="1" res="-1.0309798270463943e-01" rms="4.3767234683036804e-01" purity="4.6399614214897156e-01" nType="0">
          <Node pos="l" depth="2" NCoef="0" IVar="-1" Cut="0.0000000000000000e+00" cType="1" res="-3.8187007885426283e-04" rms="4.0654867887496948e-01" purity="5.7521921396255493e-01" nType="-99"/>
          <Node pos="r" depth="2" NCoef="0" IVar="-1" Cut="0.0000000000000000e+00" cType="1" res="-3.2407741528004408e-03" rms="4.5131230354309082e-01" purity="3.6380356550216675e-01" nType="-99"/>
        </Node>
        <Node pos="r" depth="1" NCoef="0" IVar="1" Cut="6.7930901050567627e-01" cType="1" res="2.7654948644340038e-03" rms="4.3193027377128601e-01" purity="4.8330733180046082e-01" nType="0">
          <Node pos="l" depth="2" NCoef="0" IVar="-1" Cut="0.0000000000000000e+00" cType="1" res="1.2175564188510180e-03" rms="4.1952612996101379e-01" purity="6.4439237117767334e-01" nType="-99"/>
          <Node pos="r" depth="2" NCoef="0" IVar="-1" Cut="0.0000000000000000e+00" cType="1" res="-2.4888792540878057e-04" rms="4.3328791856765747e-01" purity="4.4413155317306519e-01" nType="-99"/>
        </Node>
      </Node>
    </BinaryTree>
    <BinaryTree type="DecisionTree" boostWeight="1.0000000000000000e+00" itree="872">
      <Node pos="s" depth="0" NCoef="0" IVar="3" Cut="2.1293659973144531e+02" cType="1" res="-3.8731789682060480e-03" rms="4.3589872121810913e-01" purity="4.9417078495025635e-01" nType="0">
        <Node pos="l" depth="1" NCoef="0" IVar="4" Cut="4.7274468994140625e+02" cType="1" res="-3.6307919770479202e-02" rms="4.4302996993064880e-01" purity="4.2762240767478943e-01" nType="0">
          <Node pos="l" depth="2" NCoef="0" IVar="-1" Cut="0.0000000000000000e+00" cType="1" res="5.0647082389332354e-05" rms="4.4470909237861633e-01" purity="4.4272243976593018e-01" nType="-99"/>
          <Node pos="r" depth="2" NCoef="0" IVar="-1" Cut="0.0000000000000000e+00" cType="1" res="-2.6145938318222761e-03" rms="4.1774901747703552e-01" purity="3.8374984264373779e-01" nType="-99"/>
        </Node>
        <Node pos="r" depth="1" NCoef="0" IVar="6" Cut="9.6121233701705933e-01" cType="1" res="2.8840204700827599e-02" rms="4.2609241604804993e-01" purity="5.6129097938537598e-01" nType="0">
          <Node pos="l" depth="2" NCoef="0" IVar="-1" Cut="0.0000000000000000e+00" cType="1" res="8.7465345859527588e-04" rms="4.2513498663902283e-01" purity="6.2399154901504517e-01" nType="-99"/>
          <Node pos="r" depth="2" NCoef="0" IVar="-1" Cut="0.0000000000000000e+00" cType="1" res="-1.1247089132666588e-03" rms="4.1926267743110657e-01" purity="2.9799154400825500e-01" nType="-99"/>
        </Node>
      </Node>
    </BinaryTree>
    <BinaryTree type="DecisionTree" boostWeight="1.0000000000000000e+00" itree="873">
      <Node pos="s" depth="0" NCoef="0" IVar="5" Cut="1.1755694580078125e+02" cType="1" res="1.9023321568965912e-02" rms="4.3303167819976807e-01" purity="5.2118086814880371e-01" nType="0">
        <Node pos="l" depth="1" NCoef="0" IVar="4" Cut="3.5167968750000000e+02" cType="1" res="5.7983141392469406e-02" rms="4.2857542634010315e-01" purity="5.0233376026153564e-01" nType="0">
          <Node pos="l" depth="2" NCoef="0" IVar="-1" Cut="0.0000000000000000e+00" cType="1" res="5.2352112106746063e-05" rms="4.2625558376312256e-01" purity="3.4086975455284119e-01" nType="-99"/>
          <Node pos="r" depth="2" NCoef="0" IVar="-1" Cut="0.0000000000000000e+00" cType="1" res="1.5581583138555288e-03" rms="4.2652896046638489e-01" purity="5.9925836324691772e-01" nType="-99"/>
        </Node>
        <Node pos="r" depth="1" NCoef="0" IVar="4" Cut="6.0813922119140625e+02" cType="1" res="-1.7349895089864731e-02" rms="4.3400567770004272e-01" purity="5.3877669572830200e-01" nType="0">
          <Node pos="l" depth="2" NCoef="0" IVar="-1" Cut="0.0000000000000000e+00" cType="1" res="-8.7636423995718360e-04" rms="4.2548254132270813e-01" purity="4.8750218749046326e-01" nType="-99"/>
          <Node pos="r" depth="2" NCoef="0" IVar="-1" Cut="0.0000000000000000e+00" cType="1" res="5.7630351511761546e-04" rms="4.4299647212028503e-01" purity="6.2306451797485352e-01" nType="-99"/>
        </Node>
      </Node>
    </BinaryTree>
    <BinaryTree type="DecisionTree" boostWeight="1.0000000000000000e+00" itree="874">
      <Node pos="s" depth="0" NCoef="0" IVar="2" Cut="9.8145169019699097e-01" cType="1" res="-1.6632236540317535e-02" rms="4.2304292321205139e-01" purity="4.8922443389892578e-01" nType="0">
        <Node pos="l" depth="1" NCoef="0" IVar="4" Cut="4.4084439086914062e+02" cType="1" res="-2.9261175543069839e-02" rms="4.3160742521286011e-01" purity="4.5093274116516113e-01" nType="0">
          <Node pos="l" depth="2" NCoef="0" IVar="-1" Cut="0.0000000000000000e+00" cType="1" res="-1.1961034033447504e-03" rms="4.1693484783172607e-01" purity="3.3272153139114380e-01" nType="-99"/>
          <Node pos="r" depth="2" NCoef="0" IVar="-1" Cut="0.0000000000000000e+00" cType="1" res="2.0557541574817151e-05" rms="4.4190043210983276e-01" purity="5.5509006977081299e-01" nType="-99"/>
        </Node>
        <Node pos="r" depth="1" NCoef="0" IVar="-1" Cut="0.0000000000000000e+00" cType="1" res="2.7327556163072586e-03" rms="2.7406823635101318e-01" purity="9.1836571693420410e-01" nType="-99"/>
      </Node>
    </BinaryTree>
    <BinaryTree type="DecisionTree" boostWeight="1.0000000000000000e+00" itree="875">
      <Node pos="s" depth="0" NCoef="0" IVar="3" Cut="1.3459661865234375e+02" cType="1" res="6.5589542500674725e-03" rms="4.3596258759498596e-01" purity="5.1413154602050781e-01" nType="0">
        <Node pos="l" depth="1" NCoef="0" IVar="-1" Cut="0.0000000000000000e+00" cType="1" res="-2.2731141652911901e-03" rms="4.0320378541946411e-01" purity="2.7041158080101013e-01" nType="-99"/>
        <Node pos="r" depth="1" NCoef="0" IVar="5" Cut="2.8278137207031250e+02" cType="1" res="1.9553134217858315e-02" rms="4.3708866834640503e-01" purity="5.3900974988937378e-01" nType="0">
          <Node pos="l" depth="2" NCoef="0" IVar="-1" Cut="0.0000000000000000e+00" cType="1" res="4.9711734754964709e-04" rms="4.3524414300918579e-01" purity="5.4212582111358643e-01" nType="-99"/>
          <Node pos="r" depth="2" NCoef="0" IVar="-1" Cut="0.0000000000000000e+00" cType="1" res="-1.9202140392735600e-03" rms="4.4592121243476868e-01" purity="4.9124777317047119e-01" nType="-99"/>
        </Node>
      </Node>
    </BinaryTree>
    <BinaryTree type="DecisionTree" boostWeight="1.0000000000000000e+00" itree="876">
      <Node pos="s" depth="0" NCoef="0" IVar="4" Cut="6.3678222656250000e+02" cType="1" res="3.5022087395191193e-03" rms="4.3852540850639343e-01" purity="5.1619553565979004e-01" nType="0">
        <Node pos="l" depth="1" NCoef="0" IVar="1" Cut="1.4151207208633423e+00" cType="1" res="-8.6824679747223854e-03" rms="4.3516406416893005e-01" purity="4.8870211839675903e-01" nType="0">
          <Node pos="l" depth="2" NCoef="0" IVar="-1" Cut="0.0000000000000000e+00" cType="1" res="9.0420999185880646e-06" rms="4.4609874486923218e-01" purity="5.3443819284439087e-01" nType="-99"/>
          <Node pos="r" depth="2" NCoef="0" IVar="-1" Cut="0.0000000000000000e+00" cType="1" res="-1.7547371098771691e-03" rms="3.4342131018638611e-01" purity="1.7173691093921661e-01" nType="-99"/>
        </Node>
        <Node pos="r" depth="1" NCoef="0" IVar="1" Cut="7.0426714420318604e-01" cType="1" res="6.8901434540748596e-02" rms="4.5054763555526733e-01" purity="6.6376185417175293e-01" nType="0">
          <Node pos="l" depth="2" NCoef="0" IVar="-1" Cut="0.0000000000000000e+00" cType="1" res="-9.4973569503054023e-04" rms="4.4332036375999451e-01" purity="6.4092206954956055e-01" nType="-99"/>
          <Node pos="r" depth="2" NCoef="0" IVar="-1" Cut="0.0000000000000000e+00" cType="1" res="2.2433160338550806e-03" rms="4.3920758366584778e-01" purity="6.7719393968582153e-01" nType="-99"/>
        </Node>
      </Node>
    </BinaryTree>
    <BinaryTree type="DecisionTree" boostWeight="1.0000000000000000e+00" itree="877">
      <Node pos="s" depth="0" NCoef="0" IVar="6" Cut="7.1845072507858276e-01" cType="1" res="-8.1082005053758621e-03" rms="4.3912127614021301e-01" purity="4.8740306496620178e-01" nType="0">
        <Node pos="l" depth="1" NCoef="0" IVar="0" Cut="4.9163708496093750e+02" cType="1" res="-3.0944110825657845e-02" rms="4.3006116151809692e-01" purity="5.0125771760940552e-01" nType="0">
          <Node pos="l" depth="2" NCoef="0" IVar="-1" Cut="0.0000000000000000e+00" cType="1" res="-7.6099700527265668e-04" rms="4.2694950103759766e-01" purity="4.7634568810462952e-01" nType="-99"/>
          <Node pos="r" depth="2" NCoef="0" IVar="-1" Cut="0.0000000000000000e+00" cType="1" res="9.8509876988828182e-04" rms="4.4288873672485352e-01" purity="6.8764024972915649e-01" nType="-99"/>
        </Node>
        <Node pos="r" depth="1" NCoef="0" IVar="6" Cut="1.1929388046264648e+00" cType="1" res="2.3402549326419830e-02" rms="4.4942334294319153e-01" purity="4.6828538179397583e-01" nType="0">
          <Node pos="l" depth="2" NCoef="0" IVar="-1" Cut="0.0000000000000000e+00" cType="1" res="7.2637631092220545e-04" rms="4.5114615559577942e-01" purity="4.9657040834426880e-01" nType="-99"/>
          <Node pos="r" depth="2" NCoef="0" IVar="-1" Cut="0.0000000000000000e+00" cType="1" res="-1.9534910097718239e-03" rms="4.1700881719589233e-01" purity="2.6574751734733582e-01" nType="-99"/>
        </Node>
      </Node>
    </BinaryTree>
  </Weights>
</MethodSetup>
