<?xml version="1.0"?>
<MethodSetup Method="BDT::k3001">
  <GeneralInfo>
    <Info name="TMVA Release" value="4.2.1 [262657]"/>
    <Info name="ROOT Release" value="6.06/01 [394753]"/>
    <Info name="Creator" value="chrisjcc"/>
    <Info name="Date" value="Tue Mar 14 01:21:01 2017"/>
    <Info name="Host" value="Linux vocms0301.cern.ch 2.6.32-642.11.1.el6.x86_64 #1 SMP Wed Nov 16 09:40:09 CET 2016 x86_64 x86_64 x86_64 GNU/Linux"/>
    <Info name="Dir" value="/nfs/dust/cms/user/chrisjcc/Moriond17v6/workSpace"/>
    <Info name="Training events" value="49480"/>
    <Info name="TrainingTime" value="4.80897312e+01"/>
    <Info name="AnalysisType" value="Classification"/>
  </GeneralInfo>
  <Options>
    <Option name="V" modified="Yes">False</Option>
    <Option name="VerbosityLevel" modified="No">Default</Option>
    <Option name="VarTransform" modified="No">None</Option>
    <Option name="H" modified="Yes">False</Option>
    <Option name="CreateMVAPdfs" modified="No">False</Option>
    <Option name="IgnoreNegWeightsInTraining" modified="No">False</Option>
    <Option name="NTrees" modified="Yes">922</Option>
    <Option name="MaxDepth" modified="Yes">2</Option>
    <Option name="MinNodeSize" modified="No">5%</Option>
    <Option name="nCuts" modified="Yes">21</Option>
    <Option name="BoostType" modified="Yes">Grad</Option>
    <Option name="AdaBoostR2Loss" modified="No">quadratic</Option>
    <Option name="UseBaggedBoost" modified="Yes">True</Option>
    <Option name="Shrinkage" modified="Yes">4.660837e-02</Option>
    <Option name="AdaBoostBeta" modified="No">5.000000e-01</Option>
    <Option name="UseRandomisedTrees" modified="No">False</Option>
    <Option name="UseNvars" modified="No">3</Option>
    <Option name="UsePoissonNvars" modified="No">True</Option>
    <Option name="BaggedSampleFraction" modified="No">7.233962e-01</Option>
    <Option name="UseYesNoLeaf" modified="No">True</Option>
    <Option name="NegWeightTreatment" modified="Yes">ignorenegweightsintraining</Option>
    <Option name="Css" modified="No">1.000000e+00</Option>
    <Option name="Cts_sb" modified="No">1.000000e+00</Option>
    <Option name="Ctb_ss" modified="No">1.000000e+00</Option>
    <Option name="Cbb" modified="No">1.000000e+00</Option>
    <Option name="NodePurityLimit" modified="No">5.000000e-01</Option>
    <Option name="SeparationType" modified="No">giniindex</Option>
    <Option name="DoBoostMonitor" modified="No">False</Option>
    <Option name="UseFisherCuts" modified="No">False</Option>
    <Option name="MinLinCorrForFisher" modified="No">8.000000e-01</Option>
    <Option name="UseExclusiveVars" modified="No">False</Option>
    <Option name="DoPreselection" modified="No">False</Option>
    <Option name="SigToBkgFraction" modified="No">1.000000e+00</Option>
    <Option name="PruneMethod" modified="No">nopruning</Option>
    <Option name="PruneStrength" modified="No">0.000000e+00</Option>
    <Option name="PruningValFraction" modified="No">5.000000e-01</Option>
    <Option name="nEventsMin" modified="No">0</Option>
    <Option name="UseBaggedGrad" modified="No">False</Option>
    <Option name="GradBaggingFraction" modified="Yes">7.233962e-01</Option>
    <Option name="UseNTrainEvents" modified="No">0</Option>
    <Option name="NNodesMax" modified="No">0</Option>
  </Options>
  <Variables NVar="9">
    <Variable VarIndex="0" Expression="minDeltaR_tag_tag" Label="minDeltaR_tag_tag" Title="minDeltaR_tag_tag" Unit="" Internal="minDeltaR_tag_tag" Type="F" Min="3.83081198e-01" Max="3.67979646e+00"/>
    <Variable VarIndex="1" Expression="btagDiscriminatorAverage_tagged" Label="btagDiscriminatorAverage_tagged" Title="btagDiscriminatorAverage_tagged" Unit="" Internal="btagDiscriminatorAverage_tagged" Type="F" Min="8.53138030e-01" Max="9.98972833e-01"/>
    <Variable VarIndex="2" Expression="mass_tag_tag_min_deltaR" Label="mass_tag_tag_min_deltaR" Title="mass_tag_tag_min_deltaR" Unit="" Internal="mass_tag_tag_min_deltaR" Type="F" Min="1.07724886e+01" Max="1.16272034e+03"/>
    <Variable VarIndex="3" Expression="mass_higgsLikeDijet" Label="mass_higgsLikeDijet" Title="mass_higgsLikeDijet" Unit="" Internal="mass_higgsLikeDijet" Type="F" Min="2.42002010e+01" Max="3.92760193e+02"/>
    <Variable VarIndex="4" Expression="avgDeltaR_jet_tag" Label="avgDeltaR_jet_tag" Title="avgDeltaR_jet_tag" Unit="" Internal="avgDeltaR_jet_tag" Type="F" Min="7.70421267e-01" Max="3.91672993e+00"/>
    <Variable VarIndex="5" Expression="H2_tag" Label="H2_tag" Title="H2_tag" Unit="" Internal="H2_tag" Type="F" Min="6.74978733e-01" Max="2.74000049e+00"/>
    <Variable VarIndex="6" Expression="ptSum_jets_leptons" Label="ptSum_jets_leptons" Title="ptSum_jets_leptons" Unit="" Internal="ptSum_jets_leptons" Type="F" Min="1.67555954e+02" Max="3.69944849e+03"/>
    <Variable VarIndex="7" Expression="twist_tag_tag_max_mass" Label="twist_tag_tag_max_mass" Title="twist_tag_tag_max_mass" Unit="" Internal="twist_tag_tag_max_mass" Type="F" Min="-1.57076931e+00" Max="1.57077241e+00"/>
    <Variable VarIndex="8" Expression="mass_jet_jet_jet_max_pT" Label="mass_jet_jet_jet_max_pT" Title="mass_jet_jet_jet_max_pT" Unit="" Internal="mass_jet_jet_jet_max_pT" Type="F" Min="3.32297935e+01" Max="2.76354272e+03"/>
  </Variables>
  <Spectators NSpec="0"/>
  <Classes NClass="2">
    <Class Name="Signal" Index="0"/>
    <Class Name="Background" Index="1"/>
  </Classes>
  <Transformations NTransformations="0"/>
  <MVAPdfs/>
  <Weights NTrees="922" AnalysisType="1">
    <BinaryTree type="DecisionTree" boostWeight="1.0000000000000000e+00" itree="0">
      <Node pos="s" depth="0" NCoef="0" IVar="4" Cut="2.4423973560333252e+00" cType="1" res="3.3955704420804977e-03" rms="4.9998846650123596e-01" purity="5.0339549779891968e-01" nType="0">
        <Node pos="l" depth="1" NCoef="0" IVar="1" Cut="9.5254844427108765e-01" cType="1" res="6.5768480300903320e-02" rms="4.9565562605857849e-01" purity="5.6576848030090332e-01" nType="0">
          <Node pos="l" depth="2" NCoef="0" IVar="-1" Cut="0.0000000000000000e+00" cType="1" res="-1.7149781342595816e-03" rms="4.9850329756736755e-01" purity="4.6134173870086670e-01" nType="-99"/>
          <Node pos="r" depth="2" NCoef="0" IVar="-1" Cut="0.0000000000000000e+00" cType="1" res="5.4115746170282364e-03" rms="4.7707366943359375e-01" purity="6.4966863393783569e-01" nType="-99"/>
        </Node>
        <Node pos="r" depth="1" NCoef="0" IVar="1" Cut="9.4824665784835815e-01" cType="1" res="-1.7430037260055542e-01" rms="4.6863564848899841e-01" purity="3.2569962739944458e-01" nType="0">
          <Node pos="l" depth="2" NCoef="0" IVar="-1" Cut="0.0000000000000000e+00" cType="1" res="-1.8300347030162811e-02" rms="4.2227140069007874e-01" purity="2.3225596547126770e-01" nType="-99"/>
          <Node pos="r" depth="2" NCoef="0" IVar="-1" Cut="0.0000000000000000e+00" cType="1" res="-4.8401579260826111e-03" rms="4.9090355634689331e-01" purity="4.0505942702293396e-01" nType="-99"/>
        </Node>
      </Node>
    </BinaryTree>
    <BinaryTree type="DecisionTree" boostWeight="1.0000000000000000e+00" itree="1">
      <Node pos="s" depth="0" NCoef="0" IVar="4" Cut="2.5058546066284180e+00" cType="1" res="-1.8153614364564419e-03" rms="4.9902799725532532e-01" purity="4.9755340814590454e-01" nType="0">
        <Node pos="l" depth="1" NCoef="0" IVar="1" Cut="9.5996552705764771e-01" cType="1" res="4.9468323588371277e-02" rms="4.9703958630561829e-01" purity="5.5011528730392456e-01" nType="0">
          <Node pos="l" depth="2" NCoef="0" IVar="-1" Cut="0.0000000000000000e+00" cType="1" res="-1.4772118302062154e-03" rms="4.9865424633026123e-01" purity="4.6620932221412659e-01" nType="-99"/>
          <Node pos="r" depth="2" NCoef="0" IVar="-1" Cut="0.0000000000000000e+00" cType="1" res="5.5506322532892227e-03" rms="4.7392532229423523e-01" purity="6.5909868478775024e-01" nType="-99"/>
        </Node>
        <Node pos="r" depth="1" NCoef="0" IVar="0" Cut="1.8858236074447632e+00" cType="1" res="-1.9933491945266724e-01" rms="4.5553675293922424e-01" purity="2.9511094093322754e-01" nType="0">
          <Node pos="l" depth="2" NCoef="0" IVar="-1" Cut="0.0000000000000000e+00" cType="1" res="-6.9478158839046955e-03" rms="4.8065721988677979e-01" purity="3.6403197050094604e-01" nType="-99"/>
          <Node pos="r" depth="2" NCoef="0" IVar="-1" Cut="0.0000000000000000e+00" cType="1" res="-2.3792909458279610e-02" rms="3.9099654555320740e-01" purity="1.8916527926921844e-01" nType="-99"/>
        </Node>
      </Node>
    </BinaryTree>
    <BinaryTree type="DecisionTree" boostWeight="1.0000000000000000e+00" itree="2">
      <Node pos="s" depth="0" NCoef="0" IVar="4" Cut="2.4905695915222168e+00" cType="1" res="3.9550266228616238e-03" rms="4.9795630574226379e-01" purity="5.0264614820480347e-01" nType="0">
        <Node pos="l" depth="1" NCoef="0" IVar="1" Cut="9.5248752832412720e-01" cType="1" res="5.6862734258174896e-02" rms="4.9579137563705444e-01" purity="5.5841034650802612e-01" nType="0">
          <Node pos="l" depth="2" NCoef="0" IVar="-1" Cut="0.0000000000000000e+00" cType="1" res="-2.2675334475934505e-03" rms="4.9724411964416504e-01" purity="4.4836723804473877e-01" nType="-99"/>
          <Node pos="r" depth="2" NCoef="0" IVar="-1" Cut="0.0000000000000000e+00" cType="1" res="5.1832543686032295e-03" rms="4.7730457782745361e-01" purity="6.4827370643615723e-01" nType="-99"/>
        </Node>
        <Node pos="r" depth="1" NCoef="0" IVar="1" Cut="9.5358556509017944e-01" cType="1" res="-1.9371700286865234e-01" rms="4.5438513159751892e-01" purity="2.9430183768272400e-01" nType="0">
          <Node pos="l" depth="2" NCoef="0" IVar="-1" Cut="0.0000000000000000e+00" cType="1" res="-1.9689008593559265e-02" rms="4.0618231892585754e-01" purity="2.0934394001960754e-01" nType="-99"/>
          <Node pos="r" depth="2" NCoef="0" IVar="-1" Cut="0.0000000000000000e+00" cType="1" res="-5.0737936981022358e-03" rms="4.8778492212295532e-01" purity="3.9394122362136841e-01" nType="-99"/>
        </Node>
      </Node>
    </BinaryTree>
    <BinaryTree type="DecisionTree" boostWeight="1.0000000000000000e+00" itree="3">
      <Node pos="s" depth="0" NCoef="0" IVar="4" Cut="2.3875427246093750e+00" cType="1" res="1.9195430213585496e-03" rms="4.9698093533515930e-01" purity="4.9980351328849792e-01" nType="0">
        <Node pos="l" depth="1" NCoef="0" IVar="1" Cut="9.5955771207809448e-01" cType="1" res="7.0734426379203796e-02" rms="4.9349862337112427e-01" purity="5.7367283105850220e-01" nType="0">
          <Node pos="l" depth="2" NCoef="0" IVar="-1" Cut="0.0000000000000000e+00" cType="1" res="-5.9384258929640055e-04" rms="4.9951037764549255e-01" purity="4.8498293757438660e-01" nType="-99"/>
          <Node pos="r" depth="2" NCoef="0" IVar="-1" Cut="0.0000000000000000e+00" cType="1" res="5.9908269904553890e-03" rms="4.6617674827575684e-01" purity="6.8075096607208252e-01" nType="-99"/>
        </Node>
        <Node pos="r" depth="1" NCoef="0" IVar="1" Cut="9.7303724288940430e-01" cType="1" res="-1.4716854691505432e-01" rms="4.7114318609237671e-01" purity="3.3976492285728455e-01" nType="0">
          <Node pos="l" depth="2" NCoef="0" IVar="-1" Cut="0.0000000000000000e+00" cType="1" res="-1.1508673429489136e-02" rms="4.5370337367057800e-01" purity="2.9433986544609070e-01" nType="-99"/>
          <Node pos="r" depth="2" NCoef="0" IVar="-1" Cut="0.0000000000000000e+00" cType="1" res="4.9532233970239758e-04" rms="4.9900344014167786e-01" purity="5.0569796562194824e-01" nType="-99"/>
        </Node>
      </Node>
    </BinaryTree>
    <BinaryTree type="DecisionTree" boostWeight="1.0000000000000000e+00" itree="4">
      <Node pos="s" depth="0" NCoef="0" IVar="1" Cut="9.5248210430145264e-01" cType="1" res="8.2811975153163075e-04" rms="4.9611827731132507e-01" purity="4.9807655811309814e-01" nType="0">
        <Node pos="l" depth="1" NCoef="0" IVar="0" Cut="2.1062874794006348e+00" cType="1" res="-1.0357424616813660e-01" rms="4.8440441489219666e-01" purity="3.8552090525627136e-01" nType="0">
          <Node pos="l" depth="2" NCoef="0" IVar="-1" Cut="0.0000000000000000e+00" cType="1" res="-3.3616267610341311e-03" rms="4.9214673042297363e-01" purity="4.1989085078239441e-01" nType="-99"/>
          <Node pos="r" depth="2" NCoef="0" IVar="-1" Cut="0.0000000000000000e+00" cType="1" res="-2.5659302249550819e-02" rms="3.6540588736534119e-01" purity="1.6126401722431183e-01" nType="-99"/>
        </Node>
        <Node pos="r" depth="1" NCoef="0" IVar="4" Cut="2.3747513294219971e+00" cType="1" res="9.2277221381664276e-02" rms="4.8814299702644348e-01" purity="5.9666740894317627e-01" nType="0">
          <Node pos="l" depth="2" NCoef="0" IVar="-1" Cut="0.0000000000000000e+00" cType="1" res="5.4468861781060696e-03" rms="4.7193926572799683e-01" purity="6.6453254222869873e-01" nType="-99"/>
          <Node pos="r" depth="2" NCoef="0" IVar="-1" Cut="0.0000000000000000e+00" cType="1" res="-2.8553097508847713e-03" rms="4.9361541867256165e-01" purity="4.3326702713966370e-01" nType="-99"/>
        </Node>
      </Node>
    </BinaryTree>
    <BinaryTree type="DecisionTree" boostWeight="1.0000000000000000e+00" itree="5">
      <Node pos="s" depth="0" NCoef="0" IVar="4" Cut="2.4423973560333252e+00" cType="1" res="2.9707539360970259e-03" rms="4.9549317359924316e-01" purity="4.9930748343467712e-01" nType="0">
        <Node pos="l" depth="1" NCoef="0" IVar="1" Cut="9.5254844427108765e-01" cType="1" res="5.7961910963058472e-02" rms="4.9438589811325073e-01" purity="5.6159210205078125e-01" nType="0">
          <Node pos="l" depth="2" NCoef="0" IVar="-1" Cut="0.0000000000000000e+00" cType="1" res="-1.1935719521716237e-03" rms="4.9863347411155701e-01" purity="4.6704599261283875e-01" nType="-99"/>
          <Node pos="r" depth="2" NCoef="0" IVar="-1" Cut="0.0000000000000000e+00" cType="1" res="4.7238809056580067e-03" rms="4.7917616367340088e-01" purity="6.4146143198013306e-01" nType="-99"/>
        </Node>
        <Node pos="r" depth="1" NCoef="0" IVar="1" Cut="9.7323596477508545e-01" cType="1" res="-1.5227028727531433e-01" rms="4.6472695469856262e-01" purity="3.2347673177719116e-01" nType="0">
          <Node pos="l" depth="2" NCoef="0" IVar="-1" Cut="0.0000000000000000e+00" cType="1" res="-1.1691500432789326e-02" rms="4.4860395789146423e-01" purity="2.8353926539421082e-01" nType="-99"/>
          <Node pos="r" depth="2" NCoef="0" IVar="-1" Cut="0.0000000000000000e+00" cType="1" res="-1.6011526167858392e-04" rms="4.9878042936325073e-01" purity="4.8707783222198486e-01" nType="-99"/>
        </Node>
      </Node>
    </BinaryTree>
    <BinaryTree type="DecisionTree" boostWeight="1.0000000000000000e+00" itree="6">
      <Node pos="s" depth="0" NCoef="0" IVar="4" Cut="2.2754371166229248e+00" cType="1" res="-2.2833084221929312e-03" rms="4.9454292654991150e-01" purity="4.9364352226257324e-01" nType="0">
        <Node pos="l" depth="1" NCoef="0" IVar="1" Cut="9.5349347591400146e-01" cType="1" res="7.6760180294513702e-02" rms="4.9106010794639587e-01" purity="5.8241784572601318e-01" nType="0">
          <Node pos="l" depth="2" NCoef="0" IVar="-1" Cut="0.0000000000000000e+00" cType="1" res="-8.2993606338277459e-04" rms="4.9917826056480408e-01" purity="4.7564375400543213e-01" nType="-99"/>
          <Node pos="r" depth="2" NCoef="0" IVar="-1" Cut="0.0000000000000000e+00" cType="1" res="5.5290041491389275e-03" rms="4.6889293193817139e-01" purity="6.7317581176757812e-01" nType="-99"/>
        </Node>
        <Node pos="r" depth="1" NCoef="0" IVar="1" Cut="9.5230716466903687e-01" cType="1" res="-1.0313814133405685e-01" rms="4.8042586445808411e-01" purity="3.8037273287773132e-01" nType="0">
          <Node pos="l" depth="2" NCoef="0" IVar="-1" Cut="0.0000000000000000e+00" cType="1" res="-1.0968863032758236e-02" rms="4.5045343041419983e-01" purity="2.8905814886093140e-01" nType="-99"/>
          <Node pos="r" depth="2" NCoef="0" IVar="-1" Cut="0.0000000000000000e+00" cType="1" res="-1.0682677384465933e-03" rms="4.9599778652191162e-01" purity="4.7192981839179993e-01" nType="-99"/>
        </Node>
      </Node>
    </BinaryTree>
    <BinaryTree type="DecisionTree" boostWeight="1.0000000000000000e+00" itree="7">
      <Node pos="s" depth="0" NCoef="0" IVar="4" Cut="2.3435754776000977e+00" cType="1" res="1.4813465531915426e-03" rms="4.9374073743820190e-01" purity="4.9715939164161682e-01" nType="0">
        <Node pos="l" depth="1" NCoef="0" IVar="1" Cut="9.6626734733581543e-01" cType="1" res="7.0232309401035309e-02" rms="4.9145925045013428e-01" purity="5.7689827680587769e-01" nType="0">
          <Node pos="l" depth="2" NCoef="0" IVar="-1" Cut="0.0000000000000000e+00" cType="1" res="7.0916867116466165e-05" rms="4.9869304895401001e-01" purity="5.0146347284317017e-01" nType="-99"/>
          <Node pos="r" depth="2" NCoef="0" IVar="-1" Cut="0.0000000000000000e+00" cType="1" res="6.3892346806824207e-03" rms="4.5500841736793518e-01" purity="7.0714306831359863e-01" nType="-99"/>
        </Node>
        <Node pos="r" depth="1" NCoef="0" IVar="4" Cut="2.7726778984069824e+00" cType="1" res="-1.2129685282707214e-01" rms="4.7358036041259766e-01" purity="3.5475850105285645e-01" nType="0">
          <Node pos="l" depth="2" NCoef="0" IVar="-1" Cut="0.0000000000000000e+00" cType="1" res="-4.4548497535288334e-03" rms="4.8419722914695740e-01" purity="3.9219415187835693e-01" nType="-99"/>
          <Node pos="r" depth="2" NCoef="0" IVar="-1" Cut="0.0000000000000000e+00" cType="1" res="-2.0742682740092278e-02" rms="3.9112225174903870e-01" purity="1.9239950180053711e-01" nType="-99"/>
        </Node>
      </Node>
    </BinaryTree>
    <BinaryTree type="DecisionTree" boostWeight="1.0000000000000000e+00" itree="8">
      <Node pos="s" depth="0" NCoef="0" IVar="1" Cut="9.7277235984802246e-01" cType="1" res="7.9639218747615814e-03" rms="4.9337762594223022e-01" purity="5.0290244817733765e-01" nType="0">
        <Node pos="l" depth="1" NCoef="0" IVar="4" Cut="2.4463772773742676e+00" cType="1" res="-4.1893430054187775e-02" rms="4.9185246229171753e-01" purity="4.4690391421318054e-01" nType="0">
          <Node pos="l" depth="2" NCoef="0" IVar="-1" Cut="0.0000000000000000e+00" cType="1" res="2.3490413150284439e-04" rms="4.9812394380569458e-01" purity="5.0593423843383789e-01" nType="-99"/>
          <Node pos="r" depth="2" NCoef="0" IVar="-1" Cut="0.0000000000000000e+00" cType="1" res="-1.0210526175796986e-02" rms="4.5161604881286621e-01" purity="2.9115417599678040e-01" nType="-99"/>
        </Node>
        <Node pos="r" depth="1" NCoef="0" IVar="4" Cut="2.3248178958892822e+00" cType="1" res="1.5355670452117920e-01" rms="4.6835178136825562e-01" purity="6.6642868518829346e-01" nType="0">
          <Node pos="l" depth="2" NCoef="0" IVar="-1" Cut="0.0000000000000000e+00" cType="1" res="6.9353654980659485e-03" rms="4.4415250420570374e-01" purity="7.2958970069885254e-01" nType="-99"/>
          <Node pos="r" depth="2" NCoef="0" IVar="-1" Cut="0.0000000000000000e+00" cType="1" res="1.9823662005364895e-03" rms="4.9548488855361938e-01" purity="5.4328292608261108e-01" nType="-99"/>
        </Node>
      </Node>
    </BinaryTree>
    <BinaryTree type="DecisionTree" boostWeight="1.0000000000000000e+00" itree="9">
      <Node pos="s" depth="0" NCoef="0" IVar="1" Cut="9.5257085561752319e-01" cType="1" res="3.3579245209693909e-03" rms="4.9271202087402344e-01" purity="4.9796053767204285e-01" nType="0">
        <Node pos="l" depth="1" NCoef="0" IVar="6" Cut="3.8052450561523438e+02" cType="1" res="-8.7296158075332642e-02" rms="4.8384895920753479e-01" purity="3.9073109626770020e-01" nType="0">
          <Node pos="l" depth="2" NCoef="0" IVar="-1" Cut="0.0000000000000000e+00" cType="1" res="-1.2372382916510105e-02" rms="4.4283324480056763e-01" purity="2.7366420626640320e-01" nType="-99"/>
          <Node pos="r" depth="2" NCoef="0" IVar="-1" Cut="0.0000000000000000e+00" cType="1" res="-1.8811514601111412e-03" rms="4.9175444245338440e-01" purity="4.3806588649749756e-01" nType="-99"/>
        </Node>
        <Node pos="r" depth="1" NCoef="0" IVar="4" Cut="2.5176529884338379e+00" cType="1" res="8.3983302116394043e-02" rms="4.8647043108940125e-01" purity="5.9332758188247681e-01" nType="0">
          <Node pos="l" depth="2" NCoef="0" IVar="-1" Cut="0.0000000000000000e+00" cType="1" res="4.4804750941693783e-03" rms="4.7867226600646973e-01" purity="6.3948649168014526e-01" nType="-99"/>
          <Node pos="r" depth="2" NCoef="0" IVar="-1" Cut="0.0000000000000000e+00" cType="1" res="-6.4310282468795776e-03" rms="4.7735264897346497e-01" purity="3.5690549015998840e-01" nType="-99"/>
        </Node>
      </Node>
    </BinaryTree>
    <BinaryTree type="DecisionTree" boostWeight="1.0000000000000000e+00" itree="10">
      <Node pos="s" depth="0" NCoef="0" IVar="4" Cut="2.3647670745849609e+00" cType="1" res="8.4190079942345619e-03" rms="4.9187853932380676e-01" purity="5.0296485424041748e-01" nType="0">
        <Node pos="l" depth="1" NCoef="0" IVar="1" Cut="9.4700115919113159e-01" cType="1" res="6.9124877452850342e-02" rms="4.9020648002624512e-01" purity="5.7791823148727417e-01" nType="0">
          <Node pos="l" depth="2" NCoef="0" IVar="-1" Cut="0.0000000000000000e+00" cType="1" res="-2.1372998598963022e-03" rms="4.9607974290847778e-01" purity="4.4380819797515869e-01" nType="-99"/>
          <Node pos="r" depth="2" NCoef="0" IVar="-1" Cut="0.0000000000000000e+00" cType="1" res="4.7059087082743645e-03" rms="4.7545373439788818e-01" purity="6.5011841058731079e-01" nType="-99"/>
        </Node>
        <Node pos="r" depth="1" NCoef="0" IVar="1" Cut="9.7326928377151489e-01" cType="1" res="-1.1000649631023407e-01" rms="4.7321683168411255e-01" purity="3.5674530267715454e-01" nType="0">
          <Node pos="l" depth="2" NCoef="0" IVar="-1" Cut="0.0000000000000000e+00" cType="1" res="-8.7085608392953873e-03" rms="4.5925045013427734e-01" purity="3.1182125210762024e-01" nType="-99"/>
          <Node pos="r" depth="2" NCoef="0" IVar="-1" Cut="0.0000000000000000e+00" cType="1" res="1.0275850072503090e-03" rms="4.9704319238662720e-01" purity="5.1518154144287109e-01" nType="-99"/>
        </Node>
      </Node>
    </BinaryTree>
    <BinaryTree type="DecisionTree" boostWeight="1.0000000000000000e+00" itree="11">
      <Node pos="s" depth="0" NCoef="0" IVar="4" Cut="2.3479535579681396e+00" cType="1" res="3.0488488264381886e-03" rms="4.9139025807380676e-01" purity="4.9684754014015198e-01" nType="0">
        <Node pos="l" depth="1" NCoef="0" IVar="1" Cut="9.4695276021957397e-01" cType="1" res="6.7942008376121521e-02" rms="4.9049699306488037e-01" purity="5.7761251926422119e-01" nType="0">
          <Node pos="l" depth="2" NCoef="0" IVar="-1" Cut="0.0000000000000000e+00" cType="1" res="-1.5169006073847413e-03" rms="4.9742895364761353e-01" purity="4.5609992742538452e-01" nType="-99"/>
          <Node pos="r" depth="2" NCoef="0" IVar="-1" Cut="0.0000000000000000e+00" cType="1" res="4.4963383115828037e-03" rms="4.7712489962577820e-01" purity="6.4607447385787964e-01" nType="-99"/>
        </Node>
        <Node pos="r" depth="1" NCoef="0" IVar="7" Cut="9.9767333269119263e-01" cType="1" res="-1.1613980680704117e-01" rms="4.7024977207183838e-01" purity="3.4850734472274780e-01" nType="0">
          <Node pos="l" depth="2" NCoef="0" IVar="-1" Cut="0.0000000000000000e+00" cType="1" res="-9.0826032683253288e-03" rms="4.5677793025970459e-01" purity="3.1030777096748352e-01" nType="-99"/>
          <Node pos="r" depth="2" NCoef="0" IVar="-1" Cut="0.0000000000000000e+00" cType="1" res="1.4246571809053421e-03" rms="4.9436044692993164e-01" purity="5.0466459989547729e-01" nType="-99"/>
        </Node>
      </Node>
    </BinaryTree>
    <BinaryTree type="DecisionTree" boostWeight="1.0000000000000000e+00" itree="12">
      <Node pos="s" depth="0" NCoef="0" IVar="1" Cut="9.5343255996704102e-01" cType="1" res="8.5980053991079330e-03" rms="4.9082133173942566e-01" purity="5.0177115201950073e-01" nType="0">
        <Node pos="l" depth="1" NCoef="0" IVar="4" Cut="2.3435754776000977e+00" cType="1" res="-7.4408464133739471e-02" rms="4.8390048742294312e-01" purity="3.9871436357498169e-01" nType="0">
          <Node pos="l" depth="2" NCoef="0" IVar="-1" Cut="0.0000000000000000e+00" cType="1" res="-6.4812815980985761e-04" rms="4.9855867028236389e-01" purity="4.7610726952552795e-01" nType="-99"/>
          <Node pos="r" depth="2" NCoef="0" IVar="-1" Cut="0.0000000000000000e+00" cType="1" res="-1.0234498418867588e-02" rms="4.4556742906570435e-01" purity="2.8058770298957825e-01" nType="-99"/>
        </Node>
        <Node pos="r" depth="1" NCoef="0" IVar="4" Cut="2.3628821372985840e+00" cType="1" res="8.6089298129081726e-02" rms="4.8452666401863098e-01" purity="5.9798055887222290e-01" nType="0">
          <Node pos="l" depth="2" NCoef="0" IVar="-1" Cut="0.0000000000000000e+00" cType="1" res="4.8128156922757626e-03" rms="4.7178572416305542e-01" purity="6.6395151615142822e-01" nType="-99"/>
          <Node pos="r" depth="2" NCoef="0" IVar="-1" Cut="0.0000000000000000e+00" cType="1" res="-1.1353880399838090e-03" rms="4.9384623765945435e-01" purity="4.5364072918891907e-01" nType="-99"/>
        </Node>
      </Node>
    </BinaryTree>
    <BinaryTree type="DecisionTree" boostWeight="1.0000000000000000e+00" itree="13">
      <Node pos="s" depth="0" NCoef="0" IVar="1" Cut="9.5248752832412720e-01" cType="1" res="1.0014495812356472e-02" rms="4.9055653810501099e-01" purity="5.0298440456390381e-01" nType="0">
        <Node pos="l" depth="1" NCoef="0" IVar="0" Cut="1.9804338216781616e+00" cType="1" res="-7.4309267103672028e-02" rms="4.8327201604843140e-01" purity="3.9589822292327881e-01" nType="0">
          <Node pos="l" depth="2" NCoef="0" IVar="-1" Cut="0.0000000000000000e+00" cType="1" res="-1.8708322895690799e-03" rms="4.9234893918037415e-01" purity="4.3587231636047363e-01" nType="-99"/>
          <Node pos="r" depth="2" NCoef="0" IVar="-1" Cut="0.0000000000000000e+00" cType="1" res="-1.6618685796856880e-02" rms="4.0210655331611633e-01" purity="2.0951327681541443e-01" nType="-99"/>
        </Node>
        <Node pos="r" depth="1" NCoef="0" IVar="4" Cut="2.4684813022613525e+00" cType="1" res="8.3304949104785919e-02" rms="4.8503586649894714e-01" purity="5.9605896472930908e-01" nType="0">
          <Node pos="l" depth="2" NCoef="0" IVar="-1" Cut="0.0000000000000000e+00" cType="1" res="4.3116621673107147e-03" rms="4.7749149799346924e-01" purity="6.4423155784606934e-01" nType="-99"/>
          <Node pos="r" depth="2" NCoef="0" IVar="-1" Cut="0.0000000000000000e+00" cType="1" res="-2.3840998765081167e-03" rms="4.9029380083084106e-01" purity="4.1806617379188538e-01" nType="-99"/>
        </Node>
      </Node>
    </BinaryTree>
    <BinaryTree type="DecisionTree" boostWeight="1.0000000000000000e+00" itree="14">
      <Node pos="s" depth="0" NCoef="0" IVar="4" Cut="2.2585058212280273e+00" cType="1" res="4.9219508655369282e-03" rms="4.8993092775344849e-01" purity="4.9718499183654785e-01" nType="0">
        <Node pos="l" depth="1" NCoef="0" IVar="2" Cut="7.1597717285156250e+01" cType="1" res="7.5358532369136810e-02" rms="4.8828348517417908e-01" purity="5.8875662088394165e-01" nType="0">
          <Node pos="l" depth="2" NCoef="0" IVar="-1" Cut="0.0000000000000000e+00" cType="1" res="-3.5756363649852574e-04" rms="4.9666023254394531e-01" purity="5.0321424007415771e-01" nType="-99"/>
          <Node pos="r" depth="2" NCoef="0" IVar="-1" Cut="0.0000000000000000e+00" cType="1" res="5.0352672114968300e-03" rms="4.7118699550628662e-01" purity="6.5637731552124023e-01" nType="-99"/>
        </Node>
        <Node pos="r" depth="1" NCoef="0" IVar="1" Cut="9.4173675775527954e-01" cType="1" res="-7.7226333320140839e-02" rms="4.7893342375755310e-01" purity="3.9038741588592529e-01" nType="0">
          <Node pos="l" depth="2" NCoef="0" IVar="-1" Cut="0.0000000000000000e+00" cType="1" res="-1.2019327841699123e-02" rms="4.3428596854209900e-01" purity="2.5879412889480591e-01" nType="-99"/>
          <Node pos="r" depth="2" NCoef="0" IVar="-1" Cut="0.0000000000000000e+00" cType="1" res="-1.0338033316656947e-03" rms="4.9123194813728333e-01" purity="4.5789432525634766e-01" nType="-99"/>
        </Node>
      </Node>
    </BinaryTree>
    <BinaryTree type="DecisionTree" boostWeight="1.0000000000000000e+00" itree="15">
      <Node pos="s" depth="0" NCoef="0" IVar="1" Cut="9.5257085561752319e-01" cType="1" res="3.6396848736330867e-04" rms="4.8840638995170593e-01" purity="4.9289366602897644e-01" nType="0">
        <Node pos="l" depth="1" NCoef="0" IVar="4" Cut="2.4865896701812744e+00" cType="1" res="-8.5325405001640320e-02" rms="4.7862708568572998e-01" purity="3.8130593299865723e-01" nType="0">
          <Node pos="l" depth="2" NCoef="0" IVar="-1" Cut="0.0000000000000000e+00" cType="1" res="-2.0505792926996946e-03" rms="4.9398431181907654e-01" purity="4.3819522857666016e-01" nType="-99"/>
          <Node pos="r" depth="2" NCoef="0" IVar="-1" Cut="0.0000000000000000e+00" cType="1" res="-1.5047856606543064e-02" rms="4.0652275085449219e-01" purity="2.1327014267444611e-01" nType="-99"/>
        </Node>
        <Node pos="r" depth="1" NCoef="0" IVar="4" Cut="2.3747513294219971e+00" cType="1" res="7.6297573745250702e-02" rms="4.8440521955490112e-01" purity="5.9177702665328979e-01" nType="0">
          <Node pos="l" depth="2" NCoef="0" IVar="-1" Cut="0.0000000000000000e+00" cType="1" res="4.5930226333439350e-03" rms="4.7205787897109985e-01" purity="6.6196352243423462e-01" nType="-99"/>
          <Node pos="r" depth="2" NCoef="0" IVar="-1" Cut="0.0000000000000000e+00" cType="1" res="-2.7090462390333414e-03" rms="4.8966461420059204e-01" purity="4.1974177956581116e-01" nType="-99"/>
        </Node>
      </Node>
    </BinaryTree>
    <BinaryTree type="DecisionTree" boostWeight="1.0000000000000000e+00" itree="16">
      <Node pos="s" depth="0" NCoef="0" IVar="4" Cut="2.4423973560333252e+00" cType="1" res="7.2470046579837799e-03" rms="4.8806852102279663e-01" purity="4.9940785765647888e-01" nType="0">
        <Node pos="l" depth="1" NCoef="0" IVar="1" Cut="9.7267180681228638e-01" cType="1" res="5.3559150546789169e-02" rms="4.8995023965835571e-01" purity="5.6419086456298828e-01" nType="0">
          <Node pos="l" depth="2" NCoef="0" IVar="-1" Cut="0.0000000000000000e+00" cType="1" res="3.0243140645325184e-04" rms="4.9584886431694031e-01" purity="5.0775551795959473e-01" nType="-99"/>
          <Node pos="r" depth="2" NCoef="0" IVar="-1" Cut="0.0000000000000000e+00" cType="1" res="5.9659704566001892e-03" rms="4.5286065340042114e-01" purity="7.0992535352706909e-01" nType="-99"/>
        </Node>
        <Node pos="r" depth="1" NCoef="0" IVar="1" Cut="9.4710165262222290e-01" cType="1" res="-1.2429783493280411e-01" rms="4.5780718326568604e-01" purity="3.1539857387542725e-01" nType="0">
          <Node pos="l" depth="2" NCoef="0" IVar="-1" Cut="0.0000000000000000e+00" cType="1" res="-1.4383758418262005e-02" rms="4.0780952572822571e-01" purity="2.1441288292407990e-01" nType="-99"/>
          <Node pos="r" depth="2" NCoef="0" IVar="-1" Cut="0.0000000000000000e+00" cType="1" res="-3.6069636698812246e-03" rms="4.8385700583457947e-01" purity="3.8988125324249268e-01" nType="-99"/>
        </Node>
      </Node>
    </BinaryTree>
    <BinaryTree type="DecisionTree" boostWeight="1.0000000000000000e+00" itree="17">
      <Node pos="s" depth="0" NCoef="0" IVar="1" Cut="9.7282874584197998e-01" cType="1" res="1.0043870657682419e-02" rms="4.8796817660331726e-01" purity="5.0093835592269897e-01" nType="0">
        <Node pos="l" depth="1" NCoef="0" IVar="0" Cut="2.0353212356567383e+00" cType="1" res="-3.5393211990594864e-02" rms="4.8730400204658508e-01" purity="4.4319468736648560e-01" nType="0">
          <Node pos="l" depth="2" NCoef="0" IVar="-1" Cut="0.0000000000000000e+00" cType="1" res="-3.8225925527513027e-04" rms="4.9251681566238403e-01" purity="4.7709918022155762e-01" nType="-99"/>
          <Node pos="r" depth="2" NCoef="0" IVar="-1" Cut="0.0000000000000000e+00" cType="1" res="-1.2264884077012539e-02" rms="4.2802393436431885e-01" purity="2.5524568557739258e-01" nType="-99"/>
        </Node>
        <Node pos="r" depth="1" NCoef="0" IVar="4" Cut="2.4482238292694092e+00" cType="1" res="1.4133146405220032e-01" rms="4.6559944748878479e-01" purity="6.6778498888015747e-01" nType="0">
          <Node pos="l" depth="2" NCoef="0" IVar="-1" Cut="0.0000000000000000e+00" cType="1" res="5.8187996037304401e-03" rms="4.5134419202804565e-01" purity="7.1316128969192505e-01" nType="-99"/>
          <Node pos="r" depth="2" NCoef="0" IVar="-1" Cut="0.0000000000000000e+00" cType="1" res="6.8208598531782627e-04" rms="4.9729225039482117e-01" purity="4.9203974008560181e-01" nType="-99"/>
        </Node>
      </Node>
    </BinaryTree>
    <BinaryTree type="DecisionTree" boostWeight="1.0000000000000000e+00" itree="18">
      <Node pos="s" depth="0" NCoef="0" IVar="1" Cut="9.5254844427108765e-01" cType="1" res="9.7880503162741661e-03" rms="4.8753201961517334e-01" purity="5.0036251544952393e-01" nType="0">
        <Node pos="l" depth="1" NCoef="0" IVar="6" Cut="4.6975518798828125e+02" cType="1" res="-6.6847935318946838e-02" rms="4.8093920946121216e-01" purity="3.9368349313735962e-01" nType="0">
          <Node pos="l" depth="2" NCoef="0" IVar="-1" Cut="0.0000000000000000e+00" cType="1" res="-8.0685047432780266e-03" rms="4.5841366052627563e-01" purity="3.1511995196342468e-01" nType="-99"/>
          <Node pos="r" depth="2" NCoef="0" IVar="-1" Cut="0.0000000000000000e+00" cType="1" res="2.4906892213039100e-04" rms="4.9101713299751282e-01" purity="4.6970722079277039e-01" nType="-99"/>
        </Node>
        <Node pos="r" depth="1" NCoef="0" IVar="4" Cut="2.6350758075714111e+00" cType="1" res="7.9197086393833160e-02" rms="4.8304602503776550e-01" purity="5.9698152542114258e-01" nType="0">
          <Node pos="l" depth="2" NCoef="0" IVar="-1" Cut="0.0000000000000000e+00" cType="1" res="3.8862286601215601e-03" rms="4.7919347882270813e-01" purity="6.2858617305755615e-01" nType="-99"/>
          <Node pos="r" depth="2" NCoef="0" IVar="-1" Cut="0.0000000000000000e+00" cType="1" res="-9.1218352317810059e-03" rms="4.5913365483283997e-01" purity="3.0538326501846313e-01" nType="-99"/>
        </Node>
      </Node>
    </BinaryTree>
    <BinaryTree type="DecisionTree" boostWeight="1.0000000000000000e+00" itree="19">
      <Node pos="s" depth="0" NCoef="0" IVar="4" Cut="2.3479535579681396e+00" cType="1" res="5.1523591391742229e-03" rms="4.8655012249946594e-01" purity="4.9601101875305176e-01" nType="0">
        <Node pos="l" depth="1" NCoef="0" IVar="1" Cut="9.4646281003952026e-01" cType="1" res="6.1809968203306198e-02" rms="4.8775541782379150e-01" purity="5.7748669385910034e-01" nType="0">
          <Node pos="l" depth="2" NCoef="0" IVar="-1" Cut="0.0000000000000000e+00" cType="1" res="-1.9387912470847368e-03" rms="4.9511495232582092e-01" purity="4.4171160459518433e-01" nType="-99"/>
          <Node pos="r" depth="2" NCoef="0" IVar="-1" Cut="0.0000000000000000e+00" cType="1" res="4.2812945321202278e-03" rms="4.7426277399063110e-01" purity="6.5136688947677612e-01" nType="-99"/>
        </Node>
        <Node pos="r" depth="1" NCoef="0" IVar="4" Cut="2.7758233547210693e+00" cType="1" res="-9.8022751510143280e-02" rms="4.6701368689537048e-01" purity="3.4764143824577332e-01" nType="0">
          <Node pos="l" depth="2" NCoef="0" IVar="-1" Cut="0.0000000000000000e+00" cType="1" res="-3.5368788521736860e-03" rms="4.7929602861404419e-01" purity="3.8573494553565979e-01" nType="-99"/>
          <Node pos="r" depth="2" NCoef="0" IVar="-1" Cut="0.0000000000000000e+00" cType="1" res="-1.9076544791460037e-02" rms="3.7969323992729187e-01" purity="1.8002006411552429e-01" nType="-99"/>
        </Node>
      </Node>
    </BinaryTree>
    <BinaryTree type="DecisionTree" boostWeight="1.0000000000000000e+00" itree="20">
      <Node pos="s" depth="0" NCoef="0" IVar="1" Cut="9.5917582511901855e-01" cType="1" res="1.2008151970803738e-02" rms="4.8697879910469055e-01" purity="5.0217235088348389e-01" nType="0">
        <Node pos="l" depth="1" NCoef="0" IVar="6" Cut="3.2809652709960938e+02" cType="1" res="-4.8383042216300964e-02" rms="4.8445227742195129e-01" purity="4.1732844710350037e-01" nType="0">
          <Node pos="l" depth="2" NCoef="0" IVar="-1" Cut="0.0000000000000000e+00" cType="1" res="-1.2918374501168728e-02" rms="4.3243885040283203e-01" purity="2.5709921121597290e-01" nType="-99"/>
          <Node pos="r" depth="2" NCoef="0" IVar="-1" Cut="0.0000000000000000e+00" cType="1" res="-9.5491181127727032e-04" rms="4.8841840028762817e-01" purity="4.4693583250045776e-01" nType="-99"/>
        </Node>
        <Node pos="r" depth="1" NCoef="0" IVar="4" Cut="2.4156332015991211e+00" cType="1" res="9.2350855469703674e-02" rms="4.7865080833435059e-01" purity="6.1504626274108887e-01" nType="0">
          <Node pos="l" depth="2" NCoef="0" IVar="-1" Cut="0.0000000000000000e+00" cType="1" res="4.7051380388438702e-03" rms="4.6663179993629456e-01" purity="6.7642641067504883e-01" nType="-99"/>
          <Node pos="r" depth="2" NCoef="0" IVar="-1" Cut="0.0000000000000000e+00" cType="1" res="-1.5017180703580379e-03" rms="4.9225196242332458e-01" purity="4.3468800187110901e-01" nType="-99"/>
        </Node>
      </Node>
    </BinaryTree>
    <BinaryTree type="DecisionTree" boostWeight="1.0000000000000000e+00" itree="21">
      <Node pos="s" depth="0" NCoef="0" IVar="1" Cut="9.7282874584197998e-01" cType="1" res="1.4005526900291443e-02" rms="4.8547330498695374e-01" purity="5.0501310825347900e-01" nType="0">
        <Node pos="l" depth="1" NCoef="0" IVar="0" Cut="1.8857158422470093e+00" cType="1" res="-3.0137063935399055e-02" rms="4.8542955517768860e-01" purity="4.4636404514312744e-01" nType="0">
          <Node pos="l" depth="2" NCoef="0" IVar="-1" Cut="0.0000000000000000e+00" cType="1" res="3.4986206446774304e-04" rms="4.9206656217575073e-01" purity="4.9376773834228516e-01" nType="-99"/>
          <Node pos="r" depth="2" NCoef="0" IVar="-1" Cut="0.0000000000000000e+00" cType="1" res="-1.2362482957541943e-02" rms="4.2523205280303955e-01" purity="2.5763633847236633e-01" nType="-99"/>
        </Node>
        <Node pos="r" depth="1" NCoef="0" IVar="4" Cut="2.3926627635955811e+00" cType="1" res="1.3881419599056244e-01" rms="4.6337649226188660e-01" purity="6.7083740234375000e-01" nType="0">
          <Node pos="l" depth="2" NCoef="0" IVar="-1" Cut="0.0000000000000000e+00" cType="1" res="5.8448342606425285e-03" rms="4.4553101062774658e-01" purity="7.2610419988632202e-01" nType="-99"/>
          <Node pos="r" depth="2" NCoef="0" IVar="-1" Cut="0.0000000000000000e+00" cType="1" res="1.3886501546949148e-03" rms="4.9621796607971191e-01" purity="5.1078522205352783e-01" nType="-99"/>
        </Node>
      </Node>
    </BinaryTree>
    <BinaryTree type="DecisionTree" boostWeight="1.0000000000000000e+00" itree="22">
      <Node pos="s" depth="0" NCoef="0" IVar="1" Cut="9.5914953947067261e-01" cType="1" res="1.6592832282185555e-02" rms="4.8502349853515625e-01" purity="5.0688093900680542e-01" nType="0">
        <Node pos="l" depth="1" NCoef="0" IVar="6" Cut="3.2809652709960938e+02" cType="1" res="-4.4433299452066422e-02" rms="4.8261752724647522e-01" purity="4.1891819238662720e-01" nType="0">
          <Node pos="l" depth="2" NCoef="0" IVar="-1" Cut="0.0000000000000000e+00" cType="1" res="-1.4348841272294521e-02" rms="4.2019337415695190e-01" purity="2.3705762624740601e-01" nType="-99"/>
          <Node pos="r" depth="2" NCoef="0" IVar="-1" Cut="0.0000000000000000e+00" cType="1" res="-6.6961057018488646e-04" rms="4.8711961507797241e-01" purity="4.5166081190109253e-01" nType="-99"/>
        </Node>
        <Node pos="r" depth="1" NCoef="0" IVar="6" Cut="4.3748370361328125e+02" cType="1" res="9.7007215023040771e-02" rms="4.7638401389122009e-01" purity="6.2278962135314941e-01" nType="0">
          <Node pos="l" depth="2" NCoef="0" IVar="-1" Cut="0.0000000000000000e+00" cType="1" res="6.4310076413676143e-04" rms="4.8950797319412231e-01" purity="5.3823059797286987e-01" nType="-99"/>
          <Node pos="r" depth="2" NCoef="0" IVar="-1" Cut="0.0000000000000000e+00" cType="1" res="5.2517163567245007e-03" rms="4.6026328206062317e-01" purity="6.7670655250549316e-01" nType="-99"/>
        </Node>
      </Node>
    </BinaryTree>
    <BinaryTree type="DecisionTree" boostWeight="1.0000000000000000e+00" itree="23">
      <Node pos="s" depth="0" NCoef="0" IVar="4" Cut="2.3803374767303467e+00" cType="1" res="8.0057308077812195e-03" rms="4.8449626564979553e-01" purity="4.9876186251640320e-01" nType="0">
        <Node pos="l" depth="1" NCoef="0" IVar="1" Cut="9.4717049598693848e-01" cType="1" res="5.6698955595493317e-02" rms="4.8701313138008118e-01" purity="5.7302814722061157e-01" nType="0">
          <Node pos="l" depth="2" NCoef="0" IVar="-1" Cut="0.0000000000000000e+00" cType="1" res="-1.3018635800108314e-03" rms="4.9471583962440491e-01" purity="4.4994357228279114e-01" nType="-99"/>
          <Node pos="r" depth="2" NCoef="0" IVar="-1" Cut="0.0000000000000000e+00" cType="1" res="3.8676157128065825e-03" rms="4.7557201981544495e-01" purity="6.4423966407775879e-01" nType="-99"/>
        </Node>
        <Node pos="r" depth="1" NCoef="0" IVar="1" Cut="9.7360974550247192e-01" cType="1" res="-9.7928911447525024e-02" rms="4.6155887842178345e-01" purity="3.3719176054000854e-01" nType="0">
          <Node pos="l" depth="2" NCoef="0" IVar="-1" Cut="0.0000000000000000e+00" cType="1" res="-8.6689153686165810e-03" rms="4.4389149546623230e-01" purity="2.8505480289459229e-01" nType="-99"/>
          <Node pos="r" depth="2" NCoef="0" IVar="-1" Cut="0.0000000000000000e+00" cType="1" res="1.8342924304306507e-03" rms="4.9563658237457275e-01" purity="5.2567684650421143e-01" nType="-99"/>
        </Node>
      </Node>
    </BinaryTree>
    <BinaryTree type="DecisionTree" boostWeight="1.0000000000000000e+00" itree="24">
      <Node pos="s" depth="0" NCoef="0" IVar="4" Cut="2.4865896701812744e+00" cType="1" res="1.4595860615372658e-02" rms="4.8492345213890076e-01" purity="5.0428444147109985e-01" nType="0">
        <Node pos="l" depth="1" NCoef="0" IVar="1" Cut="9.7270137071609497e-01" cType="1" res="4.9032520502805710e-02" rms="4.8776817321777344e-01" purity="5.5926638841629028e-01" nType="0">
          <Node pos="l" depth="2" NCoef="0" IVar="-1" Cut="0.0000000000000000e+00" cType="1" res="4.3212741729803383e-04" rms="4.9397808313369751e-01" purity="5.0507313013076782e-01" nType="-99"/>
          <Node pos="r" depth="2" NCoef="0" IVar="-1" Cut="0.0000000000000000e+00" cType="1" res="5.3203292191028595e-03" rms="4.5385661721229553e-01" purity="7.0680570602416992e-01" nType="-99"/>
        </Node>
        <Node pos="r" depth="1" NCoef="0" IVar="7" Cut="8.5640031099319458e-01" cType="1" res="-1.0877520591020584e-01" rms="4.5361745357513428e-01" purity="3.0730876326560974e-01" nType="0">
          <Node pos="l" depth="2" NCoef="0" IVar="-1" Cut="0.0000000000000000e+00" cType="1" res="-1.0011055506765842e-02" rms="4.3366631865501404e-01" purity="2.6411384344100952e-01" nType="-99"/>
          <Node pos="r" depth="2" NCoef="0" IVar="-1" Cut="0.0000000000000000e+00" cType="1" res="1.0884754592552781e-03" rms="4.9191999435424805e-01" purity="4.5023876428604126e-01" nType="-99"/>
        </Node>
      </Node>
    </BinaryTree>
    <BinaryTree type="DecisionTree" boostWeight="1.0000000000000000e+00" itree="25">
      <Node pos="s" depth="0" NCoef="0" IVar="1" Cut="9.7292959690093994e-01" cType="1" res="1.4038728550076485e-02" rms="4.8396059870719910e-01" purity="5.0439971685409546e-01" nType="0">
        <Node pos="l" depth="1" NCoef="0" IVar="6" Cut="2.9750354003906250e+02" cType="1" res="-2.5278586894273758e-02" rms="4.8491495847702026e-01" purity="4.4748818874359131e-01" nType="0">
          <Node pos="l" depth="2" NCoef="0" IVar="-1" Cut="0.0000000000000000e+00" cType="1" res="-1.7230169847607613e-02" rms="4.0884292125701904e-01" purity="2.1787689626216888e-01" nType="-99"/>
          <Node pos="r" depth="2" NCoef="0" IVar="-1" Cut="0.0000000000000000e+00" cType="1" res="-2.9531063046306372e-04" rms="4.8681828379631042e-01" purity="4.6811571717262268e-01" nType="-99"/>
        </Node>
        <Node pos="r" depth="1" NCoef="0" IVar="4" Cut="2.4141757488250732e+00" cType="1" res="1.2700437009334564e-01" rms="4.6298861503601074e-01" purity="6.6791665554046631e-01" nType="0">
          <Node pos="l" depth="2" NCoef="0" IVar="-1" Cut="0.0000000000000000e+00" cType="1" res="5.5355252698063850e-03" rms="4.4661247730255127e-01" purity="7.2311598062515259e-01" nType="-99"/>
          <Node pos="r" depth="2" NCoef="0" IVar="-1" Cut="0.0000000000000000e+00" cType="1" res="-2.2064987570047379e-04" rms="4.9424159526824951e-01" purity="4.7440788149833679e-01" nType="-99"/>
        </Node>
      </Node>
    </BinaryTree>
    <BinaryTree type="DecisionTree" boostWeight="1.0000000000000000e+00" itree="26">
      <Node pos="s" depth="0" NCoef="0" IVar="1" Cut="9.5340347290039062e-01" cType="1" res="1.3941723853349686e-02" rms="4.8334103822708130e-01" purity="5.0382930040359497e-01" nType="0">
        <Node pos="l" depth="1" NCoef="0" IVar="6" Cut="3.8122573852539062e+02" cType="1" res="-5.9303011745214462e-02" rms="4.7841551899909973e-01" purity="3.9180958271026611e-01" nType="0">
          <Node pos="l" depth="2" NCoef="0" IVar="-1" Cut="0.0000000000000000e+00" cType="1" res="-1.0640761815011501e-02" rms="4.3714085221290588e-01" purity="2.6825872063636780e-01" nType="-99"/>
          <Node pos="r" depth="2" NCoef="0" IVar="-1" Cut="0.0000000000000000e+00" cType="1" res="-7.7185645932331681e-04" rms="4.8742976784706116e-01" purity="4.4121399521827698e-01" nType="-99"/>
        </Node>
        <Node pos="r" depth="1" NCoef="0" IVar="4" Cut="2.3889062404632568e+00" cType="1" res="8.0607771873474121e-02" rms="4.7812440991401672e-01" purity="6.0578775405883789e-01" nType="0">
          <Node pos="l" depth="2" NCoef="0" IVar="-1" Cut="0.0000000000000000e+00" cType="1" res="4.3589491397142410e-03" rms="4.6718224883079529e-01" purity="6.7242568731307983e-01" nType="-99"/>
          <Node pos="r" depth="2" NCoef="0" IVar="-1" Cut="0.0000000000000000e+00" cType="1" res="-1.5203056391328573e-03" rms="4.8861140012741089e-01" purity="4.3060812354087830e-01" nType="-99"/>
        </Node>
      </Node>
    </BinaryTree>
    <BinaryTree type="DecisionTree" boostWeight="1.0000000000000000e+00" itree="27">
      <Node pos="s" depth="0" NCoef="0" IVar="4" Cut="2.4423973560333252e+00" cType="1" res="7.3753413744270802e-04" rms="4.8306408524513245e-01" purity="4.8949143290519714e-01" nType="0">
        <Node pos="l" depth="1" NCoef="0" IVar="6" Cut="3.2809652709960938e+02" cType="1" res="4.0156640112400055e-02" rms="4.8776018619537354e-01" purity="5.5438971519470215e-01" nType="0">
          <Node pos="l" depth="2" NCoef="0" IVar="-1" Cut="0.0000000000000000e+00" cType="1" res="-6.8675121292471886e-03" rms="4.7099381685256958e-01" purity="3.6909872293472290e-01" nType="-99"/>
          <Node pos="r" depth="2" NCoef="0" IVar="-1" Cut="0.0000000000000000e+00" cType="1" res="2.5958074256777763e-03" rms="4.8504811525344849e-01" purity="5.8439427614212036e-01" nType="-99"/>
        </Node>
        <Node pos="r" depth="1" NCoef="0" IVar="1" Cut="9.7270923852920532e-01" cType="1" res="-1.1067265272140503e-01" rms="4.5128887891769409e-01" purity="3.0606934428215027e-01" nType="0">
          <Node pos="l" depth="2" NCoef="0" IVar="-1" Cut="0.0000000000000000e+00" cType="1" res="-9.3907238915562630e-03" rms="4.3370479345321655e-01" purity="2.6111984252929688e-01" nType="-99"/>
          <Node pos="r" depth="2" NCoef="0" IVar="-1" Cut="0.0000000000000000e+00" cType="1" res="7.1804162871558219e-05" rms="4.9568346142768860e-01" purity="4.7361388802528381e-01" nType="-99"/>
        </Node>
      </Node>
    </BinaryTree>
    <BinaryTree type="DecisionTree" boostWeight="1.0000000000000000e+00" itree="28">
      <Node pos="s" depth="0" NCoef="0" IVar="4" Cut="2.6629135608673096e+00" cType="1" res="1.2306413613259792e-02" rms="4.8260864615440369e-01" purity="5.0129580497741699e-01" nType="0">
        <Node pos="l" depth="1" NCoef="0" IVar="1" Cut="9.4592112302780151e-01" cType="1" res="3.5216685384511948e-02" rms="4.8609915375709534e-01" purity="5.3539425134658813e-01" nType="0">
          <Node pos="l" depth="2" NCoef="0" IVar="-1" Cut="0.0000000000000000e+00" cType="1" res="-2.2985783871263266e-03" rms="4.8519203066825867e-01" purity="4.0965181589126587e-01" nType="-99"/>
          <Node pos="r" depth="2" NCoef="0" IVar="-1" Cut="0.0000000000000000e+00" cType="1" res="3.1275416258722544e-03" rms="4.8041075468063354e-01" purity="6.0651057958602905e-01" nType="-99"/>
        </Node>
        <Node pos="r" depth="1" NCoef="0" IVar="6" Cut="4.2896231079101562e+02" cType="1" res="-1.7658661305904388e-01" rms="4.0623190999031067e-01" purity="2.2015723586082458e-01" nType="0">
          <Node pos="l" depth="2" NCoef="0" IVar="-1" Cut="0.0000000000000000e+00" cType="1" res="-1.9981475546956062e-02" rms="3.5743507742881775e-01" purity="1.5920114517211914e-01" nType="-99"/>
          <Node pos="r" depth="2" NCoef="0" IVar="-1" Cut="0.0000000000000000e+00" cType="1" res="-8.7124994024634361e-03" rms="4.3859112262725830e-01" purity="2.7230972051620483e-01" nType="-99"/>
        </Node>
      </Node>
    </BinaryTree>
    <BinaryTree type="DecisionTree" boostWeight="1.0000000000000000e+00" itree="29">
      <Node pos="s" depth="0" NCoef="0" IVar="1" Cut="9.7295701503753662e-01" cType="1" res="9.4242366030812263e-03" rms="4.8250290751457214e-01" purity="4.9793025851249695e-01" nType="0">
        <Node pos="l" depth="1" NCoef="0" IVar="0" Cut="1.9731451272964478e+00" cType="1" res="-2.8323616832494736e-02" rms="4.8251748085021973e-01" purity="4.4116923213005066e-01" nType="0">
          <Node pos="l" depth="2" NCoef="0" IVar="-1" Cut="0.0000000000000000e+00" cType="1" res="-3.8134444366733078e-06" rms="4.8907813429832458e-01" purity="4.8085877299308777e-01" nType="-99"/>
          <Node pos="r" depth="2" NCoef="0" IVar="-1" Cut="0.0000000000000000e+00" cType="1" res="-1.1162397451698780e-02" rms="4.2567855119705200e-01" purity="2.5381648540496826e-01" nType="-99"/>
        </Node>
        <Node pos="r" depth="1" NCoef="0" IVar="4" Cut="2.3227605819702148e+00" cType="1" res="1.1942352354526520e-01" rms="4.6531277894973755e-01" purity="6.6333502531051636e-01" nType="0">
          <Node pos="l" depth="2" NCoef="0" IVar="-1" Cut="0.0000000000000000e+00" cType="1" res="5.1496718078851700e-03" rms="4.4675678014755249e-01" purity="7.2355222702026367e-01" nType="-99"/>
          <Node pos="r" depth="2" NCoef="0" IVar="-1" Cut="0.0000000000000000e+00" cType="1" res="2.1414551883935928e-03" rms="4.9203813076019287e-01" purity="5.4694551229476929e-01" nType="-99"/>
        </Node>
      </Node>
    </BinaryTree>
    <BinaryTree type="DecisionTree" boostWeight="1.0000000000000000e+00" itree="30">
      <Node pos="s" depth="0" NCoef="0" IVar="4" Cut="2.3479535579681396e+00" cType="1" res="1.1420708149671555e-02" rms="4.8150259256362915e-01" purity="5.0029540061950684e-01" nType="0">
        <Node pos="l" depth="1" NCoef="0" IVar="6" Cut="3.2809652709960938e+02" cType="1" res="6.0275550931692123e-02" rms="4.8415374755859375e-01" purity="5.8221584558486938e-01" nType="0">
          <Node pos="l" depth="2" NCoef="0" IVar="-1" Cut="0.0000000000000000e+00" cType="1" res="-5.0030974671244621e-03" rms="4.8035562038421631e-01" purity="4.0192210674285889e-01" nType="-99"/>
          <Node pos="r" depth="2" NCoef="0" IVar="-1" Cut="0.0000000000000000e+00" cType="1" res="3.1711866613477468e-03" rms="4.8016127943992615e-01" purity="6.1046433448791504e-01" nType="-99"/>
        </Node>
        <Node pos="r" depth="1" NCoef="0" IVar="1" Cut="9.5979326963424683e-01" cType="1" res="-7.7020496129989624e-02" rms="4.6375381946563721e-01" purity="3.5199588537216187e-01" nType="0">
          <Node pos="l" depth="2" NCoef="0" IVar="-1" Cut="0.0000000000000000e+00" cType="1" res="-8.0557148903608322e-03" rms="4.3795907497406006e-01" purity="2.7735397219657898e-01" nType="-99"/>
          <Node pos="r" depth="2" NCoef="0" IVar="-1" Cut="0.0000000000000000e+00" cType="1" res="1.5022284060250968e-04" rms="4.9271404743194580e-01" purity="4.7418421506881714e-01" nType="-99"/>
        </Node>
      </Node>
    </BinaryTree>
    <BinaryTree type="DecisionTree" boostWeight="1.0000000000000000e+00" itree="31">
      <Node pos="s" depth="0" NCoef="0" IVar="4" Cut="2.2005615234375000e+00" cType="1" res="1.7447920516133308e-02" rms="4.8153021931648254e-01" purity="5.0600284337997437e-01" nType="0">
        <Node pos="l" depth="1" NCoef="0" IVar="2" Cut="5.0911594390869141e+01" cType="1" res="8.5779137909412384e-02" rms="4.7915473580360413e-01" purity="6.1046445369720459e-01" nType="0">
          <Node pos="l" depth="2" NCoef="0" IVar="-1" Cut="0.0000000000000000e+00" cType="1" res="-1.4380336506292224e-03" rms="4.9157294631004333e-01" purity="4.8397463560104370e-01" nType="-99"/>
          <Node pos="r" depth="2" NCoef="0" IVar="-1" Cut="0.0000000000000000e+00" cType="1" res="4.5707775279879570e-03" rms="4.6748885512351990e-01" purity="6.5543603897094727e-01" nType="-99"/>
        </Node>
        <Node pos="r" depth="1" NCoef="0" IVar="0" Cut="1.8890933990478516e+00" cType="1" res="-4.5615803450345993e-02" rms="4.7506973147392273e-01" purity="4.0959388017654419e-01" nType="0">
          <Node pos="l" depth="2" NCoef="0" IVar="-1" Cut="0.0000000000000000e+00" cType="1" res="-3.7292978959158063e-04" rms="4.8551428318023682e-01" purity="4.6201318502426147e-01" nType="-99"/>
          <Node pos="r" depth="2" NCoef="0" IVar="-1" Cut="0.0000000000000000e+00" cType="1" res="-8.3943670615553856e-03" rms="4.3809014558792114e-01" purity="2.8912368416786194e-01" nType="-99"/>
        </Node>
      </Node>
    </BinaryTree>
    <BinaryTree type="DecisionTree" boostWeight="1.0000000000000000e+00" itree="32">
      <Node pos="s" depth="0" NCoef="0" IVar="6" Cut="4.2691940307617188e+02" cType="1" res="1.1514197103679180e-02" rms="4.8121619224548340e-01" purity="5.0034242868423462e-01" nType="0">
        <Node pos="l" depth="1" NCoef="0" IVar="1" Cut="9.3411594629287720e-01" cType="1" res="-6.4785264432430267e-02" rms="4.7263002395629883e-01" purity="4.1079890727996826e-01" nType="0">
          <Node pos="l" depth="2" NCoef="0" IVar="-1" Cut="0.0000000000000000e+00" cType="1" res="-1.1404407210648060e-02" rms="4.2093586921691895e-01" purity="2.4758784472942352e-01" nType="-99"/>
          <Node pos="r" depth="2" NCoef="0" IVar="-1" Cut="0.0000000000000000e+00" cType="1" res="-1.4060516841709614e-03" rms="4.8257556557655334e-01" purity="4.6244147419929504e-01" nType="-99"/>
        </Node>
        <Node pos="r" depth="1" NCoef="0" IVar="0" Cut="1.8327215909957886e+00" cType="1" res="5.8311406522989273e-02" rms="4.8044937849044800e-01" purity="5.5526268482208252e-01" nType="0">
          <Node pos="l" depth="2" NCoef="0" IVar="-1" Cut="0.0000000000000000e+00" cType="1" res="3.5388791002333164e-03" rms="4.7867253422737122e-01" purity="6.0218024253845215e-01" nType="-99"/>
          <Node pos="r" depth="2" NCoef="0" IVar="-1" Cut="0.0000000000000000e+00" cType="1" res="-3.8848828990012407e-03" rms="4.6371066570281982e-01" purity="3.8129201531410217e-01" nType="-99"/>
        </Node>
      </Node>
    </BinaryTree>
    <BinaryTree type="DecisionTree" boostWeight="1.0000000000000000e+00" itree="33">
      <Node pos="s" depth="0" NCoef="0" IVar="6" Cut="3.2809652709960938e+02" cType="1" res="1.0430173948407173e-02" rms="4.8068726062774658e-01" purity="4.9861502647399902e-01" nType="0">
        <Node pos="l" depth="1" NCoef="0" IVar="5" Cut="1.2620472908020020e+00" cType="1" res="-1.4604040980339050e-01" rms="4.4755965471267700e-01" purity="3.0688196420669556e-01" nType="0">
          <Node pos="l" depth="2" NCoef="0" IVar="-1" Cut="0.0000000000000000e+00" cType="1" res="-4.5601101592183113e-03" rms="4.7577959299087524e-01" purity="3.7997409701347351e-01" nType="-99"/>
          <Node pos="r" depth="2" NCoef="0" IVar="-1" Cut="0.0000000000000000e+00" cType="1" res="-1.7136765643954277e-02" rms="3.9239451289176941e-01" purity="2.1040704846382141e-01" nType="-99"/>
        </Node>
        <Node pos="r" depth="1" NCoef="0" IVar="4" Cut="2.5474989414215088e+00" cType="1" res="3.5311419516801834e-02" rms="4.8107981681823730e-01" purity="5.2910351753234863e-01" nType="0">
          <Node pos="l" depth="2" NCoef="0" IVar="-1" Cut="0.0000000000000000e+00" cType="1" res="2.5113420560956001e-03" rms="4.8318007588386536e-01" purity="5.7743453979492188e-01" nType="-99"/>
          <Node pos="r" depth="2" NCoef="0" IVar="-1" Cut="0.0000000000000000e+00" cType="1" res="-6.6237556748092175e-03" rms="4.4500905275344849e-01" purity="2.9516288638114929e-01" nType="-99"/>
        </Node>
      </Node>
    </BinaryTree>
    <BinaryTree type="DecisionTree" boostWeight="1.0000000000000000e+00" itree="34">
      <Node pos="s" depth="0" NCoef="0" IVar="4" Cut="2.3030660152435303e+00" cType="1" res="1.4687094837427139e-02" rms="4.7929200530052185e-01" purity="5.0324440002441406e-01" nType="0">
        <Node pos="l" depth="1" NCoef="0" IVar="2" Cut="5.0911594390869141e+01" cType="1" res="6.7666515707969666e-02" rms="4.8115807771682739e-01" purity="5.9270620346069336e-01" nType="0">
          <Node pos="l" depth="2" NCoef="0" IVar="-1" Cut="0.0000000000000000e+00" cType="1" res="-1.9119235221296549e-03" rms="4.9032491445541382e-01" purity="4.7067815065383911e-01" nType="-99"/>
          <Node pos="r" depth="2" NCoef="0" IVar="-1" Cut="0.0000000000000000e+00" cType="1" res="3.7994212470948696e-03" rms="4.7278070449829102e-01" purity="6.3152247667312622e-01" nType="-99"/>
        </Node>
        <Node pos="r" depth="1" NCoef="0" IVar="1" Cut="9.6582853794097900e-01" cType="1" res="-6.4527049660682678e-02" rms="4.6537020802497864e-01" purity="3.6948218941688538e-01" nType="0">
          <Node pos="l" depth="2" NCoef="0" IVar="-1" Cut="0.0000000000000000e+00" cType="1" res="-6.5233511850237846e-03" rms="4.4784539937973022e-01" purity="3.0320030450820923e-01" nType="-99"/>
          <Node pos="r" depth="2" NCoef="0" IVar="-1" Cut="0.0000000000000000e+00" cType="1" res="1.2808892643079162e-03" rms="4.8932805657386780e-01" purity="5.1685971021652222e-01" nType="-99"/>
        </Node>
      </Node>
    </BinaryTree>
    <BinaryTree type="DecisionTree" boostWeight="1.0000000000000000e+00" itree="35">
      <Node pos="s" depth="0" NCoef="0" IVar="1" Cut="9.5257085561752319e-01" cType="1" res="2.0608160644769669e-02" rms="4.8047181963920593e-01" purity="5.0892430543899536e-01" nType="0">
        <Node pos="l" depth="1" NCoef="0" IVar="4" Cut="2.2005615234375000e+00" cType="1" res="-4.2366258800029755e-02" rms="4.7699353098869324e-01" purity="4.0073075890541077e-01" nType="0">
          <Node pos="l" depth="2" NCoef="0" IVar="-1" Cut="0.0000000000000000e+00" cType="1" res="7.1745057357475162e-04" rms="4.9580365419387817e-01" purity="5.0098031759262085e-01" nType="-99"/>
          <Node pos="r" depth="2" NCoef="0" IVar="-1" Cut="0.0000000000000000e+00" cType="1" res="-5.2871028892695904e-03" rms="4.5564547181129456e-01" purity="3.1975394487380981e-01" nType="-99"/>
        </Node>
        <Node pos="r" depth="1" NCoef="0" IVar="4" Cut="2.5518023967742920e+00" cType="1" res="7.5935140252113342e-02" rms="4.7669047117233276e-01" purity="6.0397917032241821e-01" nType="0">
          <Node pos="l" depth="2" NCoef="0" IVar="-1" Cut="0.0000000000000000e+00" cType="1" res="3.6233696155250072e-03" rms="4.7287774085998535e-01" purity="6.4395183324813843e-01" nType="-99"/>
          <Node pos="r" depth="2" NCoef="0" IVar="-1" Cut="0.0000000000000000e+00" cType="1" res="-2.9007841367274523e-03" rms="4.7832980751991272e-01" purity="3.7422555685043335e-01" nType="-99"/>
        </Node>
      </Node>
    </BinaryTree>
    <BinaryTree type="DecisionTree" boostWeight="1.0000000000000000e+00" itree="36">
      <Node pos="s" depth="0" NCoef="0" IVar="1" Cut="9.3266636133193970e-01" cType="1" res="9.5417508855462074e-03" rms="4.7981384396553040e-01" purity="4.9674722552299500e-01" nType="0">
        <Node pos="l" depth="1" NCoef="0" IVar="5" Cut="1.2149177789688110e+00" cType="1" res="-1.0142017900943756e-01" rms="4.5873570442199707e-01" purity="3.3150497078895569e-01" nType="0">
          <Node pos="l" depth="2" NCoef="0" IVar="-1" Cut="0.0000000000000000e+00" cType="1" res="-1.9128948915749788e-03" rms="4.8029816150665283e-01" purity="4.0116643905639648e-01" nType="-99"/>
          <Node pos="r" depth="2" NCoef="0" IVar="-1" Cut="0.0000000000000000e+00" cType="1" res="-8.9974496513605118e-03" rms="4.3650877475738525e-01" purity="2.8031632304191589e-01" nType="-99"/>
        </Node>
        <Node pos="r" depth="1" NCoef="0" IVar="4" Cut="2.4684813022613525e+00" cType="1" res="4.0214736014604568e-02" rms="4.8098388314247131e-01" purity="5.4242479801177979e-01" nType="0">
          <Node pos="l" depth="2" NCoef="0" IVar="-1" Cut="0.0000000000000000e+00" cType="1" res="2.7420860715210438e-03" rms="4.8056504130363464e-01" purity="6.0177659988403320e-01" nType="-99"/>
          <Node pos="r" depth="2" NCoef="0" IVar="-1" Cut="0.0000000000000000e+00" cType="1" res="-3.7519459147006273e-03" rms="4.6742987632751465e-01" purity="3.4384694695472717e-01" nType="-99"/>
        </Node>
      </Node>
    </BinaryTree>
    <BinaryTree type="DecisionTree" boostWeight="1.0000000000000000e+00" itree="37">
      <Node pos="s" depth="0" NCoef="0" IVar="1" Cut="9.4589811563491821e-01" cType="1" res="1.0781387798488140e-02" rms="4.7990238666534424e-01" purity="4.9790063500404358e-01" nType="0">
        <Node pos="l" depth="1" NCoef="0" IVar="6" Cut="4.8806063842773438e+02" cType="1" res="-6.4700208604335785e-02" rms="4.6974432468414307e-01" purity="3.7101688981056213e-01" nType="0">
          <Node pos="l" depth="2" NCoef="0" IVar="-1" Cut="0.0000000000000000e+00" cType="1" res="-6.5713236108422279e-03" rms="4.4978320598602295e-01" purity="3.1083631515502930e-01" nType="-99"/>
          <Node pos="r" depth="2" NCoef="0" IVar="-1" Cut="0.0000000000000000e+00" cType="1" res="-3.4309833426959813e-04" rms="4.8641991615295410e-01" purity="4.4311988353729248e-01" nType="-99"/>
        </Node>
        <Node pos="r" depth="1" NCoef="0" IVar="4" Cut="2.3242576122283936e+00" cType="1" res="5.4943926632404327e-02" rms="4.8027753829956055e-01" purity="5.7213735580444336e-01" nType="0">
          <Node pos="l" depth="2" NCoef="0" IVar="-1" Cut="0.0000000000000000e+00" cType="1" res="3.5212463699281216e-03" rms="4.7261807322502136e-01" purity="6.4921730756759644e-01" nType="-99"/>
          <Node pos="r" depth="2" NCoef="0" IVar="-1" Cut="0.0000000000000000e+00" cType="1" res="-1.0228216415271163e-03" rms="4.8475143313407898e-01" purity="4.3291077017784119e-01" nType="-99"/>
        </Node>
      </Node>
    </BinaryTree>
    <BinaryTree type="DecisionTree" boostWeight="1.0000000000000000e+00" itree="38">
      <Node pos="s" depth="0" NCoef="0" IVar="6" Cut="3.2835253906250000e+02" cType="1" res="1.6267769038677216e-02" rms="4.7980695962905884e-01" purity="5.0339257717132568e-01" nType="0">
        <Node pos="l" depth="1" NCoef="0" IVar="1" Cut="9.6081542968750000e-01" cType="1" res="-1.2800726294517517e-01" rms="4.5017415285110474e-01" purity="3.2007279992103577e-01" nType="0">
          <Node pos="l" depth="2" NCoef="0" IVar="-1" Cut="0.0000000000000000e+00" cType="1" res="-1.2480073608458042e-02" rms="4.1706585884094238e-01" purity="2.3378565907478333e-01" nType="-99"/>
          <Node pos="r" depth="2" NCoef="0" IVar="-1" Cut="0.0000000000000000e+00" cType="1" res="-2.4872117210179567e-03" rms="4.9135404825210571e-01" purity="4.6524319052696228e-01" nType="-99"/>
        </Node>
        <Node pos="r" depth="1" NCoef="0" IVar="5" Cut="1.5265413522720337e+00" cType="1" res="3.9877738803625107e-02" rms="4.8037558794021606e-01" purity="5.3339201211929321e-01" nType="0">
          <Node pos="l" depth="2" NCoef="0" IVar="-1" Cut="0.0000000000000000e+00" cType="1" res="2.8889942914247513e-03" rms="4.7798240184783936e-01" purity="5.7072716951370239e-01" nType="-99"/>
          <Node pos="r" depth="2" NCoef="0" IVar="-1" Cut="0.0000000000000000e+00" cType="1" res="-3.6903948057442904e-03" rms="4.7151887416839600e-01" purity="4.0400075912475586e-01" nType="-99"/>
        </Node>
      </Node>
    </BinaryTree>
    <BinaryTree type="DecisionTree" boostWeight="1.0000000000000000e+00" itree="39">
      <Node pos="s" depth="0" NCoef="0" IVar="6" Cut="3.9722195434570312e+02" cType="1" res="8.2258945330977440e-03" rms="4.7888940572738647e-01" purity="4.9623206257820129e-01" nType="0">
        <Node pos="l" depth="1" NCoef="0" IVar="1" Cut="9.7396993637084961e-01" cType="1" res="-8.3602070808410645e-02" rms="4.6576899290084839e-01" purity="3.8098296523094177e-01" nType="0">
          <Node pos="l" depth="2" NCoef="0" IVar="-1" Cut="0.0000000000000000e+00" cType="1" res="-6.6217598505318165e-03" rms="4.5462101697921753e-01" purity="3.2844412326812744e-01" nType="-99"/>
          <Node pos="r" depth="2" NCoef="0" IVar="-1" Cut="0.0000000000000000e+00" cType="1" res="9.2083588242530823e-04" rms="4.8807066679000854e-01" purity="5.6312918663024902e-01" nType="-99"/>
        </Node>
        <Node pos="r" depth="1" NCoef="0" IVar="4" Cut="2.2888672351837158e+00" cType="1" res="4.9485418945550919e-02" rms="4.7897061705589294e-01" purity="5.4801493883132935e-01" nType="0">
          <Node pos="l" depth="2" NCoef="0" IVar="-1" Cut="0.0000000000000000e+00" cType="1" res="3.7314991932362318e-03" rms="4.7285333275794983e-01" purity="6.4066213369369507e-01" nType="-99"/>
          <Node pos="r" depth="2" NCoef="0" IVar="-1" Cut="0.0000000000000000e+00" cType="1" res="-1.3632058398798108e-03" rms="4.7715520858764648e-01" purity="4.1672310233116150e-01" nType="-99"/>
        </Node>
      </Node>
    </BinaryTree>
    <BinaryTree type="DecisionTree" boostWeight="1.0000000000000000e+00" itree="40">
      <Node pos="s" depth="0" NCoef="0" IVar="4" Cut="2.5853106975555420e+00" cType="1" res="8.0393152311444283e-03" rms="4.7829645872116089e-01" purity="4.9598175287246704e-01" nType="0">
        <Node pos="l" depth="1" NCoef="0" IVar="1" Cut="9.4589811563491821e-01" cType="1" res="3.1906023621559143e-02" rms="4.8368945717811584e-01" purity="5.3945899009704590e-01" nType="0">
          <Node pos="l" depth="2" NCoef="0" IVar="-1" Cut="0.0000000000000000e+00" cType="1" res="-1.9521143985912204e-03" rms="4.8442029953002930e-01" purity="4.1350233554840088e-01" nType="-99"/>
          <Node pos="r" depth="2" NCoef="0" IVar="-1" Cut="0.0000000000000000e+00" cType="1" res="2.7600142639130354e-03" rms="4.7860482335090637e-01" purity="6.0919344425201416e-01" nType="-99"/>
        </Node>
        <Node pos="r" depth="1" NCoef="0" IVar="0" Cut="1.6541435718536377e+00" cType="1" res="-1.2640494108200073e-01" rms="4.2220714688301086e-01" purity="2.5106900930404663e-01" nType="0">
          <Node pos="l" depth="2" NCoef="0" IVar="-1" Cut="0.0000000000000000e+00" cType="1" res="-3.8527965079993010e-03" rms="4.6200498938560486e-01" purity="3.2908135652542114e-01" nType="-99"/>
          <Node pos="r" depth="2" NCoef="0" IVar="-1" Cut="0.0000000000000000e+00" cType="1" res="-1.5345557592809200e-02" rms="3.7708166241645813e-01" purity="1.8430015444755554e-01" nType="-99"/>
        </Node>
      </Node>
    </BinaryTree>
    <BinaryTree type="DecisionTree" boostWeight="1.0000000000000000e+00" itree="41">
      <Node pos="s" depth="0" NCoef="0" IVar="1" Cut="9.7267180681228638e-01" cType="1" res="1.0990029200911522e-02" rms="4.7834610939025879e-01" purity="4.9786350131034851e-01" nType="0">
        <Node pos="l" depth="1" NCoef="0" IVar="2" Cut="5.0450492858886719e+01" cType="1" res="-2.1977255120873451e-02" rms="4.7946187853813171e-01" purity="4.4205316901206970e-01" nType="0">
          <Node pos="l" depth="2" NCoef="0" IVar="-1" Cut="0.0000000000000000e+00" cType="1" res="-6.8151624873280525e-03" rms="4.6377450227737427e-01" purity="3.4574520587921143e-01" nType="-99"/>
          <Node pos="r" depth="2" NCoef="0" IVar="-1" Cut="0.0000000000000000e+00" cType="1" res="1.4811777509748936e-04" rms="4.7993722558021545e-01" purity="4.6584215760231018e-01" nType="-99"/>
        </Node>
        <Node pos="r" depth="1" NCoef="0" IVar="4" Cut="2.3435168266296387e+00" cType="1" res="1.0812827944755554e-01" rms="4.6154946088790894e-01" purity="6.6230899095535278e-01" nType="0">
          <Node pos="l" depth="2" NCoef="0" IVar="-1" Cut="0.0000000000000000e+00" cType="1" res="4.9009462818503380e-03" rms="4.4315284490585327e-01" purity="7.2869902849197388e-01" nType="-99"/>
          <Node pos="r" depth="2" NCoef="0" IVar="-1" Cut="0.0000000000000000e+00" cType="1" res="8.9628726709634066e-04" rms="4.9080148339271545e-01" purity="5.0674182176589966e-01" nType="-99"/>
        </Node>
      </Node>
    </BinaryTree>
    <BinaryTree type="DecisionTree" boostWeight="1.0000000000000000e+00" itree="42">
      <Node pos="s" depth="0" NCoef="0" IVar="1" Cut="9.4697403907775879e-01" cType="1" res="1.0801820084452629e-02" rms="4.7698825597763062e-01" purity="4.9977084994316101e-01" nType="0">
        <Node pos="l" depth="1" NCoef="0" IVar="4" Cut="2.1232254505157471e+00" cType="1" res="-6.8921498954296112e-02" rms="4.6578347682952881e-01" purity="3.6284443736076355e-01" nType="0">
          <Node pos="l" depth="2" NCoef="0" IVar="-1" Cut="0.0000000000000000e+00" cType="1" res="6.0316978488117456e-04" rms="4.9345692992210388e-01" purity="4.9048888683319092e-01" nType="-99"/>
          <Node pos="r" depth="2" NCoef="0" IVar="-1" Cut="0.0000000000000000e+00" cType="1" res="-7.2406176477670670e-03" rms="4.4225528836250305e-01" purity="2.8989577293395996e-01" nType="-99"/>
        </Node>
        <Node pos="r" depth="1" NCoef="0" IVar="6" Cut="3.3726367187500000e+02" cType="1" res="5.8257523924112320e-02" rms="4.7725299000740051e-01" purity="5.8127695322036743e-01" nType="0">
          <Node pos="l" depth="2" NCoef="0" IVar="-1" Cut="0.0000000000000000e+00" cType="1" res="-4.8914998769760132e-03" rms="4.7396579384803772e-01" purity="3.9713543653488159e-01" nType="-99"/>
          <Node pos="r" depth="2" NCoef="0" IVar="-1" Cut="0.0000000000000000e+00" cType="1" res="3.1950308475643396e-03" rms="4.7313359379768372e-01" purity="6.1253923177719116e-01" nType="-99"/>
        </Node>
      </Node>
    </BinaryTree>
    <BinaryTree type="DecisionTree" boostWeight="1.0000000000000000e+00" itree="43">
      <Node pos="s" depth="0" NCoef="0" IVar="4" Cut="2.3030660152435303e+00" cType="1" res="7.9346839338541031e-03" rms="4.7768232226371765e-01" purity="4.9491101503372192e-01" nType="0">
        <Node pos="l" depth="1" NCoef="0" IVar="2" Cut="3.6599815368652344e+01" cType="1" res="5.3826328366994858e-02" rms="4.8114958405494690e-01" purity="5.8296906948089600e-01" nType="0">
          <Node pos="l" depth="2" NCoef="0" IVar="-1" Cut="0.0000000000000000e+00" cType="1" res="-7.6775182969868183e-03" rms="4.6999523043632507e-01" purity="3.6332812905311584e-01" nType="-99"/>
          <Node pos="r" depth="2" NCoef="0" IVar="-1" Cut="0.0000000000000000e+00" cType="1" res="2.8586667031049728e-03" rms="4.7751662135124207e-01" purity="6.0699254274368286e-01" nType="-99"/>
        </Node>
        <Node pos="r" depth="1" NCoef="0" IVar="6" Cut="4.4720556640625000e+02" cType="1" res="-6.0592498630285263e-02" rms="4.6408548951148987e-01" purity="3.6341932415962219e-01" nType="0">
          <Node pos="l" depth="2" NCoef="0" IVar="-1" Cut="0.0000000000000000e+00" cType="1" res="-8.6526582017540932e-03" rms="4.3181669712066650e-01" purity="2.7592739462852478e-01" nType="-99"/>
          <Node pos="r" depth="2" NCoef="0" IVar="-1" Cut="0.0000000000000000e+00" cType="1" res="-3.4265147405676544e-04" rms="4.8064193129539490e-01" purity="4.3074053525924683e-01" nType="-99"/>
        </Node>
      </Node>
    </BinaryTree>
    <BinaryTree type="DecisionTree" boostWeight="1.0000000000000000e+00" itree="44">
      <Node pos="s" depth="0" NCoef="0" IVar="4" Cut="2.5058546066284180e+00" cType="1" res="1.4661161229014397e-02" rms="4.7731894254684448e-01" purity="5.0117874145507812e-01" nType="0">
        <Node pos="l" depth="1" NCoef="0" IVar="2" Cut="5.8349678039550781e+01" cType="1" res="4.1995339095592499e-02" rms="4.8304450511932373e-01" purity="5.5643564462661743e-01" nType="0">
          <Node pos="l" depth="2" NCoef="0" IVar="-1" Cut="0.0000000000000000e+00" cType="1" res="-1.9545420072972775e-03" rms="4.8584237694740295e-01" purity="4.6264767646789551e-01" nType="-99"/>
          <Node pos="r" depth="2" NCoef="0" IVar="-1" Cut="0.0000000000000000e+00" cType="1" res="2.9331038240343332e-03" rms="4.7767144441604614e-01" purity="5.9445846080780029e-01" nType="-99"/>
        </Node>
        <Node pos="r" depth="1" NCoef="0" IVar="1" Cut="9.4684654474258423e-01" cType="1" res="-9.1223493218421936e-02" rms="4.3866547942161560e-01" purity="2.8712967038154602e-01" nType="0">
          <Node pos="l" depth="2" NCoef="0" IVar="-1" Cut="0.0000000000000000e+00" cType="1" res="-1.2482278048992157e-02" rms="3.8516277074813843e-01" purity="1.8839037418365479e-01" nType="-99"/>
          <Node pos="r" depth="2" NCoef="0" IVar="-1" Cut="0.0000000000000000e+00" cType="1" res="-2.6840567588806152e-03" rms="4.7147959470748901e-01" purity="3.6378794908523560e-01" nType="-99"/>
        </Node>
      </Node>
    </BinaryTree>
    <BinaryTree type="DecisionTree" boostWeight="1.0000000000000000e+00" itree="45">
      <Node pos="s" depth="0" NCoef="0" IVar="0" Cut="2.0375695228576660e+00" cType="1" res="1.7978247255086899e-02" rms="4.7750434279441833e-01" purity="5.0493443012237549e-01" nType="0">
        <Node pos="l" depth="1" NCoef="0" IVar="6" Cut="3.9722195434570312e+02" cType="1" res="3.9551611989736557e-02" rms="4.8062878847122192e-01" purity="5.3839451074600220e-01" nType="0">
          <Node pos="l" depth="2" NCoef="0" IVar="-1" Cut="0.0000000000000000e+00" cType="1" res="-2.3614552337676287e-03" rms="4.7458812594413757e-01" purity="4.2460614442825317e-01" nType="-99"/>
          <Node pos="r" depth="2" NCoef="0" IVar="-1" Cut="0.0000000000000000e+00" cType="1" res="3.0398967210203409e-03" rms="4.7824883460998535e-01" purity="5.8894389867782593e-01" nType="-99"/>
        </Node>
        <Node pos="r" depth="1" NCoef="0" IVar="1" Cut="9.6091657876968384e-01" cType="1" res="-1.1557935178279877e-01" rms="4.3446323275566101e-01" purity="2.9778802394866943e-01" nType="0">
          <Node pos="l" depth="2" NCoef="0" IVar="-1" Cut="0.0000000000000000e+00" cType="1" res="-1.1179357767105103e-02" rms="4.0639078617095947e-01" purity="2.2229348123073578e-01" nType="-99"/>
          <Node pos="r" depth="2" NCoef="0" IVar="-1" Cut="0.0000000000000000e+00" cType="1" res="-2.8523148503154516e-03" rms="4.7360411286354065e-01" purity="4.2962512373924255e-01" nType="-99"/>
        </Node>
      </Node>
    </BinaryTree>
    <BinaryTree type="DecisionTree" boostWeight="1.0000000000000000e+00" itree="46">
      <Node pos="s" depth="0" NCoef="0" IVar="1" Cut="9.5254844427108765e-01" cType="1" res="1.8194448202848434e-02" rms="4.7612446546554565e-01" purity="5.0615251064300537e-01" nType="0">
        <Node pos="l" depth="1" NCoef="0" IVar="0" Cut="1.8907073736190796e+00" cType="1" res="-4.2687676846981049e-02" rms="4.7219735383987427e-01" purity="3.9124080538749695e-01" nType="0">
          <Node pos="l" depth="2" NCoef="0" IVar="-1" Cut="0.0000000000000000e+00" cType="1" res="-7.2274910053238273e-04" rms="4.8542660474777222e-01" purity="4.3565818667411804e-01" nType="-99"/>
          <Node pos="r" depth="2" NCoef="0" IVar="-1" Cut="0.0000000000000000e+00" cType="1" res="-1.0818130336701870e-02" rms="4.0197786688804626e-01" purity="2.2340185940265656e-01" nType="-99"/>
        </Node>
        <Node pos="r" depth="1" NCoef="0" IVar="4" Cut="2.6212284564971924e+00" cType="1" res="7.0859670639038086e-02" rms="4.7321879863739014e-01" purity="6.0555517673492432e-01" nType="0">
          <Node pos="l" depth="2" NCoef="0" IVar="-1" Cut="0.0000000000000000e+00" cType="1" res="3.3101318404078484e-03" rms="4.7134065628051758e-01" purity="6.3843649625778198e-01" nType="-99"/>
          <Node pos="r" depth="2" NCoef="0" IVar="-1" Cut="0.0000000000000000e+00" cType="1" res="-5.3077479824423790e-03" rms="4.6026298403739929e-01" purity="3.2065039873123169e-01" nType="-99"/>
        </Node>
      </Node>
    </BinaryTree>
    <BinaryTree type="DecisionTree" boostWeight="1.0000000000000000e+00" itree="47">
      <Node pos="s" depth="0" NCoef="0" IVar="2" Cut="4.9272815704345703e+01" cType="1" res="2.2038139402866364e-02" rms="4.7697842121124268e-01" purity="5.0874209403991699e-01" nType="0">
        <Node pos="l" depth="1" NCoef="0" IVar="2" Cut="3.8760646820068359e+01" cType="1" res="-8.3394654095172882e-02" rms="4.7413039207458496e-01" purity="4.0282228589057922e-01" nType="0">
          <Node pos="l" depth="2" NCoef="0" IVar="-1" Cut="0.0000000000000000e+00" cType="1" res="-7.7548543922603130e-03" rms="4.5846351981163025e-01" purity="3.4176954627037048e-01" nType="-99"/>
          <Node pos="r" depth="2" NCoef="0" IVar="-1" Cut="0.0000000000000000e+00" cType="1" res="-9.9965452682226896e-04" rms="4.8330906033515930e-01" purity="4.6945074200630188e-01" nType="-99"/>
        </Node>
        <Node pos="r" depth="1" NCoef="0" IVar="0" Cut="1.5469112396240234e+00" cType="1" res="4.5554887503385544e-02" rms="4.7442612051963806e-01" purity="5.3236746788024902e-01" nType="0">
          <Node pos="l" depth="2" NCoef="0" IVar="-1" Cut="0.0000000000000000e+00" cType="1" res="4.0425127372145653e-03" rms="4.6966880559921265e-01" purity="6.2064337730407715e-01" nType="-99"/>
          <Node pos="r" depth="2" NCoef="0" IVar="-1" Cut="0.0000000000000000e+00" cType="1" res="-1.5884137246757746e-03" rms="4.6881350874900818e-01" purity="4.2356538772583008e-01" nType="-99"/>
        </Node>
      </Node>
    </BinaryTree>
    <BinaryTree type="DecisionTree" boostWeight="1.0000000000000000e+00" itree="48">
      <Node pos="s" depth="0" NCoef="0" IVar="0" Cut="2.0375695228576660e+00" cType="1" res="1.3495275750756264e-02" rms="4.7692835330963135e-01" purity="5.0064420700073242e-01" nType="0">
        <Node pos="l" depth="1" NCoef="0" IVar="2" Cut="5.0911594390869141e+01" cType="1" res="3.3816907554864883e-02" rms="4.8050862550735474e-01" purity="5.3449332714080811e-01" nType="0">
          <Node pos="l" depth="2" NCoef="0" IVar="-1" Cut="0.0000000000000000e+00" cType="1" res="-4.3089743703603745e-03" rms="4.7360032796859741e-01" purity="4.0004193782806396e-01" nType="-99"/>
          <Node pos="r" depth="2" NCoef="0" IVar="-1" Cut="0.0000000000000000e+00" cType="1" res="2.7382855769246817e-03" rms="4.7689032554626465e-01" purity="5.7371956110000610e-01" nType="-99"/>
        </Node>
        <Node pos="r" depth="1" NCoef="0" IVar="1" Cut="9.5459169149398804e-01" cType="1" res="-1.0975705087184906e-01" rms="4.3471184372901917e-01" purity="2.9534614086151123e-01" nType="0">
          <Node pos="l" depth="2" NCoef="0" IVar="-1" Cut="0.0000000000000000e+00" cType="1" res="-1.3318510726094246e-02" rms="3.8880029320716858e-01" purity="1.8869620561599731e-01" nType="-99"/>
          <Node pos="r" depth="2" NCoef="0" IVar="-1" Cut="0.0000000000000000e+00" cType="1" res="-2.7481245342642069e-03" rms="4.7707334160804749e-01" purity="4.2030861973762512e-01" nType="-99"/>
        </Node>
      </Node>
    </BinaryTree>
    <BinaryTree type="DecisionTree" boostWeight="1.0000000000000000e+00" itree="49">
      <Node pos="s" depth="0" NCoef="0" IVar="6" Cut="4.2185641479492188e+02" cType="1" res="9.3316892161965370e-03" rms="4.7553336620330811e-01" purity="4.9661761522293091e-01" nType="0">
        <Node pos="l" depth="1" NCoef="0" IVar="5" Cut="1.3639758825302124e+00" cType="1" res="-5.9410508722066879e-02" rms="4.6794292330741882e-01" purity="4.0079301595687866e-01" nType="0">
          <Node pos="l" depth="2" NCoef="0" IVar="-1" Cut="0.0000000000000000e+00" cType="1" res="-9.6098525682464242e-04" rms="4.7706779837608337e-01" purity="4.5079350471496582e-01" nType="-99"/>
          <Node pos="r" depth="2" NCoef="0" IVar="-1" Cut="0.0000000000000000e+00" cType="1" res="-8.9920582249760628e-03" rms="4.3723899126052856e-01" purity="2.9690477252006531e-01" nType="-99"/>
        </Node>
        <Node pos="r" depth="1" NCoef="0" IVar="0" Cut="2.0383186340332031e+00" cType="1" res="4.9133058637380600e-02" rms="4.7535061836242676e-01" purity="5.5209958553314209e-01" nType="0">
          <Node pos="l" depth="2" NCoef="0" IVar="-1" Cut="0.0000000000000000e+00" cType="1" res="2.9126401059329510e-03" rms="4.7657489776611328e-01" purity="5.9170174598693848e-01" nType="-99"/>
          <Node pos="r" depth="2" NCoef="0" IVar="-1" Cut="0.0000000000000000e+00" cType="1" res="-8.9661804959177971e-03" rms="4.2294758558273315e-01" purity="2.7906098961830139e-01" nType="-99"/>
        </Node>
      </Node>
    </BinaryTree>
    <BinaryTree type="DecisionTree" boostWeight="1.0000000000000000e+00" itree="50">
      <Node pos="s" depth="0" NCoef="0" IVar="0" Cut="1.9203953742980957e+00" cType="1" res="1.8826087936758995e-02" rms="4.7556793689727783e-01" purity="5.0521856546401978e-01" nType="0">
        <Node pos="l" depth="1" NCoef="0" IVar="2" Cut="5.0911594390869141e+01" cType="1" res="4.2780786752700806e-02" rms="4.7933411598205566e-01" purity="5.4602700471878052e-01" nType="0">
          <Node pos="l" depth="2" NCoef="0" IVar="-1" Cut="0.0000000000000000e+00" cType="1" res="-3.6562299355864525e-03" rms="4.7506555914878845e-01" purity="4.0922385454177856e-01" nType="-99"/>
          <Node pos="r" depth="2" NCoef="0" IVar="-1" Cut="0.0000000000000000e+00" cType="1" res="3.0790630262345076e-03" rms="4.7503474354743958e-01" purity="5.8843529224395752e-01" nType="-99"/>
        </Node>
        <Node pos="r" depth="1" NCoef="0" IVar="4" Cut="2.2905895709991455e+00" cType="1" res="-8.8315665721893311e-02" rms="4.4275701045989990e-01" purity="3.2269549369812012e-01" nType="0">
          <Node pos="l" depth="2" NCoef="0" IVar="-1" Cut="0.0000000000000000e+00" cType="1" res="1.3799137377645820e-04" rms="4.8540839552879333e-01" purity="5.1132464408874512e-01" nType="-99"/>
          <Node pos="r" depth="2" NCoef="0" IVar="-1" Cut="0.0000000000000000e+00" cType="1" res="-9.2659769579768181e-03" rms="4.1856658458709717e-01" purity="2.4616779386997223e-01" nType="-99"/>
        </Node>
      </Node>
    </BinaryTree>
    <BinaryTree type="DecisionTree" boostWeight="1.0000000000000000e+00" itree="51">
      <Node pos="s" depth="0" NCoef="0" IVar="2" Cut="6.4459197998046875e+01" cType="1" res="1.5993235632777214e-02" rms="4.7629418969154358e-01" purity="5.0172555446624756e-01" nType="0">
        <Node pos="l" depth="1" NCoef="0" IVar="2" Cut="3.3549674987792969e+01" cType="1" res="-6.3771627843379974e-02" rms="4.7675150632858276e-01" purity="4.2066672444343567e-01" nType="0">
          <Node pos="l" depth="2" NCoef="0" IVar="-1" Cut="0.0000000000000000e+00" cType="1" res="-1.0606424883008003e-02" rms="4.4166103005409241e-01" purity="2.9483416676521301e-01" nType="-99"/>
          <Node pos="r" depth="2" NCoef="0" IVar="-1" Cut="0.0000000000000000e+00" cType="1" res="-1.7881507519632578e-03" rms="4.8097729682922363e-01" purity="4.5037505030632019e-01" nType="-99"/>
        </Node>
        <Node pos="r" depth="1" NCoef="0" IVar="0" Cut="1.4334012269973755e+00" cType="1" res="5.0914555788040161e-02" rms="4.7186899185180664e-01" purity="5.3721338510513306e-01" nType="0">
          <Node pos="l" depth="2" NCoef="0" IVar="-1" Cut="0.0000000000000000e+00" cType="1" res="5.0205821171402931e-03" rms="4.5982617139816284e-01" purity="6.6370737552642822e-01" nType="-99"/>
          <Node pos="r" depth="2" NCoef="0" IVar="-1" Cut="0.0000000000000000e+00" cType="1" res="-6.4891442889347672e-04" rms="4.6981671452522278e-01" purity="4.4714263081550598e-01" nType="-99"/>
        </Node>
      </Node>
    </BinaryTree>
    <BinaryTree type="DecisionTree" boostWeight="1.0000000000000000e+00" itree="52">
      <Node pos="s" depth="0" NCoef="0" IVar="1" Cut="9.7908627986907959e-01" cType="1" res="1.7536731436848640e-02" rms="4.7512653470039368e-01" purity="5.0458174943923950e-01" nType="0">
        <Node pos="l" depth="1" NCoef="0" IVar="4" Cut="2.3242576122283936e+00" cType="1" res="-7.8637693077325821e-03" rms="4.7723412513732910e-01" purity="4.6198162436485291e-01" nType="0">
          <Node pos="l" depth="2" NCoef="0" IVar="-1" Cut="0.0000000000000000e+00" cType="1" res="1.1437865905463696e-03" rms="4.8628067970275879e-01" purity="5.4456174373626709e-01" nType="-99"/>
          <Node pos="r" depth="2" NCoef="0" IVar="-1" Cut="0.0000000000000000e+00" cType="1" res="-3.7437917198985815e-03" rms="4.5738214254379272e-01" purity="3.3430245518684387e-01" nType="-99"/>
        </Node>
        <Node pos="r" depth="1" NCoef="0" IVar="4" Cut="2.2896378040313721e+00" cType="1" res="1.2899379432201385e-01" rms="4.4909232854843140e-01" purity="6.9151026010513306e-01" nType="0">
          <Node pos="l" depth="2" NCoef="0" IVar="-1" Cut="0.0000000000000000e+00" cType="1" res="5.5728354491293430e-03" rms="4.2345958948135376e-01" purity="7.6248276233673096e-01" nType="-99"/>
          <Node pos="r" depth="2" NCoef="0" IVar="-1" Cut="0.0000000000000000e+00" cType="1" res="2.1478817798197269e-03" rms="4.8571649193763733e-01" purity="5.5389893054962158e-01" nType="-99"/>
        </Node>
      </Node>
    </BinaryTree>
    <BinaryTree type="DecisionTree" boostWeight="1.0000000000000000e+00" itree="53">
      <Node pos="s" depth="0" NCoef="0" IVar="4" Cut="2.2406654357910156e+00" cType="1" res="6.0102571733295918e-03" rms="4.7452807426452637e-01" purity="4.9309200048446655e-01" nType="0">
        <Node pos="l" depth="1" NCoef="0" IVar="2" Cut="7.0631858825683594e+01" cType="1" res="5.2470128983259201e-02" rms="4.7777861356735229e-01" purity="5.8895033597946167e-01" nType="0">
          <Node pos="l" depth="2" NCoef="0" IVar="-1" Cut="0.0000000000000000e+00" cType="1" res="-1.3768756762146950e-03" rms="4.8690605163574219e-01" purity="4.8729249835014343e-01" nType="-99"/>
          <Node pos="r" depth="2" NCoef="0" IVar="-1" Cut="0.0000000000000000e+00" cType="1" res="4.1201887652277946e-03" rms="4.6074020862579346e-01" purity="6.6612386703491211e-01" nType="-99"/>
        </Node>
        <Node pos="r" depth="1" NCoef="0" IVar="5" Cut="1.6192758083343506e+00" cType="1" res="-4.4432435184717178e-02" rms="4.6575525403022766e-01" purity="3.8901609182357788e-01" nType="0">
          <Node pos="l" depth="2" NCoef="0" IVar="-1" Cut="0.0000000000000000e+00" cType="1" res="-1.1281446786597371e-03" rms="4.7051167488098145e-01" purity="4.1561442613601685e-01" nType="-99"/>
          <Node pos="r" depth="2" NCoef="0" IVar="-1" Cut="0.0000000000000000e+00" cType="1" res="-9.5221484079957008e-03" rms="4.3043565750122070e-01" purity="2.7145439386367798e-01" nType="-99"/>
        </Node>
      </Node>
    </BinaryTree>
    <BinaryTree type="DecisionTree" boostWeight="1.0000000000000000e+00" itree="54">
      <Node pos="s" depth="0" NCoef="0" IVar="1" Cut="9.5911085605621338e-01" cType="1" res="9.0485885739326477e-03" rms="4.7417593002319336e-01" purity="4.9620437622070312e-01" nType="0">
        <Node pos="l" depth="1" NCoef="0" IVar="6" Cut="4.1829354858398438e+02" cType="1" res="-3.7196181714534760e-02" rms="4.7112742066383362e-01" purity="4.0529718995094299e-01" nType="0">
          <Node pos="l" depth="2" NCoef="0" IVar="-1" Cut="0.0000000000000000e+00" cType="1" res="-6.3751600682735443e-03" rms="4.4489619135856628e-01" purity="3.0520302057266235e-01" nType="-99"/>
          <Node pos="r" depth="2" NCoef="0" IVar="-1" Cut="0.0000000000000000e+00" cType="1" res="1.4811092114541680e-04" rms="4.8160004615783691e-01" purity="4.6511623263359070e-01" nType="-99"/>
        </Node>
        <Node pos="r" depth="1" NCoef="0" IVar="4" Cut="2.2492794990539551e+00" cType="1" res="6.8162165582180023e-02" rms="4.7148531675338745e-01" purity="6.1240881681442261e-01" nType="0">
          <Node pos="l" depth="2" NCoef="0" IVar="-1" Cut="0.0000000000000000e+00" cType="1" res="3.7960668560117483e-03" rms="4.5655632019042969e-01" purity="6.9195830821990967e-01" nType="-99"/>
          <Node pos="r" depth="2" NCoef="0" IVar="-1" Cut="0.0000000000000000e+00" cType="1" res="7.3821935802698135e-04" rms="4.8588278889656067e-01" purity="5.0627624988555908e-01" nType="-99"/>
        </Node>
      </Node>
    </BinaryTree>
    <BinaryTree type="DecisionTree" boostWeight="1.0000000000000000e+00" itree="55">
      <Node pos="s" depth="0" NCoef="0" IVar="1" Cut="9.3990314006805420e-01" cType="1" res="1.1076321825385094e-02" rms="4.7350734472274780e-01" purity="4.9684995412826538e-01" nType="0">
        <Node pos="l" depth="1" NCoef="0" IVar="4" Cut="2.1056618690490723e+00" cType="1" res="-6.7718096077442169e-02" rms="4.5916363596916199e-01" purity="3.5286769270896912e-01" nType="0">
          <Node pos="l" depth="2" NCoef="0" IVar="-1" Cut="0.0000000000000000e+00" cType="1" res="2.8281431877985597e-04" rms="4.9063679575920105e-01" purity="4.8205375671386719e-01" nType="-99"/>
          <Node pos="r" depth="2" NCoef="0" IVar="-1" Cut="0.0000000000000000e+00" cType="1" res="-6.4806123264133930e-03" rms="4.3860742449760437e-01" purity="2.9022955894470215e-01" nType="-99"/>
        </Node>
        <Node pos="r" depth="1" NCoef="0" IVar="5" Cut="1.5928854942321777e+00" cType="1" res="4.3861627578735352e-02" rms="4.7551804780960083e-01" purity="5.5675905942916870e-01" nType="0">
          <Node pos="l" depth="2" NCoef="0" IVar="-1" Cut="0.0000000000000000e+00" cType="1" res="2.6681213639676571e-03" rms="4.7342205047607422e-01" purity="5.8345282077789307e-01" nType="-99"/>
          <Node pos="r" depth="2" NCoef="0" IVar="-1" Cut="0.0000000000000000e+00" cType="1" res="-4.2671170085668564e-03" rms="4.6710422635078430e-01" purity="4.0742513537406921e-01" nType="-99"/>
        </Node>
      </Node>
    </BinaryTree>
    <BinaryTree type="DecisionTree" boostWeight="1.0000000000000000e+00" itree="56">
      <Node pos="s" depth="0" NCoef="0" IVar="6" Cut="4.2185641479492188e+02" cType="1" res="9.3981828540563583e-03" rms="4.7446796298027039e-01" purity="4.9474766850471497e-01" nType="0">
        <Node pos="l" depth="1" NCoef="0" IVar="5" Cut="1.3721685409545898e+00" cType="1" res="-5.3117942065000534e-02" rms="4.6679362654685974e-01" purity="4.0270629525184631e-01" nType="0">
          <Node pos="l" depth="2" NCoef="0" IVar="-1" Cut="0.0000000000000000e+00" cType="1" res="-7.4728875188156962e-04" rms="4.7780328989028931e-01" purity="4.5360967516899109e-01" nType="-99"/>
          <Node pos="r" depth="2" NCoef="0" IVar="-1" Cut="0.0000000000000000e+00" cType="1" res="-8.9090913534164429e-03" rms="4.2955085635185242e-01" purity="2.8906539082527161e-01" nType="-99"/>
        </Node>
        <Node pos="r" depth="1" NCoef="0" IVar="0" Cut="1.6885143518447876e+00" cType="1" res="4.5433759689331055e-02" rms="4.7511291503906250e-01" purity="5.4780215024948120e-01" nType="0">
          <Node pos="l" depth="2" NCoef="0" IVar="-1" Cut="0.0000000000000000e+00" cType="1" res="3.0090762302279472e-03" rms="4.7469505667686462e-01" purity="6.0046917200088501e-01" nType="-99"/>
          <Node pos="r" depth="2" NCoef="0" IVar="-1" Cut="0.0000000000000000e+00" cType="1" res="-1.7215824918821454e-03" rms="4.6666336059570312e-01" purity="4.2137467861175537e-01" nType="-99"/>
        </Node>
      </Node>
    </BinaryTree>
    <BinaryTree type="DecisionTree" boostWeight="1.0000000000000000e+00" itree="57">
      <Node pos="s" depth="0" NCoef="0" IVar="1" Cut="9.7243052721023560e-01" cType="1" res="2.0102372393012047e-02" rms="4.7478428483009338e-01" purity="5.0617527961730957e-01" nType="0">
        <Node pos="l" depth="1" NCoef="0" IVar="6" Cut="4.2161257934570312e+02" cType="1" res="-8.2917613908648491e-03" rms="4.7681343555450439e-01" purity="4.5079109072685242e-01" nType="0">
          <Node pos="l" depth="2" NCoef="0" IVar="-1" Cut="0.0000000000000000e+00" cType="1" res="-3.5271884407848120e-03" rms="4.6347039937973022e-01" purity="3.6288422346115112e-01" nType="-99"/>
          <Node pos="r" depth="2" NCoef="0" IVar="-1" Cut="0.0000000000000000e+00" cType="1" res="1.1156479595229030e-03" rms="4.8168832063674927e-01" purity="5.0481837987899780e-01" nType="-99"/>
        </Node>
        <Node pos="r" depth="1" NCoef="0" IVar="5" Cut="1.4945365190505981e+00" cType="1" res="1.0083707422018051e-01" rms="4.5947715640068054e-01" purity="6.6365242004394531e-01" nType="0">
          <Node pos="l" depth="2" NCoef="0" IVar="-1" Cut="0.0000000000000000e+00" cType="1" res="4.4281394220888615e-03" rms="4.5107290148735046e-01" purity="6.9117408990859985e-01" nType="-99"/>
          <Node pos="r" depth="2" NCoef="0" IVar="-1" Cut="0.0000000000000000e+00" cType="1" res="5.4431363241747022e-04" rms="4.7984009981155396e-01" purity="5.5977672338485718e-01" nType="-99"/>
        </Node>
      </Node>
    </BinaryTree>
    <BinaryTree type="DecisionTree" boostWeight="1.0000000000000000e+00" itree="58">
      <Node pos="s" depth="0" NCoef="0" IVar="4" Cut="2.5817286968231201e+00" cType="1" res="1.1732622981071472e-02" rms="4.7382885217666626e-01" purity="4.9762997031211853e-01" nType="0">
        <Node pos="l" depth="1" NCoef="0" IVar="2" Cut="5.1460388183593750e+01" cType="1" res="3.2307840883731842e-02" rms="4.8007568717002869e-01" purity="5.4180949926376343e-01" nType="0">
          <Node pos="l" depth="2" NCoef="0" IVar="-1" Cut="0.0000000000000000e+00" cType="1" res="-2.7865192387253046e-03" rms="4.7967016696929932e-01" purity="4.3153670430183411e-01" nType="-99"/>
          <Node pos="r" depth="2" NCoef="0" IVar="-1" Cut="0.0000000000000000e+00" cType="1" res="2.3147622123360634e-03" rms="4.7713437676429749e-01" purity="5.7259291410446167e-01" nType="-99"/>
        </Node>
        <Node pos="r" depth="1" NCoef="0" IVar="4" Cut="2.6959085464477539e+00" cType="1" res="-1.0290890932083130e-01" rms="4.1929772496223450e-01" purity="2.5146910548210144e-01" nType="0">
          <Node pos="l" depth="2" NCoef="0" IVar="-1" Cut="0.0000000000000000e+00" cType="1" res="-2.7997111901640892e-03" rms="4.5484444499015808e-01" purity="3.2973405718803406e-01" nType="-99"/>
          <Node pos="r" depth="2" NCoef="0" IVar="-1" Cut="0.0000000000000000e+00" cType="1" res="-1.1405554600059986e-02" rms="3.9203539490699768e-01" purity="2.0385415852069855e-01" nType="-99"/>
        </Node>
      </Node>
    </BinaryTree>
    <BinaryTree type="DecisionTree" boostWeight="1.0000000000000000e+00" itree="59">
      <Node pos="s" depth="0" NCoef="0" IVar="6" Cut="3.7629144287109375e+02" cType="1" res="1.8882384523749352e-02" rms="4.7263571619987488e-01" purity="5.0734263658523560e-01" nType="0">
        <Node pos="l" depth="1" NCoef="0" IVar="1" Cut="9.6655333042144775e-01" cType="1" res="-7.1942493319511414e-02" rms="4.5781046152114868e-01" purity="3.7503889203071594e-01" nType="0">
          <Node pos="l" depth="2" NCoef="0" IVar="-1" Cut="0.0000000000000000e+00" cType="1" res="-6.4564454369246960e-03" rms="4.4231891632080078e-01" purity="3.0401059985160828e-01" nType="-99"/>
          <Node pos="r" depth="2" NCoef="0" IVar="-1" Cut="0.0000000000000000e+00" cType="1" res="7.7127115218900144e-05" rms="4.8278468847274780e-01" purity="5.3465855121612549e-01" nType="-99"/>
        </Node>
        <Node pos="r" depth="1" NCoef="0" IVar="0" Cut="1.8857158422470093e+00" cType="1" res="4.9572400748729706e-02" rms="4.7362041473388672e-01" purity="5.5204850435256958e-01" nType="0">
          <Node pos="l" depth="2" NCoef="0" IVar="-1" Cut="0.0000000000000000e+00" cType="1" res="2.9523551929742098e-03" rms="4.7418314218521118e-01" purity="5.9607732295989990e-01" nType="-99"/>
          <Node pos="r" depth="2" NCoef="0" IVar="-1" Cut="0.0000000000000000e+00" cType="1" res="-3.6515400279313326e-03" rms="4.5387044548988342e-01" purity="3.6054417490959167e-01" nType="-99"/>
        </Node>
      </Node>
    </BinaryTree>
    <BinaryTree type="DecisionTree" boostWeight="1.0000000000000000e+00" itree="60">
      <Node pos="s" depth="0" NCoef="0" IVar="1" Cut="9.7245740890502930e-01" cType="1" res="1.2423482723534107e-02" rms="4.7319450974464417e-01" purity="4.9866107106208801e-01" nType="0">
        <Node pos="l" depth="1" NCoef="0" IVar="5" Cut="1.3329075574874878e+00" cType="1" res="-2.0319668576121330e-02" rms="4.7411704063415527e-01" purity="4.3776744604110718e-01" nType="0">
          <Node pos="l" depth="2" NCoef="0" IVar="-1" Cut="0.0000000000000000e+00" cType="1" res="8.3299365360289812e-04" rms="4.8063424229621887e-01" purity="4.8589351773262024e-01" nType="-99"/>
          <Node pos="r" depth="2" NCoef="0" IVar="-1" Cut="0.0000000000000000e+00" cType="1" res="-4.0768217295408249e-03" rms="4.5924738049507141e-01" purity="3.7002673745155334e-01" nType="-99"/>
        </Node>
        <Node pos="r" depth="1" NCoef="0" IVar="5" Cut="1.4420630931854248e+00" cType="1" res="1.0380505025386810e-01" rms="4.5840081572532654e-01" purity="6.6860663890838623e-01" nType="0">
          <Node pos="l" depth="2" NCoef="0" IVar="-1" Cut="0.0000000000000000e+00" cType="1" res="4.7041005454957485e-03" rms="4.4683784246444702e-01" purity="7.0314872264862061e-01" nType="-99"/>
          <Node pos="r" depth="2" NCoef="0" IVar="-1" Cut="0.0000000000000000e+00" cType="1" res="7.1889336686581373e-04" rms="4.8131048679351807e-01" purity="5.6464159488677979e-01" nType="-99"/>
        </Node>
      </Node>
    </BinaryTree>
    <BinaryTree type="DecisionTree" boostWeight="1.0000000000000000e+00" itree="61">
      <Node pos="s" depth="0" NCoef="0" IVar="1" Cut="9.7297054529190063e-01" cType="1" res="1.5759320929646492e-02" rms="4.7278106212615967e-01" purity="5.0302582979202271e-01" nType="0">
        <Node pos="l" depth="1" NCoef="0" IVar="2" Cut="6.3319942474365234e+01" cType="1" res="-1.2802970595657825e-02" rms="4.7476050257682800e-01" purity="4.4668495655059814e-01" nType="0">
          <Node pos="l" depth="2" NCoef="0" IVar="-1" Cut="0.0000000000000000e+00" cType="1" res="-4.9958731979131699e-03" rms="4.6588262915611267e-01" purity="3.6411800980567932e-01" nType="-99"/>
          <Node pos="r" depth="2" NCoef="0" IVar="-1" Cut="0.0000000000000000e+00" cType="1" res="9.9173455964773893e-04" rms="4.7432008385658264e-01" purity="4.8199331760406494e-01" nType="-99"/>
        </Node>
        <Node pos="r" depth="1" NCoef="0" IVar="4" Cut="2.3435168266296387e+00" cType="1" res="9.9306844174861908e-02" rms="4.5680311322212219e-01" purity="6.6782826185226440e-01" nType="0">
          <Node pos="l" depth="2" NCoef="0" IVar="-1" Cut="0.0000000000000000e+00" cType="1" res="4.4442517682909966e-03" rms="4.3946412205696106e-01" purity="7.3277240991592407e-01" nType="-99"/>
          <Node pos="r" depth="2" NCoef="0" IVar="-1" Cut="0.0000000000000000e+00" cType="1" res="1.2293168110772967e-03" rms="4.8670646548271179e-01" purity="5.1920968294143677e-01" nType="-99"/>
        </Node>
      </Node>
    </BinaryTree>
    <BinaryTree type="DecisionTree" boostWeight="1.0000000000000000e+00" itree="62">
      <Node pos="s" depth="0" NCoef="0" IVar="6" Cut="3.2809652709960938e+02" cType="1" res="1.2280511669814587e-02" rms="4.7393548488616943e-01" purity="4.9885421991348267e-01" nType="0">
        <Node pos="l" depth="1" NCoef="0" IVar="6" Cut="2.9160073852539062e+02" cType="1" res="-9.8830506205558777e-02" rms="4.5070031285285950e-01" purity="3.2284700870513916e-01" nType="0">
          <Node pos="l" depth="2" NCoef="0" IVar="-1" Cut="0.0000000000000000e+00" cType="1" res="-1.0052701458334923e-02" rms="4.2936041951179504e-01" purity="2.7196824550628662e-01" nType="-99"/>
          <Node pos="r" depth="2" NCoef="0" IVar="-1" Cut="0.0000000000000000e+00" cType="1" res="-2.9768785461783409e-03" rms="4.6607837080955505e-01" purity="3.7157475948333740e-01" nType="-99"/>
        </Node>
        <Node pos="r" depth="1" NCoef="0" IVar="5" Cut="1.5190137624740601e+00" cType="1" res="3.0523806810379028e-02" rms="4.7516572475433350e-01" purity="5.2775275707244873e-01" nType="0">
          <Node pos="l" depth="2" NCoef="0" IVar="-1" Cut="0.0000000000000000e+00" cType="1" res="2.4133156985044479e-03" rms="4.7467499971389771e-01" purity="5.6445026397705078e-01" nType="-99"/>
          <Node pos="r" depth="2" NCoef="0" IVar="-1" Cut="0.0000000000000000e+00" cType="1" res="-3.3327706623822451e-03" rms="4.6403211355209351e-01" purity="4.0621909499168396e-01" nType="-99"/>
        </Node>
      </Node>
    </BinaryTree>
    <BinaryTree type="DecisionTree" boostWeight="1.0000000000000000e+00" itree="63">
      <Node pos="s" depth="0" NCoef="0" IVar="0" Cut="1.8815881013870239e+00" cType="1" res="1.7939774319529533e-02" rms="4.7259306907653809e-01" purity="5.0587826967239380e-01" nType="0">
        <Node pos="l" depth="1" NCoef="0" IVar="2" Cut="7.0809173583984375e+01" cType="1" res="4.2057737708091736e-02" rms="4.7627371549606323e-01" purity="5.4864162206649780e-01" nType="0">
          <Node pos="l" depth="2" NCoef="0" IVar="-1" Cut="0.0000000000000000e+00" cType="1" res="-1.3283514417707920e-03" rms="4.8024252057075500e-01" purity="4.5941162109375000e-01" nType="-99"/>
          <Node pos="r" depth="2" NCoef="0" IVar="-1" Cut="0.0000000000000000e+00" cType="1" res="3.7498488090932369e-03" rms="4.6531826257705688e-01" purity="6.2064498662948608e-01" nType="-99"/>
        </Node>
        <Node pos="r" depth="1" NCoef="0" IVar="4" Cut="2.5771124362945557e+00" cType="1" res="-8.0485247075557709e-02" rms="4.4388094544410706e-01" purity="3.3136183023452759e-01" nType="0">
          <Node pos="l" depth="2" NCoef="0" IVar="-1" Cut="0.0000000000000000e+00" cType="1" res="-2.4433878716081381e-03" rms="4.7404658794403076e-01" purity="4.1225549578666687e-01" nType="-99"/>
          <Node pos="r" depth="2" NCoef="0" IVar="-1" Cut="0.0000000000000000e+00" cType="1" res="-1.3352300040423870e-02" rms="3.6957854032516479e-01" purity="1.7233222723007202e-01" nType="-99"/>
        </Node>
      </Node>
    </BinaryTree>
    <BinaryTree type="DecisionTree" boostWeight="1.0000000000000000e+00" itree="64">
      <Node pos="s" depth="0" NCoef="0" IVar="6" Cut="3.3726367187500000e+02" cType="1" res="1.1007235385477543e-02" rms="4.7192457318305969e-01" purity="4.9805882573127747e-01" nType="0">
        <Node pos="l" depth="1" NCoef="0" IVar="5" Cut="1.3054760694503784e+00" cType="1" res="-9.4313748180866241e-02" rms="4.4928926229476929e-01" purity="3.3109664916992188e-01" nType="0">
          <Node pos="l" depth="2" NCoef="0" IVar="-1" Cut="0.0000000000000000e+00" cType="1" res="-2.9375052545219660e-03" rms="4.6860268712043762e-01" purity="3.9040976762771606e-01" nType="-99"/>
          <Node pos="r" depth="2" NCoef="0" IVar="-1" Cut="0.0000000000000000e+00" cType="1" res="-1.1959745548665524e-02" rms="4.0726271271705627e-01" purity="2.3347133398056030e-01" nType="-99"/>
        </Node>
        <Node pos="r" depth="1" NCoef="0" IVar="0" Cut="1.8112330436706543e+00" cType="1" res="3.1251844018697739e-02" rms="4.7347533702850342e-01" purity="5.3015196323394775e-01" nType="0">
          <Node pos="l" depth="2" NCoef="0" IVar="-1" Cut="0.0000000000000000e+00" cType="1" res="2.3777815513312817e-03" rms="4.7538846731185913e-01" purity="5.7932102680206299e-01" nType="-99"/>
          <Node pos="r" depth="2" NCoef="0" IVar="-1" Cut="0.0000000000000000e+00" cType="1" res="-3.7695418577641249e-03" rms="4.5355349779129028e-01" purity="3.6315211653709412e-01" nType="-99"/>
        </Node>
      </Node>
    </BinaryTree>
    <BinaryTree type="DecisionTree" boostWeight="1.0000000000000000e+00" itree="65">
      <Node pos="s" depth="0" NCoef="0" IVar="4" Cut="2.2057712078094482e+00" cType="1" res="1.0423859581351280e-02" rms="4.7228601574897766e-01" purity="4.9697345495223999e-01" nType="0">
        <Node pos="l" depth="1" NCoef="0" IVar="2" Cut="5.0911594390869141e+01" cType="1" res="5.9329584240913391e-02" rms="4.7355616092681885e-01" purity="5.9945946931838989e-01" nType="0">
          <Node pos="l" depth="2" NCoef="0" IVar="-1" Cut="0.0000000000000000e+00" cType="1" res="-2.4481341242790222e-03" rms="4.8284658789634705e-01" purity="4.4610369205474854e-01" nType="-99"/>
          <Node pos="r" depth="2" NCoef="0" IVar="-1" Cut="0.0000000000000000e+00" cType="1" res="3.5527902655303478e-03" rms="4.6438050270080566e-01" purity="6.5132230520248413e-01" nType="-99"/>
        </Node>
        <Node pos="r" depth="1" NCoef="0" IVar="1" Cut="9.3268430233001709e-01" cType="1" res="-3.5507444292306900e-02" rms="4.6644377708435059e-01" purity="4.0072062611579895e-01" nType="0">
          <Node pos="l" depth="2" NCoef="0" IVar="-1" Cut="0.0000000000000000e+00" cType="1" res="-8.9605934917926788e-03" rms="4.1676634550094604e-01" purity="2.4041602015495300e-01" nType="-99"/>
          <Node pos="r" depth="2" NCoef="0" IVar="-1" Cut="0.0000000000000000e+00" cType="1" res="-4.4535394408740103e-04" rms="4.7704899311065674e-01" purity="4.4842088222503662e-01" nType="-99"/>
        </Node>
      </Node>
    </BinaryTree>
    <BinaryTree type="DecisionTree" boostWeight="1.0000000000000000e+00" itree="66">
      <Node pos="s" depth="0" NCoef="0" IVar="6" Cut="2.9458425903320312e+02" cType="1" res="1.1885673739016056e-02" rms="4.7205185890197754e-01" purity="4.9899947643280029e-01" nType="0">
        <Node pos="l" depth="1" NCoef="0" IVar="-1" Cut="0.0000000000000000e+00" cType="1" res="-1.1184291914105415e-02" rms="4.1376248002052307e-01" purity="2.5306552648544312e-01" nType="-99"/>
        <Node pos="r" depth="1" NCoef="0" IVar="5" Cut="1.5236349105834961e+00" cType="1" res="2.4885449558496475e-02" rms="4.7385102510452271e-01" purity="5.1821321249008179e-01" nType="0">
          <Node pos="l" depth="2" NCoef="0" IVar="-1" Cut="0.0000000000000000e+00" cType="1" res="2.0853134337812662e-03" rms="4.7292906045913696e-01" purity="5.5351245403289795e-01" nType="-99"/>
          <Node pos="r" depth="2" NCoef="0" IVar="-1" Cut="0.0000000000000000e+00" cType="1" res="-3.3567328937351704e-03" rms="4.6622401475906372e-01" purity="3.9511051774024963e-01" nType="-99"/>
        </Node>
      </Node>
    </BinaryTree>
    <BinaryTree type="DecisionTree" boostWeight="1.0000000000000000e+00" itree="67">
      <Node pos="s" depth="0" NCoef="0" IVar="6" Cut="3.2809652709960938e+02" cType="1" res="1.1843161657452583e-02" rms="4.7168776392936707e-01" purity="4.9853935837745667e-01" nType="0">
        <Node pos="l" depth="1" NCoef="0" IVar="5" Cut="1.1478517055511475e+00" cType="1" res="-1.0577444732189178e-01" rms="4.4228672981262207e-01" purity="3.0786356329917908e-01" nType="0">
          <Node pos="l" depth="2" NCoef="0" IVar="-1" Cut="0.0000000000000000e+00" cType="1" res="-2.3754045832902193e-03" rms="4.7823202610015869e-01" purity="3.9422059059143066e-01" nType="-99"/>
          <Node pos="r" depth="2" NCoef="0" IVar="-1" Cut="0.0000000000000000e+00" cType="1" res="-1.0838306508958340e-02" rms="4.0902134776115417e-01" purity="2.4631495773792267e-01" nType="-99"/>
        </Node>
        <Node pos="r" depth="1" NCoef="0" IVar="4" Cut="2.2317097187042236e+00" cType="1" res="3.0895883217453957e-02" rms="4.7353810071945190e-01" purity="5.2942669391632080e-01" nType="0">
          <Node pos="l" depth="2" NCoef="0" IVar="-1" Cut="0.0000000000000000e+00" cType="1" res="2.9338304884731770e-03" rms="4.7198078036308289e-01" purity="6.3052374124526978e-01" nType="-99"/>
          <Node pos="r" depth="2" NCoef="0" IVar="-1" Cut="0.0000000000000000e+00" cType="1" res="-1.0198226664215326e-03" rms="4.6981856226921082e-01" purity="4.2193877696990967e-01" nType="-99"/>
        </Node>
      </Node>
    </BinaryTree>
    <BinaryTree type="DecisionTree" boostWeight="1.0000000000000000e+00" itree="68">
      <Node pos="s" depth="0" NCoef="0" IVar="1" Cut="9.5917582511901855e-01" cType="1" res="1.4638595283031464e-02" rms="4.7207012772560120e-01" purity="5.0074851512908936e-01" nType="0">
        <Node pos="l" depth="1" NCoef="0" IVar="7" Cut="-1.2851121425628662e+00" cType="1" res="-2.2342713549733162e-02" rms="4.7024232149124146e-01" purity="4.1620326042175293e-01" nType="0">
          <Node pos="l" depth="2" NCoef="0" IVar="-1" Cut="0.0000000000000000e+00" cType="1" res="3.2823067158460617e-03" rms="4.8663479089736938e-01" purity="5.5791604518890381e-01" nType="-99"/>
          <Node pos="r" depth="2" NCoef="0" IVar="-1" Cut="0.0000000000000000e+00" cType="1" res="-2.0399480126798153e-03" rms="4.6527546644210815e-01" purity="3.9301556348800659e-01" nType="-99"/>
        </Node>
        <Node pos="r" depth="1" NCoef="0" IVar="0" Cut="1.7673783302307129e+00" cType="1" res="6.3633762300014496e-02" rms="4.7002092003822327e-01" purity="6.1275953054428101e-01" nType="0">
          <Node pos="l" depth="2" NCoef="0" IVar="-1" Cut="0.0000000000000000e+00" cType="1" res="3.2296944409608841e-03" rms="4.6464633941650391e-01" purity="6.5144455432891846e-01" nType="-99"/>
          <Node pos="r" depth="2" NCoef="0" IVar="-1" Cut="0.0000000000000000e+00" cType="1" res="-6.6502264235168695e-04" rms="4.7974044084548950e-01" purity="4.8159030079841614e-01" nType="-99"/>
        </Node>
      </Node>
    </BinaryTree>
    <BinaryTree type="DecisionTree" boostWeight="1.0000000000000000e+00" itree="69">
      <Node pos="s" depth="0" NCoef="0" IVar="1" Cut="9.7295701503753662e-01" cType="1" res="1.2527202256023884e-02" rms="4.7096675634384155e-01" purity="4.9930867552757263e-01" nType="0">
        <Node pos="l" depth="1" NCoef="0" IVar="6" Cut="4.2608947753906250e+02" cType="1" res="-1.4031726866960526e-02" rms="4.7240802645683289e-01" purity="4.4352874159812927e-01" nType="0">
          <Node pos="l" depth="2" NCoef="0" IVar="-1" Cut="0.0000000000000000e+00" cType="1" res="-3.7298607639968395e-03" rms="4.5715221762657166e-01" purity="3.5386300086975098e-01" nType="-99"/>
          <Node pos="r" depth="2" NCoef="0" IVar="-1" Cut="0.0000000000000000e+00" cType="1" res="8.2535680849105120e-04" rms="4.7899734973907471e-01" purity="5.0096827745437622e-01" nType="-99"/>
        </Node>
        <Node pos="r" depth="1" NCoef="0" IVar="6" Cut="4.4160366821289062e+02" cType="1" res="8.9815557003021240e-02" rms="4.5806857943534851e-01" purity="6.6163218021392822e-01" nType="0">
          <Node pos="l" depth="2" NCoef="0" IVar="-1" Cut="0.0000000000000000e+00" cType="1" res="1.5247910050675273e-03" rms="4.7713625431060791e-01" purity="5.8611166477203369e-01" nType="-99"/>
          <Node pos="r" depth="2" NCoef="0" IVar="-1" Cut="0.0000000000000000e+00" cType="1" res="4.3397531844675541e-03" rms="4.4248253107070923e-01" purity="7.0894056558609009e-01" nType="-99"/>
        </Node>
      </Node>
    </BinaryTree>
    <BinaryTree type="DecisionTree" boostWeight="1.0000000000000000e+00" itree="70">
      <Node pos="s" depth="0" NCoef="0" IVar="1" Cut="9.7303724288940430e-01" cType="1" res="3.6062905564904213e-03" rms="4.6972614526748657e-01" purity="4.9053776264190674e-01" nType="0">
        <Node pos="l" depth="1" NCoef="0" IVar="6" Cut="4.9703701782226562e+02" cType="1" res="-2.5869891047477722e-02" rms="4.6970233321189880e-01" purity="4.3098583817481995e-01" nType="0">
          <Node pos="l" depth="2" NCoef="0" IVar="-1" Cut="0.0000000000000000e+00" cType="1" res="-3.9453087374567986e-03" rms="4.5654326677322388e-01" purity="3.6232155561447144e-01" nType="-99"/>
          <Node pos="r" depth="2" NCoef="0" IVar="-1" Cut="0.0000000000000000e+00" cType="1" res="1.2355720391497016e-03" rms="4.7946074604988098e-01" purity="5.1374971866607666e-01" nType="-99"/>
        </Node>
        <Node pos="r" depth="1" NCoef="0" IVar="5" Cut="1.4034744501113892e+00" cType="1" res="8.6848542094230652e-02" rms="4.5969867706298828e-01" purity="6.5871524810791016e-01" nType="0">
          <Node pos="l" depth="2" NCoef="0" IVar="-1" Cut="0.0000000000000000e+00" cType="1" res="4.1386284865438938e-03" rms="4.4994905591011047e-01" purity="6.9430607557296753e-01" nType="-99"/>
          <Node pos="r" depth="2" NCoef="0" IVar="-1" Cut="0.0000000000000000e+00" cType="1" res="4.8356212209910154e-04" rms="4.7633239626884460e-01" purity="5.6492555141448975e-01" nType="-99"/>
        </Node>
      </Node>
    </BinaryTree>
    <BinaryTree type="DecisionTree" boostWeight="1.0000000000000000e+00" itree="71">
      <Node pos="s" depth="0" NCoef="0" IVar="1" Cut="9.7245740890502930e-01" cType="1" res="1.2396004050970078e-02" rms="4.7044759988784790e-01" purity="4.9950847029685974e-01" nType="0">
        <Node pos="l" depth="1" NCoef="0" IVar="0" Cut="1.8857158422470093e+00" cType="1" res="-1.3042389415204525e-02" rms="4.7206622362136841e-01" purity="4.4271740317344666e-01" nType="0">
          <Node pos="l" depth="2" NCoef="0" IVar="-1" Cut="0.0000000000000000e+00" cType="1" res="3.7400756264105439e-04" rms="4.8056057095527649e-01" purity="4.8671013116836548e-01" nType="-99"/>
          <Node pos="r" depth="2" NCoef="0" IVar="-1" Cut="0.0000000000000000e+00" cType="1" res="-6.4861569553613663e-03" rms="4.2886850237846375e-01" purity="2.7624148130416870e-01" nType="-99"/>
        </Node>
        <Node pos="r" depth="1" NCoef="0" IVar="4" Cut="2.2602908611297607e+00" cType="1" res="8.3792798221111298e-02" rms="4.5839446783065796e-01" purity="6.5890145301818848e-01" nType="0">
          <Node pos="l" depth="2" NCoef="0" IVar="-1" Cut="0.0000000000000000e+00" cType="1" res="4.2581260204315186e-03" rms="4.3690595030784607e-01" purity="7.3590612411499023e-01" nType="-99"/>
          <Node pos="r" depth="2" NCoef="0" IVar="-1" Cut="0.0000000000000000e+00" cType="1" res="9.1212859842926264e-04" rms="4.8431661725044250e-01" purity="5.3540766239166260e-01" nType="-99"/>
        </Node>
      </Node>
    </BinaryTree>
    <BinaryTree type="DecisionTree" boostWeight="1.0000000000000000e+00" itree="72">
      <Node pos="s" depth="0" NCoef="0" IVar="7" Cut="1.1423803567886353e+00" cType="1" res="1.4957443810999393e-02" rms="4.7050070762634277e-01" purity="5.0201863050460815e-01" nType="0">
        <Node pos="l" depth="1" NCoef="0" IVar="7" Cut="-1.2008152008056641e+00" cType="1" res="-1.0368041694164276e-02" rms="4.6967568993568420e-01" purity="4.6626970171928406e-01" nType="0">
          <Node pos="l" depth="2" NCoef="0" IVar="-1" Cut="0.0000000000000000e+00" cType="1" res="3.4575506579130888e-03" rms="4.6975836157798767e-01" purity="6.1293423175811768e-01" nType="-99"/>
          <Node pos="r" depth="2" NCoef="0" IVar="-1" Cut="0.0000000000000000e+00" cType="1" res="-2.1398307289928198e-03" rms="4.6520143747329712e-01" purity="4.1943904757499695e-01" nType="-99"/>
        </Node>
        <Node pos="r" depth="1" NCoef="0" IVar="2" Cut="8.5137077331542969e+01" cType="1" res="1.0326024144887924e-01" rms="4.6264648437500000e-01" purity="6.2666499614715576e-01" nType="0">
          <Node pos="l" depth="2" NCoef="0" IVar="-1" Cut="0.0000000000000000e+00" cType="1" res="1.5615555457770824e-03" rms="4.7767290472984314e-01" purity="5.4735046625137329e-01" nType="-99"/>
          <Node pos="r" depth="2" NCoef="0" IVar="-1" Cut="0.0000000000000000e+00" cType="1" res="5.8266082778573036e-03" rms="4.3868070840835571e-01" purity="7.0235759019851685e-01" nType="-99"/>
        </Node>
      </Node>
    </BinaryTree>
    <BinaryTree type="DecisionTree" boostWeight="1.0000000000000000e+00" itree="73">
      <Node pos="s" depth="0" NCoef="0" IVar="1" Cut="9.7926104068756104e-01" cType="1" res="1.4517595060169697e-02" rms="4.7064989805221558e-01" purity="5.0179362297058105e-01" nType="0">
        <Node pos="l" depth="1" NCoef="0" IVar="6" Cut="4.2161257934570312e+02" cType="1" res="-7.2019714862108231e-03" rms="4.7232046723365784e-01" purity="4.5922768115997314e-01" nType="0">
          <Node pos="l" depth="2" NCoef="0" IVar="-1" Cut="0.0000000000000000e+00" cType="1" res="-3.3920316491276026e-03" rms="4.5858585834503174e-01" purity="3.6362871527671814e-01" nType="-99"/>
          <Node pos="r" depth="2" NCoef="0" IVar="-1" Cut="0.0000000000000000e+00" cType="1" res="1.0607119183987379e-03" rms="4.7744247317314148e-01" purity="5.1601123809814453e-01" nType="-99"/>
        </Node>
        <Node pos="r" depth="1" NCoef="0" IVar="5" Cut="1.3556944131851196e+00" cType="1" res="1.0821695625782013e-01" rms="4.5155364274978638e-01" purity="6.8542510271072388e-01" nType="0">
          <Node pos="l" depth="2" NCoef="0" IVar="-1" Cut="0.0000000000000000e+00" cType="1" res="4.8342286609113216e-03" rms="4.3812507390975952e-01" purity="7.2385376691818237e-01" nType="-99"/>
          <Node pos="r" depth="2" NCoef="0" IVar="-1" Cut="0.0000000000000000e+00" cType="1" res="1.9154801266267896e-03" rms="4.7179684042930603e-01" purity="6.0859388113021851e-01" nType="-99"/>
        </Node>
      </Node>
    </BinaryTree>
    <BinaryTree type="DecisionTree" boostWeight="1.0000000000000000e+00" itree="74">
      <Node pos="s" depth="0" NCoef="0" IVar="7" Cut="-1.1423305273056030e+00" cType="1" res="1.1346034705638885e-02" rms="4.7144007682800293e-01" purity="4.9692836403846741e-01" nType="0">
        <Node pos="l" depth="1" NCoef="0" IVar="2" Cut="7.5760940551757812e+01" cType="1" res="9.4533205032348633e-02" rms="4.6858718991279602e-01" purity="6.1950880289077759e-01" nType="0">
          <Node pos="l" depth="2" NCoef="0" IVar="-1" Cut="0.0000000000000000e+00" cType="1" res="2.4195020087063313e-03" rms="4.8228088021278381e-01" purity="5.6755959987640381e-01" nType="-99"/>
          <Node pos="r" depth="2" NCoef="0" IVar="-1" Cut="0.0000000000000000e+00" cType="1" res="4.5232018455862999e-03" rms="4.5405662059783936e-01" purity="6.6496545076370239e-01" nType="-99"/>
        </Node>
        <Node pos="r" depth="1" NCoef="0" IVar="7" Cut="1.2007997035980225e+00" cType="1" res="-1.2418070808053017e-02" rms="4.6955326199531555e-01" purity="4.6191069483757019e-01" nType="0">
          <Node pos="l" depth="2" NCoef="0" IVar="-1" Cut="0.0000000000000000e+00" cType="1" res="-2.3477550130337477e-03" rms="4.6511697769165039e-01" purity="4.1259074211120605e-01" nType="-99"/>
          <Node pos="r" depth="2" NCoef="0" IVar="-1" Cut="0.0000000000000000e+00" cType="1" res="3.4721225965768099e-03" rms="4.6825441718101501e-01" purity="6.1502152681350708e-01" nType="-99"/>
        </Node>
      </Node>
    </BinaryTree>
    <BinaryTree type="DecisionTree" boostWeight="1.0000000000000000e+00" itree="75">
      <Node pos="s" depth="0" NCoef="0" IVar="1" Cut="9.3931311368942261e-01" cType="1" res="1.6769681125879288e-02" rms="4.7090768814086914e-01" purity="5.0496959686279297e-01" nType="0">
        <Node pos="l" depth="1" NCoef="0" IVar="5" Cut="1.1439239978790283e+00" cType="1" res="-4.9921512603759766e-02" rms="4.6145784854888916e-01" purity="3.6003249883651733e-01" nType="0">
          <Node pos="l" depth="2" NCoef="0" IVar="-1" Cut="0.0000000000000000e+00" cType="1" res="5.4583733435720205e-04" rms="4.7890788316726685e-01" purity="4.3761244416236877e-01" nType="-99"/>
          <Node pos="r" depth="2" NCoef="0" IVar="-1" Cut="0.0000000000000000e+00" cType="1" res="-4.8222751356661320e-03" rms="4.4919314980506897e-01" purity="3.2081568241119385e-01" nType="-99"/>
        </Node>
        <Node pos="r" depth="1" NCoef="0" IVar="4" Cut="2.2233974933624268e+00" cType="1" res="4.2495910078287125e-02" rms="4.7199070453643799e-01" purity="5.6087929010391235e-01" nType="0">
          <Node pos="l" depth="2" NCoef="0" IVar="-1" Cut="0.0000000000000000e+00" cType="1" res="3.0874882359057665e-03" rms="4.6403822302818298e-01" purity="6.5201956033706665e-01" nType="-99"/>
          <Node pos="r" depth="2" NCoef="0" IVar="-1" Cut="0.0000000000000000e+00" cType="1" res="-1.3912614667788148e-04" rms="4.7651356458663940e-01" purity="4.6022775769233704e-01" nType="-99"/>
        </Node>
      </Node>
    </BinaryTree>
    <BinaryTree type="DecisionTree" boostWeight="1.0000000000000000e+00" itree="76">
      <Node pos="s" depth="0" NCoef="0" IVar="7" Cut="9.9958729743957520e-01" cType="1" res="1.4403231441974640e-02" rms="4.7074663639068604e-01" purity="5.0077176094055176e-01" nType="0">
        <Node pos="l" depth="1" NCoef="0" IVar="7" Cut="-9.8656731843948364e-01" cType="1" res="-1.1079219169914722e-02" rms="4.6800220012664795e-01" purity="4.6231338381767273e-01" nType="0">
          <Node pos="l" depth="2" NCoef="0" IVar="-1" Cut="0.0000000000000000e+00" cType="1" res="2.6135467924177647e-03" rms="4.7442737221717834e-01" purity="5.8393812179565430e-01" nType="-99"/>
          <Node pos="r" depth="2" NCoef="0" IVar="-1" Cut="0.0000000000000000e+00" cType="1" res="-3.5482032690197229e-03" rms="4.5593720674514771e-01" purity="3.7755933403968811e-01" nType="-99"/>
        </Node>
        <Node pos="r" depth="1" NCoef="0" IVar="2" Cut="6.5265747070312500e+01" cType="1" res="7.7335715293884277e-02" rms="4.7159397602081299e-01" purity="5.9574997425079346e-01" nType="0">
          <Node pos="l" depth="2" NCoef="0" IVar="-1" Cut="0.0000000000000000e+00" cType="1" res="4.2966701130353613e-07" rms="4.8645201325416565e-01" purity="4.9356311559677124e-01" nType="-99"/>
          <Node pos="r" depth="2" NCoef="0" IVar="-1" Cut="0.0000000000000000e+00" cType="1" res="4.2577832937240601e-03" rms="4.5925220847129822e-01" purity="6.4640015363693237e-01" nType="-99"/>
        </Node>
      </Node>
    </BinaryTree>
    <BinaryTree type="DecisionTree" boostWeight="1.0000000000000000e+00" itree="77">
      <Node pos="s" depth="0" NCoef="0" IVar="0" Cut="1.8645436763763428e+00" cType="1" res="1.6442304477095604e-02" rms="4.7035002708435059e-01" purity="5.0339317321777344e-01" nType="0">
        <Node pos="l" depth="1" NCoef="0" IVar="2" Cut="9.2016563415527344e+01" cType="1" res="3.8372110575437546e-02" rms="4.7411227226257324e-01" purity="5.4760879278182983e-01" nType="0">
          <Node pos="l" depth="2" NCoef="0" IVar="-1" Cut="0.0000000000000000e+00" cType="1" res="-6.5996304329019040e-05" rms="4.7638002038002014e-01" purity="4.9508562684059143e-01" nType="-99"/>
          <Node pos="r" depth="2" NCoef="0" IVar="-1" Cut="0.0000000000000000e+00" cType="1" res="4.0417006239295006e-03" rms="4.6208727359771729e-01" purity="6.3862574100494385e-01" nType="-99"/>
        </Node>
        <Node pos="r" depth="1" NCoef="0" IVar="1" Cut="9.4804322719573975e-01" cType="1" res="-6.7738488316535950e-02" rms="4.4570925831794739e-01" purity="3.3366513252258301e-01" nType="0">
          <Node pos="l" depth="2" NCoef="0" IVar="-1" Cut="0.0000000000000000e+00" cType="1" res="-9.5238443464040756e-03" rms="3.9489811658859253e-01" purity="2.1273726224899292e-01" nType="-99"/>
          <Node pos="r" depth="2" NCoef="0" IVar="-1" Cut="0.0000000000000000e+00" cType="1" res="-1.5061692101880908e-03" rms="4.7746461629867554e-01" purity="4.2630907893180847e-01" nType="-99"/>
        </Node>
      </Node>
    </BinaryTree>
    <BinaryTree type="DecisionTree" boostWeight="1.0000000000000000e+00" itree="78">
      <Node pos="s" depth="0" NCoef="0" IVar="0" Cut="1.7163974046707153e+00" cType="1" res="1.3299977406859398e-02" rms="4.6857765316963196e-01" purity="5.0159394741058350e-01" nType="0">
        <Node pos="l" depth="1" NCoef="0" IVar="2" Cut="7.9374328613281250e+01" cType="1" res="4.0549706667661667e-02" rms="4.7273412346839905e-01" purity="5.5239343643188477e-01" nType="0">
          <Node pos="l" depth="2" NCoef="0" IVar="-1" Cut="0.0000000000000000e+00" cType="1" res="-8.6730619659647346e-04" rms="4.7566407918930054e-01" purity="4.7427663207054138e-01" nType="-99"/>
          <Node pos="r" depth="2" NCoef="0" IVar="-1" Cut="0.0000000000000000e+00" cType="1" res="4.2219087481498718e-03" rms="4.5803087949752808e-01" purity="6.5139871835708618e-01" nType="-99"/>
        </Node>
        <Node pos="r" depth="1" NCoef="0" IVar="1" Cut="9.4196408987045288e-01" cType="1" res="-5.7373210787773132e-02" rms="4.4999682903289795e-01" purity="3.6984345316886902e-01" nType="0">
          <Node pos="l" depth="2" NCoef="0" IVar="-1" Cut="0.0000000000000000e+00" cType="1" res="-9.0763727203011513e-03" rms="4.0201348066329956e-01" purity="2.2768042981624603e-01" nType="-99"/>
          <Node pos="r" depth="2" NCoef="0" IVar="-1" Cut="0.0000000000000000e+00" cType="1" res="-1.2340660905465484e-03" rms="4.6913611888885498e-01" purity="4.4220143556594849e-01" nType="-99"/>
        </Node>
      </Node>
    </BinaryTree>
    <BinaryTree type="DecisionTree" boostWeight="1.0000000000000000e+00" itree="79">
      <Node pos="s" depth="0" NCoef="0" IVar="1" Cut="9.7272825241088867e-01" cType="1" res="1.1310342699289322e-02" rms="4.7013160586357117e-01" purity="4.9752211570739746e-01" nType="0">
        <Node pos="l" depth="1" NCoef="0" IVar="6" Cut="2.9458425903320312e+02" cType="1" res="-1.3660858385264874e-02" rms="4.7231578826904297e-01" purity="4.4042626023292542e-01" nType="0">
          <Node pos="l" depth="2" NCoef="0" IVar="-1" Cut="0.0000000000000000e+00" cType="1" res="-1.2000353075563908e-02" rms="3.9636704325675964e-01" purity="2.1569681167602539e-01" nType="-99"/>
          <Node pos="r" depth="2" NCoef="0" IVar="-1" Cut="0.0000000000000000e+00" cType="1" res="-8.7261978478636593e-05" rms="4.7652652859687805e-01" purity="4.5995876193046570e-01" nType="-99"/>
        </Node>
        <Node pos="r" depth="1" NCoef="0" IVar="7" Cut="9.9948740005493164e-01" cType="1" res="8.3136223256587982e-02" rms="4.5623490214347839e-01" purity="6.6174983978271484e-01" nType="0">
          <Node pos="l" depth="2" NCoef="0" IVar="-1" Cut="0.0000000000000000e+00" cType="1" res="2.1454072557389736e-03" rms="4.6636947989463806e-01" purity="6.2207591533660889e-01" nType="-99"/>
          <Node pos="r" depth="2" NCoef="0" IVar="-1" Cut="0.0000000000000000e+00" cType="1" res="4.9277390353381634e-03" rms="4.2726042866706848e-01" purity="7.4717807769775391e-01" nType="-99"/>
        </Node>
      </Node>
    </BinaryTree>
    <BinaryTree type="DecisionTree" boostWeight="1.0000000000000000e+00" itree="80">
      <Node pos="s" depth="0" NCoef="0" IVar="3" Cut="1.4146928405761719e+02" cType="1" res="1.6857715323567390e-02" rms="4.6974793076515198e-01" purity="5.0412863492965698e-01" nType="0">
        <Node pos="l" depth="1" NCoef="0" IVar="6" Cut="3.2835253906250000e+02" cType="1" res="2.8443679213523865e-02" rms="4.6994382143020630e-01" purity="5.1796549558639526e-01" nType="0">
          <Node pos="l" depth="2" NCoef="0" IVar="-1" Cut="0.0000000000000000e+00" cType="1" res="-4.5167231000959873e-03" rms="4.4885036349296570e-01" purity="3.3161610364913940e-01" nType="-99"/>
          <Node pos="r" depth="2" NCoef="0" IVar="-1" Cut="0.0000000000000000e+00" cType="1" res="1.8862445140257478e-03" rms="4.7123739123344421e-01" purity="5.4852730035781860e-01" nType="-99"/>
        </Node>
        <Node pos="r" depth="1" NCoef="0" IVar="-1" Cut="0.0000000000000000e+00" cType="1" res="-8.7971212342381477e-03" rms="4.3731880187988281e-01" purity="3.1504929065704346e-01" nType="-99"/>
      </Node>
    </BinaryTree>
    <BinaryTree type="DecisionTree" boostWeight="1.0000000000000000e+00" itree="81">
      <Node pos="s" depth="0" NCoef="0" IVar="1" Cut="9.5304483175277710e-01" cType="1" res="1.4650055207312107e-02" rms="4.7019696235656738e-01" purity="5.0146830081939697e-01" nType="0">
        <Node pos="l" depth="1" NCoef="0" IVar="7" Cut="-1.1422353982925415e+00" cType="1" res="-2.8063870966434479e-02" rms="4.6656373143196106e-01" purity="3.9312985539436340e-01" nType="0">
          <Node pos="l" depth="2" NCoef="0" IVar="-1" Cut="0.0000000000000000e+00" cType="1" res="2.0647752098739147e-03" rms="4.8798546195030212e-01" purity="5.1057726144790649e-01" nType="-99"/>
          <Node pos="r" depth="2" NCoef="0" IVar="-1" Cut="0.0000000000000000e+00" cType="1" res="-2.6203128509223461e-03" rms="4.5879673957824707e-01" purity="3.6271575093269348e-01" nType="-99"/>
        </Node>
        <Node pos="r" depth="1" NCoef="0" IVar="3" Cut="1.3391123962402344e+02" cType="1" res="5.2706241607666016e-02" rms="4.7015285491943359e-01" purity="5.9799301624298096e-01" nType="0">
          <Node pos="l" depth="2" NCoef="0" IVar="-1" Cut="0.0000000000000000e+00" cType="1" res="2.7281956281512976e-03" rms="4.6646001935005188e-01" purity="6.1781370639801025e-01" nType="-99"/>
          <Node pos="r" depth="2" NCoef="0" IVar="-1" Cut="0.0000000000000000e+00" cType="1" res="-2.3443663958460093e-03" rms="4.7896200418472290e-01" purity="4.7939392924308777e-01" nType="-99"/>
        </Node>
      </Node>
    </BinaryTree>
    <BinaryTree type="DecisionTree" boostWeight="1.0000000000000000e+00" itree="82">
      <Node pos="s" depth="0" NCoef="0" IVar="4" Cut="2.4114742279052734e+00" cType="1" res="1.0398745536804199e-02" rms="4.6926808357238770e-01" purity="4.9829304218292236e-01" nType="0">
        <Node pos="l" depth="1" NCoef="0" IVar="2" Cut="5.7521713256835938e+01" cType="1" res="3.6926854401826859e-02" rms="4.7581452131271362e-01" purity="5.6939983367919922e-01" nType="0">
          <Node pos="l" depth="2" NCoef="0" IVar="-1" Cut="0.0000000000000000e+00" cType="1" res="-1.3962571974843740e-03" rms="4.8538136482238770e-01" purity="4.6509739756584167e-01" nType="-99"/>
          <Node pos="r" depth="2" NCoef="0" IVar="-1" Cut="0.0000000000000000e+00" cType="1" res="2.4903924204409122e-03" rms="4.6896508336067200e-01" purity="6.1275005340576172e-01" nType="-99"/>
        </Node>
        <Node pos="r" depth="1" NCoef="0" IVar="7" Cut="9.9822747707366943e-01" cType="1" res="-5.5887844413518906e-02" rms="4.4564643502235413e-01" purity="3.2061639428138733e-01" nType="0">
          <Node pos="l" depth="2" NCoef="0" IVar="-1" Cut="0.0000000000000000e+00" cType="1" res="-5.9238127432763577e-03" rms="4.3181261420249939e-01" purity="2.7885407209396362e-01" nType="-99"/>
          <Node pos="r" depth="2" NCoef="0" IVar="-1" Cut="0.0000000000000000e+00" cType="1" res="3.4291369374841452e-03" rms="4.7892522811889648e-01" purity="5.0124806165695190e-01" nType="-99"/>
        </Node>
      </Node>
    </BinaryTree>
    <BinaryTree type="DecisionTree" boostWeight="1.0000000000000000e+00" itree="83">
      <Node pos="s" depth="0" NCoef="0" IVar="5" Cut="1.5190137624740601e+00" cType="1" res="1.3956800103187561e-02" rms="4.6992456912994385e-01" purity="4.9964591860771179e-01" nType="0">
        <Node pos="l" depth="1" NCoef="0" IVar="0" Cut="2.0314388275146484e+00" cType="1" res="3.6457840353250504e-02" rms="4.7008115053176880e-01" purity="5.3230285644531250e-01" nType="0">
          <Node pos="l" depth="2" NCoef="0" IVar="-1" Cut="0.0000000000000000e+00" cType="1" res="2.1356781944632530e-03" rms="4.7230634093284607e-01" purity="5.6720954179763794e-01" nType="-99"/>
          <Node pos="r" depth="2" NCoef="0" IVar="-1" Cut="0.0000000000000000e+00" cType="1" res="-3.7200676742941141e-03" rms="4.4473835825920105e-01" purity="3.2472875714302063e-01" nType="-99"/>
        </Node>
        <Node pos="r" depth="1" NCoef="0" IVar="4" Cut="2.1394245624542236e+00" cType="1" res="-6.2964528799057007e-02" rms="4.6117049455642700e-01" purity="3.8800582289695740e-01" nType="0">
          <Node pos="l" depth="2" NCoef="0" IVar="-1" Cut="0.0000000000000000e+00" cType="1" res="-2.6888551656156778e-04" rms="4.8460426926612854e-01" purity="5.2213191986083984e-01" nType="-99"/>
          <Node pos="r" depth="2" NCoef="0" IVar="-1" Cut="0.0000000000000000e+00" cType="1" res="-5.2951169200241566e-03" rms="4.4808417558670044e-01" purity="3.2841113209724426e-01" nType="-99"/>
        </Node>
      </Node>
    </BinaryTree>
    <BinaryTree type="DecisionTree" boostWeight="1.0000000000000000e+00" itree="84">
      <Node pos="s" depth="0" NCoef="0" IVar="1" Cut="9.3336141109466553e-01" cType="1" res="1.2447307817637920e-02" rms="4.6753579378128052e-01" purity="5.0050806999206543e-01" nType="0">
        <Node pos="l" depth="1" NCoef="0" IVar="1" Cut="9.1904544830322266e-01" cType="1" res="-7.2156094014644623e-02" rms="4.4921997189521790e-01" purity="3.2938927412033081e-01" nType="0">
          <Node pos="l" depth="2" NCoef="0" IVar="-1" Cut="0.0000000000000000e+00" cType="1" res="-6.9761220365762711e-03" rms="4.3231266736984253e-01" purity="2.8710892796516418e-01" nType="-99"/>
          <Node pos="r" depth="2" NCoef="0" IVar="-1" Cut="0.0000000000000000e+00" cType="1" res="-1.7247289652004838e-03" rms="4.6184524893760681e-01" purity="3.7130954861640930e-01" nType="-99"/>
        </Node>
        <Node pos="r" depth="1" NCoef="0" IVar="5" Cut="1.5275310277938843e+00" cType="1" res="3.6008596420288086e-02" rms="4.6980568766593933e-01" purity="5.4816317558288574e-01" nType="0">
          <Node pos="l" depth="2" NCoef="0" IVar="-1" Cut="0.0000000000000000e+00" cType="1" res="2.3348897229880095e-03" rms="4.6732008457183838e-01" purity="5.7928454875946045e-01" nType="-99"/>
          <Node pos="r" depth="2" NCoef="0" IVar="-1" Cut="0.0000000000000000e+00" cType="1" res="-2.3302428890019655e-03" rms="4.7031554579734802e-01" purity="4.2807188630104065e-01" nType="-99"/>
        </Node>
      </Node>
    </BinaryTree>
    <BinaryTree type="DecisionTree" boostWeight="1.0000000000000000e+00" itree="85">
      <Node pos="s" depth="0" NCoef="0" IVar="2" Cut="6.0794914245605469e+01" cType="1" res="8.8241808116436005e-03" rms="4.6863836050033569e-01" purity="4.9563276767730713e-01" nType="0">
        <Node pos="l" depth="1" NCoef="0" IVar="2" Cut="3.2055931091308594e+01" cType="1" res="-5.8742050081491470e-02" rms="4.7254663705825806e-01" purity="4.1379815340042114e-01" nType="0">
          <Node pos="l" depth="2" NCoef="0" IVar="-1" Cut="0.0000000000000000e+00" cType="1" res="-8.8337603956460953e-03" rms="4.4854906201362610e-01" purity="3.0076119303703308e-01" nType="-99"/>
          <Node pos="r" depth="2" NCoef="0" IVar="-1" Cut="0.0000000000000000e+00" cType="1" res="-1.9510342972353101e-03" rms="4.7572880983352661e-01" purity="4.3892362713813782e-01" nType="-99"/>
        </Node>
        <Node pos="r" depth="1" NCoef="0" IVar="0" Cut="1.5942965745925903e+00" cType="1" res="3.4877471625804901e-02" rms="4.6450448036193848e-01" purity="5.2718788385391235e-01" nType="0">
          <Node pos="l" depth="2" NCoef="0" IVar="-1" Cut="0.0000000000000000e+00" cType="1" res="3.5842321813106537e-03" rms="4.6289223432540894e-01" purity="6.3096326589584351e-01" nType="-99"/>
          <Node pos="r" depth="2" NCoef="0" IVar="-1" Cut="0.0000000000000000e+00" cType="1" res="-1.9564635585993528e-03" rms="4.5618569850921631e-01" purity="4.0415808558464050e-01" nType="-99"/>
        </Node>
      </Node>
    </BinaryTree>
    <BinaryTree type="DecisionTree" boostWeight="1.0000000000000000e+00" itree="86">
      <Node pos="s" depth="0" NCoef="0" IVar="6" Cut="5.5662084960937500e+02" cType="1" res="1.5978341922163963e-02" rms="4.6867755055427551e-01" purity="5.0420594215393066e-01" nType="0">
        <Node pos="l" depth="1" NCoef="0" IVar="7" Cut="1.1422568559646606e+00" cType="1" res="-1.2458765879273415e-02" rms="4.6746447682380676e-01" purity="4.5689192414283752e-01" nType="0">
          <Node pos="l" depth="2" NCoef="0" IVar="-1" Cut="0.0000000000000000e+00" cType="1" res="-1.7004261026158929e-03" rms="4.6466001868247986e-01" purity="4.2319464683532715e-01" nType="-99"/>
          <Node pos="r" depth="2" NCoef="0" IVar="-1" Cut="0.0000000000000000e+00" cType="1" res="2.5917047169059515e-03" rms="4.6981537342071533e-01" purity="5.8118015527725220e-01" nType="-99"/>
        </Node>
        <Node pos="r" depth="1" NCoef="0" IVar="8" Cut="3.8236831665039062e+02" cType="1" res="6.6298857331275940e-02" rms="4.6658870577812195e-01" purity="5.8792972564697266e-01" nType="0">
          <Node pos="l" depth="2" NCoef="0" IVar="-1" Cut="0.0000000000000000e+00" cType="1" res="3.8105077110230923e-03" rms="4.5838427543640137e-01" purity="6.4492034912109375e-01" nType="-99"/>
          <Node pos="r" depth="2" NCoef="0" IVar="-1" Cut="0.0000000000000000e+00" cType="1" res="-9.5967116067185998e-04" rms="4.7367343306541443e-01" purity="4.5730376243591309e-01" nType="-99"/>
        </Node>
      </Node>
    </BinaryTree>
    <BinaryTree type="DecisionTree" boostWeight="1.0000000000000000e+00" itree="87">
      <Node pos="s" depth="0" NCoef="0" IVar="3" Cut="1.3738551330566406e+02" cType="1" res="1.5399093739688396e-02" rms="4.6834790706634521e-01" purity="5.0348556041717529e-01" nType="0">
        <Node pos="l" depth="1" NCoef="0" IVar="3" Cut="1.0777288818359375e+02" cType="1" res="2.9165662825107574e-02" rms="4.6827939152717590e-01" purity="5.2100932598114014e-01" nType="0">
          <Node pos="l" depth="2" NCoef="0" IVar="-1" Cut="0.0000000000000000e+00" cType="1" res="-4.1768788360059261e-03" rms="4.6036013960838318e-01" purity="3.8840138912200928e-01" nType="-99"/>
          <Node pos="r" depth="2" NCoef="0" IVar="-1" Cut="0.0000000000000000e+00" cType="1" res="1.8865705933421850e-03" rms="4.6741145849227905e-01" purity="5.4004150629043579e-01" nType="-99"/>
        </Node>
        <Node pos="r" depth="1" NCoef="0" IVar="5" Cut="1.3128427267074585e+00" cType="1" res="-9.7453825175762177e-02" rms="4.5341643691062927e-01" purity="3.5983267426490784e-01" nType="0">
          <Node pos="l" depth="2" NCoef="0" IVar="-1" Cut="0.0000000000000000e+00" cType="1" res="-2.3262142203748226e-03" rms="4.6868416666984558e-01" purity="4.2616483569145203e-01" nType="-99"/>
          <Node pos="r" depth="2" NCoef="0" IVar="-1" Cut="0.0000000000000000e+00" cType="1" res="-1.0236336849629879e-02" rms="4.2848318815231323e-01" purity="2.8510165214538574e-01" nType="-99"/>
        </Node>
      </Node>
    </BinaryTree>
    <BinaryTree type="DecisionTree" boostWeight="1.0000000000000000e+00" itree="88">
      <Node pos="s" depth="0" NCoef="0" IVar="5" Cut="1.5197603702545166e+00" cType="1" res="1.2920359149575233e-02" rms="4.6800461411476135e-01" purity="5.0073635578155518e-01" nType="0">
        <Node pos="l" depth="1" NCoef="0" IVar="6" Cut="5.0711431884765625e+02" cType="1" res="3.4728463739156723e-02" rms="4.6908655762672424e-01" purity="5.3329008817672729e-01" nType="0">
          <Node pos="l" depth="2" NCoef="0" IVar="-1" Cut="0.0000000000000000e+00" cType="1" res="-1.1131787323392928e-04" rms="4.7038879990577698e-01" purity="4.7249275445938110e-01" nType="-99"/>
          <Node pos="r" depth="2" NCoef="0" IVar="-1" Cut="0.0000000000000000e+00" cType="1" res="3.2331049442291260e-03" rms="4.6261295676231384e-01" purity="6.1554622650146484e-01" nType="-99"/>
        </Node>
        <Node pos="r" depth="1" NCoef="0" IVar="2" Cut="9.6663909912109375e+01" cType="1" res="-6.5563008189201355e-02" rms="4.5553079247474670e-01" purity="3.8358160853385925e-01" nType="0">
          <Node pos="l" depth="2" NCoef="0" IVar="-1" Cut="0.0000000000000000e+00" cType="1" res="-5.8582280762493610e-03" rms="4.5150455832481384e-01" purity="3.4893155097961426e-01" nType="-99"/>
          <Node pos="r" depth="2" NCoef="0" IVar="-1" Cut="0.0000000000000000e+00" cType="1" res="-5.9618568047881126e-04" rms="4.5583787560462952e-01" purity="4.3274572491645813e-01" nType="-99"/>
        </Node>
      </Node>
    </BinaryTree>
    <BinaryTree type="DecisionTree" boostWeight="1.0000000000000000e+00" itree="89">
      <Node pos="s" depth="0" NCoef="0" IVar="1" Cut="9.7272825241088867e-01" cType="1" res="1.0885627008974552e-02" rms="4.6760401129722595e-01" purity="4.9985623359680176e-01" nType="0">
        <Node pos="l" depth="1" NCoef="0" IVar="0" Cut="1.8285938501358032e+00" cType="1" res="-1.2061621993780136e-02" rms="4.6937787532806396e-01" purity="4.4446563720703125e-01" nType="0">
          <Node pos="l" depth="2" NCoef="0" IVar="-1" Cut="0.0000000000000000e+00" cType="1" res="4.9652322195470333e-04" rms="4.7775900363922119e-01" purity="4.9424511194229126e-01" nType="-99"/>
          <Node pos="r" depth="2" NCoef="0" IVar="-1" Cut="0.0000000000000000e+00" cType="1" res="-6.1896340921521187e-03" rms="4.3118521571159363e-01" purity="2.7806463837623596e-01" nType="-99"/>
        </Node>
        <Node pos="r" depth="1" NCoef="0" IVar="6" Cut="4.4223596191406250e+02" cType="1" res="7.7670201659202576e-02" rms="4.5587670803070068e-01" purity="6.6106265783309937e-01" nType="0">
          <Node pos="l" depth="2" NCoef="0" IVar="-1" Cut="0.0000000000000000e+00" cType="1" res="1.4169914647936821e-03" rms="4.7064414620399475e-01" purity="5.9668695926666260e-01" nType="-99"/>
          <Node pos="r" depth="2" NCoef="0" IVar="-1" Cut="0.0000000000000000e+00" cType="1" res="3.7947609089314938e-03" rms="4.4386264681816101e-01" purity="7.0258182287216187e-01" nType="-99"/>
        </Node>
      </Node>
    </BinaryTree>
    <BinaryTree type="DecisionTree" boostWeight="1.0000000000000000e+00" itree="90">
      <Node pos="s" depth="0" NCoef="0" IVar="1" Cut="9.4594198465347290e-01" cType="1" res="1.4190147630870342e-02" rms="4.6883076429367065e-01" purity="5.0061190128326416e-01" nType="0">
        <Node pos="l" depth="1" NCoef="0" IVar="6" Cut="5.8453930664062500e+02" cType="1" res="-3.4883484244346619e-02" rms="4.6155482530593872e-01" purity="3.7535560131072998e-01" nType="0">
          <Node pos="l" depth="2" NCoef="0" IVar="-1" Cut="0.0000000000000000e+00" cType="1" res="-3.7083984352648258e-03" rms="4.4790396094322205e-01" purity="3.3001631498336792e-01" nType="-99"/>
          <Node pos="r" depth="2" NCoef="0" IVar="-1" Cut="0.0000000000000000e+00" cType="1" res="1.3582970714196563e-03" rms="4.8452502489089966e-01" purity="4.7707030177116394e-01" nType="-99"/>
        </Node>
        <Node pos="r" depth="1" NCoef="0" IVar="3" Cut="1.3596067810058594e+02" cType="1" res="4.2600423097610474e-02" rms="4.7065907716751099e-01" purity="5.7312673330307007e-01" nType="0">
          <Node pos="l" depth="2" NCoef="0" IVar="-1" Cut="0.0000000000000000e+00" cType="1" res="2.3743049241602421e-03" rms="4.6769496798515320e-01" purity="5.9337353706359863e-01" nType="-99"/>
          <Node pos="r" depth="2" NCoef="0" IVar="-1" Cut="0.0000000000000000e+00" cType="1" res="-4.6957284212112427e-03" rms="4.7353109717369080e-01" purity="4.0979784727096558e-01" nType="-99"/>
        </Node>
      </Node>
    </BinaryTree>
    <BinaryTree type="DecisionTree" boostWeight="1.0000000000000000e+00" itree="91">
      <Node pos="s" depth="0" NCoef="0" IVar="4" Cut="2.2005615234375000e+00" cType="1" res="1.2670422904193401e-02" rms="4.6613314747810364e-01" purity="5.0136184692382812e-01" nType="0">
        <Node pos="l" depth="1" NCoef="0" IVar="2" Cut="4.0702171325683594e+01" cType="1" res="5.4528985172510147e-02" rms="4.6891695261001587e-01" purity="6.0297626256942749e-01" nType="0">
          <Node pos="l" depth="2" NCoef="0" IVar="-1" Cut="0.0000000000000000e+00" cType="1" res="-4.3766670860350132e-03" rms="4.7217711806297302e-01" purity="3.9963012933731079e-01" nType="-99"/>
          <Node pos="r" depth="2" NCoef="0" IVar="-1" Cut="0.0000000000000000e+00" cType="1" res="2.9432517476379871e-03" rms="4.6417751908302307e-01" purity="6.3766735792160034e-01" nType="-99"/>
        </Node>
        <Node pos="r" depth="1" NCoef="0" IVar="1" Cut="9.7887206077575684e-01" cType="1" res="-2.6056258007884026e-02" rms="4.6016418933868408e-01" purity="4.0735018253326416e-01" nType="0">
          <Node pos="l" depth="2" NCoef="0" IVar="-1" Cut="0.0000000000000000e+00" cType="1" res="-2.4862240534275770e-03" rms="4.5543780922889709e-01" purity="3.6739519238471985e-01" nType="-99"/>
          <Node pos="r" depth="2" NCoef="0" IVar="-1" Cut="0.0000000000000000e+00" cType="1" res="2.6097958907485008e-03" rms="4.7253850102424622e-01" purity="6.0511177778244019e-01" nType="-99"/>
        </Node>
      </Node>
    </BinaryTree>
    <BinaryTree type="DecisionTree" boostWeight="1.0000000000000000e+00" itree="92">
      <Node pos="s" depth="0" NCoef="0" IVar="7" Cut="1.1422243118286133e+00" cType="1" res="8.7188230827450752e-03" rms="4.6729421615600586e-01" purity="4.9683517217636108e-01" nType="0">
        <Node pos="l" depth="1" NCoef="0" IVar="7" Cut="-1.2008197307586670e+00" cType="1" res="-1.2247206643223763e-02" rms="4.6698534488677979e-01" purity="4.6266123652458191e-01" nType="0">
          <Node pos="l" depth="2" NCoef="0" IVar="-1" Cut="0.0000000000000000e+00" cType="1" res="2.5668945163488388e-03" rms="4.7199091315269470e-01" purity="5.9508877992630005e-01" nType="-99"/>
          <Node pos="r" depth="2" NCoef="0" IVar="-1" Cut="0.0000000000000000e+00" cType="1" res="-1.7932190094143152e-03" rms="4.6299576759338379e-01" purity="4.2265877127647400e-01" nType="-99"/>
        </Node>
        <Node pos="r" depth="1" NCoef="0" IVar="1" Cut="9.4318085908889771e-01" cType="1" res="8.3772979676723480e-02" rms="4.6064117550849915e-01" purity="6.1917102336883545e-01" nType="0">
          <Node pos="l" depth="2" NCoef="0" IVar="-1" Cut="0.0000000000000000e+00" cType="1" res="4.5908201718702912e-04" rms="4.7924348711967468e-01" purity="4.6794945001602173e-01" nType="-99"/>
          <Node pos="r" depth="2" NCoef="0" IVar="-1" Cut="0.0000000000000000e+00" cType="1" res="4.1618528775870800e-03" rms="4.4875863194465637e-01" purity="6.8391644954681396e-01" nType="-99"/>
        </Node>
      </Node>
    </BinaryTree>
    <BinaryTree type="DecisionTree" boostWeight="1.0000000000000000e+00" itree="93">
      <Node pos="s" depth="0" NCoef="0" IVar="5" Cut="1.6136249303817749e+00" cType="1" res="1.5362910926342010e-02" rms="4.6678829193115234e-01" purity="5.0508427619934082e-01" nType="0">
        <Node pos="l" depth="1" NCoef="0" IVar="3" Cut="1.4202445983886719e+02" cType="1" res="3.2493025064468384e-02" rms="4.6721321344375610e-01" purity="5.3058499097824097e-01" nType="0">
          <Node pos="l" depth="2" NCoef="0" IVar="-1" Cut="0.0000000000000000e+00" cType="1" res="1.8268678104504943e-03" rms="4.6706917881965637e-01" purity="5.4433971643447876e-01" nType="-99"/>
          <Node pos="r" depth="2" NCoef="0" IVar="-1" Cut="0.0000000000000000e+00" cType="1" res="-8.5492050275206566e-03" rms="4.3588823080062866e-01" purity="3.1216561794281006e-01" nType="-99"/>
        </Node>
        <Node pos="r" depth="1" NCoef="0" IVar="2" Cut="9.2313026428222656e+01" cType="1" res="-8.2534909248352051e-02" rms="4.5206442475318909e-01" purity="3.5934925079345703e-01" nType="0">
          <Node pos="l" depth="2" NCoef="0" IVar="-1" Cut="0.0000000000000000e+00" cType="1" res="-9.2161679640412331e-03" rms="4.3755459785461426e-01" purity="2.9848220944404602e-01" nType="-99"/>
          <Node pos="r" depth="2" NCoef="0" IVar="-1" Cut="0.0000000000000000e+00" cType="1" res="-4.3341278797015548e-04" rms="4.5785531401634216e-01" purity="4.3153277039527893e-01" nType="-99"/>
        </Node>
      </Node>
    </BinaryTree>
    <BinaryTree type="DecisionTree" boostWeight="1.0000000000000000e+00" itree="94">
      <Node pos="s" depth="0" NCoef="0" IVar="0" Cut="1.7362091541290283e+00" cType="1" res="1.1361692100763321e-02" rms="4.6607688069343567e-01" purity="4.9936538934707642e-01" nType="0">
        <Node pos="l" depth="1" NCoef="0" IVar="2" Cut="9.7812759399414062e+01" cType="1" res="3.4552659839391708e-02" rms="4.7093752026557922e-01" purity="5.4775655269622803e-01" nType="0">
          <Node pos="l" depth="2" NCoef="0" IVar="-1" Cut="0.0000000000000000e+00" cType="1" res="-3.1892710831016302e-04" rms="4.7261214256286621e-01" purity="4.9280115962028503e-01" nType="-99"/>
          <Node pos="r" depth="2" NCoef="0" IVar="-1" Cut="0.0000000000000000e+00" cType="1" res="4.6258089132606983e-03" rms="4.5320552587509155e-01" purity="6.7208802700042725e-01" nType="-99"/>
        </Node>
        <Node pos="r" depth="1" NCoef="0" IVar="1" Cut="9.4829839468002319e-01" cType="1" res="-5.2371177822351456e-02" rms="4.4628602266311646e-01" purity="3.6637815833091736e-01" nType="0">
          <Node pos="l" depth="2" NCoef="0" IVar="-1" Cut="0.0000000000000000e+00" cType="1" res="-8.4666563197970390e-03" rms="4.0344765782356262e-01" purity="2.2918875515460968e-01" nType="-99"/>
          <Node pos="r" depth="2" NCoef="0" IVar="-1" Cut="0.0000000000000000e+00" cType="1" res="-5.7346420362591743e-04" rms="4.7117370367050171e-01" purity="4.6712869405746460e-01" nType="-99"/>
        </Node>
      </Node>
    </BinaryTree>
    <BinaryTree type="DecisionTree" boostWeight="1.0000000000000000e+00" itree="95">
      <Node pos="s" depth="0" NCoef="0" IVar="6" Cut="4.8863708496093750e+02" cType="1" res="1.4028799720108509e-02" rms="4.6853283047676086e-01" purity="5.0098168849945068e-01" nType="0">
        <Node pos="l" depth="1" NCoef="0" IVar="7" Cut="-9.9953603744506836e-01" cType="1" res="-2.4050077423453331e-02" rms="4.6486541628837585e-01" purity="4.3392616510391235e-01" nType="0">
          <Node pos="l" depth="2" NCoef="0" IVar="-1" Cut="0.0000000000000000e+00" cType="1" res="2.0411128643900156e-03" rms="4.7784426808357239e-01" purity="5.4381549358367920e-01" nType="-99"/>
          <Node pos="r" depth="2" NCoef="0" IVar="-1" Cut="0.0000000000000000e+00" cType="1" res="-2.7069558855146170e-03" rms="4.5732733607292175e-01" purity="3.9431107044219971e-01" nType="-99"/>
        </Node>
        <Node pos="r" depth="1" NCoef="0" IVar="0" Cut="1.5907533168792725e+00" cType="1" res="5.4011940956115723e-02" rms="4.6903750300407410e-01" purity="5.7139062881469727e-01" nType="0">
          <Node pos="l" depth="2" NCoef="0" IVar="-1" Cut="0.0000000000000000e+00" cType="1" res="3.4902601037174463e-03" rms="4.6482685208320618e-01" purity="6.3807219266891479e-01" nType="-99"/>
          <Node pos="r" depth="2" NCoef="0" IVar="-1" Cut="0.0000000000000000e+00" cType="1" res="-1.6059096669778228e-03" rms="4.6644642949104309e-01" purity="4.3000641465187073e-01" nType="-99"/>
        </Node>
      </Node>
    </BinaryTree>
    <BinaryTree type="DecisionTree" boostWeight="1.0000000000000000e+00" itree="96">
      <Node pos="s" depth="0" NCoef="0" IVar="1" Cut="9.5960599184036255e-01" cType="1" res="8.3162263035774231e-03" rms="4.6474513411521912e-01" purity="4.9710512161254883e-01" nType="0">
        <Node pos="l" depth="1" NCoef="0" IVar="7" Cut="-9.9958115816116333e-01" cType="1" res="-3.2007023692131042e-02" rms="4.6283525228500366e-01" purity="3.9999443292617798e-01" nType="0">
          <Node pos="l" depth="2" NCoef="0" IVar="-1" Cut="0.0000000000000000e+00" cType="1" res="1.7023718683049083e-03" rms="4.8269575834274292e-01" purity="5.1172614097595215e-01" nType="-99"/>
          <Node pos="r" depth="2" NCoef="0" IVar="-1" Cut="0.0000000000000000e+00" cType="1" res="-3.3603298943489790e-03" rms="4.5182028412818909e-01" purity="3.5640367865562439e-01" nType="-99"/>
        </Node>
        <Node pos="r" depth="1" NCoef="0" IVar="4" Cut="2.3889062404632568e+00" cType="1" res="6.0795292258262634e-02" rms="4.6197775006294250e-01" purity="6.2349075078964233e-01" nType="0">
          <Node pos="l" depth="2" NCoef="0" IVar="-1" Cut="0.0000000000000000e+00" cType="1" res="3.1616196502000093e-03" rms="4.5275142788887024e-01" purity="6.9042193889617920e-01" nType="-99"/>
          <Node pos="r" depth="2" NCoef="0" IVar="-1" Cut="0.0000000000000000e+00" cType="1" res="-4.8253752174787223e-04" rms="4.7916772961616516e-01" purity="4.4137173891067505e-01" nType="-99"/>
        </Node>
      </Node>
    </BinaryTree>
    <BinaryTree type="DecisionTree" boostWeight="1.0000000000000000e+00" itree="97">
      <Node pos="s" depth="0" NCoef="0" IVar="6" Cut="5.4329656982421875e+02" cType="1" res="1.1067065410315990e-02" rms="4.6706458926200867e-01" purity="4.9973857402801514e-01" nType="0">
        <Node pos="l" depth="1" NCoef="0" IVar="1" Cut="9.2764997482299805e-01" cType="1" res="-1.8467901274561882e-02" rms="4.6545886993408203e-01" purity="4.4934776425361633e-01" nType="0">
          <Node pos="l" depth="2" NCoef="0" IVar="-1" Cut="0.0000000000000000e+00" cType="1" res="-7.0784902200102806e-03" rms="4.2271611094474792e-01" purity="2.6769879460334778e-01" nType="-99"/>
          <Node pos="r" depth="2" NCoef="0" IVar="-1" Cut="0.0000000000000000e+00" cType="1" res="-4.4810444705944974e-06" rms="4.7181361913681030e-01" purity="4.8721042275428772e-01" nType="-99"/>
        </Node>
        <Node pos="r" depth="1" NCoef="0" IVar="0" Cut="1.6885143518447876e+00" cType="1" res="5.8660078793764114e-02" rms="4.6571606397628784e-01" purity="5.8093893527984619e-01" nType="0">
          <Node pos="l" depth="2" NCoef="0" IVar="-1" Cut="0.0000000000000000e+00" cType="1" res="3.4905245993286371e-03" rms="4.6215400099754333e-01" purity="6.4223086833953857e-01" nType="-99"/>
          <Node pos="r" depth="2" NCoef="0" IVar="-1" Cut="0.0000000000000000e+00" cType="1" res="-2.0052471663802862e-03" rms="4.6160373091697693e-01" purity="4.1424635052680969e-01" nType="-99"/>
        </Node>
      </Node>
    </BinaryTree>
    <BinaryTree type="DecisionTree" boostWeight="1.0000000000000000e+00" itree="98">
      <Node pos="s" depth="0" NCoef="0" IVar="4" Cut="2.2038385868072510e+00" cType="1" res="1.4135280624032021e-02" rms="4.6661809086799622e-01" purity="5.0212782621383667e-01" nType="0">
        <Node pos="l" depth="1" NCoef="0" IVar="2" Cut="7.1597717285156250e+01" cType="1" res="5.5512923747301102e-02" rms="4.6875807642936707e-01" purity="6.0542649030685425e-01" nType="0">
          <Node pos="l" depth="2" NCoef="0" IVar="-1" Cut="0.0000000000000000e+00" cType="1" res="-2.0546998712234199e-04" rms="4.8366802930831909e-01" purity="5.0947505235671997e-01" nType="-99"/>
          <Node pos="r" depth="2" NCoef="0" IVar="-1" Cut="0.0000000000000000e+00" cType="1" res="3.7689229939132929e-03" rms="4.5028021931648254e-01" purity="6.8379014730453491e-01" nType="-99"/>
        </Node>
        <Node pos="r" depth="1" NCoef="0" IVar="3" Cut="1.3387240600585938e+02" cType="1" res="-2.4315917864441872e-02" rms="4.6130555868148804e-01" purity="4.0613490343093872e-01" nType="0">
          <Node pos="l" depth="2" NCoef="0" IVar="-1" Cut="0.0000000000000000e+00" cType="1" res="-3.4076281008310616e-04" rms="4.6518114209175110e-01" purity="4.2921590805053711e-01" nType="-99"/>
          <Node pos="r" depth="2" NCoef="0" IVar="-1" Cut="0.0000000000000000e+00" cType="1" res="-7.2000985965132713e-03" rms="4.3182873725891113e-01" purity="2.9386100172996521e-01" nType="-99"/>
        </Node>
      </Node>
    </BinaryTree>
    <BinaryTree type="DecisionTree" boostWeight="1.0000000000000000e+00" itree="99">
      <Node pos="s" depth="0" NCoef="0" IVar="2" Cut="5.5748336791992188e+01" cType="1" res="6.7058973945677280e-03" rms="4.6491196751594543e-01" purity="4.9532699584960938e-01" nType="0">
        <Node pos="l" depth="1" NCoef="0" IVar="2" Cut="3.9460479736328125e+01" cType="1" res="-6.8467795848846436e-02" rms="4.6421524882316589e-01" purity="3.9966270327568054e-01" nType="0">
          <Node pos="l" depth="2" NCoef="0" IVar="-1" Cut="0.0000000000000000e+00" cType="1" res="-7.2667333297431469e-03" rms="4.4612687826156616e-01" purity="3.2772007584571838e-01" nType="-99"/>
          <Node pos="r" depth="2" NCoef="0" IVar="-1" Cut="0.0000000000000000e+00" cType="1" res="-1.2907232157886028e-03" rms="4.7270044684410095e-01" purity="4.5199382305145264e-01" nType="-99"/>
        </Node>
        <Node pos="r" depth="1" NCoef="0" IVar="0" Cut="1.5950089693069458e+00" cType="1" res="3.0068203806877136e-02" rms="4.6264702081680298e-01" purity="5.2505731582641602e-01" nType="0">
          <Node pos="l" depth="2" NCoef="0" IVar="-1" Cut="0.0000000000000000e+00" cType="1" res="3.0906600877642632e-03" rms="4.6143963932991028e-01" purity="6.2042492628097534e-01" nType="-99"/>
          <Node pos="r" depth="2" NCoef="0" IVar="-1" Cut="0.0000000000000000e+00" cType="1" res="-1.8298288341611624e-03" rms="4.5626616477966309e-01" purity="4.0214148163795471e-01" nType="-99"/>
        </Node>
      </Node>
    </BinaryTree>
    <BinaryTree type="DecisionTree" boostWeight="1.0000000000000000e+00" itree="100">
      <Node pos="s" depth="0" NCoef="0" IVar="5" Cut="1.6136249303817749e+00" cType="1" res="8.4779774770140648e-03" rms="4.6479952335357666e-01" purity="4.9588537216186523e-01" nType="0">
        <Node pos="l" depth="1" NCoef="0" IVar="6" Cut="3.9202438354492188e+02" cType="1" res="2.5152485817670822e-02" rms="4.6620476245880127e-01" purity="5.2088081836700439e-01" nType="0">
          <Node pos="l" depth="2" NCoef="0" IVar="-1" Cut="0.0000000000000000e+00" cType="1" res="-2.1183874923735857e-03" rms="4.5815837383270264e-01" purity="3.9829477667808533e-01" nType="-99"/>
          <Node pos="r" depth="2" NCoef="0" IVar="-1" Cut="0.0000000000000000e+00" cType="1" res="2.2205689456313848e-03" rms="4.6684196591377258e-01" purity="5.7693028450012207e-01" nType="-99"/>
        </Node>
        <Node pos="r" depth="1" NCoef="0" IVar="2" Cut="8.6775009155273438e+01" cType="1" res="-8.3603322505950928e-02" rms="4.4586926698684692e-01" purity="3.5785341262817383e-01" nType="0">
          <Node pos="l" depth="2" NCoef="0" IVar="-1" Cut="0.0000000000000000e+00" cType="1" res="-7.1594328619539738e-03" rms="4.3658909201622009e-01" purity="3.2058817148208618e-01" nType="-99"/>
          <Node pos="r" depth="2" NCoef="0" IVar="-1" Cut="0.0000000000000000e+00" cType="1" res="-2.3149405606091022e-03" rms="4.5259511470794678e-01" purity="3.9895945787429810e-01" nType="-99"/>
        </Node>
      </Node>
    </BinaryTree>
    <BinaryTree type="DecisionTree" boostWeight="1.0000000000000000e+00" itree="101">
      <Node pos="s" depth="0" NCoef="0" IVar="1" Cut="9.7902673482894897e-01" cType="1" res="8.6399530991911888e-03" rms="4.6489197015762329e-01" purity="4.9733936786651611e-01" nType="0">
        <Node pos="l" depth="1" NCoef="0" IVar="7" Cut="1.1423742771148682e+00" cType="1" res="-1.1188798584043980e-02" rms="4.6723222732543945e-01" purity="4.5273891091346741e-01" nType="0">
          <Node pos="l" depth="2" NCoef="0" IVar="-1" Cut="0.0000000000000000e+00" cType="1" res="-1.5729136066511273e-03" rms="4.6325796842575073e-01" purity="4.1995060443878174e-01" nType="-99"/>
          <Node pos="r" depth="2" NCoef="0" IVar="-1" Cut="0.0000000000000000e+00" cType="1" res="2.4657705798745155e-03" rms="4.7443428635597229e-01" purity="5.7211393117904663e-01" nType="-99"/>
        </Node>
        <Node pos="r" depth="1" NCoef="0" IVar="4" Cut="2.2403757572174072e+00" cType="1" res="9.3196995556354523e-02" rms="4.4496703147888184e-01" purity="6.8753200769424438e-01" nType="0">
          <Node pos="l" depth="2" NCoef="0" IVar="-1" Cut="0.0000000000000000e+00" cType="1" res="4.4780350290238857e-03" rms="4.1894713044166565e-01" purity="7.6474034786224365e-01" nType="-99"/>
          <Node pos="r" depth="2" NCoef="0" IVar="-1" Cut="0.0000000000000000e+00" cType="1" res="1.6853463603183627e-03" rms="4.7550845146179199e-01" purity="5.7503968477249146e-01" nType="-99"/>
        </Node>
      </Node>
    </BinaryTree>
    <BinaryTree type="DecisionTree" boostWeight="1.0000000000000000e+00" itree="102">
      <Node pos="s" depth="0" NCoef="0" IVar="3" Cut="1.4146928405761719e+02" cType="1" res="1.5732266008853912e-02" rms="4.6779993176460266e-01" purity="5.0271582603454590e-01" nType="0">
        <Node pos="l" depth="1" NCoef="0" IVar="1" Cut="9.7928941249847412e-01" cType="1" res="2.6610003784298897e-02" rms="4.6854320168495178e-01" purity="5.1702696084976196e-01" nType="0">
          <Node pos="l" depth="2" NCoef="0" IVar="-1" Cut="0.0000000000000000e+00" cType="1" res="4.7082171658985317e-04" rms="4.7310233116149902e-01" purity="4.7632947564125061e-01" nType="-99"/>
          <Node pos="r" depth="2" NCoef="0" IVar="-1" Cut="0.0000000000000000e+00" cType="1" res="3.6434216890484095e-03" rms="4.4041380286216736e-01" purity="6.9736993312835693e-01" nType="-99"/>
        </Node>
        <Node pos="r" depth="1" NCoef="0" IVar="-1" Cut="0.0000000000000000e+00" cType="1" res="-8.5771093145012856e-03" rms="4.3014219403266907e-01" purity="3.0506953597068787e-01" nType="-99"/>
      </Node>
    </BinaryTree>
    <BinaryTree type="DecisionTree" boostWeight="1.0000000000000000e+00" itree="103">
      <Node pos="s" depth="0" NCoef="0" IVar="4" Cut="2.5439169406890869e+00" cType="1" res="1.0159936733543873e-02" rms="4.6438068151473999e-01" purity="4.9965912103652954e-01" nType="0">
        <Node pos="l" depth="1" NCoef="0" IVar="1" Cut="9.3264812231063843e-01" cType="1" res="2.8369726613163948e-02" rms="4.7121000289916992e-01" purity="5.5063158273696899e-01" nType="0">
          <Node pos="l" depth="2" NCoef="0" IVar="-1" Cut="0.0000000000000000e+00" cType="1" res="-2.6326209772378206e-03" rms="4.6727320551872253e-01" purity="3.8058355450630188e-01" nType="-99"/>
          <Node pos="r" depth="2" NCoef="0" IVar="-1" Cut="0.0000000000000000e+00" cType="1" res="1.9294415833428502e-03" rms="4.7011587023735046e-01" purity="5.9295916557312012e-01" nType="-99"/>
        </Node>
        <Node pos="r" depth="1" NCoef="0" IVar="5" Cut="1.3246526718139648e+00" cType="1" res="-7.5196966528892517e-02" rms="4.2054644227027893e-01" purity="2.6072996854782104e-01" nType="0">
          <Node pos="l" depth="2" NCoef="0" IVar="-1" Cut="0.0000000000000000e+00" cType="1" res="-2.5161749217659235e-03" rms="4.4544428586959839e-01" purity="3.1230226159095764e-01" nType="-99"/>
          <Node pos="r" depth="2" NCoef="0" IVar="-1" Cut="0.0000000000000000e+00" cType="1" res="-8.8329305872321129e-03" rms="3.9575579762458801e-01" purity="2.1737840771675110e-01" nType="-99"/>
        </Node>
      </Node>
    </BinaryTree>
    <BinaryTree type="DecisionTree" boostWeight="1.0000000000000000e+00" itree="104">
      <Node pos="s" depth="0" NCoef="0" IVar="1" Cut="9.3931311368942261e-01" cType="1" res="7.1862759068608284e-03" rms="4.6456059813499451e-01" purity="4.9742102622985840e-01" nType="0">
        <Node pos="l" depth="1" NCoef="0" IVar="6" Cut="4.9310211181640625e+02" cType="1" res="-5.4360538721084595e-02" rms="4.5189309120178223e-01" purity="3.4579840302467346e-01" nType="0">
          <Node pos="l" depth="2" NCoef="0" IVar="-1" Cut="0.0000000000000000e+00" cType="1" res="-6.7392685450613499e-03" rms="4.2268317937850952e-01" purity="2.6533442735671997e-01" nType="-99"/>
          <Node pos="r" depth="2" NCoef="0" IVar="-1" Cut="0.0000000000000000e+00" cType="1" res="-1.5265139518305659e-04" rms="4.7774595022201538e-01" purity="4.3700662255287170e-01" nType="-99"/>
        </Node>
        <Node pos="r" depth="1" NCoef="0" IVar="7" Cut="8.5681247711181641e-01" cType="1" res="3.1315721571445465e-02" rms="4.6722647547721863e-01" purity="5.5686467885971069e-01" nType="0">
          <Node pos="l" depth="2" NCoef="0" IVar="-1" Cut="0.0000000000000000e+00" cType="1" res="-7.5719377491623163e-05" rms="4.6631041169166565e-01" purity="5.0905281305313110e-01" nType="-99"/>
          <Node pos="r" depth="2" NCoef="0" IVar="-1" Cut="0.0000000000000000e+00" cType="1" res="3.3852232154458761e-03" rms="4.6325886249542236e-01" purity="6.3996642827987671e-01" nType="-99"/>
        </Node>
      </Node>
    </BinaryTree>
    <BinaryTree type="DecisionTree" boostWeight="1.0000000000000000e+00" itree="105">
      <Node pos="s" depth="0" NCoef="0" IVar="6" Cut="2.9928500366210938e+02" cType="1" res="1.6302840784192085e-02" rms="4.6582540869712830e-01" purity="5.0454980134963989e-01" nType="0">
        <Node pos="l" depth="1" NCoef="0" IVar="-1" Cut="0.0000000000000000e+00" cType="1" res="-7.1781142614781857e-03" rms="4.2887020111083984e-01" purity="2.7747908234596252e-01" nType="-99"/>
        <Node pos="r" depth="1" NCoef="0" IVar="0" Cut="1.8687791824340820e+00" cType="1" res="2.6831490918993950e-02" rms="4.6748837828636169e-01" purity="5.2459436655044556e-01" nType="0">
          <Node pos="l" depth="2" NCoef="0" IVar="-1" Cut="0.0000000000000000e+00" cType="1" res="1.8449170747771859e-03" rms="4.7082144021987915e-01" purity="5.6890535354614258e-01" nType="-99"/>
          <Node pos="r" depth="2" NCoef="0" IVar="-1" Cut="0.0000000000000000e+00" cType="1" res="-2.6495689526200294e-03" rms="4.4716396927833557e-01" purity="3.5115304589271545e-01" nType="-99"/>
        </Node>
      </Node>
    </BinaryTree>
    <BinaryTree type="DecisionTree" boostWeight="1.0000000000000000e+00" itree="106">
      <Node pos="s" depth="0" NCoef="0" IVar="5" Cut="1.6136249303817749e+00" cType="1" res="1.4649361371994019e-02" rms="4.6631371974945068e-01" purity="5.0149655342102051e-01" nType="0">
        <Node pos="l" depth="1" NCoef="0" IVar="6" Cut="3.8122573852539062e+02" cType="1" res="3.0402166768908501e-02" rms="4.6681246161460876e-01" purity="5.2664470672607422e-01" nType="0">
          <Node pos="l" depth="2" NCoef="0" IVar="-1" Cut="0.0000000000000000e+00" cType="1" res="-1.8099735025316477e-03" rms="4.5820945501327515e-01" purity="3.9745503664016724e-01" nType="-99"/>
          <Node pos="r" depth="2" NCoef="0" IVar="-1" Cut="0.0000000000000000e+00" cType="1" res="2.2544807288795710e-03" rms="4.6777898073196411e-01" purity="5.7730168104171753e-01" nType="-99"/>
        </Node>
        <Node pos="r" depth="1" NCoef="0" IVar="2" Cut="9.2071945190429688e+01" cType="1" res="-7.3214083909988403e-02" rms="4.5359516143798828e-01" purity="3.6122909188270569e-01" nType="0">
          <Node pos="l" depth="2" NCoef="0" IVar="-1" Cut="0.0000000000000000e+00" cType="1" res="-7.1471529081463814e-03" rms="4.4452220201492310e-01" purity="3.1604981422424316e-01" nType="-99"/>
          <Node pos="r" depth="2" NCoef="0" IVar="-1" Cut="0.0000000000000000e+00" cType="1" res="-1.0152998147532344e-03" rms="4.5861357450485229e-01" purity="4.1577544808387756e-01" nType="-99"/>
        </Node>
      </Node>
    </BinaryTree>
    <BinaryTree type="DecisionTree" boostWeight="1.0000000000000000e+00" itree="107">
      <Node pos="s" depth="0" NCoef="0" IVar="7" Cut="1.1422643661499023e+00" cType="1" res="1.2432779185473919e-02" rms="4.6688058972358704e-01" purity="4.9935442209243774e-01" nType="0">
        <Node pos="l" depth="1" NCoef="0" IVar="7" Cut="-1.0774519443511963e+00" cType="1" res="-7.4607795104384422e-03" rms="4.6618202328681946e-01" purity="4.6467238664627075e-01" nType="0">
          <Node pos="l" depth="2" NCoef="0" IVar="-1" Cut="0.0000000000000000e+00" cType="1" res="2.3268701042979956e-03" rms="4.7192350029945374e-01" purity="5.8793914318084717e-01" nType="-99"/>
          <Node pos="r" depth="2" NCoef="0" IVar="-1" Cut="0.0000000000000000e+00" cType="1" res="-1.8940930021926761e-03" rms="4.6073177456855774e-01" purity="4.1016894578933716e-01" nType="-99"/>
        </Node>
        <Node pos="r" depth="1" NCoef="0" IVar="2" Cut="6.3506069183349609e+01" cType="1" res="8.1356398761272430e-02" rms="4.6272471547126770e-01" purity="6.1951464414596558e-01" nType="0">
          <Node pos="l" depth="2" NCoef="0" IVar="-1" Cut="0.0000000000000000e+00" cType="1" res="4.7571703908033669e-04" rms="4.7756478190422058e-01" purity="5.1427280902862549e-01" nType="-99"/>
          <Node pos="r" depth="2" NCoef="0" IVar="-1" Cut="0.0000000000000000e+00" cType="1" res="4.2612450197339058e-03" rms="4.5150336623191833e-01" purity="6.7017692327499390e-01" nType="-99"/>
        </Node>
      </Node>
    </BinaryTree>
    <BinaryTree type="DecisionTree" boostWeight="1.0000000000000000e+00" itree="108">
      <Node pos="s" depth="0" NCoef="0" IVar="1" Cut="9.2022418975830078e-01" cType="1" res="1.3265560381114483e-02" rms="4.6480059623718262e-01" purity="5.0121527910232544e-01" nType="0">
        <Node pos="l" depth="1" NCoef="0" IVar="6" Cut="4.7377658081054688e+02" cType="1" res="-8.3974167704582214e-02" rms="4.3150225281715393e-01" purity="3.0442598462104797e-01" nType="0">
          <Node pos="l" depth="2" NCoef="0" IVar="-1" Cut="0.0000000000000000e+00" cType="1" res="-8.8700214400887489e-03" rms="3.9466527104377747e-01" purity="2.2695033252239227e-01" nType="-99"/>
          <Node pos="r" depth="2" NCoef="0" IVar="-1" Cut="0.0000000000000000e+00" cType="1" res="-2.4317454081028700e-03" rms="4.6379590034484863e-01" purity="3.8479098677635193e-01" nType="-99"/>
        </Node>
        <Node pos="r" depth="1" NCoef="0" IVar="4" Cut="2.3074438571929932e+00" cType="1" res="2.6205841451883316e-02" rms="4.6753132343292236e-01" purity="5.2740323543548584e-01" nType="0">
          <Node pos="l" depth="2" NCoef="0" IVar="-1" Cut="0.0000000000000000e+00" cType="1" res="2.0725475624203682e-03" rms="4.6804344654083252e-01" purity="6.1249172687530518e-01" nType="-99"/>
          <Node pos="r" depth="2" NCoef="0" IVar="-1" Cut="0.0000000000000000e+00" cType="1" res="-8.2419026875868440e-04" rms="4.6370884776115417e-01" purity="3.9656615257263184e-01" nType="-99"/>
        </Node>
      </Node>
    </BinaryTree>
    <BinaryTree type="DecisionTree" boostWeight="1.0000000000000000e+00" itree="109">
      <Node pos="s" depth="0" NCoef="0" IVar="4" Cut="2.2754492759704590e+00" cType="1" res="1.1092435568571091e-02" rms="4.6396002173423767e-01" purity="5.0143647193908691e-01" nType="0">
        <Node pos="l" depth="1" NCoef="0" IVar="2" Cut="5.0911594390869141e+01" cType="1" res="4.4462405145168304e-02" rms="4.6903279423713684e-01" purity="5.9609484672546387e-01" nType="0">
          <Node pos="l" depth="2" NCoef="0" IVar="-1" Cut="0.0000000000000000e+00" cType="1" res="-1.3424854259938002e-03" rms="4.7994741797447205e-01" purity="4.6444615721702576e-01" nType="-99"/>
          <Node pos="r" depth="2" NCoef="0" IVar="-1" Cut="0.0000000000000000e+00" cType="1" res="2.5913361459970474e-03" rms="4.6298128366470337e-01" purity="6.3858032226562500e-01" nType="-99"/>
        </Node>
        <Node pos="r" depth="1" NCoef="0" IVar="7" Cut="9.9749273061752319e-01" cType="1" res="-3.2795213162899017e-02" rms="4.5347949862480164e-01" purity="3.7694317102432251e-01" nType="0">
          <Node pos="l" depth="2" NCoef="0" IVar="-1" Cut="0.0000000000000000e+00" cType="1" res="-3.1716902740299702e-03" rms="4.4545298814773560e-01" purity="3.4326818585395813e-01" nType="-99"/>
          <Node pos="r" depth="2" NCoef="0" IVar="-1" Cut="0.0000000000000000e+00" cType="1" res="2.0465462002903223e-03" rms="4.7512298822402954e-01" purity="5.0700527429580688e-01" nType="-99"/>
        </Node>
      </Node>
    </BinaryTree>
    <BinaryTree type="DecisionTree" boostWeight="1.0000000000000000e+00" itree="110">
      <Node pos="s" depth="0" NCoef="0" IVar="0" Cut="1.8686714172363281e+00" cType="1" res="1.8330836668610573e-02" rms="4.6513622999191284e-01" purity="5.0611340999603271e-01" nType="0">
        <Node pos="l" depth="1" NCoef="0" IVar="2" Cut="9.1228019714355469e+01" cType="1" res="3.6171436309814453e-02" rms="4.6903833746910095e-01" purity="5.5009847879409790e-01" nType="0">
          <Node pos="l" depth="2" NCoef="0" IVar="-1" Cut="0.0000000000000000e+00" cType="1" res="-2.5135735631920397e-04" rms="4.7222539782524109e-01" purity="4.8858559131622314e-01" nType="-99"/>
          <Node pos="r" depth="2" NCoef="0" IVar="-1" Cut="0.0000000000000000e+00" cType="1" res="3.9008336607366800e-03" rms="4.5575830340385437e-01" purity="6.4997172355651855e-01" nType="-99"/>
        </Node>
        <Node pos="r" depth="1" NCoef="0" IVar="2" Cut="1.4342173767089844e+02" cType="1" res="-5.2379697561264038e-02" rms="4.4231483340263367e-01" purity="3.3178037405014038e-01" nType="0">
          <Node pos="l" depth="2" NCoef="0" IVar="-1" Cut="0.0000000000000000e+00" cType="1" res="-4.1837277240119874e-04" rms="4.5308378338813782e-01" purity="3.7680166959762573e-01" nType="-99"/>
          <Node pos="r" depth="2" NCoef="0" IVar="-1" Cut="0.0000000000000000e+00" cType="1" res="-7.3003750294446945e-03" rms="4.2371779680252075e-01" purity="2.8009301424026489e-01" nType="-99"/>
        </Node>
      </Node>
    </BinaryTree>
    <BinaryTree type="DecisionTree" boostWeight="1.0000000000000000e+00" itree="111">
      <Node pos="s" depth="0" NCoef="0" IVar="1" Cut="9.7902673482894897e-01" cType="1" res="8.1035802140831947e-03" rms="4.6597898006439209e-01" purity="4.9719589948654175e-01" nType="0">
        <Node pos="l" depth="1" NCoef="0" IVar="7" Cut="1.2851777076721191e+00" cType="1" res="-1.0091434232890606e-02" rms="4.6835955977439880e-01" purity="4.5324727892875671e-01" nType="0">
          <Node pos="l" depth="2" NCoef="0" IVar="-1" Cut="0.0000000000000000e+00" cType="1" res="-1.2360386317595840e-03" rms="4.6697783470153809e-01" purity="4.2832708358764648e-01" nType="-99"/>
          <Node pos="r" depth="2" NCoef="0" IVar="-1" Cut="0.0000000000000000e+00" cType="1" res="2.7869951445609331e-03" rms="4.6782690286636353e-01" purity="5.9529936313629150e-01" nType="-99"/>
        </Node>
        <Node pos="r" depth="1" NCoef="0" IVar="2" Cut="8.7443367004394531e+01" cType="1" res="8.5250735282897949e-02" rms="4.4760486483573914e-01" purity="6.8353885412216187e-01" nType="0">
          <Node pos="l" depth="2" NCoef="0" IVar="-1" Cut="0.0000000000000000e+00" cType="1" res="1.8606595695018768e-03" rms="4.6541303396224976e-01" purity="6.4211690425872803e-01" nType="-99"/>
          <Node pos="r" depth="2" NCoef="0" IVar="-1" Cut="0.0000000000000000e+00" cType="1" res="4.2918487451970577e-03" rms="4.2869478464126587e-01" purity="7.1980679035186768e-01" nType="-99"/>
        </Node>
      </Node>
    </BinaryTree>
    <BinaryTree type="DecisionTree" boostWeight="1.0000000000000000e+00" itree="112">
      <Node pos="s" depth="0" NCoef="0" IVar="5" Cut="1.1497399806976318e+00" cType="1" res="1.3627485372126102e-02" rms="4.6381670236587524e-01" purity="5.0336486101150513e-01" nType="0">
        <Node pos="l" depth="1" NCoef="0" IVar="6" Cut="3.3729803466796875e+02" cType="1" res="6.2841624021530151e-02" rms="4.6212938427925110e-01" purity="5.7870525121688843e-01" nType="0">
          <Node pos="l" depth="2" NCoef="0" IVar="-1" Cut="0.0000000000000000e+00" cType="1" res="-1.7759669572114944e-03" rms="4.6739193797111511e-01" purity="4.0238708257675171e-01" nType="-99"/>
          <Node pos="r" depth="2" NCoef="0" IVar="-1" Cut="0.0000000000000000e+00" cType="1" res="3.2637941185384989e-03" rms="4.5830741524696350e-01" purity="6.1749494075775146e-01" nType="-99"/>
        </Node>
        <Node pos="r" depth="1" NCoef="0" IVar="6" Cut="3.3825650024414062e+02" cType="1" res="-1.5315488912165165e-02" rms="4.6236637234687805e-01" purity="4.5905691385269165e-01" nType="0">
          <Node pos="l" depth="2" NCoef="0" IVar="-1" Cut="0.0000000000000000e+00" cType="1" res="-7.2130477055907249e-03" rms="4.2269915342330933e-01" purity="2.6963326334953308e-01" nType="-99"/>
          <Node pos="r" depth="2" NCoef="0" IVar="-1" Cut="0.0000000000000000e+00" cType="1" res="7.2314728640776593e-06" rms="4.6756961941719055e-01" purity="4.9355015158653259e-01" nType="-99"/>
        </Node>
      </Node>
    </BinaryTree>
    <BinaryTree type="DecisionTree" boostWeight="1.0000000000000000e+00" itree="113">
      <Node pos="s" depth="0" NCoef="0" IVar="5" Cut="1.3365018367767334e+00" cType="1" res="1.8812660127878189e-02" rms="4.6573513746261597e-01" purity="5.0761485099792480e-01" nType="0">
        <Node pos="l" depth="1" NCoef="0" IVar="1" Cut="9.2116606235504150e-01" cType="1" res="4.7714769840240479e-02" rms="4.6697986125946045e-01" purity="5.5630910396575928e-01" nType="0">
          <Node pos="l" depth="2" NCoef="0" IVar="-1" Cut="0.0000000000000000e+00" cType="1" res="-2.0929258316755295e-03" rms="4.6249470114707947e-01" purity="3.6400356888771057e-01" nType="-99"/>
          <Node pos="r" depth="2" NCoef="0" IVar="-1" Cut="0.0000000000000000e+00" cType="1" res="2.4289360735565424e-03" rms="4.6638703346252441e-01" purity="5.8136945962905884e-01" nType="-99"/>
        </Node>
        <Node pos="r" depth="1" NCoef="0" IVar="6" Cut="5.0466220092773438e+02" cType="1" res="-2.5111874565482140e-02" rms="4.6037587523460388e-01" purity="4.3361076712608337e-01" nType="0">
          <Node pos="l" depth="2" NCoef="0" IVar="-1" Cut="0.0000000000000000e+00" cType="1" res="-3.9532063528895378e-03" rms="4.4377100467681885e-01" purity="3.5096269845962524e-01" nType="-99"/>
          <Node pos="r" depth="2" NCoef="0" IVar="-1" Cut="0.0000000000000000e+00" cType="1" res="7.2283030021935701e-04" rms="4.7261214256286621e-01" purity="5.1555693149566650e-01" nType="-99"/>
        </Node>
      </Node>
    </BinaryTree>
    <BinaryTree type="DecisionTree" boostWeight="1.0000000000000000e+00" itree="114">
      <Node pos="s" depth="0" NCoef="0" IVar="3" Cut="1.4146928405761719e+02" cType="1" res="3.9880308322608471e-03" rms="4.6558916568756104e-01" purity="4.9267315864562988e-01" nType="0">
        <Node pos="l" depth="1" NCoef="0" IVar="3" Cut="9.8822952270507812e+01" cType="1" res="1.2570705264806747e-02" rms="4.6625220775604248e-01" purity="5.0547105073928833e-01" nType="0">
          <Node pos="l" depth="2" NCoef="0" IVar="-1" Cut="0.0000000000000000e+00" cType="1" res="-7.3734959587454796e-03" rms="4.4373598694801331e-01" purity="3.2941028475761414e-01" nType="-99"/>
          <Node pos="r" depth="2" NCoef="0" IVar="-1" Cut="0.0000000000000000e+00" cType="1" res="9.0044573880732059e-04" rms="4.6635195612907410e-01" purity="5.1562690734863281e-01" nType="-99"/>
        </Node>
        <Node pos="r" depth="1" NCoef="0" IVar="-1" Cut="0.0000000000000000e+00" cType="1" res="-6.7149102687835693e-03" rms="4.4142660498619080e-01" purity="3.2397076487541199e-01" nType="-99"/>
      </Node>
    </BinaryTree>
    <BinaryTree type="DecisionTree" boostWeight="1.0000000000000000e+00" itree="115">
      <Node pos="s" depth="0" NCoef="0" IVar="4" Cut="2.6331856250762939e+00" cType="1" res="1.4299530535936356e-02" rms="4.6390622854232788e-01" purity="5.0355130434036255e-01" nType="0">
        <Node pos="l" depth="1" NCoef="0" IVar="2" Cut="5.1460388183593750e+01" cType="1" res="2.7287717908620834e-02" rms="4.6997895836830139e-01" purity="5.4146116971969604e-01" nType="0">
          <Node pos="l" depth="2" NCoef="0" IVar="-1" Cut="0.0000000000000000e+00" cType="1" res="-1.7205214826390147e-03" rms="4.7327855229377747e-01" purity="4.3847319483757019e-01" nType="-99"/>
          <Node pos="r" depth="2" NCoef="0" IVar="-1" Cut="0.0000000000000000e+00" cType="1" res="1.8306139390915632e-03" rms="4.6760192513465881e-01" purity="5.6963998079299927e-01" nType="-99"/>
        </Node>
        <Node pos="r" depth="1" NCoef="0" IVar="5" Cut="1.3389689922332764e+00" cType="1" res="-7.7248640358448029e-02" rms="4.0701934695243835e-01" purity="2.3634077608585358e-01" nType="0">
          <Node pos="l" depth="2" NCoef="0" IVar="-1" Cut="0.0000000000000000e+00" cType="1" res="-2.9995674267411232e-03" rms="4.3426120281219482e-01" purity="2.8929960727691650e-01" nType="-99"/>
          <Node pos="r" depth="2" NCoef="0" IVar="-1" Cut="0.0000000000000000e+00" cType="1" res="-9.2549799010157585e-03" rms="3.8196268677711487e-01" purity="1.9428685307502747e-01" nType="-99"/>
        </Node>
      </Node>
    </BinaryTree>
    <BinaryTree type="DecisionTree" boostWeight="1.0000000000000000e+00" itree="116">
      <Node pos="s" depth="0" NCoef="0" IVar="0" Cut="1.7848750352859497e+00" cType="1" res="9.3174120411276817e-03" rms="4.6262279152870178e-01" purity="4.9878424406051636e-01" nType="0">
        <Node pos="l" depth="1" NCoef="0" IVar="2" Cut="9.5037467956542969e+01" cType="1" res="2.9515821486711502e-02" rms="4.6717542409896851e-01" purity="5.4680991172790527e-01" nType="0">
          <Node pos="l" depth="2" NCoef="0" IVar="-1" Cut="0.0000000000000000e+00" cType="1" res="-3.8644616142846644e-04" rms="4.6996250748634338e-01" purity="4.8973879218101501e-01" nType="-99"/>
          <Node pos="r" depth="2" NCoef="0" IVar="-1" Cut="0.0000000000000000e+00" cType="1" res="3.9496445097029209e-03" rms="4.5201894640922546e-01" purity="6.6120946407318115e-01" nType="-99"/>
        </Node>
        <Node pos="r" depth="1" NCoef="0" IVar="4" Cut="2.2499923706054688e+00" cType="1" res="-5.2926260977983475e-02" rms="4.4254243373870850e-01" purity="3.5078808665275574e-01" nType="0">
          <Node pos="l" depth="2" NCoef="0" IVar="-1" Cut="0.0000000000000000e+00" cType="1" res="8.8522239821031690e-05" rms="4.7784546017646790e-01" purity="5.3071653842926025e-01" nType="-99"/>
          <Node pos="r" depth="2" NCoef="0" IVar="-1" Cut="0.0000000000000000e+00" cType="1" res="-5.4758037440478802e-03" rms="4.2449140548706055e-01" purity="2.7427455782890320e-01" nType="-99"/>
        </Node>
      </Node>
    </BinaryTree>
    <BinaryTree type="DecisionTree" boostWeight="1.0000000000000000e+00" itree="117">
      <Node pos="s" depth="0" NCoef="0" IVar="3" Cut="1.4146928405761719e+02" cType="1" res="1.2118516489863396e-02" rms="4.6290472149848938e-01" purity="5.0091302394866943e-01" nType="0">
        <Node pos="l" depth="1" NCoef="0" IVar="1" Cut="9.7240310907363892e-01" cType="1" res="2.2925376892089844e-02" rms="4.6346917748451233e-01" purity="5.1634556055068970e-01" nType="0">
          <Node pos="l" depth="2" NCoef="0" IVar="-1" Cut="0.0000000000000000e+00" cType="1" res="5.3077958000358194e-05" rms="4.6798649430274963e-01" purity="4.5767208933830261e-01" nType="-99"/>
          <Node pos="r" depth="2" NCoef="0" IVar="-1" Cut="0.0000000000000000e+00" cType="1" res="3.2085804268717766e-03" rms="4.4457110762596130e-01" purity="6.8314135074615479e-01" nType="-99"/>
        </Node>
        <Node pos="r" depth="1" NCoef="0" IVar="-1" Cut="0.0000000000000000e+00" cType="1" res="-9.0133659541606903e-03" rms="4.2913830280303955e-01" purity="2.9175901412963867e-01" nType="-99"/>
      </Node>
    </BinaryTree>
    <BinaryTree type="DecisionTree" boostWeight="1.0000000000000000e+00" itree="118">
      <Node pos="s" depth="0" NCoef="0" IVar="2" Cut="5.5748336791992188e+01" cType="1" res="1.0357066057622433e-02" rms="4.6286785602569580e-01" purity="4.9963298439979553e-01" nType="0">
        <Node pos="l" depth="1" NCoef="0" IVar="2" Cut="3.9458232879638672e+01" cType="1" res="-5.3975194692611694e-02" rms="4.6521234512329102e-01" purity="4.1171467304229736e-01" nType="0">
          <Node pos="l" depth="2" NCoef="0" IVar="-1" Cut="0.0000000000000000e+00" cType="1" res="-7.4475551955401897e-03" rms="4.4450485706329346e-01" purity="3.1740564107894897e-01" nType="-99"/>
          <Node pos="r" depth="2" NCoef="0" IVar="-1" Cut="0.0000000000000000e+00" cType="1" res="-1.9721909484360367e-04" rms="4.7299471497535706e-01" purity="4.7821941971778870e-01" nType="-99"/>
        </Node>
        <Node pos="r" depth="1" NCoef="0" IVar="0" Cut="1.4252645969390869e+00" cType="1" res="3.0053811147809029e-02" rms="4.6035352349281311e-01" purity="5.2655112743377686e-01" nType="0">
          <Node pos="l" depth="2" NCoef="0" IVar="-1" Cut="0.0000000000000000e+00" cType="1" res="3.3162084873765707e-03" rms="4.5647126436233521e-01" purity="6.4055550098419189e-01" nType="-99"/>
          <Node pos="r" depth="2" NCoef="0" IVar="-1" Cut="0.0000000000000000e+00" cType="1" res="-7.6396827353164554e-04" rms="4.5838758349418640e-01" purity="4.3712666630744934e-01" nType="-99"/>
        </Node>
      </Node>
    </BinaryTree>
    <BinaryTree type="DecisionTree" boostWeight="1.0000000000000000e+00" itree="119">
      <Node pos="s" depth="0" NCoef="0" IVar="1" Cut="9.7908627986907959e-01" cType="1" res="3.6977503914386034e-03" rms="4.6310493350028992e-01" purity="4.9301910400390625e-01" nType="0">
        <Node pos="l" depth="1" NCoef="0" IVar="3" Cut="1.0636575317382812e+02" cType="1" res="-1.5145767480134964e-02" rms="4.6571460366249084e-01" purity="4.4738301634788513e-01" nType="0">
          <Node pos="l" depth="2" NCoef="0" IVar="-1" Cut="0.0000000000000000e+00" cType="1" res="-8.2804849371314049e-03" rms="4.3406108021736145e-01" purity="2.9819771647453308e-01" nType="-99"/>
          <Node pos="r" depth="2" NCoef="0" IVar="-1" Cut="0.0000000000000000e+00" cType="1" res="-1.3486875104717910e-04" rms="4.6736937761306763e-01" purity="4.6359220147132874e-01" nType="-99"/>
        </Node>
        <Node pos="r" depth="1" NCoef="0" IVar="2" Cut="8.7443367004394531e+01" cType="1" res="8.4301434457302094e-02" rms="4.4281142950057983e-01" purity="6.8822890520095825e-01" nType="0">
          <Node pos="l" depth="2" NCoef="0" IVar="-1" Cut="0.0000000000000000e+00" cType="1" res="1.7819770146161318e-03" rms="4.6021088957786560e-01" purity="6.4561158418655396e-01" nType="-99"/>
          <Node pos="r" depth="2" NCoef="0" IVar="-1" Cut="0.0000000000000000e+00" cType="1" res="4.3028364889323711e-03" rms="4.2379331588745117e-01" purity="7.2602117061614990e-01" nType="-99"/>
        </Node>
      </Node>
    </BinaryTree>
    <BinaryTree type="DecisionTree" boostWeight="1.0000000000000000e+00" itree="120">
      <Node pos="s" depth="0" NCoef="0" IVar="6" Cut="3.9331054687500000e+02" cType="1" res="7.7869207598268986e-03" rms="4.6435207128524780e-01" purity="4.9498206377029419e-01" nType="0">
        <Node pos="l" depth="1" NCoef="0" IVar="1" Cut="9.7310125827789307e-01" cType="1" res="-4.3105792254209518e-02" rms="4.5702981948852539e-01" purity="3.7692400813102722e-01" nType="0">
          <Node pos="l" depth="2" NCoef="0" IVar="-1" Cut="0.0000000000000000e+00" cType="1" res="-3.6641687620431185e-03" rms="4.4906044006347656e-01" purity="3.2444053888320923e-01" nType="-99"/>
          <Node pos="r" depth="2" NCoef="0" IVar="-1" Cut="0.0000000000000000e+00" cType="1" res="4.6768848551437259e-04" rms="4.8051080107688904e-01" purity="5.6398129463195801e-01" nType="-99"/>
        </Node>
        <Node pos="r" depth="1" NCoef="0" IVar="0" Cut="1.9769289493560791e+00" cType="1" res="2.9195312410593033e-02" rms="4.6573919057846069e-01" purity="5.4464399814605713e-01" nType="0">
          <Node pos="l" depth="2" NCoef="0" IVar="-1" Cut="0.0000000000000000e+00" cType="1" res="1.8995209829881787e-03" rms="4.6869337558746338e-01" purity="5.8665657043457031e-01" nType="-99"/>
          <Node pos="r" depth="2" NCoef="0" IVar="-1" Cut="0.0000000000000000e+00" cType="1" res="-4.3968600220978260e-03" rms="4.3671041727066040e-01" purity="3.1791070103645325e-01" nType="-99"/>
        </Node>
      </Node>
    </BinaryTree>
    <BinaryTree type="DecisionTree" boostWeight="1.0000000000000000e+00" itree="121">
      <Node pos="s" depth="0" NCoef="0" IVar="1" Cut="9.7908627986907959e-01" cType="1" res="9.5224576070904732e-03" rms="4.6286171674728394e-01" purity="4.9954906105995178e-01" nType="0">
        <Node pos="l" depth="1" NCoef="0" IVar="6" Cut="4.2161257934570312e+02" cType="1" res="-8.3268983289599419e-03" rms="4.6578633785247803e-01" purity="4.5426744222640991e-01" nType="0">
          <Node pos="l" depth="2" NCoef="0" IVar="-1" Cut="0.0000000000000000e+00" cType="1" res="-2.9805086087435484e-03" rms="4.5152956247329712e-01" purity="3.5239818692207336e-01" nType="-99"/>
          <Node pos="r" depth="2" NCoef="0" IVar="-1" Cut="0.0000000000000000e+00" cType="1" res="7.2405976243317127e-04" rms="4.7218936681747437e-01" purity="5.1408034563064575e-01" nType="-99"/>
        </Node>
        <Node pos="r" depth="1" NCoef="0" IVar="4" Cut="2.2387278079986572e+00" cType="1" res="8.4047645330429077e-02" rms="4.4273811578750610e-01" purity="6.8861037492752075e-01" nType="0">
          <Node pos="l" depth="2" NCoef="0" IVar="-1" Cut="0.0000000000000000e+00" cType="1" res="4.2350227013230324e-03" rms="4.1309943795204163e-01" purity="7.7182674407958984e-01" nType="-99"/>
          <Node pos="r" depth="2" NCoef="0" IVar="-1" Cut="0.0000000000000000e+00" cType="1" res="1.3207582524046302e-03" rms="4.7656306624412537e-01" purity="5.7115733623504639e-01" nType="-99"/>
        </Node>
      </Node>
    </BinaryTree>
    <BinaryTree type="DecisionTree" boostWeight="1.0000000000000000e+00" itree="122">
      <Node pos="s" depth="0" NCoef="0" IVar="2" Cut="6.3319942474365234e+01" cType="1" res="6.2086661346256733e-03" rms="4.6381729841232300e-01" purity="4.9472281336784363e-01" nType="0">
        <Node pos="l" depth="1" NCoef="0" IVar="8" Cut="2.3709782409667969e+02" cType="1" res="-4.3939705938100815e-02" rms="4.6927255392074585e-01" purity="4.2536136507987976e-01" nType="0">
          <Node pos="l" depth="2" NCoef="0" IVar="-1" Cut="0.0000000000000000e+00" cType="1" res="-1.1078079696744680e-03" rms="4.7314402461051941e-01" purity="4.5205387473106384e-01" nType="-99"/>
          <Node pos="r" depth="2" NCoef="0" IVar="-1" Cut="0.0000000000000000e+00" cType="1" res="-5.6593711487948895e-03" rms="4.5412206649780273e-01" purity="3.5462996363639832e-01" nType="-99"/>
        </Node>
        <Node pos="r" depth="1" NCoef="0" IVar="0" Cut="1.3934445381164551e+00" cType="1" res="2.8131823986768723e-02" rms="4.5969685912132263e-01" purity="5.2504521608352661e-01" nType="0">
          <Node pos="l" depth="2" NCoef="0" IVar="-1" Cut="0.0000000000000000e+00" cType="1" res="3.6836846265941858e-03" rms="4.5277017354965210e-01" purity="6.6207778453826904e-01" nType="-99"/>
          <Node pos="r" depth="2" NCoef="0" IVar="-1" Cut="0.0000000000000000e+00" cType="1" res="-9.3853479484096169e-04" rms="4.5822799205780029e-01" purity="4.3582269549369812e-01" nType="-99"/>
        </Node>
      </Node>
    </BinaryTree>
    <BinaryTree type="DecisionTree" boostWeight="1.0000000000000000e+00" itree="123">
      <Node pos="s" depth="0" NCoef="0" IVar="1" Cut="9.1941165924072266e-01" cType="1" res="1.0250370018184185e-02" rms="4.6301704645156860e-01" purity="5.0014245510101318e-01" nType="0">
        <Node pos="l" depth="1" NCoef="0" IVar="6" Cut="4.9231365966796875e+02" cType="1" res="-9.7170345485210419e-02" rms="4.3244966864585876e-01" purity="2.8885731101036072e-01" nType="0">
          <Node pos="l" depth="2" NCoef="0" IVar="-1" Cut="0.0000000000000000e+00" cType="1" res="-9.7920261323451996e-03" rms="3.9479756355285645e-01" purity="2.1531981229782104e-01" nType="-99"/>
          <Node pos="r" depth="2" NCoef="0" IVar="-1" Cut="0.0000000000000000e+00" cType="1" res="-3.2454691827297211e-03" rms="4.6916854381561279e-01" purity="3.7258440256118774e-01" nType="-99"/>
        </Node>
        <Node pos="r" depth="1" NCoef="0" IVar="5" Cut="1.5839596986770630e+00" cType="1" res="2.3520201444625854e-02" rms="4.6493500471115112e-01" purity="5.2624279260635376e-01" nType="0">
          <Node pos="l" depth="2" NCoef="0" IVar="-1" Cut="0.0000000000000000e+00" cType="1" res="1.7098217504099011e-03" rms="4.6515700221061707e-01" purity="5.5364513397216797e-01" nType="-99"/>
          <Node pos="r" depth="2" NCoef="0" IVar="-1" Cut="0.0000000000000000e+00" cType="1" res="-3.0519978608936071e-03" rms="4.5526748895645142e-01" purity="3.9233577251434326e-01" nType="-99"/>
        </Node>
      </Node>
    </BinaryTree>
    <BinaryTree type="DecisionTree" boostWeight="1.0000000000000000e+00" itree="124">
      <Node pos="s" depth="0" NCoef="0" IVar="5" Cut="1.5968585014343262e+00" cType="1" res="1.0999942198395729e-02" rms="4.6423274278640747e-01" purity="5.0074362754821777e-01" nType="0">
        <Node pos="l" depth="1" NCoef="0" IVar="6" Cut="3.9625744628906250e+02" cType="1" res="2.6021180674433708e-02" rms="4.6559613943099976e-01" purity="5.2646332979202271e-01" nType="0">
          <Node pos="l" depth="2" NCoef="0" IVar="-1" Cut="0.0000000000000000e+00" cType="1" res="-1.4896730426698923e-03" rms="4.6177682280540466e-01" purity="4.0655931830406189e-01" nType="-99"/>
          <Node pos="r" depth="2" NCoef="0" IVar="-1" Cut="0.0000000000000000e+00" cType="1" res="2.1103604231029749e-03" rms="4.6525338292121887e-01" purity="5.8318388462066650e-01" nType="-99"/>
        </Node>
        <Node pos="r" depth="1" NCoef="0" IVar="5" Cut="1.8484086990356445e+00" cType="1" res="-6.4219534397125244e-02" rms="4.4986224174499512e-01" purity="3.7195119261741638e-01" nType="0">
          <Node pos="l" depth="2" NCoef="0" IVar="-1" Cut="0.0000000000000000e+00" cType="1" res="-1.7068090382963419e-03" rms="4.5189154148101807e-01" purity="4.0702408552169800e-01" nType="-99"/>
          <Node pos="r" depth="2" NCoef="0" IVar="-1" Cut="0.0000000000000000e+00" cType="1" res="-8.4516014903783798e-03" rms="4.3823525309562683e-01" purity="2.9838702082633972e-01" nType="-99"/>
        </Node>
      </Node>
    </BinaryTree>
    <BinaryTree type="DecisionTree" boostWeight="1.0000000000000000e+00" itree="125">
      <Node pos="s" depth="0" NCoef="0" IVar="6" Cut="2.9928500366210938e+02" cType="1" res="1.1666657403111458e-02" rms="4.6199965476989746e-01" purity="5.0195181369781494e-01" nType="0">
        <Node pos="l" depth="1" NCoef="0" IVar="-1" Cut="0.0000000000000000e+00" cType="1" res="-7.6442309655249119e-03" rms="4.2021718621253967e-01" purity="2.6551973819732666e-01" nType="-99"/>
        <Node pos="r" depth="1" NCoef="0" IVar="4" Cut="2.5853106975555420e+00" cType="1" res="2.1639201790094376e-02" rms="4.6414124965667725e-01" purity="5.2261167764663696e-01" nType="0">
          <Node pos="l" depth="2" NCoef="0" IVar="-1" Cut="0.0000000000000000e+00" cType="1" res="1.5025811735540628e-03" rms="4.6977931261062622e-01" purity="5.6701070070266724e-01" nType="-99"/>
          <Node pos="r" depth="2" NCoef="0" IVar="-1" Cut="0.0000000000000000e+00" cType="1" res="-4.6132211573421955e-03" rms="4.2069548368453979e-01" purity="2.6832476258277893e-01" nType="-99"/>
        </Node>
      </Node>
    </BinaryTree>
    <BinaryTree type="DecisionTree" boostWeight="1.0000000000000000e+00" itree="126">
      <Node pos="s" depth="0" NCoef="0" IVar="1" Cut="9.2054063081741333e-01" cType="1" res="5.1589426584541798e-03" rms="4.6313568949699402e-01" purity="4.9367839097976685e-01" nType="0">
        <Node pos="l" depth="1" NCoef="0" IVar="8" Cut="2.3675599670410156e+02" cType="1" res="-8.8773541152477264e-02" rms="4.3020570278167725e-01" purity="2.9124927520751953e-01" nType="0">
          <Node pos="l" depth="2" NCoef="0" IVar="-1" Cut="0.0000000000000000e+00" cType="1" res="-3.4717593807727098e-03" rms="4.4907981157302856e-01" purity="3.2867088913917542e-01" nType="-99"/>
          <Node pos="r" depth="2" NCoef="0" IVar="-1" Cut="0.0000000000000000e+00" cType="1" res="-9.1366861015558243e-03" rms="4.0132820606231689e-01" purity="2.4229358136653900e-01" nType="-99"/>
        </Node>
        <Node pos="r" depth="1" NCoef="0" IVar="7" Cut="-1.2851746082305908e+00" cType="1" res="1.7787912860512733e-02" rms="4.6594423055648804e-01" purity="5.2089446783065796e-01" nType="0">
          <Node pos="l" depth="2" NCoef="0" IVar="-1" Cut="0.0000000000000000e+00" cType="1" res="3.4521289635449648e-03" rms="4.5517653226852417e-01" purity="6.4885509014129639e-01" nType="-99"/>
          <Node pos="r" depth="2" NCoef="0" IVar="-1" Cut="0.0000000000000000e+00" cType="1" res="1.9880433683283627e-04" rms="4.6668890118598938e-01" purity="4.9703088402748108e-01" nType="-99"/>
        </Node>
      </Node>
    </BinaryTree>
    <BinaryTree type="DecisionTree" boostWeight="1.0000000000000000e+00" itree="127">
      <Node pos="s" depth="0" NCoef="0" IVar="1" Cut="9.7928941249847412e-01" cType="1" res="1.5173924155533314e-02" rms="4.6132481098175049e-01" purity="5.0417435169219971e-01" nType="0">
        <Node pos="l" depth="1" NCoef="0" IVar="7" Cut="9.9943667650222778e-01" cType="1" res="-1.2088115327060223e-03" rms="4.6475589275360107e-01" purity="4.6122801303863525e-01" nType="0">
          <Node pos="l" depth="2" NCoef="0" IVar="-1" Cut="0.0000000000000000e+00" cType="1" res="-1.1386304395273328e-03" rms="4.6163976192474365e-01" purity="4.2022636532783508e-01" nType="-99"/>
          <Node pos="r" depth="2" NCoef="0" IVar="-1" Cut="0.0000000000000000e+00" cType="1" res="2.1523986943066120e-03" rms="4.6835440397262573e-01" purity="5.6619453430175781e-01" nType="-99"/>
        </Node>
        <Node pos="r" depth="1" NCoef="0" IVar="5" Cut="1.3493533134460449e+00" cType="1" res="8.8714875280857086e-02" rms="4.3811434507369995e-01" purity="6.9695746898651123e-01" nType="0">
          <Node pos="l" depth="2" NCoef="0" IVar="-1" Cut="0.0000000000000000e+00" cType="1" res="4.2822272516787052e-03" rms="4.2101696133613586e-01" purity="7.4078536033630371e-01" nType="-99"/>
          <Node pos="r" depth="2" NCoef="0" IVar="-1" Cut="0.0000000000000000e+00" cType="1" res="1.0016770102083683e-03" rms="4.6680665016174316e-01" purity="6.0152435302734375e-01" nType="-99"/>
        </Node>
      </Node>
    </BinaryTree>
    <BinaryTree type="DecisionTree" boostWeight="1.0000000000000000e+00" itree="128">
      <Node pos="s" depth="0" NCoef="0" IVar="1" Cut="9.2605543136596680e-01" cType="1" res="1.1347967199981213e-02" rms="4.6229037642478943e-01" purity="5.0208806991577148e-01" nType="0">
        <Node pos="l" depth="1" NCoef="0" IVar="2" Cut="6.4311431884765625e+01" cType="1" res="-6.9512903690338135e-02" rms="4.3920579552650452e-01" purity="3.1364271044731140e-01" nType="0">
          <Node pos="l" depth="2" NCoef="0" IVar="-1" Cut="0.0000000000000000e+00" cType="1" res="-8.0214757472276688e-03" rms="4.2149743437767029e-01" purity="2.5765806436538696e-01" nType="-99"/>
          <Node pos="r" depth="2" NCoef="0" IVar="-1" Cut="0.0000000000000000e+00" cType="1" res="-2.6278281584382057e-03" rms="4.4607102870941162e-01" purity="3.4229752421379089e-01" nType="-99"/>
        </Node>
        <Node pos="r" depth="1" NCoef="0" IVar="4" Cut="2.2168953418731689e+00" cType="1" res="2.6185279712080956e-02" rms="4.6487748622894287e-01" purity="5.3666621446609497e-01" nType="0">
          <Node pos="l" depth="2" NCoef="0" IVar="-1" Cut="0.0000000000000000e+00" cType="1" res="2.2913389839231968e-03" rms="4.6266648173332214e-01" purity="6.3418173789978027e-01" nType="-99"/>
          <Node pos="r" depth="2" NCoef="0" IVar="-1" Cut="0.0000000000000000e+00" cType="1" res="-3.8936428609304130e-04" rms="4.6467849612236023e-01" purity="4.3729203939437866e-01" nType="-99"/>
        </Node>
      </Node>
    </BinaryTree>
    <BinaryTree type="DecisionTree" boostWeight="1.0000000000000000e+00" itree="129">
      <Node pos="s" depth="0" NCoef="0" IVar="5" Cut="1.1521362066268921e+00" cType="1" res="1.3115321286022663e-02" rms="4.6229180693626404e-01" purity="5.0327646732330322e-01" nType="0">
        <Node pos="l" depth="1" NCoef="0" IVar="0" Cut="1.8313046693801880e+00" cType="1" res="5.2221894264221191e-02" rms="4.6069425344467163e-01" purity="5.7191318273544312e-01" nType="0">
          <Node pos="l" depth="2" NCoef="0" IVar="-1" Cut="0.0000000000000000e+00" cType="1" res="2.9204171150922775e-03" rms="4.5668241381645203e-01" purity="6.2487494945526123e-01" nType="-99"/>
          <Node pos="r" depth="2" NCoef="0" IVar="-1" Cut="0.0000000000000000e+00" cType="1" res="-1.2086840579286218e-03" rms="4.6597132086753845e-01" purity="3.9820891618728638e-01" nType="-99"/>
        </Node>
        <Node pos="r" depth="1" NCoef="0" IVar="7" Cut="-9.9958115816116333e-01" cType="1" res="-1.0437091812491417e-02" rms="4.6165570616722107e-01" purity="4.6193921566009521e-01" nType="0">
          <Node pos="l" depth="2" NCoef="0" IVar="-1" Cut="0.0000000000000000e+00" cType="1" res="1.9029163522645831e-03" rms="4.7080302238464355e-01" purity="5.7197111845016479e-01" nType="-99"/>
          <Node pos="r" depth="2" NCoef="0" IVar="-1" Cut="0.0000000000000000e+00" cType="1" res="-1.6014795983210206e-03" rms="4.5658457279205322e-01" purity="4.2199364304542542e-01" nType="-99"/>
        </Node>
      </Node>
    </BinaryTree>
    <BinaryTree type="DecisionTree" boostWeight="1.0000000000000000e+00" itree="130">
      <Node pos="s" depth="0" NCoef="0" IVar="3" Cut="1.3738551330566406e+02" cType="1" res="7.3622749187052250e-03" rms="4.6377140283584595e-01" purity="4.9573695659637451e-01" nType="0">
        <Node pos="l" depth="1" NCoef="0" IVar="7" Cut="1.1422568559646606e+00" cType="1" res="1.8763897940516472e-02" rms="4.6496790647506714e-01" purity="5.1323312520980835e-01" nType="0">
          <Node pos="l" depth="2" NCoef="0" IVar="-1" Cut="0.0000000000000000e+00" cType="1" res="5.6869874242693186e-05" rms="4.6518254280090332e-01" purity="4.7950166463851929e-01" nType="-99"/>
          <Node pos="r" depth="2" NCoef="0" IVar="-1" Cut="0.0000000000000000e+00" cType="1" res="3.0369730666279793e-03" rms="4.5917466282844543e-01" purity="6.2870764732360840e-01" nType="-99"/>
        </Node>
        <Node pos="r" depth="1" NCoef="0" IVar="5" Cut="1.3128427267074585e+00" cType="1" res="-8.8902145624160767e-02" rms="4.4196972250938416e-01" purity="3.4801542758941650e-01" nType="0">
          <Node pos="l" depth="2" NCoef="0" IVar="-1" Cut="0.0000000000000000e+00" cType="1" res="-3.0406957957893610e-03" rms="4.5703461766242981e-01" purity="4.1191077232360840e-01" nType="-99"/>
          <Node pos="r" depth="2" NCoef="0" IVar="-1" Cut="0.0000000000000000e+00" cType="1" res="-8.0452626571059227e-03" rms="4.2419558763504028e-01" purity="2.8455573320388794e-01" nType="-99"/>
        </Node>
      </Node>
    </BinaryTree>
    <BinaryTree type="DecisionTree" boostWeight="1.0000000000000000e+00" itree="131">
      <Node pos="s" depth="0" NCoef="0" IVar="3" Cut="1.3387240600585938e+02" cType="1" res="1.2414456345140934e-02" rms="4.6360754966735840e-01" purity="5.0295662879943848e-01" nType="0">
        <Node pos="l" depth="1" NCoef="0" IVar="3" Cut="1.1393081665039062e+02" cType="1" res="2.5599777698516846e-02" rms="4.6460613608360291e-01" purity="5.2302157878875732e-01" nType="0">
          <Node pos="l" depth="2" NCoef="0" IVar="-1" Cut="0.0000000000000000e+00" cType="1" res="-1.7210460500791669e-03" rms="4.6399974822998047e-01" purity="4.3735238909721375e-01" nType="-99"/>
          <Node pos="r" depth="2" NCoef="0" IVar="-1" Cut="0.0000000000000000e+00" cType="1" res="1.8484973115846515e-03" rms="4.6334043145179749e-01" purity="5.4801744222640991e-01" nType="-99"/>
        </Node>
        <Node pos="r" depth="1" NCoef="0" IVar="3" Cut="1.4259828186035156e+02" cType="1" res="-5.8998011052608490e-02" rms="4.5152020454406738e-01" purity="3.9428386092185974e-01" nType="0">
          <Node pos="l" depth="2" NCoef="0" IVar="-1" Cut="0.0000000000000000e+00" cType="1" res="-9.3756039859727025e-04" rms="4.6070697903633118e-01" purity="4.5486593246459961e-01" nType="-99"/>
          <Node pos="r" depth="2" NCoef="0" IVar="-1" Cut="0.0000000000000000e+00" cType="1" res="-7.7623790130019188e-03" rms="4.2982727289199829e-01" purity="3.0125266313552856e-01" nType="-99"/>
        </Node>
      </Node>
    </BinaryTree>
    <BinaryTree type="DecisionTree" boostWeight="1.0000000000000000e+00" itree="132">
      <Node pos="s" depth="0" NCoef="0" IVar="2" Cut="9.3114143371582031e+01" cType="1" res="9.4964681193232536e-03" rms="4.6355789899826050e-01" purity="4.9981245398521423e-01" nType="0">
        <Node pos="l" depth="1" NCoef="0" IVar="8" Cut="2.4608732604980469e+02" cType="1" res="-2.1926933899521828e-02" rms="4.6811330318450928e-01" purity="4.6540555357933044e-01" nType="0">
          <Node pos="l" depth="2" NCoef="0" IVar="-1" Cut="0.0000000000000000e+00" cType="1" res="1.1241682659601793e-04" rms="4.7106212377548218e-01" purity="4.9703851342201233e-01" nType="-99"/>
          <Node pos="r" depth="2" NCoef="0" IVar="-1" Cut="0.0000000000000000e+00" cType="1" res="-4.6197702176868916e-03" rms="4.5425623655319214e-01" purity="3.8312548398971558e-01" nType="-99"/>
        </Node>
        <Node pos="r" depth="1" NCoef="0" IVar="0" Cut="1.5867024660110474e+00" cType="1" res="4.6004749834537506e-02" rms="4.5549419522285461e-01" purity="5.3978699445724487e-01" nType="0">
          <Node pos="l" depth="2" NCoef="0" IVar="-1" Cut="0.0000000000000000e+00" cType="1" res="4.3304581195116043e-03" rms="4.4425401091575623e-01" purity="6.9188368320465088e-01" nType="-99"/>
          <Node pos="r" depth="2" NCoef="0" IVar="-1" Cut="0.0000000000000000e+00" cType="1" res="-3.4636387135833502e-04" rms="4.5616915822029114e-01" purity="4.3080285191535950e-01" nType="-99"/>
        </Node>
      </Node>
    </BinaryTree>
    <BinaryTree type="DecisionTree" boostWeight="1.0000000000000000e+00" itree="133">
      <Node pos="s" depth="0" NCoef="0" IVar="7" Cut="1.1422568559646606e+00" cType="1" res="1.3906484469771385e-02" rms="4.6313056349754333e-01" purity="5.0274461507797241e-01" nType="0">
        <Node pos="l" depth="1" NCoef="0" IVar="7" Cut="-9.5418667793273926e-01" cType="1" res="-4.7090500593185425e-03" rms="4.6259298920631409e-01" purity="4.6808740496635437e-01" nType="0">
          <Node pos="l" depth="2" NCoef="0" IVar="-1" Cut="0.0000000000000000e+00" cType="1" res="1.7075018258765340e-03" rms="4.7093576192855835e-01" purity="5.7112944126129150e-01" nType="-99"/>
          <Node pos="r" depth="2" NCoef="0" IVar="-1" Cut="0.0000000000000000e+00" cType="1" res="-1.8168681999668479e-03" rms="4.5480480790138245e-01" purity="4.0236356854438782e-01" nType="-99"/>
        </Node>
        <Node pos="r" depth="1" NCoef="0" IVar="2" Cut="6.3661804199218750e+01" cType="1" res="7.9511217772960663e-02" rms="4.5904079079627991e-01" purity="6.2488341331481934e-01" nType="0">
          <Node pos="l" depth="2" NCoef="0" IVar="-1" Cut="0.0000000000000000e+00" cType="1" res="8.3057762822136283e-04" rms="4.7220924496650696e-01" purity="5.2148789167404175e-01" nType="-99"/>
          <Node pos="r" depth="2" NCoef="0" IVar="-1" Cut="0.0000000000000000e+00" cType="1" res="3.9953817613422871e-03" rms="4.4965434074401855e-01" purity="6.7471992969512939e-01" nType="-99"/>
        </Node>
      </Node>
    </BinaryTree>
    <BinaryTree type="DecisionTree" boostWeight="1.0000000000000000e+00" itree="134">
      <Node pos="s" depth="0" NCoef="0" IVar="1" Cut="9.7925239801406860e-01" cType="1" res="9.9432216957211494e-03" rms="4.6173205971717834e-01" purity="5.0164747238159180e-01" nType="0">
        <Node pos="l" depth="1" NCoef="0" IVar="5" Cut="1.2328753471374512e+00" cType="1" res="-6.1579416505992413e-03" rms="4.6537980437278748e-01" purity="4.5796379446983337e-01" nType="0">
          <Node pos="l" depth="2" NCoef="0" IVar="-1" Cut="0.0000000000000000e+00" cType="1" res="1.2862014118582010e-03" rms="4.7210630774497986e-01" purity="5.1771712303161621e-01" nType="-99"/>
          <Node pos="r" depth="2" NCoef="0" IVar="-1" Cut="0.0000000000000000e+00" cType="1" res="-2.0038348156958818e-03" rms="4.5691764354705811e-01" purity="4.0420034527778625e-01" nType="-99"/>
        </Node>
        <Node pos="r" depth="1" NCoef="0" IVar="4" Cut="2.2479319572448730e+00" cType="1" res="8.0659583210945129e-02" rms="4.3841058015823364e-01" purity="6.9350612163543701e-01" nType="0">
          <Node pos="l" depth="2" NCoef="0" IVar="-1" Cut="0.0000000000000000e+00" cType="1" res="4.1332105174660683e-03" rms="4.1144570708274841e-01" purity="7.7374166250228882e-01" nType="-99"/>
          <Node pos="r" depth="2" NCoef="0" IVar="-1" Cut="0.0000000000000000e+00" cType="1" res="1.0034962324425578e-03" rms="4.7206020355224609e-01" purity="5.6743097305297852e-01" nType="-99"/>
        </Node>
      </Node>
    </BinaryTree>
    <BinaryTree type="DecisionTree" boostWeight="1.0000000000000000e+00" itree="135">
      <Node pos="s" depth="0" NCoef="0" IVar="2" Cut="5.5562149047851562e+01" cType="1" res="1.1656073853373528e-02" rms="4.6148431301116943e-01" purity="5.0155216455459595e-01" nType="0">
        <Node pos="l" depth="1" NCoef="0" IVar="7" Cut="-1.1419306993484497e+00" cType="1" res="-5.8056902140378952e-02" rms="4.5863088965415955e-01" purity="4.0367034077644348e-01" nType="0">
          <Node pos="l" depth="2" NCoef="0" IVar="-1" Cut="0.0000000000000000e+00" cType="1" res="1.0123346000909805e-03" rms="4.7394502162933350e-01" purity="5.2222734689712524e-01" nType="-99"/>
          <Node pos="r" depth="2" NCoef="0" IVar="-1" Cut="0.0000000000000000e+00" cType="1" res="-4.6080625616014004e-03" rms="4.5069935917854309e-01" purity="3.6646291613578796e-01" nType="-99"/>
        </Node>
        <Node pos="r" depth="1" NCoef="0" IVar="0" Cut="1.5867024660110474e+00" cType="1" res="3.2336026430130005e-02" rms="4.6030128002166748e-01" purity="5.3058826923370361e-01" nType="0">
          <Node pos="l" depth="2" NCoef="0" IVar="-1" Cut="0.0000000000000000e+00" cType="1" res="2.7143994811922312e-03" rms="4.6124073863029480e-01" purity="6.2069129943847656e-01" nType="-99"/>
          <Node pos="r" depth="2" NCoef="0" IVar="-1" Cut="0.0000000000000000e+00" cType="1" res="-6.2806031201034784e-04" rms="4.5524102449417114e-01" purity="4.2289581894874573e-01" nType="-99"/>
        </Node>
      </Node>
    </BinaryTree>
    <BinaryTree type="DecisionTree" boostWeight="1.0000000000000000e+00" itree="136">
      <Node pos="s" depth="0" NCoef="0" IVar="5" Cut="1.6004350185394287e+00" cType="1" res="1.3775787316262722e-02" rms="4.6246612071990967e-01" purity="5.0379866361618042e-01" nType="0">
        <Node pos="l" depth="1" NCoef="0" IVar="0" Cut="1.8907073736190796e+00" cType="1" res="2.7727084234356880e-02" rms="4.6359923481941223e-01" purity="5.2968639135360718e-01" nType="0">
          <Node pos="l" depth="2" NCoef="0" IVar="-1" Cut="0.0000000000000000e+00" cType="1" res="1.7802400980144739e-03" rms="4.6561720967292786e-01" purity="5.7326763868331909e-01" nType="-99"/>
          <Node pos="r" depth="2" NCoef="0" IVar="-1" Cut="0.0000000000000000e+00" cType="1" res="-2.1037217229604721e-03" rms="4.4989743828773499e-01" purity="3.5008943080902100e-01" nType="-99"/>
        </Node>
        <Node pos="r" depth="1" NCoef="0" IVar="2" Cut="6.8210098266601562e+01" cType="1" res="-5.8158807456493378e-02" rms="4.4976237416267395e-01" purity="3.7031835317611694e-01" nType="0">
          <Node pos="l" depth="2" NCoef="0" IVar="-1" Cut="0.0000000000000000e+00" cType="1" res="-7.6238345354795456e-03" rms="4.3619862198829651e-01" purity="2.9731768369674683e-01" nType="-99"/>
          <Node pos="r" depth="2" NCoef="0" IVar="-1" Cut="0.0000000000000000e+00" cType="1" res="-1.1866835411638021e-03" rms="4.5416906476020813e-01" purity="4.1445368528366089e-01" nType="-99"/>
        </Node>
      </Node>
    </BinaryTree>
    <BinaryTree type="DecisionTree" boostWeight="1.0000000000000000e+00" itree="137">
      <Node pos="s" depth="0" NCoef="0" IVar="7" Cut="-1.2851752042770386e+00" cType="1" res="3.6904481239616871e-03" rms="4.6019199490547180e-01" purity="4.9464738368988037e-01" nType="0">
        <Node pos="l" depth="1" NCoef="0" IVar="6" Cut="4.5469091796875000e+02" cType="1" res="7.9836972057819366e-02" rms="4.6443960070610046e-01" purity="6.2449789047241211e-01" nType="0">
          <Node pos="l" depth="2" NCoef="0" IVar="-1" Cut="0.0000000000000000e+00" cType="1" res="1.5560798346996307e-03" rms="4.8102805018424988e-01" purity="5.3260076045989990e-01" nType="-99"/>
          <Node pos="r" depth="2" NCoef="0" IVar="-1" Cut="0.0000000000000000e+00" cType="1" res="3.8983428385108709e-03" rms="4.5161506533622742e-01" purity="6.8153083324432373e-01" nType="-99"/>
        </Node>
        <Node pos="r" depth="1" NCoef="0" IVar="7" Cut="9.2174398899078369e-01" cType="1" res="-9.5528922975063324e-03" rms="4.5815914869308472e-01" purity="4.7206392884254456e-01" nType="0">
          <Node pos="l" depth="2" NCoef="0" IVar="-1" Cut="0.0000000000000000e+00" cType="1" res="-2.1106330677866936e-03" rms="4.5227643847465515e-01" purity="4.0978914499282837e-01" nType="-99"/>
          <Node pos="r" depth="2" NCoef="0" IVar="-1" Cut="0.0000000000000000e+00" cType="1" res="1.7326154047623277e-03" rms="4.6334055066108704e-01" purity="5.7572412490844727e-01" nType="-99"/>
        </Node>
      </Node>
    </BinaryTree>
    <BinaryTree type="DecisionTree" boostWeight="1.0000000000000000e+00" itree="138">
      <Node pos="s" depth="0" NCoef="0" IVar="7" Cut="1.2851933240890503e+00" cType="1" res="1.3233352452516556e-02" rms="4.6247598528862000e-01" purity="5.0422888994216919e-01" nType="0">
        <Node pos="l" depth="1" NCoef="0" IVar="7" Cut="-9.2170935869216919e-01" cType="1" res="8.5165438940748572e-04" rms="4.6323576569557190e-01" purity="4.8018708825111389e-01" nType="0">
          <Node pos="l" depth="2" NCoef="0" IVar="-1" Cut="0.0000000000000000e+00" cType="1" res="2.0137073006480932e-03" rms="4.6910995244979858e-01" purity="5.7804775238037109e-01" nType="-99"/>
          <Node pos="r" depth="2" NCoef="0" IVar="-1" Cut="0.0000000000000000e+00" cType="1" res="-1.4365623937919736e-03" rms="4.5732730627059937e-01" purity="4.2193859815597534e-01" nType="-99"/>
        </Node>
        <Node pos="r" depth="1" NCoef="0" IVar="6" Cut="4.4464404296875000e+02" cType="1" res="8.1529043614864349e-02" rms="4.5221090316772461e-01" purity="6.3683980703353882e-01" nType="0">
          <Node pos="l" depth="2" NCoef="0" IVar="-1" Cut="0.0000000000000000e+00" cType="1" res="7.8159110853448510e-04" rms="4.6237242221832275e-01" purity="5.2963018417358398e-01" nType="-99"/>
          <Node pos="r" depth="2" NCoef="0" IVar="-1" Cut="0.0000000000000000e+00" cType="1" res="4.2291101999580860e-03" rms="4.4262447953224182e-01" purity="6.9585818052291870e-01" nType="-99"/>
        </Node>
      </Node>
    </BinaryTree>
    <BinaryTree type="DecisionTree" boostWeight="1.0000000000000000e+00" itree="139">
      <Node pos="s" depth="0" NCoef="0" IVar="2" Cut="5.5562149047851562e+01" cType="1" res="6.8784370087087154e-03" rms="4.6201005578041077e-01" purity="4.9727019667625427e-01" nType="0">
        <Node pos="l" depth="1" NCoef="0" IVar="2" Cut="3.5202339172363281e+01" cType="1" res="-5.2152410149574280e-02" rms="4.6130511164665222e-01" purity="4.0631750226020813e-01" nType="0">
          <Node pos="l" depth="2" NCoef="0" IVar="-1" Cut="0.0000000000000000e+00" cType="1" res="-6.9562224671244621e-03" rms="4.4037553668022156e-01" purity="3.1328773498535156e-01" nType="-99"/>
          <Node pos="r" depth="2" NCoef="0" IVar="-1" Cut="0.0000000000000000e+00" cType="1" res="-1.1835914338007569e-03" rms="4.6722823381423950e-01" purity="4.4603013992309570e-01" nType="-99"/>
        </Node>
        <Node pos="r" depth="1" NCoef="0" IVar="0" Cut="1.2876889705657959e+00" cType="1" res="2.5057794526219368e-02" rms="4.6070611476898193e-01" purity="5.2528029680252075e-01" nType="0">
          <Node pos="l" depth="2" NCoef="0" IVar="-1" Cut="0.0000000000000000e+00" cType="1" res="3.4167412668466568e-03" rms="4.5333957672119141e-01" purity="6.5408855676651001e-01" nType="-99"/>
          <Node pos="r" depth="2" NCoef="0" IVar="-1" Cut="0.0000000000000000e+00" cType="1" res="-5.4405356058850884e-04" rms="4.6074798703193665e-01" purity="4.5473808050155640e-01" nType="-99"/>
        </Node>
      </Node>
    </BinaryTree>
    <BinaryTree type="DecisionTree" boostWeight="1.0000000000000000e+00" itree="140">
      <Node pos="s" depth="0" NCoef="0" IVar="5" Cut="1.5197603702545166e+00" cType="1" res="9.1638527810573578e-03" rms="4.6106648445129395e-01" purity="5.0001889467239380e-01" nType="0">
        <Node pos="l" depth="1" NCoef="0" IVar="6" Cut="4.8029345703125000e+02" cType="1" res="2.6025535538792610e-02" rms="4.6320673823356628e-01" purity="5.3257232904434204e-01" nType="0">
          <Node pos="l" depth="2" NCoef="0" IVar="-1" Cut="0.0000000000000000e+00" cType="1" res="-1.9428944506216794e-04" rms="4.6484270691871643e-01" purity="4.6375030279159546e-01" nType="-99"/>
          <Node pos="r" depth="2" NCoef="0" IVar="-1" Cut="0.0000000000000000e+00" cType="1" res="2.3393451701849699e-03" rms="4.5916634798049927e-01" purity="6.0789716243743896e-01" nType="-99"/>
        </Node>
        <Node pos="r" depth="1" NCoef="0" IVar="8" Cut="2.7064547729492188e+02" cType="1" res="-4.9651730805635452e-02" rms="4.4858807325363159e-01" purity="3.8646861910820007e-01" nType="0">
          <Node pos="l" depth="2" NCoef="0" IVar="-1" Cut="0.0000000000000000e+00" cType="1" res="-8.8112259982153773e-04" rms="4.5670807361602783e-01" purity="4.4346022605895996e-01" nType="-99"/>
          <Node pos="r" depth="2" NCoef="0" IVar="-1" Cut="0.0000000000000000e+00" cType="1" res="-5.9435633011162281e-03" rms="4.3359106779098511e-01" purity="3.0927982926368713e-01" nType="-99"/>
        </Node>
      </Node>
    </BinaryTree>
    <BinaryTree type="DecisionTree" boostWeight="1.0000000000000000e+00" itree="141">
      <Node pos="s" depth="0" NCoef="0" IVar="2" Cut="6.3319942474365234e+01" cType="1" res="5.9798583388328552e-03" rms="4.6217328310012817e-01" purity="4.9547943472862244e-01" nType="0">
        <Node pos="l" depth="1" NCoef="0" IVar="2" Cut="3.9522968292236328e+01" cType="1" res="-4.3369185179471970e-02" rms="4.6712061762809753e-01" purity="4.2035725712776184e-01" nType="0">
          <Node pos="l" depth="2" NCoef="0" IVar="-1" Cut="0.0000000000000000e+00" cType="1" res="-6.3375630415976048e-03" rms="4.4259676337242126e-01" purity="3.2432115077972412e-01" nType="-99"/>
          <Node pos="r" depth="2" NCoef="0" IVar="-1" Cut="0.0000000000000000e+00" cType="1" res="-5.8752886252477765e-04" rms="4.7572660446166992e-01" purity="4.6781992912292480e-01" nType="-99"/>
        </Node>
        <Node pos="r" depth="1" NCoef="0" IVar="0" Cut="1.4453322887420654e+00" cType="1" res="2.6961823925375938e-02" rms="4.5844703912734985e-01" purity="5.2741950750350952e-01" nType="0">
          <Node pos="l" depth="2" NCoef="0" IVar="-1" Cut="0.0000000000000000e+00" cType="1" res="2.8942888602614403e-03" rms="4.5305654406547546e-01" purity="6.4557564258575439e-01" nType="-99"/>
          <Node pos="r" depth="2" NCoef="0" IVar="-1" Cut="0.0000000000000000e+00" cType="1" res="-4.1746473289094865e-04" rms="4.5906370878219604e-01" purity="4.4265297055244446e-01" nType="-99"/>
        </Node>
      </Node>
    </BinaryTree>
    <BinaryTree type="DecisionTree" boostWeight="1.0000000000000000e+00" itree="142">
      <Node pos="s" depth="0" NCoef="0" IVar="3" Cut="1.4146928405761719e+02" cType="1" res="4.3299375101923943e-03" rms="4.6190780401229858e-01" purity="4.9398583173751831e-01" nType="0">
        <Node pos="l" depth="1" NCoef="0" IVar="3" Cut="1.0415175628662109e+02" cType="1" res="1.2466440908610821e-02" rms="4.6282151341438293e-01" purity="5.0785028934478760e-01" nType="0">
          <Node pos="l" depth="2" NCoef="0" IVar="-1" Cut="0.0000000000000000e+00" cType="1" res="-4.9480306915938854e-03" rms="4.4834655523300171e-01" purity="3.6146068572998047e-01" nType="-99"/>
          <Node pos="r" depth="2" NCoef="0" IVar="-1" Cut="0.0000000000000000e+00" cType="1" res="9.8192587029188871e-04" rms="4.6312671899795532e-01" purity="5.2231258153915405e-01" nType="-99"/>
        </Node>
        <Node pos="r" depth="1" NCoef="0" IVar="-1" Cut="0.0000000000000000e+00" cType="1" res="-6.8444088101387024e-03" rms="4.3489396572113037e-01" purity="3.0753383040428162e-01" nType="-99"/>
      </Node>
    </BinaryTree>
    <BinaryTree type="DecisionTree" boostWeight="1.0000000000000000e+00" itree="143">
      <Node pos="s" depth="0" NCoef="0" IVar="4" Cut="2.2053375244140625e+00" cType="1" res="8.6970021948218346e-03" rms="4.5974776148796082e-01" purity="5.0071293115615845e-01" nType="0">
        <Node pos="l" depth="1" NCoef="0" IVar="2" Cut="9.1050697326660156e+01" cType="1" res="4.0298264473676682e-02" rms="4.6443057060241699e-01" purity="6.0215818881988525e-01" nType="0">
          <Node pos="l" depth="2" NCoef="0" IVar="-1" Cut="0.0000000000000000e+00" cType="1" res="4.0821864968165755e-04" rms="4.7393462061882019e-01" purity="5.4413688182830811e-01" nType="-99"/>
          <Node pos="r" depth="2" NCoef="0" IVar="-1" Cut="0.0000000000000000e+00" cType="1" res="3.2794706057757139e-03" rms="4.4445493817329407e-01" purity="6.9484603404998779e-01" nType="-99"/>
        </Node>
        <Node pos="r" depth="1" NCoef="0" IVar="1" Cut="9.3268430233001709e-01" cType="1" res="-2.0928876474499702e-02" rms="4.5331761240959167e-01" purity="4.0560907125473022e-01" nType="0">
          <Node pos="l" depth="2" NCoef="0" IVar="-1" Cut="0.0000000000000000e+00" cType="1" res="-5.7251872494816780e-03" rms="4.1072386503219604e-01" purity="2.4490801990032196e-01" nType="-99"/>
          <Node pos="r" depth="2" NCoef="0" IVar="-1" Cut="0.0000000000000000e+00" cType="1" res="-2.0492040493991226e-04" rms="4.6360018849372864e-01" purity="4.5225208997726440e-01" nType="-99"/>
        </Node>
      </Node>
    </BinaryTree>
    <BinaryTree type="DecisionTree" boostWeight="1.0000000000000000e+00" itree="144">
      <Node pos="s" depth="0" NCoef="0" IVar="5" Cut="1.3365018367767334e+00" cType="1" res="8.5768727585673332e-03" rms="4.6269708871841431e-01" purity="4.9763551354408264e-01" nType="0">
        <Node pos="l" depth="1" NCoef="0" IVar="1" Cut="9.3924093246459961e-01" cType="1" res="3.2003287225961685e-02" rms="4.6496656537055969e-01" purity="5.4509103298187256e-01" nType="0">
          <Node pos="l" depth="2" NCoef="0" IVar="-1" Cut="0.0000000000000000e+00" cType="1" res="-9.5543049974367023e-04" rms="4.6290063858032227e-01" purity="3.9414349198341370e-01" nType="-99"/>
          <Node pos="r" depth="2" NCoef="0" IVar="-1" Cut="0.0000000000000000e+00" cType="1" res="2.0502808038145304e-03" rms="4.6438670158386230e-01" purity="5.9890294075012207e-01" nType="-99"/>
        </Node>
        <Node pos="r" depth="1" NCoef="0" IVar="8" Cut="2.7133325195312500e+02" cType="1" res="-2.7007348835468292e-02" rms="4.5693629980087280e-01" purity="4.2555162310600281e-01" nType="0">
          <Node pos="l" depth="2" NCoef="0" IVar="-1" Cut="0.0000000000000000e+00" cType="1" res="-7.7493619755841792e-05" rms="4.6118664741516113e-01" purity="4.7267550230026245e-01" nType="-99"/>
          <Node pos="r" depth="2" NCoef="0" IVar="-1" Cut="0.0000000000000000e+00" cType="1" res="-3.9835232309997082e-03" rms="4.4742861390113831e-01" purity="3.5251629352569580e-01" nType="-99"/>
        </Node>
      </Node>
    </BinaryTree>
    <BinaryTree type="DecisionTree" boostWeight="1.0000000000000000e+00" itree="145">
      <Node pos="s" depth="0" NCoef="0" IVar="7" Cut="1.1423897743225098e+00" cType="1" res="1.1558053083717823e-02" rms="4.6104848384857178e-01" purity="5.0244611501693726e-01" nType="0">
        <Node pos="l" depth="1" NCoef="0" IVar="7" Cut="-1.0774204730987549e+00" cType="1" res="-4.8329737037420273e-03" rms="4.6047452092170715e-01" purity="4.6765115857124329e-01" nType="0">
          <Node pos="l" depth="2" NCoef="0" IVar="-1" Cut="0.0000000000000000e+00" cType="1" res="2.1807136945426464e-03" rms="4.6493566036224365e-01" purity="5.9784495830535889e-01" nType="-99"/>
          <Node pos="r" depth="2" NCoef="0" IVar="-1" Cut="0.0000000000000000e+00" cType="1" res="-1.7254777485504746e-03" rms="4.5575901865959167e-01" purity="4.0670442581176758e-01" nType="-99"/>
        </Node>
        <Node pos="r" depth="1" NCoef="0" IVar="1" Cut="9.4007647037506104e-01" cType="1" res="6.8956822156906128e-02" rms="4.5845654606819153e-01" purity="6.2429243326187134e-01" nType="0">
          <Node pos="l" depth="2" NCoef="0" IVar="-1" Cut="0.0000000000000000e+00" cType="1" res="5.7116668904200196e-04" rms="4.8233479261398315e-01" purity="4.7290042042732239e-01" nType="-99"/>
          <Node pos="r" depth="2" NCoef="0" IVar="-1" Cut="0.0000000000000000e+00" cType="1" res="3.3380726817995310e-03" rms="4.4821920990943909e-01" purity="6.7677217721939087e-01" nType="-99"/>
        </Node>
      </Node>
    </BinaryTree>
    <BinaryTree type="DecisionTree" boostWeight="1.0000000000000000e+00" itree="146">
      <Node pos="s" depth="0" NCoef="0" IVar="4" Cut="2.7726175785064697e+00" cType="1" res="5.6813019327819347e-03" rms="4.6098548173904419e-01" purity="4.9580386281013489e-01" nType="0">
        <Node pos="l" depth="1" NCoef="0" IVar="3" Cut="1.3318612670898438e+02" cType="1" res="1.3369691558182240e-02" rms="4.6604645252227783e-01" purity="5.1851373910903931e-01" nType="0">
          <Node pos="l" depth="2" NCoef="0" IVar="-1" Cut="0.0000000000000000e+00" cType="1" res="1.1382985394448042e-03" rms="4.6584248542785645e-01" purity="5.3717404603958130e-01" nType="-99"/>
          <Node pos="r" depth="2" NCoef="0" IVar="-1" Cut="0.0000000000000000e+00" cType="1" res="-2.7301083318889141e-03" rms="4.6150085330009460e-01" purity="4.2103520035743713e-01" nType="-99"/>
        </Node>
        <Node pos="r" depth="1" NCoef="0" IVar="-1" Cut="0.0000000000000000e+00" cType="1" res="-1.0068655014038086e-02" rms="3.6667340993881226e-01" purity="1.7800231277942657e-01" nType="-99"/>
      </Node>
    </BinaryTree>
    <BinaryTree type="DecisionTree" boostWeight="1.0000000000000000e+00" itree="147">
      <Node pos="s" depth="0" NCoef="0" IVar="1" Cut="9.7922986745834351e-01" cType="1" res="1.0914335958659649e-02" rms="4.5983934402465820e-01" purity="5.0210046768188477e-01" nType="0">
        <Node pos="l" depth="1" NCoef="0" IVar="7" Cut="9.9959301948547363e-01" cType="1" res="-5.6472443975508213e-03" rms="4.6323052048683167e-01" purity="4.5687770843505859e-01" nType="0">
          <Node pos="l" depth="2" NCoef="0" IVar="-1" Cut="0.0000000000000000e+00" cType="1" res="-1.1943973368033767e-03" rms="4.5919719338417053e-01" purity="4.1772037744522095e-01" nType="-99"/>
          <Node pos="r" depth="2" NCoef="0" IVar="-1" Cut="0.0000000000000000e+00" cType="1" res="1.6207327134907246e-03" rms="4.7058725357055664e-01" purity="5.5827885866165161e-01" nType="-99"/>
        </Node>
        <Node pos="r" depth="1" NCoef="0" IVar="4" Cut="2.2902319431304932e+00" cType="1" res="8.1912554800510406e-02" rms="4.3796837329864502e-01" purity="6.9596707820892334e-01" nType="0">
          <Node pos="l" depth="2" NCoef="0" IVar="-1" Cut="0.0000000000000000e+00" cType="1" res="3.8414180744439363e-03" rms="4.1276311874389648e-01" purity="7.6909685134887695e-01" nType="-99"/>
          <Node pos="r" depth="2" NCoef="0" IVar="-1" Cut="0.0000000000000000e+00" cType="1" res="1.4807792613282800e-03" rms="4.7636726498603821e-01" purity="5.6441438198089600e-01" nType="-99"/>
        </Node>
      </Node>
    </BinaryTree>
    <BinaryTree type="DecisionTree" boostWeight="1.0000000000000000e+00" itree="148">
      <Node pos="s" depth="0" NCoef="0" IVar="1" Cut="9.2052567005157471e-01" cType="1" res="3.7164473906159401e-03" rms="4.6171614527702332e-01" purity="4.9291917681694031e-01" nType="0">
        <Node pos="l" depth="1" NCoef="0" IVar="5" Cut="1.2477037906646729e+00" cType="1" res="-7.5897753238677979e-02" rms="4.3170788884162903e-01" purity="2.9783567786216736e-01" nType="0">
          <Node pos="l" depth="2" NCoef="0" IVar="-1" Cut="0.0000000000000000e+00" cType="1" res="-1.9254933577030897e-03" rms="4.5966026186943054e-01" purity="3.6569225788116455e-01" nType="-99"/>
          <Node pos="r" depth="2" NCoef="0" IVar="-1" Cut="0.0000000000000000e+00" cType="1" res="-7.8143561258912086e-03" rms="4.0473252534866333e-01" purity="2.4285477399826050e-01" nType="-99"/>
        </Node>
        <Node pos="r" depth="1" NCoef="0" IVar="3" Cut="1.0636575317382812e+02" cType="1" res="1.4441725797951221e-02" rms="4.6456927061080933e-01" purity="5.1919996738433838e-01" nType="0">
          <Node pos="l" depth="2" NCoef="0" IVar="-1" Cut="0.0000000000000000e+00" cType="1" res="-4.2369510047137737e-03" rms="4.5009946823120117e-01" purity="3.9309531450271606e-01" nType="-99"/>
          <Node pos="r" depth="2" NCoef="0" IVar="-1" Cut="0.0000000000000000e+00" cType="1" res="1.0686294408515096e-03" rms="4.6501490473747253e-01" purity="5.3236895799636841e-01" nType="-99"/>
        </Node>
      </Node>
    </BinaryTree>
    <BinaryTree type="DecisionTree" boostWeight="1.0000000000000000e+00" itree="149">
      <Node pos="s" depth="0" NCoef="0" IVar="4" Cut="2.2053375244140625e+00" cType="1" res="5.5824415758252144e-03" rms="4.6014794707298279e-01" purity="4.9553653597831726e-01" nType="0">
        <Node pos="l" depth="1" NCoef="0" IVar="2" Cut="5.1097782135009766e+01" cType="1" res="3.5389274358749390e-02" rms="4.6465054154396057e-01" purity="5.9838342666625977e-01" nType="0">
          <Node pos="l" depth="2" NCoef="0" IVar="-1" Cut="0.0000000000000000e+00" cType="1" res="-1.0610129684209824e-03" rms="4.7740638256072998e-01" purity="4.5825177431106567e-01" nType="-99"/>
          <Node pos="r" depth="2" NCoef="0" IVar="-1" Cut="0.0000000000000000e+00" cType="1" res="2.1391047630459070e-03" rms="4.5845171809196472e-01" purity="6.4692139625549316e-01" nType="-99"/>
        </Node>
        <Node pos="r" depth="1" NCoef="0" IVar="6" Cut="4.2678033447265625e+02" cType="1" res="-2.1918959915637970e-02" rms="4.5422258973121643e-01" purity="4.0064445137977600e-01" nType="0">
          <Node pos="l" depth="2" NCoef="0" IVar="-1" Cut="0.0000000000000000e+00" cType="1" res="-4.1322116740047932e-03" rms="4.3271422386169434e-01" purity="3.0308729410171509e-01" nType="-99"/>
          <Node pos="r" depth="2" NCoef="0" IVar="-1" Cut="0.0000000000000000e+00" cType="1" res="5.6580502132419497e-05" rms="4.6505090594291687e-01" purity="4.5884639024734497e-01" nType="-99"/>
        </Node>
      </Node>
    </BinaryTree>
    <BinaryTree type="DecisionTree" boostWeight="1.0000000000000000e+00" itree="150">
      <Node pos="s" depth="0" NCoef="0" IVar="5" Cut="1.6207978725433350e+00" cType="1" res="1.0859055444598198e-02" rms="4.6134606003761292e-01" purity="5.0075215101242065e-01" nType="0">
        <Node pos="l" depth="1" NCoef="0" IVar="6" Cut="5.0711431884765625e+02" cType="1" res="2.3542165756225586e-02" rms="4.6291291713714600e-01" purity="5.2434074878692627e-01" nType="0">
          <Node pos="l" depth="2" NCoef="0" IVar="-1" Cut="0.0000000000000000e+00" cType="1" res="-5.3558022045763209e-05" rms="4.6382141113281250e-01" purity="4.6526816487312317e-01" nType="-99"/>
          <Node pos="r" depth="2" NCoef="0" IVar="-1" Cut="0.0000000000000000e+00" cType="1" res="2.2798446007072926e-03" rms="4.5958203077316284e-01" purity="6.0428923368453979e-01" nType="-99"/>
        </Node>
        <Node pos="r" depth="1" NCoef="0" IVar="8" Cut="2.6617150878906250e+02" cType="1" res="-6.1351314187049866e-02" rms="4.4549390673637390e-01" purity="3.6645191907882690e-01" nType="0">
          <Node pos="l" depth="2" NCoef="0" IVar="-1" Cut="0.0000000000000000e+00" cType="1" res="-1.2006808537989855e-03" rms="4.5781508088111877e-01" purity="4.3192407488822937e-01" nType="-99"/>
          <Node pos="r" depth="2" NCoef="0" IVar="-1" Cut="0.0000000000000000e+00" cType="1" res="-7.2613121010363102e-03" rms="4.2554450035095215e-01" purity="2.8678309917449951e-01" nType="-99"/>
        </Node>
      </Node>
    </BinaryTree>
    <BinaryTree type="DecisionTree" boostWeight="1.0000000000000000e+00" itree="151">
      <Node pos="s" depth="0" NCoef="0" IVar="2" Cut="5.8349678039550781e+01" cType="1" res="4.5963991433382034e-03" rms="4.6085664629936218e-01" purity="4.9454841017723083e-01" nType="0">
        <Node pos="l" depth="1" NCoef="0" IVar="2" Cut="3.5090278625488281e+01" cType="1" res="-5.4177500307559967e-02" rms="4.6318641304969788e-01" purity="4.0344440937042236e-01" nType="0">
          <Node pos="l" depth="2" NCoef="0" IVar="-1" Cut="0.0000000000000000e+00" cType="1" res="-8.1823710352182388e-03" rms="4.3987095355987549e-01" purity="2.9629340767860413e-01" nType="-99"/>
          <Node pos="r" depth="2" NCoef="0" IVar="-1" Cut="0.0000000000000000e+00" cType="1" res="-1.4306749217212200e-03" rms="4.6858066320419312e-01" purity="4.4141757488250732e-01" nType="-99"/>
        </Node>
        <Node pos="r" depth="1" NCoef="0" IVar="0" Cut="1.5867024660110474e+00" cType="1" res="2.4839395657181740e-02" rms="4.5830976963043213e-01" purity="5.2592658996582031e-01" nType="0">
          <Node pos="l" depth="2" NCoef="0" IVar="-1" Cut="0.0000000000000000e+00" cType="1" res="2.5711900088936090e-03" rms="4.5925840735435486e-01" purity="6.2423849105834961e-01" nType="-99"/>
          <Node pos="r" depth="2" NCoef="0" IVar="-1" Cut="0.0000000000000000e+00" cType="1" res="-1.2878774432465434e-03" rms="4.5241087675094604e-01" purity="4.0795192122459412e-01" nType="-99"/>
        </Node>
      </Node>
    </BinaryTree>
    <BinaryTree type="DecisionTree" boostWeight="1.0000000000000000e+00" itree="152">
      <Node pos="s" depth="0" NCoef="0" IVar="6" Cut="4.8863708496093750e+02" cType="1" res="1.3799111358821392e-02" rms="4.6122297644615173e-01" purity="5.0420928001403809e-01" nType="0">
        <Node pos="l" depth="1" NCoef="0" IVar="5" Cut="1.2805413007736206e+00" cType="1" res="-1.4811495319008827e-02" rms="4.5926466584205627e-01" purity="4.3704828619956970e-01" nType="0">
          <Node pos="l" depth="2" NCoef="0" IVar="-1" Cut="0.0000000000000000e+00" cType="1" res="6.5366277704015374e-04" rms="4.7064748406410217e-01" purity="4.9827489256858826e-01" nType="-99"/>
          <Node pos="r" depth="2" NCoef="0" IVar="-1" Cut="0.0000000000000000e+00" cType="1" res="-3.1250449828803539e-03" rms="4.4119864702224731e-01" purity="3.5732281208038330e-01" nType="-99"/>
        </Node>
        <Node pos="r" depth="1" NCoef="0" IVar="8" Cut="2.8556405639648438e+02" cType="1" res="4.4044863432645798e-02" rms="4.6135902404785156e-01" purity="5.7520860433578491e-01" nType="0">
          <Node pos="l" depth="2" NCoef="0" IVar="-1" Cut="0.0000000000000000e+00" cType="1" res="3.1961789354681969e-03" rms="4.5229423046112061e-01" purity="6.5247535705566406e-01" nType="-99"/>
          <Node pos="r" depth="2" NCoef="0" IVar="-1" Cut="0.0000000000000000e+00" cType="1" res="-3.8285722257569432e-04" rms="4.6730288863182068e-01" purity="4.7840669751167297e-01" nType="-99"/>
        </Node>
      </Node>
    </BinaryTree>
    <BinaryTree type="DecisionTree" boostWeight="1.0000000000000000e+00" itree="153">
      <Node pos="s" depth="0" NCoef="0" IVar="3" Cut="1.4461666870117188e+02" cType="1" res="6.4179622568190098e-03" rms="4.6079832315444946e-01" purity="4.9729910492897034e-01" nType="0">
        <Node pos="l" depth="1" NCoef="0" IVar="1" Cut="9.7282874584197998e-01" cType="1" res="1.3119592331349850e-02" rms="4.6168199181556702e-01" purity="5.0867956876754761e-01" nType="0">
          <Node pos="l" depth="2" NCoef="0" IVar="-1" Cut="0.0000000000000000e+00" cType="1" res="-1.8572165572550148e-04" rms="4.6529638767242432e-01" purity="4.5146209001541138e-01" nType="-99"/>
          <Node pos="r" depth="2" NCoef="0" IVar="-1" Cut="0.0000000000000000e+00" cType="1" res="2.3904060944914818e-03" rms="4.4760510325431824e-01" purity="6.7291116714477539e-01" nType="-99"/>
        </Node>
        <Node pos="r" depth="1" NCoef="0" IVar="-1" Cut="0.0000000000000000e+00" cType="1" res="-8.2401586696505547e-03" rms="4.2431971430778503e-01" purity="2.8225541114807129e-01" nType="-99"/>
      </Node>
    </BinaryTree>
    <BinaryTree type="DecisionTree" boostWeight="1.0000000000000000e+00" itree="154">
      <Node pos="s" depth="0" NCoef="0" IVar="2" Cut="5.1460388183593750e+01" cType="1" res="1.5677025541663170e-02" rms="4.6085938811302185e-01" purity="5.0694173574447632e-01" nType="0">
        <Node pos="l" depth="1" NCoef="0" IVar="7" Cut="-1.1417571306228638e+00" cType="1" res="-4.5987166464328766e-02" rms="4.6181938052177429e-01" purity="4.0474820137023926e-01" nType="0">
          <Node pos="l" depth="2" NCoef="0" IVar="-1" Cut="0.0000000000000000e+00" cType="1" res="8.5922109428793192e-04" rms="4.8389980196952820e-01" purity="5.0738668441772461e-01" nType="-99"/>
          <Node pos="r" depth="2" NCoef="0" IVar="-1" Cut="0.0000000000000000e+00" cType="1" res="-3.7145237438380718e-03" rms="4.5201534032821655e-01" purity="3.7015661597251892e-01" nType="-99"/>
        </Node>
        <Node pos="r" depth="1" NCoef="0" IVar="0" Cut="1.4460955858230591e+00" cType="1" res="3.1425926834344864e-02" rms="4.5928856730461121e-01" purity="5.3304177522659302e-01" nType="0">
          <Node pos="l" depth="2" NCoef="0" IVar="-1" Cut="0.0000000000000000e+00" cType="1" res="2.7694741729646921e-03" rms="4.5685693621635437e-01" purity="6.3078504800796509e-01" nType="-99"/>
          <Node pos="r" depth="2" NCoef="0" IVar="-1" Cut="0.0000000000000000e+00" cType="1" res="-1.6601271636318415e-04" rms="4.5865142345428467e-01" purity="4.4636815786361694e-01" nType="-99"/>
        </Node>
      </Node>
    </BinaryTree>
    <BinaryTree type="DecisionTree" boostWeight="1.0000000000000000e+00" itree="155">
      <Node pos="s" depth="0" NCoef="0" IVar="0" Cut="2.0376431941986084e+00" cType="1" res="1.2516212649643421e-02" rms="4.5970919728279114e-01" purity="5.0323832035064697e-01" nType="0">
        <Node pos="l" depth="1" NCoef="0" IVar="6" Cut="3.2809652709960938e+02" cType="1" res="2.5008011609315872e-02" rms="4.6448951959609985e-01" purity="5.3909558057785034e-01" nType="0">
          <Node pos="l" depth="2" NCoef="0" IVar="-1" Cut="0.0000000000000000e+00" cType="1" res="-3.7973572034388781e-03" rms="4.4309318065643311e-01" purity="3.3379399776458740e-01" nType="-99"/>
          <Node pos="r" depth="2" NCoef="0" IVar="-1" Cut="0.0000000000000000e+00" cType="1" res="1.6199311939999461e-03" rms="4.6637588739395142e-01" purity="5.7252001762390137e-01" nType="-99"/>
        </Node>
        <Node pos="r" depth="1" NCoef="0" IVar="0" Cut="2.4109399318695068e+00" cType="1" res="-6.4323648810386658e-02" rms="4.2106086015701294e-01" purity="2.8267255425453186e-01" nType="0">
          <Node pos="l" depth="2" NCoef="0" IVar="-1" Cut="0.0000000000000000e+00" cType="1" res="-1.7287577502429485e-03" rms="4.5064386725425720e-01" purity="3.4361681342124939e-01" nType="-99"/>
          <Node pos="r" depth="2" NCoef="0" IVar="-1" Cut="0.0000000000000000e+00" cType="1" res="-1.2589853256940842e-02" rms="3.5336697101593018e-01" purity="1.7457562685012817e-01" nType="-99"/>
        </Node>
      </Node>
    </BinaryTree>
    <BinaryTree type="DecisionTree" boostWeight="1.0000000000000000e+00" itree="156">
      <Node pos="s" depth="0" NCoef="0" IVar="4" Cut="2.2005615234375000e+00" cType="1" res="1.3954360038042068e-02" rms="4.5952171087265015e-01" purity="5.0632125139236450e-01" nType="0">
        <Node pos="l" depth="1" NCoef="0" IVar="2" Cut="9.1228019714355469e+01" cType="1" res="4.3017845600843430e-02" rms="4.6232512593269348e-01" purity="6.0927826166152954e-01" nType="0">
          <Node pos="l" depth="2" NCoef="0" IVar="-1" Cut="0.0000000000000000e+00" cType="1" res="5.9188978048041463e-04" rms="4.7338935732841492e-01" purity="5.5128222703933716e-01" nType="-99"/>
          <Node pos="r" depth="2" NCoef="0" IVar="-1" Cut="0.0000000000000000e+00" cType="1" res="3.2545062713325024e-03" rms="4.4080269336700439e-01" purity="6.9937044382095337e-01" nType="-99"/>
        </Node>
        <Node pos="r" depth="1" NCoef="0" IVar="7" Cut="9.9914711713790894e-01" cType="1" res="-1.2253978289663792e-02" rms="4.5539122819900513e-01" purity="4.1347858309745789e-01" nType="0">
          <Node pos="l" depth="2" NCoef="0" IVar="-1" Cut="0.0000000000000000e+00" cType="1" res="-1.7998521216213703e-03" rms="4.4871938228607178e-01" purity="3.7571355700492859e-01" nType="-99"/>
          <Node pos="r" depth="2" NCoef="0" IVar="-1" Cut="0.0000000000000000e+00" cType="1" res="2.3000093642622232e-03" rms="4.7159975767135620e-01" purity="5.4267662763595581e-01" nType="-99"/>
        </Node>
      </Node>
    </BinaryTree>
    <BinaryTree type="DecisionTree" boostWeight="1.0000000000000000e+00" itree="157">
      <Node pos="s" depth="0" NCoef="0" IVar="7" Cut="1.1423803567886353e+00" cType="1" res="4.9338005483150482e-03" rms="4.6112236380577087e-01" purity="4.9587610363960266e-01" nType="0">
        <Node pos="l" depth="1" NCoef="0" IVar="7" Cut="-1.0774787664413452e+00" cType="1" res="-1.2689411640167236e-02" rms="4.6002858877182007e-01" purity="4.5916554331779480e-01" nType="0">
          <Node pos="l" depth="2" NCoef="0" IVar="-1" Cut="0.0000000000000000e+00" cType="1" res="1.6112973680719733e-03" rms="4.6750903129577637e-01" purity="5.8322870731353760e-01" nType="-99"/>
          <Node pos="r" depth="2" NCoef="0" IVar="-1" Cut="0.0000000000000000e+00" cType="1" res="-2.0044629927724600e-03" rms="4.5447239279747009e-01" purity="4.0120044350624084e-01" nType="-99"/>
        </Node>
        <Node pos="r" depth="1" NCoef="0" IVar="2" Cut="8.4981346130371094e+01" cType="1" res="6.6064216196537018e-02" rms="4.5968952775001526e-01" purity="6.2321567535400391e-01" nType="0">
          <Node pos="l" depth="2" NCoef="0" IVar="-1" Cut="0.0000000000000000e+00" cType="1" res="1.4268240192905068e-03" rms="4.7099578380584717e-01" purity="5.6400549411773682e-01" nType="-99"/>
          <Node pos="r" depth="2" NCoef="0" IVar="-1" Cut="0.0000000000000000e+00" cType="1" res="3.6868706811219454e-03" rms="4.4589573144912720e-01" purity="6.8224847316741943e-01" nType="-99"/>
        </Node>
      </Node>
    </BinaryTree>
    <BinaryTree type="DecisionTree" boostWeight="1.0000000000000000e+00" itree="158">
      <Node pos="s" depth="0" NCoef="0" IVar="3" Cut="1.3955740356445312e+02" cType="1" res="1.0189888998866081e-02" rms="4.6071395277976990e-01" purity="5.0036239624023438e-01" nType="0">
        <Node pos="l" depth="1" NCoef="0" IVar="3" Cut="1.0095369720458984e+02" cType="1" res="2.0740725100040436e-02" rms="4.6204233169555664e-01" purity="5.1793861389160156e-01" nType="0">
          <Node pos="l" depth="2" NCoef="0" IVar="-1" Cut="0.0000000000000000e+00" cType="1" res="-5.9227114543318748e-03" rms="4.4301646947860718e-01" purity="3.3408814668655396e-01" nType="-99"/>
          <Node pos="r" depth="2" NCoef="0" IVar="-1" Cut="0.0000000000000000e+00" cType="1" res="1.2858693953603506e-03" rms="4.6225208044052124e-01" purity="5.3081232309341431e-01" nType="-99"/>
        </Node>
        <Node pos="r" depth="1" NCoef="0" IVar="-1" Cut="0.0000000000000000e+00" cType="1" res="-6.5415492281317711e-03" rms="4.3032991886138916e-01" purity="3.1219461560249329e-01" nType="-99"/>
      </Node>
    </BinaryTree>
    <BinaryTree type="DecisionTree" boostWeight="1.0000000000000000e+00" itree="159">
      <Node pos="s" depth="0" NCoef="0" IVar="3" Cut="1.4461666870117188e+02" cType="1" res="7.6308031566441059e-03" rms="4.5869299769401550e-01" purity="4.9985527992248535e-01" nType="0">
        <Node pos="l" depth="1" NCoef="0" IVar="0" Cut="1.4000997543334961e+00" cType="1" res="1.5155360102653503e-02" rms="4.5962148904800415e-01" purity="5.1287651062011719e-01" nType="0">
          <Node pos="l" depth="2" NCoef="0" IVar="-1" Cut="0.0000000000000000e+00" cType="1" res="1.7213150858879089e-03" rms="4.5929092168807983e-01" purity="5.7100903987884521e-01" nType="-99"/>
          <Node pos="r" depth="2" NCoef="0" IVar="-1" Cut="0.0000000000000000e+00" cType="1" res="-8.3508522948250175e-04" rms="4.5807394385337830e-01" purity="4.4173702597618103e-01" nType="-99"/>
        </Node>
        <Node pos="r" depth="1" NCoef="0" IVar="-1" Cut="0.0000000000000000e+00" cType="1" res="-9.8502803593873978e-03" rms="4.1671532392501831e-01" purity="2.5659421086311340e-01" nType="-99"/>
      </Node>
    </BinaryTree>
    <BinaryTree type="DecisionTree" boostWeight="1.0000000000000000e+00" itree="160">
      <Node pos="s" depth="0" NCoef="0" IVar="6" Cut="3.2835253906250000e+02" cType="1" res="9.0551674365997314e-03" rms="4.5946615934371948e-01" purity="4.9989315867424011e-01" nType="0">
        <Node pos="l" depth="1" NCoef="0" IVar="6" Cut="2.8455279541015625e+02" cType="1" res="-5.7712897658348083e-02" rms="4.3731123208999634e-01" purity="3.1907069683074951e-01" nType="0">
          <Node pos="l" depth="2" NCoef="0" IVar="-1" Cut="0.0000000000000000e+00" cType="1" res="-8.3398064598441124e-03" rms="4.0284138917922974e-01" purity="2.5210446119308472e-01" nType="-99"/>
          <Node pos="r" depth="2" NCoef="0" IVar="-1" Cut="0.0000000000000000e+00" cType="1" res="-1.2746825814247131e-03" rms="4.5709195733070374e-01" purity="3.6718237400054932e-01" nType="-99"/>
        </Node>
        <Node pos="r" depth="1" NCoef="0" IVar="0" Cut="2.0952205657958984e+00" cType="1" res="2.0358605310320854e-02" rms="4.6215823292732239e-01" purity="5.3050535917282104e-01" nType="0">
          <Node pos="l" depth="2" NCoef="0" IVar="-1" Cut="0.0000000000000000e+00" cType="1" res="1.3608393492177129e-03" rms="4.6626865863800049e-01" purity="5.6363254785537720e-01" nType="-99"/>
          <Node pos="r" depth="2" NCoef="0" IVar="-1" Cut="0.0000000000000000e+00" cType="1" res="-5.0594178028404713e-03" rms="4.1885024309158325e-01" purity="2.7939909696578979e-01" nType="-99"/>
        </Node>
      </Node>
    </BinaryTree>
    <BinaryTree type="DecisionTree" boostWeight="1.0000000000000000e+00" itree="161">
      <Node pos="s" depth="0" NCoef="0" IVar="6" Cut="4.1829354858398438e+02" cType="1" res="8.1201205030083656e-03" rms="4.6018823981285095e-01" purity="4.9953186511993408e-01" nType="0">
        <Node pos="l" depth="1" NCoef="0" IVar="2" Cut="4.5533164978027344e+01" cType="1" res="-3.1625237315893173e-02" rms="4.5536062121391296e-01" purity="3.9082232117652893e-01" nType="0">
          <Node pos="l" depth="2" NCoef="0" IVar="-1" Cut="0.0000000000000000e+00" cType="1" res="-6.0125766322016716e-03" rms="4.3772634863853455e-01" purity="3.0398729443550110e-01" nType="-99"/>
          <Node pos="r" depth="2" NCoef="0" IVar="-1" Cut="0.0000000000000000e+00" cType="1" res="-7.3832034831866622e-04" rms="4.5891180634498596e-01" purity="4.1646081209182739e-01" nType="-99"/>
        </Node>
        <Node pos="r" depth="1" NCoef="0" IVar="0" Cut="2.0164737701416016e+00" cType="1" res="2.9682530090212822e-02" rms="4.6135574579238892e-01" purity="5.5850827693939209e-01" nType="0">
          <Node pos="l" depth="2" NCoef="0" IVar="-1" Cut="0.0000000000000000e+00" cType="1" res="1.8733801553025842e-03" rms="4.6553218364715576e-01" purity="5.9938538074493408e-01" nType="-99"/>
          <Node pos="r" depth="2" NCoef="0" IVar="-1" Cut="0.0000000000000000e+00" cType="1" res="-5.3987465798854828e-03" rms="4.1680094599723816e-01" purity="2.9285234212875366e-01" nType="-99"/>
        </Node>
      </Node>
    </BinaryTree>
    <BinaryTree type="DecisionTree" boostWeight="1.0000000000000000e+00" itree="162">
      <Node pos="s" depth="0" NCoef="0" IVar="1" Cut="9.7280186414718628e-01" cType="1" res="9.3695139512419701e-03" rms="4.5954409241676331e-01" purity="5.0152570009231567e-01" nType="0">
        <Node pos="l" depth="1" NCoef="0" IVar="1" Cut="9.1398924589157104e-01" cType="1" res="-6.8530524149537086e-03" rms="4.6196657419204712e-01" purity="4.4532576203346252e-01" nType="0">
          <Node pos="l" depth="2" NCoef="0" IVar="-1" Cut="0.0000000000000000e+00" cType="1" res="-5.4146042093634605e-03" rms="4.2544844746589661e-01" purity="2.8282991051673889e-01" nType="-99"/>
          <Node pos="r" depth="2" NCoef="0" IVar="-1" Cut="0.0000000000000000e+00" cType="1" res="1.1285939399385825e-04" rms="4.6521753072738647e-01" purity="4.6446618437767029e-01" nType="-99"/>
        </Node>
        <Node pos="r" depth="1" NCoef="0" IVar="5" Cut="1.4673409461975098e+00" cType="1" res="5.5942744016647339e-02" rms="4.4927424192428589e-01" purity="6.6286963224411011e-01" nType="0">
          <Node pos="l" depth="2" NCoef="0" IVar="-1" Cut="0.0000000000000000e+00" cType="1" res="2.7506803162395954e-03" rms="4.4194751977920532e-01" purity="6.9368296861648560e-01" nType="-99"/>
          <Node pos="r" depth="2" NCoef="0" IVar="-1" Cut="0.0000000000000000e+00" cType="1" res="8.3498984167817980e-05" rms="4.7013375163078308e-01" purity="5.5467087030410767e-01" nType="-99"/>
        </Node>
      </Node>
    </BinaryTree>
    <BinaryTree type="DecisionTree" boostWeight="1.0000000000000000e+00" itree="163">
      <Node pos="s" depth="0" NCoef="0" IVar="1" Cut="9.4702386856079102e-01" cType="1" res="6.8776626139879227e-03" rms="4.5977458357810974e-01" purity="4.9892807006835938e-01" nType="0">
        <Node pos="l" depth="1" NCoef="0" IVar="1" Cut="9.1816419363021851e-01" cType="1" res="-3.2026618719100952e-02" rms="4.5390674471855164e-01" purity="3.6607769131660461e-01" nType="0">
          <Node pos="l" depth="2" NCoef="0" IVar="-1" Cut="0.0000000000000000e+00" cType="1" res="-4.7255163080990314e-03" rms="4.3032297492027283e-01" purity="2.9350426793098450e-01" nType="-99"/>
          <Node pos="r" depth="2" NCoef="0" IVar="-1" Cut="0.0000000000000000e+00" cType="1" res="-8.4813730791211128e-04" rms="4.6153625845909119e-01" purity="3.9374029636383057e-01" nType="-99"/>
        </Node>
        <Node pos="r" depth="1" NCoef="0" IVar="3" Cut="1.3376037597656250e+02" cType="1" res="3.0199868604540825e-02" rms="4.6168759465217590e-01" purity="5.7856875658035278e-01" nType="0">
          <Node pos="l" depth="2" NCoef="0" IVar="-1" Cut="0.0000000000000000e+00" cType="1" res="1.8020474817603827e-03" rms="4.6025285124778748e-01" purity="5.9976917505264282e-01" nType="-99"/>
          <Node pos="r" depth="2" NCoef="0" IVar="-1" Cut="0.0000000000000000e+00" cType="1" res="-2.3900123778730631e-03" rms="4.6239396929740906e-01" purity="4.5354270935058594e-01" nType="-99"/>
        </Node>
      </Node>
    </BinaryTree>
    <BinaryTree type="DecisionTree" boostWeight="1.0000000000000000e+00" itree="164">
      <Node pos="s" depth="0" NCoef="0" IVar="6" Cut="3.2809652709960938e+02" cType="1" res="1.1601013829931617e-03" rms="4.5889168977737427e-01" purity="4.9046346545219421e-01" nType="0">
        <Node pos="l" depth="1" NCoef="0" IVar="5" Cut="1.2580286264419556e+00" cType="1" res="-6.6066086292266846e-02" rms="4.3220409750938416e-01" purity="3.0438980460166931e-01" nType="0">
          <Node pos="l" depth="2" NCoef="0" IVar="-1" Cut="0.0000000000000000e+00" cType="1" res="-2.1247335243970156e-03" rms="4.6307161450386047e-01" purity="3.7163275480270386e-01" nType="-99"/>
          <Node pos="r" depth="2" NCoef="0" IVar="-1" Cut="0.0000000000000000e+00" cType="1" res="-9.2360312119126320e-03" rms="3.8217869400978088e-01" purity="2.1246914565563202e-01" nType="-99"/>
        </Node>
        <Node pos="r" depth="1" NCoef="0" IVar="5" Cut="1.5054376125335693e+00" cType="1" res="1.2314145453274250e-02" rms="4.6222618222236633e-01" purity="5.2133649587631226e-01" nType="0">
          <Node pos="l" depth="2" NCoef="0" IVar="-1" Cut="0.0000000000000000e+00" cType="1" res="1.2271768646314740e-03" rms="4.6340990066528320e-01" purity="5.5778878927230835e-01" nType="-99"/>
          <Node pos="r" depth="2" NCoef="0" IVar="-1" Cut="0.0000000000000000e+00" cType="1" res="-1.9195767818018794e-03" rms="4.5516088604927063e-01" purity="4.1113641858100891e-01" nType="-99"/>
        </Node>
      </Node>
    </BinaryTree>
    <BinaryTree type="DecisionTree" boostWeight="1.0000000000000000e+00" itree="165">
      <Node pos="s" depth="0" NCoef="0" IVar="6" Cut="4.2608947753906250e+02" cType="1" res="1.2422505766153336e-02" rms="4.5886406302452087e-01" purity="5.0364404916763306e-01" nType="0">
        <Node pos="l" depth="1" NCoef="0" IVar="8" Cut="2.5031463623046875e+02" cType="1" res="-2.8166308999061584e-02" rms="4.5422121882438660e-01" purity="3.9986285567283630e-01" nType="0">
          <Node pos="l" depth="2" NCoef="0" IVar="-1" Cut="0.0000000000000000e+00" cType="1" res="-5.1856396021321416e-04" rms="4.6468475461006165e-01" purity="4.4080385565757751e-01" nType="-99"/>
          <Node pos="r" depth="2" NCoef="0" IVar="-1" Cut="0.0000000000000000e+00" cType="1" res="-9.3512320891022682e-03" rms="3.9564096927642822e-01" purity="2.2086371481418610e-01" nType="-99"/>
        </Node>
        <Node pos="r" depth="1" NCoef="0" IVar="5" Cut="1.8040014505386353e+00" cType="1" res="3.6497466266155243e-02" rms="4.5990645885467529e-01" purity="5.6520110368728638e-01" nType="0">
          <Node pos="l" depth="2" NCoef="0" IVar="-1" Cut="0.0000000000000000e+00" cType="1" res="1.9490056438371539e-03" rms="4.5933067798614502e-01" purity="5.8393979072570801e-01" nType="-99"/>
          <Node pos="r" depth="2" NCoef="0" IVar="-1" Cut="0.0000000000000000e+00" cType="1" res="-4.7798389568924904e-03" rms="4.4911816716194153e-01" purity="3.5319706797599792e-01" nType="-99"/>
        </Node>
      </Node>
    </BinaryTree>
    <BinaryTree type="DecisionTree" boostWeight="1.0000000000000000e+00" itree="166">
      <Node pos="s" depth="0" NCoef="0" IVar="7" Cut="-9.9957990646362305e-01" cType="1" res="1.4453995041549206e-02" rms="4.5962449908256531e-01" purity="5.0783550739288330e-01" nType="0">
        <Node pos="l" depth="1" NCoef="0" IVar="2" Cut="8.4578125000000000e+01" cType="1" res="5.9802368283271790e-02" rms="4.6491095423698425e-01" purity="6.0439252853393555e-01" nType="0">
          <Node pos="l" depth="2" NCoef="0" IVar="-1" Cut="0.0000000000000000e+00" cType="1" res="1.1745677329599857e-03" rms="4.7806727886199951e-01" purity="5.4890513420104980e-01" nType="-99"/>
          <Node pos="r" depth="2" NCoef="0" IVar="-1" Cut="0.0000000000000000e+00" cType="1" res="3.5976825747638941e-03" rms="4.4891962409019470e-01" purity="6.6027277708053589e-01" nType="-99"/>
        </Node>
        <Node pos="r" depth="1" NCoef="0" IVar="7" Cut="9.8660576343536377e-01" cType="1" res="-3.9941910654306412e-03" rms="4.5616826415061951e-01" purity="4.6855512261390686e-01" nType="0">
          <Node pos="l" depth="2" NCoef="0" IVar="-1" Cut="0.0000000000000000e+00" cType="1" res="-2.2353546228259802e-03" rms="4.5028853416442871e-01" purity="3.8001048564910889e-01" nType="-99"/>
          <Node pos="r" depth="2" NCoef="0" IVar="-1" Cut="0.0000000000000000e+00" cType="1" res="1.9214861094951630e-03" rms="4.5972025394439697e-01" purity="5.9629851579666138e-01" nType="-99"/>
        </Node>
      </Node>
    </BinaryTree>
    <BinaryTree type="DecisionTree" boostWeight="1.0000000000000000e+00" itree="167">
      <Node pos="s" depth="0" NCoef="0" IVar="5" Cut="1.7051199674606323e+00" cType="1" res="1.4309769496321678e-02" rms="4.5966628193855286e-01" purity="5.0715345144271851e-01" nType="0">
        <Node pos="l" depth="1" NCoef="0" IVar="1" Cut="9.5257085561752319e-01" cType="1" res="2.4575024843215942e-02" rms="4.6076950430870056e-01" purity="5.2621954679489136e-01" nType="0">
          <Node pos="l" depth="2" NCoef="0" IVar="-1" Cut="0.0000000000000000e+00" cType="1" res="-2.2145928232930601e-04" rms="4.6203571557998657e-01" purity="4.1400641202926636e-01" nType="-99"/>
          <Node pos="r" depth="2" NCoef="0" IVar="-1" Cut="0.0000000000000000e+00" cType="1" res="1.9855410791933537e-03" rms="4.5828586816787720e-01" purity="6.2083464860916138e-01" nType="-99"/>
        </Node>
        <Node pos="r" depth="1" NCoef="0" IVar="0" Cut="1.2600777149200439e+00" cType="1" res="-7.7001504600048065e-02" rms="4.3930086493492126e-01" purity="3.3755734562873840e-01" nType="0">
          <Node pos="l" depth="2" NCoef="0" IVar="-1" Cut="0.0000000000000000e+00" cType="1" res="-4.8106033354997635e-03" rms="4.4673320651054382e-01" purity="3.6594066023826599e-01" nType="-99"/>
          <Node pos="r" depth="2" NCoef="0" IVar="-1" Cut="0.0000000000000000e+00" cType="1" res="-4.4053620658814907e-03" rms="4.3151769042015076e-01" purity="3.0918511748313904e-01" nType="-99"/>
        </Node>
      </Node>
    </BinaryTree>
    <BinaryTree type="DecisionTree" boostWeight="1.0000000000000000e+00" itree="168">
      <Node pos="s" depth="0" NCoef="0" IVar="7" Cut="1.1423803567886353e+00" cType="1" res="1.0189839638769627e-02" rms="4.5997807383537292e-01" purity="5.0264948606491089e-01" nType="0">
        <Node pos="l" depth="1" NCoef="0" IVar="7" Cut="-1.0774787664413452e+00" cType="1" res="-6.2593286857008934e-03" rms="4.5941734313964844e-01" purity="4.6668231487274170e-01" nType="0">
          <Node pos="l" depth="2" NCoef="0" IVar="-1" Cut="0.0000000000000000e+00" cType="1" res="1.5495012048631907e-03" rms="4.6729198098182678e-01" purity="5.8801317214965820e-01" nType="-99"/>
          <Node pos="r" depth="2" NCoef="0" IVar="-1" Cut="0.0000000000000000e+00" cType="1" res="-1.4167049666866660e-03" rms="4.5429500937461853e-01" purity="4.1030457615852356e-01" nType="-99"/>
        </Node>
        <Node pos="r" depth="1" NCoef="0" IVar="4" Cut="2.1370606422424316e+00" cType="1" res="6.7789807915687561e-02" rms="4.5729628205299377e-01" purity="6.2859570980072021e-01" nType="0">
          <Node pos="l" depth="2" NCoef="0" IVar="-1" Cut="0.0000000000000000e+00" cType="1" res="3.2626034226268530e-03" rms="4.4619187712669373e-01" purity="6.7854595184326172e-01" nType="-99"/>
          <Node pos="r" depth="2" NCoef="0" IVar="-1" Cut="0.0000000000000000e+00" cType="1" res="1.9225364085286856e-03" rms="4.6871617436408997e-01" purity="5.7135134935379028e-01" nType="-99"/>
        </Node>
      </Node>
    </BinaryTree>
    <BinaryTree type="DecisionTree" boostWeight="1.0000000000000000e+00" itree="169">
      <Node pos="s" depth="0" NCoef="0" IVar="1" Cut="9.2052567005157471e-01" cType="1" res="6.0294317081570625e-03" rms="4.5867553353309631e-01" purity="4.9750775098800659e-01" nType="0">
        <Node pos="l" depth="1" NCoef="0" IVar="2" Cut="8.3500419616699219e+01" cType="1" res="-6.6042467951774597e-02" rms="4.3041530251502991e-01" purity="2.9841384291648865e-01" nType="0">
          <Node pos="l" depth="2" NCoef="0" IVar="-1" Cut="0.0000000000000000e+00" cType="1" res="-5.1049250178039074e-03" rms="4.3328988552093506e-01" purity="2.7794557809829712e-01" nType="-99"/>
          <Node pos="r" depth="2" NCoef="0" IVar="-1" Cut="0.0000000000000000e+00" cType="1" res="-3.2935685012489557e-03" rms="4.2703089118003845e-01" purity="3.1948846578598022e-01" nType="-99"/>
        </Node>
        <Node pos="r" depth="1" NCoef="0" IVar="6" Cut="3.2835253906250000e+02" cType="1" res="1.5689445659518242e-02" rms="4.6147742867469788e-01" purity="5.2419292926788330e-01" nType="0">
          <Node pos="l" depth="2" NCoef="0" IVar="-1" Cut="0.0000000000000000e+00" cType="1" res="-3.6049429327249527e-03" rms="4.4487255811691284e-01" purity="3.2963725924491882e-01" nType="-99"/>
          <Node pos="r" depth="2" NCoef="0" IVar="-1" Cut="0.0000000000000000e+00" cType="1" res="1.1624378385022283e-03" rms="4.6302506327629089e-01" purity="5.5459982156753540e-01" nType="-99"/>
        </Node>
      </Node>
    </BinaryTree>
    <BinaryTree type="DecisionTree" boostWeight="1.0000000000000000e+00" itree="170">
      <Node pos="s" depth="0" NCoef="0" IVar="3" Cut="1.0796383666992188e+02" cType="1" res="1.1152948252856731e-02" rms="4.5998680591583252e-01" purity="5.0184988975524902e-01" nType="0">
        <Node pos="l" depth="1" NCoef="0" IVar="2" Cut="7.3019058227539062e+01" cType="1" res="-6.0264863073825836e-02" rms="4.5318499207496643e-01" purity="3.8423636555671692e-01" nType="0">
          <Node pos="l" depth="2" NCoef="0" IVar="-1" Cut="0.0000000000000000e+00" cType="1" res="-5.9130196459591389e-03" rms="4.4118350744247437e-01" purity="3.3430376648902893e-01" nType="-99"/>
          <Node pos="r" depth="2" NCoef="0" IVar="-1" Cut="0.0000000000000000e+00" cType="1" res="-1.4002417447045445e-03" rms="4.6130055189132690e-01" purity="4.3044918775558472e-01" nType="-99"/>
        </Node>
        <Node pos="r" depth="1" NCoef="0" IVar="3" Cut="1.3385507202148438e+02" cType="1" res="2.0136443898081779e-02" rms="4.6005094051361084e-01" purity="5.1664417982101440e-01" nType="0">
          <Node pos="l" depth="2" NCoef="0" IVar="-1" Cut="0.0000000000000000e+00" cType="1" res="1.5374362701550126e-03" rms="4.6054625511169434e-01" purity="5.4253327846527100e-01" nType="-99"/>
          <Node pos="r" depth="2" NCoef="0" IVar="-1" Cut="0.0000000000000000e+00" cType="1" res="-2.8879772871732712e-03" rms="4.5077085494995117e-01" purity="3.9146327972412109e-01" nType="-99"/>
        </Node>
      </Node>
    </BinaryTree>
    <BinaryTree type="DecisionTree" boostWeight="1.0000000000000000e+00" itree="171">
      <Node pos="s" depth="0" NCoef="0" IVar="1" Cut="9.5975673198699951e-01" cType="1" res="3.0663460493087769e-03" rms="4.5900148153305054e-01" purity="4.9363419413566589e-01" nType="0">
        <Node pos="l" depth="1" NCoef="0" IVar="3" Cut="1.0729936218261719e+02" cType="1" res="-1.9658923149108887e-02" rms="4.5793259143829346e-01" purity="4.0738880634307861e-01" nType="0">
          <Node pos="l" depth="2" NCoef="0" IVar="-1" Cut="0.0000000000000000e+00" cType="1" res="-6.2396936118602753e-03" rms="4.2814922332763672e-01" purity="2.9133921861648560e-01" nType="-99"/>
          <Node pos="r" depth="2" NCoef="0" IVar="-1" Cut="0.0000000000000000e+00" cType="1" res="-4.9444241449236870e-04" rms="4.6080261468887329e-01" purity="4.2272335290908813e-01" nType="-99"/>
        </Node>
        <Node pos="r" depth="1" NCoef="0" IVar="2" Cut="1.5814495849609375e+02" cType="1" res="3.4400090575218201e-02" rms="4.5862820744514465e-01" purity="6.1255002021789551e-01" nType="0">
          <Node pos="l" depth="2" NCoef="0" IVar="-1" Cut="0.0000000000000000e+00" cType="1" res="1.8538297154009342e-03" rms="4.5645672082901001e-01" purity="6.3034522533416748e-01" nType="-99"/>
          <Node pos="r" depth="2" NCoef="0" IVar="-1" Cut="0.0000000000000000e+00" cType="1" res="-2.1632141433656216e-03" rms="4.6583589911460876e-01" purity="4.8866334557533264e-01" nType="-99"/>
        </Node>
      </Node>
    </BinaryTree>
    <BinaryTree type="DecisionTree" boostWeight="1.0000000000000000e+00" itree="172">
      <Node pos="s" depth="0" NCoef="0" IVar="3" Cut="1.0502208709716797e+02" cType="1" res="8.5849240422248840e-03" rms="4.6062850952148438e-01" purity="4.9925044178962708e-01" nType="0">
        <Node pos="l" depth="1" NCoef="0" IVar="-1" Cut="0.0000000000000000e+00" cType="1" res="-4.5907525345683098e-03" rms="4.4666907191276550e-01" purity="3.5449486970901489e-01" nType="-99"/>
        <Node pos="r" depth="1" NCoef="0" IVar="4" Cut="2.0829617977142334e+00" cType="1" res="1.6590492799878120e-02" rms="4.6110463142395020e-01" purity="5.1281547546386719e-01" nType="0">
          <Node pos="l" depth="2" NCoef="0" IVar="-1" Cut="0.0000000000000000e+00" cType="1" res="2.1916981786489487e-03" rms="4.5836842060089111e-01" purity="6.3255327939987183e-01" nType="-99"/>
          <Node pos="r" depth="2" NCoef="0" IVar="-1" Cut="0.0000000000000000e+00" cType="1" res="-6.8129964347463101e-05" rms="4.6121904253959656e-01" purity="4.5856502652168274e-01" nType="-99"/>
        </Node>
      </Node>
    </BinaryTree>
    <BinaryTree type="DecisionTree" boostWeight="1.0000000000000000e+00" itree="173">
      <Node pos="s" depth="0" NCoef="0" IVar="8" Cut="2.7017852783203125e+02" cType="1" res="1.4707934111356735e-02" rms="4.5903110504150391e-01" purity="5.0609529018402100e-01" nType="0">
        <Node pos="l" depth="1" NCoef="0" IVar="2" Cut="8.5703262329101562e+01" cType="1" res="3.3183161169290543e-02" rms="4.6163642406463623e-01" purity="5.4132485389709473e-01" nType="0">
          <Node pos="l" depth="2" NCoef="0" IVar="-1" Cut="0.0000000000000000e+00" cType="1" res="3.9576535345986485e-04" rms="4.6996375918388367e-01" purity="4.9778941273689270e-01" nType="-99"/>
          <Node pos="r" depth="2" NCoef="0" IVar="-1" Cut="0.0000000000000000e+00" cType="1" res="2.7367880102247000e-03" rms="4.4840210676193237e-01" purity="5.9860223531723022e-01" nType="-99"/>
        </Node>
        <Node pos="r" depth="1" NCoef="0" IVar="2" Cut="6.6502395629882812e+01" cType="1" res="-2.2455867379903793e-02" rms="4.5146074891090393e-01" purity="4.3522909283638000e-01" nType="0">
          <Node pos="l" depth="2" NCoef="0" IVar="-1" Cut="0.0000000000000000e+00" cType="1" res="-4.8618721775710583e-03" rms="4.4690057635307312e-01" purity="3.5949468612670898e-01" nType="-99"/>
          <Node pos="r" depth="2" NCoef="0" IVar="-1" Cut="0.0000000000000000e+00" cType="1" res="-3.3169813104905188e-04" rms="4.5125168561935425e-01" purity="4.5464521646499634e-01" nType="-99"/>
        </Node>
      </Node>
    </BinaryTree>
    <BinaryTree type="DecisionTree" boostWeight="1.0000000000000000e+00" itree="174">
      <Node pos="s" depth="0" NCoef="0" IVar="1" Cut="9.7908627986907959e-01" cType="1" res="1.2376124039292336e-02" rms="4.5824944972991943e-01" purity="5.0615638494491577e-01" nType="0">
        <Node pos="l" depth="1" NCoef="0" IVar="2" Cut="1.6785629272460938e+02" cType="1" res="-4.0778708644211292e-03" rms="4.6239337325096130e-01" purity="4.5900559425354004e-01" nType="0">
          <Node pos="l" depth="2" NCoef="0" IVar="-1" Cut="0.0000000000000000e+00" cType="1" res="2.6000224170275033e-04" rms="4.6497228741645813e-01" purity="4.7593951225280762e-01" nType="-99"/>
          <Node pos="r" depth="2" NCoef="0" IVar="-1" Cut="0.0000000000000000e+00" cType="1" res="-5.2813543006777763e-03" rms="4.3363988399505615e-01" purity="3.2349553704261780e-01" nType="-99"/>
        </Node>
        <Node pos="r" depth="1" NCoef="0" IVar="5" Cut="1.3297346830368042e+00" cType="1" res="8.0616690218448639e-02" rms="4.3403971195220947e-01" purity="7.0170754194259644e-01" nType="0">
          <Node pos="l" depth="2" NCoef="0" IVar="-1" Cut="0.0000000000000000e+00" cType="1" res="3.9113792590796947e-03" rms="4.1337081789970398e-01" purity="7.4909806251525879e-01" nType="-99"/>
          <Node pos="r" depth="2" NCoef="0" IVar="-1" Cut="0.0000000000000000e+00" cType="1" res="1.2639786582440138e-03" rms="4.6743315458297729e-01" purity="6.1003482341766357e-01" nType="-99"/>
        </Node>
      </Node>
    </BinaryTree>
    <BinaryTree type="DecisionTree" boostWeight="1.0000000000000000e+00" itree="175">
      <Node pos="s" depth="0" NCoef="0" IVar="5" Cut="1.2381664514541626e+00" cType="1" res="5.4783252999186516e-03" rms="4.5748364925384521e-01" purity="4.9850520491600037e-01" nType="0">
        <Node pos="l" depth="1" NCoef="0" IVar="3" Cut="1.1286311340332031e+02" cType="1" res="3.7013977766036987e-02" rms="4.5902955532073975e-01" purity="5.6353461742401123e-01" nType="0">
          <Node pos="l" depth="2" NCoef="0" IVar="-1" Cut="0.0000000000000000e+00" cType="1" res="-2.0053561311215162e-03" rms="4.6312204003334045e-01" purity="4.5478722453117371e-01" nType="-99"/>
          <Node pos="r" depth="2" NCoef="0" IVar="-1" Cut="0.0000000000000000e+00" cType="1" res="2.1311796735972166e-03" rms="4.5690271258354187e-01" purity="5.8350801467895508e-01" nType="-99"/>
        </Node>
        <Node pos="r" depth="1" NCoef="0" IVar="1" Cut="9.4047832489013672e-01" cType="1" res="-2.4742690846323967e-02" rms="4.5394617319107056e-01" purity="4.3618661165237427e-01" nType="0">
          <Node pos="l" depth="2" NCoef="0" IVar="-1" Cut="0.0000000000000000e+00" cType="1" res="-4.8033474013209343e-03" rms="4.2808082699775696e-01" purity="2.9067778587341309e-01" nType="-99"/>
          <Node pos="r" depth="2" NCoef="0" IVar="-1" Cut="0.0000000000000000e+00" cType="1" res="-1.1611058289417997e-04" rms="4.6376034617424011e-01" purity="5.0361585617065430e-01" nType="-99"/>
        </Node>
      </Node>
    </BinaryTree>
    <BinaryTree type="DecisionTree" boostWeight="1.0000000000000000e+00" itree="176">
      <Node pos="s" depth="0" NCoef="0" IVar="1" Cut="9.3931311368942261e-01" cType="1" res="6.5819355659186840e-03" rms="4.5869761705398560e-01" purity="4.9926504492759705e-01" nType="0">
        <Node pos="l" depth="1" NCoef="0" IVar="2" Cut="6.3319942474365234e+01" cType="1" res="-4.0661267936229706e-02" rms="4.4601008296012878e-01" purity="3.4558582305908203e-01" nType="0">
          <Node pos="l" depth="2" NCoef="0" IVar="-1" Cut="0.0000000000000000e+00" cType="1" res="-5.6586903519928455e-03" rms="4.3087565898895264e-01" purity="2.7879354357719421e-01" nType="-99"/>
          <Node pos="r" depth="2" NCoef="0" IVar="-1" Cut="0.0000000000000000e+00" cType="1" res="-9.6644181758165359e-04" rms="4.5151203870773315e-01" purity="3.7864652276039124e-01" nType="-99"/>
        </Node>
        <Node pos="r" depth="1" NCoef="0" IVar="5" Cut="1.6918234825134277e+00" cType="1" res="2.5277737528085709e-02" rms="4.6229124069213867e-01" purity="5.6008136272430420e-01" nType="0">
          <Node pos="l" depth="2" NCoef="0" IVar="-1" Cut="0.0000000000000000e+00" cType="1" res="1.4909527963027358e-03" rms="4.6195200085639954e-01" purity="5.7877737283706665e-01" nType="-99"/>
          <Node pos="r" depth="2" NCoef="0" IVar="-1" Cut="0.0000000000000000e+00" cType="1" res="-3.2334262505173683e-03" rms="4.5654559135437012e-01" purity="3.9433458447456360e-01" nType="-99"/>
        </Node>
      </Node>
    </BinaryTree>
    <BinaryTree type="DecisionTree" boostWeight="1.0000000000000000e+00" itree="177">
      <Node pos="s" depth="0" NCoef="0" IVar="2" Cut="6.3133754730224609e+01" cType="1" res="8.4572499617934227e-03" rms="4.5974081754684448e-01" purity="5.0051069259643555e-01" nType="0">
        <Node pos="l" depth="1" NCoef="0" IVar="8" Cut="2.0694743347167969e+02" cType="1" res="-3.2637637108564377e-02" rms="4.6709761023521423e-01" purity="4.2678737640380859e-01" nType="0">
          <Node pos="l" depth="2" NCoef="0" IVar="-1" Cut="0.0000000000000000e+00" cType="1" res="-2.2967741824686527e-04" rms="4.7404661774635315e-01" purity="4.6074184775352478e-01" nType="-99"/>
          <Node pos="r" depth="2" NCoef="0" IVar="-1" Cut="0.0000000000000000e+00" cType="1" res="-4.8911496996879578e-03" rms="4.4912222027778625e-01" purity="3.6305513978004456e-01" nType="-99"/>
        </Node>
        <Node pos="r" depth="1" NCoef="0" IVar="0" Cut="1.4453322887420654e+00" cType="1" res="2.5799578055739403e-02" rms="4.5548954606056213e-01" purity="5.3162240982055664e-01" nType="0">
          <Node pos="l" depth="2" NCoef="0" IVar="-1" Cut="0.0000000000000000e+00" cType="1" res="2.7107165660709143e-03" rms="4.5171338319778442e-01" purity="6.5238571166992188e-01" nType="-99"/>
          <Node pos="r" depth="2" NCoef="0" IVar="-1" Cut="0.0000000000000000e+00" cType="1" res="-3.3333609462715685e-04" rms="4.5547708868980408e-01" purity="4.4444406032562256e-01" nType="-99"/>
        </Node>
      </Node>
    </BinaryTree>
    <BinaryTree type="DecisionTree" boostWeight="1.0000000000000000e+00" itree="178">
      <Node pos="s" depth="0" NCoef="0" IVar="3" Cut="1.4480949401855469e+02" cType="1" res="7.3641352355480194e-03" rms="4.6078625321388245e-01" purity="4.9844214320182800e-01" nType="0">
        <Node pos="l" depth="1" NCoef="0" IVar="2" Cut="9.2148284912109375e+01" cType="1" res="1.3649271801114082e-02" rms="4.6198070049285889e-01" purity="5.1030856370925903e-01" nType="0">
          <Node pos="l" depth="2" NCoef="0" IVar="-1" Cut="0.0000000000000000e+00" cType="1" res="-6.3452898757532239e-04" rms="4.6398761868476868e-01" purity="4.7845783829689026e-01" nType="-99"/>
          <Node pos="r" depth="2" NCoef="0" IVar="-1" Cut="0.0000000000000000e+00" cType="1" res="1.9790052901953459e-03" rms="4.5781919360160828e-01" purity="5.4616558551788330e-01" nType="-99"/>
        </Node>
        <Node pos="r" depth="1" NCoef="0" IVar="-1" Cut="0.0000000000000000e+00" cType="1" res="-7.4000968597829342e-03" rms="4.2258951067924500e-01" purity="2.8303402662277222e-01" nType="-99"/>
      </Node>
    </BinaryTree>
    <BinaryTree type="DecisionTree" boostWeight="1.0000000000000000e+00" itree="179">
      <Node pos="s" depth="0" NCoef="0" IVar="6" Cut="5.0734594726562500e+02" cType="1" res="9.2994635924696922e-03" rms="4.5957097411155701e-01" purity="5.0125962495803833e-01" nType="0">
        <Node pos="l" depth="1" NCoef="0" IVar="7" Cut="-1.1423782110214233e+00" cType="1" res="-1.5411272644996643e-02" rms="4.5811599493026733e-01" purity="4.3778035044670105e-01" nType="0">
          <Node pos="l" depth="2" NCoef="0" IVar="-1" Cut="0.0000000000000000e+00" cType="1" res="1.6983341192826629e-03" rms="4.7176408767700195e-01" purity="5.6311607360839844e-01" nType="-99"/>
          <Node pos="r" depth="2" NCoef="0" IVar="-1" Cut="0.0000000000000000e+00" cType="1" res="-1.6361285233870149e-03" rms="4.5339852571487427e-01" purity="4.0503486990928650e-01" nType="-99"/>
        </Node>
        <Node pos="r" depth="1" NCoef="0" IVar="8" Cut="5.1872729492187500e+02" cType="1" res="3.9472974836826324e-02" rms="4.5954304933547974e-01" purity="5.7877212762832642e-01" nType="0">
          <Node pos="l" depth="2" NCoef="0" IVar="-1" Cut="0.0000000000000000e+00" cType="1" res="2.1900674328207970e-03" rms="4.5955920219421387e-01" purity="6.0947555303573608e-01" nType="-99"/>
          <Node pos="r" depth="2" NCoef="0" IVar="-1" Cut="0.0000000000000000e+00" cType="1" res="-2.8288720641285181e-03" rms="4.4915965199470520e-01" purity="3.9465609192848206e-01" nType="-99"/>
        </Node>
      </Node>
    </BinaryTree>
    <BinaryTree type="DecisionTree" boostWeight="1.0000000000000000e+00" itree="180">
      <Node pos="s" depth="0" NCoef="0" IVar="3" Cut="1.3715895080566406e+02" cType="1" res="9.3029476702213287e-03" rms="4.6210038661956787e-01" purity="4.9916684627532959e-01" nType="0">
        <Node pos="l" depth="1" NCoef="0" IVar="7" Cut="1.1422568559646606e+00" cType="1" res="1.7940156161785126e-02" rms="4.6299701929092407e-01" purity="5.1648551225662231e-01" nType="0">
          <Node pos="l" depth="2" NCoef="0" IVar="-1" Cut="0.0000000000000000e+00" cType="1" res="2.3176075774244964e-04" rms="4.6381896734237671e-01" purity="4.8320305347442627e-01" nType="-99"/>
          <Node pos="r" depth="2" NCoef="0" IVar="-1" Cut="0.0000000000000000e+00" cType="1" res="2.5435339193791151e-03" rms="4.5718544721603394e-01" purity="6.3249927759170532e-01" nType="-99"/>
        </Node>
        <Node pos="r" depth="1" NCoef="0" IVar="1" Cut="9.5338594913482666e-01" cType="1" res="-6.1072234064340591e-02" rms="4.4857314229011536e-01" purity="3.5805600881576538e-01" nType="0">
          <Node pos="l" depth="2" NCoef="0" IVar="-1" Cut="0.0000000000000000e+00" cType="1" res="-6.8722590804100037e-03" rms="4.1866901516914368e-01" purity="2.5145047903060913e-01" nType="-99"/>
          <Node pos="r" depth="2" NCoef="0" IVar="-1" Cut="0.0000000000000000e+00" cType="1" res="-1.3714485103264451e-03" rms="4.7508081793785095e-01" purity="4.6805295348167419e-01" nType="-99"/>
        </Node>
      </Node>
    </BinaryTree>
    <BinaryTree type="DecisionTree" boostWeight="1.0000000000000000e+00" itree="181">
      <Node pos="s" depth="0" NCoef="0" IVar="2" Cut="6.4206054687500000e+01" cType="1" res="8.2248346880078316e-03" rms="4.5950424671173096e-01" purity="5.0025218725204468e-01" nType="0">
        <Node pos="l" depth="1" NCoef="0" IVar="7" Cut="-1.1423022747039795e+00" cType="1" res="-2.7841238304972649e-02" rms="4.6575018763542175e-01" purity="4.3404707312583923e-01" nType="0">
          <Node pos="l" depth="2" NCoef="0" IVar="-1" Cut="0.0000000000000000e+00" cType="1" res="1.8644831143319607e-03" rms="4.8129224777221680e-01" purity="5.4926854372024536e-01" nType="-99"/>
          <Node pos="r" depth="2" NCoef="0" IVar="-1" Cut="0.0000000000000000e+00" cType="1" res="-2.7723910752683878e-03" rms="4.5826029777526855e-01" purity="3.9713588356971741e-01" nType="-99"/>
        </Node>
        <Node pos="r" depth="1" NCoef="0" IVar="0" Cut="1.2880148887634277e+00" cType="1" res="2.4382784962654114e-02" rms="4.5575347542762756e-01" purity="5.2991276979446411e-01" nType="0">
          <Node pos="l" depth="2" NCoef="0" IVar="-1" Cut="0.0000000000000000e+00" cType="1" res="3.3970486838370562e-03" rms="4.4211381673812866e-01" purity="6.8082851171493530e-01" nType="-99"/>
          <Node pos="r" depth="2" NCoef="0" IVar="-1" Cut="0.0000000000000000e+00" cType="1" res="-2.7134947595186532e-04" rms="4.5874053239822388e-01" purity="4.6128767728805542e-01" nType="-99"/>
        </Node>
      </Node>
    </BinaryTree>
    <BinaryTree type="DecisionTree" boostWeight="1.0000000000000000e+00" itree="182">
      <Node pos="s" depth="0" NCoef="0" IVar="2" Cut="1.6785629272460938e+02" cType="1" res="7.5010065920650959e-03" rms="4.5971506834030151e-01" purity="4.9856773018836975e-01" nType="0">
        <Node pos="l" depth="1" NCoef="0" IVar="2" Cut="8.9303436279296875e+01" cType="1" res="1.6979524865746498e-02" rms="4.6039339900016785e-01" purity="5.1583874225616455e-01" nType="0">
          <Node pos="l" depth="2" NCoef="0" IVar="-1" Cut="0.0000000000000000e+00" cType="1" res="-3.8446552935056388e-04" rms="4.6765875816345215e-01" purity="4.7310155630111694e-01" nType="-99"/>
          <Node pos="r" depth="2" NCoef="0" IVar="-1" Cut="0.0000000000000000e+00" cType="1" res="2.2224897984415293e-03" rms="4.4768446683883667e-01" purity="5.7568514347076416e-01" nType="-99"/>
        </Node>
        <Node pos="r" depth="1" NCoef="0" IVar="4" Cut="2.3982400894165039e+00" cType="1" res="-6.8031668663024902e-02" rms="4.4714996218681335e-01" purity="3.6093804240226746e-01" nType="0">
          <Node pos="l" depth="2" NCoef="0" IVar="-1" Cut="0.0000000000000000e+00" cType="1" res="-4.3272646144032478e-03" rms="4.7286680340766907e-01" purity="4.5701479911804199e-01" nType="-99"/>
          <Node pos="r" depth="2" NCoef="0" IVar="-1" Cut="0.0000000000000000e+00" cType="1" res="-3.7336195819079876e-03" rms="4.2003241181373596e-01" purity="2.6833233237266541e-01" nType="-99"/>
        </Node>
      </Node>
    </BinaryTree>
    <BinaryTree type="DecisionTree" boostWeight="1.0000000000000000e+00" itree="183">
      <Node pos="s" depth="0" NCoef="0" IVar="3" Cut="1.3423814392089844e+02" cType="1" res="2.9901152011007071e-03" rms="4.5920023322105408e-01" purity="4.9477195739746094e-01" nType="0">
        <Node pos="l" depth="1" NCoef="0" IVar="3" Cut="1.1422840881347656e+02" cType="1" res="1.3542369939386845e-02" rms="4.5986068248748779e-01" purity="5.1497423648834229e-01" nType="0">
          <Node pos="l" depth="2" NCoef="0" IVar="-1" Cut="0.0000000000000000e+00" cType="1" res="-1.9919665064662695e-03" rms="4.5654556155204773e-01" purity="4.2701897025108337e-01" nType="-99"/>
          <Node pos="r" depth="2" NCoef="0" IVar="-1" Cut="0.0000000000000000e+00" cType="1" res="1.2980162864550948e-03" rms="4.5971754193305969e-01" purity="5.4207360744476318e-01" nType="-99"/>
        </Node>
        <Node pos="r" depth="1" NCoef="0" IVar="5" Cut="1.3326997756958008e+00" cType="1" res="-5.7692173868417740e-02" rms="4.5061248540878296e-01" purity="3.7859615683555603e-01" nType="0">
          <Node pos="l" depth="2" NCoef="0" IVar="-1" Cut="0.0000000000000000e+00" cType="1" res="-1.9062578212469816e-03" rms="4.6714308857917786e-01" purity="4.3133556842803955e-01" nType="-99"/>
          <Node pos="r" depth="2" NCoef="0" IVar="-1" Cut="0.0000000000000000e+00" cType="1" res="-5.4764780215919018e-03" rms="4.2751827836036682e-01" purity="3.1246322393417358e-01" nType="-99"/>
        </Node>
      </Node>
    </BinaryTree>
    <BinaryTree type="DecisionTree" boostWeight="1.0000000000000000e+00" itree="184">
      <Node pos="s" depth="0" NCoef="0" IVar="1" Cut="9.1939640045166016e-01" cType="1" res="1.0550797916948795e-02" rms="4.5827898383140564e-01" purity="5.0407767295837402e-01" nType="0">
        <Node pos="l" depth="1" NCoef="0" IVar="5" Cut="1.2939164638519287e+00" cType="1" res="-7.5334616005420685e-02" rms="4.2786213755607605e-01" purity="2.8731355071067810e-01" nType="0">
          <Node pos="l" depth="2" NCoef="0" IVar="-1" Cut="0.0000000000000000e+00" cType="1" res="-3.1457417644560337e-03" rms="4.5108538866043091e-01" purity="3.3672207593917847e-01" nType="-99"/>
          <Node pos="r" depth="2" NCoef="0" IVar="-1" Cut="0.0000000000000000e+00" cType="1" res="-7.1113165467977524e-03" rms="4.0146046876907349e-01" purity="2.3637738823890686e-01" nType="-99"/>
        </Node>
        <Node pos="r" depth="1" NCoef="0" IVar="1" Cut="9.7360813617706299e-01" cType="1" res="2.1112542599439621e-02" rms="4.6077716350555420e-01" purity="5.3073424100875854e-01" nType="0">
          <Node pos="l" depth="2" NCoef="0" IVar="-1" Cut="0.0000000000000000e+00" cType="1" res="2.1014997037127614e-04" rms="4.6641850471496582e-01" purity="4.7229853272438049e-01" nType="-99"/>
          <Node pos="r" depth="2" NCoef="0" IVar="-1" Cut="0.0000000000000000e+00" cType="1" res="2.4693426676094532e-03" rms="4.4351676106452942e-01" purity="6.7756557464599609e-01" nType="-99"/>
        </Node>
      </Node>
    </BinaryTree>
    <BinaryTree type="DecisionTree" boostWeight="1.0000000000000000e+00" itree="185">
      <Node pos="s" depth="0" NCoef="0" IVar="3" Cut="1.0279872894287109e+02" cType="1" res="1.1929024942219257e-02" rms="4.5770534873008728e-01" purity="5.0558680295944214e-01" nType="0">
        <Node pos="l" depth="1" NCoef="0" IVar="-1" Cut="0.0000000000000000e+00" cType="1" res="-5.0620790570974350e-03" rms="4.3885329365730286e-01" purity="3.5185667872428894e-01" nType="-99"/>
        <Node pos="r" depth="1" NCoef="0" IVar="4" Cut="2.1391766071319580e+00" cType="1" res="1.9133348017930984e-02" rms="4.5830306410789490e-01" purity="5.1725715398788452e-01" nType="0">
          <Node pos="l" depth="2" NCoef="0" IVar="-1" Cut="0.0000000000000000e+00" cType="1" res="2.1185569930821657e-03" rms="4.5464092493057251e-01" purity="6.3572949171066284e-01" nType="-99"/>
          <Node pos="r" depth="2" NCoef="0" IVar="-1" Cut="0.0000000000000000e+00" cType="1" res="-1.3523545931093395e-04" rms="4.5924821496009827e-01" purity="4.4294404983520508e-01" nType="-99"/>
        </Node>
      </Node>
    </BinaryTree>
    <BinaryTree type="DecisionTree" boostWeight="1.0000000000000000e+00" itree="186">
      <Node pos="s" depth="0" NCoef="0" IVar="1" Cut="9.1455280780792236e-01" cType="1" res="9.4636185094714165e-03" rms="4.5813587307929993e-01" purity="5.0180721282958984e-01" nType="0">
        <Node pos="l" depth="1" NCoef="0" IVar="-1" Cut="0.0000000000000000e+00" cType="1" res="-5.3705954924225807e-03" rms="4.1761565208435059e-01" purity="2.6822164654731750e-01" nType="-99"/>
        <Node pos="r" depth="1" NCoef="0" IVar="5" Cut="1.7074896097183228e+00" cType="1" res="1.7328076064586639e-02" rms="4.6068349480628967e-01" purity="5.2227020263671875e-01" nType="0">
          <Node pos="l" depth="2" NCoef="0" IVar="-1" Cut="0.0000000000000000e+00" cType="1" res="1.1625366751104593e-03" rms="4.6116542816162109e-01" purity="5.4055160284042358e-01" nType="-99"/>
          <Node pos="r" depth="2" NCoef="0" IVar="-1" Cut="0.0000000000000000e+00" cType="1" res="-3.8325914647430182e-03" rms="4.4819456338882446e-01" purity="3.5382577776908875e-01" nType="-99"/>
        </Node>
      </Node>
    </BinaryTree>
    <BinaryTree type="DecisionTree" boostWeight="1.0000000000000000e+00" itree="187">
      <Node pos="s" depth="0" NCoef="0" IVar="7" Cut="9.9958300590515137e-01" cType="1" res="7.8916139900684357e-03" rms="4.5823046565055847e-01" purity="5.0120860338211060e-01" nType="0">
        <Node pos="l" depth="1" NCoef="0" IVar="7" Cut="-9.8660993576049805e-01" cType="1" res="-1.0587729513645172e-02" rms="4.5590621232986450e-01" purity="4.5903691649436951e-01" nType="0">
          <Node pos="l" depth="2" NCoef="0" IVar="-1" Cut="0.0000000000000000e+00" cType="1" res="1.5651221619918942e-03" rms="4.6571257710456848e-01" purity="5.8168435096740723e-01" nType="-99"/>
          <Node pos="r" depth="2" NCoef="0" IVar="-1" Cut="0.0000000000000000e+00" cType="1" res="-2.5114577729254961e-03" rms="4.4610291719436646e-01" purity="3.7515181303024292e-01" nType="-99"/>
        </Node>
        <Node pos="r" depth="1" NCoef="0" IVar="2" Cut="6.9562377929687500e+01" cType="1" res="5.2929747849702835e-02" rms="4.6075239777565002e-01" purity="6.0398989915847778e-01" nType="0">
          <Node pos="l" depth="2" NCoef="0" IVar="-1" Cut="0.0000000000000000e+00" cType="1" res="-1.7299914907198399e-04" rms="4.7346913814544678e-01" purity="4.9896228313446045e-01" nType="-99"/>
          <Node pos="r" depth="2" NCoef="0" IVar="-1" Cut="0.0000000000000000e+00" cType="1" res="3.2671270892024040e-03" rms="4.5050716400146484e-01" purity="6.6209155321121216e-01" nType="-99"/>
        </Node>
      </Node>
    </BinaryTree>
    <BinaryTree type="DecisionTree" boostWeight="1.0000000000000000e+00" itree="188">
      <Node pos="s" depth="0" NCoef="0" IVar="2" Cut="5.1460388183593750e+01" cType="1" res="8.9117493480443954e-03" rms="4.5668452978134155e-01" purity="5.0235426425933838e-01" nType="0">
        <Node pos="l" depth="1" NCoef="0" IVar="2" Cut="4.0361171722412109e+01" cType="1" res="-4.2752273380756378e-02" rms="4.5794844627380371e-01" purity="3.9641910791397095e-01" nType="0">
          <Node pos="l" depth="2" NCoef="0" IVar="-1" Cut="0.0000000000000000e+00" cType="1" res="-5.6191184557974339e-03" rms="4.4361296296119690e-01" purity="3.2529598474502563e-01" nType="-99"/>
          <Node pos="r" depth="2" NCoef="0" IVar="-1" Cut="0.0000000000000000e+00" cType="1" res="5.5785395670682192e-04" rms="4.6692690253257751e-01" purity="4.7375628352165222e-01" nType="-99"/>
        </Node>
        <Node pos="r" depth="1" NCoef="0" IVar="0" Cut="1.4000997543334961e+00" cType="1" res="2.1992202848196030e-02" rms="4.5543515682220459e-01" purity="5.2917522192001343e-01" nType="0">
          <Node pos="l" depth="2" NCoef="0" IVar="-1" Cut="0.0000000000000000e+00" cType="1" res="2.4357542861253023e-03" rms="4.5192727446556091e-01" purity="6.3360309600830078e-01" nType="-99"/>
          <Node pos="r" depth="2" NCoef="0" IVar="-1" Cut="0.0000000000000000e+00" cType="1" res="-5.8114627609029412e-04" rms="4.5566734671592712e-01" purity="4.4285821914672852e-01" nType="-99"/>
        </Node>
      </Node>
    </BinaryTree>
    <BinaryTree type="DecisionTree" boostWeight="1.0000000000000000e+00" itree="189">
      <Node pos="s" depth="0" NCoef="0" IVar="3" Cut="1.3738551330566406e+02" cType="1" res="1.0919270105659962e-02" rms="4.5910593867301941e-01" purity="5.0352591276168823e-01" nType="0">
        <Node pos="l" depth="1" NCoef="0" IVar="3" Cut="1.1271046447753906e+02" cType="1" res="1.8905900418758392e-02" rms="4.5983973145484924e-01" purity="5.2111905813217163e-01" nType="0">
          <Node pos="l" depth="2" NCoef="0" IVar="-1" Cut="0.0000000000000000e+00" cType="1" res="-1.8194156000390649e-03" rms="4.5373666286468506e-01" purity="4.2364764213562012e-01" nType="-99"/>
          <Node pos="r" depth="2" NCoef="0" IVar="-1" Cut="0.0000000000000000e+00" cType="1" res="1.3789836084470153e-03" rms="4.6037703752517700e-01" purity="5.4401642084121704e-01" nType="-99"/>
        </Node>
        <Node pos="r" depth="1" NCoef="0" IVar="5" Cut="1.3159239292144775e+00" cType="1" res="-5.7885281741619110e-02" rms="4.4686174392700195e-01" purity="3.5196182131767273e-01" nType="0">
          <Node pos="l" depth="2" NCoef="0" IVar="-1" Cut="0.0000000000000000e+00" cType="1" res="-2.4469001218676567e-03" rms="4.5535388588905334e-01" purity="4.0426707267761230e-01" nType="-99"/>
          <Node pos="r" depth="2" NCoef="0" IVar="-1" Cut="0.0000000000000000e+00" cType="1" res="-4.8963581211864948e-03" rms="4.3713974952697754e-01" purity="2.9575079679489136e-01" nType="-99"/>
        </Node>
      </Node>
    </BinaryTree>
    <BinaryTree type="DecisionTree" boostWeight="1.0000000000000000e+00" itree="190">
      <Node pos="s" depth="0" NCoef="0" IVar="1" Cut="9.3264669179916382e-01" cType="1" res="6.9082449190318584e-03" rms="4.5722204446792603e-01" purity="5.0114792585372925e-01" nType="0">
        <Node pos="l" depth="1" NCoef="0" IVar="4" Cut="2.1056618690490723e+00" cType="1" res="-4.5395400375127792e-02" rms="4.3940100073814392e-01" purity="3.2745388150215149e-01" nType="0">
          <Node pos="l" depth="2" NCoef="0" IVar="-1" Cut="0.0000000000000000e+00" cType="1" res="-1.6681375200278126e-05" rms="4.7857788205146790e-01" purity="4.5312154293060303e-01" nType="-99"/>
          <Node pos="r" depth="2" NCoef="0" IVar="-1" Cut="0.0000000000000000e+00" cType="1" res="-4.6218191273510456e-03" rms="4.1857495903968811e-01" purity="2.6976320147514343e-01" nType="-99"/>
        </Node>
        <Node pos="r" depth="1" NCoef="0" IVar="6" Cut="2.9837500000000000e+02" cType="1" res="2.0932367071509361e-02" rms="4.6087545156478882e-01" purity="5.4772025346755981e-01" nType="0">
          <Node pos="l" depth="2" NCoef="0" IVar="-1" Cut="0.0000000000000000e+00" cType="1" res="-6.0932794585824013e-03" rms="4.3021079897880554e-01" purity="2.9305925965309143e-01" nType="-99"/>
          <Node pos="r" depth="2" NCoef="0" IVar="-1" Cut="0.0000000000000000e+00" cType="1" res="1.2692959280684590e-03" rms="4.6214613318443298e-01" purity="5.6782007217407227e-01" nType="-99"/>
        </Node>
      </Node>
    </BinaryTree>
    <BinaryTree type="DecisionTree" boostWeight="1.0000000000000000e+00" itree="191">
      <Node pos="s" depth="0" NCoef="0" IVar="8" Cut="2.8575103759765625e+02" cType="1" res="5.2827512845396996e-03" rms="4.6144571900367737e-01" purity="4.9484694004058838e-01" nType="0">
        <Node pos="l" depth="1" NCoef="0" IVar="6" Cut="5.0614883422851562e+02" cType="1" res="2.0690523087978363e-02" rms="4.6512502431869507e-01" purity="5.2667844295501709e-01" nType="0">
          <Node pos="l" depth="2" NCoef="0" IVar="-1" Cut="0.0000000000000000e+00" cType="1" res="1.1515263759065419e-04" rms="4.6679201722145081e-01" purity="4.7378960251808167e-01" nType="-99"/>
          <Node pos="r" depth="2" NCoef="0" IVar="-1" Cut="0.0000000000000000e+00" cType="1" res="2.2584770340472460e-03" rms="4.5954847335815430e-01" purity="6.3299620151519775e-01" nType="-99"/>
        </Node>
        <Node pos="r" depth="1" NCoef="0" IVar="6" Cut="5.1728643798828125e+02" cType="1" res="-3.0537290498614311e-02" rms="4.5074561238288879e-01" purity="4.2084494233131409e-01" nType="0">
          <Node pos="l" depth="2" NCoef="0" IVar="-1" Cut="0.0000000000000000e+00" cType="1" res="-5.6251022033393383e-03" rms="4.1558825969696045e-01" purity="2.8165745735168457e-01" nType="-99"/>
          <Node pos="r" depth="2" NCoef="0" IVar="-1" Cut="0.0000000000000000e+00" cType="1" res="-3.9503470179624856e-04" rms="4.6484187245368958e-01" purity="4.8690265417098999e-01" nType="-99"/>
        </Node>
      </Node>
    </BinaryTree>
    <BinaryTree type="DecisionTree" boostWeight="1.0000000000000000e+00" itree="192">
      <Node pos="s" depth="0" NCoef="0" IVar="7" Cut="1.1423742771148682e+00" cType="1" res="2.6072289329022169e-03" rms="4.5772221684455872e-01" purity="4.9449807405471802e-01" nType="0">
        <Node pos="l" depth="1" NCoef="0" IVar="7" Cut="-9.5415425300598145e-01" cType="1" res="-1.2019087560474873e-02" rms="4.5760044455528259e-01" purity="4.5772862434387207e-01" nType="0">
          <Node pos="l" depth="2" NCoef="0" IVar="-1" Cut="0.0000000000000000e+00" cType="1" res="1.1620124569162726e-03" rms="4.6879109740257263e-01" purity="5.6856161355972290e-01" nType="-99"/>
          <Node pos="r" depth="2" NCoef="0" IVar="-1" Cut="0.0000000000000000e+00" cType="1" res="-2.0588405895978212e-03" rms="4.4875442981719971e-01" purity="3.8866499066352844e-01" nType="-99"/>
        </Node>
        <Node pos="r" depth="1" NCoef="0" IVar="2" Cut="8.4981346130371094e+01" cType="1" res="5.3777091205120087e-02" rms="4.5445871353149414e-01" purity="6.2313514947891235e-01" nType="0">
          <Node pos="l" depth="2" NCoef="0" IVar="-1" Cut="0.0000000000000000e+00" cType="1" res="7.2773126885294914e-04" rms="4.6682158112525940e-01" purity="5.5373251438140869e-01" nType="-99"/>
          <Node pos="r" depth="2" NCoef="0" IVar="-1" Cut="0.0000000000000000e+00" cType="1" res="3.4597183112055063e-03" rms="4.3806064128875732e-01" purity="6.9490236043930054e-01" nType="-99"/>
        </Node>
      </Node>
    </BinaryTree>
    <BinaryTree type="DecisionTree" boostWeight="1.0000000000000000e+00" itree="193">
      <Node pos="s" depth="0" NCoef="0" IVar="3" Cut="1.1286311340332031e+02" cType="1" res="6.6519351676106453e-03" rms="4.5831406116485596e-01" purity="4.9993422627449036e-01" nType="0">
        <Node pos="l" depth="1" NCoef="0" IVar="3" Cut="1.0076766204833984e+02" cType="1" res="-4.2653284966945648e-02" rms="4.5507964491844177e-01" purity="4.1273602843284607e-01" nType="0">
          <Node pos="l" depth="2" NCoef="0" IVar="-1" Cut="0.0000000000000000e+00" cType="1" res="-5.3128874860703945e-03" rms="4.4302600622177124e-01" purity="3.3387479186058044e-01" nType="-99"/>
          <Node pos="r" depth="2" NCoef="0" IVar="-1" Cut="0.0000000000000000e+00" cType="1" res="-1.0251019848510623e-03" rms="4.5966884493827820e-01" purity="4.5413467288017273e-01" nType="-99"/>
        </Node>
        <Node pos="r" depth="1" NCoef="0" IVar="0" Cut="2.3475131988525391e+00" cType="1" res="1.6993327066302299e-02" rms="4.5831713080406189e-01" purity="5.1822346448898315e-01" nType="0">
          <Node pos="l" depth="2" NCoef="0" IVar="-1" Cut="0.0000000000000000e+00" cType="1" res="1.0179728269577026e-03" rms="4.6143487095832825e-01" purity="5.3778636455535889e-01" nType="-99"/>
          <Node pos="r" depth="2" NCoef="0" IVar="-1" Cut="0.0000000000000000e+00" cType="1" res="-6.6863242536783218e-03" rms="3.9674991369247437e-01" purity="2.2004640102386475e-01" nType="-99"/>
        </Node>
      </Node>
    </BinaryTree>
    <BinaryTree type="DecisionTree" boostWeight="1.0000000000000000e+00" itree="194">
      <Node pos="s" depth="0" NCoef="0" IVar="7" Cut="1.1423878669738770e+00" cType="1" res="8.7759168818593025e-03" rms="4.5821255445480347e-01" purity="5.0269740819931030e-01" nType="0">
        <Node pos="l" depth="1" NCoef="0" IVar="7" Cut="-9.5411157608032227e-01" cType="1" res="-4.6932469122111797e-03" rms="4.5767149329185486e-01" purity="4.6842491626739502e-01" nType="0">
          <Node pos="l" depth="2" NCoef="0" IVar="-1" Cut="0.0000000000000000e+00" cType="1" res="1.3890895061194897e-03" rms="4.6777051687240601e-01" purity="5.7491588592529297e-01" nType="-99"/>
          <Node pos="r" depth="2" NCoef="0" IVar="-1" Cut="0.0000000000000000e+00" cType="1" res="-1.6168528236448765e-03" rms="4.4924175739288330e-01" purity="3.9883476495742798e-01" nType="-99"/>
        </Node>
        <Node pos="r" depth="1" NCoef="0" IVar="2" Cut="6.7958435058593750e+01" cType="1" res="5.6239590048789978e-02" rms="4.5696052908897400e-01" purity="6.2346923351287842e-01" nType="0">
          <Node pos="l" depth="2" NCoef="0" IVar="-1" Cut="0.0000000000000000e+00" cType="1" res="-2.2198296210262924e-04" rms="4.7233811020851135e-01" purity="5.0515466928482056e-01" nType="-99"/>
          <Node pos="r" depth="2" NCoef="0" IVar="-1" Cut="0.0000000000000000e+00" cType="1" res="3.3835296053439379e-03" rms="4.4508001208305359e-01" purity="6.8674266338348389e-01" nType="-99"/>
        </Node>
      </Node>
    </BinaryTree>
    <BinaryTree type="DecisionTree" boostWeight="1.0000000000000000e+00" itree="195">
      <Node pos="s" depth="0" NCoef="0" IVar="1" Cut="9.7902673482894897e-01" cType="1" res="1.3203541748225689e-02" rms="4.5709341764450073e-01" purity="5.0678920745849609e-01" nType="0">
        <Node pos="l" depth="1" NCoef="0" IVar="1" Cut="9.1608154773712158e-01" cType="1" res="1.5274924226105213e-03" rms="4.6001923084259033e-01" purity="4.6565479040145874e-01" nType="0">
          <Node pos="l" depth="2" NCoef="0" IVar="-1" Cut="0.0000000000000000e+00" cType="1" res="-4.1009639389812946e-03" rms="4.2401561141014099e-01" purity="2.9290318489074707e-01" nType="-99"/>
          <Node pos="r" depth="2" NCoef="0" IVar="-1" Cut="0.0000000000000000e+00" cType="1" res="4.8507531755603850e-04" rms="4.6378692984580994e-01" purity="4.8812735080718994e-01" nType="-99"/>
        </Node>
        <Node pos="r" depth="1" NCoef="0" IVar="1" Cut="9.8444896936416626e-01" cType="1" res="6.4297802746295929e-02" rms="4.4043734669685364e-01" purity="6.8679308891296387e-01" nType="0">
          <Node pos="l" depth="2" NCoef="0" IVar="-1" Cut="0.0000000000000000e+00" cType="1" res="1.1112238280475140e-03" rms="4.5600476861000061e-01" purity="6.4079606533050537e-01" nType="-99"/>
          <Node pos="r" depth="2" NCoef="0" IVar="-1" Cut="0.0000000000000000e+00" cType="1" res="3.1318292021751404e-03" rms="4.3172678351402283e-01" purity="7.0855134725570679e-01" nType="-99"/>
        </Node>
      </Node>
    </BinaryTree>
    <BinaryTree type="DecisionTree" boostWeight="1.0000000000000000e+00" itree="196">
      <Node pos="s" depth="0" NCoef="0" IVar="7" Cut="1.1423803567886353e+00" cType="1" res="9.3352003023028374e-03" rms="4.6048143506050110e-01" purity="5.0056570768356323e-01" nType="0">
        <Node pos="l" depth="1" NCoef="0" IVar="5" Cut="1.5257513523101807e+00" cType="1" res="-4.1444078087806702e-03" rms="4.6004301309585571e-01" purity="4.6504396200180054e-01" nType="0">
          <Node pos="l" depth="2" NCoef="0" IVar="-1" Cut="0.0000000000000000e+00" cType="1" res="3.8706342456862330e-04" rms="4.6391177177429199e-01" purity="4.9719446897506714e-01" nType="-99"/>
          <Node pos="r" depth="2" NCoef="0" IVar="-1" Cut="0.0000000000000000e+00" cType="1" res="-2.5812783278524876e-03" rms="4.4491890072822571e-01" purity="3.6075899004936218e-01" nType="-99"/>
        </Node>
        <Node pos="r" depth="1" NCoef="0" IVar="2" Cut="7.8761665344238281e+01" cType="1" res="5.6043684482574463e-02" rms="4.5894479751586914e-01" purity="6.2365287542343140e-01" nType="0">
          <Node pos="l" depth="2" NCoef="0" IVar="-1" Cut="0.0000000000000000e+00" cType="1" res="1.1490273755043745e-03" rms="4.7381922602653503e-01" purity="5.5340766906738281e-01" nType="-99"/>
          <Node pos="r" depth="2" NCoef="0" IVar="-1" Cut="0.0000000000000000e+00" cType="1" res="3.0697099864482880e-03" rms="4.4505488872528076e-01" purity="6.8089509010314941e-01" nType="-99"/>
        </Node>
      </Node>
    </BinaryTree>
    <BinaryTree type="DecisionTree" boostWeight="1.0000000000000000e+00" itree="197">
      <Node pos="s" depth="0" NCoef="0" IVar="1" Cut="9.8571515083312988e-01" cType="1" res="5.5066742934286594e-03" rms="4.5754089951515198e-01" purity="4.9872532486915588e-01" nType="0">
        <Node pos="l" depth="1" NCoef="0" IVar="3" Cut="1.0671610260009766e+02" cType="1" res="-2.9284404590725899e-03" rms="4.5905643701553345e-01" purity="4.7303560376167297e-01" nType="0">
          <Node pos="l" depth="2" NCoef="0" IVar="-1" Cut="0.0000000000000000e+00" cType="1" res="-4.6324827708303928e-03" rms="4.4427341222763062e-01" purity="3.3545958995819092e-01" nType="-99"/>
          <Node pos="r" depth="2" NCoef="0" IVar="-1" Cut="0.0000000000000000e+00" cType="1" res="2.4076753470581025e-04" rms="4.6000495553016663e-01" purity="4.8848611116409302e-01" nType="-99"/>
        </Node>
        <Node pos="r" depth="1" NCoef="0" IVar="-1" Cut="0.0000000000000000e+00" cType="1" res="2.7400390245020390e-03" rms="4.4012469053268433e-01" purity="6.9825273752212524e-01" nType="-99"/>
      </Node>
    </BinaryTree>
    <BinaryTree type="DecisionTree" boostWeight="1.0000000000000000e+00" itree="198">
      <Node pos="s" depth="0" NCoef="0" IVar="1" Cut="9.7908627986907959e-01" cType="1" res="1.4051552861928940e-02" rms="4.5778355002403259e-01" purity="5.0724792480468750e-01" nType="0">
        <Node pos="l" depth="1" NCoef="0" IVar="6" Cut="3.2809652709960938e+02" cType="1" res="1.5086234780028462e-03" rms="4.6191480755805969e-01" purity="4.6321433782577515e-01" nType="0">
          <Node pos="l" depth="2" NCoef="0" IVar="-1" Cut="0.0000000000000000e+00" cType="1" res="-3.6593973636627197e-03" rms="4.3368160724639893e-01" purity="2.8056359291076660e-01" nType="-99"/>
          <Node pos="r" depth="2" NCoef="0" IVar="-1" Cut="0.0000000000000000e+00" cType="1" res="4.8426596913486719e-04" rms="4.6608093380928040e-01" purity="4.9506813287734985e-01" nType="-99"/>
        </Node>
        <Node pos="r" depth="1" NCoef="0" IVar="5" Cut="1.3124125003814697e+00" cType="1" res="6.7783467471599579e-02" rms="4.3557816743850708e-01" purity="6.9588071107864380e-01" nType="0">
          <Node pos="l" depth="2" NCoef="0" IVar="-1" Cut="0.0000000000000000e+00" cType="1" res="3.2721543684601784e-03" rms="4.2382979393005371e-01" purity="7.3448359966278076e-01" nType="-99"/>
          <Node pos="r" depth="2" NCoef="0" IVar="-1" Cut="0.0000000000000000e+00" cType="1" res="1.5904958127066493e-03" rms="4.5238026976585388e-01" purity="6.3363069295883179e-01" nType="-99"/>
        </Node>
      </Node>
    </BinaryTree>
    <BinaryTree type="DecisionTree" boostWeight="1.0000000000000000e+00" itree="199">
      <Node pos="s" depth="0" NCoef="0" IVar="5" Cut="1.5258821249008179e+00" cType="1" res="8.0310543999075890e-03" rms="4.5828607678413391e-01" purity="5.0084358453750610e-01" nType="0">
        <Node pos="l" depth="1" NCoef="0" IVar="1" Cut="9.7240096330642700e-01" cType="1" res="2.0796062424778938e-02" rms="4.6049982309341431e-01" purity="5.3297406435012817e-01" nType="0">
          <Node pos="l" depth="2" NCoef="0" IVar="-1" Cut="0.0000000000000000e+00" cType="1" res="2.8461872716434300e-04" rms="4.6656289696693420e-01" purity="4.7341644763946533e-01" nType="-99"/>
          <Node pos="r" depth="2" NCoef="0" IVar="-1" Cut="0.0000000000000000e+00" cType="1" res="2.3805364035069942e-03" rms="4.4167727231979370e-01" purity="6.9043058156967163e-01" nType="-99"/>
        </Node>
        <Node pos="r" depth="1" NCoef="0" IVar="2" Cut="9.1050697326660156e+01" cType="1" res="-3.8772292435169220e-02" rms="4.4696816802024841e-01" purity="3.8303610682487488e-01" nType="0">
          <Node pos="l" depth="2" NCoef="0" IVar="-1" Cut="0.0000000000000000e+00" cType="1" res="-4.3194559402763844e-03" rms="4.4340288639068604e-01" purity="3.4103065729141235e-01" nType="-99"/>
          <Node pos="r" depth="2" NCoef="0" IVar="-1" Cut="0.0000000000000000e+00" cType="1" res="1.8402848218102008e-04" rms="4.4785675406455994e-01" purity="4.3600827455520630e-01" nType="-99"/>
        </Node>
      </Node>
    </BinaryTree>
    <BinaryTree type="DecisionTree" boostWeight="1.0000000000000000e+00" itree="200">
      <Node pos="s" depth="0" NCoef="0" IVar="7" Cut="-1.2851752042770386e+00" cType="1" res="5.4198005236685276e-03" rms="4.5724636316299438e-01" purity="4.9812293052673340e-01" nType="0">
        <Node pos="l" depth="1" NCoef="0" IVar="7" Cut="-1.4279897212982178e+00" cType="1" res="6.5524220466613770e-02" rms="4.5818054676055908e-01" purity="6.3038784265518188e-01" nType="0">
          <Node pos="l" depth="2" NCoef="0" IVar="-1" Cut="0.0000000000000000e+00" cType="1" res="3.4815890248864889e-03" rms="4.5426350831985474e-01" purity="6.5904593467712402e-01" nType="-99"/>
          <Node pos="r" depth="2" NCoef="0" IVar="-1" Cut="0.0000000000000000e+00" cType="1" res="1.6777955461293459e-03" rms="4.6082463860511780e-01" purity="6.0085976123809814e-01" nType="-99"/>
        </Node>
        <Node pos="r" depth="1" NCoef="0" IVar="7" Cut="1.1813524961471558e+00" cType="1" res="-5.1770298741757870e-03" rms="4.5626118779182434e-01" purity="4.7480368614196777e-01" nType="0">
          <Node pos="l" depth="2" NCoef="0" IVar="-1" Cut="0.0000000000000000e+00" cType="1" res="-1.2587994569912553e-03" rms="4.5639857649803162e-01" purity="4.2599520087242126e-01" nType="-99"/>
          <Node pos="r" depth="2" NCoef="0" IVar="-1" Cut="0.0000000000000000e+00" cType="1" res="2.2088282275944948e-03" rms="4.5065075159072876e-01" purity="6.3042026758193970e-01" nType="-99"/>
        </Node>
      </Node>
    </BinaryTree>
    <BinaryTree type="DecisionTree" boostWeight="1.0000000000000000e+00" itree="201">
      <Node pos="s" depth="0" NCoef="0" IVar="7" Cut="-9.9953472614288330e-01" cType="1" res="1.2742134742438793e-02" rms="4.5782855153083801e-01" purity="5.0660067796707153e-01" nType="0">
        <Node pos="l" depth="1" NCoef="0" IVar="2" Cut="7.7970817565917969e+01" cType="1" res="5.0791360437870026e-02" rms="4.6398943662643433e-01" purity="5.9883862733840942e-01" nType="0">
          <Node pos="l" depth="2" NCoef="0" IVar="-1" Cut="0.0000000000000000e+00" cType="1" res="1.0080038337036967e-03" rms="4.7766974568367004e-01" purity="5.3918755054473877e-01" nType="-99"/>
          <Node pos="r" depth="2" NCoef="0" IVar="-1" Cut="0.0000000000000000e+00" cType="1" res="2.9870555736124516e-03" rms="4.4993919134140015e-01" purity="6.5226012468338013e-01" nType="-99"/>
        </Node>
        <Node pos="r" depth="1" NCoef="0" IVar="7" Cut="9.8662471771240234e-01" cType="1" res="-2.2871915716677904e-03" rms="4.5449528098106384e-01" purity="4.7016695141792297e-01" nType="0">
          <Node pos="l" depth="2" NCoef="0" IVar="-1" Cut="0.0000000000000000e+00" cType="1" res="-1.9678128883242607e-03" rms="4.4730791449546814e-01" purity="3.8105666637420654e-01" nType="-99"/>
          <Node pos="r" depth="2" NCoef="0" IVar="-1" Cut="0.0000000000000000e+00" cType="1" res="1.8385067814961076e-03" rms="4.6077537536621094e-01" purity="6.0005545616149902e-01" nType="-99"/>
        </Node>
      </Node>
    </BinaryTree>
    <BinaryTree type="DecisionTree" boostWeight="1.0000000000000000e+00" itree="202">
      <Node pos="s" depth="0" NCoef="0" IVar="3" Cut="1.4146928405761719e+02" cType="1" res="8.3968788385391235e-03" rms="4.5860287547111511e-01" purity="5.0301593542098999e-01" nType="0">
        <Node pos="l" depth="1" NCoef="0" IVar="2" Cut="9.0620376586914062e+01" cType="1" res="1.4618644490838051e-02" rms="4.5953527092933655e-01" purity="5.1701295375823975e-01" nType="0">
          <Node pos="l" depth="2" NCoef="0" IVar="-1" Cut="0.0000000000000000e+00" cType="1" res="-4.2972146184183657e-04" rms="4.6517202258110046e-01" purity="4.8372960090637207e-01" nType="-99"/>
          <Node pos="r" depth="2" NCoef="0" IVar="-1" Cut="0.0000000000000000e+00" cType="1" res="1.7875614576041698e-03" rms="4.5206362009048462e-01" purity="5.5258190631866455e-01" nType="-99"/>
        </Node>
        <Node pos="r" depth="1" NCoef="0" IVar="-1" Cut="0.0000000000000000e+00" cType="1" res="-5.1401462405920029e-03" rms="4.3683218955993652e-01" purity="3.1146866083145142e-01" nType="-99"/>
      </Node>
    </BinaryTree>
    <BinaryTree type="DecisionTree" boostWeight="1.0000000000000000e+00" itree="203">
      <Node pos="s" depth="0" NCoef="0" IVar="3" Cut="1.4146928405761719e+02" cType="1" res="4.8889922909438610e-03" rms="4.5734906196594238e-01" purity="4.9884083867073059e-01" nType="0">
        <Node pos="l" depth="1" NCoef="0" IVar="1" Cut="9.7905790805816650e-01" cType="1" res="1.1571276932954788e-02" rms="4.5867335796356201e-01" purity="5.1330345869064331e-01" nType="0">
          <Node pos="l" depth="2" NCoef="0" IVar="-1" Cut="0.0000000000000000e+00" cType="1" res="-3.4529195545474067e-05" rms="4.6193283796310425e-01" purity="4.6896481513977051e-01" nType="-99"/>
          <Node pos="r" depth="2" NCoef="0" IVar="-1" Cut="0.0000000000000000e+00" cType="1" res="2.4615912698209286e-03" rms="4.4135189056396484e-01" purity="6.9643890857696533e-01" nType="-99"/>
        </Node>
        <Node pos="r" depth="1" NCoef="0" IVar="-1" Cut="0.0000000000000000e+00" cType="1" res="-5.8473506942391396e-03" rms="4.2875868082046509e-01" purity="3.0232378840446472e-01" nType="-99"/>
      </Node>
    </BinaryTree>
    <BinaryTree type="DecisionTree" boostWeight="1.0000000000000000e+00" itree="204">
      <Node pos="s" depth="0" NCoef="0" IVar="4" Cut="2.7210600376129150e+00" cType="1" res="8.2680117338895798e-03" rms="4.5696309208869934e-01" purity="5.0284695625305176e-01" nType="0">
        <Node pos="l" depth="1" NCoef="0" IVar="2" Cut="9.1050697326660156e+01" cType="1" res="1.5510818921029568e-02" rms="4.6273389458656311e-01" purity="5.3046119213104248e-01" nType="0">
          <Node pos="l" depth="2" NCoef="0" IVar="-1" Cut="0.0000000000000000e+00" cType="1" res="-2.8723670402541757e-04" rms="4.6734663844108582e-01" purity="4.9430420994758606e-01" nType="-99"/>
          <Node pos="r" depth="2" NCoef="0" IVar="-1" Cut="0.0000000000000000e+00" cType="1" res="1.7965019214898348e-03" rms="4.5581737160682678e-01" purity="5.7360899448394775e-01" nType="-99"/>
        </Node>
        <Node pos="r" depth="1" NCoef="0" IVar="-1" Cut="0.0000000000000000e+00" cType="1" res="-6.4669353887438774e-03" rms="3.8057294487953186e-01" purity="2.0472304522991180e-01" nType="-99"/>
      </Node>
    </BinaryTree>
    <BinaryTree type="DecisionTree" boostWeight="1.0000000000000000e+00" itree="205">
      <Node pos="s" depth="0" NCoef="0" IVar="2" Cut="8.7950469970703125e+01" cType="1" res="4.5563448220491409e-03" rms="4.5704895257949829e-01" purity="4.9984967708587646e-01" nType="0">
        <Node pos="l" depth="1" NCoef="0" IVar="2" Cut="3.8960933685302734e+01" cType="1" res="-2.1161351352930069e-02" rms="4.6261179447174072e-01" purity="4.6115830540657043e-01" nType="0">
          <Node pos="l" depth="2" NCoef="0" IVar="-1" Cut="0.0000000000000000e+00" cType="1" res="-5.8327089063823223e-03" rms="4.3775483965873718e-01" purity="3.1607037782669067e-01" nType="-99"/>
          <Node pos="r" depth="2" NCoef="0" IVar="-1" Cut="0.0000000000000000e+00" cType="1" res="-1.7152771761175245e-04" rms="4.6653690934181213e-01" purity="4.9523621797561646e-01" nType="-99"/>
        </Node>
        <Node pos="r" depth="1" NCoef="0" IVar="0" Cut="1.5867024660110474e+00" cType="1" res="3.0429504811763763e-02" rms="4.4990229606628418e-01" purity="5.3877490758895874e-01" nType="0">
          <Node pos="l" depth="2" NCoef="0" IVar="-1" Cut="0.0000000000000000e+00" cType="1" res="3.6299997009336948e-03" rms="4.3764033913612366e-01" purity="6.9726115465164185e-01" nType="-99"/>
          <Node pos="r" depth="2" NCoef="0" IVar="-1" Cut="0.0000000000000000e+00" cType="1" res="-1.4002637472003698e-03" rms="4.5253920555114746e-01" purity="4.0564793348312378e-01" nType="-99"/>
        </Node>
      </Node>
    </BinaryTree>
    <BinaryTree type="DecisionTree" boostWeight="1.0000000000000000e+00" itree="206">
      <Node pos="s" depth="0" NCoef="0" IVar="7" Cut="-9.9958115816116333e-01" cType="1" res="2.2645255085080862e-03" rms="4.5666536688804626e-01" purity="4.9642592668533325e-01" nType="0">
        <Node pos="l" depth="1" NCoef="0" IVar="0" Cut="1.5708225965499878e+00" cType="1" res="3.9376623928546906e-02" rms="4.6545469760894775e-01" purity="5.9034824371337891e-01" nType="0">
          <Node pos="l" depth="2" NCoef="0" IVar="-1" Cut="0.0000000000000000e+00" cType="1" res="2.1218333858996630e-03" rms="4.6218305826187134e-01" purity="6.1474579572677612e-01" nType="-99"/>
          <Node pos="r" depth="2" NCoef="0" IVar="-1" Cut="0.0000000000000000e+00" cType="1" res="1.6522113583050668e-04" rms="4.7263532876968384e-01" purity="5.2223449945449829e-01" nType="-99"/>
        </Node>
        <Node pos="r" depth="1" NCoef="0" IVar="7" Cut="9.8662000894546509e-01" cType="1" res="-1.2221096083521843e-02" rms="4.5236307382583618e-01" purity="4.5976606011390686e-01" nType="0">
          <Node pos="l" depth="2" NCoef="0" IVar="-1" Cut="0.0000000000000000e+00" cType="1" res="-2.2668365854769945e-03" rms="4.4516751170158386e-01" purity="3.7561440467834473e-01" nType="-99"/>
          <Node pos="r" depth="2" NCoef="0" IVar="-1" Cut="0.0000000000000000e+00" cType="1" res="1.1517622042447329e-03" rms="4.5984634757041931e-01" purity="5.8264291286468506e-01" nType="-99"/>
        </Node>
      </Node>
    </BinaryTree>
    <BinaryTree type="DecisionTree" boostWeight="1.0000000000000000e+00" itree="207">
      <Node pos="s" depth="0" NCoef="0" IVar="3" Cut="1.3993351745605469e+02" cType="1" res="1.4218918047845364e-02" rms="4.5917642116546631e-01" purity="5.0696575641632080e-01" nType="0">
        <Node pos="l" depth="1" NCoef="0" IVar="7" Cut="9.9959301948547363e-01" cType="1" res="2.0653251558542252e-02" rms="4.5993882417678833e-01" purity="5.2228689193725586e-01" nType="0">
          <Node pos="l" depth="2" NCoef="0" IVar="-1" Cut="0.0000000000000000e+00" cType="1" res="3.4417421557009220e-04" rms="4.5823612809181213e-01" purity="4.8409876227378845e-01" nType="-99"/>
          <Node pos="r" depth="2" NCoef="0" IVar="-1" Cut="0.0000000000000000e+00" cType="1" res="2.2026863880455494e-03" rms="4.6242132782936096e-01" purity="6.1684370040893555e-01" nType="-99"/>
        </Node>
        <Node pos="r" depth="1" NCoef="0" IVar="-1" Cut="0.0000000000000000e+00" cType="1" res="-3.6762014497071505e-03" rms="4.4418892264366150e-01" purity="3.3505767583847046e-01" nType="-99"/>
      </Node>
    </BinaryTree>
    <BinaryTree type="DecisionTree" boostWeight="1.0000000000000000e+00" itree="208">
      <Node pos="s" depth="0" NCoef="0" IVar="5" Cut="1.5190137624740601e+00" cType="1" res="2.8446628712117672e-03" rms="4.5654836297035217e-01" purity="4.9653276801109314e-01" nType="0">
        <Node pos="l" depth="1" NCoef="0" IVar="0" Cut="1.5896896123886108e+00" cType="1" res="1.6230087727308273e-02" rms="4.5990866422653198e-01" purity="5.3057569265365601e-01" nType="0">
          <Node pos="l" depth="2" NCoef="0" IVar="-1" Cut="0.0000000000000000e+00" cType="1" res="1.4164968160912395e-03" rms="4.5914462208747864e-01" purity="5.8481514453887939e-01" nType="-99"/>
          <Node pos="r" depth="2" NCoef="0" IVar="-1" Cut="0.0000000000000000e+00" cType="1" res="-8.4173382492735982e-04" rms="4.5959830284118652e-01" purity="4.3060716986656189e-01" nType="-99"/>
        </Node>
        <Node pos="r" depth="1" NCoef="0" IVar="8" Cut="2.5829278564453125e+02" cType="1" res="-4.4122666120529175e-02" rms="4.4135710597038269e-01" purity="3.7708151340484619e-01" nType="0">
          <Node pos="l" depth="2" NCoef="0" IVar="-1" Cut="0.0000000000000000e+00" cType="1" res="-5.8669218560680747e-04" rms="4.5114973187446594e-01" purity="4.3890133500099182e-01" nType="-99"/>
          <Node pos="r" depth="2" NCoef="0" IVar="-1" Cut="0.0000000000000000e+00" cType="1" res="-5.5231456644833088e-03" rms="4.2629116773605347e-01" purity="3.0407813191413879e-01" nType="-99"/>
        </Node>
      </Node>
    </BinaryTree>
    <BinaryTree type="DecisionTree" boostWeight="1.0000000000000000e+00" itree="209">
      <Node pos="s" depth="0" NCoef="0" IVar="1" Cut="9.8571515083312988e-01" cType="1" res="4.6373545192182064e-03" rms="4.5794436335563660e-01" purity="4.9969252943992615e-01" nType="0">
        <Node pos="l" depth="1" NCoef="0" IVar="7" Cut="-1.4279800653457642e+00" cType="1" res="-3.5095692146569490e-03" rms="4.5932188630104065e-01" purity="4.7446346282958984e-01" nType="0">
          <Node pos="l" depth="2" NCoef="0" IVar="-1" Cut="0.0000000000000000e+00" cType="1" res="2.8039605822414160e-03" rms="4.5803558826446533e-01" purity="6.3309985399246216e-01" nType="-99"/>
          <Node pos="r" depth="2" NCoef="0" IVar="-1" Cut="0.0000000000000000e+00" cType="1" res="-4.7372956760227680e-04" rms="4.5889565348625183e-01" purity="4.6153554320335388e-01" nType="-99"/>
        </Node>
        <Node pos="r" depth="1" NCoef="0" IVar="-1" Cut="0.0000000000000000e+00" cType="1" res="2.7004922740161419e-03" rms="4.4173005223274231e-01" purity="6.9835412502288818e-01" nType="-99"/>
      </Node>
    </BinaryTree>
    <BinaryTree type="DecisionTree" boostWeight="1.0000000000000000e+00" itree="210">
      <Node pos="s" depth="0" NCoef="0" IVar="3" Cut="1.4146928405761719e+02" cType="1" res="2.1808901801705360e-03" rms="4.5761683583259583e-01" purity="4.9542316794395447e-01" nType="0">
        <Node pos="l" depth="1" NCoef="0" IVar="7" Cut="-1.2850838899612427e+00" cType="1" res="8.4542259573936462e-03" rms="4.5899724960327148e-01" purity="5.0994342565536499e-01" nType="0">
          <Node pos="l" depth="2" NCoef="0" IVar="-1" Cut="0.0000000000000000e+00" cType="1" res="2.5515255983918905e-03" rms="4.5731770992279053e-01" purity="6.3710498809814453e-01" nType="-99"/>
          <Node pos="r" depth="2" NCoef="0" IVar="-1" Cut="0.0000000000000000e+00" cType="1" res="-4.8733792937127873e-05" rms="4.5861619710922241e-01" purity="4.8817524313926697e-01" nType="-99"/>
        </Node>
        <Node pos="r" depth="1" NCoef="0" IVar="-1" Cut="0.0000000000000000e+00" cType="1" res="-5.8831376954913139e-03" rms="4.2923355102539062e-01" purity="2.9703459143638611e-01" nType="-99"/>
      </Node>
    </BinaryTree>
    <BinaryTree type="DecisionTree" boostWeight="1.0000000000000000e+00" itree="211">
      <Node pos="s" depth="0" NCoef="0" IVar="1" Cut="9.1941165924072266e-01" cType="1" res="5.0478712655603886e-03" rms="4.5571148395538330e-01" purity="5.0080209970474243e-01" nType="0">
        <Node pos="l" depth="1" NCoef="0" IVar="7" Cut="-2.8590503334999084e-01" cType="1" res="-6.8070732057094574e-02" rms="4.2288339138031006e-01" purity="2.8484135866165161e-01" nType="0">
          <Node pos="l" depth="2" NCoef="0" IVar="-1" Cut="0.0000000000000000e+00" cType="1" res="-2.9789449181407690e-03" rms="4.3209546804428101e-01" purity="3.1470137834548950e-01" nType="-99"/>
          <Node pos="r" depth="2" NCoef="0" IVar="-1" Cut="0.0000000000000000e+00" cType="1" res="-6.1703845858573914e-03" rms="4.1369372606277466e-01" purity="2.5814399123191833e-01" nType="-99"/>
        </Node>
        <Node pos="r" depth="1" NCoef="0" IVar="0" Cut="1.8720489740371704e+00" cType="1" res="1.4158784411847591e-02" rms="4.5882207155227661e-01" purity="5.2771180868148804e-01" nType="0">
          <Node pos="l" depth="2" NCoef="0" IVar="-1" Cut="0.0000000000000000e+00" cType="1" res="1.1626789346337318e-03" rms="4.6144151687622070e-01" purity="5.7033652067184448e-01" nType="-99"/>
          <Node pos="r" depth="2" NCoef="0" IVar="-1" Cut="0.0000000000000000e+00" cType="1" res="-2.5352260563522577e-03" rms="4.4340562820434570e-01" purity="3.4640300273895264e-01" nType="-99"/>
        </Node>
      </Node>
    </BinaryTree>
    <BinaryTree type="DecisionTree" boostWeight="1.0000000000000000e+00" itree="212">
      <Node pos="s" depth="0" NCoef="0" IVar="2" Cut="6.3319942474365234e+01" cType="1" res="6.9054202176630497e-03" rms="4.5725601911544800e-01" purity="5.0032091140747070e-01" nType="0">
        <Node pos="l" depth="1" NCoef="0" IVar="8" Cut="2.1905490112304688e+02" cType="1" res="-3.0280176550149918e-02" rms="4.6315628290176392e-01" purity="4.2851874232292175e-01" nType="0">
          <Node pos="l" depth="2" NCoef="0" IVar="-1" Cut="0.0000000000000000e+00" cType="1" res="-5.0609378376975656e-04" rms="4.6589979529380798e-01" purity="4.6111041307449341e-01" nType="-99"/>
          <Node pos="r" depth="2" NCoef="0" IVar="-1" Cut="0.0000000000000000e+00" cType="1" res="-4.3872063979506493e-03" rms="4.5372763276100159e-01" purity="3.5512611269950867e-01" nType="-99"/>
        </Node>
        <Node pos="r" depth="1" NCoef="0" IVar="0" Cut="1.2880148887634277e+00" cType="1" res="2.2895526140928268e-02" rms="4.5375937223434448e-01" purity="5.3119641542434692e-01" nType="0">
          <Node pos="l" depth="2" NCoef="0" IVar="-1" Cut="0.0000000000000000e+00" cType="1" res="2.8303491417318583e-03" rms="4.4204938411712646e-01" purity="6.7357236146926880e-01" nType="-99"/>
          <Node pos="r" depth="2" NCoef="0" IVar="-1" Cut="0.0000000000000000e+00" cType="1" res="-5.4015148634789512e-05" rms="4.5727518200874329e-01" purity="4.6354177594184875e-01" nType="-99"/>
        </Node>
      </Node>
    </BinaryTree>
    <BinaryTree type="DecisionTree" boostWeight="1.0000000000000000e+00" itree="213">
      <Node pos="s" depth="0" NCoef="0" IVar="6" Cut="4.8863708496093750e+02" cType="1" res="8.6275311186909676e-03" rms="4.5691728591918945e-01" purity="5.0234466791152954e-01" nType="0">
        <Node pos="l" depth="1" NCoef="0" IVar="5" Cut="1.0275951623916626e+00" cType="1" res="-1.4455555006861687e-02" rms="4.5422670245170593e-01" purity="4.3525555729866028e-01" nType="0">
          <Node pos="l" depth="2" NCoef="0" IVar="-1" Cut="0.0000000000000000e+00" cType="1" res="1.8107115756720304e-03" rms="4.6819952130317688e-01" purity="5.4509317874908447e-01" nType="-99"/>
          <Node pos="r" depth="2" NCoef="0" IVar="-1" Cut="0.0000000000000000e+00" cType="1" res="-1.6656293300911784e-03" rms="4.4895797967910767e-01" purity="4.0402102470397949e-01" nType="-99"/>
        </Node>
        <Node pos="r" depth="1" NCoef="0" IVar="0" Cut="1.4371957778930664e+00" cType="1" res="3.3269450068473816e-02" rms="4.5849150419235229e-01" purity="5.7396447658538818e-01" nType="0">
          <Node pos="l" depth="2" NCoef="0" IVar="-1" Cut="0.0000000000000000e+00" cType="1" res="2.3176332470029593e-03" rms="4.4912251830101013e-01" purity="6.4454758167266846e-01" nType="-99"/>
          <Node pos="r" depth="2" NCoef="0" IVar="-1" Cut="0.0000000000000000e+00" cType="1" res="-2.2574578179046512e-04" rms="4.6907860040664673e-01" purity="4.7232273221015930e-01" nType="-99"/>
        </Node>
      </Node>
    </BinaryTree>
    <BinaryTree type="DecisionTree" boostWeight="1.0000000000000000e+00" itree="214">
      <Node pos="s" depth="0" NCoef="0" IVar="0" Cut="1.5868281126022339e+00" cType="1" res="9.6911126747727394e-03" rms="4.5508250594139099e-01" purity="5.0639563798904419e-01" nType="0">
        <Node pos="l" depth="1" NCoef="0" IVar="2" Cut="9.2804252624511719e+01" cType="1" res="2.6737933978438377e-02" rms="4.5773097872734070e-01" purity="5.5867260694503784e-01" nType="0">
          <Node pos="l" depth="2" NCoef="0" IVar="-1" Cut="0.0000000000000000e+00" cType="1" res="-1.6123622481245548e-04" rms="4.6331965923309326e-01" purity="4.9671068787574768e-01" nType="-99"/>
          <Node pos="r" depth="2" NCoef="0" IVar="-1" Cut="0.0000000000000000e+00" cType="1" res="3.5817099269479513e-03" rms="4.3661931157112122e-01" purity="7.0184791088104248e-01" nType="-99"/>
        </Node>
        <Node pos="r" depth="1" NCoef="0" IVar="7" Cut="9.9916130304336548e-01" cType="1" res="-2.3183604702353477e-02" rms="4.4810342788696289e-01" purity="4.0557983517646790e-01" nType="0">
          <Node pos="l" depth="2" NCoef="0" IVar="-1" Cut="0.0000000000000000e+00" cType="1" res="-2.5932099670171738e-03" rms="4.4080442190170288e-01" purity="3.5853195190429688e-01" nType="-99"/>
          <Node pos="r" depth="2" NCoef="0" IVar="-1" Cut="0.0000000000000000e+00" cType="1" res="1.8650330603122711e-03" rms="4.6698522567749023e-01" purity="5.7252675294876099e-01" nType="-99"/>
        </Node>
      </Node>
    </BinaryTree>
    <BinaryTree type="DecisionTree" boostWeight="1.0000000000000000e+00" itree="215">
      <Node pos="s" depth="0" NCoef="0" IVar="8" Cut="5.0754754638671875e+02" cType="1" res="5.9797111898660660e-03" rms="4.5744842290878296e-01" purity="4.9913427233695984e-01" nType="0">
        <Node pos="l" depth="1" NCoef="0" IVar="6" Cut="4.4943029785156250e+02" cType="1" res="1.2069252319633961e-02" rms="4.5836117863655090e-01" purity="5.1182132959365845e-01" nType="0">
          <Node pos="l" depth="2" NCoef="0" IVar="-1" Cut="0.0000000000000000e+00" cType="1" res="-7.3506566695868969e-04" rms="4.5616045594215393e-01" purity="4.2363762855529785e-01" nType="-99"/>
          <Node pos="r" depth="2" NCoef="0" IVar="-1" Cut="0.0000000000000000e+00" cType="1" res="1.4332556165754795e-03" rms="4.5909368991851807e-01" purity="5.8752626180648804e-01" nType="-99"/>
        </Node>
        <Node pos="r" depth="1" NCoef="0" IVar="-1" Cut="0.0000000000000000e+00" cType="1" res="-4.0910895913839340e-03" rms="4.3987914919853210e-01" purity="3.4725373983383179e-01" nType="-99"/>
      </Node>
    </BinaryTree>
    <BinaryTree type="DecisionTree" boostWeight="1.0000000000000000e+00" itree="216">
      <Node pos="s" depth="0" NCoef="0" IVar="7" Cut="-8.5678100585937500e-01" cType="1" res="4.5114499516785145e-03" rms="4.5609408617019653e-01" purity="4.9919191002845764e-01" nType="0">
        <Node pos="l" depth="1" NCoef="0" IVar="2" Cut="7.5760940551757812e+01" cType="1" res="3.7878174334764481e-02" rms="4.6089240908622742e-01" purity="5.7839906215667725e-01" nType="0">
          <Node pos="l" depth="2" NCoef="0" IVar="-1" Cut="0.0000000000000000e+00" cType="1" res="9.8522934422362596e-05" rms="4.7120374441146851e-01" purity="5.1014482975006104e-01" nType="-99"/>
          <Node pos="r" depth="2" NCoef="0" IVar="-1" Cut="0.0000000000000000e+00" cType="1" res="2.5872814003378153e-03" rms="4.5152634382247925e-01" purity="6.2779617309570312e-01" nType="-99"/>
        </Node>
        <Node pos="r" depth="1" NCoef="0" IVar="7" Cut="7.9826694726943970e-01" cType="1" res="-1.3466395437717438e-02" rms="4.5246887207031250e-01" purity="4.5651546120643616e-01" nType="0">
          <Node pos="l" depth="2" NCoef="0" IVar="-1" Cut="0.0000000000000000e+00" cType="1" res="-2.9679911676794291e-03" rms="4.3712922930717468e-01" purity="3.4085065126419067e-01" nType="-99"/>
          <Node pos="r" depth="2" NCoef="0" IVar="-1" Cut="0.0000000000000000e+00" cType="1" res="6.0175382532179356e-04" rms="4.6233019232749939e-01" purity="5.4707467555999756e-01" nType="-99"/>
        </Node>
      </Node>
    </BinaryTree>
    <BinaryTree type="DecisionTree" boostWeight="1.0000000000000000e+00" itree="217">
      <Node pos="s" depth="0" NCoef="0" IVar="7" Cut="-1.2851244211196899e+00" cType="1" res="6.4529017545282841e-03" rms="4.5708480477333069e-01" purity="4.9986332654953003e-01" nType="0">
        <Node pos="l" depth="1" NCoef="0" IVar="2" Cut="8.4889457702636719e+01" cType="1" res="6.1276577413082123e-02" rms="4.5794159173965454e-01" purity="6.3199454545974731e-01" nType="0">
          <Node pos="l" depth="2" NCoef="0" IVar="-1" Cut="0.0000000000000000e+00" cType="1" res="1.8614807631820440e-03" rms="4.7285526990890503e-01" purity="5.8952724933624268e-01" nType="-99"/>
          <Node pos="r" depth="2" NCoef="0" IVar="-1" Cut="0.0000000000000000e+00" cType="1" res="3.0751915182918310e-03" rms="4.3924421072006226e-01" purity="6.8137222528457642e-01" nType="-99"/>
        </Node>
        <Node pos="r" depth="1" NCoef="0" IVar="7" Cut="9.2172533273696899e-01" cType="1" res="-3.2378884498029947e-03" rms="4.5624855160713196e-01" purity="4.7650748491287231e-01" nType="0">
          <Node pos="l" depth="2" NCoef="0" IVar="-1" Cut="0.0000000000000000e+00" cType="1" res="-1.2262307573109865e-03" rms="4.5141306519508362e-01" purity="4.1673129796981812e-01" nType="-99"/>
          <Node pos="r" depth="2" NCoef="0" IVar="-1" Cut="0.0000000000000000e+00" cType="1" res="1.2658535270020366e-03" rms="4.6241667866706848e-01" purity="5.7685041427612305e-01" nType="-99"/>
        </Node>
      </Node>
    </BinaryTree>
    <BinaryTree type="DecisionTree" boostWeight="1.0000000000000000e+00" itree="218">
      <Node pos="s" depth="0" NCoef="0" IVar="1" Cut="9.1366451978683472e-01" cType="1" res="7.1551688015460968e-03" rms="4.6041682362556458e-01" purity="4.9797174334526062e-01" nType="0">
        <Node pos="l" depth="1" NCoef="0" IVar="-1" Cut="0.0000000000000000e+00" cType="1" res="-4.2527713812887669e-03" rms="4.3052154779434204e-01" purity="2.8135958313941956e-01" nType="-99"/>
        <Node pos="r" depth="1" NCoef="0" IVar="8" Cut="2.5782583618164062e+02" cType="1" res="1.3172353617846966e-02" rms="4.6237859129905701e-01" purity="5.1644194126129150e-01" nType="0">
          <Node pos="l" depth="2" NCoef="0" IVar="-1" Cut="0.0000000000000000e+00" cType="1" res="1.2136511504650116e-03" rms="4.6563920378684998e-01" purity="5.4955941438674927e-01" nType="-99"/>
          <Node pos="r" depth="2" NCoef="0" IVar="-1" Cut="0.0000000000000000e+00" cType="1" res="-6.0844642575830221e-04" rms="4.5555964112281799e-01" purity="4.5871642231941223e-01" nType="-99"/>
        </Node>
      </Node>
    </BinaryTree>
    <BinaryTree type="DecisionTree" boostWeight="1.0000000000000000e+00" itree="219">
      <Node pos="s" depth="0" NCoef="0" IVar="2" Cut="6.4206054687500000e+01" cType="1" res="8.3856191486120224e-03" rms="4.5735931396484375e-01" purity="5.0234067440032959e-01" nType="0">
        <Node pos="l" depth="1" NCoef="0" IVar="2" Cut="3.3291179656982422e+01" cType="1" res="-2.4056857451796532e-02" rms="4.6532514691352844e-01" purity="4.3285650014877319e-01" nType="0">
          <Node pos="l" depth="2" NCoef="0" IVar="-1" Cut="0.0000000000000000e+00" cType="1" res="-4.8696696758270264e-03" rms="4.4384533166885376e-01" purity="3.2540518045425415e-01" nType="-99"/>
          <Node pos="r" depth="2" NCoef="0" IVar="-1" Cut="0.0000000000000000e+00" cType="1" res="-5.8912148233503103e-04" rms="4.6928161382675171e-01" purity="4.5755389332771301e-01" nType="-99"/>
        </Node>
        <Node pos="r" depth="1" NCoef="0" IVar="0" Cut="9.8867559432983398e-01" cType="1" res="2.2912543267011642e-02" rms="4.5299458503723145e-01" purity="5.3345400094985962e-01" nType="0">
          <Node pos="l" depth="2" NCoef="0" IVar="-1" Cut="0.0000000000000000e+00" cType="1" res="4.3446756899356842e-03" rms="4.1823974251747131e-01" purity="7.3518604040145874e-01" nType="-99"/>
          <Node pos="r" depth="2" NCoef="0" IVar="-1" Cut="0.0000000000000000e+00" cType="1" res="2.9740048921667039e-04" rms="4.5661798119544983e-01" purity="4.9873980879783630e-01" nType="-99"/>
        </Node>
      </Node>
    </BinaryTree>
    <BinaryTree type="DecisionTree" boostWeight="1.0000000000000000e+00" itree="220">
      <Node pos="s" depth="0" NCoef="0" IVar="6" Cut="2.8264495849609375e+02" cType="1" res="6.8457825109362602e-03" rms="4.5695865154266357e-01" purity="4.9939116835594177e-01" nType="0">
        <Node pos="l" depth="1" NCoef="0" IVar="-1" Cut="0.0000000000000000e+00" cType="1" res="-8.2044992595911026e-03" rms="4.0504109859466553e-01" purity="2.3006118834018707e-01" nType="-99"/>
        <Node pos="r" depth="1" NCoef="0" IVar="0" Cut="2.0353212356567383e+00" cType="1" res="1.2804348953068256e-02" rms="4.5905920863151550e-01" purity="5.1489633321762085e-01" nType="0">
          <Node pos="l" depth="2" NCoef="0" IVar="-1" Cut="0.0000000000000000e+00" cType="1" res="9.4915513182058930e-04" rms="4.6335721015930176e-01" purity="5.5101931095123291e-01" nType="-99"/>
          <Node pos="r" depth="2" NCoef="0" IVar="-1" Cut="0.0000000000000000e+00" cType="1" res="-2.9719474259763956e-03" rms="4.2767611145973206e-01" purity="2.9286712408065796e-01" nType="-99"/>
        </Node>
      </Node>
    </BinaryTree>
    <BinaryTree type="DecisionTree" boostWeight="1.0000000000000000e+00" itree="221">
      <Node pos="s" depth="0" NCoef="0" IVar="3" Cut="1.3423814392089844e+02" cType="1" res="5.6481850333511829e-04" rms="4.5615026354789734e-01" purity="4.9698612093925476e-01" nType="0">
        <Node pos="l" depth="1" NCoef="0" IVar="2" Cut="5.1391178131103516e+01" cType="1" res="1.1747722513973713e-02" rms="4.5717784762382507e-01" purity="5.1969861984252930e-01" nType="0">
          <Node pos="l" depth="2" NCoef="0" IVar="-1" Cut="0.0000000000000000e+00" cType="1" res="-1.8033377127721906e-03" rms="4.5946323871612549e-01" purity="4.1372767090797424e-01" nType="-99"/>
          <Node pos="r" depth="2" NCoef="0" IVar="-1" Cut="0.0000000000000000e+00" cType="1" res="1.0674219811335206e-03" rms="4.5583450794219971e-01" purity="5.4666948318481445e-01" nType="-99"/>
        </Node>
        <Node pos="r" depth="1" NCoef="0" IVar="7" Cut="-7.1400922536849976e-01" cType="1" res="-6.5836355090141296e-02" rms="4.4423943758010864e-01" purity="3.6212539672851562e-01" nType="0">
          <Node pos="l" depth="2" NCoef="0" IVar="-1" Cut="0.0000000000000000e+00" cType="1" res="-1.9550626166164875e-03" rms="4.6076601743698120e-01" purity="4.3620085716247559e-01" nType="-99"/>
          <Node pos="r" depth="2" NCoef="0" IVar="-1" Cut="0.0000000000000000e+00" cType="1" res="-5.4771318100392818e-03" rms="4.3266358971595764e-01" purity="3.1592595577239990e-01" nType="-99"/>
        </Node>
      </Node>
    </BinaryTree>
    <BinaryTree type="DecisionTree" boostWeight="1.0000000000000000e+00" itree="222">
      <Node pos="s" depth="0" NCoef="0" IVar="7" Cut="-1.1423647403717041e+00" cType="1" res="1.4986691530793905e-03" rms="4.5543625950813293e-01" purity="4.9617376923561096e-01" nType="0">
        <Node pos="l" depth="1" NCoef="0" IVar="7" Cut="-1.3954876661300659e+00" cType="1" res="4.4572513550519943e-02" rms="4.6214687824249268e-01" purity="6.0835546255111694e-01" nType="0">
          <Node pos="l" depth="2" NCoef="0" IVar="-1" Cut="0.0000000000000000e+00" cType="1" res="2.7473105583339930e-03" rms="4.5674759149551392e-01" purity="6.4801180362701416e-01" nType="-99"/>
          <Node pos="r" depth="2" NCoef="0" IVar="-1" Cut="0.0000000000000000e+00" cType="1" res="1.0336725972592831e-03" rms="4.6527010202407837e-01" purity="5.7786124944686890e-01" nType="-99"/>
        </Node>
        <Node pos="r" depth="1" NCoef="0" IVar="8" Cut="2.8144006347656250e+02" cType="1" res="-1.0766335763037205e-02" rms="4.5275837182998657e-01" purity="4.6423071622848511e-01" nType="0">
          <Node pos="l" depth="2" NCoef="0" IVar="-1" Cut="0.0000000000000000e+00" cType="1" res="3.9271666901186109e-04" rms="4.5695090293884277e-01" purity="5.0489795207977295e-01" nType="-99"/>
          <Node pos="r" depth="2" NCoef="0" IVar="-1" Cut="0.0000000000000000e+00" cType="1" res="-2.8900564648211002e-03" rms="4.4145956635475159e-01" purity="3.8082394003868103e-01" nType="-99"/>
        </Node>
      </Node>
    </BinaryTree>
    <BinaryTree type="DecisionTree" boostWeight="1.0000000000000000e+00" itree="223">
      <Node pos="s" depth="0" NCoef="0" IVar="6" Cut="2.9458425903320312e+02" cType="1" res="6.7484709434211254e-03" rms="4.5734855532646179e-01" purity="5.0190466642379761e-01" nType="0">
        <Node pos="l" depth="1" NCoef="0" IVar="-1" Cut="0.0000000000000000e+00" cType="1" res="-5.6482129730284214e-03" rms="4.1455113887786865e-01" purity="2.6378136873245239e-01" nType="-99"/>
        <Node pos="r" depth="1" NCoef="0" IVar="3" Cut="1.3422140502929688e+02" cType="1" res="1.3016529381275177e-02" rms="4.5995819568634033e-01" purity="5.2062124013900757e-01" nType="0">
          <Node pos="l" depth="2" NCoef="0" IVar="-1" Cut="0.0000000000000000e+00" cType="1" res="1.0089548304677010e-03" rms="4.6143680810928345e-01" purity="5.4158657789230347e-01" nType="-99"/>
          <Node pos="r" depth="2" NCoef="0" IVar="-1" Cut="0.0000000000000000e+00" cType="1" res="-2.2815749980509281e-03" rms="4.4757169485092163e-01" purity="4.0088030695915222e-01" nType="-99"/>
        </Node>
      </Node>
    </BinaryTree>
    <BinaryTree type="DecisionTree" boostWeight="1.0000000000000000e+00" itree="224">
      <Node pos="s" depth="0" NCoef="0" IVar="8" Cut="5.0712728881835938e+02" cType="1" res="4.7473879531025887e-03" rms="4.5678180456161499e-01" purity="4.9810761213302612e-01" nType="0">
        <Node pos="l" depth="1" NCoef="0" IVar="3" Cut="1.3486070251464844e+02" cType="1" res="1.1397891677916050e-02" rms="4.5844271779060364e-01" purity="5.1165431737899780e-01" nType="0">
          <Node pos="l" depth="2" NCoef="0" IVar="-1" Cut="0.0000000000000000e+00" cType="1" res="9.1125693870708346e-04" rms="4.5873954892158508e-01" purity="5.3094869852066040e-01" nType="-99"/>
          <Node pos="r" depth="2" NCoef="0" IVar="-1" Cut="0.0000000000000000e+00" cType="1" res="-2.5366677436977625e-03" rms="4.5250022411346436e-01" purity="3.8526406884193420e-01" nType="-99"/>
        </Node>
        <Node pos="r" depth="1" NCoef="0" IVar="-1" Cut="0.0000000000000000e+00" cType="1" res="-4.8593743704259396e-03" rms="4.2771038413047791e-01" purity="3.3260509371757507e-01" nType="-99"/>
      </Node>
    </BinaryTree>
    <BinaryTree type="DecisionTree" boostWeight="1.0000000000000000e+00" itree="225">
      <Node pos="s" depth="0" NCoef="0" IVar="1" Cut="9.7908627986907959e-01" cType="1" res="3.7098997272551060e-03" rms="4.5595037937164307e-01" purity="4.9685543775558472e-01" nType="0">
        <Node pos="l" depth="1" NCoef="0" IVar="2" Cut="6.3133754730224609e+01" cType="1" res="-6.8959845229983330e-03" rms="4.5834118127822876e-01" purity="4.5446553826332092e-01" nType="0">
          <Node pos="l" depth="2" NCoef="0" IVar="-1" Cut="0.0000000000000000e+00" cType="1" res="-2.2092226427048445e-03" rms="4.5953181385993958e-01" purity="3.8393554091453552e-01" nType="-99"/>
          <Node pos="r" depth="2" NCoef="0" IVar="-1" Cut="0.0000000000000000e+00" cType="1" res="3.9696510066278279e-04" rms="4.5699948072433472e-01" purity="4.8628014326095581e-01" nType="-99"/>
        </Node>
        <Node pos="r" depth="1" NCoef="0" IVar="5" Cut="1.1443018913269043e+00" cType="1" res="4.9653597176074982e-02" rms="4.4251957535743713e-01" purity="6.8048429489135742e-01" nType="0">
          <Node pos="l" depth="2" NCoef="0" IVar="-1" Cut="0.0000000000000000e+00" cType="1" res="3.2915193587541580e-03" rms="4.1608345508575439e-01" purity="7.4726116657257080e-01" nType="-99"/>
          <Node pos="r" depth="2" NCoef="0" IVar="-1" Cut="0.0000000000000000e+00" cType="1" res="1.0582926915958524e-03" rms="4.5881146192550659e-01" purity="6.3296419382095337e-01" nType="-99"/>
        </Node>
      </Node>
    </BinaryTree>
    <BinaryTree type="DecisionTree" boostWeight="1.0000000000000000e+00" itree="226">
      <Node pos="s" depth="0" NCoef="0" IVar="0" Cut="1.5818867683410645e+00" cType="1" res="4.8534413799643517e-03" rms="4.5760121941566467e-01" purity="4.9876210093498230e-01" nType="0">
        <Node pos="l" depth="1" NCoef="0" IVar="2" Cut="1.0293611907958984e+02" cType="1" res="2.1668551489710808e-02" rms="4.6025165915489197e-01" purity="5.5264258384704590e-01" nType="0">
          <Node pos="l" depth="2" NCoef="0" IVar="-1" Cut="0.0000000000000000e+00" cType="1" res="3.9477279642596841e-05" rms="4.6473306417465210e-01" purity="5.0776231288909912e-01" nType="-99"/>
          <Node pos="r" depth="2" NCoef="0" IVar="-1" Cut="0.0000000000000000e+00" cType="1" res="3.3869359176605940e-03" rms="4.3833088874816895e-01" purity="6.9996953010559082e-01" nType="-99"/>
        </Node>
        <Node pos="r" depth="1" NCoef="0" IVar="5" Cut="1.3284368515014648e+00" cType="1" res="-2.6423638686537743e-02" rms="4.5096531510353088e-01" purity="3.9854130148887634e-01" nType="0">
          <Node pos="l" depth="2" NCoef="0" IVar="-1" Cut="0.0000000000000000e+00" cType="1" res="-3.8195596425794065e-04" rms="4.6710559725761414e-01" purity="4.5266157388687134e-01" nType="-99"/>
          <Node pos="r" depth="2" NCoef="0" IVar="-1" Cut="0.0000000000000000e+00" cType="1" res="-4.1605969890952110e-03" rms="4.1883933544158936e-01" purity="3.0293715000152588e-01" nType="-99"/>
        </Node>
      </Node>
    </BinaryTree>
    <BinaryTree type="DecisionTree" boostWeight="1.0000000000000000e+00" itree="227">
      <Node pos="s" depth="0" NCoef="0" IVar="6" Cut="5.0618783569335938e+02" cType="1" res="1.0426804423332214e-02" rms="4.5537385344505310e-01" purity="5.0583744049072266e-01" nType="0">
        <Node pos="l" depth="1" NCoef="0" IVar="1" Cut="9.7310125827789307e-01" cType="1" res="-9.6523072570562363e-03" rms="4.5306438207626343e-01" purity="4.4434443116188049e-01" nType="0">
          <Node pos="l" depth="2" NCoef="0" IVar="-1" Cut="0.0000000000000000e+00" cType="1" res="-1.4144799206405878e-03" rms="4.5239698886871338e-01" purity="3.8149589300155640e-01" nType="-99"/>
          <Node pos="r" depth="2" NCoef="0" IVar="-1" Cut="0.0000000000000000e+00" cType="1" res="1.5399915864691138e-03" rms="4.5193254947662354e-01" purity="6.3462579250335693e-01" nType="-99"/>
        </Node>
        <Node pos="r" depth="1" NCoef="0" IVar="2" Cut="1.5137916564941406e+02" cType="1" res="3.4926071763038635e-02" rms="4.5698255300521851e-01" purity="5.8086729049682617e-01" nType="0">
          <Node pos="l" depth="2" NCoef="0" IVar="-1" Cut="0.0000000000000000e+00" cType="1" res="2.0751536358147860e-03" rms="4.5348528027534485e-01" purity="6.2019634246826172e-01" nType="-99"/>
          <Node pos="r" depth="2" NCoef="0" IVar="-1" Cut="0.0000000000000000e+00" cType="1" res="-9.5809076447039843e-04" rms="4.6415811777114868e-01" purity="4.5336815714836121e-01" nType="-99"/>
        </Node>
      </Node>
    </BinaryTree>
    <BinaryTree type="DecisionTree" boostWeight="1.0000000000000000e+00" itree="228">
      <Node pos="s" depth="0" NCoef="0" IVar="3" Cut="1.4146928405761719e+02" cType="1" res="5.5774613283574581e-03" rms="4.5517769455909729e-01" purity="4.9972125887870789e-01" nType="0">
        <Node pos="l" depth="1" NCoef="0" IVar="3" Cut="9.8820259094238281e+01" cType="1" res="1.1505013331770897e-02" rms="4.5640343427658081e-01" purity="5.1395553350448608e-01" nType="0">
          <Node pos="l" depth="2" NCoef="0" IVar="-1" Cut="0.0000000000000000e+00" cType="1" res="-5.4401443339884281e-03" rms="4.3048733472824097e-01" purity="3.2927027344703674e-01" nType="-99"/>
          <Node pos="r" depth="2" NCoef="0" IVar="-1" Cut="0.0000000000000000e+00" cType="1" res="7.9258641926571727e-04" rms="4.5722115039825439e-01" purity="5.2466416358947754e-01" nType="-99"/>
        </Node>
        <Node pos="r" depth="1" NCoef="0" IVar="-1" Cut="0.0000000000000000e+00" cType="1" res="-5.5680582299828529e-03" rms="4.2811644077301025e-01" purity="2.9460719227790833e-01" nType="-99"/>
      </Node>
    </BinaryTree>
    <BinaryTree type="DecisionTree" boostWeight="1.0000000000000000e+00" itree="229">
      <Node pos="s" depth="0" NCoef="0" IVar="5" Cut="1.2381664514541626e+00" cType="1" res="5.0322404131293297e-03" rms="4.5618894696235657e-01" purity="4.9891933798789978e-01" nType="0">
        <Node pos="l" depth="1" NCoef="0" IVar="2" Cut="8.4981346130371094e+01" cType="1" res="3.0939595773816109e-02" rms="4.5920002460479736e-01" purity="5.6166774034500122e-01" nType="0">
          <Node pos="l" depth="2" NCoef="0" IVar="-1" Cut="0.0000000000000000e+00" cType="1" res="1.7945682338904589e-04" rms="4.6868690848350525e-01" purity="5.2378380298614502e-01" nType="-99"/>
          <Node pos="r" depth="2" NCoef="0" IVar="-1" Cut="0.0000000000000000e+00" cType="1" res="2.2072030697017908e-03" rms="4.5076748728752136e-01" purity="5.9048724174499512e-01" nType="-99"/>
        </Node>
        <Node pos="r" depth="1" NCoef="0" IVar="0" Cut="1.2821853160858154e+00" cType="1" res="-1.9709749147295952e-02" rms="4.5191022753715515e-01" purity="4.3899348378181458e-01" nType="0">
          <Node pos="l" depth="2" NCoef="0" IVar="-1" Cut="0.0000000000000000e+00" cType="1" res="2.1549637313000858e-04" rms="4.5781672000885010e-01" purity="5.0141716003417969e-01" nType="-99"/>
          <Node pos="r" depth="2" NCoef="0" IVar="-1" Cut="0.0000000000000000e+00" cType="1" res="-2.8383929748088121e-03" rms="4.4341939687728882e-01" purity="3.6755260825157166e-01" nType="-99"/>
        </Node>
      </Node>
    </BinaryTree>
    <BinaryTree type="DecisionTree" boostWeight="1.0000000000000000e+00" itree="230">
      <Node pos="s" depth="0" NCoef="0" IVar="3" Cut="1.4146928405761719e+02" cType="1" res="6.4865336753427982e-03" rms="4.5456117391586304e-01" purity="5.0094461441040039e-01" nType="0">
        <Node pos="l" depth="1" NCoef="0" IVar="5" Cut="1.7018414735794067e+00" cType="1" res="1.2258708477020264e-02" rms="4.5595753192901611e-01" purity="5.1568293571472168e-01" nType="0">
          <Node pos="l" depth="2" NCoef="0" IVar="-1" Cut="0.0000000000000000e+00" cType="1" res="8.9222838869318366e-04" rms="4.5671156048774719e-01" purity="5.3387165069580078e-01" nType="-99"/>
          <Node pos="r" depth="2" NCoef="0" IVar="-1" Cut="0.0000000000000000e+00" cType="1" res="-3.1995340250432491e-03" rms="4.4388633966445923e-01" purity="3.5439625382423401e-01" nType="-99"/>
        </Node>
        <Node pos="r" depth="1" NCoef="0" IVar="-1" Cut="0.0000000000000000e+00" cType="1" res="-5.0237453542649746e-03" rms="4.2737498879432678e-01" purity="3.0003839731216431e-01" nType="-99"/>
      </Node>
    </BinaryTree>
    <BinaryTree type="DecisionTree" boostWeight="1.0000000000000000e+00" itree="231">
      <Node pos="s" depth="0" NCoef="0" IVar="8" Cut="4.0598880004882812e+02" cType="1" res="4.1388202225789428e-04" rms="4.5723786950111389e-01" purity="4.9427372217178345e-01" nType="0">
        <Node pos="l" depth="1" NCoef="0" IVar="6" Cut="5.2937585449218750e+02" cType="1" res="8.4266765043139458e-03" rms="4.5905449986457825e-01" purity="5.1334291696548462e-01" nType="0">
          <Node pos="l" depth="2" NCoef="0" IVar="-1" Cut="0.0000000000000000e+00" cType="1" res="-3.1354554812423885e-04" rms="4.5892435312271118e-01" purity="4.6340519189834595e-01" nType="-99"/>
          <Node pos="r" depth="2" NCoef="0" IVar="-1" Cut="0.0000000000000000e+00" cType="1" res="1.5509618679061532e-03" rms="4.5794931054115295e-01" purity="6.1164361238479614e-01" nType="-99"/>
        </Node>
        <Node pos="r" depth="1" NCoef="0" IVar="0" Cut="1.2923184633255005e+00" cType="1" res="-4.8988018184900284e-02" rms="4.4268205761909485e-01" purity="3.7670469284057617e-01" nType="0">
          <Node pos="l" depth="2" NCoef="0" IVar="-1" Cut="0.0000000000000000e+00" cType="1" res="-3.8361086626537144e-04" rms="4.5627799630165100e-01" purity="4.9753272533416748e-01" nType="-99"/>
          <Node pos="r" depth="2" NCoef="0" IVar="-1" Cut="0.0000000000000000e+00" cType="1" res="-5.3560594096779823e-03" rms="4.3143114447593689e-01" purity="2.9729977250099182e-01" nType="-99"/>
        </Node>
      </Node>
    </BinaryTree>
    <BinaryTree type="DecisionTree" boostWeight="1.0000000000000000e+00" itree="232">
      <Node pos="s" depth="0" NCoef="0" IVar="1" Cut="9.2707663774490356e-01" cType="1" res="9.5949871465563774e-03" rms="4.5541921257972717e-01" purity="5.0355720520019531e-01" nType="0">
        <Node pos="l" depth="1" NCoef="0" IVar="5" Cut="1.1373993158340454e+00" cType="1" res="-4.4175356626510620e-02" rms="4.3733084201812744e-01" purity="3.1442332267761230e-01" nType="0">
          <Node pos="l" depth="2" NCoef="0" IVar="-1" Cut="0.0000000000000000e+00" cType="1" res="2.4019283591769636e-04" rms="4.6967267990112305e-01" purity="3.9459234476089478e-01" nType="-99"/>
          <Node pos="r" depth="2" NCoef="0" IVar="-1" Cut="0.0000000000000000e+00" cType="1" res="-4.4866227544844151e-03" rms="4.2016452550888062e-01" purity="2.7840870618820190e-01" nType="-99"/>
        </Node>
        <Node pos="r" depth="1" NCoef="0" IVar="2" Cut="1.7439335632324219e+02" cType="1" res="2.0142164081335068e-02" rms="4.5814388990402222e-01" purity="5.4065620899200439e-01" nType="0">
          <Node pos="l" depth="2" NCoef="0" IVar="-1" Cut="0.0000000000000000e+00" cType="1" res="1.2964097550138831e-03" rms="4.5880210399627686e-01" purity="5.5740499496459961e-01" nType="-99"/>
          <Node pos="r" depth="2" NCoef="0" IVar="-1" Cut="0.0000000000000000e+00" cType="1" res="-4.0223621763288975e-03" rms="4.4215428829193115e-01" purity="3.8057422637939453e-01" nType="-99"/>
        </Node>
      </Node>
    </BinaryTree>
    <BinaryTree type="DecisionTree" boostWeight="1.0000000000000000e+00" itree="233">
      <Node pos="s" depth="0" NCoef="0" IVar="2" Cut="5.7335525512695312e+01" cType="1" res="1.2167693348601460e-03" rms="4.5553687214851379e-01" purity="4.9502283334732056e-01" nType="0">
        <Node pos="l" depth="1" NCoef="0" IVar="4" Cut="2.2553670406341553e+00" cType="1" res="-3.5400211811065674e-02" rms="4.6049159765243530e-01" purity="4.0735948085784912e-01" nType="0">
          <Node pos="l" depth="2" NCoef="0" IVar="-1" Cut="0.0000000000000000e+00" cType="1" res="-7.1283720899373293e-04" rms="4.7611936926841736e-01" purity="4.6914258599281311e-01" nType="-99"/>
          <Node pos="r" depth="2" NCoef="0" IVar="-1" Cut="0.0000000000000000e+00" cType="1" res="-5.5235307663679123e-03" rms="4.2295515537261963e-01" purity="2.7881512045860291e-01" nType="-99"/>
        </Node>
        <Node pos="r" depth="1" NCoef="0" IVar="0" Cut="1.1381822824478149e+00" cType="1" res="1.2982591055333614e-02" rms="4.5330587029457092e-01" purity="5.2319097518920898e-01" nType="0">
          <Node pos="l" depth="2" NCoef="0" IVar="-1" Cut="0.0000000000000000e+00" cType="1" res="2.6457342319190502e-03" rms="4.4233652949333191e-01" purity="6.6493010520935059e-01" nType="-99"/>
          <Node pos="r" depth="2" NCoef="0" IVar="-1" Cut="0.0000000000000000e+00" cType="1" res="-2.0882309763692319e-04" rms="4.5537856221199036e-01" purity="4.7827139496803284e-01" nType="-99"/>
        </Node>
      </Node>
    </BinaryTree>
    <BinaryTree type="DecisionTree" boostWeight="1.0000000000000000e+00" itree="234">
      <Node pos="s" depth="0" NCoef="0" IVar="8" Cut="2.8144006347656250e+02" cType="1" res="6.8169785663485527e-03" rms="4.5784419775009155e-01" purity="5.0022464990615845e-01" nType="0">
        <Node pos="l" depth="1" NCoef="0" IVar="2" Cut="9.4947555541992188e+01" cType="1" res="2.0181847736239433e-02" rms="4.6201190352439880e-01" purity="5.3176414966583252e-01" nType="0">
          <Node pos="l" depth="2" NCoef="0" IVar="-1" Cut="0.0000000000000000e+00" cType="1" res="-7.2568203904666007e-05" rms="4.6746262907981873e-01" purity="4.9286067485809326e-01" nType="-99"/>
          <Node pos="r" depth="2" NCoef="0" IVar="-1" Cut="0.0000000000000000e+00" cType="1" res="2.4353263434022665e-03" rms="4.5032811164855957e-01" purity="5.9726715087890625e-01" nType="-99"/>
        </Node>
        <Node pos="r" depth="1" NCoef="0" IVar="1" Cut="9.4164484739303589e-01" cType="1" res="-2.2892273962497711e-02" rms="4.4701176881790161e-01" purity="4.3011426925659180e-01" nType="0">
          <Node pos="l" depth="2" NCoef="0" IVar="-1" Cut="0.0000000000000000e+00" cType="1" res="-5.2560493350028992e-03" rms="4.1300863027572632e-01" purity="2.6985704898834229e-01" nType="-99"/>
          <Node pos="r" depth="2" NCoef="0" IVar="-1" Cut="0.0000000000000000e+00" cType="1" res="-1.0744059181888588e-05" rms="4.5985490083694458e-01" purity="5.0295174121856689e-01" nType="-99"/>
        </Node>
      </Node>
    </BinaryTree>
    <BinaryTree type="DecisionTree" boostWeight="1.0000000000000000e+00" itree="235">
      <Node pos="s" depth="0" NCoef="0" IVar="1" Cut="9.4594198465347290e-01" cType="1" res="4.7870939597487450e-03" rms="4.5667853951454163e-01" purity="4.9899807572364807e-01" nType="0">
        <Node pos="l" depth="1" NCoef="0" IVar="6" Cut="5.8475872802734375e+02" cType="1" res="-2.0973406732082367e-02" rms="4.5019257068634033e-01" purity="3.6859697103500366e-01" nType="0">
          <Node pos="l" depth="2" NCoef="0" IVar="-1" Cut="0.0000000000000000e+00" cType="1" res="-2.3426816333085299e-03" rms="4.4027993083000183e-01" purity="3.2526975870132446e-01" nType="-99"/>
          <Node pos="r" depth="2" NCoef="0" IVar="-1" Cut="0.0000000000000000e+00" cType="1" res="7.8916084021329880e-04" rms="4.6983426809310913e-01" purity="4.6729862689971924e-01" nType="-99"/>
        </Node>
        <Node pos="r" depth="1" NCoef="0" IVar="5" Cut="1.7107681035995483e+00" cType="1" res="1.9524062052369118e-02" rms="4.5969924330711365e-01" purity="5.7359737157821655e-01" nType="0">
          <Node pos="l" depth="2" NCoef="0" IVar="-1" Cut="0.0000000000000000e+00" cType="1" res="1.1038932716473937e-03" rms="4.5858213305473328e-01" purity="5.8925014734268188e-01" nType="-99"/>
          <Node pos="r" depth="2" NCoef="0" IVar="-1" Cut="0.0000000000000000e+00" cType="1" res="-2.2247061133384705e-03" rms="4.6651491522789001e-01" purity="4.1594371199607849e-01" nType="-99"/>
        </Node>
      </Node>
    </BinaryTree>
    <BinaryTree type="DecisionTree" boostWeight="1.0000000000000000e+00" itree="236">
      <Node pos="s" depth="0" NCoef="0" IVar="1" Cut="9.2023909091949463e-01" cType="1" res="8.1050051376223564e-03" rms="4.5717084407806396e-01" purity="5.0196754932403564e-01" nType="0">
        <Node pos="l" depth="1" NCoef="0" IVar="7" Cut="-2.8529247641563416e-01" cType="1" res="-4.9125269055366516e-02" rms="4.2534852027893066e-01" purity="3.0341771245002747e-01" nType="0">
          <Node pos="l" depth="2" NCoef="0" IVar="-1" Cut="0.0000000000000000e+00" cType="1" res="-1.6292217187583447e-03" rms="4.3494117259979248e-01" purity="3.3441528677940369e-01" nType="-99"/>
          <Node pos="r" depth="2" NCoef="0" IVar="-1" Cut="0.0000000000000000e+00" cType="1" res="-4.6824086457490921e-03" rms="4.1588476300239563e-01" purity="2.7631896734237671e-01" nType="-99"/>
        </Node>
        <Node pos="r" depth="1" NCoef="0" IVar="7" Cut="9.9958729743957520e-01" cType="1" res="1.5584230422973633e-02" rms="4.6064233779907227e-01" purity="5.2791529893875122e-01" nType="0">
          <Node pos="l" depth="2" NCoef="0" IVar="-1" Cut="0.0000000000000000e+00" cType="1" res="1.3458503235597163e-04" rms="4.6027633547782898e-01" purity="4.8926138877868652e-01" nType="-99"/>
          <Node pos="r" depth="2" NCoef="0" IVar="-1" Cut="0.0000000000000000e+00" cType="1" res="1.9340466242283583e-03" rms="4.6001926064491272e-01" purity="6.2308633327484131e-01" nType="-99"/>
        </Node>
      </Node>
    </BinaryTree>
    <BinaryTree type="DecisionTree" boostWeight="1.0000000000000000e+00" itree="237">
      <Node pos="s" depth="0" NCoef="0" IVar="8" Cut="2.8144006347656250e+02" cType="1" res="8.3098508184775710e-04" rms="4.5254349708557129e-01" purity="4.9560287594795227e-01" nType="0">
        <Node pos="l" depth="1" NCoef="0" IVar="2" Cut="3.9017032623291016e+01" cType="1" res="1.6601903364062309e-02" rms="4.5646524429321289e-01" purity="5.3190577030181885e-01" nType="0">
          <Node pos="l" depth="2" NCoef="0" IVar="-1" Cut="0.0000000000000000e+00" cType="1" res="-4.2942808941006660e-03" rms="4.4515278935432434e-01" purity="3.4421551227569580e-01" nType="-99"/>
          <Node pos="r" depth="2" NCoef="0" IVar="-1" Cut="0.0000000000000000e+00" cType="1" res="1.2455483665689826e-03" rms="4.5664915442466736e-01" purity="5.5598789453506470e-01" nType="-99"/>
        </Node>
        <Node pos="r" depth="1" NCoef="0" IVar="7" Cut="7.1225261688232422e-01" cType="1" res="-3.5078372806310654e-02" rms="4.4138732552528381e-01" purity="4.1294360160827637e-01" nType="0">
          <Node pos="l" depth="2" NCoef="0" IVar="-1" Cut="0.0000000000000000e+00" cType="1" res="-3.4877278376370668e-03" rms="4.2795488238334656e-01" purity="3.6525616049766541e-01" nType="-99"/>
          <Node pos="r" depth="2" NCoef="0" IVar="-1" Cut="0.0000000000000000e+00" cType="1" res="3.2437540357932448e-04" rms="4.6213304996490479e-01" purity="5.0055354833602905e-01" nType="-99"/>
        </Node>
      </Node>
    </BinaryTree>
    <BinaryTree type="DecisionTree" boostWeight="1.0000000000000000e+00" itree="238">
      <Node pos="s" depth="0" NCoef="0" IVar="4" Cut="2.2005615234375000e+00" cType="1" res="9.0572210028767586e-03" rms="4.5466041564941406e-01" purity="5.0329142808914185e-01" nType="0">
        <Node pos="l" depth="1" NCoef="0" IVar="3" Cut="1.0794435882568359e+02" cType="1" res="2.9691310599446297e-02" rms="4.5869705080986023e-01" purity="6.0428154468536377e-01" nType="0">
          <Node pos="l" depth="2" NCoef="0" IVar="-1" Cut="0.0000000000000000e+00" cType="1" res="-2.0929072052240372e-03" rms="4.6665015816688538e-01" purity="4.5873099565505981e-01" nType="-99"/>
          <Node pos="r" depth="2" NCoef="0" IVar="-1" Cut="0.0000000000000000e+00" cType="1" res="1.6258079558610916e-03" rms="4.5663768053054810e-01" purity="6.2507045269012451e-01" nType="-99"/>
        </Node>
        <Node pos="r" depth="1" NCoef="0" IVar="7" Cut="9.9914711713790894e-01" cType="1" res="-9.5479283481836319e-03" rms="4.5017957687377930e-01" purity="4.1223159432411194e-01" nType="0">
          <Node pos="l" depth="2" NCoef="0" IVar="-1" Cut="0.0000000000000000e+00" cType="1" res="-1.2646618997678161e-03" rms="4.4503426551818848e-01" purity="3.7650603055953979e-01" nType="-99"/>
          <Node pos="r" depth="2" NCoef="0" IVar="-1" Cut="0.0000000000000000e+00" cType="1" res="1.4295785222202539e-03" rms="4.6529516577720642e-01" purity="5.3711462020874023e-01" nType="-99"/>
        </Node>
      </Node>
    </BinaryTree>
    <BinaryTree type="DecisionTree" boostWeight="1.0000000000000000e+00" itree="239">
      <Node pos="s" depth="0" NCoef="0" IVar="1" Cut="9.1400462388992310e-01" cType="1" res="1.1032084003090858e-02" rms="4.5585307478904724e-01" purity="5.0698667764663696e-01" nType="0">
        <Node pos="l" depth="1" NCoef="0" IVar="-1" Cut="0.0000000000000000e+00" cType="1" res="-4.2189192026853561e-03" rms="4.2129811644554138e-01" purity="2.7671974897384644e-01" nType="-99"/>
        <Node pos="r" depth="1" NCoef="0" IVar="2" Cut="5.9469474792480469e+01" cType="1" res="1.7155196517705917e-02" rms="4.5810770988464355e-01" purity="5.2631908655166626e-01" nType="0">
          <Node pos="l" depth="2" NCoef="0" IVar="-1" Cut="0.0000000000000000e+00" cType="1" res="-9.3632342759519815e-04" rms="4.6578869223594666e-01" purity="4.4224253296852112e-01" nType="-99"/>
          <Node pos="r" depth="2" NCoef="0" IVar="-1" Cut="0.0000000000000000e+00" cType="1" res="1.3551207957789302e-03" rms="4.5465373992919922e-01" purity="5.5629682540893555e-01" nType="-99"/>
        </Node>
      </Node>
    </BinaryTree>
    <BinaryTree type="DecisionTree" boostWeight="1.0000000000000000e+00" itree="240">
      <Node pos="s" depth="0" NCoef="0" IVar="4" Cut="2.7758016586303711e+00" cType="1" res="6.0506029985845089e-03" rms="4.5510378479957581e-01" purity="5.0027012825012207e-01" nType="0">
        <Node pos="l" depth="1" NCoef="0" IVar="2" Cut="6.3133754730224609e+01" cType="1" res="1.1500626802444458e-02" rms="4.5993259549140930e-01" purity="5.2335518598556519e-01" nType="0">
          <Node pos="l" depth="2" NCoef="0" IVar="-1" Cut="0.0000000000000000e+00" cType="1" res="-8.7275286205112934e-04" rms="4.6729230880737305e-01" purity="4.4453153014183044e-01" nType="-99"/>
          <Node pos="r" depth="2" NCoef="0" IVar="-1" Cut="0.0000000000000000e+00" cType="1" res="1.0805102065205574e-03" rms="4.5600503683090210e-01" purity="5.5865454673767090e-01" nType="-99"/>
        </Node>
        <Node pos="r" depth="1" NCoef="0" IVar="-1" Cut="0.0000000000000000e+00" cType="1" res="-7.2440891526639462e-03" rms="3.7460455298423767e-01" purity="1.8279731273651123e-01" nType="-99"/>
      </Node>
    </BinaryTree>
    <BinaryTree type="DecisionTree" boostWeight="1.0000000000000000e+00" itree="241">
      <Node pos="s" depth="0" NCoef="0" IVar="6" Cut="4.8863708496093750e+02" cType="1" res="9.8557304590940475e-03" rms="4.5696449279785156e-01" purity="5.0301653146743774e-01" nType="0">
        <Node pos="l" depth="1" NCoef="0" IVar="5" Cut="1.2805413007736206e+00" cType="1" res="-1.0767407715320587e-02" rms="4.5415243506431580e-01" purity="4.3743991851806641e-01" nType="0">
          <Node pos="l" depth="2" NCoef="0" IVar="-1" Cut="0.0000000000000000e+00" cType="1" res="5.0074973842129111e-04" rms="4.6678474545478821e-01" purity="4.9827069044113159e-01" nType="-99"/>
          <Node pos="r" depth="2" NCoef="0" IVar="-1" Cut="0.0000000000000000e+00" cType="1" res="-2.4270915891975164e-03" rms="4.3506613373756409e-01" purity="3.5606184601783752e-01" nType="-99"/>
        </Node>
        <Node pos="r" depth="1" NCoef="0" IVar="0" Cut="1.6885143518447876e+00" cType="1" res="3.2219998538494110e-02" rms="4.5894837379455566e-01" purity="5.7412952184677124e-01" nType="0">
          <Node pos="l" depth="2" NCoef="0" IVar="-1" Cut="0.0000000000000000e+00" cType="1" res="1.9651313778012991e-03" rms="4.5524531602859497e-01" purity="6.3362950086593628e-01" nType="-99"/>
          <Node pos="r" depth="2" NCoef="0" IVar="-1" Cut="0.0000000000000000e+00" cType="1" res="-7.1672053309157491e-04" rms="4.6537730097770691e-01" purity="4.2021700739860535e-01" nType="-99"/>
        </Node>
      </Node>
    </BinaryTree>
    <BinaryTree type="DecisionTree" boostWeight="1.0000000000000000e+00" itree="242">
      <Node pos="s" depth="0" NCoef="0" IVar="8" Cut="2.8190701293945312e+02" cType="1" res="1.7429899889975786e-03" rms="4.5517683029174805e-01" purity="4.9536001682281494e-01" nType="0">
        <Node pos="l" depth="1" NCoef="0" IVar="6" Cut="5.0689578247070312e+02" cType="1" res="1.4421430416405201e-02" rms="4.5889735221862793e-01" purity="5.2734220027923584e-01" nType="0">
          <Node pos="l" depth="2" NCoef="0" IVar="-1" Cut="0.0000000000000000e+00" cType="1" res="-2.9457465279847383e-04" rms="4.6256637573242188e-01" purity="4.6558308601379395e-01" nType="-99"/>
          <Node pos="r" depth="2" NCoef="0" IVar="-1" Cut="0.0000000000000000e+00" cType="1" res="2.1697888150811195e-03" rms="4.4874072074890137e-01" purity="6.5063673257827759e-01" nType="-99"/>
        </Node>
        <Node pos="r" depth="1" NCoef="0" IVar="5" Cut="1.1577086448669434e+00" cType="1" res="-2.6524774730205536e-02" rms="4.4547277688980103e-01" purity="4.2405259609222412e-01" nType="0">
          <Node pos="l" depth="2" NCoef="0" IVar="-1" Cut="0.0000000000000000e+00" cType="1" res="6.5602269023656845e-04" rms="4.5649227499961853e-01" purity="5.2048897743225098e-01" nType="-99"/>
          <Node pos="r" depth="2" NCoef="0" IVar="-1" Cut="0.0000000000000000e+00" cType="1" res="-2.6336386799812317e-03" rms="4.3925797939300537e-01" purity="3.8102373480796814e-01" nType="-99"/>
        </Node>
      </Node>
    </BinaryTree>
    <BinaryTree type="DecisionTree" boostWeight="1.0000000000000000e+00" itree="243">
      <Node pos="s" depth="0" NCoef="0" IVar="4" Cut="2.7918231487274170e+00" cType="1" res="1.8579173774924129e-04" rms="4.5447307825088501e-01" purity="4.9638360738754272e-01" nType="0">
        <Node pos="l" depth="1" NCoef="0" IVar="3" Cut="1.4241741943359375e+02" cType="1" res="5.3975814953446388e-03" rms="4.5961534976959229e-01" purity="5.1741158962249756e-01" nType="0">
          <Node pos="l" depth="2" NCoef="0" IVar="-1" Cut="0.0000000000000000e+00" cType="1" res="4.6541800838895142e-04" rms="4.6048760414123535e-01" purity="5.2947282791137695e-01" nType="-99"/>
          <Node pos="r" depth="2" NCoef="0" IVar="-1" Cut="0.0000000000000000e+00" cType="1" res="-4.7791521064937115e-03" rms="4.3795326352119446e-01" purity="3.2206654548645020e-01" nType="-99"/>
        </Node>
        <Node pos="r" depth="1" NCoef="0" IVar="-1" Cut="0.0000000000000000e+00" cType="1" res="-9.1906553134322166e-03" rms="3.5345560312271118e-01" purity="1.6362549364566803e-01" nType="-99"/>
      </Node>
    </BinaryTree>
    <BinaryTree type="DecisionTree" boostWeight="1.0000000000000000e+00" itree="244">
      <Node pos="s" depth="0" NCoef="0" IVar="1" Cut="9.8571515083312988e-01" cType="1" res="-2.4253283627331257e-03" rms="4.5634669065475464e-01" purity="4.9098899960517883e-01" nType="0">
        <Node pos="l" depth="1" NCoef="0" IVar="4" Cut="2.3030660152435303e+00" cType="1" res="-9.9373767152428627e-03" rms="4.5809808373451233e-01" purity="4.6483987569808960e-01" nType="0">
          <Node pos="l" depth="2" NCoef="0" IVar="-1" Cut="0.0000000000000000e+00" cType="1" res="2.6138540124520659e-04" rms="4.6892449259757996e-01" purity="5.5631178617477417e-01" nType="-99"/>
          <Node pos="r" depth="2" NCoef="0" IVar="-1" Cut="0.0000000000000000e+00" cType="1" res="-2.1106430795043707e-03" rms="4.4114419817924500e-01" purity="3.3397775888442993e-01" nType="-99"/>
        </Node>
        <Node pos="r" depth="1" NCoef="0" IVar="-1" Cut="0.0000000000000000e+00" cType="1" res="2.2846511565148830e-03" rms="4.3783324956893921e-01" purity="6.9689261913299561e-01" nType="-99"/>
      </Node>
    </BinaryTree>
    <BinaryTree type="DecisionTree" boostWeight="1.0000000000000000e+00" itree="245">
      <Node pos="s" depth="0" NCoef="0" IVar="6" Cut="5.4329656982421875e+02" cType="1" res="4.8457672819495201e-03" rms="4.5638275146484375e-01" purity="4.9885177612304688e-01" nType="0">
        <Node pos="l" depth="1" NCoef="0" IVar="4" Cut="2.0825920104980469e+00" cType="1" res="-1.4180042780935764e-02" rms="4.5395234227180481e-01" purity="4.4740086793899536e-01" nType="0">
          <Node pos="l" depth="2" NCoef="0" IVar="-1" Cut="0.0000000000000000e+00" cType="1" res="8.1946694990620017e-04" rms="4.6313035488128662e-01" purity="5.6279402971267700e-01" nType="-99"/>
          <Node pos="r" depth="2" NCoef="0" IVar="-1" Cut="0.0000000000000000e+00" cType="1" res="-1.7875514458864927e-03" rms="4.4827181100845337e-01" purity="3.8850972056388855e-01" nType="-99"/>
        </Node>
        <Node pos="r" depth="1" NCoef="0" IVar="8" Cut="5.2139154052734375e+02" cType="1" res="3.5303920507431030e-02" rms="4.5860651135444641e-01" purity="5.8121877908706665e-01" nType="0">
          <Node pos="l" depth="2" NCoef="0" IVar="-1" Cut="0.0000000000000000e+00" cType="1" res="1.9561625085771084e-03" rms="4.5881649851799011e-01" purity="6.1408174037933350e-01" nType="-99"/>
          <Node pos="r" depth="2" NCoef="0" IVar="-1" Cut="0.0000000000000000e+00" cType="1" res="-1.8081590533256531e-03" rms="4.5145097374916077e-01" purity="4.0649017691612244e-01" nType="-99"/>
        </Node>
      </Node>
    </BinaryTree>
    <BinaryTree type="DecisionTree" boostWeight="1.0000000000000000e+00" itree="246">
      <Node pos="s" depth="0" NCoef="0" IVar="5" Cut="1.2429351806640625e+00" cType="1" res="1.0071909986436367e-02" rms="4.5531532168388367e-01" purity="5.0506758689880371e-01" nType="0">
        <Node pos="l" depth="1" NCoef="0" IVar="0" Cut="1.5987944602966309e+00" cType="1" res="3.0089614912867546e-02" rms="4.5868811011314392e-01" purity="5.6257688999176025e-01" nType="0">
          <Node pos="l" depth="2" NCoef="0" IVar="-1" Cut="0.0000000000000000e+00" cType="1" res="1.9261724082753062e-03" rms="4.5486032962799072e-01" purity="6.1807471513748169e-01" nType="-99"/>
          <Node pos="r" depth="2" NCoef="0" IVar="-1" Cut="0.0000000000000000e+00" cType="1" res="1.5971886750776321e-04" rms="4.6356666088104248e-01" purity="4.7263783216476440e-01" nType="-99"/>
        </Node>
        <Node pos="r" depth="1" NCoef="0" IVar="6" Cut="4.9956857299804688e+02" cType="1" res="-9.2507712543010712e-03" rms="4.5119416713714600e-01" purity="4.4955506920814514e-01" nType="0">
          <Node pos="l" depth="2" NCoef="0" IVar="-1" Cut="0.0000000000000000e+00" cType="1" res="-2.0447031129151583e-03" rms="4.4027420878410339e-01" purity="3.7031114101409912e-01" nType="-99"/>
          <Node pos="r" depth="2" NCoef="0" IVar="-1" Cut="0.0000000000000000e+00" cType="1" res="7.4376020347699523e-04" rms="4.6062892675399780e-01" purity="5.3005331754684448e-01" nType="-99"/>
        </Node>
      </Node>
    </BinaryTree>
    <BinaryTree type="DecisionTree" boostWeight="1.0000000000000000e+00" itree="247">
      <Node pos="s" depth="0" NCoef="0" IVar="8" Cut="5.0754754638671875e+02" cType="1" res="2.3171838838607073e-03" rms="4.5724397897720337e-01" purity="4.9667197465896606e-01" nType="0">
        <Node pos="l" depth="1" NCoef="0" IVar="3" Cut="1.1437604522705078e+02" cType="1" res="8.6494684219360352e-03" rms="4.5912459492683411e-01" purity="5.1071500778198242e-01" nType="0">
          <Node pos="l" depth="2" NCoef="0" IVar="-1" Cut="0.0000000000000000e+00" cType="1" res="-1.9680215045809746e-03" rms="4.5705690979957581e-01" purity="4.2984294891357422e-01" nType="-99"/>
          <Node pos="r" depth="2" NCoef="0" IVar="-1" Cut="0.0000000000000000e+00" cType="1" res="9.1092800721526146e-04" rms="4.5895552635192871e-01" purity="5.3063666820526123e-01" nType="-99"/>
        </Node>
        <Node pos="r" depth="1" NCoef="0" IVar="-1" Cut="0.0000000000000000e+00" cType="1" res="-5.0603314302861691e-03" rms="4.2519381642341614e-01" purity="3.2126659154891968e-01" nType="-99"/>
      </Node>
    </BinaryTree>
    <BinaryTree type="DecisionTree" boostWeight="1.0000000000000000e+00" itree="248">
      <Node pos="s" depth="0" NCoef="0" IVar="1" Cut="9.5254844427108765e-01" cType="1" res="2.4439208209514618e-03" rms="4.5446971058845520e-01" purity="4.9536842107772827e-01" nType="0">
        <Node pos="l" depth="1" NCoef="0" IVar="5" Cut="1.5018848180770874e+00" cType="1" res="-1.8269764259457588e-02" rms="4.4896146655082703e-01" purity="3.8538759946823120e-01" nType="0">
          <Node pos="l" depth="2" NCoef="0" IVar="-1" Cut="0.0000000000000000e+00" cType="1" res="-2.5278187240473926e-04" rms="4.5900553464889526e-01" purity="4.1931557655334473e-01" nType="-99"/>
          <Node pos="r" depth="2" NCoef="0" IVar="-1" Cut="0.0000000000000000e+00" cType="1" res="-3.7474874407052994e-03" rms="4.1733267903327942e-01" purity="2.9056811332702637e-01" nType="-99"/>
        </Node>
        <Node pos="r" depth="1" NCoef="0" IVar="3" Cut="1.3366917419433594e+02" cType="1" res="2.0748976618051529e-02" rms="4.5850425958633423e-01" purity="5.9256035089492798e-01" nType="0">
          <Node pos="l" depth="2" NCoef="0" IVar="-1" Cut="0.0000000000000000e+00" cType="1" res="1.3243008870631456e-03" rms="4.5737704634666443e-01" purity="6.1380130052566528e-01" nType="-99"/>
          <Node pos="r" depth="2" NCoef="0" IVar="-1" Cut="0.0000000000000000e+00" cType="1" res="-2.1401038393378258e-03" rms="4.6019372344017029e-01" purity="4.6618825197219849e-01" nType="-99"/>
        </Node>
      </Node>
    </BinaryTree>
    <BinaryTree type="DecisionTree" boostWeight="1.0000000000000000e+00" itree="249">
      <Node pos="s" depth="0" NCoef="0" IVar="7" Cut="9.9958986043930054e-01" cType="1" res="5.2731316536664963e-03" rms="4.5699763298034668e-01" purity="5.0106191635131836e-01" nType="0">
        <Node pos="l" depth="1" NCoef="0" IVar="7" Cut="-8.6972761154174805e-01" cType="1" res="-7.0267040282487869e-03" rms="4.5610600709915161e-01" purity="4.5884314179420471e-01" nType="0">
          <Node pos="l" depth="2" NCoef="0" IVar="-1" Cut="0.0000000000000000e+00" cType="1" res="8.3126220852136612e-04" rms="4.6562111377716064e-01" purity="5.5938076972961426e-01" nType="-99"/>
          <Node pos="r" depth="2" NCoef="0" IVar="-1" Cut="0.0000000000000000e+00" cType="1" res="-1.8114086706191301e-03" rms="4.4603753089904785e-01" purity="3.6793529987335205e-01" nType="-99"/>
        </Node>
        <Node pos="r" depth="1" NCoef="0" IVar="8" Cut="1.3407710266113281e+02" cType="1" res="3.5005673766136169e-02" rms="4.5778286457061768e-01" purity="6.0311782360076904e-01" nType="0">
          <Node pos="l" depth="2" NCoef="0" IVar="-1" Cut="0.0000000000000000e+00" cType="1" res="-3.4759717527776957e-04" rms="4.7001484036445618e-01" purity="5.2502435445785522e-01" nType="-99"/>
          <Node pos="r" depth="2" NCoef="0" IVar="-1" Cut="0.0000000000000000e+00" cType="1" res="1.8842284334823489e-03" rms="4.5416620373725891e-01" purity="6.2204617261886597e-01" nType="-99"/>
        </Node>
      </Node>
    </BinaryTree>
    <BinaryTree type="DecisionTree" boostWeight="1.0000000000000000e+00" itree="250">
      <Node pos="s" depth="0" NCoef="0" IVar="7" Cut="-1.1423782110214233e+00" cType="1" res="4.5746513642370701e-03" rms="4.5423230528831482e-01" purity="4.9840414524078369e-01" nType="0">
        <Node pos="l" depth="1" NCoef="0" IVar="7" Cut="-1.3955290317535400e+00" cType="1" res="4.4008012861013412e-02" rms="4.5968061685562134e-01" purity="6.1109375953674316e-01" nType="0">
          <Node pos="l" depth="2" NCoef="0" IVar="-1" Cut="0.0000000000000000e+00" cType="1" res="2.8987822588533163e-03" rms="4.5231905579566956e-01" purity="6.5246886014938354e-01" nType="-99"/>
          <Node pos="r" depth="2" NCoef="0" IVar="-1" Cut="0.0000000000000000e+00" cType="1" res="1.0032212594524026e-03" rms="4.6390527486801147e-01" purity="5.8072048425674438e-01" nType="-99"/>
        </Node>
        <Node pos="r" depth="1" NCoef="0" IVar="7" Cut="8.3082282543182373e-01" cType="1" res="-6.6649341024458408e-03" rms="4.5203787088394165e-01" purity="4.6628451347351074e-01" nType="0">
          <Node pos="l" depth="2" NCoef="0" IVar="-1" Cut="0.0000000000000000e+00" cType="1" res="-1.8200714839622378e-03" rms="4.4435325264930725e-01" purity="3.8119083642959595e-01" nType="-99"/>
          <Node pos="r" depth="2" NCoef="0" IVar="-1" Cut="0.0000000000000000e+00" cType="1" res="9.6513319294899702e-04" rms="4.5912787318229675e-01" purity="5.6488233804702759e-01" nType="-99"/>
        </Node>
      </Node>
    </BinaryTree>
    <BinaryTree type="DecisionTree" boostWeight="1.0000000000000000e+00" itree="251">
      <Node pos="s" depth="0" NCoef="0" IVar="5" Cut="1.8050101995468140e+00" cType="1" res="5.2129300311207771e-03" rms="4.5432826876640320e-01" purity="5.0097638368606567e-01" nType="0">
        <Node pos="l" depth="1" NCoef="0" IVar="3" Cut="1.3715895080566406e+02" cType="1" res="1.0548904538154602e-02" rms="4.5532613992691040e-01" purity="5.1396763324737549e-01" nType="0">
          <Node pos="l" depth="2" NCoef="0" IVar="-1" Cut="0.0000000000000000e+00" cType="1" res="7.8094837954267859e-04" rms="4.5612242817878723e-01" purity="5.3107130527496338e-01" nType="-99"/>
          <Node pos="r" depth="2" NCoef="0" IVar="-1" Cut="0.0000000000000000e+00" cType="1" res="-2.7520819567143917e-03" rms="4.4429108500480652e-01" purity="3.6374354362487793e-01" nType="-99"/>
        </Node>
        <Node pos="r" depth="1" NCoef="0" IVar="-1" Cut="0.0000000000000000e+00" cType="1" res="-4.5684883370995522e-03" rms="4.3319210410118103e-01" purity="3.1856301426887512e-01" nType="-99"/>
      </Node>
    </BinaryTree>
    <BinaryTree type="DecisionTree" boostWeight="1.0000000000000000e+00" itree="252">
      <Node pos="s" depth="0" NCoef="0" IVar="6" Cut="3.9331054687500000e+02" cType="1" res="-1.6639984678477049e-03" rms="4.5489421486854553e-01" purity="4.9238774180412292e-01" nType="0">
        <Node pos="l" depth="1" NCoef="0" IVar="2" Cut="4.3568801879882812e+01" cType="1" res="-3.6716789007186890e-02" rms="4.4175070524215698e-01" purity="3.7170100212097168e-01" nType="0">
          <Node pos="l" depth="2" NCoef="0" IVar="-1" Cut="0.0000000000000000e+00" cType="1" res="-5.9681828133761883e-03" rms="4.2089167237281799e-01" purity="2.7829307317733765e-01" nType="-99"/>
          <Node pos="r" depth="2" NCoef="0" IVar="-1" Cut="0.0000000000000000e+00" cType="1" res="-1.3206580188125372e-03" rms="4.4667810201644897e-01" purity="3.9866602420806885e-01" nType="-99"/>
        </Node>
        <Node pos="r" depth="1" NCoef="0" IVar="2" Cut="1.5778102111816406e+02" cType="1" res="1.3201244175434113e-02" rms="4.5954820513725281e-01" purity="5.4356878995895386e-01" nType="0">
          <Node pos="l" depth="2" NCoef="0" IVar="-1" Cut="0.0000000000000000e+00" cType="1" res="1.0514258174225688e-03" rms="4.6022295951843262e-01" purity="5.7344645261764526e-01" nType="-99"/>
          <Node pos="r" depth="2" NCoef="0" IVar="-1" Cut="0.0000000000000000e+00" cType="1" res="-2.4073270615190268e-03" rms="4.5229715108871460e-01" purity="3.9841291308403015e-01" nType="-99"/>
        </Node>
      </Node>
    </BinaryTree>
    <BinaryTree type="DecisionTree" boostWeight="1.0000000000000000e+00" itree="253">
      <Node pos="s" depth="0" NCoef="0" IVar="7" Cut="1.2851775884628296e+00" cType="1" res="1.1002802290022373e-02" rms="4.5456960797309875e-01" purity="5.0808691978454590e-01" nType="0">
        <Node pos="l" depth="1" NCoef="0" IVar="1" Cut="9.7245740890502930e-01" cType="1" res="2.6185160968452692e-03" rms="4.5509237051010132e-01" purity="4.8385804891586304e-01" nType="0">
          <Node pos="l" depth="2" NCoef="0" IVar="-1" Cut="0.0000000000000000e+00" cType="1" res="-5.0520832883194089e-04" rms="4.5665851235389709e-01" purity="4.2496490478515625e-01" nType="-99"/>
          <Node pos="r" depth="2" NCoef="0" IVar="-1" Cut="0.0000000000000000e+00" cType="1" res="1.5563167398795485e-03" rms="4.4882151484489441e-01" purity="6.5032428503036499e-01" nType="-99"/>
        </Node>
        <Node pos="r" depth="1" NCoef="0" IVar="1" Cut="9.4676810503005981e-01" cType="1" res="5.8059621602296829e-02" rms="4.4872668385505676e-01" purity="6.4407163858413696e-01" nType="0">
          <Node pos="l" depth="2" NCoef="0" IVar="-1" Cut="0.0000000000000000e+00" cType="1" res="1.0482785291969776e-03" rms="4.7887310385704041e-01" purity="5.0353205204010010e-01" nType="-99"/>
          <Node pos="r" depth="2" NCoef="0" IVar="-1" Cut="0.0000000000000000e+00" cType="1" res="2.9612572398036718e-03" rms="4.3107849359512329e-01" purity="7.1730935573577881e-01" nType="-99"/>
        </Node>
      </Node>
    </BinaryTree>
    <BinaryTree type="DecisionTree" boostWeight="1.0000000000000000e+00" itree="254">
      <Node pos="s" depth="0" NCoef="0" IVar="1" Cut="9.2099112272262573e-01" cType="1" res="1.1378370225429535e-02" rms="4.5515465736389160e-01" purity="5.0475591421127319e-01" nType="0">
        <Node pos="l" depth="1" NCoef="0" IVar="1" Cut="9.0917819738388062e-01" cType="1" res="-4.1792534291744232e-02" rms="4.3323594331741333e-01" purity="3.0098977684974670e-01" nType="0">
          <Node pos="l" depth="2" NCoef="0" IVar="-1" Cut="0.0000000000000000e+00" cType="1" res="-4.7461711801588535e-03" rms="4.1501551866531372e-01" purity="2.6693347096443176e-01" nType="-99"/>
          <Node pos="r" depth="2" NCoef="0" IVar="-1" Cut="0.0000000000000000e+00" cType="1" res="-1.2503669131547213e-03" rms="4.4691711664199829e-01" purity="3.2971194386482239e-01" nType="-99"/>
        </Node>
        <Node pos="r" depth="1" NCoef="0" IVar="4" Cut="2.1868526935577393e+00" cType="1" res="1.8687408417463303e-02" rms="4.5760291814804077e-01" purity="5.3276622295379639e-01" nType="0">
          <Node pos="l" depth="2" NCoef="0" IVar="-1" Cut="0.0000000000000000e+00" cType="1" res="1.6725417226552963e-03" rms="4.5544028282165527e-01" purity="6.3781297206878662e-01" nType="-99"/>
          <Node pos="r" depth="2" NCoef="0" IVar="-1" Cut="0.0000000000000000e+00" cType="1" res="-6.3189916545525193e-05" rms="4.5854237675666809e-01" purity="4.4165229797363281e-01" nType="-99"/>
        </Node>
      </Node>
    </BinaryTree>
    <BinaryTree type="DecisionTree" boostWeight="1.0000000000000000e+00" itree="255">
      <Node pos="s" depth="0" NCoef="0" IVar="1" Cut="9.7272825241088867e-01" cType="1" res="-4.7181971604004502e-04" rms="4.5405754446983337e-01" purity="4.9592542648315430e-01" nType="0">
        <Node pos="l" depth="1" NCoef="0" IVar="5" Cut="1.7981730699539185e+00" cType="1" res="-1.2646867893636227e-02" rms="4.5606291294097900e-01" purity="4.3723431229591370e-01" nType="0">
          <Node pos="l" depth="2" NCoef="0" IVar="-1" Cut="0.0000000000000000e+00" cType="1" res="-3.2956196810118854e-04" rms="4.5826265215873718e-01" purity="4.5145159959793091e-01" nType="-99"/>
          <Node pos="r" depth="2" NCoef="0" IVar="-1" Cut="0.0000000000000000e+00" cType="1" res="-6.5240683034062386e-03" rms="4.2060348391532898e-01" purity="2.6099294424057007e-01" nType="-99"/>
        </Node>
        <Node pos="r" depth="1" NCoef="0" IVar="5" Cut="1.1367332935333252e+00" cType="1" res="3.4234121441841125e-02" rms="4.4647341966629028e-01" purity="6.6322922706604004e-01" nType="0">
          <Node pos="l" depth="2" NCoef="0" IVar="-1" Cut="0.0000000000000000e+00" cType="1" res="2.3007772397249937e-03" rms="4.2938062548637390e-01" purity="7.2247594594955444e-01" nType="-99"/>
          <Node pos="r" depth="2" NCoef="0" IVar="-1" Cut="0.0000000000000000e+00" cType="1" res="7.9624936915934086e-04" rms="4.5677492022514343e-01" purity="6.2401002645492554e-01" nType="-99"/>
        </Node>
      </Node>
    </BinaryTree>
    <BinaryTree type="DecisionTree" boostWeight="1.0000000000000000e+00" itree="256">
      <Node pos="s" depth="0" NCoef="0" IVar="0" Cut="2.3089823722839355e+00" cType="1" res="6.4848759211599827e-03" rms="4.5507726073265076e-01" purity="5.0096875429153442e-01" nType="0">
        <Node pos="l" depth="1" NCoef="0" IVar="2" Cut="9.1050697326660156e+01" cType="1" res="1.2363628484308720e-02" rms="4.5986232161521912e-01" purity="5.2205055952072144e-01" nType="0">
          <Node pos="l" depth="2" NCoef="0" IVar="-1" Cut="0.0000000000000000e+00" cType="1" res="-5.3378584561869502e-04" rms="4.6230709552764893e-01" purity="4.7609859704971313e-01" nType="-99"/>
          <Node pos="r" depth="2" NCoef="0" IVar="-1" Cut="0.0000000000000000e+00" cType="1" res="1.8194961594417691e-03" rms="4.5505082607269287e-01" purity="5.8002889156341553e-01" nType="-99"/>
        </Node>
        <Node pos="r" depth="1" NCoef="0" IVar="-1" Cut="0.0000000000000000e+00" cType="1" res="-6.7562507465481758e-03" rms="3.7534999847412109e-01" purity="2.1502681076526642e-01" nType="-99"/>
      </Node>
    </BinaryTree>
    <BinaryTree type="DecisionTree" boostWeight="1.0000000000000000e+00" itree="257">
      <Node pos="s" depth="0" NCoef="0" IVar="2" Cut="1.5046159362792969e+02" cType="1" res="4.4085215777158737e-03" rms="4.5407378673553467e-01" purity="5.0051361322402954e-01" nType="0">
        <Node pos="l" depth="1" NCoef="0" IVar="2" Cut="8.6964805603027344e+01" cType="1" res="1.2095851823687553e-02" rms="4.5535299181938171e-01" purity="5.1880735158920288e-01" nType="0">
          <Node pos="l" depth="2" NCoef="0" IVar="-1" Cut="0.0000000000000000e+00" cType="1" res="-8.3463062765076756e-04" rms="4.6157127618789673e-01" purity="4.6424964070320129e-01" nType="-99"/>
          <Node pos="r" depth="2" NCoef="0" IVar="-1" Cut="0.0000000000000000e+00" cType="1" res="2.2749428171664476e-03" rms="4.4326978921890259e-01" purity="5.9555017948150635e-01" nType="-99"/>
        </Node>
        <Node pos="r" depth="1" NCoef="0" IVar="7" Cut="7.1307229995727539e-01" cType="1" res="-4.0284760296344757e-02" rms="4.4393506646156311e-01" purity="3.9415550231933594e-01" nType="0">
          <Node pos="l" depth="2" NCoef="0" IVar="-1" Cut="0.0000000000000000e+00" cType="1" res="-3.9862249977886677e-03" rms="4.3117251992225647e-01" purity="3.4083229303359985e-01" nType="-99"/>
          <Node pos="r" depth="2" NCoef="0" IVar="-1" Cut="0.0000000000000000e+00" cType="1" res="-1.0439597826916724e-04" rms="4.6402937173843384e-01" purity="4.9199047684669495e-01" nType="-99"/>
        </Node>
      </Node>
    </BinaryTree>
    <BinaryTree type="DecisionTree" boostWeight="1.0000000000000000e+00" itree="258">
      <Node pos="s" depth="0" NCoef="0" IVar="5" Cut="1.8043346405029297e+00" cType="1" res="4.0273810736835003e-03" rms="4.5548364520072937e-01" purity="4.9785315990447998e-01" nType="0">
        <Node pos="l" depth="1" NCoef="0" IVar="7" Cut="-9.9948471784591675e-01" cType="1" res="9.3669136986136436e-03" rms="4.5666104555130005e-01" purity="5.1129031181335449e-01" nType="0">
          <Node pos="l" depth="2" NCoef="0" IVar="-1" Cut="0.0000000000000000e+00" cType="1" res="1.6124912071973085e-03" rms="4.6296793222427368e-01" purity="5.9876674413681030e-01" nType="-99"/>
          <Node pos="r" depth="2" NCoef="0" IVar="-1" Cut="0.0000000000000000e+00" cType="1" res="-1.2248777784407139e-04" rms="4.5351007580757141e-01" purity="4.7525903582572937e-01" nType="-99"/>
        </Node>
        <Node pos="r" depth="1" NCoef="0" IVar="-1" Cut="0.0000000000000000e+00" cType="1" res="-4.7809542156755924e-03" rms="4.3148022890090942e-01" purity="3.0784711241722107e-01" nType="-99"/>
      </Node>
    </BinaryTree>
    <BinaryTree type="DecisionTree" boostWeight="1.0000000000000000e+00" itree="259">
      <Node pos="s" depth="0" NCoef="0" IVar="2" Cut="1.4514146423339844e+02" cType="1" res="6.6097234375774860e-03" rms="4.5601609349250793e-01" purity="5.0061643123626709e-01" nType="0">
        <Node pos="l" depth="1" NCoef="0" IVar="2" Cut="9.6266441345214844e+01" cType="1" res="1.4817344956099987e-02" rms="4.5734143257141113e-01" purity="5.1937586069107056e-01" nType="0">
          <Node pos="l" depth="2" NCoef="0" IVar="-1" Cut="0.0000000000000000e+00" cType="1" res="-4.7353887930512428e-04" rms="4.6178171038627625e-01" purity="4.7612136602401733e-01" nType="-99"/>
          <Node pos="r" depth="2" NCoef="0" IVar="-1" Cut="0.0000000000000000e+00" cType="1" res="2.7714224997907877e-03" rms="4.4399946928024292e-01" purity="6.0747653245925903e-01" nType="-99"/>
        </Node>
        <Node pos="r" depth="1" NCoef="0" IVar="7" Cut="7.1288657188415527e-01" cType="1" res="-3.5892378538846970e-02" rms="4.4668436050415039e-01" purity="4.0347325801849365e-01" nType="0">
          <Node pos="l" depth="2" NCoef="0" IVar="-1" Cut="0.0000000000000000e+00" cType="1" res="-3.3365890849381685e-03" rms="4.3986815214157104e-01" purity="3.5110455751419067e-01" nType="-99"/>
          <Node pos="r" depth="2" NCoef="0" IVar="-1" Cut="0.0000000000000000e+00" cType="1" res="-3.0431084451265633e-04" rms="4.5743939280509949e-01" purity="4.9956145882606506e-01" nType="-99"/>
        </Node>
      </Node>
    </BinaryTree>
    <BinaryTree type="DecisionTree" boostWeight="1.0000000000000000e+00" itree="260">
      <Node pos="s" depth="0" NCoef="0" IVar="1" Cut="9.5319831371307373e-01" cType="1" res="-4.7321440652012825e-03" rms="4.5373481512069702e-01" purity="4.9004486203193665e-01" nType="0">
        <Node pos="l" depth="1" NCoef="0" IVar="1" Cut="9.1755378246307373e-01" cType="1" res="-3.0443612486124039e-02" rms="4.4879281520843506e-01" purity="3.7255713343620300e-01" nType="0">
          <Node pos="l" depth="2" NCoef="0" IVar="-1" Cut="0.0000000000000000e+00" cType="1" res="-5.2229473367333412e-03" rms="4.0823334455490112e-01" purity="2.6410293579101562e-01" nType="-99"/>
          <Node pos="r" depth="2" NCoef="0" IVar="-1" Cut="0.0000000000000000e+00" cType="1" res="-9.8824151791632175e-04" rms="4.5846372842788696e-01" purity="4.0211918950080872e-01" nType="-99"/>
        </Node>
        <Node pos="r" depth="1" NCoef="0" IVar="7" Cut="1.2850197553634644e+00" cType="1" res="1.8506728112697601e-02" rms="4.5691254734992981e-01" purity="5.9623414278030396e-01" nType="0">
          <Node pos="l" depth="2" NCoef="0" IVar="-1" Cut="0.0000000000000000e+00" cType="1" res="4.1655098902992904e-04" rms="4.6208682656288147e-01" purity="5.7098484039306641e-01" nType="-99"/>
          <Node pos="r" depth="2" NCoef="0" IVar="-1" Cut="0.0000000000000000e+00" cType="1" res="2.5784287136048079e-03" rms="4.2589101195335388e-01" purity="7.2717833518981934e-01" nType="-99"/>
        </Node>
      </Node>
    </BinaryTree>
    <BinaryTree type="DecisionTree" boostWeight="1.0000000000000000e+00" itree="261">
      <Node pos="s" depth="0" NCoef="0" IVar="2" Cut="1.7352407836914062e+02" cType="1" res="3.5697813145816326e-03" rms="4.5555755496025085e-01" purity="4.9830570816993713e-01" nType="0">
        <Node pos="l" depth="1" NCoef="0" IVar="2" Cut="9.2143394470214844e+01" cType="1" res="1.0106342844665051e-02" rms="4.5671570301055908e-01" purity="5.1388901472091675e-01" nType="0">
          <Node pos="l" depth="2" NCoef="0" IVar="-1" Cut="0.0000000000000000e+00" cType="1" res="-4.3846911285072565e-04" rms="4.6263751387596130e-01" purity="4.7392991185188293e-01" nType="-99"/>
          <Node pos="r" depth="2" NCoef="0" IVar="-1" Cut="0.0000000000000000e+00" cType="1" res="1.7097374657168984e-03" rms="4.4646975398063660e-01" purity="5.7222092151641846e-01" nType="-99"/>
        </Node>
        <Node pos="r" depth="1" NCoef="0" IVar="-1" Cut="0.0000000000000000e+00" cType="1" res="-3.4787906333804131e-03" rms="4.4069585204124451e-01" purity="3.5834351181983948e-01" nType="-99"/>
      </Node>
    </BinaryTree>
    <BinaryTree type="DecisionTree" boostWeight="1.0000000000000000e+00" itree="262">
      <Node pos="s" depth="0" NCoef="0" IVar="6" Cut="2.9458425903320312e+02" cType="1" res="3.8863248191773891e-03" rms="4.5521718263626099e-01" purity="4.9685683846473694e-01" nType="0">
        <Node pos="l" depth="1" NCoef="0" IVar="-1" Cut="0.0000000000000000e+00" cType="1" res="-6.2315938994288445e-03" rms="4.0669882297515869e-01" purity="2.5059393048286438e-01" nType="-99"/>
        <Node pos="r" depth="1" NCoef="0" IVar="3" Cut="1.0279872894287109e+02" cType="1" res="1.0372279211878777e-02" rms="4.5828920602798462e-01" purity="5.1670402288436890e-01" nType="0">
          <Node pos="l" depth="2" NCoef="0" IVar="-1" Cut="0.0000000000000000e+00" cType="1" res="-5.5291666649281979e-03" rms="4.4967964291572571e-01" purity="3.4143587946891785e-01" nType="-99"/>
          <Node pos="r" depth="2" NCoef="0" IVar="-1" Cut="0.0000000000000000e+00" cType="1" res="7.5916177593171597e-04" rms="4.5812547206878662e-01" purity="5.2729570865631104e-01" nType="-99"/>
        </Node>
      </Node>
    </BinaryTree>
    <BinaryTree type="DecisionTree" boostWeight="1.0000000000000000e+00" itree="263">
      <Node pos="s" depth="0" NCoef="0" IVar="1" Cut="9.8571515083312988e-01" cType="1" res="3.5424090456217527e-03" rms="4.5548897981643677e-01" purity="4.9745911359786987e-01" nType="0">
        <Node pos="l" depth="1" NCoef="0" IVar="5" Cut="1.5212609767913818e+00" cType="1" res="-3.8807184901088476e-03" rms="4.5743620395660400e-01" purity="4.7100856900215149e-01" nType="0">
          <Node pos="l" depth="2" NCoef="0" IVar="-1" Cut="0.0000000000000000e+00" cType="1" res="3.0586682260036469e-04" rms="4.6161124110221863e-01" purity="5.0414752960205078e-01" nType="-99"/>
          <Node pos="r" depth="2" NCoef="0" IVar="-1" Cut="0.0000000000000000e+00" cType="1" res="-2.3798719048500061e-03" rms="4.4096881151199341e-01" purity="3.5728728771209717e-01" nType="-99"/>
        </Node>
        <Node pos="r" depth="1" NCoef="0" IVar="-1" Cut="0.0000000000000000e+00" cType="1" res="2.4443515576422215e-03" rms="4.3604490160942078e-01" purity="7.0069080591201782e-01" nType="-99"/>
      </Node>
    </BinaryTree>
    <BinaryTree type="DecisionTree" boostWeight="1.0000000000000000e+00" itree="264">
      <Node pos="s" depth="0" NCoef="0" IVar="2" Cut="9.1050697326660156e+01" cType="1" res="1.2482184683904052e-03" rms="4.5371478796005249e-01" purity="4.9649345874786377e-01" nType="0">
        <Node pos="l" depth="1" NCoef="0" IVar="5" Cut="1.6852483749389648e+00" cType="1" res="-2.0238509401679039e-02" rms="4.5993462204933167e-01" purity="4.6167317032814026e-01" nType="0">
          <Node pos="l" depth="2" NCoef="0" IVar="-1" Cut="0.0000000000000000e+00" cType="1" res="-5.4258404998108745e-04" rms="4.6208208799362183e-01" purity="4.8490059375762939e-01" nType="-99"/>
          <Node pos="r" depth="2" NCoef="0" IVar="-1" Cut="0.0000000000000000e+00" cType="1" res="-6.2721488066017628e-03" rms="4.3740308284759521e-01" purity="2.8529569506645203e-01" nType="-99"/>
        </Node>
        <Node pos="r" depth="1" NCoef="0" IVar="0" Cut="1.2876889705657959e+00" cType="1" res="2.4857299402356148e-02" rms="4.4558766484260559e-01" purity="5.3475314378738403e-01" nType="0">
          <Node pos="l" depth="2" NCoef="0" IVar="-1" Cut="0.0000000000000000e+00" cType="1" res="3.9196992293000221e-03" rms="4.1420289874076843e-01" purity="7.4201250076293945e-01" nType="-99"/>
          <Node pos="r" depth="2" NCoef="0" IVar="-1" Cut="0.0000000000000000e+00" cType="1" res="7.4199160735588521e-05" rms="4.5173323154449463e-01" purity="4.7386610507965088e-01" nType="-99"/>
        </Node>
      </Node>
    </BinaryTree>
    <BinaryTree type="DecisionTree" boostWeight="1.0000000000000000e+00" itree="265">
      <Node pos="s" depth="0" NCoef="0" IVar="1" Cut="9.8597836494445801e-01" cType="1" res="9.1297198086977005e-03" rms="4.5505166053771973e-01" purity="5.0118124485015869e-01" nType="0">
        <Node pos="l" depth="1" NCoef="0" IVar="7" Cut="9.9960446357727051e-01" cType="1" res="2.4471625220030546e-03" rms="4.5763421058654785e-01" purity="4.7545534372329712e-01" nType="0">
          <Node pos="l" depth="2" NCoef="0" IVar="-1" Cut="0.0000000000000000e+00" cType="1" res="-4.6698146616108716e-04" rms="4.5381030440330505e-01" purity="4.3782341480255127e-01" nType="-99"/>
          <Node pos="r" depth="2" NCoef="0" IVar="-1" Cut="0.0000000000000000e+00" cType="1" res="1.4018198708072305e-03" rms="4.6627983450889587e-01" purity="5.7521283626556396e-01" nType="-99"/>
        </Node>
        <Node pos="r" depth="1" NCoef="0" IVar="-1" Cut="0.0000000000000000e+00" cType="1" res="2.5176170747727156e-03" rms="4.3017125129699707e-01" purity="7.0660126209259033e-01" nType="-99"/>
      </Node>
    </BinaryTree>
    <BinaryTree type="DecisionTree" boostWeight="1.0000000000000000e+00" itree="266">
      <Node pos="s" depth="0" NCoef="0" IVar="4" Cut="2.1637346744537354e+00" cType="1" res="5.8102626353502274e-03" rms="4.5557099580764771e-01" purity="4.9953547120094299e-01" nType="0">
        <Node pos="l" depth="1" NCoef="0" IVar="1" Cut="9.7933644056320190e-01" cType="1" res="2.7238067239522934e-02" rms="4.5731672644615173e-01" purity="6.0670757293701172e-01" nType="0">
          <Node pos="l" depth="2" NCoef="0" IVar="-1" Cut="0.0000000000000000e+00" cType="1" res="6.3112500356510282e-04" rms="4.6822842955589294e-01" purity="5.6200355291366577e-01" nType="-99"/>
          <Node pos="r" depth="2" NCoef="0" IVar="-1" Cut="0.0000000000000000e+00" cType="1" res="2.8729697223752737e-03" rms="4.1125556826591492e-01" purity="7.7168297767639160e-01" nType="-99"/>
        </Node>
        <Node pos="r" depth="1" NCoef="0" IVar="7" Cut="8.5667103528976440e-01" cType="1" res="-9.9310921505093575e-03" rms="4.5363980531692505e-01" purity="4.2080447077751160e-01" nType="0">
          <Node pos="l" depth="2" NCoef="0" IVar="-1" Cut="0.0000000000000000e+00" cType="1" res="-1.2124828062951565e-03" rms="4.4809538125991821e-01" purity="3.8039195537567139e-01" nType="-99"/>
          <Node pos="r" depth="2" NCoef="0" IVar="-1" Cut="0.0000000000000000e+00" cType="1" res="6.8397639552131295e-04" rms="4.6516126394271851e-01" purity="5.1340889930725098e-01" nType="-99"/>
        </Node>
      </Node>
    </BinaryTree>
    <BinaryTree type="DecisionTree" boostWeight="1.0000000000000000e+00" itree="267">
      <Node pos="s" depth="0" NCoef="0" IVar="1" Cut="9.7926104068756104e-01" cType="1" res="1.1128770187497139e-02" rms="4.5309856534004211e-01" purity="5.0747847557067871e-01" nType="0">
        <Node pos="l" depth="1" NCoef="0" IVar="6" Cut="4.8863708496093750e+02" cType="1" res="1.3517988845705986e-03" rms="4.5710137486457825e-01" purity="4.6430245041847229e-01" nType="0">
          <Node pos="l" depth="2" NCoef="0" IVar="-1" Cut="0.0000000000000000e+00" cType="1" res="-1.0664435103535652e-03" rms="4.5149430632591248e-01" purity="3.9177995920181274e-01" nType="-99"/>
          <Node pos="r" depth="2" NCoef="0" IVar="-1" Cut="0.0000000000000000e+00" cType="1" res="9.9892157595604658e-04" rms="4.6200990676879883e-01" purity="5.4113698005676270e-01" nType="-99"/>
        </Node>
        <Node pos="r" depth="1" NCoef="0" IVar="1" Cut="9.8910057544708252e-01" cType="1" res="5.4046519100666046e-02" rms="4.3248534202575684e-01" purity="6.9700765609741211e-01" nType="0">
          <Node pos="l" depth="2" NCoef="0" IVar="-1" Cut="0.0000000000000000e+00" cType="1" res="1.4955076621845365e-03" rms="4.3782821297645569e-01" purity="6.7584788799285889e-01" nType="-99"/>
          <Node pos="r" depth="2" NCoef="0" IVar="-1" Cut="0.0000000000000000e+00" cType="1" res="3.1341332942247391e-03" rms="4.2370140552520752e-01" purity="7.2607231140136719e-01" nType="-99"/>
        </Node>
      </Node>
    </BinaryTree>
    <BinaryTree type="DecisionTree" boostWeight="1.0000000000000000e+00" itree="268">
      <Node pos="s" depth="0" NCoef="0" IVar="2" Cut="1.6785629272460938e+02" cType="1" res="2.9642868321388960e-03" rms="4.5506334304809570e-01" purity="4.9788254499435425e-01" nType="0">
        <Node pos="l" depth="1" NCoef="0" IVar="2" Cut="9.6438003540039062e+01" cType="1" res="1.0509145446121693e-02" rms="4.5739993453025818e-01" purity="5.1470988988876343e-01" nType="0">
          <Node pos="l" depth="2" NCoef="0" IVar="-1" Cut="0.0000000000000000e+00" cType="1" res="-6.3796277390792966e-04" rms="4.6190911531448364e-01" purity="4.7191080451011658e-01" nType="-99"/>
          <Node pos="r" depth="2" NCoef="0" IVar="-1" Cut="0.0000000000000000e+00" cType="1" res="2.2641916293650866e-03" rms="4.4667020440101624e-01" purity="5.8807057142257690e-01" nType="-99"/>
        </Node>
        <Node pos="r" depth="1" NCoef="0" IVar="7" Cut="2.8403702378273010e-01" cType="1" res="-5.6823160499334335e-02" rms="4.3146517872810364e-01" purity="3.6453893780708313e-01" nType="0">
          <Node pos="l" depth="2" NCoef="0" IVar="-1" Cut="0.0000000000000000e+00" cType="1" res="-5.4943379946053028e-03" rms="4.2635232210159302e-01" purity="3.2170000672340393e-01" nType="-99"/>
          <Node pos="r" depth="2" NCoef="0" IVar="-1" Cut="0.0000000000000000e+00" cType="1" res="-1.7309279646724463e-03" rms="4.3543726205825806e-01" purity="4.1056635975837708e-01" nType="-99"/>
        </Node>
      </Node>
    </BinaryTree>
    <BinaryTree type="DecisionTree" boostWeight="1.0000000000000000e+00" itree="269">
      <Node pos="s" depth="0" NCoef="0" IVar="3" Cut="1.1007330322265625e+02" cType="1" res="2.9260225128382444e-03" rms="4.5639282464981079e-01" purity="4.9618732929229736e-01" nType="0">
        <Node pos="l" depth="1" NCoef="0" IVar="2" Cut="7.0809173583984375e+01" cType="1" res="-4.3932143598794937e-02" rms="4.4277998805046082e-01" purity="3.9962095022201538e-01" nType="0">
          <Node pos="l" depth="2" NCoef="0" IVar="-1" Cut="0.0000000000000000e+00" cType="1" res="-4.1031725704669952e-03" rms="4.4139331579208374e-01" purity="3.4755688905715942e-01" nType="-99"/>
          <Node pos="r" depth="2" NCoef="0" IVar="-1" Cut="0.0000000000000000e+00" cType="1" res="-1.3029653346166015e-03" rms="4.4297266006469727e-01" purity="4.4440847635269165e-01" nType="-99"/>
        </Node>
        <Node pos="r" depth="1" NCoef="0" IVar="8" Cut="5.0920864868164062e+02" cType="1" res="1.0332196950912476e-02" rms="4.5806893706321716e-01" purity="5.1145017147064209e-01" nType="0">
          <Node pos="l" depth="2" NCoef="0" IVar="-1" Cut="0.0000000000000000e+00" cType="1" res="7.7906163642182946e-04" rms="4.5939460396766663e-01" purity="5.2605462074279785e-01" nType="-99"/>
          <Node pos="r" depth="2" NCoef="0" IVar="-1" Cut="0.0000000000000000e+00" cType="1" res="-4.4007827527821064e-03" rms="4.3371751904487610e-01" purity="3.3190485835075378e-01" nType="-99"/>
        </Node>
      </Node>
    </BinaryTree>
    <BinaryTree type="DecisionTree" boostWeight="1.0000000000000000e+00" itree="270">
      <Node pos="s" depth="0" NCoef="0" IVar="2" Cut="6.3319942474365234e+01" cType="1" res="1.1188872158527374e-02" rms="4.5647725462913513e-01" purity="5.0554609298706055e-01" nType="0">
        <Node pos="l" depth="1" NCoef="0" IVar="2" Cut="3.4759380340576172e+01" cType="1" res="-1.7251914367079735e-02" rms="4.6238204836845398e-01" purity="4.3360963463783264e-01" nType="0">
          <Node pos="l" depth="2" NCoef="0" IVar="-1" Cut="0.0000000000000000e+00" cType="1" res="-4.8041064292192459e-03" rms="4.3615171313285828e-01" purity="3.1733432412147522e-01" nType="-99"/>
          <Node pos="r" depth="2" NCoef="0" IVar="-1" Cut="0.0000000000000000e+00" cType="1" res="-3.2399293559137732e-05" rms="4.6795153617858887e-01" purity="4.6548432111740112e-01" nType="-99"/>
        </Node>
        <Node pos="r" depth="1" NCoef="0" IVar="0" Cut="1.3934445381164551e+00" cType="1" res="2.3551434278488159e-02" rms="4.5333057641983032e-01" purity="5.3681522607803345e-01" nType="0">
          <Node pos="l" depth="2" NCoef="0" IVar="-1" Cut="0.0000000000000000e+00" cType="1" res="2.6986950542777777e-03" rms="4.4484180212020874e-01" purity="6.7411720752716064e-01" nType="-99"/>
          <Node pos="r" depth="2" NCoef="0" IVar="-1" Cut="0.0000000000000000e+00" cType="1" res="-3.2743907650001347e-04" rms="4.5632818341255188e-01" purity="4.4741970300674438e-01" nType="-99"/>
        </Node>
      </Node>
    </BinaryTree>
    <BinaryTree type="DecisionTree" boostWeight="1.0000000000000000e+00" itree="271">
      <Node pos="s" depth="0" NCoef="0" IVar="3" Cut="1.1174939727783203e+02" cType="1" res="3.4914826974272728e-03" rms="4.5500239729881287e-01" purity="4.9694460630416870e-01" nType="0">
        <Node pos="l" depth="1" NCoef="0" IVar="3" Cut="1.0047826385498047e+02" cType="1" res="-3.7270907312631607e-02" rms="4.4916215538978577e-01" purity="4.0342524647712708e-01" nType="0">
          <Node pos="l" depth="2" NCoef="0" IVar="-1" Cut="0.0000000000000000e+00" cType="1" res="-5.3822044283151627e-03" rms="4.3151015043258667e-01" purity="3.1470027565956116e-01" nType="-99"/>
          <Node pos="r" depth="2" NCoef="0" IVar="-1" Cut="0.0000000000000000e+00" cType="1" res="-6.2033976428210735e-04" rms="4.5711815357208252e-01" purity="4.5444890856742859e-01" nType="-99"/>
        </Node>
        <Node pos="r" depth="1" NCoef="0" IVar="3" Cut="1.3729621887207031e+02" cType="1" res="1.1211141943931580e-02" rms="4.5568951964378357e-01" purity="5.1465553045272827e-01" nType="0">
          <Node pos="l" depth="2" NCoef="0" IVar="-1" Cut="0.0000000000000000e+00" cType="1" res="9.0734969126060605e-04" rms="4.5693269371986389e-01" purity="5.3956937789916992e-01" nType="-99"/>
          <Node pos="r" depth="2" NCoef="0" IVar="-1" Cut="0.0000000000000000e+00" cType="1" res="-3.1321654096245766e-03" rms="4.4230088591575623e-01" purity="3.4149050712585449e-01" nType="-99"/>
        </Node>
      </Node>
    </BinaryTree>
    <BinaryTree type="DecisionTree" boostWeight="1.0000000000000000e+00" itree="272">
      <Node pos="s" depth="0" NCoef="0" IVar="5" Cut="1.7018414735794067e+00" cType="1" res="6.1342976987361908e-03" rms="4.5660784840583801e-01" purity="4.9836099147796631e-01" nType="0">
        <Node pos="l" depth="1" NCoef="0" IVar="6" Cut="2.8264495849609375e+02" cType="1" res="1.3269920833408833e-02" rms="4.5873472094535828e-01" purity="5.1778709888458252e-01" nType="0">
          <Node pos="l" depth="2" NCoef="0" IVar="-1" Cut="0.0000000000000000e+00" cType="1" res="-5.3616454824805260e-03" rms="4.1179382801055908e-01" purity="2.5781407952308655e-01" nType="-99"/>
          <Node pos="r" depth="2" NCoef="0" IVar="-1" Cut="0.0000000000000000e+00" cType="1" res="8.4087066352367401e-04" rms="4.6108254790306091e-01" purity="5.3424632549285889e-01" nType="-99"/>
        </Node>
        <Node pos="r" depth="1" NCoef="0" IVar="0" Cut="1.2271198034286499e+00" cType="1" res="-5.3420778363943100e-02" rms="4.3390151858329773e-01" purity="3.3622759580612183e-01" nType="0">
          <Node pos="l" depth="2" NCoef="0" IVar="-1" Cut="0.0000000000000000e+00" cType="1" res="-1.7638986464589834e-03" rms="4.5020696520805359e-01" purity="4.0111953020095825e-01" nType="-99"/>
          <Node pos="r" depth="2" NCoef="0" IVar="-1" Cut="0.0000000000000000e+00" cType="1" res="-5.5180289782583714e-03" rms="4.1641175746917725e-01" purity="2.7297171950340271e-01" nType="-99"/>
        </Node>
      </Node>
    </BinaryTree>
    <BinaryTree type="DecisionTree" boostWeight="1.0000000000000000e+00" itree="273">
      <Node pos="s" depth="0" NCoef="0" IVar="3" Cut="1.4461666870117188e+02" cType="1" res="9.7704334184527397e-03" rms="4.5529702305793762e-01" purity="5.0405955314636230e-01" nType="0">
        <Node pos="l" depth="1" NCoef="0" IVar="0" Cut="1.2719587087631226e+00" cType="1" res="1.4013710431754589e-02" rms="4.5665222406387329e-01" purity="5.1601356267929077e-01" nType="0">
          <Node pos="l" depth="2" NCoef="0" IVar="-1" Cut="0.0000000000000000e+00" cType="1" res="1.4866534620523453e-03" rms="4.5502701401710510e-01" purity="5.6925541162490845e-01" nType="-99"/>
          <Node pos="r" depth="2" NCoef="0" IVar="-1" Cut="0.0000000000000000e+00" cType="1" res="-1.9969120330642909e-04" rms="4.5733121037483215e-01" purity="4.6898531913757324e-01" nType="-99"/>
        </Node>
        <Node pos="r" depth="1" NCoef="0" IVar="-1" Cut="0.0000000000000000e+00" cType="1" res="-5.0136875361204147e-03" rms="4.2197325825691223e-01" purity="2.8369066119194031e-01" nType="-99"/>
      </Node>
    </BinaryTree>
    <BinaryTree type="DecisionTree" boostWeight="1.0000000000000000e+00" itree="274">
      <Node pos="s" depth="0" NCoef="0" IVar="1" Cut="9.7928941249847412e-01" cType="1" res="1.5436747344210744e-03" rms="4.5620390772819519e-01" purity="4.9577772617340088e-01" nType="0">
        <Node pos="l" depth="1" NCoef="0" IVar="6" Cut="2.9458425903320312e+02" cType="1" res="-7.2166169993579388e-03" rms="4.5935311913490295e-01" purity="4.5333647727966309e-01" nType="0">
          <Node pos="l" depth="2" NCoef="0" IVar="-1" Cut="0.0000000000000000e+00" cType="1" res="-6.1063044704496861e-03" rms="3.9701887965202332e-01" purity="2.2107447683811188e-01" nType="-99"/>
          <Node pos="r" depth="2" NCoef="0" IVar="-1" Cut="0.0000000000000000e+00" cType="1" res="-8.9850043877959251e-05" rms="4.6393230557441711e-01" purity="4.7332659363746643e-01" nType="-99"/>
        </Node>
        <Node pos="r" depth="1" NCoef="0" IVar="5" Cut="1.3556944131851196e+00" cType="1" res="3.9716903120279312e-02" rms="4.4018909335136414e-01" purity="6.8071675300598145e-01" nType="0">
          <Node pos="l" depth="2" NCoef="0" IVar="-1" Cut="0.0000000000000000e+00" cType="1" res="2.2632356267422438e-03" rms="4.2896208167076111e-01" purity="7.1952891349792480e-01" nType="-99"/>
          <Node pos="r" depth="2" NCoef="0" IVar="-1" Cut="0.0000000000000000e+00" cType="1" res="2.4340169329661876e-04" rms="4.6089890599250793e-01" purity="5.9965038299560547e-01" nType="-99"/>
        </Node>
      </Node>
    </BinaryTree>
    <BinaryTree type="DecisionTree" boostWeight="1.0000000000000000e+00" itree="275">
      <Node pos="s" depth="0" NCoef="0" IVar="0" Cut="1.6425933837890625e+00" cType="1" res="5.4089808836579323e-03" rms="4.5336335897445679e-01" purity="4.9989721179008484e-01" nType="0">
        <Node pos="l" depth="1" NCoef="0" IVar="2" Cut="9.2198982238769531e+01" cType="1" res="1.9331106916069984e-02" rms="4.5695570111274719e-01" purity="5.5303299427032471e-01" nType="0">
          <Node pos="l" depth="2" NCoef="0" IVar="-1" Cut="0.0000000000000000e+00" cType="1" res="-3.9104910683818161e-04" rms="4.6340870857238770e-01" purity="4.8464208841323853e-01" nType="-99"/>
          <Node pos="r" depth="2" NCoef="0" IVar="-1" Cut="0.0000000000000000e+00" cType="1" res="2.9585501179099083e-03" rms="4.3816015124320984e-01" purity="6.9282239675521851e-01" nType="-99"/>
        </Node>
        <Node pos="r" depth="1" NCoef="0" IVar="8" Cut="2.5635867309570312e+02" cType="1" res="-2.4582384154200554e-02" rms="4.4404572248458862e-01" purity="3.8543084263801575e-01" nType="0">
          <Node pos="l" depth="2" NCoef="0" IVar="-1" Cut="0.0000000000000000e+00" cType="1" res="-1.3479881454259157e-04" rms="4.5897173881530762e-01" purity="4.5276018977165222e-01" nType="-99"/>
          <Node pos="r" depth="2" NCoef="0" IVar="-1" Cut="0.0000000000000000e+00" cType="1" res="-3.3370775636285543e-03" rms="4.2594361305236816e-01" purity="3.1225138902664185e-01" nType="-99"/>
        </Node>
      </Node>
    </BinaryTree>
    <BinaryTree type="DecisionTree" boostWeight="1.0000000000000000e+00" itree="276">
      <Node pos="s" depth="0" NCoef="0" IVar="1" Cut="9.1366451978683472e-01" cType="1" res="4.0123271755874157e-03" rms="4.5430454611778259e-01" purity="4.9859634041786194e-01" nType="0">
        <Node pos="l" depth="1" NCoef="0" IVar="-1" Cut="0.0000000000000000e+00" cType="1" res="-4.8314067535102367e-03" rms="4.0936815738677979e-01" purity="2.6495486497879028e-01" nType="-99"/>
        <Node pos="r" depth="1" NCoef="0" IVar="5" Cut="1.3389437198638916e+00" cType="1" res="1.0004092939198017e-02" rms="4.5731249451637268e-01" purity="5.1793164014816284e-01" nType="0">
          <Node pos="l" depth="2" NCoef="0" IVar="-1" Cut="0.0000000000000000e+00" cType="1" res="1.1793666053563356e-03" rms="4.6036937832832336e-01" purity="5.6570553779602051e-01" nType="-99"/>
          <Node pos="r" depth="2" NCoef="0" IVar="-1" Cut="0.0000000000000000e+00" cType="1" res="-8.3444570191204548e-04" rms="4.5128011703491211e-01" purity="4.4317936897277832e-01" nType="-99"/>
        </Node>
      </Node>
    </BinaryTree>
    <BinaryTree type="DecisionTree" boostWeight="1.0000000000000000e+00" itree="277">
      <Node pos="s" depth="0" NCoef="0" IVar="5" Cut="1.6766604185104370e+00" cType="1" res="8.9953113347291946e-03" rms="4.5517405867576599e-01" purity="5.0466096401214600e-01" nType="0">
        <Node pos="l" depth="1" NCoef="0" IVar="6" Cut="3.9722195434570312e+02" cType="1" res="1.6123777255415916e-02" rms="4.5727792382240295e-01" purity="5.2578067779541016e-01" nType="0">
          <Node pos="l" depth="2" NCoef="0" IVar="-1" Cut="0.0000000000000000e+00" cType="1" res="-5.2163441432639956e-04" rms="4.5761981606483459e-01" purity="4.0649408102035522e-01" nType="-99"/>
          <Node pos="r" depth="2" NCoef="0" IVar="-1" Cut="0.0000000000000000e+00" cType="1" res="1.2111061951145530e-03" rms="4.5665389299392700e-01" purity="5.8031904697418213e-01" nType="-99"/>
        </Node>
        <Node pos="r" depth="1" NCoef="0" IVar="8" Cut="2.5829278564453125e+02" cType="1" res="-4.5089419931173325e-02" rms="4.3509522080421448e-01" purity="3.4442272782325745e-01" nType="0">
          <Node pos="l" depth="2" NCoef="0" IVar="-1" Cut="0.0000000000000000e+00" cType="1" res="-1.0469150729477406e-03" rms="4.5601159334182739e-01" purity="4.0247505903244019e-01" nType="-99"/>
          <Node pos="r" depth="2" NCoef="0" IVar="-1" Cut="0.0000000000000000e+00" cType="1" res="-4.8319268971681595e-03" rms="4.1188314557075500e-01" purity="2.8728285431861877e-01" nType="-99"/>
        </Node>
      </Node>
    </BinaryTree>
    <BinaryTree type="DecisionTree" boostWeight="1.0000000000000000e+00" itree="278">
      <Node pos="s" depth="0" NCoef="0" IVar="2" Cut="6.4147903442382812e+01" cType="1" res="1.3907944783568382e-02" rms="4.5664206147193909e-01" purity="5.0785797834396362e-01" nType="0">
        <Node pos="l" depth="1" NCoef="0" IVar="4" Cut="2.1708869934082031e+00" cType="1" res="-8.6249560117721558e-03" rms="4.6308279037475586e-01" purity="4.4216108322143555e-01" nType="0">
          <Node pos="l" depth="2" NCoef="0" IVar="-1" Cut="0.0000000000000000e+00" cType="1" res="7.3504686588421464e-04" rms="4.7584429383277893e-01" purity="5.1452112197875977e-01" nType="-99"/>
          <Node pos="r" depth="2" NCoef="0" IVar="-1" Cut="0.0000000000000000e+00" cType="1" res="-2.4817979428917170e-03" rms="4.4392669200897217e-01" purity="3.4826821088790894e-01" nType="-99"/>
        </Node>
        <Node pos="r" depth="1" NCoef="0" IVar="0" Cut="1.1069314479827881e+00" cType="1" res="2.4004228413105011e-02" rms="4.5336329936981201e-01" purity="5.3729462623596191e-01" nType="0">
          <Node pos="l" depth="2" NCoef="0" IVar="-1" Cut="0.0000000000000000e+00" cType="1" res="2.9780429322272539e-03" rms="4.3211355805397034e-01" purity="7.0041263103485107e-01" nType="-99"/>
          <Node pos="r" depth="2" NCoef="0" IVar="-1" Cut="0.0000000000000000e+00" cType="1" res="5.3794629639014602e-04" rms="4.5753401517868042e-01" purity="4.9685761332511902e-01" nType="-99"/>
        </Node>
      </Node>
    </BinaryTree>
    <BinaryTree type="DecisionTree" boostWeight="1.0000000000000000e+00" itree="279">
      <Node pos="s" depth="0" NCoef="0" IVar="7" Cut="-1.1423182487487793e+00" cType="1" res="2.1357371006160975e-03" rms="4.5444956421852112e-01" purity="4.9648433923721313e-01" nType="0">
        <Node pos="l" depth="1" NCoef="0" IVar="2" Cut="9.9532905578613281e+01" cType="1" res="3.6275181919336319e-02" rms="4.6339964866638184e-01" purity="6.1037397384643555e-01" nType="0">
          <Node pos="l" depth="2" NCoef="0" IVar="-1" Cut="0.0000000000000000e+00" cType="1" res="1.1010362068191171e-03" rms="4.7923579812049866e-01" purity="5.7397913932800293e-01" nType="-99"/>
          <Node pos="r" depth="2" NCoef="0" IVar="-1" Cut="0.0000000000000000e+00" cType="1" res="2.1758941002190113e-03" rms="4.3506094813346863e-01" purity="6.7121398448944092e-01" nType="-99"/>
        </Node>
        <Node pos="r" depth="1" NCoef="0" IVar="6" Cut="5.1416778564453125e+02" cType="1" res="-7.6439459808170795e-03" rms="4.5137751102447510e-01" purity="4.6385917067527771e-01" nType="0">
          <Node pos="l" depth="2" NCoef="0" IVar="-1" Cut="0.0000000000000000e+00" cType="1" res="-1.5100197633728385e-03" rms="4.4511851668357849e-01" purity="4.0416172146797180e-01" nType="-99"/>
          <Node pos="r" depth="2" NCoef="0" IVar="-1" Cut="0.0000000000000000e+00" cType="1" res="8.1730750389397144e-04" rms="4.5835173130035400e-01" purity="5.4333239793777466e-01" nType="-99"/>
        </Node>
      </Node>
    </BinaryTree>
    <BinaryTree type="DecisionTree" boostWeight="1.0000000000000000e+00" itree="280">
      <Node pos="s" depth="0" NCoef="0" IVar="3" Cut="1.3370449829101562e+02" cType="1" res="3.7169060669839382e-03" rms="4.5402032136917114e-01" purity="5.0012582540512085e-01" nType="0">
        <Node pos="l" depth="1" NCoef="0" IVar="0" Cut="1.2594133615493774e+00" cType="1" res="1.2061720713973045e-02" rms="4.5596331357955933e-01" purity="5.2230536937713623e-01" nType="0">
          <Node pos="l" depth="2" NCoef="0" IVar="-1" Cut="0.0000000000000000e+00" cType="1" res="1.3646800071001053e-03" rms="4.5115825533866882e-01" purity="5.7428395748138428e-01" nType="-99"/>
          <Node pos="r" depth="2" NCoef="0" IVar="-1" Cut="0.0000000000000000e+00" cType="1" res="-2.4369102902710438e-04" rms="4.5949998497962952e-01" purity="4.7646394371986389e-01" nType="-99"/>
        </Node>
        <Node pos="r" depth="1" NCoef="0" IVar="1" Cut="9.4172585010528564e-01" cType="1" res="-4.1317593306303024e-02" rms="4.4066837430000305e-01" purity="3.8042923808097839e-01" nType="0">
          <Node pos="l" depth="2" NCoef="0" IVar="-1" Cut="0.0000000000000000e+00" cType="1" res="-7.6434045331552625e-04" rms="4.3115437030792236e-01" purity="3.0697116255760193e-01" nType="-99"/>
          <Node pos="r" depth="2" NCoef="0" IVar="-1" Cut="0.0000000000000000e+00" cType="1" res="-3.1673072371631861e-03" rms="4.4492948055267334e-01" purity="4.2072817683219910e-01" nType="-99"/>
        </Node>
      </Node>
    </BinaryTree>
    <BinaryTree type="DecisionTree" boostWeight="1.0000000000000000e+00" itree="281">
      <Node pos="s" depth="0" NCoef="0" IVar="7" Cut="-9.9953603744506836e-01" cType="1" res="4.5435652136802673e-03" rms="4.5466196537017822e-01" purity="5.0097638368606567e-01" nType="0">
        <Node pos="l" depth="1" NCoef="0" IVar="7" Cut="-1.2073438167572021e+00" cType="1" res="2.9952671378850937e-02" rms="4.6250909566879272e-01" purity="5.9262371063232422e-01" nType="0">
          <Node pos="l" depth="2" NCoef="0" IVar="-1" Cut="0.0000000000000000e+00" cType="1" res="1.8698394997045398e-03" rms="4.5992645621299744e-01" purity="6.2416416406631470e-01" nType="-99"/>
          <Node pos="r" depth="2" NCoef="0" IVar="-1" Cut="0.0000000000000000e+00" cType="1" res="2.2410506517189788e-06" rms="4.6612679958343506e-01" purity="5.3031605482101440e-01" nType="-99"/>
        </Node>
        <Node pos="r" depth="1" NCoef="0" IVar="7" Cut="7.5296086072921753e-01" cType="1" res="-5.4725278168916702e-03" rms="4.5113810896873474e-01" purity="4.6484962105751038e-01" nType="0">
          <Node pos="l" depth="2" NCoef="0" IVar="-1" Cut="0.0000000000000000e+00" cType="1" res="-1.9157615024596453e-03" rms="4.3977558612823486e-01" purity="3.6211693286895752e-01" nType="-99"/>
          <Node pos="r" depth="2" NCoef="0" IVar="-1" Cut="0.0000000000000000e+00" cType="1" res="7.5878383358940482e-04" rms="4.5945176482200623e-01" purity="5.5272811651229858e-01" nType="-99"/>
        </Node>
      </Node>
    </BinaryTree>
    <BinaryTree type="DecisionTree" boostWeight="1.0000000000000000e+00" itree="282">
      <Node pos="s" depth="0" NCoef="0" IVar="4" Cut="2.5474989414215088e+00" cType="1" res="9.1097718104720116e-03" rms="4.5403167605400085e-01" purity="5.0472736358642578e-01" nType="0">
        <Node pos="l" depth="1" NCoef="0" IVar="2" Cut="5.1646575927734375e+01" cType="1" res="1.7349444329738617e-02" rms="4.6207433938980103e-01" purity="5.5503839254379272e-01" nType="0">
          <Node pos="l" depth="2" NCoef="0" IVar="-1" Cut="0.0000000000000000e+00" cType="1" res="-1.2651482829824090e-03" rms="4.6570086479187012e-01" purity="4.2207694053649902e-01" nType="-99"/>
          <Node pos="r" depth="2" NCoef="0" IVar="-1" Cut="0.0000000000000000e+00" cType="1" res="1.2348470045253634e-03" rms="4.6040391921997070e-01" purity="5.9186416864395142e-01" nType="-99"/>
        </Node>
        <Node pos="r" depth="1" NCoef="0" IVar="6" Cut="5.2884649658203125e+02" cType="1" res="-2.9833925887942314e-02" rms="4.1168406605720520e-01" purity="2.6693871617317200e-01" nType="0">
          <Node pos="l" depth="2" NCoef="0" IVar="-1" Cut="0.0000000000000000e+00" cType="1" res="-5.0171562470495701e-03" rms="3.8836959004402161e-01" purity="2.1611015498638153e-01" nType="-99"/>
          <Node pos="r" depth="2" NCoef="0" IVar="-1" Cut="0.0000000000000000e+00" cType="1" res="8.2942913286387920e-04" rms="4.4760528206825256e-01" purity="3.5895833373069763e-01" nType="-99"/>
        </Node>
      </Node>
    </BinaryTree>
    <BinaryTree type="DecisionTree" boostWeight="1.0000000000000000e+00" itree="283">
      <Node pos="s" depth="0" NCoef="0" IVar="0" Cut="1.4201049804687500e+00" cType="1" res="8.3135627210140228e-03" rms="4.5319202542304993e-01" purity="5.0686675310134888e-01" nType="0">
        <Node pos="l" depth="1" NCoef="0" IVar="2" Cut="5.6394744873046875e+01" cType="1" res="2.8758246451616287e-02" rms="4.5296630263328552e-01" purity="5.6579089164733887e-01" nType="0">
          <Node pos="l" depth="2" NCoef="0" IVar="-1" Cut="0.0000000000000000e+00" cType="1" res="-2.6273805997334421e-04" rms="4.6182337403297424e-01" purity="4.3941149115562439e-01" nType="-99"/>
          <Node pos="r" depth="2" NCoef="0" IVar="-1" Cut="0.0000000000000000e+00" cType="1" res="2.1084086038172245e-03" rms="4.4537448883056641e-01" purity="6.5163153409957886e-01" nType="-99"/>
        </Node>
        <Node pos="r" depth="1" NCoef="0" IVar="1" Cut="9.7361791133880615e-01" cType="1" res="-1.8240105360746384e-02" rms="4.5210692286491394e-01" purity="4.3033576011657715e-01" nType="0">
          <Node pos="l" depth="2" NCoef="0" IVar="-1" Cut="0.0000000000000000e+00" cType="1" res="-1.9931588321924210e-03" rms="4.4970750808715820e-01" purity="3.6866334080696106e-01" nType="-99"/>
          <Node pos="r" depth="2" NCoef="0" IVar="-1" Cut="0.0000000000000000e+00" cType="1" res="1.2711205054074526e-03" rms="4.5636385679244995e-01" purity="6.2611377239227295e-01" nType="-99"/>
        </Node>
      </Node>
    </BinaryTree>
    <BinaryTree type="DecisionTree" boostWeight="1.0000000000000000e+00" itree="284">
      <Node pos="s" depth="0" NCoef="0" IVar="0" Cut="1.4320360422134399e+00" cType="1" res="9.6856420859694481e-03" rms="4.5427230000495911e-01" purity="5.0589936971664429e-01" nType="0">
        <Node pos="l" depth="1" NCoef="0" IVar="2" Cut="1.0217658996582031e+02" cType="1" res="2.6238108053803444e-02" rms="4.5420271158218384e-01" purity="5.6202417612075806e-01" nType="0">
          <Node pos="l" depth="2" NCoef="0" IVar="-1" Cut="0.0000000000000000e+00" cType="1" res="2.4007682804949582e-04" rms="4.6292826533317566e-01" purity="5.1195579767227173e-01" nType="-99"/>
          <Node pos="r" depth="2" NCoef="0" IVar="-1" Cut="0.0000000000000000e+00" cType="1" res="3.9345789700746536e-03" rms="4.1022992134094238e-01" purity="7.5028306245803833e-01" nType="-99"/>
        </Node>
        <Node pos="r" depth="1" NCoef="0" IVar="5" Cut="1.3329075574874878e+00" cType="1" res="-1.2225781567394733e-02" rms="4.5343598723411560e-01" purity="4.3160393834114075e-01" nType="0">
          <Node pos="l" depth="2" NCoef="0" IVar="-1" Cut="0.0000000000000000e+00" cType="1" res="6.0063543060095981e-05" rms="4.6368506550788879e-01" purity="4.8370763659477234e-01" nType="-99"/>
          <Node pos="r" depth="2" NCoef="0" IVar="-1" Cut="0.0000000000000000e+00" cType="1" res="-2.3548251483589411e-03" rms="4.3359547853469849e-01" purity="3.3897751569747925e-01" nType="-99"/>
        </Node>
      </Node>
    </BinaryTree>
    <BinaryTree type="DecisionTree" boostWeight="1.0000000000000000e+00" itree="285">
      <Node pos="s" depth="0" NCoef="0" IVar="8" Cut="2.8212649536132812e+02" cType="1" res="5.9076184406876564e-03" rms="4.5496141910552979e-01" purity="5.0157284736633301e-01" nType="0">
        <Node pos="l" depth="1" NCoef="0" IVar="8" Cut="1.3549618530273438e+02" cType="1" res="1.7273414880037308e-02" rms="4.5773401856422424e-01" purity="5.3531140089035034e-01" nType="0">
          <Node pos="l" depth="2" NCoef="0" IVar="-1" Cut="0.0000000000000000e+00" cType="1" res="-1.0394924320280552e-03" rms="4.5863881707191467e-01" purity="4.7139787673950195e-01" nType="-99"/>
          <Node pos="r" depth="2" NCoef="0" IVar="-1" Cut="0.0000000000000000e+00" cType="1" res="1.3800018932670355e-03" rms="4.5665782690048218e-01" purity="5.5799281597137451e-01" nType="-99"/>
        </Node>
        <Node pos="r" depth="1" NCoef="0" IVar="5" Cut="1.0646326541900635e+00" cType="1" res="-2.0493384450674057e-02" rms="4.4734185934066772e-01" purity="4.2320328950881958e-01" nType="0">
          <Node pos="l" depth="2" NCoef="0" IVar="-1" Cut="0.0000000000000000e+00" cType="1" res="2.1521553862839937e-03" rms="4.4996914267539978e-01" purity="5.6755518913269043e-01" nType="-99"/>
          <Node pos="r" depth="2" NCoef="0" IVar="-1" Cut="0.0000000000000000e+00" cType="1" res="-2.2165165282785892e-03" rms="4.4504559040069580e-01" purity="3.8797798752784729e-01" nType="-99"/>
        </Node>
      </Node>
    </BinaryTree>
    <BinaryTree type="DecisionTree" boostWeight="1.0000000000000000e+00" itree="286">
      <Node pos="s" depth="0" NCoef="0" IVar="0" Cut="1.3630411624908447e+00" cType="1" res="2.6599850971251726e-03" rms="4.5563322305679321e-01" purity="4.9701017141342163e-01" nType="0">
        <Node pos="l" depth="1" NCoef="0" IVar="2" Cut="8.8004341125488281e+01" cType="1" res="1.6585750505328178e-02" rms="4.5518723130226135e-01" purity="5.4995238780975342e-01" nType="0">
          <Node pos="l" depth="2" NCoef="0" IVar="-1" Cut="0.0000000000000000e+00" cType="1" res="-4.0201743831858039e-04" rms="4.6358266472816467e-01" purity="4.8514401912689209e-01" nType="-99"/>
          <Node pos="r" depth="2" NCoef="0" IVar="-1" Cut="0.0000000000000000e+00" cType="1" res="3.2066835556179285e-03" rms="4.2499479651451111e-01" purity="7.2236305475234985e-01" nType="-99"/>
        </Node>
        <Node pos="r" depth="1" NCoef="0" IVar="5" Cut="9.6069508790969849e-01" cType="1" res="-1.2317370623350143e-02" rms="4.5563766360282898e-01" purity="4.4007012248039246e-01" nType="0">
          <Node pos="l" depth="2" NCoef="0" IVar="-1" Cut="0.0000000000000000e+00" cType="1" res="1.4386356342583895e-03" rms="4.6072188019752502e-01" purity="5.6878548860549927e-01" nType="-99"/>
          <Node pos="r" depth="2" NCoef="0" IVar="-1" Cut="0.0000000000000000e+00" cType="1" res="-1.0829356033354998e-03" rms="4.5440873503684998e-01" purity="4.1949620842933655e-01" nType="-99"/>
        </Node>
      </Node>
    </BinaryTree>
    <BinaryTree type="DecisionTree" boostWeight="1.0000000000000000e+00" itree="287">
      <Node pos="s" depth="0" NCoef="0" IVar="6" Cut="5.4864093017578125e+02" cType="1" res="6.5376963466405869e-03" rms="4.5468628406524658e-01" purity="5.0178897380828857e-01" nType="0">
        <Node pos="l" depth="1" NCoef="0" IVar="8" Cut="2.4268357849121094e+02" cType="1" res="-5.6548812426626682e-03" rms="4.5497888326644897e-01" purity="4.5589628815650940e-01" nType="0">
          <Node pos="l" depth="2" NCoef="0" IVar="-1" Cut="0.0000000000000000e+00" cType="1" res="4.1601748671382666e-04" rms="4.6342551708221436e-01" purity="4.9916222691535950e-01" nType="-99"/>
          <Node pos="r" depth="2" NCoef="0" IVar="-1" Cut="0.0000000000000000e+00" cType="1" res="-2.9082894325256348e-03" rms="4.2891022562980652e-01" purity="3.3879631757736206e-01" nType="-99"/>
        </Node>
        <Node pos="r" depth="1" NCoef="0" IVar="2" Cut="6.4206054687500000e+01" cType="1" res="2.7387054637074471e-02" rms="4.5342645049095154e-01" purity="5.8026576042175293e-01" nType="0">
          <Node pos="l" depth="2" NCoef="0" IVar="-1" Cut="0.0000000000000000e+00" cType="1" res="-1.1555325472727418e-03" rms="4.7119876742362976e-01" purity="4.9322766065597534e-01" nType="-99"/>
          <Node pos="r" depth="2" NCoef="0" IVar="-1" Cut="0.0000000000000000e+00" cType="1" res="1.6752589726820588e-03" rms="4.4857978820800781e-01" purity="5.9943872690200806e-01" nType="-99"/>
        </Node>
      </Node>
    </BinaryTree>
    <BinaryTree type="DecisionTree" boostWeight="1.0000000000000000e+00" itree="288">
      <Node pos="s" depth="0" NCoef="0" IVar="6" Cut="3.2835253906250000e+02" cType="1" res="2.1501795854419470e-03" rms="4.5403352379798889e-01" purity="4.9687939882278442e-01" nType="0">
        <Node pos="l" depth="1" NCoef="0" IVar="6" Cut="2.8454772949218750e+02" cType="1" res="-4.1150089353322983e-02" rms="4.3149051070213318e-01" purity="3.0148392915725708e-01" nType="0">
          <Node pos="l" depth="2" NCoef="0" IVar="-1" Cut="0.0000000000000000e+00" cType="1" res="-5.2010887302458286e-03" rms="4.1133373975753784e-01" purity="2.4478137493133545e-01" nType="-99"/>
          <Node pos="r" depth="2" NCoef="0" IVar="-1" Cut="0.0000000000000000e+00" cType="1" res="-1.7518156673759222e-03" rms="4.4467297196388245e-01" purity="3.4168982505798340e-01" nType="-99"/>
        </Node>
        <Node pos="r" depth="1" NCoef="0" IVar="5" Cut="1.1518961191177368e+00" cType="1" res="9.2468783259391785e-03" rms="4.5723137259483337e-01" purity="5.2890372276306152e-01" nType="0">
          <Node pos="l" depth="2" NCoef="0" IVar="-1" Cut="0.0000000000000000e+00" cType="1" res="1.4369706623256207e-03" rms="4.5115637779235840e-01" purity="6.0312324762344360e-01" nType="-99"/>
          <Node pos="r" depth="2" NCoef="0" IVar="-1" Cut="0.0000000000000000e+00" cType="1" res="-2.4873547954484820e-04" rms="4.6009105443954468e-01" purity="4.8608797788619995e-01" nType="-99"/>
        </Node>
      </Node>
    </BinaryTree>
    <BinaryTree type="DecisionTree" boostWeight="1.0000000000000000e+00" itree="289">
      <Node pos="s" depth="0" NCoef="0" IVar="1" Cut="9.3931311368942261e-01" cType="1" res="-9.7235513385385275e-04" rms="4.5118543505668640e-01" purity="4.9451282620429993e-01" nType="0">
        <Node pos="l" depth="1" NCoef="0" IVar="7" Cut="-2.8582611680030823e-01" cType="1" res="-3.6635100841522217e-02" rms="4.3729907274246216e-01" purity="3.3540046215057373e-01" nType="0">
          <Node pos="l" depth="2" NCoef="0" IVar="-1" Cut="0.0000000000000000e+00" cType="1" res="-7.9789002484176308e-05" rms="4.5542514324188232e-01" purity="3.7100782990455627e-01" nType="-99"/>
          <Node pos="r" depth="2" NCoef="0" IVar="-1" Cut="0.0000000000000000e+00" cType="1" res="-4.6597882173955441e-03" rms="4.1687682271003723e-01" purity="3.0199164152145386e-01" nType="-99"/>
        </Node>
        <Node pos="r" depth="1" NCoef="0" IVar="5" Cut="1.0423494577407837e+00" cType="1" res="1.2885729782283306e-02" rms="4.5571523904800415e-01" purity="5.5634188652038574e-01" nType="0">
          <Node pos="l" depth="2" NCoef="0" IVar="-1" Cut="0.0000000000000000e+00" cType="1" res="1.9632102921605110e-03" rms="4.4673532247543335e-01" purity="6.4308905601501465e-01" nType="-99"/>
          <Node pos="r" depth="2" NCoef="0" IVar="-1" Cut="0.0000000000000000e+00" cType="1" res="1.3361516175791621e-04" rms="4.5779266953468323e-01" purity="5.3123295307159424e-01" nType="-99"/>
        </Node>
      </Node>
    </BinaryTree>
    <BinaryTree type="DecisionTree" boostWeight="1.0000000000000000e+00" itree="290">
      <Node pos="s" depth="0" NCoef="0" IVar="0" Cut="1.5818867683410645e+00" cType="1" res="2.5334521196782589e-03" rms="4.5516321063041687e-01" purity="4.9595424532890320e-01" nType="0">
        <Node pos="l" depth="1" NCoef="0" IVar="2" Cut="7.2176612854003906e+01" cType="1" res="1.5614337287843227e-02" rms="4.5822173357009888e-01" purity="5.5052614212036133e-01" nType="0">
          <Node pos="l" depth="2" NCoef="0" IVar="-1" Cut="0.0000000000000000e+00" cType="1" res="-8.6554500740021467e-04" rms="4.6518978476524353e-01" purity="4.5111322402954102e-01" nType="-99"/>
          <Node pos="r" depth="2" NCoef="0" IVar="-1" Cut="0.0000000000000000e+00" cType="1" res="2.0961798727512360e-03" rms="4.4758039712905884e-01" purity="6.6066157817840576e-01" nType="-99"/>
        </Node>
        <Node pos="r" depth="1" NCoef="0" IVar="2" Cut="1.8617213439941406e+02" cType="1" res="-2.1608479321002960e-02" rms="4.4846302270889282e-01" purity="3.9523684978485107e-01" nType="0">
          <Node pos="l" depth="2" NCoef="0" IVar="-1" Cut="0.0000000000000000e+00" cType="1" res="-5.4364203242585063e-04" rms="4.5246392488479614e-01" purity="4.2074701189994812e-01" nType="-99"/>
          <Node pos="r" depth="2" NCoef="0" IVar="-1" Cut="0.0000000000000000e+00" cType="1" res="-5.0514517351984978e-03" rms="4.2840242385864258e-01" purity="2.9135411977767944e-01" nType="-99"/>
        </Node>
      </Node>
    </BinaryTree>
    <BinaryTree type="DecisionTree" boostWeight="1.0000000000000000e+00" itree="291">
      <Node pos="s" depth="0" NCoef="0" IVar="4" Cut="2.0825920104980469e+00" cType="1" res="8.8588967919349670e-03" rms="4.5392605662345886e-01" purity="5.0564694404602051e-01" nType="0">
        <Node pos="l" depth="1" NCoef="0" IVar="2" Cut="6.7014160156250000e+01" cType="1" res="4.0661998093128204e-02" rms="4.5656898617744446e-01" purity="6.2242877483367920e-01" nType="0">
          <Node pos="l" depth="2" NCoef="0" IVar="-1" Cut="0.0000000000000000e+00" cType="1" res="8.6496997391805053e-04" rms="4.7562181949615479e-01" purity="5.2240872383117676e-01" nType="-99"/>
          <Node pos="r" depth="2" NCoef="0" IVar="-1" Cut="0.0000000000000000e+00" cType="1" res="2.2848965600132942e-03" rms="4.3912798166275024e-01" purity="7.0634758472442627e-01" nType="-99"/>
        </Node>
        <Node pos="r" depth="1" NCoef="0" IVar="0" Cut="6.8984168767929077e-01" cType="1" res="-6.5870247781276703e-03" rms="4.5182999968528748e-01" purity="4.4892910122871399e-01" nType="0">
          <Node pos="l" depth="2" NCoef="0" IVar="-1" Cut="0.0000000000000000e+00" cType="1" res="-4.1780653409659863e-03" rms="4.3383631110191345e-01" purity="3.7371712923049927e-01" nType="-99"/>
          <Node pos="r" depth="2" NCoef="0" IVar="-1" Cut="0.0000000000000000e+00" cType="1" res="-1.6705882899259450e-06" rms="4.5307070016860962e-01" purity="4.5645672082901001e-01" nType="-99"/>
        </Node>
      </Node>
    </BinaryTree>
    <BinaryTree type="DecisionTree" boostWeight="1.0000000000000000e+00" itree="292">
      <Node pos="s" depth="0" NCoef="0" IVar="6" Cut="5.0711431884765625e+02" cType="1" res="2.0939514506608248e-03" rms="4.5487067103385925e-01" purity="4.9499472975730896e-01" nType="0">
        <Node pos="l" depth="1" NCoef="0" IVar="5" Cut="1.2794270515441895e+00" cType="1" res="-1.4052532613277435e-02" rms="4.5630788803100586e-01" purity="4.2989134788513184e-01" nType="0">
          <Node pos="l" depth="2" NCoef="0" IVar="-1" Cut="0.0000000000000000e+00" cType="1" res="1.5716801863163710e-04" rms="4.6735748648643494e-01" purity="4.9191832542419434e-01" nType="-99"/>
          <Node pos="r" depth="2" NCoef="0" IVar="-1" Cut="0.0000000000000000e+00" cType="1" res="-2.3407998960465193e-03" rms="4.4025644659996033e-01" purity="3.4797620773315430e-01" nType="-99"/>
        </Node>
        <Node pos="r" depth="1" NCoef="0" IVar="1" Cut="9.5347064733505249e-01" cType="1" res="2.2053657099604607e-02" rms="4.5229175686836243e-01" purity="5.7547324895858765e-01" nType="0">
          <Node pos="l" depth="2" NCoef="0" IVar="-1" Cut="0.0000000000000000e+00" cType="1" res="-6.0376637520676013e-06" rms="4.6454367041587830e-01" purity="4.6939590573310852e-01" nType="-99"/>
          <Node pos="r" depth="2" NCoef="0" IVar="-1" Cut="0.0000000000000000e+00" cType="1" res="1.6840744065120816e-03" rms="4.4075322151184082e-01" purity="6.6549360752105713e-01" nType="-99"/>
        </Node>
      </Node>
    </BinaryTree>
    <BinaryTree type="DecisionTree" boostWeight="1.0000000000000000e+00" itree="293">
      <Node pos="s" depth="0" NCoef="0" IVar="0" Cut="2.4067988395690918e+00" cType="1" res="1.6263572033494711e-03" rms="4.5404714345932007e-01" purity="4.9758967757225037e-01" nType="0">
        <Node pos="l" depth="1" NCoef="0" IVar="2" Cut="4.8263126373291016e+01" cType="1" res="5.7674958370625973e-03" rms="4.5796316862106323e-01" purity="5.1478648185729980e-01" nType="0">
          <Node pos="l" depth="2" NCoef="0" IVar="-1" Cut="0.0000000000000000e+00" cType="1" res="-1.6983640380203724e-03" rms="4.5462831854820251e-01" purity="3.9097401499748230e-01" nType="-99"/>
          <Node pos="r" depth="2" NCoef="0" IVar="-1" Cut="0.0000000000000000e+00" cType="1" res="6.4366310834884644e-04" rms="4.5831954479217529e-01" purity="5.4286724328994751e-01" nType="-99"/>
        </Node>
        <Node pos="r" depth="1" NCoef="0" IVar="-1" Cut="0.0000000000000000e+00" cType="1" res="-7.7836988493800163e-03" rms="3.6680281162261963e-01" purity="1.8207338452339172e-01" nType="-99"/>
      </Node>
    </BinaryTree>
    <BinaryTree type="DecisionTree" boostWeight="1.0000000000000000e+00" itree="294">
      <Node pos="s" depth="0" NCoef="0" IVar="1" Cut="9.7277235984802246e-01" cType="1" res="9.9983357358723879e-04" rms="4.5471227169036865e-01" purity="4.9376946687698364e-01" nType="0">
        <Node pos="l" depth="1" NCoef="0" IVar="3" Cut="1.4146928405761719e+02" cType="1" res="-7.6964199542999268e-03" rms="4.5578083395957947e-01" purity="4.3875899910926819e-01" nType="0">
          <Node pos="l" depth="2" NCoef="0" IVar="-1" Cut="0.0000000000000000e+00" cType="1" res="-1.2470694491639733e-04" rms="4.5910856127738953e-01" purity="4.5393133163452148e-01" nType="-99"/>
          <Node pos="r" depth="2" NCoef="0" IVar="-1" Cut="0.0000000000000000e+00" cType="1" res="-6.1190663836896420e-03" rms="4.0497115254402161e-01" purity="2.4489083886146545e-01" nType="-99"/>
        </Node>
        <Node pos="r" depth="1" NCoef="0" IVar="8" Cut="3.0040057373046875e+02" cType="1" res="2.6299500837922096e-02" rms="4.5063591003417969e-01" purity="6.5380918979644775e-01" nType="0">
          <Node pos="l" depth="2" NCoef="0" IVar="-1" Cut="0.0000000000000000e+00" cType="1" res="1.6521393554285169e-03" rms="4.4691443443298340e-01" purity="6.8333828449249268e-01" nType="-99"/>
          <Node pos="r" depth="2" NCoef="0" IVar="-1" Cut="0.0000000000000000e+00" cType="1" res="-7.5875216862186790e-04" rms="4.5975267887115479e-01" purity="5.5914980173110962e-01" nType="-99"/>
        </Node>
      </Node>
    </BinaryTree>
    <BinaryTree type="DecisionTree" boostWeight="1.0000000000000000e+00" itree="295">
      <Node pos="s" depth="0" NCoef="0" IVar="1" Cut="9.4592112302780151e-01" cType="1" res="8.4778312593698502e-03" rms="4.5335713028907776e-01" purity="5.0317913293838501e-01" nType="0">
        <Node pos="l" depth="1" NCoef="0" IVar="8" Cut="2.7086495971679688e+02" cType="1" res="-1.6798660159111023e-02" rms="4.4565227627754211e-01" purity="3.6808863282203674e-01" nType="0">
          <Node pos="l" depth="2" NCoef="0" IVar="-1" Cut="0.0000000000000000e+00" cType="1" res="2.1506412304006517e-04" rms="4.5926544070243835e-01" purity="4.0789139270782471e-01" nType="-99"/>
          <Node pos="r" depth="2" NCoef="0" IVar="-1" Cut="0.0000000000000000e+00" cType="1" res="-4.0491963736712933e-03" rms="4.1529858112335205e-01" purity="2.9153624176979065e-01" nType="-99"/>
        </Node>
        <Node pos="r" depth="1" NCoef="0" IVar="3" Cut="1.3376037597656250e+02" cType="1" res="2.3146733641624451e-02" rms="4.5712861418724060e-01" purity="5.8157724142074585e-01" nType="0">
          <Node pos="l" depth="2" NCoef="0" IVar="-1" Cut="0.0000000000000000e+00" cType="1" res="1.4117180835455656e-03" rms="4.5568868517875671e-01" purity="6.0436874628067017e-01" nType="-99"/>
          <Node pos="r" depth="2" NCoef="0" IVar="-1" Cut="0.0000000000000000e+00" cType="1" res="-1.5601074555888772e-03" rms="4.6171659231185913e-01" purity="4.5049262046813965e-01" nType="-99"/>
        </Node>
      </Node>
    </BinaryTree>
    <BinaryTree type="DecisionTree" boostWeight="1.0000000000000000e+00" itree="296">
      <Node pos="s" depth="0" NCoef="0" IVar="8" Cut="5.1030065917968750e+02" cType="1" res="5.6068706326186657e-03" rms="4.5376828312873840e-01" purity="4.9861079454421997e-01" nType="0">
        <Node pos="l" depth="1" NCoef="0" IVar="7" Cut="-1.1423782110214233e+00" cType="1" res="1.1067059822380543e-02" rms="4.5573264360427856e-01" purity="5.1230430603027344e-01" nType="0">
          <Node pos="l" depth="2" NCoef="0" IVar="-1" Cut="0.0000000000000000e+00" cType="1" res="1.6833203844726086e-03" rms="4.6033918857574463e-01" purity="6.1580848693847656e-01" nType="-99"/>
          <Node pos="r" depth="2" NCoef="0" IVar="-1" Cut="0.0000000000000000e+00" cType="1" res="1.3812207907903939e-04" rms="4.5404085516929626e-01" purity="4.8209646344184875e-01" nType="-99"/>
        </Node>
        <Node pos="r" depth="1" NCoef="0" IVar="-1" Cut="0.0000000000000000e+00" cType="1" res="-4.0686558932065964e-03" rms="4.2321348190307617e-01" purity="3.3048281073570251e-01" nType="-99"/>
      </Node>
    </BinaryTree>
    <BinaryTree type="DecisionTree" boostWeight="1.0000000000000000e+00" itree="297">
      <Node pos="s" depth="0" NCoef="0" IVar="3" Cut="1.4461666870117188e+02" cType="1" res="6.2726652249693871e-03" rms="4.5469421148300171e-01" purity="5.0200170278549194e-01" nType="0">
        <Node pos="l" depth="1" NCoef="0" IVar="2" Cut="9.0620376586914062e+01" cType="1" res="1.0200805962085724e-02" rms="4.5636174082756042e-01" purity="5.1393646001815796e-01" nType="0">
          <Node pos="l" depth="2" NCoef="0" IVar="-1" Cut="0.0000000000000000e+00" cType="1" res="-4.5222768676467240e-04" rms="4.6162155270576477e-01" purity="4.7777804732322693e-01" nType="-99"/>
          <Node pos="r" depth="2" NCoef="0" IVar="-1" Cut="0.0000000000000000e+00" cType="1" res="1.4665133785456419e-03" rms="4.4953379034996033e-01" purity="5.5375087261199951e-01" nType="-99"/>
        </Node>
        <Node pos="r" depth="1" NCoef="0" IVar="-1" Cut="0.0000000000000000e+00" cType="1" res="-5.2111283876001835e-03" rms="4.1488832235336304e-01" purity="2.7588325738906860e-01" nType="-99"/>
      </Node>
    </BinaryTree>
    <BinaryTree type="DecisionTree" boostWeight="1.0000000000000000e+00" itree="298">
      <Node pos="s" depth="0" NCoef="0" IVar="7" Cut="1.1423742771148682e+00" cType="1" res="8.5682021453976631e-03" rms="4.5297124981880188e-01" purity="5.0409722328186035e-01" nType="0">
        <Node pos="l" depth="1" NCoef="0" IVar="8" Cut="5.0920864868164062e+02" cType="1" res="-8.1616808893159032e-04" rms="4.5314756035804749e-01" purity="4.6872755885124207e-01" nType="0">
          <Node pos="l" depth="2" NCoef="0" IVar="-1" Cut="0.0000000000000000e+00" cType="1" res="2.1376392396632582e-04" rms="4.5534420013427734e-01" purity="4.8281538486480713e-01" nType="-99"/>
          <Node pos="r" depth="2" NCoef="0" IVar="-1" Cut="0.0000000000000000e+00" cType="1" res="-4.0065757930278778e-03" rms="4.2360323667526245e-01" purity="3.1094110012054443e-01" nType="-99"/>
        </Node>
        <Node pos="r" depth="1" NCoef="0" IVar="8" Cut="2.3561083984375000e+02" cType="1" res="4.1432775557041168e-02" rms="4.5081594586372375e-01" purity="6.2796372175216675e-01" nType="0">
          <Node pos="l" depth="2" NCoef="0" IVar="-1" Cut="0.0000000000000000e+00" cType="1" res="2.6233200915157795e-03" rms="4.4306850433349609e-01" purity="6.5438324213027954e-01" nType="-99"/>
          <Node pos="r" depth="2" NCoef="0" IVar="-1" Cut="0.0000000000000000e+00" cType="1" res="-3.8821791531518102e-04" rms="4.6250179409980774e-01" purity="5.7314717769622803e-01" nType="-99"/>
        </Node>
      </Node>
    </BinaryTree>
    <BinaryTree type="DecisionTree" boostWeight="1.0000000000000000e+00" itree="299">
      <Node pos="s" depth="0" NCoef="0" IVar="7" Cut="1.1422353982925415e+00" cType="1" res="-2.4764935951679945e-03" rms="4.5385080575942993e-01" purity="4.9197795987129211e-01" nType="0">
        <Node pos="l" depth="1" NCoef="0" IVar="7" Cut="-1.2007664442062378e+00" cType="1" res="-1.1853317730128765e-02" rms="4.5443111658096313e-01" purity="4.5605191588401794e-01" nType="0">
          <Node pos="l" depth="2" NCoef="0" IVar="-1" Cut="0.0000000000000000e+00" cType="1" res="1.3044279767200351e-03" rms="4.6022021770477295e-01" purity="6.1093497276306152e-01" nType="-99"/>
          <Node pos="r" depth="2" NCoef="0" IVar="-1" Cut="0.0000000000000000e+00" cType="1" res="-1.4166035689413548e-03" rms="4.5173180103302002e-01" purity="4.0674787759780884e-01" nType="-99"/>
        </Node>
        <Node pos="r" depth="1" NCoef="0" IVar="1" Cut="9.6619832515716553e-01" cType="1" res="2.9994517564773560e-02" rms="4.5032924413681030e-01" purity="6.1638617515563965e-01" nType="0">
          <Node pos="l" depth="2" NCoef="0" IVar="-1" Cut="0.0000000000000000e+00" cType="1" res="6.1241997173056006e-04" rms="4.6747478842735291e-01" purity="5.3867506980895996e-01" nType="-99"/>
          <Node pos="r" depth="2" NCoef="0" IVar="-1" Cut="0.0000000000000000e+00" cType="1" res="2.2586626000702381e-03" rms="4.1961839795112610e-01" purity="7.4277728796005249e-01" nType="-99"/>
        </Node>
      </Node>
    </BinaryTree>
    <BinaryTree type="DecisionTree" boostWeight="1.0000000000000000e+00" itree="300">
      <Node pos="s" depth="0" NCoef="0" IVar="5" Cut="1.3202946186065674e+00" cType="1" res="5.5663636885583401e-03" rms="4.5313894748687744e-01" purity="5.0176954269409180e-01" nType="0">
        <Node pos="l" depth="1" NCoef="0" IVar="2" Cut="1.4696348571777344e+02" cType="1" res="1.9345007836818695e-02" rms="4.5716112852096558e-01" purity="5.5381596088409424e-01" nType="0">
          <Node pos="l" depth="2" NCoef="0" IVar="-1" Cut="0.0000000000000000e+00" cType="1" res="1.3287317706272006e-03" rms="4.5840814709663391e-01" purity="5.7579600811004639e-01" nType="-99"/>
          <Node pos="r" depth="2" NCoef="0" IVar="-1" Cut="0.0000000000000000e+00" cType="1" res="-1.8713065655902028e-03" rms="4.4710049033164978e-01" purity="4.4461053609848022e-01" nType="-99"/>
        </Node>
        <Node pos="r" depth="1" NCoef="0" IVar="6" Cut="4.9716387939453125e+02" cType="1" res="-1.3492417521774769e-02" rms="4.4681602716445923e-01" purity="4.2977827787399292e-01" nType="0">
          <Node pos="l" depth="2" NCoef="0" IVar="-1" Cut="0.0000000000000000e+00" cType="1" res="-2.6437069755047560e-03" rms="4.3208351731300354e-01" purity="3.3606648445129395e-01" nType="-99"/>
          <Node pos="r" depth="2" NCoef="0" IVar="-1" Cut="0.0000000000000000e+00" cType="1" res="5.5213959421962500e-04" rms="4.5877981185913086e-01" purity="5.1787114143371582e-01" nType="-99"/>
        </Node>
      </Node>
    </BinaryTree>
    <BinaryTree type="DecisionTree" boostWeight="1.0000000000000000e+00" itree="301">
      <Node pos="s" depth="0" NCoef="0" IVar="7" Cut="1.1422568559646606e+00" cType="1" res="6.5626599825918674e-03" rms="4.5453506708145142e-01" purity="5.0267952680587769e-01" nType="0">
        <Node pos="l" depth="1" NCoef="0" IVar="7" Cut="-9.5418411493301392e-01" cType="1" res="-2.6715809945017099e-03" rms="4.5545688271522522e-01" purity="4.6698606014251709e-01" nType="0">
          <Node pos="l" depth="2" NCoef="0" IVar="-1" Cut="0.0000000000000000e+00" cType="1" res="1.1445812415331602e-03" rms="4.6581929922103882e-01" purity="5.7926422357559204e-01" nType="-99"/>
          <Node pos="r" depth="2" NCoef="0" IVar="-1" Cut="0.0000000000000000e+00" cType="1" res="-1.2476786505430937e-03" rms="4.4754576683044434e-01" purity="3.9379850029945374e-01" nType="-99"/>
        </Node>
        <Node pos="r" depth="1" NCoef="0" IVar="2" Cut="8.4981346130371094e+01" cType="1" res="3.8715582340955734e-02" rms="4.4983395934104919e-01" purity="6.2696146965026855e-01" nType="0">
          <Node pos="l" depth="2" NCoef="0" IVar="-1" Cut="0.0000000000000000e+00" cType="1" res="5.3753395332023501e-04" rms="4.6331635117530823e-01" purity="5.5643773078918457e-01" nType="-99"/>
          <Node pos="r" depth="2" NCoef="0" IVar="-1" Cut="0.0000000000000000e+00" cType="1" res="2.6234425604343414e-03" rms="4.3407711386680603e-01" purity="6.9850772619247437e-01" nType="-99"/>
        </Node>
      </Node>
    </BinaryTree>
    <BinaryTree type="DecisionTree" boostWeight="1.0000000000000000e+00" itree="302">
      <Node pos="s" depth="0" NCoef="0" IVar="4" Cut="2.1637346744537354e+00" cType="1" res="-2.2806948982179165e-03" rms="4.5482179522514343e-01" purity="4.9313658475875854e-01" nType="0">
        <Node pos="l" depth="1" NCoef="0" IVar="1" Cut="9.2775690555572510e-01" cType="1" res="1.4360586181282997e-02" rms="4.5871207118034363e-01" purity="5.9685891866683960e-01" nType="0">
          <Node pos="l" depth="2" NCoef="0" IVar="-1" Cut="0.0000000000000000e+00" cType="1" res="-1.6985159600153565e-03" rms="4.7072407603263855e-01" purity="4.0298870205879211e-01" nType="-99"/>
          <Node pos="r" depth="2" NCoef="0" IVar="-1" Cut="0.0000000000000000e+00" cType="1" res="9.6249749185517430e-04" rms="4.5595359802246094e-01" purity="6.3223713636398315e-01" nType="-99"/>
        </Node>
        <Node pos="r" depth="1" NCoef="0" IVar="6" Cut="5.5127648925781250e+02" cType="1" res="-1.4824688434600830e-02" rms="4.5146194100379944e-01" purity="4.1495186090469360e-01" nType="0">
          <Node pos="l" depth="2" NCoef="0" IVar="-1" Cut="0.0000000000000000e+00" cType="1" res="-1.6426345100626349e-03" rms="4.4569209218025208e-01" purity="3.6973524093627930e-01" nType="-99"/>
          <Node pos="r" depth="2" NCoef="0" IVar="-1" Cut="0.0000000000000000e+00" cType="1" res="2.9706233181059361e-04" rms="4.6043550968170166e-01" purity="4.9248611927032471e-01" nType="-99"/>
        </Node>
      </Node>
    </BinaryTree>
    <BinaryTree type="DecisionTree" boostWeight="1.0000000000000000e+00" itree="303">
      <Node pos="s" depth="0" NCoef="0" IVar="3" Cut="1.0796383666992188e+02" cType="1" res="3.5379717592149973e-03" rms="4.5274958014488220e-01" purity="4.9882811307907104e-01" nType="0">
        <Node pos="l" depth="1" NCoef="0" IVar="3" Cut="1.0034526824951172e+02" cType="1" res="-5.4964911192655563e-02" rms="4.3580794334411621e-01" purity="3.7735435366630554e-01" nType="0">
          <Node pos="l" depth="2" NCoef="0" IVar="-1" Cut="0.0000000000000000e+00" cType="1" res="-5.1197400316596031e-03" rms="4.2932361364364624e-01" purity="3.2147502899169922e-01" nType="-99"/>
          <Node pos="r" depth="2" NCoef="0" IVar="-1" Cut="0.0000000000000000e+00" cType="1" res="-1.7950291512534022e-03" rms="4.4139900803565979e-01" purity="4.3539914488792419e-01" nType="-99"/>
        </Node>
        <Node pos="r" depth="1" NCoef="0" IVar="6" Cut="3.0162274169921875e+02" cType="1" res="1.0703682899475098e-02" rms="4.5426362752914429e-01" purity="5.1370674371719360e-01" nType="0">
          <Node pos="l" depth="2" NCoef="0" IVar="-1" Cut="0.0000000000000000e+00" cType="1" res="-4.6176118776202202e-03" rms="4.1757842898368835e-01" purity="2.6394495368003845e-01" nType="-99"/>
          <Node pos="r" depth="2" NCoef="0" IVar="-1" Cut="0.0000000000000000e+00" cType="1" res="7.4938009493052959e-04" rms="4.5658382773399353e-01" purity="5.3336983919143677e-01" nType="-99"/>
        </Node>
      </Node>
    </BinaryTree>
    <BinaryTree type="DecisionTree" boostWeight="1.0000000000000000e+00" itree="304">
      <Node pos="s" depth="0" NCoef="0" IVar="1" Cut="9.3927240371704102e-01" cType="1" res="2.7286205440759659e-03" rms="4.5285326242446899e-01" purity="4.9828332662582397e-01" nType="0">
        <Node pos="l" depth="1" NCoef="0" IVar="5" Cut="1.2409352064132690e+00" cType="1" res="-2.2737532854080200e-02" rms="4.4190961122512817e-01" purity="3.4629192948341370e-01" nType="0">
          <Node pos="l" depth="2" NCoef="0" IVar="-1" Cut="0.0000000000000000e+00" cType="1" res="2.3406014952342957e-04" rms="4.6102851629257202e-01" purity="4.1580280661582947e-01" nType="-99"/>
          <Node pos="r" depth="2" NCoef="0" IVar="-1" Cut="0.0000000000000000e+00" cType="1" res="-3.2545027788728476e-03" rms="4.2337352037429810e-01" purity="2.8649270534515381e-01" nType="-99"/>
        </Node>
        <Node pos="r" depth="1" NCoef="0" IVar="4" Cut="1.9842644929885864e+00" cType="1" res="1.2672359123826027e-02" rms="4.5666995644569397e-01" purity="5.5763125419616699e-01" nType="0">
          <Node pos="l" depth="2" NCoef="0" IVar="-1" Cut="0.0000000000000000e+00" cType="1" res="1.8997204024344683e-03" rms="4.4665330648422241e-01" purity="6.6691434383392334e-01" nType="-99"/>
          <Node pos="r" depth="2" NCoef="0" IVar="-1" Cut="0.0000000000000000e+00" cType="1" res="1.4878316142130643e-04" rms="4.5901119709014893e-01" purity="5.2673631906509399e-01" nType="-99"/>
        </Node>
      </Node>
    </BinaryTree>
    <BinaryTree type="DecisionTree" boostWeight="1.0000000000000000e+00" itree="305">
      <Node pos="s" depth="0" NCoef="0" IVar="2" Cut="9.2148284912109375e+01" cType="1" res="4.3466789647936821e-03" rms="4.5404967665672302e-01" purity="4.9791723489761353e-01" nType="0">
        <Node pos="l" depth="1" NCoef="0" IVar="8" Cut="2.3941044616699219e+02" cType="1" res="-1.3919836841523647e-02" rms="4.6094119548797607e-01" purity="4.6310582756996155e-01" nType="0">
          <Node pos="l" depth="2" NCoef="0" IVar="-1" Cut="0.0000000000000000e+00" cType="1" res="2.0089038298465312e-04" rms="4.6516534686088562e-01" purity="4.9501484632492065e-01" nType="-99"/>
          <Node pos="r" depth="2" NCoef="0" IVar="-1" Cut="0.0000000000000000e+00" cType="1" res="-3.3795540221035480e-03" rms="4.4724079966545105e-01" purity="3.8444757461547852e-01" nType="-99"/>
        </Node>
        <Node pos="r" depth="1" NCoef="0" IVar="0" Cut="1.4371957778930664e+00" cType="1" res="2.4939512833952904e-02" rms="4.4525513052940369e-01" purity="5.3716206550598145e-01" nType="0">
          <Node pos="l" depth="2" NCoef="0" IVar="-1" Cut="0.0000000000000000e+00" cType="1" res="3.2783583737909794e-03" rms="4.2523309588432312e-01" purity="7.2701686620712280e-01" nType="-99"/>
          <Node pos="r" depth="2" NCoef="0" IVar="-1" Cut="0.0000000000000000e+00" cType="1" res="-1.7530377954244614e-04" rms="4.5180818438529968e-01" purity="4.4630613923072815e-01" nType="-99"/>
        </Node>
      </Node>
    </BinaryTree>
    <BinaryTree type="DecisionTree" boostWeight="1.0000000000000000e+00" itree="306">
      <Node pos="s" depth="0" NCoef="0" IVar="0" Cut="1.5867024660110474e+00" cType="1" res="2.6615012902766466e-03" rms="4.5107588171958923e-01" purity="4.9997782707214355e-01" nType="0">
        <Node pos="l" depth="1" NCoef="0" IVar="2" Cut="9.2644660949707031e+01" cType="1" res="1.4607528224587440e-02" rms="4.5334297418594360e-01" purity="5.5351346731185913e-01" nType="0">
          <Node pos="l" depth="2" NCoef="0" IVar="-1" Cut="0.0000000000000000e+00" cType="1" res="-3.0319922370836139e-04" rms="4.5831972360610962e-01" purity="4.9378588795661926e-01" nType="-99"/>
          <Node pos="r" depth="2" NCoef="0" IVar="-1" Cut="0.0000000000000000e+00" cType="1" res="2.5759295094758272e-03" rms="4.3732813000679016e-01" purity="6.9501715898513794e-01" nType="-99"/>
        </Node>
        <Node pos="r" depth="1" NCoef="0" IVar="7" Cut="7.1361094713211060e-01" cType="1" res="-2.0074684172868729e-02" rms="4.4584581255912781e-01" purity="3.9808645844459534e-01" nType="0">
          <Node pos="l" depth="2" NCoef="0" IVar="-1" Cut="0.0000000000000000e+00" cType="1" res="-2.4496295955032110e-03" rms="4.3681955337524414e-01" purity="3.4523215889930725e-01" nType="-99"/>
          <Node pos="r" depth="2" NCoef="0" IVar="-1" Cut="0.0000000000000000e+00" cType="1" res="6.1058311257511377e-04" rms="4.6024087071418762e-01" purity="4.9543166160583496e-01" nType="-99"/>
        </Node>
      </Node>
    </BinaryTree>
    <BinaryTree type="DecisionTree" boostWeight="1.0000000000000000e+00" itree="307">
      <Node pos="s" depth="0" NCoef="0" IVar="1" Cut="9.6623945236206055e-01" cType="1" res="1.9572833552956581e-03" rms="4.5155343413352966e-01" purity="4.9878656864166260e-01" nType="0">
        <Node pos="l" depth="1" NCoef="0" IVar="6" Cut="7.9399761962890625e+02" cType="1" res="-1.0811056941747665e-02" rms="4.5344305038452148e-01" purity="4.2666923999786377e-01" nType="0">
          <Node pos="l" depth="2" NCoef="0" IVar="-1" Cut="0.0000000000000000e+00" cType="1" res="-9.6184696303680539e-04" rms="4.5187538862228394e-01" purity="4.0949720144271851e-01" nType="-99"/>
          <Node pos="r" depth="2" NCoef="0" IVar="-1" Cut="0.0000000000000000e+00" cType="1" res="1.6292162472382188e-03" rms="4.6141064167022705e-01" purity="5.4668784141540527e-01" nType="-99"/>
        </Node>
        <Node pos="r" depth="1" NCoef="0" IVar="3" Cut="1.3366917419433594e+02" cType="1" res="2.6851449161767960e-02" rms="4.4679835438728333e-01" purity="6.3939219713211060e-01" nType="0">
          <Node pos="l" depth="2" NCoef="0" IVar="-1" Cut="0.0000000000000000e+00" cType="1" res="1.5185334486886859e-03" rms="4.4278439879417419e-01" purity="6.6158974170684814e-01" nType="-99"/>
          <Node pos="r" depth="2" NCoef="0" IVar="-1" Cut="0.0000000000000000e+00" cType="1" res="-1.1558355763554573e-03" rms="4.6527943015098572e-01" purity="5.1573276519775391e-01" nType="-99"/>
        </Node>
      </Node>
    </BinaryTree>
    <BinaryTree type="DecisionTree" boostWeight="1.0000000000000000e+00" itree="308">
      <Node pos="s" depth="0" NCoef="0" IVar="2" Cut="6.3133754730224609e+01" cType="1" res="1.8112837569788098e-03" rms="4.5403093099594116e-01" purity="4.9475467205047607e-01" nType="0">
        <Node pos="l" depth="1" NCoef="0" IVar="2" Cut="3.4565795898437500e+01" cType="1" res="-2.5347456336021423e-02" rms="4.6047094464302063e-01" purity="4.2266213893890381e-01" nType="0">
          <Node pos="l" depth="2" NCoef="0" IVar="-1" Cut="0.0000000000000000e+00" cType="1" res="-4.4895689934492111e-03" rms="4.3953150510787964e-01" purity="3.1332796812057495e-01" nType="-99"/>
          <Node pos="r" depth="2" NCoef="0" IVar="-1" Cut="0.0000000000000000e+00" cType="1" res="-6.5177597571164370e-04" rms="4.6543285250663757e-01" purity="4.5334231853485107e-01" nType="-99"/>
        </Node>
        <Node pos="r" depth="1" NCoef="0" IVar="0" Cut="1.1381822824478149e+00" cType="1" res="1.3729253783822060e-02" rms="4.5065945386886597e-01" purity="5.2639073133468628e-01" nType="0">
          <Node pos="l" depth="2" NCoef="0" IVar="-1" Cut="0.0000000000000000e+00" cType="1" res="2.2809696383774281e-03" rms="4.4051474332809448e-01" purity="6.8201607465744019e-01" nType="-99"/>
          <Node pos="r" depth="2" NCoef="0" IVar="-1" Cut="0.0000000000000000e+00" cType="1" res="7.1246351581066847e-05" rms="4.5273607969284058e-01" purity="4.8225450515747070e-01" nType="-99"/>
        </Node>
      </Node>
    </BinaryTree>
    <BinaryTree type="DecisionTree" boostWeight="1.0000000000000000e+00" itree="309">
      <Node pos="s" depth="0" NCoef="0" IVar="3" Cut="1.0636575317382812e+02" cType="1" res="7.0014065131545067e-03" rms="4.5503798127174377e-01" purity="5.0041538476943970e-01" nType="0">
        <Node pos="l" depth="1" NCoef="0" IVar="-1" Cut="0.0000000000000000e+00" cType="1" res="-2.6857508346438408e-03" rms="4.4759336113929749e-01" purity="3.7315070629119873e-01" nType="-99"/>
        <Node pos="r" depth="1" NCoef="0" IVar="6" Cut="3.0162274169921875e+02" cType="1" res="1.2513631023466587e-02" rms="4.5548841357231140e-01" purity="5.1410692930221558e-01" nType="0">
          <Node pos="l" depth="2" NCoef="0" IVar="-1" Cut="0.0000000000000000e+00" cType="1" res="-3.4460583701729774e-03" rms="4.2052975296974182e-01" purity="2.7898022532463074e-01" nType="-99"/>
          <Node pos="r" depth="2" NCoef="0" IVar="-1" Cut="0.0000000000000000e+00" cType="1" res="7.9425761941820383e-04" rms="4.5784926414489746e-01" purity="5.3282845020294189e-01" nType="-99"/>
        </Node>
      </Node>
    </BinaryTree>
    <BinaryTree type="DecisionTree" boostWeight="1.0000000000000000e+00" itree="310">
      <Node pos="s" depth="0" NCoef="0" IVar="7" Cut="1.2850476503372192e+00" cType="1" res="2.4294233880937099e-03" rms="4.5210605859756470e-01" purity="4.9691039323806763e-01" nType="0">
        <Node pos="l" depth="1" NCoef="0" IVar="1" Cut="9.6582853794097900e-01" cType="1" res="-4.7280942089855671e-03" rms="4.5284983515739441e-01" purity="4.7254142165184021e-01" nType="0">
          <Node pos="l" depth="2" NCoef="0" IVar="-1" Cut="0.0000000000000000e+00" cType="1" res="-9.1084977611899376e-04" rms="4.5240277051925659e-01" purity="3.9971539378166199e-01" nType="-99"/>
          <Node pos="r" depth="2" NCoef="0" IVar="-1" Cut="0.0000000000000000e+00" cType="1" res="8.1501406384631991e-04" rms="4.5284318923950195e-01" purity="6.1722856760025024e-01" nType="-99"/>
        </Node>
        <Node pos="r" depth="1" NCoef="0" IVar="7" Cut="1.4538842439651489e+00" cType="1" res="4.3495617806911469e-02" rms="4.4559815526008606e-01" purity="6.3672703504562378e-01" nType="0">
          <Node pos="l" depth="2" NCoef="0" IVar="-1" Cut="0.0000000000000000e+00" cType="1" res="1.1825166875496507e-03" rms="4.4806405901908875e-01" purity="6.1784923076629639e-01" nType="-99"/>
          <Node pos="r" depth="2" NCoef="0" IVar="-1" Cut="0.0000000000000000e+00" cType="1" res="2.5513344444334507e-03" rms="4.4162362813949585e-01" purity="6.6072225570678711e-01" nType="-99"/>
        </Node>
      </Node>
    </BinaryTree>
    <BinaryTree type="DecisionTree" boostWeight="1.0000000000000000e+00" itree="311">
      <Node pos="s" depth="0" NCoef="0" IVar="1" Cut="9.3927395343780518e-01" cType="1" res="4.3709585443139076e-03" rms="4.5208650827407837e-01" purity="5.0199270248413086e-01" nType="0">
        <Node pos="l" depth="1" NCoef="0" IVar="5" Cut="1.2409352064132690e+00" cType="1" res="-2.0352071151137352e-02" rms="4.4374775886535645e-01" purity="3.5003671050071716e-01" nType="0">
          <Node pos="l" depth="2" NCoef="0" IVar="-1" Cut="0.0000000000000000e+00" cType="1" res="-4.1015187889570370e-05" rms="4.5740059018135071e-01" purity="4.1351285576820374e-01" nType="-99"/>
          <Node pos="r" depth="2" NCoef="0" IVar="-1" Cut="0.0000000000000000e+00" cType="1" res="-2.5728512555360794e-03" rms="4.3121221661567688e-01" purity="2.9652032256126404e-01" nType="-99"/>
        </Node>
        <Node pos="r" depth="1" NCoef="0" IVar="0" Cut="2.0686528682708740e+00" cType="1" res="1.4020046219229698e-02" rms="4.5493522286415100e-01" purity="5.6129920482635498e-01" nType="0">
          <Node pos="l" depth="2" NCoef="0" IVar="-1" Cut="0.0000000000000000e+00" cType="1" res="9.1616797726601362e-04" rms="4.5643952488899231e-01" purity="5.9321445226669312e-01" nType="-99"/>
          <Node pos="r" depth="2" NCoef="0" IVar="-1" Cut="0.0000000000000000e+00" cType="1" res="-2.6438315398991108e-03" rms="4.4001406431198120e-01" purity="3.2172018289566040e-01" nType="-99"/>
        </Node>
      </Node>
    </BinaryTree>
    <BinaryTree type="DecisionTree" boostWeight="1.0000000000000000e+00" itree="312">
      <Node pos="s" depth="0" NCoef="0" IVar="0" Cut="1.5444326400756836e+00" cType="1" res="2.4139680899679661e-03" rms="4.5025619864463806e-01" purity="4.9854165315628052e-01" nType="0">
        <Node pos="l" depth="1" NCoef="0" IVar="2" Cut="9.2644660949707031e+01" cType="1" res="1.8069025129079819e-02" rms="4.5367503166198730e-01" purity="5.5447739362716675e-01" nType="0">
          <Node pos="l" depth="2" NCoef="0" IVar="-1" Cut="0.0000000000000000e+00" cType="1" res="-1.1534978511917870e-05" rms="4.6131950616836548e-01" purity="4.9497416615486145e-01" nType="-99"/>
          <Node pos="r" depth="2" NCoef="0" IVar="-1" Cut="0.0000000000000000e+00" cType="1" res="2.5938975159078836e-03" rms="4.3066585063934326e-01" purity="7.0275533199310303e-01" nType="-99"/>
        </Node>
        <Node pos="r" depth="1" NCoef="0" IVar="4" Cut="2.0718567371368408e+00" cType="1" res="-2.4706916883587837e-02" rms="4.4296357035636902e-01" purity="4.0163838863372803e-01" nType="0">
          <Node pos="l" depth="2" NCoef="0" IVar="-1" Cut="0.0000000000000000e+00" cType="1" res="1.2015025131404400e-03" rms="4.6089905500411987e-01" purity="6.2278270721435547e-01" nType="-99"/>
          <Node pos="r" depth="2" NCoef="0" IVar="-1" Cut="0.0000000000000000e+00" cType="1" res="-2.2414044942706823e-03" rms="4.3840780854225159e-01" purity="3.5668733716011047e-01" nType="-99"/>
        </Node>
      </Node>
    </BinaryTree>
    <BinaryTree type="DecisionTree" boostWeight="1.0000000000000000e+00" itree="313">
      <Node pos="s" depth="0" NCoef="0" IVar="7" Cut="1.2851712703704834e+00" cType="1" res="1.2003436684608459e-02" rms="4.5308390259742737e-01" purity="5.0812363624572754e-01" nType="0">
        <Node pos="l" depth="1" NCoef="0" IVar="7" Cut="-1.1813806295394897e+00" cType="1" res="4.9106501974165440e-03" rms="4.5298063755035400e-01" purity="4.8405444622039795e-01" nType="0">
          <Node pos="l" depth="2" NCoef="0" IVar="-1" Cut="0.0000000000000000e+00" cType="1" res="1.4571248320862651e-03" rms="4.5733693242073059e-01" purity="6.1483561992645264e-01" nType="-99"/>
          <Node pos="r" depth="2" NCoef="0" IVar="-1" Cut="0.0000000000000000e+00" cType="1" res="-2.2090793936513364e-04" rms="4.5124593377113342e-01" purity="4.4395282864570618e-01" nType="-99"/>
        </Node>
        <Node pos="r" depth="1" NCoef="0" IVar="5" Cut="1.2119811773300171e+00" cType="1" res="5.2359815686941147e-02" rms="4.5155566930770874e-01" purity="6.4507204294204712e-01" nType="0">
          <Node pos="l" depth="2" NCoef="0" IVar="-1" Cut="0.0000000000000000e+00" cType="1" res="2.5559684727340937e-03" rms="4.4542500376701355e-01" purity="6.6963851451873779e-01" nType="-99"/>
          <Node pos="r" depth="2" NCoef="0" IVar="-1" Cut="0.0000000000000000e+00" cType="1" res="1.6686215531080961e-03" rms="4.5834332704544067e-01" purity="6.1626672744750977e-01" nType="-99"/>
        </Node>
      </Node>
    </BinaryTree>
    <BinaryTree type="DecisionTree" boostWeight="1.0000000000000000e+00" itree="314">
      <Node pos="s" depth="0" NCoef="0" IVar="3" Cut="1.1153086090087891e+02" cType="1" res="5.7405186817049980e-04" rms="4.5168560743331909e-01" purity="4.9919438362121582e-01" nType="0">
        <Node pos="l" depth="1" NCoef="0" IVar="8" Cut="2.4961329650878906e+02" cType="1" res="-4.3497186154127121e-02" rms="4.4532775878906250e-01" purity="4.0000215172767639e-01" nType="0">
          <Node pos="l" depth="2" NCoef="0" IVar="-1" Cut="0.0000000000000000e+00" cType="1" res="-1.5674354508519173e-03" rms="4.5106202363967896e-01" purity="4.3638086318969727e-01" nType="-99"/>
          <Node pos="r" depth="2" NCoef="0" IVar="-1" Cut="0.0000000000000000e+00" cType="1" res="-4.4745095074176788e-03" rms="4.3399220705032349e-01" purity="3.3647799491882324e-01" nType="-99"/>
        </Node>
        <Node pos="r" depth="1" NCoef="0" IVar="3" Cut="1.3709867858886719e+02" cType="1" res="8.6488174274563789e-03" rms="4.5237568020820618e-01" purity="5.1736843585968018e-01" nType="0">
          <Node pos="l" depth="2" NCoef="0" IVar="-1" Cut="0.0000000000000000e+00" cType="1" res="8.4876234177500010e-04" rms="4.5416763424873352e-01" purity="5.4288691282272339e-01" nType="-99"/>
          <Node pos="r" depth="2" NCoef="0" IVar="-1" Cut="0.0000000000000000e+00" cType="1" res="-3.7668410222977400e-03" rms="4.3374866247177124e-01" purity="3.4093856811523438e-01" nType="-99"/>
        </Node>
      </Node>
    </BinaryTree>
    <BinaryTree type="DecisionTree" boostWeight="1.0000000000000000e+00" itree="315">
      <Node pos="s" depth="0" NCoef="0" IVar="0" Cut="1.3934445381164551e+00" cType="1" res="9.0463412925601006e-03" rms="4.5315837860107422e-01" purity="5.0588154792785645e-01" nType="0">
        <Node pos="l" depth="1" NCoef="0" IVar="2" Cut="1.0288627624511719e+02" cType="1" res="2.5564910843968391e-02" rms="4.5498603582382202e-01" purity="5.6163245439529419e-01" nType="0">
          <Node pos="l" depth="2" NCoef="0" IVar="-1" Cut="0.0000000000000000e+00" cType="1" res="3.4212760510854423e-04" rms="4.6165204048156738e-01" purity="5.1659673452377319e-01" nType="-99"/>
          <Node pos="r" depth="2" NCoef="0" IVar="-1" Cut="0.0000000000000000e+00" cType="1" res="3.9423890411853790e-03" rms="4.1649031639099121e-01" purity="7.5395697355270386e-01" nType="-99"/>
        </Node>
        <Node pos="r" depth="1" NCoef="0" IVar="1" Cut="9.7952115535736084e-01" cType="1" res="-1.0345546528697014e-02" rms="4.5023065805435181e-01" purity="4.4043314456939697e-01" nType="0">
          <Node pos="l" depth="2" NCoef="0" IVar="-1" Cut="0.0000000000000000e+00" cType="1" res="-1.1632236419245601e-03" rms="4.5000135898590088e-01" purity="3.9525848627090454e-01" nType="-99"/>
          <Node pos="r" depth="2" NCoef="0" IVar="-1" Cut="0.0000000000000000e+00" cType="1" res="1.5371732879430056e-03" rms="4.4839766621589661e-01" purity="6.5123826265335083e-01" nType="-99"/>
        </Node>
      </Node>
    </BinaryTree>
    <BinaryTree type="DecisionTree" boostWeight="1.0000000000000000e+00" itree="316">
      <Node pos="s" depth="0" NCoef="0" IVar="1" Cut="9.8568528890609741e-01" cType="1" res="6.9766617380082607e-03" rms="4.5196336507797241e-01" purity="5.0370532274246216e-01" nType="0">
        <Node pos="l" depth="1" NCoef="0" IVar="8" Cut="5.2965032958984375e+02" cType="1" res="1.0790593223646283e-03" rms="4.5408561825752258e-01" purity="4.7785463929176331e-01" nType="0">
          <Node pos="l" depth="2" NCoef="0" IVar="-1" Cut="0.0000000000000000e+00" cType="1" res="2.8517530881799757e-04" rms="4.5624715089797974e-01" purity="4.8924255371093750e-01" nType="-99"/>
          <Node pos="r" depth="2" NCoef="0" IVar="-1" Cut="0.0000000000000000e+00" cType="1" res="-4.2743324302136898e-03" rms="4.1818070411682129e-01" purity="3.2253998517990112e-01" nType="-99"/>
        </Node>
        <Node pos="r" depth="1" NCoef="0" IVar="-1" Cut="0.0000000000000000e+00" cType="1" res="2.1657857578247786e-03" rms="4.3225055932998657e-01" purity="7.0580166578292847e-01" nType="-99"/>
      </Node>
    </BinaryTree>
    <BinaryTree type="DecisionTree" boostWeight="1.0000000000000000e+00" itree="317">
      <Node pos="s" depth="0" NCoef="0" IVar="1" Cut="9.4052815437316895e-01" cType="1" res="2.2504803200718015e-04" rms="4.5160698890686035e-01" purity="4.9462515115737915e-01" nType="0">
        <Node pos="l" depth="1" NCoef="0" IVar="7" Cut="-1.4270880818367004e-01" cType="1" res="-2.8773074969649315e-02" rms="4.3996745347976685e-01" purity="3.4039619565010071e-01" nType="0">
          <Node pos="l" depth="2" NCoef="0" IVar="-1" Cut="0.0000000000000000e+00" cType="1" res="-1.5681165677960962e-04" rms="4.5239236950874329e-01" purity="3.6893901228904724e-01" nType="-99"/>
          <Node pos="r" depth="2" NCoef="0" IVar="-1" Cut="0.0000000000000000e+00" cType="1" res="-3.5972408950328827e-03" rms="4.2536389827728271e-01" purity="3.1144332885742188e-01" nType="-99"/>
        </Node>
        <Node pos="r" depth="1" NCoef="0" IVar="2" Cut="8.7461769104003906e+01" cType="1" res="1.2262830510735512e-02" rms="4.5581007003784180e-01" purity="5.5864906311035156e-01" nType="0">
          <Node pos="l" depth="2" NCoef="0" IVar="-1" Cut="0.0000000000000000e+00" cType="1" res="-2.9984707362018526e-04" rms="4.6616518497467041e-01" purity="5.1974469423294067e-01" nType="-99"/>
          <Node pos="r" depth="2" NCoef="0" IVar="-1" Cut="0.0000000000000000e+00" cType="1" res="1.3544624671339989e-03" rms="4.4504979252815247e-01" purity="5.9551000595092773e-01" nType="-99"/>
        </Node>
      </Node>
    </BinaryTree>
    <BinaryTree type="DecisionTree" boostWeight="1.0000000000000000e+00" itree="318">
      <Node pos="s" depth="0" NCoef="0" IVar="5" Cut="1.2381664514541626e+00" cType="1" res="7.1460031904280186e-03" rms="4.5339605212211609e-01" purity="5.0369805097579956e-01" nType="0">
        <Node pos="l" depth="1" NCoef="0" IVar="6" Cut="5.0711431884765625e+02" cType="1" res="2.7534486725926399e-02" rms="4.5758289098739624e-01" purity="5.6512266397476196e-01" nType="0">
          <Node pos="l" depth="2" NCoef="0" IVar="-1" Cut="0.0000000000000000e+00" cType="1" res="5.8729742886498570e-04" rms="4.6477457880973816e-01" purity="5.1071482896804810e-01" nType="-99"/>
          <Node pos="r" depth="2" NCoef="0" IVar="-1" Cut="0.0000000000000000e+00" cType="1" res="2.0659763831645250e-03" rms="4.4607642292976379e-01" purity="6.4359903335571289e-01" nType="-99"/>
        </Node>
        <Node pos="r" depth="1" NCoef="0" IVar="4" Cut="2.0575475692749023e+00" cType="1" res="-1.2706791982054710e-02" rms="4.4839179515838623e-01" purity="4.4388729333877563e-01" nType="0">
          <Node pos="l" depth="2" NCoef="0" IVar="-1" Cut="0.0000000000000000e+00" cType="1" res="1.1012146715074778e-03" rms="4.6239537000656128e-01" purity="5.8322358131408691e-01" nType="-99"/>
          <Node pos="r" depth="2" NCoef="0" IVar="-1" Cut="0.0000000000000000e+00" cType="1" res="-1.5772002516314387e-03" rms="4.4232463836669922e-01" purity="3.9287796616554260e-01" nType="-99"/>
        </Node>
      </Node>
    </BinaryTree>
    <BinaryTree type="DecisionTree" boostWeight="1.0000000000000000e+00" itree="319">
      <Node pos="s" depth="0" NCoef="0" IVar="7" Cut="-9.9953472614288330e-01" cType="1" res="2.3465636186301708e-03" rms="4.5161333680152893e-01" purity="4.9909797310829163e-01" nType="0">
        <Node pos="l" depth="1" NCoef="0" IVar="0" Cut="1.6173737049102783e+00" cType="1" res="3.1252671033143997e-02" rms="4.5997658371925354e-01" purity="5.9752362966537476e-01" nType="0">
          <Node pos="l" depth="2" NCoef="0" IVar="-1" Cut="0.0000000000000000e+00" cType="1" res="1.7210660735145211e-03" rms="4.5651295781135559e-01" purity="6.2408334016799927e-01" nType="-99"/>
          <Node pos="r" depth="2" NCoef="0" IVar="-1" Cut="0.0000000000000000e+00" cType="1" res="-2.3539718313259073e-05" rms="4.6939444541931152e-01" purity="5.1319634914398193e-01" nType="-99"/>
        </Node>
        <Node pos="r" depth="1" NCoef="0" IVar="7" Cut="9.8662471771240234e-01" cType="1" res="-9.3656284734606743e-03" rms="4.4764921069145203e-01" purity="4.5921781659126282e-01" nType="0">
          <Node pos="l" depth="2" NCoef="0" IVar="-1" Cut="0.0000000000000000e+00" cType="1" res="-1.6046210657805204e-03" rms="4.4136238098144531e-01" purity="3.7234035134315491e-01" nType="-99"/>
          <Node pos="r" depth="2" NCoef="0" IVar="-1" Cut="0.0000000000000000e+00" cType="1" res="7.0872396463528275e-04" rms="4.5556318759918213e-01" purity="5.8725613355636597e-01" nType="-99"/>
        </Node>
      </Node>
    </BinaryTree>
    <BinaryTree type="DecisionTree" boostWeight="1.0000000000000000e+00" itree="320">
      <Node pos="s" depth="0" NCoef="0" IVar="1" Cut="9.8590081930160522e-01" cType="1" res="3.3720508217811584e-03" rms="4.5313268899917603e-01" purity="4.9922689795494080e-01" nType="0">
        <Node pos="l" depth="1" NCoef="0" IVar="7" Cut="1.2851775884628296e+00" cType="1" res="-2.4016899988055229e-03" rms="4.5538344979286194e-01" purity="4.7371721267700195e-01" nType="0">
          <Node pos="l" depth="2" NCoef="0" IVar="-1" Cut="0.0000000000000000e+00" cType="1" res="-5.2663299720734358e-04" rms="4.5640456676483154e-01" purity="4.4646659493446350e-01" nType="-99"/>
          <Node pos="r" depth="2" NCoef="0" IVar="-1" Cut="0.0000000000000000e+00" cType="1" res="1.6557612689211965e-03" rms="4.4727355241775513e-01" purity="6.2577962875366211e-01" nType="-99"/>
        </Node>
        <Node pos="r" depth="1" NCoef="0" IVar="-1" Cut="0.0000000000000000e+00" cType="1" res="2.0678250584751368e-03" rms="4.3175232410430908e-01" purity="7.0486724376678467e-01" nType="-99"/>
      </Node>
    </BinaryTree>
    <BinaryTree type="DecisionTree" boostWeight="1.0000000000000000e+00" itree="321">
      <Node pos="s" depth="0" NCoef="0" IVar="2" Cut="1.0816646575927734e+02" cType="1" res="4.9913781695067883e-03" rms="4.5506265759468079e-01" purity="4.9810793995857239e-01" nType="0">
        <Node pos="l" depth="1" NCoef="0" IVar="2" Cut="3.2905834197998047e+01" cType="1" res="-6.1242734082043171e-03" rms="4.6159565448760986e-01" purity="4.8342156410217285e-01" nType="0">
          <Node pos="l" depth="2" NCoef="0" IVar="-1" Cut="0.0000000000000000e+00" cType="1" res="-3.4736911766231060e-03" rms="4.4204545021057129e-01" purity="3.2368558645248413e-01" nType="-99"/>
          <Node pos="r" depth="2" NCoef="0" IVar="-1" Cut="0.0000000000000000e+00" cType="1" res="-7.3187438829336315e-05" rms="4.6313682198524475e-01" purity="4.9854442477226257e-01" nType="-99"/>
        </Node>
        <Node pos="r" depth="1" NCoef="0" IVar="2" Cut="1.5244158935546875e+02" cType="1" res="2.4624397978186607e-02" rms="4.4260722398757935e-01" purity="5.2404755353927612e-01" nType="0">
          <Node pos="l" depth="2" NCoef="0" IVar="-1" Cut="0.0000000000000000e+00" cType="1" res="2.5452363770455122e-03" rms="4.3969294428825378e-01" purity="6.0777628421783447e-01" nType="-99"/>
          <Node pos="r" depth="2" NCoef="0" IVar="-1" Cut="0.0000000000000000e+00" cType="1" res="-1.3635682407766581e-03" rms="4.4245344400405884e-01" purity="4.0183499455451965e-01" nType="-99"/>
        </Node>
      </Node>
    </BinaryTree>
    <BinaryTree type="DecisionTree" boostWeight="1.0000000000000000e+00" itree="322">
      <Node pos="s" depth="0" NCoef="0" IVar="3" Cut="1.4241741943359375e+02" cType="1" res="1.1631889268755913e-02" rms="4.5700359344482422e-01" purity="5.0573581457138062e-01" nType="0">
        <Node pos="l" depth="1" NCoef="0" IVar="3" Cut="9.9427650451660156e+01" cType="1" res="1.6730900853872299e-02" rms="4.5922902226448059e-01" purity="5.2025163173675537e-01" nType="0">
          <Node pos="l" depth="2" NCoef="0" IVar="-1" Cut="0.0000000000000000e+00" cType="1" res="-3.2943456899374723e-03" rms="4.4378876686096191e-01" purity="3.4124687314033508e-01" nType="-99"/>
          <Node pos="r" depth="2" NCoef="0" IVar="-1" Cut="0.0000000000000000e+00" cType="1" res="9.7742315847426653e-04" rms="4.5981124043464661e-01" purity="5.3088450431823730e-01" nType="-99"/>
        </Node>
        <Node pos="r" depth="1" NCoef="0" IVar="-1" Cut="0.0000000000000000e+00" cType="1" res="-5.0887167453765869e-03" rms="4.1308501362800598e-01" purity="2.8094759583473206e-01" nType="-99"/>
      </Node>
    </BinaryTree>
    <BinaryTree type="DecisionTree" boostWeight="1.0000000000000000e+00" itree="323">
      <Node pos="s" depth="0" NCoef="0" IVar="5" Cut="1.1443018913269043e+00" cType="1" res="6.2646949663758278e-03" rms="4.5447963476181030e-01" purity="5.0129151344299316e-01" nType="0">
        <Node pos="l" depth="1" NCoef="0" IVar="8" Cut="1.2984461975097656e+02" cType="1" res="2.9532440006732941e-02" rms="4.5420864224433899e-01" purity="5.7576948404312134e-01" nType="0">
          <Node pos="l" depth="2" NCoef="0" IVar="-1" Cut="0.0000000000000000e+00" cType="1" res="-6.6534109646454453e-04" rms="4.7576388716697693e-01" purity="4.9764484167098999e-01" nType="-99"/>
          <Node pos="r" depth="2" NCoef="0" IVar="-1" Cut="0.0000000000000000e+00" cType="1" res="1.6605773707851768e-03" rms="4.4940555095672607e-01" purity="5.9098613262176514e-01" nType="-99"/>
        </Node>
        <Node pos="r" depth="1" NCoef="0" IVar="2" Cut="9.2148284912109375e+01" cType="1" res="-7.2635356336832047e-03" rms="4.5408931374549866e-01" purity="4.5798894762992859e-01" nType="0">
          <Node pos="l" depth="2" NCoef="0" IVar="-1" Cut="0.0000000000000000e+00" cType="1" res="-1.1516988743096590e-03" rms="4.5895987749099731e-01" purity="4.2977166175842285e-01" nType="-99"/>
          <Node pos="r" depth="2" NCoef="0" IVar="-1" Cut="0.0000000000000000e+00" cType="1" res="5.8336072834208608e-04" rms="4.4705760478973389e-01" purity="4.9428194761276245e-01" nType="-99"/>
        </Node>
      </Node>
    </BinaryTree>
    <BinaryTree type="DecisionTree" boostWeight="1.0000000000000000e+00" itree="324">
      <Node pos="s" depth="0" NCoef="0" IVar="5" Cut="1.8013542890548706e+00" cType="1" res="8.9451335370540619e-03" rms="4.5405220985412598e-01" purity="5.0425517559051514e-01" nType="0">
        <Node pos="l" depth="1" NCoef="0" IVar="6" Cut="2.8074206542968750e+02" cType="1" res="1.3004330918192863e-02" rms="4.5442754030227661e-01" purity="5.1760822534561157e-01" nType="0">
          <Node pos="l" depth="2" NCoef="0" IVar="-1" Cut="0.0000000000000000e+00" cType="1" res="-4.7666425816714764e-03" rms="4.1287469863891602e-01" purity="2.4909359216690063e-01" nType="-99"/>
          <Node pos="r" depth="2" NCoef="0" IVar="-1" Cut="0.0000000000000000e+00" cType="1" res="7.9269916750490665e-04" rms="4.5640963315963745e-01" purity="5.3322011232376099e-01" nType="-99"/>
        </Node>
        <Node pos="r" depth="1" NCoef="0" IVar="-1" Cut="0.0000000000000000e+00" cType="1" res="-3.3372419420629740e-03" rms="4.4465982913970947e-01" purity="3.1395101547241211e-01" nType="-99"/>
      </Node>
    </BinaryTree>
    <BinaryTree type="DecisionTree" boostWeight="1.0000000000000000e+00" itree="325">
      <Node pos="s" depth="0" NCoef="0" IVar="2" Cut="1.5686344909667969e+02" cType="1" res="5.4248482920229435e-03" rms="4.5200109481811523e-01" purity="5.0095200538635254e-01" nType="0">
        <Node pos="l" depth="1" NCoef="0" IVar="2" Cut="4.3974643707275391e+01" cType="1" res="1.1729390360414982e-02" rms="4.5405477285385132e-01" purity="5.1784616708755493e-01" nType="0">
          <Node pos="l" depth="2" NCoef="0" IVar="-1" Cut="0.0000000000000000e+00" cType="1" res="-2.3144294973462820e-03" rms="4.4895151257514954e-01" purity="3.6787396669387817e-01" nType="-99"/>
          <Node pos="r" depth="2" NCoef="0" IVar="-1" Cut="0.0000000000000000e+00" cType="1" res="9.8503043409436941e-04" rms="4.5435836911201477e-01" purity="5.4568034410476685e-01" nType="-99"/>
        </Node>
        <Node pos="r" depth="1" NCoef="0" IVar="8" Cut="2.9736245727539062e+02" cType="1" res="-3.4889318048954010e-02" rms="4.3649405241012573e-01" purity="3.9292290806770325e-01" nType="0">
          <Node pos="l" depth="2" NCoef="0" IVar="-1" Cut="0.0000000000000000e+00" cType="1" res="-5.3479452617466450e-04" rms="4.5126298069953918e-01" purity="4.8387816548347473e-01" nType="-99"/>
          <Node pos="r" depth="2" NCoef="0" IVar="-1" Cut="0.0000000000000000e+00" cType="1" res="-3.5175823140889406e-03" rms="4.2410483956336975e-01" purity="3.2449990510940552e-01" nType="-99"/>
        </Node>
      </Node>
    </BinaryTree>
    <BinaryTree type="DecisionTree" boostWeight="1.0000000000000000e+00" itree="326">
      <Node pos="s" depth="0" NCoef="0" IVar="1" Cut="9.8595529794692993e-01" cType="1" res="-1.8681382061913610e-03" rms="4.5228514075279236e-01" purity="4.9586668610572815e-01" nType="0">
        <Node pos="l" depth="1" NCoef="0" IVar="3" Cut="1.1153086090087891e+02" cType="1" res="-7.7548655681312084e-03" rms="4.5433378219604492e-01" purity="4.6893215179443359e-01" nType="0">
          <Node pos="l" depth="2" NCoef="0" IVar="-1" Cut="0.0000000000000000e+00" cType="1" res="-2.6343618519604206e-03" rms="4.4804549217224121e-01" purity="3.7854060530662537e-01" nType="-99"/>
          <Node pos="r" depth="2" NCoef="0" IVar="-1" Cut="0.0000000000000000e+00" cType="1" res="-5.9055368183180690e-05" rms="4.5515811443328857e-01" purity="4.8533546924591064e-01" nType="-99"/>
        </Node>
        <Node pos="r" depth="1" NCoef="0" IVar="-1" Cut="0.0000000000000000e+00" cType="1" res="1.8264019163325429e-03" rms="4.3344047665596008e-01" purity="7.0402032136917114e-01" nType="-99"/>
      </Node>
    </BinaryTree>
    <BinaryTree type="DecisionTree" boostWeight="1.0000000000000000e+00" itree="327">
      <Node pos="s" depth="0" NCoef="0" IVar="1" Cut="9.4586426019668579e-01" cType="1" res="4.6686199493706226e-03" rms="4.5293980836868286e-01" purity="5.0172591209411621e-01" nType="0">
        <Node pos="l" depth="1" NCoef="0" IVar="0" Cut="1.2593063116073608e+00" cType="1" res="-1.8417466431856155e-02" rms="4.4695878028869629e-01" purity="3.6361232399940491e-01" nType="0">
          <Node pos="l" depth="2" NCoef="0" IVar="-1" Cut="0.0000000000000000e+00" cType="1" res="1.0718625708250329e-04" rms="4.6159666776657104e-01" purity="4.1565102338790894e-01" nType="-99"/>
          <Node pos="r" depth="2" NCoef="0" IVar="-1" Cut="0.0000000000000000e+00" cType="1" res="-2.2904525976628065e-03" rms="4.3399879336357117e-01" purity="3.2135298848152161e-01" nType="-99"/>
        </Node>
        <Node pos="r" depth="1" NCoef="0" IVar="3" Cut="1.2663583374023438e+02" cType="1" res="1.7725583165884018e-02" rms="4.5577040314674377e-01" purity="5.7983976602554321e-01" nType="0">
          <Node pos="l" depth="2" NCoef="0" IVar="-1" Cut="0.0000000000000000e+00" cType="1" res="1.4521275879815221e-03" rms="4.5532482862472534e-01" purity="6.0515064001083374e-01" nType="-99"/>
          <Node pos="r" depth="2" NCoef="0" IVar="-1" Cut="0.0000000000000000e+00" cType="1" res="-5.4351676953956485e-04" rms="4.5520597696304321e-01" purity="5.3204971551895142e-01" nType="-99"/>
        </Node>
      </Node>
    </BinaryTree>
    <BinaryTree type="DecisionTree" boostWeight="1.0000000000000000e+00" itree="328">
      <Node pos="s" depth="0" NCoef="0" IVar="4" Cut="2.0244033336639404e+00" cType="1" res="3.2556401565670967e-03" rms="4.5487296581268311e-01" purity="4.9890783429145813e-01" nType="0">
        <Node pos="l" depth="1" NCoef="0" IVar="6" Cut="5.5289392089843750e+02" cType="1" res="2.8356019407510757e-02" rms="4.5333984494209290e-01" purity="6.1415553092956543e-01" nType="0">
          <Node pos="l" depth="2" NCoef="0" IVar="-1" Cut="0.0000000000000000e+00" cType="1" res="6.0201302403584123e-04" rms="4.6070986986160278e-01" purity="5.6248593330383301e-01" nType="-99"/>
          <Node pos="r" depth="2" NCoef="0" IVar="-1" Cut="0.0000000000000000e+00" cType="1" res="2.1682640071958303e-03" rms="4.3740478157997131e-01" purity="7.1331655979156494e-01" nType="-99"/>
        </Node>
        <Node pos="r" depth="1" NCoef="0" IVar="7" Cut="-1.1422588825225830e+00" cType="1" res="-5.4737371392548084e-03" rms="4.5508059859275818e-01" purity="4.5882719755172729e-01" nType="0">
          <Node pos="l" depth="2" NCoef="0" IVar="-1" Cut="0.0000000000000000e+00" cType="1" res="1.2449616333469748e-03" rms="4.6314460039138794e-01" purity="5.8927798271179199e-01" nType="-99"/>
          <Node pos="r" depth="2" NCoef="0" IVar="-1" Cut="0.0000000000000000e+00" cType="1" res="-7.3546200292184949e-04" rms="4.5285090804100037e-01" purity="4.2892861366271973e-01" nType="-99"/>
        </Node>
      </Node>
    </BinaryTree>
    <BinaryTree type="DecisionTree" boostWeight="1.0000000000000000e+00" itree="329">
      <Node pos="s" depth="0" NCoef="0" IVar="0" Cut="1.1323347091674805e+00" cType="1" res="1.3131972809787840e-04" rms="4.5497503876686096e-01" purity="4.9388533830642700e-01" nType="0">
        <Node pos="l" depth="1" NCoef="0" IVar="2" Cut="6.8696372985839844e+01" cType="1" res="2.0142629742622375e-02" rms="4.5211863517761230e-01" purity="5.4152554273605347e-01" nType="0">
          <Node pos="l" depth="2" NCoef="0" IVar="-1" Cut="0.0000000000000000e+00" cType="1" res="-2.0832914742641151e-04" rms="4.6329820156097412e-01" purity="4.5654317736625671e-01" nType="-99"/>
          <Node pos="r" depth="2" NCoef="0" IVar="-1" Cut="0.0000000000000000e+00" cType="1" res="2.6808821130543947e-03" rms="4.2515292763710022e-01" purity="7.0923948287963867e-01" nType="-99"/>
        </Node>
        <Node pos="r" depth="1" NCoef="0" IVar="7" Cut="9.9931704998016357e-01" cType="1" res="-1.2044131755828857e-02" rms="4.5627498626708984e-01" purity="4.6489968895912170e-01" nType="0">
          <Node pos="l" depth="2" NCoef="0" IVar="-1" Cut="0.0000000000000000e+00" cType="1" res="-1.1257213773205876e-03" rms="4.5217955112457275e-01" purity="4.2046773433685303e-01" nType="-99"/>
          <Node pos="r" depth="2" NCoef="0" IVar="-1" Cut="0.0000000000000000e+00" cType="1" res="4.6016159467399120e-04" rms="4.6671029925346375e-01" purity="5.8815163373947144e-01" nType="-99"/>
        </Node>
      </Node>
    </BinaryTree>
    <BinaryTree type="DecisionTree" boostWeight="1.0000000000000000e+00" itree="330">
      <Node pos="s" depth="0" NCoef="0" IVar="4" Cut="1.8526645898818970e+00" cType="1" res="6.3352938741445541e-03" rms="4.5459461212158203e-01" purity="5.0200676918029785e-01" nType="0">
        <Node pos="l" depth="1" NCoef="0" IVar="-1" Cut="0.0000000000000000e+00" cType="1" res="2.2283110301941633e-03" rms="4.5628184080123901e-01" purity="6.1336064338684082e-01" nType="-99"/>
        <Node pos="r" depth="1" NCoef="0" IVar="2" Cut="1.4678233337402344e+02" cType="1" res="7.7284086728468537e-04" rms="4.5407357811927795e-01" purity="4.8868536949157715e-01" nType="0">
          <Node pos="l" depth="2" NCoef="0" IVar="-1" Cut="0.0000000000000000e+00" cType="1" res="3.5648900666274130e-04" rms="4.5482394099235535e-01" purity="5.0869244337081909e-01" nType="-99"/>
          <Node pos="r" depth="2" NCoef="0" IVar="-1" Cut="0.0000000000000000e+00" cType="1" res="-1.8716495251283050e-03" rms="4.4901767373085022e-01" purity="3.9121493697166443e-01" nType="-99"/>
        </Node>
      </Node>
    </BinaryTree>
    <BinaryTree type="DecisionTree" boostWeight="1.0000000000000000e+00" itree="331">
      <Node pos="s" depth="0" NCoef="0" IVar="5" Cut="1.5046705007553101e+00" cType="1" res="1.0890328325331211e-02" rms="4.5461517572402954e-01" purity="5.0587779283523560e-01" nType="0">
        <Node pos="l" depth="1" NCoef="0" IVar="3" Cut="1.3423814392089844e+02" cType="1" res="1.9466800615191460e-02" rms="4.5792403817176819e-01" purity="5.4108661413192749e-01" nType="0">
          <Node pos="l" depth="2" NCoef="0" IVar="-1" Cut="0.0000000000000000e+00" cType="1" res="1.2019420973956585e-03" rms="4.5878031849861145e-01" purity="5.6098335981369019e-01" nType="-99"/>
          <Node pos="r" depth="2" NCoef="0" IVar="-1" Cut="0.0000000000000000e+00" cType="1" res="-1.2402249267324805e-03" rms="4.5043531060218811e-01" purity="4.2127549648284912e-01" nType="-99"/>
        </Node>
        <Node pos="r" depth="1" NCoef="0" IVar="6" Cut="6.8766412353515625e+02" cType="1" res="-1.7587685957551003e-02" rms="4.4225969910621643e-01" purity="3.8896772265434265e-01" nType="0">
          <Node pos="l" depth="2" NCoef="0" IVar="-1" Cut="0.0000000000000000e+00" cType="1" res="-1.9631341565400362e-03" rms="4.3496474623680115e-01" purity="3.4657227993011475e-01" nType="-99"/>
          <Node pos="r" depth="2" NCoef="0" IVar="-1" Cut="0.0000000000000000e+00" cType="1" res="8.5440446855500340e-04" rms="4.6002027392387390e-01" purity="5.0692301988601685e-01" nType="-99"/>
        </Node>
      </Node>
    </BinaryTree>
    <BinaryTree type="DecisionTree" boostWeight="1.0000000000000000e+00" itree="332">
      <Node pos="s" depth="0" NCoef="0" IVar="5" Cut="1.1417344808578491e+00" cType="1" res="5.9917033649981022e-03" rms="4.5415481925010681e-01" purity="5.0242269039154053e-01" nType="0">
        <Node pos="l" depth="1" NCoef="0" IVar="7" Cut="-4.2842110991477966e-01" cType="1" res="2.5392595678567886e-02" rms="4.5639687776565552e-01" purity="5.7196849584579468e-01" nType="0">
          <Node pos="l" depth="2" NCoef="0" IVar="-1" Cut="0.0000000000000000e+00" cType="1" res="2.2978950291872025e-03" rms="4.5164757966995239e-01" purity="6.1379677057266235e-01" nType="-99"/>
          <Node pos="r" depth="2" NCoef="0" IVar="-1" Cut="0.0000000000000000e+00" cType="1" res="-6.6678221628535539e-05" rms="4.5915055274963379e-01" purity="5.3306740522384644e-01" nType="-99"/>
        </Node>
        <Node pos="r" depth="1" NCoef="0" IVar="7" Cut="8.5683941841125488e-01" cType="1" res="-4.9850651994347572e-03" rms="4.5251309871673584e-01" purity="4.6307453513145447e-01" nType="0">
          <Node pos="l" depth="2" NCoef="0" IVar="-1" Cut="0.0000000000000000e+00" cType="1" res="-9.3268073396757245e-04" rms="4.4780346751213074e-01" purity="4.1788524389266968e-01" nType="-99"/>
          <Node pos="r" depth="2" NCoef="0" IVar="-1" Cut="0.0000000000000000e+00" cType="1" res="8.3989970153197646e-04" rms="4.6093431115150452e-01" purity="5.5385792255401611e-01" nType="-99"/>
        </Node>
      </Node>
    </BinaryTree>
    <BinaryTree type="DecisionTree" boostWeight="1.0000000000000000e+00" itree="333">
      <Node pos="s" depth="0" NCoef="0" IVar="2" Cut="1.6802473449707031e+02" cType="1" res="5.8114533312618732e-03" rms="4.5099586248397827e-01" purity="5.0601643323898315e-01" nType="0">
        <Node pos="l" depth="1" NCoef="0" IVar="2" Cut="3.9522148132324219e+01" cType="1" res="1.3513419777154922e-02" rms="4.5158296823501587e-01" purity="5.2478134632110596e-01" nType="0">
          <Node pos="l" depth="2" NCoef="0" IVar="-1" Cut="0.0000000000000000e+00" cType="1" res="-3.3403742127120495e-03" rms="4.4169971346855164e-01" purity="3.4343692660331726e-01" nType="-99"/>
          <Node pos="r" depth="2" NCoef="0" IVar="-1" Cut="0.0000000000000000e+00" cType="1" res="1.0271267965435982e-03" rms="4.5209640264511108e-01" purity="5.4825264215469360e-01" nType="-99"/>
        </Node>
        <Node pos="r" depth="1" NCoef="0" IVar="2" Cut="2.1325086975097656e+02" cType="1" res="-5.9442985802888870e-02" rms="4.4062113761901855e-01" purity="3.4703218936920166e-01" nType="0">
          <Node pos="l" depth="2" NCoef="0" IVar="-1" Cut="0.0000000000000000e+00" cType="1" res="-5.2767321467399597e-03" rms="4.4182786345481873e-01" purity="3.4961161017417908e-01" nType="-99"/>
          <Node pos="r" depth="2" NCoef="0" IVar="-1" Cut="0.0000000000000000e+00" cType="1" res="-2.3887543939054012e-03" rms="4.3828007578849792e-01" purity="3.4453102946281433e-01" nType="-99"/>
        </Node>
      </Node>
    </BinaryTree>
    <BinaryTree type="DecisionTree" boostWeight="1.0000000000000000e+00" itree="334">
      <Node pos="s" depth="0" NCoef="0" IVar="5" Cut="1.8013542890548706e+00" cType="1" res="8.2360804080963135e-03" rms="4.5508801937103271e-01" purity="5.0535738468170166e-01" nType="0">
        <Node pos="l" depth="1" NCoef="0" IVar="2" Cut="1.4514146423339844e+02" cType="1" res="1.2519099749624729e-02" rms="4.5617416501045227e-01" purity="5.1880013942718506e-01" nType="0">
          <Node pos="l" depth="2" NCoef="0" IVar="-1" Cut="0.0000000000000000e+00" cType="1" res="8.5039302939549088e-04" rms="4.5685273408889771e-01" purity="5.3710609674453735e-01" nType="-99"/>
          <Node pos="r" depth="2" NCoef="0" IVar="-1" Cut="0.0000000000000000e+00" cType="1" res="-9.9563249386847019e-04" rms="4.5143485069274902e-01" purity="4.2297005653381348e-01" nType="-99"/>
        </Node>
        <Node pos="r" depth="1" NCoef="0" IVar="-1" Cut="0.0000000000000000e+00" cType="1" res="-3.2732938416302204e-03" rms="4.3569406867027283e-01" purity="3.2099905610084534e-01" nType="-99"/>
      </Node>
    </BinaryTree>
    <BinaryTree type="DecisionTree" boostWeight="1.0000000000000000e+00" itree="335">
      <Node pos="s" depth="0" NCoef="0" IVar="8" Cut="5.0712728881835938e+02" cType="1" res="2.9448911081999540e-03" rms="4.5194232463836670e-01" purity="5.0188708305358887e-01" nType="0">
        <Node pos="l" depth="1" NCoef="0" IVar="6" Cut="5.2984094238281250e+02" cType="1" res="6.8758167326450348e-03" rms="4.5334142446517944e-01" purity="5.1381993293762207e-01" nType="0">
          <Node pos="l" depth="2" NCoef="0" IVar="-1" Cut="0.0000000000000000e+00" cType="1" res="-3.8651132490485907e-04" rms="4.5272517204284668e-01" purity="4.5653533935546875e-01" nType="-99"/>
          <Node pos="r" depth="2" NCoef="0" IVar="-1" Cut="0.0000000000000000e+00" cType="1" res="1.3291103532537818e-03" rms="4.5335385203361511e-01" purity="6.1223530769348145e-01" nType="-99"/>
        </Node>
        <Node pos="r" depth="1" NCoef="0" IVar="-1" Cut="0.0000000000000000e+00" cType="1" res="-2.9172839131206274e-03" rms="4.3108946084976196e-01" purity="3.5291382670402527e-01" nType="-99"/>
      </Node>
    </BinaryTree>
    <BinaryTree type="DecisionTree" boostWeight="1.0000000000000000e+00" itree="336">
      <Node pos="s" depth="0" NCoef="0" IVar="6" Cut="5.4329656982421875e+02" cType="1" res="1.6556530026718974e-03" rms="4.5375692844390869e-01" purity="4.9636444449424744e-01" nType="0">
        <Node pos="l" depth="1" NCoef="0" IVar="8" Cut="1.9583213806152344e+02" cType="1" res="-9.5255048945546150e-03" rms="4.5382234454154968e-01" purity="4.4811823964118958e-01" nType="0">
          <Node pos="l" depth="2" NCoef="0" IVar="-1" Cut="0.0000000000000000e+00" cType="1" res="4.3553390423767269e-04" rms="4.6339553594589233e-01" purity="5.0025403499603271e-01" nType="-99"/>
          <Node pos="r" depth="2" NCoef="0" IVar="-1" Cut="0.0000000000000000e+00" cType="1" res="-2.0635412074625492e-03" rms="4.3990218639373779e-01" purity="3.8036146759986877e-01" nType="-99"/>
        </Node>
        <Node pos="r" depth="1" NCoef="0" IVar="0" Cut="1.2876889705657959e+00" cType="1" res="1.9887661561369896e-02" rms="4.5305877923965454e-01" purity="5.7503473758697510e-01" nType="0">
          <Node pos="l" depth="2" NCoef="0" IVar="-1" Cut="0.0000000000000000e+00" cType="1" res="1.7736572772264481e-03" rms="4.4543832540512085e-01" purity="6.5076071023941040e-01" nType="-99"/>
          <Node pos="r" depth="2" NCoef="0" IVar="-1" Cut="0.0000000000000000e+00" cType="1" res="-2.4281819059979171e-04" rms="4.5962440967559814e-01" purity="4.9552357196807861e-01" nType="-99"/>
        </Node>
      </Node>
    </BinaryTree>
    <BinaryTree type="DecisionTree" boostWeight="1.0000000000000000e+00" itree="337">
      <Node pos="s" depth="0" NCoef="0" IVar="8" Cut="2.7017852783203125e+02" cType="1" res="3.1162798404693604e-03" rms="4.5244747400283813e-01" purity="4.9778297543525696e-01" nType="0">
        <Node pos="l" depth="1" NCoef="0" IVar="8" Cut="1.3015811157226562e+02" cType="1" res="1.4755096286535263e-02" rms="4.5663276314735413e-01" purity="5.3284895420074463e-01" nType="0">
          <Node pos="l" depth="2" NCoef="0" IVar="-1" Cut="0.0000000000000000e+00" cType="1" res="-1.0878407629206777e-03" rms="4.6443840861320496e-01" purity="4.5503595471382141e-01" nType="-99"/>
          <Node pos="r" depth="2" NCoef="0" IVar="-1" Cut="0.0000000000000000e+00" cType="1" res="1.1954902438446879e-03" rms="4.5359218120574951e-01" purity="5.5709135532379150e-01" nType="-99"/>
        </Node>
        <Node pos="r" depth="1" NCoef="0" IVar="1" Cut="9.4049775600433350e-01" cType="1" res="-2.0154699683189392e-02" rms="4.4304516911506653e-01" purity="4.2767098546028137e-01" nType="0">
          <Node pos="l" depth="2" NCoef="0" IVar="-1" Cut="0.0000000000000000e+00" cType="1" res="-5.0264615565538406e-03" rms="4.1432476043701172e-01" purity="2.5540739297866821e-01" nType="-99"/>
          <Node pos="r" depth="2" NCoef="0" IVar="-1" Cut="0.0000000000000000e+00" cType="1" res="-9.0638990513980389e-05" rms="4.5368728041648865e-01" purity="5.0217223167419434e-01" nType="-99"/>
        </Node>
      </Node>
    </BinaryTree>
    <BinaryTree type="DecisionTree" boostWeight="1.0000000000000000e+00" itree="338">
      <Node pos="s" depth="0" NCoef="0" IVar="0" Cut="9.7131848335266113e-01" cType="1" res="3.5399082116782665e-03" rms="4.5255741477012634e-01" purity="5.0249838829040527e-01" nType="0">
        <Node pos="l" depth="1" NCoef="0" IVar="7" Cut="-1.1422754526138306e+00" cType="1" res="3.0891159549355507e-02" rms="4.5358243584632874e-01" purity="5.4555225372314453e-01" nType="0">
          <Node pos="l" depth="2" NCoef="0" IVar="-1" Cut="0.0000000000000000e+00" cType="1" res="3.1252566259354353e-03" rms="4.4993314146995544e-01" purity="6.4964216947555542e-01" nType="-99"/>
          <Node pos="r" depth="2" NCoef="0" IVar="-1" Cut="0.0000000000000000e+00" cType="1" res="5.3921033395454288e-04" rms="4.5364767313003540e-01" purity="5.0244742631912231e-01" nType="-99"/>
        </Node>
        <Node pos="r" depth="1" NCoef="0" IVar="2" Cut="7.3940193176269531e+01" cType="1" res="-7.4626971036195755e-03" rms="4.5167750120162964e-01" purity="4.8517909646034241e-01" nType="0">
          <Node pos="l" depth="2" NCoef="0" IVar="-1" Cut="0.0000000000000000e+00" cType="1" res="-2.3233841639012098e-03" rms="4.5965754985809326e-01" purity="4.1012659668922424e-01" nType="-99"/>
          <Node pos="r" depth="2" NCoef="0" IVar="-1" Cut="0.0000000000000000e+00" cType="1" res="1.7325837688986212e-04" rms="4.4851386547088623e-01" purity="5.0950121879577637e-01" nType="-99"/>
        </Node>
      </Node>
    </BinaryTree>
    <BinaryTree type="DecisionTree" boostWeight="1.0000000000000000e+00" itree="339">
      <Node pos="s" depth="0" NCoef="0" IVar="0" Cut="1.2878326177597046e+00" cType="1" res="3.0558449216187000e-03" rms="4.5285484194755554e-01" purity="4.9931514263153076e-01" nType="0">
        <Node pos="l" depth="1" NCoef="0" IVar="2" Cut="9.3166427612304688e+01" cType="1" res="2.0426442846655846e-02" rms="4.5332366228103638e-01" purity="5.5447798967361450e-01" nType="0">
          <Node pos="l" depth="2" NCoef="0" IVar="-1" Cut="0.0000000000000000e+00" cType="1" res="-5.1576989790191874e-05" rms="4.6334803104400635e-01" purity="4.9473252892494202e-01" nType="-99"/>
          <Node pos="r" depth="2" NCoef="0" IVar="-1" Cut="0.0000000000000000e+00" cType="1" res="3.7914090789854527e-03" rms="4.0752813220024109e-01" purity="7.6346063613891602e-01" nType="-99"/>
        </Node>
        <Node pos="r" depth="1" NCoef="0" IVar="7" Cut="-9.9902164936065674e-01" cType="1" res="-1.3143924996256828e-02" rms="4.5181575417518616e-01" purity="4.4787040352821350e-01" nType="0">
          <Node pos="l" depth="2" NCoef="0" IVar="-1" Cut="0.0000000000000000e+00" cType="1" res="5.3521106019616127e-04" rms="4.6191230416297913e-01" purity="5.6987226009368896e-01" nType="-99"/>
          <Node pos="r" depth="2" NCoef="0" IVar="-1" Cut="0.0000000000000000e+00" cType="1" res="-1.2394268997013569e-03" rms="4.4811049103736877e-01" purity="4.0747117996215820e-01" nType="-99"/>
        </Node>
      </Node>
    </BinaryTree>
    <BinaryTree type="DecisionTree" boostWeight="1.0000000000000000e+00" itree="340">
      <Node pos="s" depth="0" NCoef="0" IVar="1" Cut="9.4012928009033203e-01" cType="1" res="8.6249914020299911e-03" rms="4.5195072889328003e-01" purity="5.0599402189254761e-01" nType="0">
        <Node pos="l" depth="1" NCoef="0" IVar="7" Cut="-1.4316746592521667e-01" cType="1" res="-1.2081772089004517e-02" rms="4.4609487056732178e-01" purity="3.5417041182518005e-01" nType="0">
          <Node pos="l" depth="2" NCoef="0" IVar="-1" Cut="0.0000000000000000e+00" cType="1" res="1.1944423022214323e-04" rms="4.5789116621017456e-01" purity="3.6556091904640198e-01" nType="-99"/>
          <Node pos="r" depth="2" NCoef="0" IVar="-1" Cut="0.0000000000000000e+00" cType="1" res="-1.5720351366326213e-03" rms="4.3380254507064819e-01" purity="3.4302753210067749e-01" nType="-99"/>
        </Node>
        <Node pos="r" depth="1" NCoef="0" IVar="0" Cut="1.6475013494491577e+00" cType="1" res="1.6999086365103722e-02" rms="4.5402938127517700e-01" purity="5.6739360094070435e-01" nType="0">
          <Node pos="l" depth="2" NCoef="0" IVar="-1" Cut="0.0000000000000000e+00" cType="1" res="1.1745449155569077e-03" rms="4.5215809345245361e-01" purity="6.1473149061203003e-01" nType="-99"/>
          <Node pos="r" depth="2" NCoef="0" IVar="-1" Cut="0.0000000000000000e+00" cType="1" res="-4.0443125180900097e-04" rms="4.5747658610343933e-01" purity="4.5560127496719360e-01" nType="-99"/>
        </Node>
      </Node>
    </BinaryTree>
    <BinaryTree type="DecisionTree" boostWeight="1.0000000000000000e+00" itree="341">
      <Node pos="s" depth="0" NCoef="0" IVar="1" Cut="9.1941165924072266e-01" cType="1" res="4.9982969649136066e-03" rms="4.5454779267311096e-01" purity="5.0031292438507080e-01" nType="0">
        <Node pos="l" depth="1" NCoef="0" IVar="4" Cut="2.2306883335113525e+00" cType="1" res="-3.8920745253562927e-02" rms="4.2629006505012512e-01" purity="2.9266673326492310e-01" nType="0">
          <Node pos="l" depth="2" NCoef="0" IVar="-1" Cut="0.0000000000000000e+00" cType="1" res="-1.2024387251585722e-03" rms="4.6718245744705200e-01" purity="3.9431530237197876e-01" nType="-99"/>
          <Node pos="r" depth="2" NCoef="0" IVar="-1" Cut="0.0000000000000000e+00" cType="1" res="-4.9721202813088894e-03" rms="3.8689064979553223e-01" purity="2.0465415716171265e-01" nType="-99"/>
        </Node>
        <Node pos="r" depth="1" NCoef="0" IVar="6" Cut="7.9399761962890625e+02" cType="1" res="1.0497906245291233e-02" rms="4.5766660571098328e-01" purity="5.2631467580795288e-01" nType="0">
          <Node pos="l" depth="2" NCoef="0" IVar="-1" Cut="0.0000000000000000e+00" cType="1" res="2.7115325792692602e-04" rms="4.5810261368751526e-01" purity="5.1172828674316406e-01" nType="-99"/>
          <Node pos="r" depth="2" NCoef="0" IVar="-1" Cut="0.0000000000000000e+00" cType="1" res="1.8626942764967680e-03" rms="4.5322260260581970e-01" purity="6.2590479850769043e-01" nType="-99"/>
        </Node>
      </Node>
    </BinaryTree>
    <BinaryTree type="DecisionTree" boostWeight="1.0000000000000000e+00" itree="342">
      <Node pos="s" depth="0" NCoef="0" IVar="0" Cut="1.2876889705657959e+00" cType="1" res="2.7609255630522966e-03" rms="4.5338067412376404e-01" purity="4.9780464172363281e-01" nType="0">
        <Node pos="l" depth="1" NCoef="0" IVar="2" Cut="3.8744441986083984e+01" cType="1" res="2.0028075203299522e-02" rms="4.5325860381126404e-01" purity="5.5347472429275513e-01" nType="0">
          <Node pos="l" depth="2" NCoef="0" IVar="-1" Cut="0.0000000000000000e+00" cType="1" res="-2.5332141667604446e-03" rms="4.4880393147468567e-01" purity="3.5070741176605225e-01" nType="-99"/>
          <Node pos="r" depth="2" NCoef="0" IVar="-1" Cut="0.0000000000000000e+00" cType="1" res="1.5095314010977745e-03" rms="4.5303782820701599e-01" purity="6.0328823328018188e-01" nType="-99"/>
        </Node>
        <Node pos="r" depth="1" NCoef="0" IVar="7" Cut="-9.9954640865325928e-01" cType="1" res="-1.3319142162799835e-02" rms="4.5290273427963257e-01" purity="4.4596177339553833e-01" nType="0">
          <Node pos="l" depth="2" NCoef="0" IVar="-1" Cut="0.0000000000000000e+00" cType="1" res="7.3120160959661007e-04" rms="4.6697521209716797e-01" purity="5.7040792703628540e-01" nType="-99"/>
          <Node pos="r" depth="2" NCoef="0" IVar="-1" Cut="0.0000000000000000e+00" cType="1" res="-1.3489938573911786e-03" rms="4.4776690006256104e-01" purity="4.0518543124198914e-01" nType="-99"/>
        </Node>
      </Node>
    </BinaryTree>
    <BinaryTree type="DecisionTree" boostWeight="1.0000000000000000e+00" itree="343">
      <Node pos="s" depth="0" NCoef="0" IVar="0" Cut="1.1418095827102661e+00" cType="1" res="1.0538630187511444e-02" rms="4.5393931865692139e-01" purity="5.0769490003585815e-01" nType="0">
        <Node pos="l" depth="1" NCoef="0" IVar="2" Cut="6.8864830017089844e+01" cType="1" res="2.7356330305337906e-02" rms="4.4934025406837463e-01" purity="5.5999720096588135e-01" nType="0">
          <Node pos="l" depth="2" NCoef="0" IVar="-1" Cut="0.0000000000000000e+00" cType="1" res="-2.1745973208453506e-04" rms="4.6278214454650879e-01" purity="4.6460434794425964e-01" nType="-99"/>
          <Node pos="r" depth="2" NCoef="0" IVar="-1" Cut="0.0000000000000000e+00" cType="1" res="3.2359706237912178e-03" rms="4.1872197389602661e-01" purity="7.2842741012573242e-01" nType="-99"/>
        </Node>
        <Node pos="r" depth="1" NCoef="0" IVar="8" Cut="5.1290557861328125e+02" cType="1" res="-2.7742519159801304e-04" rms="4.5654544234275818e-01" purity="4.7405749559402466e-01" nType="0">
          <Node pos="l" depth="2" NCoef="0" IVar="-1" Cut="0.0000000000000000e+00" cType="1" res="2.2933170839678496e-04" rms="4.5907047390937805e-01" purity="4.9018165469169617e-01" nType="-99"/>
          <Node pos="r" depth="2" NCoef="0" IVar="-1" Cut="0.0000000000000000e+00" cType="1" res="-4.0906788781285286e-03" rms="4.2354989051818848e-01" purity="2.9376316070556641e-01" nType="-99"/>
        </Node>
      </Node>
    </BinaryTree>
    <BinaryTree type="DecisionTree" boostWeight="1.0000000000000000e+00" itree="344">
      <Node pos="s" depth="0" NCoef="0" IVar="6" Cut="2.9458425903320312e+02" cType="1" res="-1.4888416044414043e-03" rms="4.5074209570884705e-01" purity="4.9695509672164917e-01" nType="0">
        <Node pos="l" depth="1" NCoef="0" IVar="-1" Cut="0.0000000000000000e+00" cType="1" res="-5.2719181403517723e-03" rms="3.9749515056610107e-01" purity="2.4404646456241608e-01" nType="-99"/>
        <Node pos="r" depth="1" NCoef="0" IVar="0" Cut="1.1323347091674805e+00" cType="1" res="3.4968149848282337e-03" rms="4.5445820689201355e-01" purity="5.1763260364532471e-01" nType="0">
          <Node pos="l" depth="2" NCoef="0" IVar="-1" Cut="0.0000000000000000e+00" cType="1" res="1.0970439761877060e-03" rms="4.5520743727684021e-01" purity="5.6935769319534302e-01" nType="-99"/>
          <Node pos="r" depth="2" NCoef="0" IVar="-1" Cut="0.0000000000000000e+00" cType="1" res="-4.8536292160861194e-04" rms="4.5350584387779236e-01" purity="4.8601388931274414e-01" nType="-99"/>
        </Node>
      </Node>
    </BinaryTree>
    <BinaryTree type="DecisionTree" boostWeight="1.0000000000000000e+00" itree="345">
      <Node pos="s" depth="0" NCoef="0" IVar="7" Cut="-1.4278594255447388e+00" cType="1" res="-4.7252446529455483e-04" rms="4.5392158627510071e-01" purity="4.9529185891151428e-01" nType="0">
        <Node pos="l" depth="1" NCoef="0" IVar="-1" Cut="0.0000000000000000e+00" cType="1" res="2.0205844193696976e-03" rms="4.5188722014427185e-01" purity="6.4890331029891968e-01" nType="-99"/>
        <Node pos="r" depth="1" NCoef="0" IVar="1" Cut="9.8590081930160522e-01" cType="1" res="-4.5274281874299049e-03" rms="4.5385006070137024e-01" purity="4.8266285657882690e-01" nType="0">
          <Node pos="l" depth="2" NCoef="0" IVar="-1" Cut="0.0000000000000000e+00" cType="1" res="-4.7416336019523442e-04" rms="4.5552495121955872e-01" purity="4.5819622278213501e-01" nType="-99"/>
          <Node pos="r" depth="2" NCoef="0" IVar="-1" Cut="0.0000000000000000e+00" cType="1" res="1.3866497902199626e-03" rms="4.3808767199516296e-01" purity="6.8369877338409424e-01" nType="-99"/>
        </Node>
      </Node>
    </BinaryTree>
    <BinaryTree type="DecisionTree" boostWeight="1.0000000000000000e+00" itree="346">
      <Node pos="s" depth="0" NCoef="0" IVar="7" Cut="-1.4279196262359619e+00" cType="1" res="2.7953295502811670e-03" rms="4.5303189754486084e-01" purity="4.9796578288078308e-01" nType="0">
        <Node pos="l" depth="1" NCoef="0" IVar="-1" Cut="0.0000000000000000e+00" cType="1" res="2.3324852809309959e-03" rms="4.4187048077583313e-01" purity="6.6222202777862549e-01" nType="-99"/>
        <Node pos="r" depth="1" NCoef="0" IVar="1" Cut="9.1366451978683472e-01" cType="1" res="-1.8214104929938912e-03" rms="4.5367369055747986e-01" purity="4.8394075036048889e-01" nType="0">
          <Node pos="l" depth="2" NCoef="0" IVar="-1" Cut="0.0000000000000000e+00" cType="1" res="-3.7943143397569656e-03" rms="4.1227993369102478e-01" purity="2.6543852686882019e-01" nType="-99"/>
          <Node pos="r" depth="2" NCoef="0" IVar="-1" Cut="0.0000000000000000e+00" cType="1" res="1.2462164158932865e-04" rms="4.5674946904182434e-01" purity="5.0248217582702637e-01" nType="-99"/>
        </Node>
      </Node>
    </BinaryTree>
    <BinaryTree type="DecisionTree" boostWeight="1.0000000000000000e+00" itree="347">
      <Node pos="s" depth="0" NCoef="0" IVar="1" Cut="9.2605543136596680e-01" cType="1" res="9.8976138979196548e-03" rms="4.5287334918975830e-01" purity="5.0614768266677856e-01" nType="0">
        <Node pos="l" depth="1" NCoef="0" IVar="5" Cut="1.2485498189926147e+00" cType="1" res="-2.4635722860693932e-02" rms="4.2956426739692688e-01" purity="3.2178756594657898e-01" nType="0">
          <Node pos="l" depth="2" NCoef="0" IVar="-1" Cut="0.0000000000000000e+00" cType="1" res="3.4898699959740043e-04" rms="4.5848390460014343e-01" purity="3.9432972669601440e-01" nType="-99"/>
          <Node pos="r" depth="2" NCoef="0" IVar="-1" Cut="0.0000000000000000e+00" cType="1" res="-3.7226635031402111e-03" rms="4.0179070830345154e-01" purity="2.6077848672866821e-01" nType="-99"/>
        </Node>
        <Node pos="r" depth="1" NCoef="0" IVar="7" Cut="8.5679817199707031e-01" cType="1" res="1.6456000506877899e-02" rms="4.5687097311019897e-01" purity="5.4116040468215942e-01" nType="0">
          <Node pos="l" depth="2" NCoef="0" IVar="-1" Cut="0.0000000000000000e+00" cType="1" res="3.0109877116046846e-04" rms="4.5473581552505493e-01" purity="5.0093829631805420e-01" nType="-99"/>
          <Node pos="r" depth="2" NCoef="0" IVar="-1" Cut="0.0000000000000000e+00" cType="1" res="1.4945361763238907e-03" rms="4.6009024977684021e-01" purity="6.1344826221466064e-01" nType="-99"/>
        </Node>
      </Node>
    </BinaryTree>
    <BinaryTree type="DecisionTree" boostWeight="1.0000000000000000e+00" itree="348">
      <Node pos="s" depth="0" NCoef="0" IVar="0" Cut="9.8867559432983398e-01" cType="1" res="7.1511799469590187e-03" rms="4.5343443751335144e-01" purity="5.0381863117218018e-01" nType="0">
        <Node pos="l" depth="1" NCoef="0" IVar="2" Cut="3.8051322937011719e+01" cType="1" res="2.7753153815865517e-02" rms="4.5508378744125366e-01" purity="5.4262971878051758e-01" nType="0">
          <Node pos="l" depth="2" NCoef="0" IVar="-1" Cut="0.0000000000000000e+00" cType="1" res="-1.9907259847968817e-03" rms="4.4928225874900818e-01" purity="3.6283600330352783e-01" nType="-99"/>
          <Node pos="r" depth="2" NCoef="0" IVar="-1" Cut="0.0000000000000000e+00" cType="1" res="2.1530266385525465e-03" rms="4.5505210757255554e-01" purity="6.1134195327758789e-01" nType="-99"/>
        </Node>
        <Node pos="r" depth="1" NCoef="0" IVar="2" Cut="7.2212783813476562e+01" cType="1" res="-1.5390656189993024e-03" rms="4.5245569944381714e-01" purity="4.8744750022888184e-01" nType="0">
          <Node pos="l" depth="2" NCoef="0" IVar="-1" Cut="0.0000000000000000e+00" cType="1" res="-2.0668793004006147e-03" rms="4.6074265241622925e-01" purity="4.0862211585044861e-01" nType="-99"/>
          <Node pos="r" depth="2" NCoef="0" IVar="-1" Cut="0.0000000000000000e+00" cType="1" res="4.2723189108073711e-04" rms="4.4954133033752441e-01" purity="5.1005232334136963e-01" nType="-99"/>
        </Node>
      </Node>
    </BinaryTree>
    <BinaryTree type="DecisionTree" boostWeight="1.0000000000000000e+00" itree="349">
      <Node pos="s" depth="0" NCoef="0" IVar="2" Cut="6.4459197998046875e+01" cType="1" res="-2.2838357836008072e-03" rms="4.5244595408439636e-01" purity="4.9470987915992737e-01" nType="0">
        <Node pos="l" depth="1" NCoef="0" IVar="8" Cut="2.3709782409667969e+02" cType="1" res="-2.3113206028938293e-02" rms="4.5920667052268982e-01" purity="4.2768719792366028e-01" nType="0">
          <Node pos="l" depth="2" NCoef="0" IVar="-1" Cut="0.0000000000000000e+00" cType="1" res="-8.1488251453265548e-05" rms="4.6558409929275513e-01" purity="4.6043479442596436e-01" nType="-99"/>
          <Node pos="r" depth="2" NCoef="0" IVar="-1" Cut="0.0000000000000000e+00" cType="1" res="-5.2241696976125240e-03" rms="4.3537551164627075e-01" purity="3.3638906478881836e-01" nType="-99"/>
        </Node>
        <Node pos="r" depth="1" NCoef="0" IVar="0" Cut="1.1116851568222046e+00" cType="1" res="7.1364794857800007e-03" rms="4.4903773069381714e-01" purity="5.2502161264419556e-01" nType="0">
          <Node pos="l" depth="2" NCoef="0" IVar="-1" Cut="0.0000000000000000e+00" cType="1" res="2.1260178182274103e-03" rms="4.3202692270278931e-01" purity="6.9516384601593018e-01" nType="-99"/>
          <Node pos="r" depth="2" NCoef="0" IVar="-1" Cut="0.0000000000000000e+00" cType="1" res="-2.2979750065132976e-04" rms="4.5259961485862732e-01" purity="4.8111766576766968e-01" nType="-99"/>
        </Node>
      </Node>
    </BinaryTree>
    <BinaryTree type="DecisionTree" boostWeight="1.0000000000000000e+00" itree="350">
      <Node pos="s" depth="0" NCoef="0" IVar="2" Cut="1.0816646575927734e+02" cType="1" res="-2.7563632465898991e-03" rms="4.5011782646179199e-01" purity="4.9572312831878662e-01" nType="0">
        <Node pos="l" depth="1" NCoef="0" IVar="8" Cut="2.4677375793457031e+02" cType="1" res="-1.6182160004973412e-02" rms="4.5409074425697327e-01" purity="4.7820559144020081e-01" nType="0">
          <Node pos="l" depth="2" NCoef="0" IVar="-1" Cut="0.0000000000000000e+00" cType="1" res="-8.9256835053674877e-05" rms="4.5927441120147705e-01" purity="5.0778335332870483e-01" nType="-99"/>
          <Node pos="r" depth="2" NCoef="0" IVar="-1" Cut="0.0000000000000000e+00" cType="1" res="-2.8927931562066078e-03" rms="4.3934586644172668e-01" purity="4.0654560923576355e-01" nType="-99"/>
        </Node>
        <Node pos="r" depth="1" NCoef="0" IVar="0" Cut="1.4493397474288940e+00" cType="1" res="2.1035661920905113e-02" rms="4.4198933243751526e-01" purity="5.2676612138748169e-01" nType="0">
          <Node pos="l" depth="2" NCoef="0" IVar="-1" Cut="0.0000000000000000e+00" cType="1" res="3.2441748771816492e-03" rms="4.1357561945915222e-01" purity="7.4512243270874023e-01" nType="-99"/>
          <Node pos="r" depth="2" NCoef="0" IVar="-1" Cut="0.0000000000000000e+00" cType="1" res="-2.1973272669129074e-04" rms="4.5076927542686462e-01" purity="4.3699231743812561e-01" nType="-99"/>
        </Node>
      </Node>
    </BinaryTree>
    <BinaryTree type="DecisionTree" boostWeight="1.0000000000000000e+00" itree="351">
      <Node pos="s" depth="0" NCoef="0" IVar="5" Cut="1.7800714969635010e+00" cType="1" res="2.2886588703840971e-03" rms="4.5259499549865723e-01" purity="4.9728742241859436e-01" nType="0">
        <Node pos="l" depth="1" NCoef="0" IVar="6" Cut="4.0252874755859375e+02" cType="1" res="6.5331384539604187e-03" rms="4.5363366603851318e-01" purity="5.1217800378799438e-01" nType="0">
          <Node pos="l" depth="2" NCoef="0" IVar="-1" Cut="0.0000000000000000e+00" cType="1" res="-1.0114860488101840e-03" rms="4.4806978106498718e-01" purity="3.9179638028144836e-01" nType="-99"/>
          <Node pos="r" depth="2" NCoef="0" IVar="-1" Cut="0.0000000000000000e+00" cType="1" res="8.0933893332257867e-04" rms="4.5586273074150085e-01" purity="5.7055795192718506e-01" nType="-99"/>
        </Node>
        <Node pos="r" depth="1" NCoef="0" IVar="-1" Cut="0.0000000000000000e+00" cType="1" res="-3.4307045862078667e-03" rms="4.3612614274024963e-01" purity="3.1295263767242432e-01" nType="-99"/>
      </Node>
    </BinaryTree>
    <BinaryTree type="DecisionTree" boostWeight="1.0000000000000000e+00" itree="352">
      <Node pos="s" depth="0" NCoef="0" IVar="2" Cut="1.6785629272460938e+02" cType="1" res="-1.6484360676258802e-03" rms="4.5030644536018372e-01" purity="4.9565282464027405e-01" nType="0">
        <Node pos="l" depth="1" NCoef="0" IVar="2" Cut="9.6442611694335938e+01" cType="1" res="4.3153911828994751e-03" rms="4.5226013660430908e-01" purity="5.1284474134445190e-01" nType="0">
          <Node pos="l" depth="2" NCoef="0" IVar="-1" Cut="0.0000000000000000e+00" cType="1" res="-9.3523861141875386e-04" rms="4.5580455660820007e-01" purity="4.6613913774490356e-01" nType="-99"/>
          <Node pos="r" depth="2" NCoef="0" IVar="-1" Cut="0.0000000000000000e+00" cType="1" res="1.9973004236817360e-03" rms="4.4324123859405518e-01" purity="5.9403330087661743e-01" nType="-99"/>
        </Node>
        <Node pos="r" depth="1" NCoef="0" IVar="7" Cut="2.8512281179428101e-01" cType="1" res="-5.0619486719369888e-02" rms="4.3082061409950256e-01" purity="3.5448390245437622e-01" nType="0">
          <Node pos="l" depth="2" NCoef="0" IVar="-1" Cut="0.0000000000000000e+00" cType="1" res="-4.5709516853094101e-03" rms="4.2609986662864685e-01" purity="3.1995090842247009e-01" nType="-99"/>
          <Node pos="r" depth="2" NCoef="0" IVar="-1" Cut="0.0000000000000000e+00" cType="1" res="-2.0331505220383406e-03" rms="4.3546584248542786e-01" purity="3.9325189590454102e-01" nType="-99"/>
        </Node>
      </Node>
    </BinaryTree>
    <BinaryTree type="DecisionTree" boostWeight="1.0000000000000000e+00" itree="353">
      <Node pos="s" depth="0" NCoef="0" IVar="3" Cut="1.4461666870117188e+02" cType="1" res="2.6945923455059528e-03" rms="4.5091831684112549e-01" purity="4.9843767285346985e-01" nType="0">
        <Node pos="l" depth="1" NCoef="0" IVar="2" Cut="1.7148851013183594e+02" cType="1" res="6.3569243066012859e-03" rms="4.5258405804634094e-01" purity="5.1111900806427002e-01" nType="0">
          <Node pos="l" depth="2" NCoef="0" IVar="-1" Cut="0.0000000000000000e+00" cType="1" res="5.6078779743984342e-04" rms="4.5388498902320862e-01" purity="5.2513003349304199e-01" nType="-99"/>
          <Node pos="r" depth="2" NCoef="0" IVar="-1" Cut="0.0000000000000000e+00" cType="1" res="-2.9793274588882923e-03" rms="4.3581634759902954e-01" purity="3.7201747298240662e-01" nType="-99"/>
        </Node>
        <Node pos="r" depth="1" NCoef="0" IVar="-1" Cut="0.0000000000000000e+00" cType="1" res="-5.1773670129477978e-03" rms="4.1299661993980408e-01" purity="2.6332935690879822e-01" nType="-99"/>
      </Node>
    </BinaryTree>
    <BinaryTree type="DecisionTree" boostWeight="1.0000000000000000e+00" itree="354">
      <Node pos="s" depth="0" NCoef="0" IVar="7" Cut="-1.2851746082305908e+00" cType="1" res="3.3641040790826082e-03" rms="4.5342499017715454e-01" purity="4.9898728728294373e-01" nType="0">
        <Node pos="l" depth="1" NCoef="0" IVar="7" Cut="-1.4020298719406128e+00" cType="1" res="3.9423529058694839e-02" rms="4.5999109745025635e-01" purity="6.2880742549896240e-01" nType="0">
          <Node pos="l" depth="2" NCoef="0" IVar="-1" Cut="0.0000000000000000e+00" cType="1" res="2.1385888103395700e-03" rms="4.5394504070281982e-01" purity="6.5079510211944580e-01" nType="-99"/>
          <Node pos="r" depth="2" NCoef="0" IVar="-1" Cut="0.0000000000000000e+00" cType="1" res="9.2886399943381548e-04" rms="4.6858823299407959e-01" purity="5.9488391876220703e-01" nType="-99"/>
        </Node>
        <Node pos="r" depth="1" NCoef="0" IVar="3" Cut="1.1090698242187500e+02" cType="1" res="-2.9878667555749416e-03" rms="4.5196056365966797e-01" purity="4.7611916065216064e-01" nType="0">
          <Node pos="l" depth="2" NCoef="0" IVar="-1" Cut="0.0000000000000000e+00" cType="1" res="-2.1834222134202719e-03" rms="4.5169952511787415e-01" purity="3.7922638654708862e-01" nType="-99"/>
          <Node pos="r" depth="2" NCoef="0" IVar="-1" Cut="0.0000000000000000e+00" cType="1" res="1.3926859537605196e-04" rms="4.5175465941429138e-01" purity="4.9295932054519653e-01" nType="-99"/>
        </Node>
      </Node>
    </BinaryTree>
    <BinaryTree type="DecisionTree" boostWeight="1.0000000000000000e+00" itree="355">
      <Node pos="s" depth="0" NCoef="0" IVar="2" Cut="6.3133754730224609e+01" cType="1" res="6.8216136423870921e-04" rms="4.5367333292961121e-01" purity="4.9501898884773254e-01" nType="0">
        <Node pos="l" depth="1" NCoef="0" IVar="2" Cut="3.2192207336425781e+01" cType="1" res="-1.9071528688073158e-02" rms="4.6145397424697876e-01" purity="4.2200678586959839e-01" nType="0">
          <Node pos="l" depth="2" NCoef="0" IVar="-1" Cut="0.0000000000000000e+00" cType="1" res="-5.1202480681240559e-03" rms="4.2575630545616150e-01" purity="2.9794219136238098e-01" nType="-99"/>
          <Node pos="r" depth="2" NCoef="0" IVar="-1" Cut="0.0000000000000000e+00" cType="1" res="-3.4804423921741545e-04" rms="4.6771344542503357e-01" purity="4.4816035032272339e-01" nType="-99"/>
        </Node>
        <Node pos="r" depth="1" NCoef="0" IVar="0" Cut="9.6747785806655884e-01" cType="1" res="9.2170070856809616e-03" rms="4.5000183582305908e-01" purity="5.2656489610671997e-01" nType="0">
          <Node pos="l" depth="2" NCoef="0" IVar="-1" Cut="0.0000000000000000e+00" cType="1" res="2.5779323186725378e-03" rms="4.2193481326103210e-01" purity="7.1190685033798218e-01" nType="-99"/>
          <Node pos="r" depth="2" NCoef="0" IVar="-1" Cut="0.0000000000000000e+00" cType="1" res="2.4619614123366773e-05" rms="4.5355442166328430e-01" purity="4.9794030189514160e-01" nType="-99"/>
        </Node>
      </Node>
    </BinaryTree>
    <BinaryTree type="DecisionTree" boostWeight="1.0000000000000000e+00" itree="356">
      <Node pos="s" depth="0" NCoef="0" IVar="0" Cut="1.7317374944686890e+00" cType="1" res="7.8141307458281517e-03" rms="4.5220452547073364e-01" purity="5.0567328929901123e-01" nType="0">
        <Node pos="l" depth="1" NCoef="0" IVar="2" Cut="9.6895195007324219e+01" cType="1" res="1.7729884013533592e-02" rms="4.5560711622238159e-01" purity="5.5633950233459473e-01" nType="0">
          <Node pos="l" depth="2" NCoef="0" IVar="-1" Cut="0.0000000000000000e+00" cType="1" res="3.3059597626561299e-05" rms="4.6137431263923645e-01" purity="5.0166010856628418e-01" nType="-99"/>
          <Node pos="r" depth="2" NCoef="0" IVar="-1" Cut="0.0000000000000000e+00" cType="1" res="2.2922602947801352e-03" rms="4.3984860181808472e-01" purity="6.8007892370223999e-01" nType="-99"/>
        </Node>
        <Node pos="r" depth="1" NCoef="0" IVar="2" Cut="1.3896102905273438e+02" cType="1" res="-1.9378753378987312e-02" rms="4.4159811735153198e-01" purity="3.6672660708427429e-01" nType="0">
          <Node pos="l" depth="2" NCoef="0" IVar="-1" Cut="0.0000000000000000e+00" cType="1" res="2.7431052876636386e-04" rms="4.5095160603523254e-01" purity="4.1358384490013123e-01" nType="-99"/>
          <Node pos="r" depth="2" NCoef="0" IVar="-1" Cut="0.0000000000000000e+00" cType="1" res="-3.5408949479460716e-03" rms="4.2768782377243042e-01" purity="3.0805057287216187e-01" nType="-99"/>
        </Node>
      </Node>
    </BinaryTree>
    <BinaryTree type="DecisionTree" boostWeight="1.0000000000000000e+00" itree="357">
      <Node pos="s" depth="0" NCoef="0" IVar="3" Cut="1.0796383666992188e+02" cType="1" res="7.0745856501162052e-03" rms="4.5051643252372742e-01" purity="5.0469160079956055e-01" nType="0">
        <Node pos="l" depth="1" NCoef="0" IVar="3" Cut="1.0034526824951172e+02" cType="1" res="-3.3136293292045593e-02" rms="4.4564828276634216e-01" purity="3.8475584983825684e-01" nType="0">
          <Node pos="l" depth="2" NCoef="0" IVar="-1" Cut="0.0000000000000000e+00" cType="1" res="-3.7204695399850607e-03" rms="4.3406271934509277e-01" purity="3.3390867710113525e-01" nType="-99"/>
          <Node pos="r" depth="2" NCoef="0" IVar="-1" Cut="0.0000000000000000e+00" cType="1" res="-4.6419820864684880e-04" rms="4.5613372325897217e-01" purity="4.3785333633422852e-01" nType="-99"/>
        </Node>
        <Node pos="r" depth="1" NCoef="0" IVar="4" Cut="2.1391766071319580e+00" cType="1" res="1.2158872559666634e-02" rms="4.5087289810180664e-01" purity="5.1985645294189453e-01" nType="0">
          <Node pos="l" depth="2" NCoef="0" IVar="-1" Cut="0.0000000000000000e+00" cType="1" res="1.2499744771048427e-03" rms="4.5108997821807861e-01" purity="6.3744318485260010e-01" nType="-99"/>
          <Node pos="r" depth="2" NCoef="0" IVar="-1" Cut="0.0000000000000000e+00" cType="1" res="5.1966588216600940e-05" rms="4.5037752389907837e-01" purity="4.4485554099082947e-01" nType="-99"/>
        </Node>
      </Node>
    </BinaryTree>
    <BinaryTree type="DecisionTree" boostWeight="1.0000000000000000e+00" itree="358">
      <Node pos="s" depth="0" NCoef="0" IVar="1" Cut="9.7945278882980347e-01" cType="1" res="6.5369103103876114e-03" rms="4.5277816057205200e-01" purity="5.0081658363342285e-01" nType="0">
        <Node pos="l" depth="1" NCoef="0" IVar="7" Cut="-9.9962669610977173e-01" cType="1" res="-6.0676428256556392e-04" rms="4.5666745305061340e-01" purity="4.5968118309974670e-01" nType="0">
          <Node pos="l" depth="2" NCoef="0" IVar="-1" Cut="0.0000000000000000e+00" cType="1" res="1.0191353503614664e-03" rms="4.7179430723190308e-01" purity="5.5448031425476074e-01" nType="-99"/>
          <Node pos="r" depth="2" NCoef="0" IVar="-1" Cut="0.0000000000000000e+00" cType="1" res="-5.4199388250708580e-04" rms="4.5031553506851196e-01" purity="4.2282843589782715e-01" nType="-99"/>
        </Node>
        <Node pos="r" depth="1" NCoef="0" IVar="2" Cut="8.8648818969726562e+01" cType="1" res="3.9439409971237183e-02" rms="4.3289625644683838e-01" purity="6.9027930498123169e-01" nType="0">
          <Node pos="l" depth="2" NCoef="0" IVar="-1" Cut="0.0000000000000000e+00" cType="1" res="6.9096282823011279e-04" rms="4.5370355248451233e-01" purity="6.4857906103134155e-01" nType="-99"/>
          <Node pos="r" depth="2" NCoef="0" IVar="-1" Cut="0.0000000000000000e+00" cType="1" res="2.6278675068169832e-03" rms="4.1057577729225159e-01" purity="7.3052400350570679e-01" nType="-99"/>
        </Node>
      </Node>
    </BinaryTree>
    <BinaryTree type="DecisionTree" boostWeight="1.0000000000000000e+00" itree="359">
      <Node pos="s" depth="0" NCoef="0" IVar="5" Cut="9.5657259225845337e-01" cType="1" res="1.7643851460888982e-03" rms="4.5271161198616028e-01" purity="4.9850243330001831e-01" nType="0">
        <Node pos="l" depth="1" NCoef="0" IVar="-1" Cut="0.0000000000000000e+00" cType="1" res="2.0231837406754494e-03" rms="4.4826072454452515e-01" purity="6.1075407266616821e-01" nType="-99"/>
        <Node pos="r" depth="1" NCoef="0" IVar="0" Cut="2.0164737701416016e+00" cType="1" res="-3.3401804976165295e-03" rms="4.5291903614997864e-01" purity="4.8597741127014160e-01" nType="0">
          <Node pos="l" depth="2" NCoef="0" IVar="-1" Cut="0.0000000000000000e+00" cType="1" res="8.4071514720562845e-05" rms="4.5917567610740662e-01" purity="5.2115231752395630e-01" nType="-99"/>
          <Node pos="r" depth="2" NCoef="0" IVar="-1" Cut="0.0000000000000000e+00" cType="1" res="-2.7499767020344734e-03" rms="4.1123524308204651e-01" purity="2.7095577120780945e-01" nType="-99"/>
        </Node>
      </Node>
    </BinaryTree>
    <BinaryTree type="DecisionTree" boostWeight="1.0000000000000000e+00" itree="360">
      <Node pos="s" depth="0" NCoef="0" IVar="0" Cut="1.1323347091674805e+00" cType="1" res="6.7772022448480129e-03" rms="4.5298242568969727e-01" purity="5.0271314382553101e-01" nType="0">
        <Node pos="l" depth="1" NCoef="0" IVar="2" Cut="5.2464435577392578e+01" cType="1" res="2.6857811957597733e-02" rms="4.5264244079589844e-01" purity="5.5346703529357910e-01" nType="0">
          <Node pos="l" depth="2" NCoef="0" IVar="-1" Cut="0.0000000000000000e+00" cType="1" res="-4.8366028931923211e-04" rms="4.6104311943054199e-01" purity="4.1681861877441406e-01" nType="-99"/>
          <Node pos="r" depth="2" NCoef="0" IVar="-1" Cut="0.0000000000000000e+00" cType="1" res="2.3329916875809431e-03" rms="4.4321614503860474e-01" purity="6.6820979118347168e-01" nType="-99"/>
        </Node>
        <Node pos="r" depth="1" NCoef="0" IVar="7" Cut="7.1382004022598267e-01" cType="1" res="-5.8089043013751507e-03" rms="4.5274156332015991e-01" purity="4.7090169787406921e-01" nType="0">
          <Node pos="l" depth="2" NCoef="0" IVar="-1" Cut="0.0000000000000000e+00" cType="1" res="-1.1473647318780422e-03" rms="4.4712048768997192e-01" purity="4.2320030927658081e-01" nType="-99"/>
          <Node pos="r" depth="2" NCoef="0" IVar="-1" Cut="0.0000000000000000e+00" cType="1" res="7.9335499322041869e-04" rms="4.6062302589416504e-01" purity="5.4695546627044678e-01" nType="-99"/>
        </Node>
      </Node>
    </BinaryTree>
    <BinaryTree type="DecisionTree" boostWeight="1.0000000000000000e+00" itree="361">
      <Node pos="s" depth="0" NCoef="0" IVar="4" Cut="2.2236795425415039e+00" cType="1" res="1.5634759329259396e-03" rms="4.5081433653831482e-01" purity="4.9938273429870605e-01" nType="0">
        <Node pos="l" depth="1" NCoef="0" IVar="2" Cut="9.2313026428222656e+01" cType="1" res="1.8195835873484612e-02" rms="4.5381835103034973e-01" purity="6.0584878921508789e-01" nType="0">
          <Node pos="l" depth="2" NCoef="0" IVar="-1" Cut="0.0000000000000000e+00" cType="1" res="2.0396985928528011e-04" rms="4.6675089001655579e-01" purity="5.4655563831329346e-01" nType="-99"/>
          <Node pos="r" depth="2" NCoef="0" IVar="-1" Cut="0.0000000000000000e+00" cType="1" res="1.6362032620236278e-03" rms="4.3135300278663635e-01" purity="7.0101338624954224e-01" nType="-99"/>
        </Node>
        <Node pos="r" depth="1" NCoef="0" IVar="4" Cut="2.3776133060455322e+00" cType="1" res="-1.5544658526778221e-02" rms="4.4705823063850403e-01" purity="3.8987118005752563e-01" nType="0">
          <Node pos="l" depth="2" NCoef="0" IVar="-1" Cut="0.0000000000000000e+00" cType="1" res="-2.3095821961760521e-03" rms="4.6490108966827393e-01" purity="4.7212114930152893e-01" nType="-99"/>
          <Node pos="r" depth="2" NCoef="0" IVar="-1" Cut="0.0000000000000000e+00" cType="1" res="5.3789981393492781e-06" rms="4.3701428174972534e-01" purity="3.4868720173835754e-01" nType="-99"/>
        </Node>
      </Node>
    </BinaryTree>
    <BinaryTree type="DecisionTree" boostWeight="1.0000000000000000e+00" itree="362">
      <Node pos="s" depth="0" NCoef="0" IVar="2" Cut="1.0389855957031250e+02" cType="1" res="5.0743613392114639e-03" rms="4.5294988155364990e-01" purity="4.9996164441108704e-01" nType="0">
        <Node pos="l" depth="1" NCoef="0" IVar="8" Cut="2.4608732604980469e+02" cType="1" res="-7.4288952164351940e-03" rms="4.5817545056343079e-01" purity="4.8247802257537842e-01" nType="0">
          <Node pos="l" depth="2" NCoef="0" IVar="-1" Cut="0.0000000000000000e+00" cType="1" res="3.7844188045710325e-04" rms="4.6134442090988159e-01" purity="5.1154685020446777e-01" nType="-99"/>
          <Node pos="r" depth="2" NCoef="0" IVar="-1" Cut="0.0000000000000000e+00" cType="1" res="-2.5052581913769245e-03" rms="4.4826072454452515e-01" purity="4.1236242651939392e-01" nType="-99"/>
        </Node>
        <Node pos="r" depth="1" NCoef="0" IVar="0" Cut="1.4252645969390869e+00" cType="1" res="2.5344619527459145e-02" rms="4.4359949231147766e-01" purity="5.2830618619918823e-01" nType="0">
          <Node pos="l" depth="2" NCoef="0" IVar="-1" Cut="0.0000000000000000e+00" cType="1" res="2.7958289720118046e-03" rms="4.2114707827568054e-01" purity="7.3508405685424805e-01" nType="-99"/>
          <Node pos="r" depth="2" NCoef="0" IVar="-1" Cut="0.0000000000000000e+00" cType="1" res="4.5152899110689759e-04" rms="4.5073541998863220e-01" purity="4.4917118549346924e-01" nType="-99"/>
        </Node>
      </Node>
    </BinaryTree>
    <BinaryTree type="DecisionTree" boostWeight="1.0000000000000000e+00" itree="363">
      <Node pos="s" depth="0" NCoef="0" IVar="1" Cut="9.8565244674682617e-01" cType="1" res="5.7821660302579403e-03" rms="4.5437067747116089e-01" purity="5.0087547302246094e-01" nType="0">
        <Node pos="l" depth="1" NCoef="0" IVar="2" Cut="1.0035180664062500e+02" cType="1" res="1.3162122340872884e-03" rms="4.5675247907638550e-01" purity="4.7616198658943176e-01" nType="0">
          <Node pos="l" depth="2" NCoef="0" IVar="-1" Cut="0.0000000000000000e+00" cType="1" res="-4.3927549268119037e-04" rms="4.6264058351516724e-01" purity="4.5792791247367859e-01" nType="-99"/>
          <Node pos="r" depth="2" NCoef="0" IVar="-1" Cut="0.0000000000000000e+00" cType="1" res="8.1384670920670033e-04" rms="4.4754198193550110e-01" purity="5.0299596786499023e-01" nType="-99"/>
        </Node>
        <Node pos="r" depth="1" NCoef="0" IVar="-1" Cut="0.0000000000000000e+00" cType="1" res="1.7610037466511130e-03" rms="4.3323823809623718e-01" purity="6.9819283485412598e-01" nType="-99"/>
      </Node>
    </BinaryTree>
    <BinaryTree type="DecisionTree" boostWeight="1.0000000000000000e+00" itree="364">
      <Node pos="s" depth="0" NCoef="0" IVar="5" Cut="1.6136249303817749e+00" cType="1" res="4.8466450534760952e-03" rms="4.5376038551330566e-01" purity="5.0207424163818359e-01" nType="0">
        <Node pos="l" depth="1" NCoef="0" IVar="6" Cut="3.9178054809570312e+02" cType="1" res="9.6882013604044914e-03" rms="4.5551109313964844e-01" purity="5.2709871530532837e-01" nType="0">
          <Node pos="l" depth="2" NCoef="0" IVar="-1" Cut="0.0000000000000000e+00" cType="1" res="-5.5737345246598125e-04" rms="4.5507445931434631e-01" purity="4.0161594748497009e-01" nType="-99"/>
          <Node pos="r" depth="2" NCoef="0" IVar="-1" Cut="0.0000000000000000e+00" cType="1" res="8.0975837772712111e-04" rms="4.5544460415840149e-01" purity="5.8153116703033447e-01" nType="-99"/>
        </Node>
        <Node pos="r" depth="1" NCoef="0" IVar="2" Cut="9.5917739868164062e+01" cType="1" res="-2.2421492263674736e-02" rms="4.4278371334075928e-01" purity="3.6113396286964417e-01" nType="0">
          <Node pos="l" depth="2" NCoef="0" IVar="-1" Cut="0.0000000000000000e+00" cType="1" res="-2.7419927064329386e-03" rms="4.4002932310104370e-01" purity="3.2957381010055542e-01" nType="-99"/>
          <Node pos="r" depth="2" NCoef="0" IVar="-1" Cut="0.0000000000000000e+00" cType="1" res="2.5704342988319695e-04" rms="4.4517302513122559e-01" purity="4.0482163429260254e-01" nType="-99"/>
        </Node>
      </Node>
    </BinaryTree>
    <BinaryTree type="DecisionTree" boostWeight="1.0000000000000000e+00" itree="365">
      <Node pos="s" depth="0" NCoef="0" IVar="1" Cut="9.8568528890609741e-01" cType="1" res="3.8954955525696278e-03" rms="4.5300742983818054e-01" purity="5.0007110834121704e-01" nType="0">
        <Node pos="l" depth="1" NCoef="0" IVar="6" Cut="5.5662084960937500e+02" cType="1" res="-9.2657923232764006e-04" rms="4.5596474409103394e-01" purity="4.7326967120170593e-01" nType="0">
          <Node pos="l" depth="2" NCoef="0" IVar="-1" Cut="0.0000000000000000e+00" cType="1" res="-5.7668139925226569e-04" rms="4.5504930615425110e-01" purity="4.2702311277389526e-01" nType="-99"/>
          <Node pos="r" depth="2" NCoef="0" IVar="-1" Cut="0.0000000000000000e+00" cType="1" res="7.2309287497773767e-04" rms="4.5709201693534851e-01" purity="5.5534648895263672e-01" nType="-99"/>
        </Node>
        <Node pos="r" depth="1" NCoef="0" IVar="-1" Cut="0.0000000000000000e+00" cType="1" res="1.6800983576104045e-03" rms="4.2860001325607300e-01" purity="6.9998437166213989e-01" nType="-99"/>
      </Node>
    </BinaryTree>
    <BinaryTree type="DecisionTree" boostWeight="1.0000000000000000e+00" itree="366">
      <Node pos="s" depth="0" NCoef="0" IVar="5" Cut="1.8013542890548706e+00" cType="1" res="8.7025649845600128e-03" rms="4.5088914036750793e-01" purity="5.0638711452484131e-01" nType="0">
        <Node pos="l" depth="1" NCoef="0" IVar="8" Cut="5.2756933593750000e+02" cType="1" res="1.2338672764599323e-02" rms="4.5190724730491638e-01" purity="5.1993632316589355e-01" nType="0">
          <Node pos="l" depth="2" NCoef="0" IVar="-1" Cut="0.0000000000000000e+00" cType="1" res="7.5027870479971170e-04" rms="4.5256966352462769e-01" purity="5.3016859292984009e-01" nType="-99"/>
          <Node pos="r" depth="2" NCoef="0" IVar="-1" Cut="0.0000000000000000e+00" cType="1" res="-2.8306161984801292e-03" rms="4.3689286708831787e-01" purity="3.5072851181030273e-01" nType="-99"/>
        </Node>
        <Node pos="r" depth="1" NCoef="0" IVar="-1" Cut="0.0000000000000000e+00" cType="1" res="-2.8090744744986296e-03" rms="4.3341904878616333e-01" purity="3.1873205304145813e-01" nType="-99"/>
      </Node>
    </BinaryTree>
    <BinaryTree type="DecisionTree" boostWeight="1.0000000000000000e+00" itree="367">
      <Node pos="s" depth="0" NCoef="0" IVar="1" Cut="9.8568528890609741e-01" cType="1" res="4.9412134103477001e-03" rms="4.5370119810104370e-01" purity="4.9921372532844543e-01" nType="0">
        <Node pos="l" depth="1" NCoef="0" IVar="1" Cut="9.0736174583435059e-01" cType="1" res="1.0828821541508660e-04" rms="4.5598545670509338e-01" purity="4.7329607605934143e-01" nType="0">
          <Node pos="l" depth="2" NCoef="0" IVar="-1" Cut="0.0000000000000000e+00" cType="1" res="-3.8530745077878237e-03" rms="4.1335272789001465e-01" purity="2.6191130280494690e-01" nType="-99"/>
          <Node pos="r" depth="2" NCoef="0" IVar="-1" Cut="0.0000000000000000e+00" cType="1" res="1.7795244639273733e-04" rms="4.5831876993179321e-01" purity="4.8661175370216370e-01" nType="-99"/>
        </Node>
        <Node pos="r" depth="1" NCoef="0" IVar="-1" Cut="0.0000000000000000e+00" cType="1" res="1.8186165252700448e-03" rms="4.3324092030525208e-01" purity="7.0489543676376343e-01" nType="-99"/>
      </Node>
    </BinaryTree>
    <BinaryTree type="DecisionTree" boostWeight="1.0000000000000000e+00" itree="368">
      <Node pos="s" depth="0" NCoef="0" IVar="7" Cut="-1.4279800653457642e+00" cType="1" res="4.5741740614175797e-03" rms="4.5349049568176270e-01" purity="4.9936422705650330e-01" nType="0">
        <Node pos="l" depth="1" NCoef="0" IVar="-1" Cut="0.0000000000000000e+00" cType="1" res="1.9229188328608871e-03" rms="4.3865308165550232e-01" purity="6.6110736131668091e-01" nType="-99"/>
        <Node pos="r" depth="1" NCoef="0" IVar="2" Cut="1.1567234039306641e+02" cType="1" res="1.1361805954948068e-03" rms="4.5452928543090820e-01" purity="4.8595288395881653e-01" nType="0">
          <Node pos="l" depth="2" NCoef="0" IVar="-1" Cut="0.0000000000000000e+00" cType="1" res="-3.9635310531593859e-04" rms="4.5786893367767334e-01" purity="4.8072400689125061e-01" nType="-99"/>
          <Node pos="r" depth="2" NCoef="0" IVar="-1" Cut="0.0000000000000000e+00" cType="1" res="1.0379697196185589e-03" rms="4.4671973586082458e-01" purity="4.9709713459014893e-01" nType="-99"/>
        </Node>
      </Node>
    </BinaryTree>
    <BinaryTree type="DecisionTree" boostWeight="1.0000000000000000e+00" itree="369">
      <Node pos="s" depth="0" NCoef="0" IVar="5" Cut="1.0504372119903564e+00" cType="1" res="4.9041863530874252e-03" rms="4.5376494526863098e-01" purity="5.0111687183380127e-01" nType="0">
        <Node pos="l" depth="1" NCoef="0" IVar="2" Cut="1.2245899200439453e+02" cType="1" res="2.6728129014372826e-02" rms="4.5447650551795959e-01" purity="5.8485156297683716e-01" nType="0">
          <Node pos="l" depth="2" NCoef="0" IVar="-1" Cut="0.0000000000000000e+00" cType="1" res="1.9253968494012952e-03" rms="4.5627105236053467e-01" purity="6.1022597551345825e-01" nType="-99"/>
          <Node pos="r" depth="2" NCoef="0" IVar="-1" Cut="0.0000000000000000e+00" cType="1" res="-7.5259205186739564e-04" rms="4.4737929105758667e-01" purity="5.2508944272994995e-01" nType="-99"/>
        </Node>
        <Node pos="r" depth="1" NCoef="0" IVar="4" Cut="2.2081480026245117e+00" cType="1" res="-1.5322375111281872e-03" rms="4.5335432887077332e-01" purity="4.7642138600349426e-01" nType="0">
          <Node pos="l" depth="2" NCoef="0" IVar="-1" Cut="0.0000000000000000e+00" cType="1" res="5.3150026360526681e-04" rms="4.5924013853073120e-01" purity="5.8977001905441284e-01" nType="-99"/>
          <Node pos="r" depth="2" NCoef="0" IVar="-1" Cut="0.0000000000000000e+00" cType="1" res="-8.1510917516425252e-04" rms="4.4779196381568909e-01" purity="3.7709268927574158e-01" nType="-99"/>
        </Node>
      </Node>
    </BinaryTree>
    <BinaryTree type="DecisionTree" boostWeight="1.0000000000000000e+00" itree="370">
      <Node pos="s" depth="0" NCoef="0" IVar="4" Cut="2.0575475692749023e+00" cType="1" res="1.9246038282290101e-03" rms="4.5254403352737427e-01" purity="4.9867200851440430e-01" nType="0">
        <Node pos="l" depth="1" NCoef="0" IVar="0" Cut="1.2046781778335571e+00" cType="1" res="2.5843130424618721e-02" rms="4.5498070120811462e-01" purity="6.1433744430541992e-01" nType="0">
          <Node pos="l" depth="2" NCoef="0" IVar="-1" Cut="0.0000000000000000e+00" cType="1" res="1.9788155332207680e-03" rms="4.4927006959915161e-01" purity="6.2227660417556763e-01" nType="-99"/>
          <Node pos="r" depth="2" NCoef="0" IVar="-1" Cut="0.0000000000000000e+00" cType="1" res="-3.9158252184279263e-04" rms="4.6219035983085632e-01" purity="6.0118633508682251e-01" nType="-99"/>
        </Node>
        <Node pos="r" depth="1" NCoef="0" IVar="5" Cut="1.0490955114364624e+00" cType="1" res="-7.8336978331208229e-03" rms="4.5118209719657898e-01" purity="4.5148271322250366e-01" nType="0">
          <Node pos="l" depth="2" NCoef="0" IVar="-1" Cut="0.0000000000000000e+00" cType="1" res="1.0387158254161477e-03" rms="4.5998454093933105e-01" purity="5.4501396417617798e-01" nType="-99"/>
          <Node pos="r" depth="2" NCoef="0" IVar="-1" Cut="0.0000000000000000e+00" cType="1" res="-8.7777210865169764e-04" rms="4.4846990704536438e-01" purity="4.2655637860298157e-01" nType="-99"/>
        </Node>
      </Node>
    </BinaryTree>
    <BinaryTree type="DecisionTree" boostWeight="1.0000000000000000e+00" itree="371">
      <Node pos="s" depth="0" NCoef="0" IVar="5" Cut="1.1443018913269043e+00" cType="1" res="4.5745009556412697e-03" rms="4.5205172896385193e-01" purity="5.0190395116806030e-01" nType="0">
        <Node pos="l" depth="1" NCoef="0" IVar="8" Cut="1.3041557312011719e+02" cType="1" res="2.5489265099167824e-02" rms="4.5591908693313599e-01" purity="5.7381147146224976e-01" nType="0">
          <Node pos="l" depth="2" NCoef="0" IVar="-1" Cut="0.0000000000000000e+00" cType="1" res="-4.3199452920816839e-04" rms="4.7213020920753479e-01" purity="5.1400989294052124e-01" nType="-99"/>
          <Node pos="r" depth="2" NCoef="0" IVar="-1" Cut="0.0000000000000000e+00" cType="1" res="1.4358831103891134e-03" rms="4.5237597823143005e-01" purity="5.8549392223358154e-01" nType="-99"/>
        </Node>
        <Node pos="r" depth="1" NCoef="0" IVar="2" Cut="1.1549501800537109e+02" cType="1" res="-7.0611895062029362e-03" rms="4.4946464896202087e-01" purity="4.6189898252487183e-01" nType="0">
          <Node pos="l" depth="2" NCoef="0" IVar="-1" Cut="0.0000000000000000e+00" cType="1" res="-1.0254996595904231e-03" rms="4.5235955715179443e-01" purity="4.5083990693092346e-01" nType="-99"/>
          <Node pos="r" depth="2" NCoef="0" IVar="-1" Cut="0.0000000000000000e+00" cType="1" res="1.1827024864032865e-03" rms="4.4108039140701294e-01" purity="4.8816239833831787e-01" nType="-99"/>
        </Node>
      </Node>
    </BinaryTree>
    <BinaryTree type="DecisionTree" boostWeight="1.0000000000000000e+00" itree="372">
      <Node pos="s" depth="0" NCoef="0" IVar="8" Cut="5.0816650390625000e+02" cType="1" res="2.1900513675063848e-03" rms="4.5199063420295715e-01" purity="4.9964517354965210e-01" nType="0">
        <Node pos="l" depth="1" NCoef="0" IVar="2" Cut="3.9017032623291016e+01" cType="1" res="6.0592540539801121e-03" rms="4.5346730947494507e-01" purity="5.1243096590042114e-01" nType="0">
          <Node pos="l" depth="2" NCoef="0" IVar="-1" Cut="0.0000000000000000e+00" cType="1" res="-3.0499431304633617e-03" rms="4.4310337305068970e-01" purity="3.4033504128456116e-01" nType="-99"/>
          <Node pos="r" depth="2" NCoef="0" IVar="-1" Cut="0.0000000000000000e+00" cType="1" res="5.9241842245683074e-04" rms="4.5419806241989136e-01" purity="5.3193694353103638e-01" nType="-99"/>
        </Node>
        <Node pos="r" depth="1" NCoef="0" IVar="-1" Cut="0.0000000000000000e+00" cType="1" res="-2.9639985878020525e-03" rms="4.3044441938400269e-01" purity="3.4150192141532898e-01" nType="-99"/>
      </Node>
    </BinaryTree>
    <BinaryTree type="DecisionTree" boostWeight="1.0000000000000000e+00" itree="373">
      <Node pos="s" depth="0" NCoef="0" IVar="6" Cut="3.2835253906250000e+02" cType="1" res="4.0981429629027843e-03" rms="4.5359179377555847e-01" purity="5.0097322463989258e-01" nType="0">
        <Node pos="l" depth="1" NCoef="0" IVar="6" Cut="2.8456881713867188e+02" cType="1" res="-2.8277408331632614e-02" rms="4.3423435091972351e-01" purity="3.1198254227638245e-01" nType="0">
          <Node pos="l" depth="2" NCoef="0" IVar="-1" Cut="0.0000000000000000e+00" cType="1" res="-5.4146181792020798e-03" rms="4.0261900424957275e-01" purity="2.3709017038345337e-01" nType="-99"/>
          <Node pos="r" depth="2" NCoef="0" IVar="-1" Cut="0.0000000000000000e+00" cType="1" res="-3.6730538704432547e-04" rms="4.5281958580017090e-01" purity="3.6218029260635376e-01" nType="-99"/>
        </Node>
        <Node pos="r" depth="1" NCoef="0" IVar="1" Cut="9.8560404777526855e-01" cType="1" res="9.3907639384269714e-03" rms="4.5645990967750549e-01" purity="5.3186863660812378e-01" nType="0">
          <Node pos="l" depth="2" NCoef="0" IVar="-1" Cut="0.0000000000000000e+00" cType="1" res="2.2752810036763549e-04" rms="4.6037164330482483e-01" purity="5.0599658489227295e-01" nType="-99"/>
          <Node pos="r" depth="2" NCoef="0" IVar="-1" Cut="0.0000000000000000e+00" cType="1" res="1.8303345423191786e-03" rms="4.2501035332679749e-01" purity="7.2214591503143311e-01" nType="-99"/>
        </Node>
      </Node>
    </BinaryTree>
    <BinaryTree type="DecisionTree" boostWeight="1.0000000000000000e+00" itree="374">
      <Node pos="s" depth="0" NCoef="0" IVar="0" Cut="1.1323347091674805e+00" cType="1" res="3.2184375450015068e-03" rms="4.5054760575294495e-01" purity="5.0113791227340698e-01" nType="0">
        <Node pos="l" depth="1" NCoef="0" IVar="2" Cut="3.6289222717285156e+01" cType="1" res="1.9487800076603889e-02" rms="4.4798481464385986e-01" purity="5.4919081926345825e-01" nType="0">
          <Node pos="l" depth="2" NCoef="0" IVar="-1" Cut="0.0000000000000000e+00" cType="1" res="-3.4324240405112505e-03" rms="4.4117432832717896e-01" purity="3.2893341779708862e-01" nType="-99"/>
          <Node pos="r" depth="2" NCoef="0" IVar="-1" Cut="0.0000000000000000e+00" cType="1" res="1.6804367769509554e-03" rms="4.4768381118774414e-01" purity="6.0487759113311768e-01" nType="-99"/>
        </Node>
        <Node pos="r" depth="1" NCoef="0" IVar="7" Cut="1.1422262191772461e+00" cType="1" res="-6.7606344819068909e-03" rms="4.5182254910469055e-01" purity="4.7166383266448975e-01" nType="0">
          <Node pos="l" depth="2" NCoef="0" IVar="-1" Cut="0.0000000000000000e+00" cType="1" res="-8.9499639580026269e-04" rms="4.5203211903572083e-01" purity="4.2984029650688171e-01" nType="-99"/>
          <Node pos="r" depth="2" NCoef="0" IVar="-1" Cut="0.0000000000000000e+00" cType="1" res="1.3157702051103115e-03" rms="4.4904610514640808e-01" purity="6.3575661182403564e-01" nType="-99"/>
        </Node>
      </Node>
    </BinaryTree>
    <BinaryTree type="DecisionTree" boostWeight="1.0000000000000000e+00" itree="375">
      <Node pos="s" depth="0" NCoef="0" IVar="3" Cut="1.3423814392089844e+02" cType="1" res="1.2405279092490673e-02" rms="4.4977343082427979e-01" purity="5.1328319311141968e-01" nType="0">
        <Node pos="l" depth="1" NCoef="0" IVar="5" Cut="1.7125588655471802e+00" cType="1" res="1.8429463729262352e-02" rms="4.5018997788429260e-01" purity="5.3459203243255615e-01" nType="0">
          <Node pos="l" depth="2" NCoef="0" IVar="-1" Cut="0.0000000000000000e+00" cType="1" res="1.1046889703720808e-03" rms="4.5078381896018982e-01" purity="5.5318200588226318e-01" nType="-99"/>
          <Node pos="r" depth="2" NCoef="0" IVar="-1" Cut="0.0000000000000000e+00" cType="1" res="-2.3904663976281881e-03" rms="4.4030308723449707e-01" purity="3.4743344783782959e-01" nType="-99"/>
        </Node>
        <Node pos="r" depth="1" NCoef="0" IVar="2" Cut="1.0389855957031250e+02" cType="1" res="-2.1853674203157425e-02" rms="4.4585216045379639e-01" purity="3.9210143685340881e-01" nType="0">
          <Node pos="l" depth="2" NCoef="0" IVar="-1" Cut="0.0000000000000000e+00" cType="1" res="-3.0155617278069258e-03" rms="4.5086327195167542e-01" purity="3.6597520112991333e-01" nType="-99"/>
          <Node pos="r" depth="2" NCoef="0" IVar="-1" Cut="0.0000000000000000e+00" cType="1" res="1.0642884299159050e-03" rms="4.3537977337837219e-01" purity="4.2966371774673462e-01" nType="-99"/>
        </Node>
      </Node>
    </BinaryTree>
    <BinaryTree type="DecisionTree" boostWeight="1.0000000000000000e+00" itree="376">
      <Node pos="s" depth="0" NCoef="0" IVar="0" Cut="1.5818867683410645e+00" cType="1" res="-6.1643472872674465e-03" rms="4.5002129673957825e-01" purity="4.9435916543006897e-01" nType="0">
        <Node pos="l" depth="1" NCoef="0" IVar="6" Cut="4.9394390869140625e+02" cType="1" res="4.7768312506377697e-03" rms="4.5312058925628662e-01" purity="5.4824239015579224e-01" nType="0">
          <Node pos="l" depth="2" NCoef="0" IVar="-1" Cut="0.0000000000000000e+00" cType="1" res="-7.9566304339095950e-04" rms="4.5703095197677612e-01" purity="4.6524491906166077e-01" nType="-99"/>
          <Node pos="r" depth="2" NCoef="0" IVar="-1" Cut="0.0000000000000000e+00" cType="1" res="1.0721422731876373e-03" rms="4.4806343317031860e-01" purity="6.3451081514358521e-01" nType="-99"/>
        </Node>
        <Node pos="r" depth="1" NCoef="0" IVar="1" Cut="9.6563690900802612e-01" cType="1" res="-2.6716815307736397e-02" rms="4.4341167807579041e-01" purity="3.9314213395118713e-01" nType="0">
          <Node pos="l" depth="2" NCoef="0" IVar="-1" Cut="0.0000000000000000e+00" cType="1" res="-2.8284874279052019e-03" rms="4.3468579649925232e-01" purity="3.1175112724304199e-01" nType="-99"/>
          <Node pos="r" depth="2" NCoef="0" IVar="-1" Cut="0.0000000000000000e+00" cType="1" res="6.1528888181783259e-05" rms="4.5877972245216370e-01" purity="5.5300813913345337e-01" nType="-99"/>
        </Node>
      </Node>
    </BinaryTree>
    <BinaryTree type="DecisionTree" boostWeight="1.0000000000000000e+00" itree="377">
      <Node pos="s" depth="0" NCoef="0" IVar="4" Cut="2.7758016586303711e+00" cType="1" res="3.0683258082717657e-03" rms="4.5271649956703186e-01" purity="4.9999573826789856e-01" nType="0">
        <Node pos="l" depth="1" NCoef="0" IVar="1" Cut="9.8565483093261719e-01" cType="1" res="6.9267293438315392e-03" rms="4.5818236470222473e-01" purity="5.2257806062698364e-01" nType="0">
          <Node pos="l" depth="2" NCoef="0" IVar="-1" Cut="0.0000000000000000e+00" cType="1" res="8.9786553871817887e-05" rms="4.6130055189132690e-01" purity="4.9664381146430969e-01" nType="-99"/>
          <Node pos="r" depth="2" NCoef="0" IVar="-1" Cut="0.0000000000000000e+00" cType="1" res="1.8587032100185752e-03" rms="4.3223813176155090e-01" purity="7.1663659811019897e-01" nType="-99"/>
        </Node>
        <Node pos="r" depth="1" NCoef="0" IVar="-1" Cut="0.0000000000000000e+00" cType="1" res="-6.2742838636040688e-03" rms="3.5844290256500244e-01" purity="1.6867618262767792e-01" nType="-99"/>
      </Node>
    </BinaryTree>
    <BinaryTree type="DecisionTree" boostWeight="1.0000000000000000e+00" itree="378">
      <Node pos="s" depth="0" NCoef="0" IVar="3" Cut="1.0502208709716797e+02" cType="1" res="9.8852021619677544e-04" rms="4.5130014419555664e-01" purity="5.0090676546096802e-01" nType="0">
        <Node pos="l" depth="1" NCoef="0" IVar="-1" Cut="0.0000000000000000e+00" cType="1" res="-2.8966343961656094e-03" rms="4.3306559324264526e-01" purity="3.6009383201599121e-01" nType="-99"/>
        <Node pos="r" depth="1" NCoef="0" IVar="3" Cut="1.2723184967041016e+02" cType="1" res="5.3675458766520023e-03" rms="4.5271101593971252e-01" purity="5.1401060819625854e-01" nType="0">
          <Node pos="l" depth="2" NCoef="0" IVar="-1" Cut="0.0000000000000000e+00" cType="1" res="7.1087636752054095e-04" rms="4.5376893877983093e-01" purity="5.4126799106597900e-01" nType="-99"/>
          <Node pos="r" depth="2" NCoef="0" IVar="-1" Cut="0.0000000000000000e+00" cType="1" res="-6.0030166059732437e-04" rms="4.5037817955017090e-01" purity="4.6698170900344849e-01" nType="-99"/>
        </Node>
      </Node>
    </BinaryTree>
    <BinaryTree type="DecisionTree" boostWeight="1.0000000000000000e+00" itree="379">
      <Node pos="s" depth="0" NCoef="0" IVar="8" Cut="2.8190701293945312e+02" cType="1" res="1.9025504589080811e-03" rms="4.5164808630943298e-01" purity="4.9972003698348999e-01" nType="0">
        <Node pos="l" depth="1" NCoef="0" IVar="6" Cut="5.8576055908203125e+02" cType="1" res="1.1606764979660511e-02" rms="4.5564556121826172e-01" purity="5.3365784883499146e-01" nType="0">
          <Node pos="l" depth="2" NCoef="0" IVar="-1" Cut="0.0000000000000000e+00" cType="1" res="1.9675116345752031e-04" rms="4.5931452512741089e-01" purity="4.9907326698303223e-01" nType="-99"/>
          <Node pos="r" depth="2" NCoef="0" IVar="-1" Cut="0.0000000000000000e+00" cType="1" res="1.6988373827189207e-03" rms="4.3961328268051147e-01" purity="6.6981536149978638e-01" nType="-99"/>
        </Node>
        <Node pos="r" depth="1" NCoef="0" IVar="2" Cut="1.1137469482421875e+02" cType="1" res="-2.0365104079246521e-02" rms="4.4153323769569397e-01" purity="4.2184510827064514e-01" nType="0">
          <Node pos="l" depth="2" NCoef="0" IVar="-1" Cut="0.0000000000000000e+00" cType="1" res="-2.4894112721085548e-03" rms="4.4303795695304871e-01" purity="4.0593072772026062e-01" nType="-99"/>
          <Node pos="r" depth="2" NCoef="0" IVar="-1" Cut="0.0000000000000000e+00" cType="1" res="1.5105368220247328e-04" rms="4.3882676959037781e-01" purity="4.3755298852920532e-01" nType="-99"/>
        </Node>
      </Node>
    </BinaryTree>
    <BinaryTree type="DecisionTree" boostWeight="1.0000000000000000e+00" itree="380">
      <Node pos="s" depth="0" NCoef="0" IVar="7" Cut="-9.9957990646362305e-01" cType="1" res="3.0386964790523052e-03" rms="4.5049235224723816e-01" purity="5.0132298469543457e-01" nType="0">
        <Node pos="l" depth="1" NCoef="0" IVar="1" Cut="9.6653276681900024e-01" cType="1" res="2.8742657974362373e-02" rms="4.5760563015937805e-01" purity="5.9877812862396240e-01" nType="0">
          <Node pos="l" depth="2" NCoef="0" IVar="-1" Cut="0.0000000000000000e+00" cType="1" res="5.0308305071666837e-04" rms="4.7625902295112610e-01" purity="5.1896321773529053e-01" nType="-99"/>
          <Node pos="r" depth="2" NCoef="0" IVar="-1" Cut="0.0000000000000000e+00" cType="1" res="2.4245115928351879e-03" rms="4.2201355099678040e-01" purity="7.3556524515151978e-01" nType="-99"/>
        </Node>
        <Node pos="r" depth="1" NCoef="0" IVar="2" Cut="1.5686344909667969e+02" cType="1" res="-7.1662352420389652e-03" rms="4.4722738862037659e-01" purity="4.6263152360916138e-01" nType="0">
          <Node pos="l" depth="2" NCoef="0" IVar="-1" Cut="0.0000000000000000e+00" cType="1" res="-3.7854733818676323e-05" rms="4.4992518424987793e-01" purity="4.8274871706962585e-01" nType="-99"/>
          <Node pos="r" depth="2" NCoef="0" IVar="-1" Cut="0.0000000000000000e+00" cType="1" res="-2.9644039459526539e-03" rms="4.2913678288459778e-01" purity="3.4468472003936768e-01" nType="-99"/>
        </Node>
      </Node>
    </BinaryTree>
    <BinaryTree type="DecisionTree" boostWeight="1.0000000000000000e+00" itree="381">
      <Node pos="s" depth="0" NCoef="0" IVar="3" Cut="1.0990583038330078e+02" cType="1" res="7.4186502024531364e-03" rms="4.5467782020568848e-01" purity="5.0312227010726929e-01" nType="0">
        <Node pos="l" depth="1" NCoef="0" IVar="3" Cut="9.9469001770019531e+01" cType="1" res="-2.1586118265986443e-02" rms="4.4579008221626282e-01" purity="4.0780693292617798e-01" nType="0">
          <Node pos="l" depth="2" NCoef="0" IVar="-1" Cut="0.0000000000000000e+00" cType="1" res="-3.7598959170281887e-03" rms="4.3301561474800110e-01" purity="3.2214671373367310e-01" nType="-99"/>
          <Node pos="r" depth="2" NCoef="0" IVar="-1" Cut="0.0000000000000000e+00" cType="1" res="-3.2347430533263832e-05" rms="4.5244514942169189e-01" purity="4.6206909418106079e-01" nType="-99"/>
        </Node>
        <Node pos="r" depth="1" NCoef="0" IVar="3" Cut="1.3355497741699219e+02" cType="1" res="1.2012055143713951e-02" rms="4.5590025186538696e-01" purity="5.1821714639663696e-01" nType="0">
          <Node pos="l" depth="2" NCoef="0" IVar="-1" Cut="0.0000000000000000e+00" cType="1" res="8.9156639296561480e-04" rms="4.5674094557762146e-01" purity="5.4670143127441406e-01" nType="-99"/>
          <Node pos="r" depth="2" NCoef="0" IVar="-1" Cut="0.0000000000000000e+00" cType="1" res="-1.1488939635455608e-03" rms="4.5086044073104858e-01" purity="3.9369136095046997e-01" nType="-99"/>
        </Node>
      </Node>
    </BinaryTree>
    <BinaryTree type="DecisionTree" boostWeight="1.0000000000000000e+00" itree="382">
      <Node pos="s" depth="0" NCoef="0" IVar="6" Cut="2.9280282592773438e+02" cType="1" res="7.1089137345552444e-03" rms="4.5088511705398560e-01" purity="5.0411176681518555e-01" nType="0">
        <Node pos="l" depth="1" NCoef="0" IVar="-1" Cut="0.0000000000000000e+00" cType="1" res="-4.0813586674630642e-03" rms="4.0376895666122437e-01" purity="2.5005295872688293e-01" nType="-99"/>
        <Node pos="r" depth="1" NCoef="0" IVar="7" Cut="-1.4279192686080933e+00" cType="1" res="1.1256194673478603e-02" rms="4.5393279194831848e-01" purity="5.2307260036468506e-01" nType="0">
          <Node pos="l" depth="2" NCoef="0" IVar="-1" Cut="0.0000000000000000e+00" cType="1" res="2.4290741421282291e-03" rms="4.4893664121627808e-01" purity="6.7313957214355469e-01" nType="-99"/>
          <Node pos="r" depth="2" NCoef="0" IVar="-1" Cut="0.0000000000000000e+00" cType="1" res="3.5184127045795321e-04" rms="4.5411482453346252e-01" purity="5.1064211130142212e-01" nType="-99"/>
        </Node>
      </Node>
    </BinaryTree>
    <BinaryTree type="DecisionTree" boostWeight="1.0000000000000000e+00" itree="383">
      <Node pos="s" depth="0" NCoef="0" IVar="7" Cut="-1.4279258251190186e+00" cType="1" res="5.7291449047625065e-03" rms="4.5342043042182922e-01" purity="5.0387364625930786e-01" nType="0">
        <Node pos="l" depth="1" NCoef="0" IVar="-1" Cut="0.0000000000000000e+00" cType="1" res="1.9288191106170416e-03" rms="4.4462394714355469e-01" purity="6.5192651748657227e-01" nType="-99"/>
        <Node pos="r" depth="1" NCoef="0" IVar="8" Cut="2.5829278564453125e+02" cType="1" res="2.4571453686803579e-03" rms="4.5398420095443726e-01" purity="4.9165433645248413e-01" nType="0">
          <Node pos="l" depth="2" NCoef="0" IVar="-1" Cut="0.0000000000000000e+00" cType="1" res="5.8179604820907116e-04" rms="4.5899921655654907e-01" purity="5.2734082937240601e-01" nType="-99"/>
          <Node pos="r" depth="2" NCoef="0" IVar="-1" Cut="0.0000000000000000e+00" cType="1" res="-8.0060126492753625e-04" rms="4.4480618834495544e-01" purity="4.3081152439117432e-01" nType="-99"/>
        </Node>
      </Node>
    </BinaryTree>
    <BinaryTree type="DecisionTree" boostWeight="1.0000000000000000e+00" itree="384">
      <Node pos="s" depth="0" NCoef="0" IVar="2" Cut="9.2148284912109375e+01" cType="1" res="8.1059951335191727e-03" rms="4.5254215598106384e-01" purity="5.0498217344284058e-01" nType="0">
        <Node pos="l" depth="1" NCoef="0" IVar="7" Cut="1.2850692272186279e+00" cType="1" res="-9.8556084558367729e-03" rms="4.5820960402488708e-01" purity="4.7019940614700317e-01" nType="0">
          <Node pos="l" depth="2" NCoef="0" IVar="-1" Cut="0.0000000000000000e+00" cType="1" res="-9.7501324489712715e-04" rms="4.5854893326759338e-01" purity="4.4499325752258301e-01" nType="-99"/>
          <Node pos="r" depth="2" NCoef="0" IVar="-1" Cut="0.0000000000000000e+00" cType="1" res="1.5252898447215557e-03" rms="4.5381689071655273e-01" purity="5.9907346963882446e-01" nType="-99"/>
        </Node>
        <Node pos="r" depth="1" NCoef="0" IVar="0" Cut="1.4083338975906372e+00" cType="1" res="2.8247606009244919e-02" rms="4.4524016976356506e-01" purity="5.4398655891418457e-01" nType="0">
          <Node pos="l" depth="2" NCoef="0" IVar="-1" Cut="0.0000000000000000e+00" cType="1" res="2.5647673755884171e-03" rms="4.2900237441062927e-01" purity="7.2571319341659546e-01" nType="-99"/>
          <Node pos="r" depth="2" NCoef="0" IVar="-1" Cut="0.0000000000000000e+00" cType="1" res="7.1463064523413777e-04" rms="4.5102992653846741e-01" purity="4.6812292933464050e-01" nType="-99"/>
        </Node>
      </Node>
    </BinaryTree>
    <BinaryTree type="DecisionTree" boostWeight="1.0000000000000000e+00" itree="385">
      <Node pos="s" depth="0" NCoef="0" IVar="1" Cut="9.8578786849975586e-01" cType="1" res="3.2594401855021715e-03" rms="4.5146995782852173e-01" purity="5.0010526180267334e-01" nType="0">
        <Node pos="l" depth="1" NCoef="0" IVar="8" Cut="2.8212649536132812e+02" cType="1" res="-3.5267949569970369e-03" rms="4.5394039154052734e-01" purity="4.7164767980575562e-01" nType="0">
          <Node pos="l" depth="2" NCoef="0" IVar="-1" Cut="0.0000000000000000e+00" cType="1" res="2.7177034644410014e-04" rms="4.5961803197860718e-01" purity="5.0577974319458008e-01" nType="-99"/>
          <Node pos="r" depth="2" NCoef="0" IVar="-1" Cut="0.0000000000000000e+00" cType="1" res="-1.4370344579219818e-03" rms="4.4023817777633667e-01" purity="3.9502987265586853e-01" nType="-99"/>
        </Node>
        <Node pos="r" depth="1" NCoef="0" IVar="-1" Cut="0.0000000000000000e+00" cType="1" res="2.2940740454941988e-03" rms="4.2867597937583923e-01" purity="7.1688443422317505e-01" nType="-99"/>
      </Node>
    </BinaryTree>
    <BinaryTree type="DecisionTree" boostWeight="1.0000000000000000e+00" itree="386">
      <Node pos="s" depth="0" NCoef="0" IVar="6" Cut="2.8238894653320312e+02" cType="1" res="-6.4375583315268159e-04" rms="4.5348376035690308e-01" purity="4.9441596865653992e-01" nType="0">
        <Node pos="l" depth="1" NCoef="0" IVar="-1" Cut="0.0000000000000000e+00" cType="1" res="-5.1660486496984959e-03" rms="4.0240144729614258e-01" purity="2.3926270008087158e-01" nType="-99"/>
        <Node pos="r" depth="1" NCoef="0" IVar="0" Cut="1.1058375835418701e+00" cType="1" res="2.7130201924592257e-03" rms="4.5604777336120605e-01" purity="5.0922459363937378e-01" nType="0">
          <Node pos="l" depth="2" NCoef="0" IVar="-1" Cut="0.0000000000000000e+00" cType="1" res="9.6900592325255275e-04" rms="4.5450538396835327e-01" purity="5.6038355827331543e-01" nType="-99"/>
          <Node pos="r" depth="2" NCoef="0" IVar="-1" Cut="0.0000000000000000e+00" cType="1" res="-4.0810692007653415e-04" rms="4.5658719539642334e-01" purity="4.7997441887855530e-01" nType="-99"/>
        </Node>
      </Node>
    </BinaryTree>
    <BinaryTree type="DecisionTree" boostWeight="1.0000000000000000e+00" itree="387">
      <Node pos="s" depth="0" NCoef="0" IVar="7" Cut="1.1422353982925415e+00" cType="1" res="4.3499269522726536e-03" rms="4.5199707150459290e-01" purity="5.0243097543716431e-01" nType="0">
        <Node pos="l" depth="1" NCoef="0" IVar="2" Cut="1.1549501800537109e+02" cType="1" res="-3.5852701403200626e-03" rms="4.5327809453010559e-01" purity="4.6482917666435242e-01" nType="0">
          <Node pos="l" depth="2" NCoef="0" IVar="-1" Cut="0.0000000000000000e+00" cType="1" res="-6.9270172389224172e-04" rms="4.5723873376846313e-01" purity="4.5818483829498291e-01" nType="-99"/>
          <Node pos="r" depth="2" NCoef="0" IVar="-1" Cut="0.0000000000000000e+00" cType="1" res="8.5837737424299121e-04" rms="4.4448411464691162e-01" purity="4.7831168770790100e-01" nType="-99"/>
        </Node>
        <Node pos="r" depth="1" NCoef="0" IVar="0" Cut="1.5596750974655151e+00" cType="1" res="3.1560871750116348e-02" rms="4.4650673866271973e-01" purity="6.3137334585189819e-01" nType="0">
          <Node pos="l" depth="2" NCoef="0" IVar="-1" Cut="0.0000000000000000e+00" cType="1" res="1.7886805580928922e-03" rms="4.4070819020271301e-01" purity="6.5389579534530640e-01" nType="-99"/>
          <Node pos="r" depth="2" NCoef="0" IVar="-1" Cut="0.0000000000000000e+00" cType="1" res="-4.6828567974444013e-06" rms="4.6177852153778076e-01" purity="5.6477308273315430e-01" nType="-99"/>
        </Node>
      </Node>
    </BinaryTree>
    <BinaryTree type="DecisionTree" boostWeight="1.0000000000000000e+00" itree="388">
      <Node pos="s" depth="0" NCoef="0" IVar="5" Cut="1.8013542890548706e+00" cType="1" res="-1.6101547516882420e-03" rms="4.5107388496398926e-01" purity="4.9652388691902161e-01" nType="0">
        <Node pos="l" depth="1" NCoef="0" IVar="6" Cut="5.1205493164062500e+02" cType="1" res="1.5867563197389245e-03" rms="4.5204022526741028e-01" purity="5.0971388816833496e-01" nType="0">
          <Node pos="l" depth="2" NCoef="0" IVar="-1" Cut="0.0000000000000000e+00" cType="1" res="-5.0829147221520543e-04" rms="4.5246118307113647e-01" purity="4.4962280988693237e-01" nType="-99"/>
          <Node pos="r" depth="2" NCoef="0" IVar="-1" Cut="0.0000000000000000e+00" cType="1" res="7.4371002847328782e-04" rms="4.5103120803833008e-01" purity="5.9163165092468262e-01" nType="-99"/>
        </Node>
        <Node pos="r" depth="1" NCoef="0" IVar="-1" Cut="0.0000000000000000e+00" cType="1" res="-3.3355588093400002e-03" rms="4.3427339196205139e-01" purity="3.0613470077514648e-01" nType="-99"/>
      </Node>
    </BinaryTree>
    <BinaryTree type="DecisionTree" boostWeight="1.0000000000000000e+00" itree="389">
      <Node pos="s" depth="0" NCoef="0" IVar="3" Cut="1.0279872894287109e+02" cType="1" res="1.7205559415742755e-03" rms="4.5247727632522583e-01" purity="5.0021404027938843e-01" nType="0">
        <Node pos="l" depth="1" NCoef="0" IVar="-1" Cut="0.0000000000000000e+00" cType="1" res="-2.7163131162524223e-03" rms="4.4746649265289307e-01" purity="3.4248143434524536e-01" nType="-99"/>
        <Node pos="r" depth="1" NCoef="0" IVar="3" Cut="1.3924189758300781e+02" cType="1" res="4.9582165665924549e-03" rms="4.5268890261650085e-01" purity="5.1213330030441284e-01" nType="0">
          <Node pos="l" depth="2" NCoef="0" IVar="-1" Cut="0.0000000000000000e+00" cType="1" res="4.2513228254392743e-04" rms="4.5403292775154114e-01" purity="5.3028148412704468e-01" nType="-99"/>
          <Node pos="r" depth="2" NCoef="0" IVar="-1" Cut="0.0000000000000000e+00" cType="1" res="-2.2475831210613251e-03" rms="4.3762671947479248e-01" purity="3.3616757392883301e-01" nType="-99"/>
        </Node>
      </Node>
    </BinaryTree>
    <BinaryTree type="DecisionTree" boostWeight="1.0000000000000000e+00" itree="390">
      <Node pos="s" depth="0" NCoef="0" IVar="2" Cut="1.0389855957031250e+02" cType="1" res="-1.4356957763084210e-05" rms="4.5273953676223755e-01" purity="4.9666678905487061e-01" nType="0">
        <Node pos="l" depth="1" NCoef="0" IVar="8" Cut="2.4608732604980469e+02" cType="1" res="-8.5252467542886734e-03" rms="4.6022513508796692e-01" purity="4.7967165708541870e-01" nType="0">
          <Node pos="l" depth="2" NCoef="0" IVar="-1" Cut="0.0000000000000000e+00" cType="1" res="1.4638870197813958e-04" rms="4.6485140919685364e-01" purity="5.0799757242202759e-01" nType="-99"/>
          <Node pos="r" depth="2" NCoef="0" IVar="-1" Cut="0.0000000000000000e+00" cType="1" res="-2.0250664092600346e-03" rms="4.4789722561836243e-01" purity="4.1265588998794556e-01" nType="-99"/>
        </Node>
        <Node pos="r" depth="1" NCoef="0" IVar="0" Cut="1.3006426095962524e+00" cType="1" res="1.3505051843822002e-02" rms="4.4024926424026489e-01" purity="5.2366334199905396e-01" nType="0">
          <Node pos="l" depth="2" NCoef="0" IVar="-1" Cut="0.0000000000000000e+00" cType="1" res="3.2213251106441021e-03" rms="4.0620765089988708e-01" purity="7.6578426361083984e-01" nType="-99"/>
          <Node pos="r" depth="2" NCoef="0" IVar="-1" Cut="0.0000000000000000e+00" cType="1" res="-2.8129169368185103e-04" rms="4.4745525717735291e-01" purity="4.5638325810432434e-01" nType="-99"/>
        </Node>
      </Node>
    </BinaryTree>
    <BinaryTree type="DecisionTree" boostWeight="1.0000000000000000e+00" itree="391">
      <Node pos="s" depth="0" NCoef="0" IVar="7" Cut="9.9958300590515137e-01" cType="1" res="7.6966816559433937e-03" rms="4.5082503557205200e-01" purity="5.0529175996780396e-01" nType="0">
        <Node pos="l" depth="1" NCoef="0" IVar="7" Cut="-1.2202901840209961e+00" cType="1" res="-1.0196611983701587e-03" rms="4.5050898194313049e-01" purity="4.6281549334526062e-01" nType="0">
          <Node pos="l" depth="2" NCoef="0" IVar="-1" Cut="0.0000000000000000e+00" cType="1" res="9.8407419864088297e-04" rms="4.6094298362731934e-01" purity="6.1381196975708008e-01" nType="-99"/>
          <Node pos="r" depth="2" NCoef="0" IVar="-1" Cut="0.0000000000000000e+00" cType="1" res="-5.0295231631025672e-04" rms="4.4669061899185181e-01" purity="4.1233190894126892e-01" nType="-99"/>
        </Node>
        <Node pos="r" depth="1" NCoef="0" IVar="8" Cut="1.3407710266113281e+02" cType="1" res="2.9412595555186272e-02" rms="4.5087921619415283e-01" purity="6.1111712455749512e-01" nType="0">
          <Node pos="l" depth="2" NCoef="0" IVar="-1" Cut="0.0000000000000000e+00" cType="1" res="-2.8026002109982073e-04" rms="4.7335511445999146e-01" purity="5.2052110433578491e-01" nType="-99"/>
          <Node pos="r" depth="2" NCoef="0" IVar="-1" Cut="0.0000000000000000e+00" cType="1" res="1.6393591649830341e-03" rms="4.4490742683410645e-01" purity="6.3282918930053711e-01" nType="-99"/>
        </Node>
      </Node>
    </BinaryTree>
    <BinaryTree type="DecisionTree" boostWeight="1.0000000000000000e+00" itree="392">
      <Node pos="s" depth="0" NCoef="0" IVar="5" Cut="9.5657259225845337e-01" cType="1" res="5.9405360370874405e-03" rms="4.5439466834068298e-01" purity="5.0222551822662354e-01" nType="0">
        <Node pos="l" depth="1" NCoef="0" IVar="-1" Cut="0.0000000000000000e+00" cType="1" res="2.0877376664429903e-03" rms="4.4045203924179077e-01" purity="6.2658554315567017e-01" nType="-99"/>
        <Node pos="r" depth="1" NCoef="0" IVar="5" Cut="1.8482906818389893e+00" cType="1" res="1.1219742009416223e-03" rms="4.5568060874938965e-01" purity="4.8826721310615540e-01" nType="0">
          <Node pos="l" depth="2" NCoef="0" IVar="-1" Cut="0.0000000000000000e+00" cType="1" res="2.3943217820487916e-04" rms="4.5698481798171997e-01" purity="5.0035697221755981e-01" nType="-99"/>
          <Node pos="r" depth="2" NCoef="0" IVar="-1" Cut="0.0000000000000000e+00" cType="1" res="-4.4294218532741070e-03" rms="4.2859110236167908e-01" purity="2.8624129295349121e-01" nType="-99"/>
        </Node>
      </Node>
    </BinaryTree>
    <BinaryTree type="DecisionTree" boostWeight="1.0000000000000000e+00" itree="393">
      <Node pos="s" depth="0" NCoef="0" IVar="6" Cut="5.0734594726562500e+02" cType="1" res="-6.5888743847608566e-04" rms="4.5133930444717407e-01" purity="4.9785745143890381e-01" nType="0">
        <Node pos="l" depth="1" NCoef="0" IVar="5" Cut="1.0177350044250488e+00" cType="1" res="-1.6127290204167366e-02" rms="4.5040941238403320e-01" purity="4.3217065930366516e-01" nType="0">
          <Node pos="l" depth="2" NCoef="0" IVar="-1" Cut="0.0000000000000000e+00" cType="1" res="5.7602301239967346e-04" rms="4.6572551131248474e-01" purity="5.3342723846435547e-01" nType="-99"/>
          <Node pos="r" depth="2" NCoef="0" IVar="-1" Cut="0.0000000000000000e+00" cType="1" res="-1.3311038492247462e-03" rms="4.4626426696777344e-01" purity="4.0710291266441345e-01" nType="-99"/>
        </Node>
        <Node pos="r" depth="1" NCoef="0" IVar="2" Cut="1.5778102111816406e+02" cType="1" res="1.8454877659678459e-02" rms="4.5175471901893616e-01" purity="5.7902431488037109e-01" nType="0">
          <Node pos="l" depth="2" NCoef="0" IVar="-1" Cut="0.0000000000000000e+00" cType="1" res="1.3236280065029860e-03" rms="4.5013898611068726e-01" purity="6.2039721012115479e-01" nType="-99"/>
          <Node pos="r" depth="2" NCoef="0" IVar="-1" Cut="0.0000000000000000e+00" cType="1" res="-1.5161572955548763e-03" rms="4.5478558540344238e-01" purity="4.2683407664299011e-01" nType="-99"/>
        </Node>
      </Node>
    </BinaryTree>
    <BinaryTree type="DecisionTree" boostWeight="1.0000000000000000e+00" itree="394">
      <Node pos="s" depth="0" NCoef="0" IVar="0" Cut="1.2821853160858154e+00" cType="1" res="-1.1626092018559575e-03" rms="4.5089900493621826e-01" purity="4.9724894762039185e-01" nType="0">
        <Node pos="l" depth="1" NCoef="0" IVar="2" Cut="3.8367172241210938e+01" cType="1" res="1.5741063281893730e-02" rms="4.5161524415016174e-01" purity="5.5420726537704468e-01" nType="0">
          <Node pos="l" depth="2" NCoef="0" IVar="-1" Cut="0.0000000000000000e+00" cType="1" res="-3.1359617132693529e-03" rms="4.4556164741516113e-01" purity="3.3797350525856018e-01" nType="-99"/>
          <Node pos="r" depth="2" NCoef="0" IVar="-1" Cut="0.0000000000000000e+00" cType="1" res="1.3534731697291136e-03" rms="4.5163306593894958e-01" purity="6.0479378700256348e-01" nType="-99"/>
        </Node>
        <Node pos="r" depth="1" NCoef="0" IVar="1" Cut="9.7245740890502930e-01" cType="1" res="-1.6790648922324181e-02" rms="4.4967085123062134e-01" purity="4.4458904862403870e-01" nType="0">
          <Node pos="l" depth="2" NCoef="0" IVar="-1" Cut="0.0000000000000000e+00" cType="1" res="-1.6775396652519703e-03" rms="4.4941431283950806e-01" purity="3.8183057308197021e-01" nType="-99"/>
          <Node pos="r" depth="2" NCoef="0" IVar="-1" Cut="0.0000000000000000e+00" cType="1" res="7.7720562694594264e-04" rms="4.4869977235794067e-01" purity="6.3169699907302856e-01" nType="-99"/>
        </Node>
      </Node>
    </BinaryTree>
    <BinaryTree type="DecisionTree" boostWeight="1.0000000000000000e+00" itree="395">
      <Node pos="s" depth="0" NCoef="0" IVar="1" Cut="9.7272878885269165e-01" cType="1" res="3.0923944432288408e-03" rms="4.5161572098731995e-01" purity="5.0015759468078613e-01" nType="0">
        <Node pos="l" depth="1" NCoef="0" IVar="3" Cut="1.0279872894287109e+02" cType="1" res="-4.3581635691225529e-03" rms="4.5525741577148438e-01" purity="4.4196560978889465e-01" nType="0">
          <Node pos="l" depth="2" NCoef="0" IVar="-1" Cut="0.0000000000000000e+00" cType="1" res="-4.0208562277257442e-03" rms="4.2673137784004211e-01" purity="2.9249149560928345e-01" nType="-99"/>
          <Node pos="r" depth="2" NCoef="0" IVar="-1" Cut="0.0000000000000000e+00" cType="1" res="-1.7486489014117979e-05" rms="4.5722332596778870e-01" purity="4.5391947031021118e-01" nType="-99"/>
        </Node>
        <Node pos="r" depth="1" NCoef="0" IVar="8" Cut="2.8838146972656250e+02" cType="1" res="2.4531574919819832e-02" rms="4.4026607275009155e-01" purity="6.6760653257369995e-01" nType="0">
          <Node pos="l" depth="2" NCoef="0" IVar="-1" Cut="0.0000000000000000e+00" cType="1" res="1.5193250728771091e-03" rms="4.3427819013595581e-01" purity="6.9993561506271362e-01" nType="-99"/>
          <Node pos="r" depth="2" NCoef="0" IVar="-1" Cut="0.0000000000000000e+00" cType="1" res="-4.1776811121962965e-04" rms="4.5568567514419556e-01" purity="5.7301342487335205e-01" nType="-99"/>
        </Node>
      </Node>
    </BinaryTree>
    <BinaryTree type="DecisionTree" boostWeight="1.0000000000000000e+00" itree="396">
      <Node pos="s" depth="0" NCoef="0" IVar="0" Cut="1.1381822824478149e+00" cType="1" res="4.5487252064049244e-03" rms="4.5262712240219116e-01" purity="5.0186252593994141e-01" nType="0">
        <Node pos="l" depth="1" NCoef="0" IVar="2" Cut="3.9588359832763672e+01" cType="1" res="2.2757263854146004e-02" rms="4.5471513271331787e-01" purity="5.5031907558441162e-01" nType="0">
          <Node pos="l" depth="2" NCoef="0" IVar="-1" Cut="0.0000000000000000e+00" cType="1" res="-2.3381325881928205e-03" rms="4.5274791121482849e-01" purity="3.4749615192413330e-01" nType="-99"/>
          <Node pos="r" depth="2" NCoef="0" IVar="-1" Cut="0.0000000000000000e+00" cType="1" res="1.8074614927172661e-03" rms="4.5361077785491943e-01" purity="6.1531275510787964e-01" nType="-99"/>
        </Node>
        <Node pos="r" depth="1" NCoef="0" IVar="5" Cut="1.0537481307983398e+00" cType="1" res="-6.8744639866054058e-03" rms="4.5093709230422974e-01" purity="4.7146323323249817e-01" nType="0">
          <Node pos="l" depth="2" NCoef="0" IVar="-1" Cut="0.0000000000000000e+00" cType="1" res="7.2741223266348243e-04" rms="4.5873987674713135e-01" purity="5.6355208158493042e-01" nType="-99"/>
          <Node pos="r" depth="2" NCoef="0" IVar="-1" Cut="0.0000000000000000e+00" cType="1" res="-8.6255790665745735e-04" rms="4.4758042693138123e-01" purity="4.3591409921646118e-01" nType="-99"/>
        </Node>
      </Node>
    </BinaryTree>
    <BinaryTree type="DecisionTree" boostWeight="1.0000000000000000e+00" itree="397">
      <Node pos="s" depth="0" NCoef="0" IVar="4" Cut="2.0033998489379883e+00" cType="1" res="6.1310138553380966e-03" rms="4.5291650295257568e-01" purity="5.0281029939651489e-01" nType="0">
        <Node pos="l" depth="1" NCoef="0" IVar="6" Cut="5.1205493164062500e+02" cType="1" res="3.3075153827667236e-02" rms="4.5020088553428650e-01" purity="6.1993438005447388e-01" nType="0">
          <Node pos="l" depth="2" NCoef="0" IVar="-1" Cut="0.0000000000000000e+00" cType="1" res="7.5559120159596205e-04" rms="4.6681314706802368e-01" purity="5.4807400703430176e-01" nType="-99"/>
          <Node pos="r" depth="2" NCoef="0" IVar="-1" Cut="0.0000000000000000e+00" cType="1" res="2.2627515718340874e-03" rms="4.2395758628845215e-01" purity="7.2360223531723022e-01" nType="-99"/>
        </Node>
        <Node pos="r" depth="1" NCoef="0" IVar="3" Cut="1.1153086090087891e+02" cType="1" res="-2.1228536497801542e-03" rms="4.5342487096786499e-01" purity="4.6693143248558044e-01" nType="0">
          <Node pos="l" depth="2" NCoef="0" IVar="-1" Cut="0.0000000000000000e+00" cType="1" res="-2.5081585627049208e-03" rms="4.4480064511299133e-01" purity="3.6284816265106201e-01" nType="-99"/>
          <Node pos="r" depth="2" NCoef="0" IVar="-1" Cut="0.0000000000000000e+00" cType="1" res="1.9891929696314037e-04" rms="4.5451432466506958e-01" purity="4.8372185230255127e-01" nType="-99"/>
        </Node>
      </Node>
    </BinaryTree>
    <BinaryTree type="DecisionTree" boostWeight="1.0000000000000000e+00" itree="398">
      <Node pos="s" depth="0" NCoef="0" IVar="1" Cut="9.1942656040191650e-01" cType="1" res="4.8953867517411709e-03" rms="4.5172858238220215e-01" purity="5.0337153673171997e-01" nType="0">
        <Node pos="l" depth="1" NCoef="0" IVar="7" Cut="4.2815524339675903e-01" cType="1" res="-3.3985551446676254e-02" rms="4.2475333809852600e-01" purity="2.9355409741401672e-01" nType="0">
          <Node pos="l" depth="2" NCoef="0" IVar="-1" Cut="0.0000000000000000e+00" cType="1" res="-4.5568463392555714e-03" rms="4.0648090839385986e-01" purity="2.5799444317817688e-01" nType="-99"/>
          <Node pos="r" depth="2" NCoef="0" IVar="-1" Cut="0.0000000000000000e+00" cType="1" res="-1.2384362344164401e-04" rms="4.4259274005889893e-01" purity="3.3427640795707703e-01" nType="-99"/>
        </Node>
        <Node pos="r" depth="1" NCoef="0" IVar="2" Cut="1.6877384948730469e+02" cType="1" res="9.6862614154815674e-03" rms="4.5471179485321045e-01" purity="5.2922505140304565e-01" nType="0">
          <Node pos="l" depth="2" NCoef="0" IVar="-1" Cut="0.0000000000000000e+00" cType="1" res="6.7349837627261877e-04" rms="4.5467355847358704e-01" purity="5.4573786258697510e-01" nType="-99"/>
          <Node pos="r" depth="2" NCoef="0" IVar="-1" Cut="0.0000000000000000e+00" cType="1" res="-1.7297645099461079e-03" rms="4.5326924324035645e-01" purity="3.9390727877616882e-01" nType="-99"/>
        </Node>
      </Node>
    </BinaryTree>
    <BinaryTree type="DecisionTree" boostWeight="1.0000000000000000e+00" itree="399">
      <Node pos="s" depth="0" NCoef="0" IVar="3" Cut="1.4241741943359375e+02" cType="1" res="-2.3130603949539363e-04" rms="4.5013725757598877e-01" purity="4.9934351444244385e-01" nType="0">
        <Node pos="l" depth="1" NCoef="0" IVar="3" Cut="1.2092120361328125e+02" cType="1" res="3.9018094539642334e-03" rms="4.5209476351737976e-01" purity="5.1401501893997192e-01" nType="0">
          <Node pos="l" depth="2" NCoef="0" IVar="-1" Cut="0.0000000000000000e+00" cType="1" res="-6.6468544537201524e-04" rms="4.5252066850662231e-01" purity="4.7175770998001099e-01" nType="-99"/>
          <Node pos="r" depth="2" NCoef="0" IVar="-1" Cut="0.0000000000000000e+00" cType="1" res="7.0120615419000387e-04" rms="4.5148262381553650e-01" purity="5.4156839847564697e-01" nType="-99"/>
        </Node>
        <Node pos="r" depth="1" NCoef="0" IVar="-1" Cut="0.0000000000000000e+00" cType="1" res="-4.7733117826282978e-03" rms="4.1445040702819824e-01" purity="2.7759543061256409e-01" nType="-99"/>
      </Node>
    </BinaryTree>
    <BinaryTree type="DecisionTree" boostWeight="1.0000000000000000e+00" itree="400">
      <Node pos="s" depth="0" NCoef="0" IVar="8" Cut="5.3026812744140625e+02" cType="1" res="3.4849345684051514e-03" rms="4.5301842689514160e-01" purity="4.9935322999954224e-01" nType="0">
        <Node pos="l" depth="1" NCoef="0" IVar="8" Cut="1.0165734100341797e+02" cType="1" res="7.0339720696210861e-03" rms="4.5471164584159851e-01" purity="5.1099574565887451e-01" nType="0">
          <Node pos="l" depth="2" NCoef="0" IVar="-1" Cut="0.0000000000000000e+00" cType="1" res="-2.0222021266818047e-03" rms="4.6095871925354004e-01" purity="4.0869206190109253e-01" nType="-99"/>
          <Node pos="r" depth="2" NCoef="0" IVar="-1" Cut="0.0000000000000000e+00" cType="1" res="5.2760570542886853e-04" rms="4.5397424697875977e-01" purity="5.1980596780776978e-01" nType="-99"/>
        </Node>
        <Node pos="r" depth="1" NCoef="0" IVar="-1" Cut="0.0000000000000000e+00" cType="1" res="-3.0652543064206839e-03" rms="4.2526817321777344e-01" purity="3.3507469296455383e-01" nType="-99"/>
      </Node>
    </BinaryTree>
    <BinaryTree type="DecisionTree" boostWeight="1.0000000000000000e+00" itree="401">
      <Node pos="s" depth="0" NCoef="0" IVar="8" Cut="2.8375268554687500e+02" cType="1" res="2.3683221079409122e-03" rms="4.5193329453468323e-01" purity="5.0019389390945435e-01" nType="0">
        <Node pos="l" depth="1" NCoef="0" IVar="0" Cut="1.1058375835418701e+00" cType="1" res="1.2335275299847126e-02" rms="4.5674881339073181e-01" purity="5.3422999382019043e-01" nType="0">
          <Node pos="l" depth="2" NCoef="0" IVar="-1" Cut="0.0000000000000000e+00" cType="1" res="1.5192030696198344e-03" rms="4.5153036713600159e-01" purity="5.6700307130813599e-01" nType="-99"/>
          <Node pos="r" depth="2" NCoef="0" IVar="-1" Cut="0.0000000000000000e+00" cType="1" res="-9.1527312179096043e-05" rms="4.5969063043594360e-01" purity="5.1213932037353516e-01" nType="-99"/>
        </Node>
        <Node pos="r" depth="1" NCoef="0" IVar="2" Cut="9.5356513977050781e+01" cType="1" res="-2.0517680794000626e-02" rms="4.3982294201850891e-01" purity="4.2204076051712036e-01" nType="0">
          <Node pos="l" depth="2" NCoef="0" IVar="-1" Cut="0.0000000000000000e+00" cType="1" res="-3.1689950264990330e-03" rms="4.4145676493644714e-01" purity="3.8526058197021484e-01" nType="-99"/>
          <Node pos="r" depth="2" NCoef="0" IVar="-1" Cut="0.0000000000000000e+00" cType="1" res="1.2688190508924890e-05" rms="4.3751800060272217e-01" purity="4.4537240266799927e-01" nType="-99"/>
        </Node>
      </Node>
    </BinaryTree>
    <BinaryTree type="DecisionTree" boostWeight="1.0000000000000000e+00" itree="402">
      <Node pos="s" depth="0" NCoef="0" IVar="3" Cut="1.3738551330566406e+02" cType="1" res="3.3027348108589649e-03" rms="4.5046281814575195e-01" purity="5.0237852334976196e-01" nType="0">
        <Node pos="l" depth="1" NCoef="0" IVar="2" Cut="1.3375375366210938e+02" cType="1" res="7.3824189603328705e-03" rms="4.5221170783042908e-01" purity="5.1983106136322021e-01" nType="0">
          <Node pos="l" depth="2" NCoef="0" IVar="-1" Cut="0.0000000000000000e+00" cType="1" res="6.5573066240176558e-04" rms="4.5209327340126038e-01" purity="5.3475952148437500e-01" nType="-99"/>
          <Node pos="r" depth="2" NCoef="0" IVar="-1" Cut="0.0000000000000000e+00" cType="1" res="-1.1821552179753780e-03" rms="4.5162847638130188e-01" purity="4.5247110724449158e-01" nType="-99"/>
        </Node>
        <Node pos="r" depth="1" NCoef="0" IVar="7" Cut="4.2784467339515686e-01" cType="1" res="-3.1867273151874542e-02" rms="4.3350529670715332e-01" purity="3.5192427039146423e-01" nType="0">
          <Node pos="l" depth="2" NCoef="0" IVar="-1" Cut="0.0000000000000000e+00" cType="1" res="-3.0228614341467619e-03" rms="4.2584037780761719e-01" purity="3.1421652436256409e-01" nType="-99"/>
          <Node pos="r" depth="2" NCoef="0" IVar="-1" Cut="0.0000000000000000e+00" cType="1" res="-1.2153490679338574e-03" rms="4.4112542271614075e-01" purity="3.9152014255523682e-01" nType="-99"/>
        </Node>
      </Node>
    </BinaryTree>
    <BinaryTree type="DecisionTree" boostWeight="1.0000000000000000e+00" itree="403">
      <Node pos="s" depth="0" NCoef="0" IVar="0" Cut="1.1010837554931641e+00" cType="1" res="2.5298171676695347e-03" rms="4.5312345027923584e-01" purity="4.9890846014022827e-01" nType="0">
        <Node pos="l" depth="1" NCoef="0" IVar="2" Cut="6.8696372985839844e+01" cType="1" res="1.9830349832773209e-02" rms="4.4941598176956177e-01" purity="5.4641962051391602e-01" nType="0">
          <Node pos="l" depth="2" NCoef="0" IVar="-1" Cut="0.0000000000000000e+00" cType="1" res="-2.2734439698979259e-04" rms="4.6081757545471191e-01" purity="4.5837429165840149e-01" nType="-99"/>
          <Node pos="r" depth="2" NCoef="0" IVar="-1" Cut="0.0000000000000000e+00" cType="1" res="2.7426343876868486e-03" rms="4.2146763205528259e-01" purity="7.2266620397567749e-01" nType="-99"/>
        </Node>
        <Node pos="r" depth="1" NCoef="0" IVar="3" Cut="1.2628349304199219e+02" cType="1" res="-7.3623033240437508e-03" rms="4.5493420958518982e-01" purity="4.7174245119094849e-01" nType="0">
          <Node pos="l" depth="2" NCoef="0" IVar="-1" Cut="0.0000000000000000e+00" cType="1" res="7.5520889367908239e-05" rms="4.5922389626502991e-01" purity="4.9178016185760498e-01" nType="-99"/>
          <Node pos="r" depth="2" NCoef="0" IVar="-1" Cut="0.0000000000000000e+00" cType="1" res="-1.2186460662633181e-03" rms="4.4733649492263794e-01" purity="4.3847766518592834e-01" nType="-99"/>
        </Node>
      </Node>
    </BinaryTree>
    <BinaryTree type="DecisionTree" boostWeight="1.0000000000000000e+00" itree="404">
      <Node pos="s" depth="0" NCoef="0" IVar="0" Cut="1.1418095827102661e+00" cType="1" res="-1.6606187273282558e-04" rms="4.5223569869995117e-01" purity="4.9601668119430542e-01" nType="0">
        <Node pos="l" depth="1" NCoef="0" IVar="2" Cut="6.7371185302734375e+01" cType="1" res="1.5749234706163406e-02" rms="4.4964021444320679e-01" purity="5.4828298091888428e-01" nType="0">
          <Node pos="l" depth="2" NCoef="0" IVar="-1" Cut="0.0000000000000000e+00" cType="1" res="-3.5553306224755943e-04" rms="4.6033173799514771e-01" purity="4.5653751492500305e-01" nType="-99"/>
          <Node pos="r" depth="2" NCoef="0" IVar="-1" Cut="0.0000000000000000e+00" cType="1" res="2.2887752857059240e-03" rms="4.2660152912139893e-01" purity="7.1391803026199341e-01" nType="-99"/>
        </Node>
        <Node pos="r" depth="1" NCoef="0" IVar="3" Cut="1.3124467468261719e+02" cType="1" res="-1.0659174062311649e-02" rms="4.5363345742225647e-01" purity="4.6155691146850586e-01" nType="0">
          <Node pos="l" depth="2" NCoef="0" IVar="-1" Cut="0.0000000000000000e+00" cType="1" res="-1.2535485439002514e-04" rms="4.5609381794929504e-01" purity="4.8626574873924255e-01" nType="-99"/>
          <Node pos="r" depth="2" NCoef="0" IVar="-1" Cut="0.0000000000000000e+00" cType="1" res="-2.5595040060579777e-03" rms="4.4304692745208740e-01" purity="3.6979529261589050e-01" nType="-99"/>
        </Node>
      </Node>
    </BinaryTree>
    <BinaryTree type="DecisionTree" boostWeight="1.0000000000000000e+00" itree="405">
      <Node pos="s" depth="0" NCoef="0" IVar="2" Cut="1.0816646575927734e+02" cType="1" res="3.9133001118898392e-03" rms="4.5368012785911560e-01" purity="5.0027668476104736e-01" nType="0">
        <Node pos="l" depth="1" NCoef="0" IVar="2" Cut="3.2907394409179688e+01" cType="1" res="-9.5066064968705177e-03" rms="4.5728230476379395e-01" purity="4.8262345790863037e-01" nType="0">
          <Node pos="l" depth="2" NCoef="0" IVar="-1" Cut="0.0000000000000000e+00" cType="1" res="-4.1337311267852783e-03" rms="4.3343934416770935e-01" purity="3.0007359385490417e-01" nType="-99"/>
          <Node pos="r" depth="2" NCoef="0" IVar="-1" Cut="0.0000000000000000e+00" cType="1" res="-2.2795420954935253e-04" rms="4.5909997820854187e-01" purity="4.9937358498573303e-01" nType="-99"/>
        </Node>
        <Node pos="r" depth="1" NCoef="0" IVar="0" Cut="1.5970253944396973e+00" cType="1" res="2.7675852179527283e-02" rms="4.4624173641204834e-01" purity="5.3153520822525024e-01" nType="0">
          <Node pos="l" depth="2" NCoef="0" IVar="-1" Cut="0.0000000000000000e+00" cType="1" res="2.6669737417250872e-03" rms="4.2900151014328003e-01" purity="7.1495831012725830e-01" nType="-99"/>
          <Node pos="r" depth="2" NCoef="0" IVar="-1" Cut="0.0000000000000000e+00" cType="1" res="2.5452233967371285e-04" rms="4.5522218942642212e-01" purity="4.1607159376144409e-01" nType="-99"/>
        </Node>
      </Node>
    </BinaryTree>
    <BinaryTree type="DecisionTree" boostWeight="1.0000000000000000e+00" itree="406">
      <Node pos="s" depth="0" NCoef="0" IVar="5" Cut="1.8043346405029297e+00" cType="1" res="3.7334389053285122e-03" rms="4.5048183202743530e-01" purity="5.0291359424591064e-01" nType="0">
        <Node pos="l" depth="1" NCoef="0" IVar="1" Cut="9.1400462388992310e-01" cType="1" res="7.9714972525835037e-03" rms="4.5225521922111511e-01" purity="5.1696181297302246e-01" nType="0">
          <Node pos="l" depth="2" NCoef="0" IVar="-1" Cut="0.0000000000000000e+00" cType="1" res="-3.1692236661911011e-03" rms="4.1550689935684204e-01" purity="2.8628012537956238e-01" nType="-99"/>
          <Node pos="r" depth="2" NCoef="0" IVar="-1" Cut="0.0000000000000000e+00" cType="1" res="5.9795059496536851e-04" rms="4.5484706759452820e-01" purity="5.3589296340942383e-01" nType="-99"/>
        </Node>
        <Node pos="r" depth="1" NCoef="0" IVar="-1" Cut="0.0000000000000000e+00" cType="1" res="-3.9001016411930323e-03" rms="4.1991624236106873e-01" purity="3.0346384644508362e-01" nType="-99"/>
      </Node>
    </BinaryTree>
    <BinaryTree type="DecisionTree" boostWeight="1.0000000000000000e+00" itree="407">
      <Node pos="s" depth="0" NCoef="0" IVar="8" Cut="2.8496603393554688e+02" cType="1" res="1.6879974864423275e-03" rms="4.5291522145271301e-01" purity="5.0130528211593628e-01" nType="0">
        <Node pos="l" depth="1" NCoef="0" IVar="0" Cut="1.0762248039245605e+00" cType="1" res="1.0262429714202881e-02" rms="4.5797720551490784e-01" purity="5.3427302837371826e-01" nType="0">
          <Node pos="l" depth="2" NCoef="0" IVar="-1" Cut="0.0000000000000000e+00" cType="1" res="1.2279954971745610e-03" rms="4.5411059260368347e-01" purity="5.5845814943313599e-01" nType="-99"/>
          <Node pos="r" depth="2" NCoef="0" IVar="-1" Cut="0.0000000000000000e+00" cType="1" res="2.4187465896829963e-05" rms="4.5996350049972534e-01" purity="5.2000373601913452e-01" nType="-99"/>
        </Node>
        <Node pos="r" depth="1" NCoef="0" IVar="7" Cut="7.1403920650482178e-01" cType="1" res="-1.8285121768712997e-02" rms="4.4025149941444397e-01" purity="4.2451080679893494e-01" nType="0">
          <Node pos="l" depth="2" NCoef="0" IVar="-1" Cut="0.0000000000000000e+00" cType="1" res="-2.1542035974562168e-03" rms="4.2776858806610107e-01" purity="3.7228968739509583e-01" nType="-99"/>
          <Node pos="r" depth="2" NCoef="0" IVar="-1" Cut="0.0000000000000000e+00" cType="1" res="5.2815518574789166e-04" rms="4.5999455451965332e-01" purity="5.1652222871780396e-01" nType="-99"/>
        </Node>
      </Node>
    </BinaryTree>
    <BinaryTree type="DecisionTree" boostWeight="1.0000000000000000e+00" itree="408">
      <Node pos="s" depth="0" NCoef="0" IVar="5" Cut="1.0483833551406860e+00" cType="1" res="6.9301517214626074e-04" rms="4.5061457157135010e-01" purity="5.0006192922592163e-01" nType="0">
        <Node pos="l" depth="1" NCoef="0" IVar="2" Cut="1.3221734619140625e+02" cType="1" res="2.6522845029830933e-02" rms="4.5340642333030701e-01" purity="5.8955609798431396e-01" nType="0">
          <Node pos="l" depth="2" NCoef="0" IVar="-1" Cut="0.0000000000000000e+00" cType="1" res="1.6374011756852269e-03" rms="4.5189222693443298e-01" purity="6.1339336633682251e-01" nType="-99"/>
          <Node pos="r" depth="2" NCoef="0" IVar="-1" Cut="0.0000000000000000e+00" cType="1" res="-4.1208206675946712e-04" rms="4.5655965805053711e-01" purity="5.1200443506240845e-01" nType="-99"/>
        </Node>
        <Node pos="r" depth="1" NCoef="0" IVar="2" Cut="1.0913232421875000e+02" cType="1" res="-6.8141072988510132e-03" rms="4.4952160120010376e-01" purity="4.7405156493186951e-01" nType="0">
          <Node pos="l" depth="2" NCoef="0" IVar="-1" Cut="0.0000000000000000e+00" cType="1" res="-9.2671817401424050e-04" rms="4.5314857363700867e-01" purity="4.6094641089439392e-01" nType="-99"/>
          <Node pos="r" depth="2" NCoef="0" IVar="-1" Cut="0.0000000000000000e+00" cType="1" res="7.5976364314556122e-04" rms="4.4164344668388367e-01" purity="4.9940225481987000e-01" nType="-99"/>
        </Node>
      </Node>
    </BinaryTree>
    <BinaryTree type="DecisionTree" boostWeight="1.0000000000000000e+00" itree="409">
      <Node pos="s" depth="0" NCoef="0" IVar="3" Cut="1.0796383666992188e+02" cType="1" res="3.4220570232719183e-03" rms="4.5138001441955566e-01" purity="5.0153440237045288e-01" nType="0">
        <Node pos="l" depth="1" NCoef="0" IVar="3" Cut="1.0034526824951172e+02" cType="1" res="-4.3110217899084091e-02" rms="4.4378721714019775e-01" purity="3.7173363566398621e-01" nType="0">
          <Node pos="l" depth="2" NCoef="0" IVar="-1" Cut="0.0000000000000000e+00" cType="1" res="-4.3430137448012829e-03" rms="4.3209099769592285e-01" purity="3.0928638577461243e-01" nType="-99"/>
          <Node pos="r" depth="2" NCoef="0" IVar="-1" Cut="0.0000000000000000e+00" cType="1" res="-1.3861244078725576e-03" rms="4.5472043752670288e-01" purity="4.3574875593185425e-01" nType="-99"/>
        </Node>
        <Node pos="r" depth="1" NCoef="0" IVar="0" Cut="9.8248398303985596e-01" cType="1" res="9.3057602643966675e-03" rms="4.5198994874954224e-01" purity="5.1794689893722534e-01" nType="0">
          <Node pos="l" depth="2" NCoef="0" IVar="-1" Cut="0.0000000000000000e+00" cType="1" res="1.6949910204857588e-03" rms="4.5187255740165710e-01" purity="5.7014286518096924e-01" nType="-99"/>
          <Node pos="r" depth="2" NCoef="0" IVar="-1" Cut="0.0000000000000000e+00" cType="1" res="-1.2199540651636198e-04" rms="4.5151761174201965e-01" purity="4.9641984701156616e-01" nType="-99"/>
        </Node>
      </Node>
    </BinaryTree>
    <BinaryTree type="DecisionTree" boostWeight="1.0000000000000000e+00" itree="410">
      <Node pos="s" depth="0" NCoef="0" IVar="1" Cut="9.8568528890609741e-01" cType="1" res="7.3492350056767464e-03" rms="4.5526611804962158e-01" purity="5.0250482559204102e-01" nType="0">
        <Node pos="l" depth="1" NCoef="0" IVar="7" Cut="1.4279750585556030e+00" cType="1" res="3.6754938773810863e-03" rms="4.5817345380783081e-01" purity="4.7710043191909790e-01" nType="0">
          <Node pos="l" depth="2" NCoef="0" IVar="-1" Cut="0.0000000000000000e+00" cType="1" res="5.6672888604225591e-05" rms="4.5906805992126465e-01" purity="4.6484261751174927e-01" nType="-99"/>
          <Node pos="r" depth="2" NCoef="0" IVar="-1" Cut="0.0000000000000000e+00" cType="1" res="1.5163948992267251e-03" rms="4.4588294625282288e-01" purity="6.2693130970001221e-01" nType="-99"/>
        </Node>
        <Node pos="r" depth="1" NCoef="0" IVar="-1" Cut="0.0000000000000000e+00" cType="1" res="1.5618753386661410e-03" rms="4.3068763613700867e-01" purity="7.0184761285781860e-01" nType="-99"/>
      </Node>
    </BinaryTree>
    <BinaryTree type="DecisionTree" boostWeight="1.0000000000000000e+00" itree="411">
      <Node pos="s" depth="0" NCoef="0" IVar="4" Cut="2.1637346744537354e+00" cType="1" res="-2.3258039436768740e-04" rms="4.5089176297187805e-01" purity="4.9898329377174377e-01" nType="0">
        <Node pos="l" depth="1" NCoef="0" IVar="8" Cut="2.8259475708007812e+02" cType="1" res="1.4891697093844414e-02" rms="4.5634984970092773e-01" purity="6.0971897840499878e-01" nType="0">
          <Node pos="l" depth="2" NCoef="0" IVar="-1" Cut="0.0000000000000000e+00" cType="1" res="9.4241200713440776e-04" rms="4.5559632778167725e-01" purity="6.1244302988052368e-01" nType="-99"/>
          <Node pos="r" depth="2" NCoef="0" IVar="-1" Cut="0.0000000000000000e+00" cType="1" res="-1.0780094889923930e-03" rms="4.5871007442474365e-01" purity="5.9410607814788818e-01" nType="-99"/>
        </Node>
        <Node pos="r" depth="1" NCoef="0" IVar="7" Cut="1.2850301265716553e+00" cType="1" res="-1.1515016667544842e-02" rms="4.4644314050674438e-01" purity="4.1637650132179260e-01" nType="0">
          <Node pos="l" depth="2" NCoef="0" IVar="-1" Cut="0.0000000000000000e+00" cType="1" res="-9.5526449149474502e-04" rms="4.4563263654708862e-01" purity="3.9594194293022156e-01" nType="-99"/>
          <Node pos="r" depth="2" NCoef="0" IVar="-1" Cut="0.0000000000000000e+00" cType="1" res="1.2121214531362057e-03" rms="4.5115694403648376e-01" purity="5.8403885364532471e-01" nType="-99"/>
        </Node>
      </Node>
    </BinaryTree>
    <BinaryTree type="DecisionTree" boostWeight="1.0000000000000000e+00" itree="412">
      <Node pos="s" depth="0" NCoef="0" IVar="5" Cut="1.5968585014343262e+00" cType="1" res="-4.5114574022591114e-03" rms="4.4887477159500122e-01" purity="4.9262636899948120e-01" nType="0">
        <Node pos="l" depth="1" NCoef="0" IVar="2" Cut="1.6949714660644531e+02" cType="1" res="2.0742511842399836e-03" rms="4.5270729064941406e-01" purity="5.2014678716659546e-01" nType="0">
          <Node pos="l" depth="2" NCoef="0" IVar="-1" Cut="0.0000000000000000e+00" cType="1" res="3.1588537967763841e-04" rms="4.5456889271736145e-01" purity="5.3599530458450317e-01" nType="-99"/>
          <Node pos="r" depth="2" NCoef="0" IVar="-1" Cut="0.0000000000000000e+00" cType="1" res="-2.0467359572649002e-03" rms="4.3547162413597107e-01" purity="3.9076945185661316e-01" nType="-99"/>
        </Node>
        <Node pos="r" depth="1" NCoef="0" IVar="1" Cut="9.5996552705764771e-01" cType="1" res="-3.7808515131473541e-02" rms="4.2742311954498291e-01" purity="3.5348421335220337e-01" nType="0">
          <Node pos="l" depth="2" NCoef="0" IVar="-1" Cut="0.0000000000000000e+00" cType="1" res="-4.1327234357595444e-03" rms="4.1094747185707092e-01" purity="2.7405172586441040e-01" nType="-99"/>
          <Node pos="r" depth="2" NCoef="0" IVar="-1" Cut="0.0000000000000000e+00" cType="1" res="-2.5324505986645818e-04" rms="4.5288100838661194e-01" purity="4.9199989438056946e-01" nType="-99"/>
        </Node>
      </Node>
    </BinaryTree>
    <BinaryTree type="DecisionTree" boostWeight="1.0000000000000000e+00" itree="413">
      <Node pos="s" depth="0" NCoef="0" IVar="4" Cut="2.6296036243438721e+00" cType="1" res="1.0264354757964611e-02" rms="4.5260134339332581e-01" purity="5.0790345668792725e-01" nType="0">
        <Node pos="l" depth="1" NCoef="0" IVar="8" Cut="2.8144006347656250e+02" cType="1" res="1.5603042207658291e-02" rms="4.6025839447975159e-01" purity="5.4763686656951904e-01" nType="0">
          <Node pos="l" depth="2" NCoef="0" IVar="-1" Cut="0.0000000000000000e+00" cType="1" res="1.0676726233214140e-03" rms="4.6254289150238037e-01" purity="5.6379121541976929e-01" nType="-99"/>
          <Node pos="r" depth="2" NCoef="0" IVar="-1" Cut="0.0000000000000000e+00" cType="1" res="-3.4998651244677603e-04" rms="4.5281335711479187e-01" purity="5.0087261199951172e-01" nType="-99"/>
        </Node>
        <Node pos="r" depth="1" NCoef="0" IVar="2" Cut="9.2072036743164062e+01" cType="1" res="-2.6974935084581375e-02" rms="3.9307254552841187e-01" purity="2.3074863851070404e-01" nType="0">
          <Node pos="l" depth="2" NCoef="0" IVar="-1" Cut="0.0000000000000000e+00" cType="1" res="-7.3368335142731667e-03" rms="3.6230272054672241e-01" purity="1.7762708663940430e-01" nType="-99"/>
          <Node pos="r" depth="2" NCoef="0" IVar="-1" Cut="0.0000000000000000e+00" cType="1" res="5.1028539019171149e-05" rms="4.0965938568115234e-01" purity="2.6556724309921265e-01" nType="-99"/>
        </Node>
      </Node>
    </BinaryTree>
    <BinaryTree type="DecisionTree" boostWeight="1.0000000000000000e+00" itree="414">
      <Node pos="s" depth="0" NCoef="0" IVar="5" Cut="1.7018414735794067e+00" cType="1" res="-4.2537199333310127e-03" rms="4.4980037212371826e-01" purity="4.9128496646881104e-01" nType="0">
        <Node pos="l" depth="1" NCoef="0" IVar="6" Cut="5.9511499023437500e+02" cType="1" res="-4.1339552262797952e-04" rms="4.5234307646751404e-01" purity="5.0975853204727173e-01" nType="0">
          <Node pos="l" depth="2" NCoef="0" IVar="-1" Cut="0.0000000000000000e+00" cType="1" res="-5.3725723410025239e-04" rms="4.5371270179748535e-01" purity="4.7014641761779785e-01" nType="-99"/>
          <Node pos="r" depth="2" NCoef="0" IVar="-1" Cut="0.0000000000000000e+00" cType="1" res="1.0630493052303791e-03" rms="4.4800168275833130e-01" purity="6.0762286186218262e-01" nType="-99"/>
        </Node>
        <Node pos="r" depth="1" NCoef="0" IVar="8" Cut="2.6050781250000000e+02" cType="1" res="-3.7155225872993469e-02" rms="4.2598006129264832e-01" purity="3.3301490545272827e-01" nType="0">
          <Node pos="l" depth="2" NCoef="0" IVar="-1" Cut="0.0000000000000000e+00" cType="1" res="-8.4200751734897494e-04" rms="4.4577634334564209e-01" purity="3.9586180448532104e-01" nType="-99"/>
          <Node pos="r" depth="2" NCoef="0" IVar="-1" Cut="0.0000000000000000e+00" cType="1" res="-4.5160232111811638e-03" rms="4.0535429120063782e-01" purity="2.7396827936172485e-01" nType="-99"/>
        </Node>
      </Node>
    </BinaryTree>
    <BinaryTree type="DecisionTree" boostWeight="1.0000000000000000e+00" itree="415">
      <Node pos="s" depth="0" NCoef="0" IVar="1" Cut="9.5257085561752319e-01" cType="1" res="7.1462342748418450e-04" rms="4.5135951042175293e-01" purity="4.9955365061759949e-01" nType="0">
        <Node pos="l" depth="1" NCoef="0" IVar="7" Cut="-4.2839306592941284e-01" cType="1" res="-1.0423351079225540e-02" rms="4.4916129112243652e-01" purity="3.8574704527854919e-01" nType="0">
          <Node pos="l" depth="2" NCoef="0" IVar="-1" Cut="0.0000000000000000e+00" cType="1" res="5.0539249787107110e-04" rms="4.6022957563400269e-01" purity="4.1898232698440552e-01" nType="-99"/>
          <Node pos="r" depth="2" NCoef="0" IVar="-1" Cut="0.0000000000000000e+00" cType="1" res="-1.6375484410673380e-03" rms="4.3894118070602417e-01" purity="3.5777798295021057e-01" nType="-99"/>
        </Node>
        <Node pos="r" depth="1" NCoef="0" IVar="0" Cut="1.5761476755142212e+00" cType="1" res="1.0452686809003353e-02" rms="4.5304840803146362e-01" purity="5.9905618429183960e-01" nType="0">
          <Node pos="l" depth="2" NCoef="0" IVar="-1" Cut="0.0000000000000000e+00" cType="1" res="8.3462899783626199e-04" rms="4.4765666127204895e-01" purity="6.4557081460952759e-01" nType="-99"/>
          <Node pos="r" depth="2" NCoef="0" IVar="-1" Cut="0.0000000000000000e+00" cType="1" res="-3.4921828773804009e-04" rms="4.6308711171150208e-01" purity="5.0652533769607544e-01" nType="-99"/>
        </Node>
      </Node>
    </BinaryTree>
    <BinaryTree type="DecisionTree" boostWeight="1.0000000000000000e+00" itree="416">
      <Node pos="s" depth="0" NCoef="0" IVar="1" Cut="9.7949129343032837e-01" cType="1" res="4.1246488690376282e-03" rms="4.5319935679435730e-01" purity="5.0136154890060425e-01" nType="0">
        <Node pos="l" depth="1" NCoef="0" IVar="0" Cut="1.1383348703384399e+00" cType="1" res="-1.6851816326379776e-03" rms="4.5679128170013428e-01" purity="4.5997694134712219e-01" nType="0">
          <Node pos="l" depth="2" NCoef="0" IVar="-1" Cut="0.0000000000000000e+00" cType="1" res="7.1536417817696929e-04" rms="4.5937770605087280e-01" purity="5.0757122039794922e-01" nType="-99"/>
          <Node pos="r" depth="2" NCoef="0" IVar="-1" Cut="0.0000000000000000e+00" cType="1" res="-6.6897348733618855e-04" rms="4.5485588908195496e-01" purity="4.3022784590721130e-01" nType="-99"/>
        </Node>
        <Node pos="r" depth="1" NCoef="0" IVar="2" Cut="9.1113822937011719e+01" cType="1" res="3.0052997171878815e-02" rms="4.3586617708206177e-01" purity="6.8605452775955200e-01" nType="0">
          <Node pos="l" depth="2" NCoef="0" IVar="-1" Cut="0.0000000000000000e+00" cType="1" res="7.0017197867855430e-04" rms="4.5261687040328979e-01" purity="6.5633320808410645e-01" nType="-99"/>
          <Node pos="r" depth="2" NCoef="0" IVar="-1" Cut="0.0000000000000000e+00" cType="1" res="1.9494427833706141e-03" rms="4.1683396697044373e-01" purity="7.1760189533233643e-01" nType="-99"/>
        </Node>
      </Node>
    </BinaryTree>
    <BinaryTree type="DecisionTree" boostWeight="1.0000000000000000e+00" itree="417">
      <Node pos="s" depth="0" NCoef="0" IVar="7" Cut="-1.4279060363769531e+00" cType="1" res="3.4009478986263275e-03" rms="4.5250737667083740e-01" purity="5.0147557258605957e-01" nType="0">
        <Node pos="l" depth="1" NCoef="0" IVar="-1" Cut="0.0000000000000000e+00" cType="1" res="1.7933171475306153e-03" rms="4.4027444720268250e-01" purity="6.6268491744995117e-01" nType="-99"/>
        <Node pos="r" depth="1" NCoef="0" IVar="8" Cut="2.5829278564453125e+02" cType="1" res="1.4504113096336368e-05" rms="4.5339509844779968e-01" purity="4.8748511075973511e-01" nType="0">
          <Node pos="l" depth="2" NCoef="0" IVar="-1" Cut="0.0000000000000000e+00" cType="1" res="4.2654748540371656e-04" rms="4.5893201231956482e-01" purity="5.2575325965881348e-01" nType="-99"/>
          <Node pos="r" depth="2" NCoef="0" IVar="-1" Cut="0.0000000000000000e+00" cType="1" res="-8.5998204303905368e-04" rms="4.4345313310623169e-01" purity="4.2266520857810974e-01" nType="-99"/>
        </Node>
      </Node>
    </BinaryTree>
    <BinaryTree type="DecisionTree" boostWeight="1.0000000000000000e+00" itree="418">
      <Node pos="s" depth="0" NCoef="0" IVar="6" Cut="3.0015643310546875e+02" cType="1" res="1.2966283829882741e-03" rms="4.5162472128868103e-01" purity="4.9624055624008179e-01" nType="0">
        <Node pos="l" depth="1" NCoef="0" IVar="-1" Cut="0.0000000000000000e+00" cType="1" res="-3.8145747967064381e-03" rms="4.1413620114326477e-01" purity="2.5222837924957275e-01" nType="-99"/>
        <Node pos="r" depth="1" NCoef="0" IVar="5" Cut="1.5312118530273438e+00" cType="1" res="5.4590692743659019e-03" rms="4.5463392138481140e-01" purity="5.1831376552581787e-01" nType="0">
          <Node pos="l" depth="2" NCoef="0" IVar="-1" Cut="0.0000000000000000e+00" cType="1" res="6.2462524510920048e-04" rms="4.5709681510925293e-01" purity="5.5545717477798462e-01" nType="-99"/>
          <Node pos="r" depth="2" NCoef="0" IVar="-1" Cut="0.0000000000000000e+00" cType="1" res="-1.3714808737859130e-03" rms="4.4447878003120422e-01" purity="3.8484698534011841e-01" nType="-99"/>
        </Node>
      </Node>
    </BinaryTree>
    <BinaryTree type="DecisionTree" boostWeight="1.0000000000000000e+00" itree="419">
      <Node pos="s" depth="0" NCoef="0" IVar="5" Cut="1.8050101995468140e+00" cType="1" res="2.6939099188894033e-03" rms="4.5145136117935181e-01" purity="4.9940806627273560e-01" nType="0">
        <Node pos="l" depth="1" NCoef="0" IVar="3" Cut="1.3423814392089844e+02" cType="1" res="5.6750872172415257e-03" rms="4.5250403881072998e-01" purity="5.1234871149063110e-01" nType="0">
          <Node pos="l" depth="2" NCoef="0" IVar="-1" Cut="0.0000000000000000e+00" cType="1" res="5.5514782434329391e-04" rms="4.5370852947235107e-01" purity="5.3339827060699463e-01" nType="-99"/>
          <Node pos="r" depth="2" NCoef="0" IVar="-1" Cut="0.0000000000000000e+00" cType="1" res="-1.7265096539631486e-03" rms="4.4379192590713501e-01" purity="3.8869231939315796e-01" nType="-99"/>
        </Node>
        <Node pos="r" depth="1" NCoef="0" IVar="-1" Cut="0.0000000000000000e+00" cType="1" res="-2.9122384730726480e-03" rms="4.3327930569648743e-01" purity="3.0877879261970520e-01" nType="-99"/>
      </Node>
    </BinaryTree>
    <BinaryTree type="DecisionTree" boostWeight="1.0000000000000000e+00" itree="420">
      <Node pos="s" depth="0" NCoef="0" IVar="7" Cut="-1.4279719591140747e+00" cType="1" res="4.8966314643621445e-03" rms="4.5379668474197388e-01" purity="5.0337392091751099e-01" nType="0">
        <Node pos="l" depth="1" NCoef="0" IVar="-1" Cut="0.0000000000000000e+00" cType="1" res="1.7582525033503771e-03" rms="4.5073220133781433e-01" purity="6.5020316839218140e-01" nType="-99"/>
        <Node pos="r" depth="1" NCoef="0" IVar="1" Cut="9.8590081930160522e-01" cType="1" res="2.0295835565775633e-03" rms="4.5390868186950684e-01" purity="4.9195432662963867e-01" nType="0">
          <Node pos="l" depth="2" NCoef="0" IVar="-1" Cut="0.0000000000000000e+00" cType="1" res="-9.2264075647108257e-05" rms="4.5634236931800842e-01" purity="4.6655118465423584e-01" nType="-99"/>
          <Node pos="r" depth="2" NCoef="0" IVar="-1" Cut="0.0000000000000000e+00" cType="1" res="1.3890855479985476e-03" rms="4.3309104442596436e-01" purity="6.9209575653076172e-01" nType="-99"/>
        </Node>
      </Node>
    </BinaryTree>
    <BinaryTree type="DecisionTree" boostWeight="1.0000000000000000e+00" itree="421">
      <Node pos="s" depth="0" NCoef="0" IVar="3" Cut="1.1174939727783203e+02" cType="1" res="7.2135380469262600e-03" rms="4.5238283276557922e-01" purity="5.0327771902084351e-01" nType="0">
        <Node pos="l" depth="1" NCoef="0" IVar="8" Cut="1.8616728210449219e+02" cType="1" res="-1.7919685691595078e-02" rms="4.4578376412391663e-01" purity="4.1947576403617859e-01" nType="0">
          <Node pos="l" depth="2" NCoef="0" IVar="-1" Cut="0.0000000000000000e+00" cType="1" res="7.0857501123100519e-04" rms="4.5198401808738708e-01" purity="4.6766296029090881e-01" nType="-99"/>
          <Node pos="r" depth="2" NCoef="0" IVar="-1" Cut="0.0000000000000000e+00" cType="1" res="-3.0006850138306618e-03" rms="4.3779256939888000e-01" purity="3.7405633926391602e-01" nType="-99"/>
        </Node>
        <Node pos="r" depth="1" NCoef="0" IVar="2" Cut="1.0491979980468750e+02" cType="1" res="1.2036476284265518e-02" rms="4.5347890257835388e-01" purity="5.1935887336730957e-01" nType="0">
          <Node pos="l" depth="2" NCoef="0" IVar="-1" Cut="0.0000000000000000e+00" cType="1" res="1.5287088172044605e-04" rms="4.5951002836227417e-01" purity="5.0630688667297363e-01" nType="-99"/>
          <Node pos="r" depth="2" NCoef="0" IVar="-1" Cut="0.0000000000000000e+00" cType="1" res="1.2322099646553397e-03" rms="4.4419178366661072e-01" purity="5.3844809532165527e-01" nType="-99"/>
        </Node>
      </Node>
    </BinaryTree>
    <BinaryTree type="DecisionTree" boostWeight="1.0000000000000000e+00" itree="422">
      <Node pos="s" depth="0" NCoef="0" IVar="3" Cut="1.4146928405761719e+02" cType="1" res="-2.8411173261702061e-03" rms="4.5052498579025269e-01" purity="4.9645623564720154e-01" nType="0">
        <Node pos="l" depth="1" NCoef="0" IVar="5" Cut="1.7018414735794067e+00" cType="1" res="5.4432055912911892e-04" rms="4.5244681835174561e-01" purity="5.1199007034301758e-01" nType="0">
          <Node pos="l" depth="2" NCoef="0" IVar="-1" Cut="0.0000000000000000e+00" cType="1" res="2.6046985294669867e-04" rms="4.5433747768402100e-01" purity="5.3127741813659668e-01" nType="-99"/>
          <Node pos="r" depth="2" NCoef="0" IVar="-1" Cut="0.0000000000000000e+00" cType="1" res="-2.8288748580962420e-03" rms="4.3235337734222412e-01" purity="3.3633440732955933e-01" nType="-99"/>
        </Node>
        <Node pos="r" depth="1" NCoef="0" IVar="-1" Cut="0.0000000000000000e+00" cType="1" res="-3.6701974458992481e-03" rms="4.2131090164184570e-01" purity="2.8826880455017090e-01" nType="-99"/>
      </Node>
    </BinaryTree>
    <BinaryTree type="DecisionTree" boostWeight="1.0000000000000000e+00" itree="423">
      <Node pos="s" depth="0" NCoef="0" IVar="7" Cut="8.5678565502166748e-01" cType="1" res="-5.3152684122323990e-03" rms="4.4954401254653931e-01" purity="4.9305543303489685e-01" nType="0">
        <Node pos="l" depth="1" NCoef="0" IVar="1" Cut="9.7243052721023560e-01" cType="1" res="-1.5517828054726124e-02" rms="4.4388478994369507e-01" purity="4.5186424255371094e-01" nType="0">
          <Node pos="l" depth="2" NCoef="0" IVar="-1" Cut="0.0000000000000000e+00" cType="1" res="-1.5883499290794134e-03" rms="4.4274878501892090e-01" purity="3.8688528537750244e-01" nType="-99"/>
          <Node pos="r" depth="2" NCoef="0" IVar="-1" Cut="0.0000000000000000e+00" cType="1" res="7.5244670733809471e-04" rms="4.4547194242477417e-01" purity="6.3358491659164429e-01" nType="-99"/>
        </Node>
        <Node pos="r" depth="1" NCoef="0" IVar="2" Cut="9.7587524414062500e+01" cType="1" res="1.3174609281122684e-02" rms="4.5904508233070374e-01" purity="5.6770539283752441e-01" nType="0">
          <Node pos="l" depth="2" NCoef="0" IVar="-1" Cut="0.0000000000000000e+00" cType="1" res="-1.6695463273208588e-04" rms="4.6726927161216736e-01" purity="5.2268600463867188e-01" nType="-99"/>
          <Node pos="r" depth="2" NCoef="0" IVar="-1" Cut="0.0000000000000000e+00" cType="1" res="1.6421265900135040e-03" rms="4.4585397839546204e-01" purity="6.3246285915374756e-01" nType="-99"/>
        </Node>
      </Node>
    </BinaryTree>
    <BinaryTree type="DecisionTree" boostWeight="1.0000000000000000e+00" itree="424">
      <Node pos="s" depth="0" NCoef="0" IVar="3" Cut="1.2827944946289062e+02" cType="1" res="4.4872993603348732e-03" rms="4.5190626382827759e-01" purity="5.0378906726837158e-01" nType="0">
        <Node pos="l" depth="1" NCoef="0" IVar="2" Cut="8.3413558959960938e+01" cType="1" res="1.3911248184740543e-02" rms="4.5337533950805664e-01" purity="5.2779048681259155e-01" nType="0">
          <Node pos="l" depth="2" NCoef="0" IVar="-1" Cut="0.0000000000000000e+00" cType="1" res="-1.1163790622958913e-04" rms="4.5898705720901489e-01" purity="4.8582747578620911e-01" nType="-99"/>
          <Node pos="r" depth="2" NCoef="0" IVar="-1" Cut="0.0000000000000000e+00" cType="1" res="1.3412471162155271e-03" rms="4.4791239500045776e-01" purity="5.6461805105209351e-01" nType="-99"/>
        </Node>
        <Node pos="r" depth="1" NCoef="0" IVar="6" Cut="5.5693499755859375e+02" cType="1" res="-1.8935691565275192e-02" rms="4.4737502932548523e-01" purity="4.4413444399833679e-01" nType="0">
          <Node pos="l" depth="2" NCoef="0" IVar="-1" Cut="0.0000000000000000e+00" cType="1" res="-1.9060022896155715e-03" rms="4.4506505131721497e-01" purity="3.9695119857788086e-01" nType="-99"/>
          <Node pos="r" depth="2" NCoef="0" IVar="-1" Cut="0.0000000000000000e+00" cType="1" res="1.5108601655811071e-04" rms="4.5045506954193115e-01" purity="5.2500921487808228e-01" nType="-99"/>
        </Node>
      </Node>
    </BinaryTree>
    <BinaryTree type="DecisionTree" boostWeight="1.0000000000000000e+00" itree="425">
      <Node pos="s" depth="0" NCoef="0" IVar="6" Cut="5.4864093017578125e+02" cType="1" res="6.2229163013398647e-03" rms="4.5212191343307495e-01" purity="5.0252717733383179e-01" nType="0">
        <Node pos="l" depth="1" NCoef="0" IVar="8" Cut="1.9802914428710938e+02" cType="1" res="-2.8274822980165482e-03" rms="4.5475566387176514e-01" purity="4.5492753386497498e-01" nType="0">
          <Node pos="l" depth="2" NCoef="0" IVar="-1" Cut="0.0000000000000000e+00" cType="1" res="6.4132839906960726e-04" rms="4.6583893895149231e-01" purity="5.0704079866409302e-01" nType="-99"/>
          <Node pos="r" depth="2" NCoef="0" IVar="-1" Cut="0.0000000000000000e+00" cType="1" res="-1.5247943811118603e-03" rms="4.3826639652252197e-01" purity="3.8393506407737732e-01" nType="-99"/>
        </Node>
        <Node pos="r" depth="1" NCoef="0" IVar="8" Cut="3.8502136230468750e+02" cType="1" res="2.1687479689717293e-02" rms="4.4716200232505798e-01" purity="5.8386158943176270e-01" nType="0">
          <Node pos="l" depth="2" NCoef="0" IVar="-1" Cut="0.0000000000000000e+00" cType="1" res="1.4508165186271071e-03" rms="4.4575807452201843e-01" purity="6.4069509506225586e-01" nType="-99"/>
          <Node pos="r" depth="2" NCoef="0" IVar="-1" Cut="0.0000000000000000e+00" cType="1" res="-4.2212195694446564e-04" rms="4.4898790121078491e-01" purity="4.5220142602920532e-01" nType="-99"/>
        </Node>
      </Node>
    </BinaryTree>
    <BinaryTree type="DecisionTree" boostWeight="1.0000000000000000e+00" itree="426">
      <Node pos="s" depth="0" NCoef="0" IVar="6" Cut="5.4352819824218750e+02" cType="1" res="2.2530232090502977e-03" rms="4.5349630713462830e-01" purity="4.9842524528503418e-01" nType="0">
        <Node pos="l" depth="1" NCoef="0" IVar="2" Cut="1.2545693969726562e+02" cType="1" res="-7.2476803325116634e-03" rms="4.5104885101318359e-01" purity="4.5003005862236023e-01" nType="0">
          <Node pos="l" depth="2" NCoef="0" IVar="-1" Cut="0.0000000000000000e+00" cType="1" res="-5.7100492995232344e-05" rms="4.5583957433700562e-01" purity="4.6604058146476746e-01" nType="-99"/>
          <Node pos="r" depth="2" NCoef="0" IVar="-1" Cut="0.0000000000000000e+00" cType="1" res="-2.5642400141805410e-03" rms="4.2385491728782654e-01" purity="3.6684593558311462e-01" nType="-99"/>
        </Node>
        <Node pos="r" depth="1" NCoef="0" IVar="4" Cut="2.5560226440429688e+00" cType="1" res="1.7508812248706818e-02" rms="4.5698589086532593e-01" purity="5.7613611221313477e-01" nType="0">
          <Node pos="l" depth="2" NCoef="0" IVar="-1" Cut="0.0000000000000000e+00" cType="1" res="4.3514513527043164e-04" rms="4.5692533254623413e-01" purity="6.0843980312347412e-01" nType="-99"/>
          <Node pos="r" depth="2" NCoef="0" IVar="-1" Cut="0.0000000000000000e+00" cType="1" res="3.6180219613015652e-03" rms="4.5499414205551147e-01" purity="3.9436575770378113e-01" nType="-99"/>
        </Node>
      </Node>
    </BinaryTree>
    <BinaryTree type="DecisionTree" boostWeight="1.0000000000000000e+00" itree="427">
      <Node pos="s" depth="0" NCoef="0" IVar="2" Cut="2.0556044006347656e+02" cType="1" res="9.6104722470045090e-03" rms="4.5516762137413025e-01" purity="5.0566601753234863e-01" nType="0">
        <Node pos="l" depth="1" NCoef="0" IVar="2" Cut="3.7313758850097656e+01" cType="1" res="1.3049152679741383e-02" rms="4.5658120512962341e-01" purity="5.1722031831741333e-01" nType="0">
          <Node pos="l" depth="2" NCoef="0" IVar="-1" Cut="0.0000000000000000e+00" cType="1" res="-2.0885162521153688e-03" rms="4.5213326811790466e-01" purity="3.3973810076713562e-01" nType="-99"/>
          <Node pos="r" depth="2" NCoef="0" IVar="-1" Cut="0.0000000000000000e+00" cType="1" res="8.5432385094463825e-04" rms="4.5676204562187195e-01" purity="5.3539365530014038e-01" nType="-99"/>
        </Node>
        <Node pos="r" depth="1" NCoef="0" IVar="-1" Cut="0.0000000000000000e+00" cType="1" res="-3.1171049922704697e-03" rms="4.2856377363204956e-01" purity="3.2304969429969788e-01" nType="-99"/>
      </Node>
    </BinaryTree>
    <BinaryTree type="DecisionTree" boostWeight="1.0000000000000000e+00" itree="428">
      <Node pos="s" depth="0" NCoef="0" IVar="1" Cut="9.2017996311187744e-01" cType="1" res="-1.1911307228729129e-03" rms="4.5161706209182739e-01" purity="4.9373090267181396e-01" nType="0">
        <Node pos="l" depth="1" NCoef="0" IVar="5" Cut="1.3339207172393799e+00" cType="1" res="-3.5890400409698486e-02" rms="4.2005813121795654e-01" purity="2.9322886466979980e-01" nType="0">
          <Node pos="l" depth="2" NCoef="0" IVar="-1" Cut="0.0000000000000000e+00" cType="1" res="-3.4517750609666109e-03" rms="4.2653870582580566e-01" purity="3.1254485249519348e-01" nType="-99"/>
          <Node pos="r" depth="2" NCoef="0" IVar="-1" Cut="0.0000000000000000e+00" cType="1" res="-9.1538933338597417e-04" rms="4.1079801321029663e-01" purity="2.6976594328880310e-01" nType="-99"/>
        </Node>
        <Node pos="r" depth="1" NCoef="0" IVar="5" Cut="9.5945405960083008e-01" cType="1" res="3.4369905479252338e-03" rms="4.5546138286590576e-01" purity="5.2047353982925415e-01" nType="0">
          <Node pos="l" depth="2" NCoef="0" IVar="-1" Cut="0.0000000000000000e+00" cType="1" res="1.5968740917742252e-03" rms="4.5414644479751587e-01" purity="6.1771082878112793e-01" nType="-99"/>
          <Node pos="r" depth="2" NCoef="0" IVar="-1" Cut="0.0000000000000000e+00" cType="1" res="-2.4665359887876548e-05" rms="4.5545658469200134e-01" purity="5.0896340608596802e-01" nType="-99"/>
        </Node>
      </Node>
    </BinaryTree>
    <BinaryTree type="DecisionTree" boostWeight="1.0000000000000000e+00" itree="429">
      <Node pos="s" depth="0" NCoef="0" IVar="6" Cut="2.9928500366210938e+02" cType="1" res="4.2342897504568100e-03" rms="4.5032459497451782e-01" purity="5.0202149152755737e-01" nType="0">
        <Node pos="l" depth="1" NCoef="0" IVar="-1" Cut="0.0000000000000000e+00" cType="1" res="-3.5203485749661922e-03" rms="4.1165518760681152e-01" purity="2.5983020663261414e-01" nType="-99"/>
        <Node pos="r" depth="1" NCoef="0" IVar="7" Cut="1.4279714822769165e+00" cType="1" res="8.2991849631071091e-03" rms="4.5335027575492859e-01" purity="5.2337038516998291e-01" nType="0">
          <Node pos="l" depth="2" NCoef="0" IVar="-1" Cut="0.0000000000000000e+00" cType="1" res="2.3599465203005821e-04" rms="4.5492765307426453e-01" purity="5.1009392738342285e-01" nType="-99"/>
          <Node pos="r" depth="2" NCoef="0" IVar="-1" Cut="0.0000000000000000e+00" cType="1" res="2.0271895918995142e-03" rms="4.3318295478820801e-01" purity="6.7305457592010498e-01" nType="-99"/>
        </Node>
      </Node>
    </BinaryTree>
    <BinaryTree type="DecisionTree" boostWeight="1.0000000000000000e+00" itree="430">
      <Node pos="s" depth="0" NCoef="0" IVar="7" Cut="9.9958729743957520e-01" cType="1" res="4.3946388177573681e-03" rms="4.5336055755615234e-01" purity="5.0178664922714233e-01" nType="0">
        <Node pos="l" depth="1" NCoef="0" IVar="6" Cut="7.9379034423828125e+02" cType="1" res="-5.4729417897760868e-03" rms="4.5226675271987915e-01" purity="4.5854774117469788e-01" nType="0">
          <Node pos="l" depth="2" NCoef="0" IVar="-1" Cut="0.0000000000000000e+00" cType="1" res="-5.4175045806914568e-04" rms="4.5140969753265381e-01" purity="4.4544020295143127e-01" nType="-99"/>
          <Node pos="r" depth="2" NCoef="0" IVar="-1" Cut="0.0000000000000000e+00" cType="1" res="1.2965183705091476e-03" rms="4.5735931396484375e-01" purity="5.5922615528106689e-01" nType="-99"/>
        </Node>
        <Node pos="r" depth="1" NCoef="0" IVar="3" Cut="1.1479835510253906e+02" cType="1" res="2.8738580644130707e-02" rms="4.5513373613357544e-01" purity="6.0845977067947388e-01" nType="0">
          <Node pos="l" depth="2" NCoef="0" IVar="-1" Cut="0.0000000000000000e+00" cType="1" res="-1.1514162179082632e-03" rms="4.5820638537406921e-01" purity="5.1501822471618652e-01" nType="-99"/>
          <Node pos="r" depth="2" NCoef="0" IVar="-1" Cut="0.0000000000000000e+00" cType="1" res="1.7356598982587457e-03" rms="4.5358949899673462e-01" purity="6.3018769025802612e-01" nType="-99"/>
        </Node>
      </Node>
    </BinaryTree>
    <BinaryTree type="DecisionTree" boostWeight="1.0000000000000000e+00" itree="431">
      <Node pos="s" depth="0" NCoef="0" IVar="7" Cut="-9.9953472614288330e-01" cType="1" res="4.5695723965764046e-03" rms="4.5096898078918457e-01" purity="5.0233697891235352e-01" nType="0">
        <Node pos="l" depth="1" NCoef="0" IVar="7" Cut="-1.3890290260314941e+00" cType="1" res="2.3949900642037392e-02" rms="4.5795363187789917e-01" purity="5.9952944517135620e-01" nType="0">
          <Node pos="l" depth="2" NCoef="0" IVar="-1" Cut="0.0000000000000000e+00" cType="1" res="1.8088005017489195e-03" rms="4.4825705885887146e-01" purity="6.5550154447555542e-01" nType="-99"/>
          <Node pos="r" depth="2" NCoef="0" IVar="-1" Cut="0.0000000000000000e+00" cType="1" res="6.5926875686272979e-04" rms="4.6246859431266785e-01" purity="5.7142204046249390e-01" nType="-99"/>
        </Node>
        <Node pos="r" depth="1" NCoef="0" IVar="7" Cut="7.5296664237976074e-01" cType="1" res="-3.2409769482910633e-03" rms="4.4788628816604614e-01" purity="4.6316701173782349e-01" nType="0">
          <Node pos="l" depth="2" NCoef="0" IVar="-1" Cut="0.0000000000000000e+00" cType="1" res="-1.4480851823464036e-03" rms="4.3921080231666565e-01" purity="3.5491082072257996e-01" nType="-99"/>
          <Node pos="r" depth="2" NCoef="0" IVar="-1" Cut="0.0000000000000000e+00" cType="1" res="6.3140108250081539e-04" rms="4.5468819141387939e-01" purity="5.5803340673446655e-01" nType="-99"/>
        </Node>
      </Node>
    </BinaryTree>
    <BinaryTree type="DecisionTree" boostWeight="1.0000000000000000e+00" itree="432">
      <Node pos="s" depth="0" NCoef="0" IVar="2" Cut="1.0816646575927734e+02" cType="1" res="3.7536281161010265e-03" rms="4.5050826668739319e-01" purity="5.0227558612823486e-01" nType="0">
        <Node pos="l" depth="1" NCoef="0" IVar="2" Cut="3.7334373474121094e+01" cType="1" res="-4.7802254557609558e-03" rms="4.5539599657058716e-01" purity="4.8874998092651367e-01" nType="0">
          <Node pos="l" depth="2" NCoef="0" IVar="-1" Cut="0.0000000000000000e+00" cType="1" res="-2.6925778947770596e-03" rms="4.3941015005111694e-01" purity="3.3910772204399109e-01" nType="-99"/>
          <Node pos="r" depth="2" NCoef="0" IVar="-1" Cut="0.0000000000000000e+00" cType="1" res="5.5086118663894013e-05" rms="4.5751687884330750e-01" purity="5.1175105571746826e-01" nType="-99"/>
        </Node>
        <Node pos="r" depth="1" NCoef="0" IVar="0" Cut="1.5844013690948486e+00" cType="1" res="1.9303672015666962e-02" rms="4.4103854894638062e-01" purity="5.2692127227783203e-01" nType="0">
          <Node pos="l" depth="2" NCoef="0" IVar="-1" Cut="0.0000000000000000e+00" cType="1" res="2.2274896036833525e-03" rms="4.2502477765083313e-01" purity="7.1455758810043335e-01" nType="-99"/>
          <Node pos="r" depth="2" NCoef="0" IVar="-1" Cut="0.0000000000000000e+00" cType="1" res="-1.4876769273541868e-04" rms="4.4947266578674316e-01" purity="4.0864181518554688e-01" nType="-99"/>
        </Node>
      </Node>
    </BinaryTree>
    <BinaryTree type="DecisionTree" boostWeight="1.0000000000000000e+00" itree="433">
      <Node pos="s" depth="0" NCoef="0" IVar="2" Cut="6.4147903442382812e+01" cType="1" res="3.0982836615294218e-03" rms="4.4945001602172852e-01" purity="5.0037813186645508e-01" nType="0">
        <Node pos="l" depth="1" NCoef="0" IVar="8" Cut="1.8832475280761719e+02" cType="1" res="-1.6654469072818756e-02" rms="4.5595535635948181e-01" purity="4.2960643768310547e-01" nType="0">
          <Node pos="l" depth="2" NCoef="0" IVar="-1" Cut="0.0000000000000000e+00" cType="1" res="4.6196469338610768e-04" rms="4.6513682603836060e-01" purity="4.6678197383880615e-01" nType="-99"/>
          <Node pos="r" depth="2" NCoef="0" IVar="-1" Cut="0.0000000000000000e+00" cType="1" res="-3.2949286978691816e-03" rms="4.3926262855529785e-01" purity="3.7472689151763916e-01" nType="-99"/>
        </Node>
        <Node pos="r" depth="1" NCoef="0" IVar="0" Cut="1.0032484531402588e+00" cType="1" res="1.2078774161636829e-02" rms="4.4617196917533875e-01" purity="5.3255409002304077e-01" nType="0">
          <Node pos="l" depth="2" NCoef="0" IVar="-1" Cut="0.0000000000000000e+00" cType="1" res="2.4929798673838377e-03" rms="4.0717259049415588e-01" purity="7.2892725467681885e-01" nType="-99"/>
          <Node pos="r" depth="2" NCoef="0" IVar="-1" Cut="0.0000000000000000e+00" cType="1" res="1.5627438551746309e-04" rms="4.5234030485153198e-01" purity="4.9672675132751465e-01" nType="-99"/>
        </Node>
      </Node>
    </BinaryTree>
    <BinaryTree type="DecisionTree" boostWeight="1.0000000000000000e+00" itree="434">
      <Node pos="s" depth="0" NCoef="0" IVar="2" Cut="1.0035180664062500e+02" cType="1" res="7.6543078757822514e-03" rms="4.5192012190818787e-01" purity="5.0437748432159424e-01" nType="0">
        <Node pos="l" depth="1" NCoef="0" IVar="0" Cut="1.8462587594985962e+00" cType="1" res="-2.8656558133661747e-03" rms="4.5608192682266235e-01" purity="4.8510915040969849e-01" nType="0">
          <Node pos="l" depth="2" NCoef="0" IVar="-1" Cut="0.0000000000000000e+00" cType="1" res="-4.4006374082528055e-04" rms="4.5647218823432922e-01" purity="4.9389833211898804e-01" nType="-99"/>
          <Node pos="r" depth="2" NCoef="0" IVar="-1" Cut="0.0000000000000000e+00" cType="1" res="3.3726582769304514e-03" rms="4.4795829057693481e-01" purity="3.9910557866096497e-01" nType="-99"/>
        </Node>
        <Node pos="r" depth="1" NCoef="0" IVar="0" Cut="1.3934445381164551e+00" cType="1" res="2.2937979549169540e-02" rms="4.4536200165748596e-01" purity="5.3237098455429077e-01" nType="0">
          <Node pos="l" depth="2" NCoef="0" IVar="-1" Cut="0.0000000000000000e+00" cType="1" res="2.3502334952354431e-03" rms="4.1538125276565552e-01" purity="7.3811113834381104e-01" nType="-99"/>
          <Node pos="r" depth="2" NCoef="0" IVar="-1" Cut="0.0000000000000000e+00" cType="1" res="5.4358370834961534e-04" rms="4.5508235692977905e-01" purity="4.5761209726333618e-01" nType="-99"/>
        </Node>
      </Node>
    </BinaryTree>
    <BinaryTree type="DecisionTree" boostWeight="1.0000000000000000e+00" itree="435">
      <Node pos="s" depth="0" NCoef="0" IVar="7" Cut="-1.4279196262359619e+00" cType="1" res="-2.0293793641030788e-03" rms="4.5316749811172485e-01" purity="4.9359816312789917e-01" nType="0">
        <Node pos="l" depth="1" NCoef="0" IVar="-1" Cut="0.0000000000000000e+00" cType="1" res="1.9348845817148685e-03" rms="4.5242664217948914e-01" purity="6.5348434448242188e-01" nType="-99"/>
        <Node pos="r" depth="1" NCoef="0" IVar="6" Cut="5.5165222167968750e+02" cType="1" res="-5.9465547092258930e-03" rms="4.5300561189651489e-01" purity="4.8044705390930176e-01" nType="0">
          <Node pos="l" depth="2" NCoef="0" IVar="-1" Cut="0.0000000000000000e+00" cType="1" res="-7.4492371641099453e-04" rms="4.5180740952491760e-01" purity="4.3509951233863831e-01" nType="-99"/>
          <Node pos="r" depth="2" NCoef="0" IVar="-1" Cut="0.0000000000000000e+00" cType="1" res="3.3601088216528296e-04" rms="4.5478522777557373e-01" purity="5.5926799774169922e-01" nType="-99"/>
        </Node>
      </Node>
    </BinaryTree>
    <BinaryTree type="DecisionTree" boostWeight="1.0000000000000000e+00" itree="436">
      <Node pos="s" depth="0" NCoef="0" IVar="8" Cut="5.2965032958984375e+02" cType="1" res="1.1589573696255684e-03" rms="4.5110023021697998e-01" purity="4.9688062071800232e-01" nType="0">
        <Node pos="l" depth="1" NCoef="0" IVar="6" Cut="5.3997070312500000e+02" cType="1" res="4.4538509100675583e-03" rms="4.5305117964744568e-01" purity="5.0875192880630493e-01" nType="0">
          <Node pos="l" depth="2" NCoef="0" IVar="-1" Cut="0.0000000000000000e+00" cType="1" res="-4.3128881952725351e-04" rms="4.5663115382194519e-01" purity="4.4635155797004700e-01" nType="-99"/>
          <Node pos="r" depth="2" NCoef="0" IVar="-1" Cut="0.0000000000000000e+00" cType="1" res="1.1453618062660098e-03" rms="4.4585978984832764e-01" purity="6.1825519800186157e-01" nType="-99"/>
        </Node>
        <Node pos="r" depth="1" NCoef="0" IVar="-1" Cut="0.0000000000000000e+00" cType="1" res="-2.8928171377629042e-03" rms="4.2152565717697144e-01" purity="3.3736887574195862e-01" nType="-99"/>
      </Node>
    </BinaryTree>
    <BinaryTree type="DecisionTree" boostWeight="1.0000000000000000e+00" itree="437">
      <Node pos="s" depth="0" NCoef="0" IVar="7" Cut="-1.2851250171661377e+00" cType="1" res="-7.8348990064114332e-04" rms="4.4913354516029358e-01" purity="4.9945086240768433e-01" nType="0">
        <Node pos="l" depth="1" NCoef="0" IVar="7" Cut="-1.4020106792449951e+00" cType="1" res="3.2524980604648590e-02" rms="4.5400246977806091e-01" purity="6.3591378927230835e-01" nType="0">
          <Node pos="l" depth="2" NCoef="0" IVar="-1" Cut="0.0000000000000000e+00" cType="1" res="2.2271764464676380e-03" rms="4.4495338201522827e-01" purity="6.7235934734344482e-01" nType="-99"/>
          <Node pos="r" depth="2" NCoef="0" IVar="-1" Cut="0.0000000000000000e+00" cType="1" res="-7.2818569606170058e-05" rms="4.6634927392005920e-01" purity="5.7658112049102783e-01" nType="-99"/>
        </Node>
        <Node pos="r" depth="1" NCoef="0" IVar="8" Cut="2.8144006347656250e+02" cType="1" res="-6.8237683735787868e-03" rms="4.4797971844673157e-01" purity="4.7470417618751526e-01" nType="0">
          <Node pos="l" depth="2" NCoef="0" IVar="-1" Cut="0.0000000000000000e+00" cType="1" res="4.9447713536210358e-05" rms="4.5394402742385864e-01" purity="5.1010507345199585e-01" nType="-99"/>
          <Node pos="r" depth="2" NCoef="0" IVar="-1" Cut="0.0000000000000000e+00" cType="1" res="-1.4409587020054460e-03" rms="4.3434298038482666e-01" purity="3.9826813340187073e-01" nType="-99"/>
        </Node>
      </Node>
    </BinaryTree>
    <BinaryTree type="DecisionTree" boostWeight="1.0000000000000000e+00" itree="438">
      <Node pos="s" depth="0" NCoef="0" IVar="3" Cut="1.4461666870117188e+02" cType="1" res="5.2492106333374977e-03" rms="4.5233875513076782e-01" purity="5.0320810079574585e-01" nType="0">
        <Node pos="l" depth="1" NCoef="0" IVar="1" Cut="9.8598515987396240e-01" cType="1" res="7.6990593224763870e-03" rms="4.5384335517883301e-01" purity="5.1514250040054321e-01" nType="0">
          <Node pos="l" depth="2" NCoef="0" IVar="-1" Cut="0.0000000000000000e+00" cType="1" res="1.9642343977466226e-04" rms="4.5654472708702087e-01" purity="4.9034723639488220e-01" nType="-99"/>
          <Node pos="r" depth="2" NCoef="0" IVar="-1" Cut="0.0000000000000000e+00" cType="1" res="1.6096606850624084e-03" rms="4.3050029873847961e-01" purity="7.1295976638793945e-01" nType="-99"/>
        </Node>
        <Node pos="r" depth="1" NCoef="0" IVar="-1" Cut="0.0000000000000000e+00" cType="1" res="-3.1459501478821039e-03" rms="4.2077878117561340e-01" purity="2.8117358684539795e-01" nType="-99"/>
      </Node>
    </BinaryTree>
    <BinaryTree type="DecisionTree" boostWeight="1.0000000000000000e+00" itree="439">
      <Node pos="s" depth="0" NCoef="0" IVar="8" Cut="2.5782583618164062e+02" cType="1" res="6.4327409490942955e-03" rms="4.5281621813774109e-01" purity="5.0373464822769165e-01" nType="0">
        <Node pos="l" depth="1" NCoef="0" IVar="8" Cut="1.0468878936767578e+02" cType="1" res="1.5351343899965286e-02" rms="4.5746862888336182e-01" purity="5.4051446914672852e-01" nType="0">
          <Node pos="l" depth="2" NCoef="0" IVar="-1" Cut="0.0000000000000000e+00" cType="1" res="-1.4257105067372322e-03" rms="4.7155755758285522e-01" purity="4.2115691304206848e-01" nType="-99"/>
          <Node pos="r" depth="2" NCoef="0" IVar="-1" Cut="0.0000000000000000e+00" cType="1" res="9.7342318622395396e-04" rms="4.5517048239707947e-01" purity="5.5719977617263794e-01" nType="-99"/>
        </Node>
        <Node pos="r" depth="1" NCoef="0" IVar="4" Cut="2.4464075565338135e+00" cType="1" res="-9.3043968081474304e-03" rms="4.4405147433280945e-01" purity="4.3883571028709412e-01" nType="0">
          <Node pos="l" depth="2" NCoef="0" IVar="-1" Cut="0.0000000000000000e+00" cType="1" res="-1.0620362590998411e-03" rms="4.5810493826866150e-01" purity="5.4004442691802979e-01" nType="-99"/>
          <Node pos="r" depth="2" NCoef="0" IVar="-1" Cut="0.0000000000000000e+00" cType="1" res="5.4339464986696839e-04" rms="4.2477476596832275e-01" purity="3.0904725193977356e-01" nType="-99"/>
        </Node>
      </Node>
    </BinaryTree>
    <BinaryTree type="DecisionTree" boostWeight="1.0000000000000000e+00" itree="440">
      <Node pos="s" depth="0" NCoef="0" IVar="1" Cut="9.1941165924072266e-01" cType="1" res="2.9077725484967232e-03" rms="4.5249125361442566e-01" purity="4.9989029765129089e-01" nType="0">
        <Node pos="l" depth="1" NCoef="0" IVar="2" Cut="9.2961936950683594e+01" cType="1" res="-2.0518500357866287e-02" rms="4.2458859086036682e-01" purity="3.0472907423973083e-01" nType="0">
          <Node pos="l" depth="2" NCoef="0" IVar="-1" Cut="0.0000000000000000e+00" cType="1" res="-2.8893076814711094e-03" rms="4.1914156079292297e-01" purity="2.7223119139671326e-01" nType="-99"/>
          <Node pos="r" depth="2" NCoef="0" IVar="-1" Cut="0.0000000000000000e+00" cType="1" res="2.4862022837623954e-04" rms="4.2991930246353149e-01" purity="3.4466028213500977e-01" nType="-99"/>
        </Node>
        <Node pos="r" depth="1" NCoef="0" IVar="0" Cut="1.2558923959732056e+00" cType="1" res="5.8934129774570465e-03" rms="4.5583826303482056e-01" purity="5.2476328611373901e-01" nType="0">
          <Node pos="l" depth="2" NCoef="0" IVar="-1" Cut="0.0000000000000000e+00" cType="1" res="7.3082424933090806e-04" rms="4.5256856083869934e-01" purity="5.7329386472702026e-01" nType="-99"/>
          <Node pos="r" depth="2" NCoef="0" IVar="-1" Cut="0.0000000000000000e+00" cType="1" res="-1.3891760318074375e-04" rms="4.5844075083732605e-01" purity="4.8328304290771484e-01" nType="-99"/>
        </Node>
      </Node>
    </BinaryTree>
    <BinaryTree type="DecisionTree" boostWeight="1.0000000000000000e+00" itree="441">
      <Node pos="s" depth="0" NCoef="0" IVar="1" Cut="9.8571515083312988e-01" cType="1" res="6.3845710828900337e-03" rms="4.5291170477867126e-01" purity="5.0542747974395752e-01" nType="0">
        <Node pos="l" depth="1" NCoef="0" IVar="5" Cut="9.5732939243316650e-01" cType="1" res="2.1279861684888601e-03" rms="4.5524033904075623e-01" purity="4.7966173291206360e-01" nType="0">
          <Node pos="l" depth="2" NCoef="0" IVar="-1" Cut="0.0000000000000000e+00" cType="1" res="1.6595521010458469e-03" rms="4.5723864436149597e-01" purity="5.8809798955917358e-01" nType="-99"/>
          <Node pos="r" depth="2" NCoef="0" IVar="-1" Cut="0.0000000000000000e+00" cType="1" res="-9.9793513072654605e-05" rms="4.5483693480491638e-01" purity="4.6729946136474609e-01" nType="-99"/>
        </Node>
        <Node pos="r" depth="1" NCoef="0" IVar="-1" Cut="0.0000000000000000e+00" cType="1" res="1.7173321684822440e-03" rms="4.3256592750549316e-01" purity="7.0935261249542236e-01" nType="-99"/>
      </Node>
    </BinaryTree>
    <BinaryTree type="DecisionTree" boostWeight="1.0000000000000000e+00" itree="442">
      <Node pos="s" depth="0" NCoef="0" IVar="2" Cut="1.6877384948730469e+02" cType="1" res="-3.0855161603540182e-03" rms="4.5046702027320862e-01" purity="4.9602913856506348e-01" nType="0">
        <Node pos="l" depth="1" NCoef="0" IVar="2" Cut="9.7434852600097656e+01" cType="1" res="1.1854564072564244e-03" rms="4.5166444778442383e-01" purity="5.1277077198028564e-01" nType="0">
          <Node pos="l" depth="2" NCoef="0" IVar="-1" Cut="0.0000000000000000e+00" cType="1" res="-4.6099990140646696e-04" rms="4.5881393551826477e-01" purity="4.7496804594993591e-01" nType="-99"/>
          <Node pos="r" depth="2" NCoef="0" IVar="-1" Cut="0.0000000000000000e+00" cType="1" res="9.3200063565745950e-04" rms="4.3787187337875366e-01" purity="5.8096742630004883e-01" nType="-99"/>
        </Node>
        <Node pos="r" depth="1" NCoef="0" IVar="4" Cut="2.4199686050415039e+00" cType="1" res="-3.8675311952829361e-02" rms="4.3874868750572205e-01" purity="3.5652211308479309e-01" nType="0">
          <Node pos="l" depth="2" NCoef="0" IVar="-1" Cut="0.0000000000000000e+00" cType="1" res="-3.5947046708315611e-03" rms="4.6440044045448303e-01" purity="4.5376348495483398e-01" nType="-99"/>
          <Node pos="r" depth="2" NCoef="0" IVar="-1" Cut="0.0000000000000000e+00" cType="1" res="-7.4845232302322984e-04" rms="4.0693566203117371e-01" purity="2.5088489055633545e-01" nType="-99"/>
        </Node>
      </Node>
    </BinaryTree>
    <BinaryTree type="DecisionTree" boostWeight="1.0000000000000000e+00" itree="443">
      <Node pos="s" depth="0" NCoef="0" IVar="3" Cut="1.1153086090087891e+02" cType="1" res="4.5627001672983170e-03" rms="4.5108649134635925e-01" purity="5.0348246097564697e-01" nType="0">
        <Node pos="l" depth="1" NCoef="0" IVar="3" Cut="1.0025012969970703e+02" cType="1" res="-1.8679568544030190e-02" rms="4.4854876399040222e-01" purity="4.1164812445640564e-01" nType="0">
          <Node pos="l" depth="2" NCoef="0" IVar="-1" Cut="0.0000000000000000e+00" cType="1" res="-3.4540353808552027e-03" rms="4.2803722620010376e-01" purity="3.2045254111289978e-01" nType="-99"/>
          <Node pos="r" depth="2" NCoef="0" IVar="-1" Cut="0.0000000000000000e+00" cType="1" res="-2.7044474336435087e-05" rms="4.5884236693382263e-01" purity="4.6363320946693420e-01" nType="-99"/>
        </Node>
        <Node pos="r" depth="1" NCoef="0" IVar="4" Cut="1.8350572586059570e+00" cType="1" res="8.7032364681363106e-03" rms="4.5141151547431946e-01" purity="5.1984244585037231e-01" nType="0">
          <Node pos="l" depth="2" NCoef="0" IVar="-1" Cut="0.0000000000000000e+00" cType="1" res="2.2556744515895844e-03" rms="4.4436612725257874e-01" purity="6.5933507680892944e-01" nType="-99"/>
          <Node pos="r" depth="2" NCoef="0" IVar="-1" Cut="0.0000000000000000e+00" cType="1" res="2.2628191800322384e-04" rms="4.5181164145469666e-01" purity="5.0719368457794189e-01" nType="-99"/>
        </Node>
      </Node>
    </BinaryTree>
    <BinaryTree type="DecisionTree" boostWeight="1.0000000000000000e+00" itree="444">
      <Node pos="s" depth="0" NCoef="0" IVar="6" Cut="4.9311395263671875e+02" cType="1" res="8.5661775665357709e-04" rms="4.5000785589218140e-01" purity="4.9834457039833069e-01" nType="0">
        <Node pos="l" depth="1" NCoef="0" IVar="7" Cut="-9.9958115816116333e-01" cType="1" res="-1.4125424437224865e-02" rms="4.4760844111442566e-01" purity="4.2815545201301575e-01" nType="0">
          <Node pos="l" depth="2" NCoef="0" IVar="-1" Cut="0.0000000000000000e+00" cType="1" res="9.5054617850109935e-04" rms="4.6916466951370239e-01" purity="5.4445135593414307e-01" nType="-99"/>
          <Node pos="r" depth="2" NCoef="0" IVar="-1" Cut="0.0000000000000000e+00" cType="1" res="-1.6283355653285980e-03" rms="4.3861141800880432e-01" purity="3.8490280508995056e-01" nType="-99"/>
        </Node>
        <Node pos="r" depth="1" NCoef="0" IVar="2" Cut="1.6882646179199219e+02" cType="1" res="1.7206344753503799e-02" rms="4.5204555988311768e-01" purity="5.7494109869003296e-01" nType="0">
          <Node pos="l" depth="2" NCoef="0" IVar="-1" Cut="0.0000000000000000e+00" cType="1" res="1.0955736506730318e-03" rms="4.5076146721839905e-01" purity="6.1278587579727173e-01" nType="-99"/>
          <Node pos="r" depth="2" NCoef="0" IVar="-1" Cut="0.0000000000000000e+00" cType="1" res="-1.1448415461927652e-03" rms="4.5605221390724182e-01" purity="4.0157070755958557e-01" nType="-99"/>
        </Node>
      </Node>
    </BinaryTree>
    <BinaryTree type="DecisionTree" boostWeight="1.0000000000000000e+00" itree="445">
      <Node pos="s" depth="0" NCoef="0" IVar="7" Cut="1.4279775619506836e+00" cType="1" res="5.9197973459959030e-03" rms="4.5090174674987793e-01" purity="5.0424128770828247e-01" nType="0">
        <Node pos="l" depth="1" NCoef="0" IVar="6" Cut="5.4887255859375000e+02" cType="1" res="2.7323248796164989e-03" rms="4.5189207792282104e-01" purity="4.9094104766845703e-01" nType="0">
          <Node pos="l" depth="2" NCoef="0" IVar="-1" Cut="0.0000000000000000e+00" cType="1" res="-2.8962898068130016e-04" rms="4.5194569230079651e-01" purity="4.4326177239418030e-01" nType="-99"/>
          <Node pos="r" depth="2" NCoef="0" IVar="-1" Cut="0.0000000000000000e+00" cType="1" res="7.4447545921429992e-04" rms="4.5148074626922607e-01" purity="5.7104426622390747e-01" nType="-99"/>
        </Node>
        <Node pos="r" depth="1" NCoef="0" IVar="-1" Cut="0.0000000000000000e+00" cType="1" res="1.8590983236208558e-03" rms="4.3728536367416382e-01" purity="6.6129106283187866e-01" nType="-99"/>
      </Node>
    </BinaryTree>
    <BinaryTree type="DecisionTree" boostWeight="1.0000000000000000e+00" itree="446">
      <Node pos="s" depth="0" NCoef="0" IVar="5" Cut="9.5657259225845337e-01" cType="1" res="2.7056152466684580e-03" rms="4.5046252012252808e-01" purity="5.0023299455642700e-01" nType="0">
        <Node pos="l" depth="1" NCoef="0" IVar="-1" Cut="0.0000000000000000e+00" cType="1" res="1.8005429301410913e-03" rms="4.4728508591651917e-01" purity="6.1325293779373169e-01" nType="-99"/>
        <Node pos="r" depth="1" NCoef="0" IVar="0" Cut="1.2776060104370117e+00" cType="1" res="-1.5860222047194839e-03" rms="4.5061409473419189e-01" purity="4.8757541179656982e-01" nType="0">
          <Node pos="l" depth="2" NCoef="0" IVar="-1" Cut="0.0000000000000000e+00" cType="1" res="4.9774971557781100e-04" rms="4.5011830329895020e-01" purity="5.4801756143569946e-01" nType="-99"/>
          <Node pos="r" depth="2" NCoef="0" IVar="-1" Cut="0.0000000000000000e+00" cType="1" res="-7.6522881863638759e-04" rms="4.5078420639038086e-01" purity="4.2822292447090149e-01" nType="-99"/>
        </Node>
      </Node>
    </BinaryTree>
    <BinaryTree type="DecisionTree" boostWeight="1.0000000000000000e+00" itree="447">
      <Node pos="s" depth="0" NCoef="0" IVar="1" Cut="9.4644147157669067e-01" cType="1" res="2.8986744582653046e-03" rms="4.5144218206405640e-01" purity="5.0207442045211792e-01" nType="0">
        <Node pos="l" depth="1" NCoef="0" IVar="0" Cut="1.5472941398620605e+00" cType="1" res="-9.0917553752660751e-03" rms="4.4742333889007568e-01" purity="3.6886662244796753e-01" nType="0">
          <Node pos="l" depth="2" NCoef="0" IVar="-1" Cut="0.0000000000000000e+00" cType="1" res="1.0532237502047792e-04" rms="4.6336555480957031e-01" purity="4.2709359526634216e-01" nType="-99"/>
          <Node pos="r" depth="2" NCoef="0" IVar="-1" Cut="0.0000000000000000e+00" cType="1" res="-2.1159613970667124e-03" rms="4.1927021741867065e-01" purity="2.7317377924919128e-01" nType="-99"/>
        </Node>
        <Node pos="r" depth="1" NCoef="0" IVar="5" Cut="1.6885268688201904e+00" cType="1" res="9.9440179765224457e-03" rms="4.5363917946815491e-01" purity="5.8034479618072510e-01" nType="0">
          <Node pos="l" depth="2" NCoef="0" IVar="-1" Cut="0.0000000000000000e+00" cType="1" res="3.0675367452204227e-04" rms="4.5137932896614075e-01" purity="5.9313213825225830e-01" nType="-99"/>
          <Node pos="r" depth="2" NCoef="0" IVar="-1" Cut="0.0000000000000000e+00" cType="1" res="1.9426940707489848e-03" rms="4.7117951512336731e-01" purity="4.7375726699829102e-01" nType="-99"/>
        </Node>
      </Node>
    </BinaryTree>
    <BinaryTree type="DecisionTree" boostWeight="1.0000000000000000e+00" itree="448">
      <Node pos="s" depth="0" NCoef="0" IVar="5" Cut="9.5038312673568726e-01" cType="1" res="-9.6716510597616434e-05" rms="4.5195356011390686e-01" purity="4.9831253290176392e-01" nType="0">
        <Node pos="l" depth="1" NCoef="0" IVar="-1" Cut="0.0000000000000000e+00" cType="1" res="1.7956207739189267e-03" rms="4.4300940632820129e-01" purity="6.2257099151611328e-01" nType="-99"/>
        <Node pos="r" depth="1" NCoef="0" IVar="5" Cut="1.6639684438705444e+00" cType="1" res="-4.4475165195763111e-03" rms="4.5266601443290710e-01" purity="4.8522412776947021e-01" nType="0">
          <Node pos="l" depth="2" NCoef="0" IVar="-1" Cut="0.0000000000000000e+00" cType="1" res="1.3991397281643003e-05" rms="4.5471921563148499e-01" purity="5.0756537914276123e-01" nType="-99"/>
          <Node pos="r" depth="2" NCoef="0" IVar="-1" Cut="0.0000000000000000e+00" cType="1" res="-2.2591096349060535e-03" rms="4.3800637125968933e-01" purity="3.4146907925605774e-01" nType="-99"/>
        </Node>
      </Node>
    </BinaryTree>
    <BinaryTree type="DecisionTree" boostWeight="1.0000000000000000e+00" itree="449">
      <Node pos="s" depth="0" NCoef="0" IVar="5" Cut="1.6180120706558228e+00" cType="1" res="7.7456878498196602e-03" rms="4.5344847440719604e-01" purity="5.0538462400436401e-01" nType="0">
        <Node pos="l" depth="1" NCoef="0" IVar="3" Cut="1.3422140502929688e+02" cType="1" res="1.2596665881574154e-02" rms="4.5616710186004639e-01" purity="5.3045487403869629e-01" nType="0">
          <Node pos="l" depth="2" NCoef="0" IVar="-1" Cut="0.0000000000000000e+00" cType="1" res="7.7227031579241157e-04" rms="4.5553675293922424e-01" purity="5.4960817098617554e-01" nType="-99"/>
          <Node pos="r" depth="2" NCoef="0" IVar="-1" Cut="0.0000000000000000e+00" cType="1" res="-5.4728297982364893e-04" rms="4.5923507213592529e-01" purity="4.1733989119529724e-01" nType="-99"/>
        </Node>
        <Node pos="r" depth="1" NCoef="0" IVar="2" Cut="9.2172294616699219e+01" cType="1" res="-1.9739372655749321e-02" rms="4.3670988082885742e-01" purity="3.6333945393562317e-01" nType="0">
          <Node pos="l" depth="2" NCoef="0" IVar="-1" Cut="0.0000000000000000e+00" cType="1" res="-3.0891348142176867e-03" rms="4.3241220712661743e-01" purity="3.1340482831001282e-01" nType="-99"/>
          <Node pos="r" depth="2" NCoef="0" IVar="-1" Cut="0.0000000000000000e+00" cType="1" res="5.2499666344374418e-04" rms="4.4004303216934204e-01" purity="4.2287769913673401e-01" nType="-99"/>
        </Node>
      </Node>
    </BinaryTree>
    <BinaryTree type="DecisionTree" boostWeight="1.0000000000000000e+00" itree="450">
      <Node pos="s" depth="0" NCoef="0" IVar="5" Cut="1.3202946186065674e+00" cType="1" res="4.2775487527251244e-03" rms="4.5158314704895020e-01" purity="5.0283259153366089e-01" nType="0">
        <Node pos="l" depth="1" NCoef="0" IVar="2" Cut="5.8349678039550781e+01" cType="1" res="1.3186586089432240e-02" rms="4.5483273267745972e-01" purity="5.5193686485290527e-01" nType="0">
          <Node pos="l" depth="2" NCoef="0" IVar="-1" Cut="0.0000000000000000e+00" cType="1" res="-5.5375712690874934e-04" rms="4.6977487206459045e-01" purity="4.6582731604576111e-01" nType="-99"/>
          <Node pos="r" depth="2" NCoef="0" IVar="-1" Cut="0.0000000000000000e+00" cType="1" res="9.3061686493456364e-04" rms="4.5022237300872803e-01" purity="5.7660502195358276e-01" nType="-99"/>
        </Node>
        <Node pos="r" depth="1" NCoef="0" IVar="2" Cut="9.2325607299804688e+01" cType="1" res="-8.2556046545505524e-03" rms="4.4667091965675354e-01" purity="4.3375322222709656e-01" nType="0">
          <Node pos="l" depth="2" NCoef="0" IVar="-1" Cut="0.0000000000000000e+00" cType="1" res="-1.0348997311666608e-03" rms="4.4958338141441345e-01" purity="4.0707689523696899e-01" nType="-99"/>
          <Node pos="r" depth="2" NCoef="0" IVar="-1" Cut="0.0000000000000000e+00" cType="1" res="2.9495518538169563e-04" rms="4.4241374731063843e-01" purity="4.6911436319351196e-01" nType="-99"/>
        </Node>
      </Node>
    </BinaryTree>
    <BinaryTree type="DecisionTree" boostWeight="1.0000000000000000e+00" itree="451">
      <Node pos="s" depth="0" NCoef="0" IVar="0" Cut="1.1383348703384399e+00" cType="1" res="-5.2175400778651237e-03" rms="4.5152392983436584e-01" purity="4.8989251255989075e-01" nType="0">
        <Node pos="l" depth="1" NCoef="0" IVar="2" Cut="7.9291336059570312e+01" cType="1" res="9.3976240605115891e-03" rms="4.5125594735145569e-01" purity="5.3993695974349976e-01" nType="0">
          <Node pos="l" depth="2" NCoef="0" IVar="-1" Cut="0.0000000000000000e+00" cType="1" res="-2.0153261721134186e-04" rms="4.6118623018264771e-01" purity="4.7685530781745911e-01" nType="-99"/>
          <Node pos="r" depth="2" NCoef="0" IVar="-1" Cut="0.0000000000000000e+00" cType="1" res="2.0778868347406387e-03" rms="4.1710773110389709e-01" purity="7.3099434375762939e-01" nType="-99"/>
        </Node>
        <Node pos="r" depth="1" NCoef="0" IVar="2" Cut="7.8237007141113281e+01" cType="1" res="-1.4450314454734325e-02" rms="4.5144933462142944e-01" purity="4.5827814936637878e-01" nType="0">
          <Node pos="l" depth="2" NCoef="0" IVar="-1" Cut="0.0000000000000000e+00" cType="1" res="-2.4708695709705353e-03" rms="4.4988700747489929e-01" purity="3.9916655421257019e-01" nType="-99"/>
          <Node pos="r" depth="2" NCoef="0" IVar="-1" Cut="0.0000000000000000e+00" cType="1" res="-2.9192853253334761e-04" rms="4.5157992839813232e-01" purity="4.7719565033912659e-01" nType="-99"/>
        </Node>
      </Node>
    </BinaryTree>
    <BinaryTree type="DecisionTree" boostWeight="1.0000000000000000e+00" itree="452">
      <Node pos="s" depth="0" NCoef="0" IVar="1" Cut="9.2023909091949463e-01" cType="1" res="-1.4494884526357055e-03" rms="4.5122867822647095e-01" purity="4.9485659599304199e-01" nType="0">
        <Node pos="l" depth="1" NCoef="0" IVar="6" Cut="4.3603707885742188e+02" cType="1" res="-3.3879999071359634e-02" rms="4.1478714346885681e-01" purity="2.9059562087059021e-01" nType="0">
          <Node pos="l" depth="2" NCoef="0" IVar="-1" Cut="0.0000000000000000e+00" cType="1" res="-1.1011637980118394e-03" rms="3.9237332344055176e-01" purity="2.4244347214698792e-01" nType="-99"/>
          <Node pos="r" depth="2" NCoef="0" IVar="-1" Cut="0.0000000000000000e+00" cType="1" res="-3.1078897882252932e-03" rms="4.3165883421897888e-01" purity="3.3022770285606384e-01" nType="-99"/>
        </Node>
        <Node pos="r" depth="1" NCoef="0" IVar="3" Cut="1.3078764343261719e+02" cType="1" res="2.8291183989495039e-03" rms="4.5564663410186768e-01" purity="5.2180510759353638e-01" nType="0">
          <Node pos="l" depth="2" NCoef="0" IVar="-1" Cut="0.0000000000000000e+00" cType="1" res="4.4830411206930876e-04" rms="4.5658886432647705e-01" purity="5.4379802942276001e-01" nType="-99"/>
          <Node pos="r" depth="2" NCoef="0" IVar="-1" Cut="0.0000000000000000e+00" cType="1" res="-1.1177837150171399e-03" rms="4.5148387551307678e-01" purity="4.4301253557205200e-01" nType="-99"/>
        </Node>
      </Node>
    </BinaryTree>
    <BinaryTree type="DecisionTree" boostWeight="1.0000000000000000e+00" itree="453">
      <Node pos="s" depth="0" NCoef="0" IVar="5" Cut="1.0483833551406860e+00" cType="1" res="4.7428570687770844e-03" rms="4.5387229323387146e-01" purity="5.0427019596099854e-01" nType="0">
        <Node pos="l" depth="1" NCoef="0" IVar="4" Cut="2.3850524425506592e+00" cType="1" res="2.4413878098130226e-02" rms="4.5746406912803650e-01" purity="5.8404606580734253e-01" nType="0">
          <Node pos="l" depth="2" NCoef="0" IVar="-1" Cut="0.0000000000000000e+00" cType="1" res="4.2868312448263168e-04" rms="4.5545044541358948e-01" purity="6.1886376142501831e-01" nType="-99"/>
          <Node pos="r" depth="2" NCoef="0" IVar="-1" Cut="0.0000000000000000e+00" cType="1" res="3.4082012716680765e-03" rms="4.6062523126602173e-01" purity="4.8200741410255432e-01" nType="-99"/>
        </Node>
        <Node pos="r" depth="1" NCoef="0" IVar="7" Cut="7.1402043104171753e-01" cType="1" res="-9.7927788738161325e-04" rms="4.5266166329383850e-01" purity="4.8106402158737183e-01" nType="0">
          <Node pos="l" depth="2" NCoef="0" IVar="-1" Cut="0.0000000000000000e+00" cType="1" res="-5.8141606859862804e-04" rms="4.4870889186859131e-01" purity="4.4237509369850159e-01" nType="-99"/>
          <Node pos="r" depth="2" NCoef="0" IVar="-1" Cut="0.0000000000000000e+00" cType="1" res="6.4587389351800084e-04" rms="4.5826384425163269e-01" purity="5.4030025005340576e-01" nType="-99"/>
        </Node>
      </Node>
    </BinaryTree>
    <BinaryTree type="DecisionTree" boostWeight="1.0000000000000000e+00" itree="454">
      <Node pos="s" depth="0" NCoef="0" IVar="3" Cut="1.1153086090087891e+02" cType="1" res="3.1743422150611877e-03" rms="4.4886258244514465e-01" purity="5.0340044498443604e-01" nType="0">
        <Node pos="l" depth="1" NCoef="0" IVar="3" Cut="1.0024755096435547e+02" cType="1" res="-2.4780461564660072e-02" rms="4.4663095474243164e-01" purity="4.0678596496582031e-01" nType="0">
          <Node pos="l" depth="2" NCoef="0" IVar="-1" Cut="0.0000000000000000e+00" cType="1" res="-4.4064223766326904e-03" rms="4.2912605404853821e-01" purity="3.0989485979080200e-01" nType="-99"/>
          <Node pos="r" depth="2" NCoef="0" IVar="-1" Cut="0.0000000000000000e+00" cType="1" res="-2.1993699192535132e-04" rms="4.5512512326240540e-01" purity="4.6255114674568176e-01" nType="-99"/>
        </Node>
        <Node pos="r" depth="1" NCoef="0" IVar="0" Cut="1.3934445381164551e+00" cType="1" res="8.2749295979738235e-03" rms="4.4908088445663452e-01" purity="5.2102857828140259e-01" nType="0">
          <Node pos="l" depth="2" NCoef="0" IVar="-1" Cut="0.0000000000000000e+00" cType="1" res="8.1383070209994912e-04" rms="4.4449621438980103e-01" purity="5.8099609613418579e-01" nType="-99"/>
          <Node pos="r" depth="2" NCoef="0" IVar="-1" Cut="0.0000000000000000e+00" cType="1" res="-1.5940530283842236e-04" rms="4.5411819219589233e-01" purity="4.5100262761116028e-01" nType="-99"/>
        </Node>
      </Node>
    </BinaryTree>
    <BinaryTree type="DecisionTree" boostWeight="1.0000000000000000e+00" itree="455">
      <Node pos="s" depth="0" NCoef="0" IVar="0" Cut="2.3311402797698975e+00" cType="1" res="1.3821960892528296e-03" rms="4.5332172513008118e-01" purity="4.9819007515907288e-01" nType="0">
        <Node pos="l" depth="1" NCoef="0" IVar="2" Cut="9.2071945190429688e+01" cType="1" res="-1.4898903900757432e-03" rms="4.5510354638099670e-01" purity="5.1447027921676636e-01" nType="0">
          <Node pos="l" depth="2" NCoef="0" IVar="-1" Cut="0.0000000000000000e+00" cType="1" res="-6.2881759367883205e-04" rms="4.6001291275024414e-01" purity="4.7086164355278015e-01" nType="-99"/>
          <Node pos="r" depth="2" NCoef="0" IVar="-1" Cut="0.0000000000000000e+00" cType="1" res="5.9584237169474363e-04" rms="4.4824272394180298e-01" purity="5.7126343250274658e-01" nType="-99"/>
        </Node>
        <Node pos="r" depth="1" NCoef="0" IVar="-1" Cut="0.0000000000000000e+00" cType="1" res="3.2557260710746050e-03" rms="4.2815461754798889e-01" purity="2.8972753882408142e-01" nType="-99"/>
      </Node>
    </BinaryTree>
    <BinaryTree type="DecisionTree" boostWeight="1.0000000000000000e+00" itree="456">
      <Node pos="s" depth="0" NCoef="0" IVar="1" Cut="9.4644147157669067e-01" cType="1" res="2.4399757385253906e-03" rms="4.5014619827270508e-01" purity="5.0278520584106445e-01" nType="0">
        <Node pos="l" depth="1" NCoef="0" IVar="4" Cut="2.6331856250762939e+00" cType="1" res="-1.4363346621394157e-02" rms="4.4374665617942810e-01" purity="3.6255246400833130e-01" nType="0">
          <Node pos="l" depth="2" NCoef="0" IVar="-1" Cut="0.0000000000000000e+00" cType="1" res="-1.2180870398879051e-03" rms="4.5306581258773804e-01" purity="3.9139935374259949e-01" nType="-99"/>
          <Node pos="r" depth="2" NCoef="0" IVar="-1" Cut="0.0000000000000000e+00" cType="1" res="2.8108230326324701e-03" rms="3.8947236537933350e-01" purity="2.1316023170948029e-01" nType="-99"/>
        </Node>
        <Node pos="r" depth="1" NCoef="0" IVar="1" Cut="9.8936760425567627e-01" cType="1" res="1.2033898383378983e-02" rms="4.5348039269447327e-01" purity="5.8285158872604370e-01" nType="0">
          <Node pos="l" depth="2" NCoef="0" IVar="-1" Cut="0.0000000000000000e+00" cType="1" res="3.2230975921265781e-04" rms="4.5796468853950500e-01" purity="5.6255978345870972e-01" nType="-99"/>
          <Node pos="r" depth="2" NCoef="0" IVar="-1" Cut="0.0000000000000000e+00" cType="1" res="2.0480172242969275e-03" rms="4.1895267367362976e-01" purity="7.2499841451644897e-01" nType="-99"/>
        </Node>
      </Node>
    </BinaryTree>
    <BinaryTree type="DecisionTree" boostWeight="1.0000000000000000e+00" itree="457">
      <Node pos="s" depth="0" NCoef="0" IVar="3" Cut="1.4241741943359375e+02" cType="1" res="4.4661718420684338e-03" rms="4.5021104812622070e-01" purity="5.0394362211227417e-01" nType="0">
        <Node pos="l" depth="1" NCoef="0" IVar="3" Cut="1.1017443084716797e+02" cType="1" res="7.0410333573818207e-03" rms="4.5151731371879578e-01" purity="5.1751548051834106e-01" nType="0">
          <Node pos="l" depth="2" NCoef="0" IVar="-1" Cut="0.0000000000000000e+00" cType="1" res="-1.1388993589207530e-03" rms="4.4853845238685608e-01" purity="4.1149523854255676e-01" nType="-99"/>
          <Node pos="r" depth="2" NCoef="0" IVar="-1" Cut="0.0000000000000000e+00" cType="1" res="5.6066905381157994e-04" rms="4.5187622308731079e-01" purity="5.3606796264648438e-01" nType="-99"/>
        </Node>
        <Node pos="r" depth="1" NCoef="0" IVar="-1" Cut="0.0000000000000000e+00" cType="1" res="-2.7964983601123095e-03" rms="4.2710262537002563e-01" purity="2.9045698046684265e-01" nType="-99"/>
      </Node>
    </BinaryTree>
    <BinaryTree type="DecisionTree" boostWeight="1.0000000000000000e+00" itree="458">
      <Node pos="s" depth="0" NCoef="0" IVar="0" Cut="9.8185783624649048e-01" cType="1" res="4.1021932847797871e-03" rms="4.4969797134399414e-01" purity="5.0293451547622681e-01" nType="0">
        <Node pos="l" depth="1" NCoef="0" IVar="2" Cut="4.4028366088867188e+01" cType="1" res="2.3053690791130066e-02" rms="4.4779101014137268e-01" purity="5.4352259635925293e-01" nType="0">
          <Node pos="l" depth="2" NCoef="0" IVar="-1" Cut="0.0000000000000000e+00" cType="1" res="-1.3958510244265199e-03" rms="4.5228075981140137e-01" purity="3.7460798025131226e-01" nType="-99"/>
          <Node pos="r" depth="2" NCoef="0" IVar="-1" Cut="0.0000000000000000e+00" cType="1" res="2.2166862618178129e-03" rms="4.4240078330039978e-01" purity="6.4830178022384644e-01" nType="-99"/>
        </Node>
        <Node pos="r" depth="1" NCoef="0" IVar="1" Cut="9.3268430233001709e-01" cType="1" res="-3.8252526428550482e-03" rms="4.5025667548179626e-01" purity="4.8595643043518066e-01" nType="0">
          <Node pos="l" depth="2" NCoef="0" IVar="-1" Cut="0.0000000000000000e+00" cType="1" res="-1.6890574479475617e-03" rms="4.3003812432289124e-01" purity="3.1379407644271851e-01" nType="-99"/>
          <Node pos="r" depth="2" NCoef="0" IVar="-1" Cut="0.0000000000000000e+00" cType="1" res="1.1149694182677194e-04" rms="4.5558589696884155e-01" purity="5.3428483009338379e-01" nType="-99"/>
        </Node>
      </Node>
    </BinaryTree>
    <BinaryTree type="DecisionTree" boostWeight="1.0000000000000000e+00" itree="459">
      <Node pos="s" depth="0" NCoef="0" IVar="3" Cut="1.1174939727783203e+02" cType="1" res="1.4363951049745083e-03" rms="4.5228287577629089e-01" purity="5.0048804283142090e-01" nType="0">
        <Node pos="l" depth="1" NCoef="0" IVar="4" Cut="2.0948853492736816e+00" cType="1" res="-2.4943035095930099e-02" rms="4.5162174105644226e-01" purity="4.0640670061111450e-01" nType="0">
          <Node pos="l" depth="2" NCoef="0" IVar="-1" Cut="0.0000000000000000e+00" cType="1" res="-3.1254943460226059e-03" rms="4.6393156051635742e-01" purity="4.4584077596664429e-01" nType="-99"/>
          <Node pos="r" depth="2" NCoef="0" IVar="-1" Cut="0.0000000000000000e+00" cType="1" res="-2.5658422964625061e-04" rms="4.4218268990516663e-01" purity="3.8069695234298706e-01" nType="-99"/>
        </Node>
        <Node pos="r" depth="1" NCoef="0" IVar="5" Cut="9.5720553398132324e-01" cType="1" res="6.2893708236515522e-03" rms="4.5223686099052429e-01" purity="5.1779597997665405e-01" nType="0">
          <Node pos="l" depth="2" NCoef="0" IVar="-1" Cut="0.0000000000000000e+00" cType="1" res="1.5878786798566580e-03" rms="4.5025181770324707e-01" purity="6.2206333875656128e-01" nType="-99"/>
          <Node pos="r" depth="2" NCoef="0" IVar="-1" Cut="0.0000000000000000e+00" cType="1" res="1.4643046597484499e-04" rms="4.5233812928199768e-01" purity="5.0596296787261963e-01" nType="-99"/>
        </Node>
      </Node>
    </BinaryTree>
    <BinaryTree type="DecisionTree" boostWeight="1.0000000000000000e+00" itree="460">
      <Node pos="s" depth="0" NCoef="0" IVar="7" Cut="-9.9948346614837646e-01" cType="1" res="5.9568448923528194e-03" rms="4.5257437229156494e-01" purity="5.0441259145736694e-01" nType="0">
        <Node pos="l" depth="1" NCoef="0" IVar="0" Cut="1.5637708902359009e+00" cType="1" res="2.6601977646350861e-02" rms="4.6009093523025513e-01" purity="6.0060113668441772e-01" nType="0">
          <Node pos="l" depth="2" NCoef="0" IVar="-1" Cut="0.0000000000000000e+00" cType="1" res="1.6687940806150436e-03" rms="4.5478698611259460e-01" purity="6.3073778152465820e-01" nType="-99"/>
          <Node pos="r" depth="2" NCoef="0" IVar="-1" Cut="0.0000000000000000e+00" cType="1" res="-3.4536130260676146e-04" rms="4.7269335389137268e-01" purity="5.1795196533203125e-01" nType="-99"/>
        </Node>
        <Node pos="r" depth="1" NCoef="0" IVar="7" Cut="7.5298613309860229e-01" cType="1" res="-2.2283666767179966e-03" rms="4.4929692149162292e-01" purity="4.6627649664878845e-01" nType="0">
          <Node pos="l" depth="2" NCoef="0" IVar="-1" Cut="0.0000000000000000e+00" cType="1" res="-9.9033722653985023e-04" rms="4.4129374623298645e-01" purity="3.6153340339660645e-01" nType="-99"/>
          <Node pos="r" depth="2" NCoef="0" IVar="-1" Cut="0.0000000000000000e+00" cType="1" res="4.5045182923786342e-04" rms="4.5590427517890930e-01" purity="5.5860936641693115e-01" nType="-99"/>
        </Node>
      </Node>
    </BinaryTree>
    <BinaryTree type="DecisionTree" boostWeight="1.0000000000000000e+00" itree="461">
      <Node pos="s" depth="0" NCoef="0" IVar="1" Cut="9.8583811521530151e-01" cType="1" res="-2.7130960952490568e-03" rms="4.4964045286178589e-01" purity="4.9742245674133301e-01" nType="0">
        <Node pos="l" depth="1" NCoef="0" IVar="2" Cut="9.3114143371582031e+01" cType="1" res="-8.5147591307759285e-03" rms="4.5231428742408752e-01" purity="4.6949040889739990e-01" nType="0">
          <Node pos="l" depth="2" NCoef="0" IVar="-1" Cut="0.0000000000000000e+00" cType="1" res="-1.2942764442414045e-03" rms="4.5422342419624329e-01" purity="4.3782538175582886e-01" nType="-99"/>
          <Node pos="r" depth="2" NCoef="0" IVar="-1" Cut="0.0000000000000000e+00" cType="1" res="5.1730504492297769e-04" rms="4.4936913251876831e-01" purity="5.0636416673660278e-01" nType="-99"/>
        </Node>
        <Node pos="r" depth="1" NCoef="0" IVar="-1" Cut="0.0000000000000000e+00" cType="1" res="1.7887636786326766e-03" rms="4.2599225044250488e-01" purity="7.1139156818389893e-01" nType="-99"/>
      </Node>
    </BinaryTree>
    <BinaryTree type="DecisionTree" boostWeight="1.0000000000000000e+00" itree="462">
      <Node pos="s" depth="0" NCoef="0" IVar="7" Cut="1.4278025627136230e+00" cType="1" res="1.8976562423631549e-03" rms="4.5158299803733826e-01" purity="5.0139415264129639e-01" nType="0">
        <Node pos="l" depth="1" NCoef="0" IVar="7" Cut="-3.4413182735443115e-01" cType="1" res="-1.9762185402214527e-03" rms="4.5319801568984985e-01" purity="4.8680478334426880e-01" nType="0">
          <Node pos="l" depth="2" NCoef="0" IVar="-1" Cut="0.0000000000000000e+00" cType="1" res="4.1648116894066334e-04" rms="4.5745274424552917e-01" purity="5.1077306270599365e-01" nType="-99"/>
          <Node pos="r" depth="2" NCoef="0" IVar="-1" Cut="0.0000000000000000e+00" cType="1" res="-6.8035116419196129e-04" rms="4.4852057099342346e-01" purity="4.6210923790931702e-01" nType="-99"/>
        </Node>
        <Node pos="r" depth="1" NCoef="0" IVar="-1" Cut="0.0000000000000000e+00" cType="1" res="2.0102572161704302e-03" rms="4.2966166138648987e-01" purity="6.7202240228652954e-01" nType="-99"/>
      </Node>
    </BinaryTree>
    <BinaryTree type="DecisionTree" boostWeight="1.0000000000000000e+00" itree="463">
      <Node pos="s" depth="0" NCoef="0" IVar="1" Cut="9.8582071065902710e-01" cType="1" res="1.4059998793527484e-03" rms="4.5190459489822388e-01" purity="4.9900677800178528e-01" nType="0">
        <Node pos="l" depth="1" NCoef="0" IVar="1" Cut="9.0829133987426758e-01" cType="1" res="-2.1707150153815746e-03" rms="4.5421203970909119e-01" purity="4.7334775328636169e-01" nType="0">
          <Node pos="l" depth="2" NCoef="0" IVar="-1" Cut="0.0000000000000000e+00" cType="1" res="-3.9389464072883129e-03" rms="4.0651407837867737e-01" purity="2.5417736172676086e-01" nType="-99"/>
          <Node pos="r" depth="2" NCoef="0" IVar="-1" Cut="0.0000000000000000e+00" cType="1" res="5.2345632866490632e-05" rms="4.5688581466674805e-01" purity="4.8727098107337952e-01" nType="-99"/>
        </Node>
        <Node pos="r" depth="1" NCoef="0" IVar="-1" Cut="0.0000000000000000e+00" cType="1" res="1.3052636059001088e-03" rms="4.3218648433685303e-01" purity="7.0188778638839722e-01" nType="-99"/>
      </Node>
    </BinaryTree>
    <BinaryTree type="DecisionTree" boostWeight="1.0000000000000000e+00" itree="464">
      <Node pos="s" depth="0" NCoef="0" IVar="1" Cut="9.4012928009033203e-01" cType="1" res="2.9530725441873074e-04" rms="4.5000740885734558e-01" purity="4.9874913692474365e-01" nType="0">
        <Node pos="l" depth="1" NCoef="0" IVar="1" Cut="9.2468303442001343e-01" cType="1" res="-1.6617264598608017e-02" rms="4.4032120704650879e-01" purity="3.4396257996559143e-01" nType="0">
          <Node pos="l" depth="2" NCoef="0" IVar="-1" Cut="0.0000000000000000e+00" cType="1" res="-2.1028965711593628e-03" rms="4.2797365784645081e-01" purity="3.0117285251617432e-01" nType="-99"/>
          <Node pos="r" depth="2" NCoef="0" IVar="-1" Cut="0.0000000000000000e+00" cType="1" res="-1.3424757344182581e-04" rms="4.5218679308891296e-01" purity="3.8783711194992065e-01" nType="-99"/>
        </Node>
        <Node pos="r" depth="1" NCoef="0" IVar="2" Cut="1.6940582275390625e+02" cType="1" res="7.1068382821977139e-03" rms="4.5367205142974854e-01" purity="5.6108933687210083e-01" nType="0">
          <Node pos="l" depth="2" NCoef="0" IVar="-1" Cut="0.0000000000000000e+00" cType="1" res="5.1930389599874616e-04" rms="4.5344263315200806e-01" purity="5.7718312740325928e-01" nType="-99"/>
          <Node pos="r" depth="2" NCoef="0" IVar="-1" Cut="0.0000000000000000e+00" cType="1" res="-1.6902964562177658e-03" rms="4.5400968194007874e-01" purity="4.2046305537223816e-01" nType="-99"/>
        </Node>
      </Node>
    </BinaryTree>
    <BinaryTree type="DecisionTree" boostWeight="1.0000000000000000e+00" itree="465">
      <Node pos="s" depth="0" NCoef="0" IVar="1" Cut="9.8597836494445801e-01" cType="1" res="2.2622565738856792e-03" rms="4.5249477028846741e-01" purity="5.0077456235885620e-01" nType="0">
        <Node pos="l" depth="1" NCoef="0" IVar="7" Cut="8.5678023099899292e-01" cType="1" res="-2.0313274580985308e-03" rms="4.5581743121147156e-01" purity="4.7368195652961731e-01" nType="0">
          <Node pos="l" depth="2" NCoef="0" IVar="-1" Cut="0.0000000000000000e+00" cType="1" res="-5.2947510266676545e-04" rms="4.5331642031669617e-01" purity="4.3211418390274048e-01" nType="-99"/>
          <Node pos="r" depth="2" NCoef="0" IVar="-1" Cut="0.0000000000000000e+00" cType="1" res="5.6091212900355458e-04" rms="4.6020364761352539e-01" purity="5.5272620916366577e-01" nType="-99"/>
        </Node>
        <Node pos="r" depth="1" NCoef="0" IVar="-1" Cut="0.0000000000000000e+00" cType="1" res="1.5404166188091040e-03" rms="4.2425265908241272e-01" purity="7.1173232793807983e-01" nType="-99"/>
      </Node>
    </BinaryTree>
    <BinaryTree type="DecisionTree" boostWeight="1.0000000000000000e+00" itree="466">
      <Node pos="s" depth="0" NCoef="0" IVar="8" Cut="4.8242190551757812e+02" cType="1" res="5.7644401676952839e-03" rms="4.5374614000320435e-01" purity="5.0206625461578369e-01" nType="0">
        <Node pos="l" depth="1" NCoef="0" IVar="0" Cut="8.2344114780426025e-01" cType="1" res="9.6663208678364754e-03" rms="4.5606428384780884e-01" purity="5.1673609018325806e-01" nType="0">
          <Node pos="l" depth="2" NCoef="0" IVar="-1" Cut="0.0000000000000000e+00" cType="1" res="1.4686768408864737e-03" rms="4.5194959640502930e-01" purity="5.3575819730758667e-01" nType="-99"/>
          <Node pos="r" depth="2" NCoef="0" IVar="-1" Cut="0.0000000000000000e+00" cType="1" res="1.9013110431842506e-04" rms="4.5697599649429321e-01" purity="5.1166027784347534e-01" nType="-99"/>
        </Node>
        <Node pos="r" depth="1" NCoef="0" IVar="-1" Cut="0.0000000000000000e+00" cType="1" res="-2.2821463644504547e-03" rms="4.2681452631950378e-01" purity="3.4964630007743835e-01" nType="-99"/>
      </Node>
    </BinaryTree>
    <BinaryTree type="DecisionTree" boostWeight="1.0000000000000000e+00" itree="467">
      <Node pos="s" depth="0" NCoef="0" IVar="7" Cut="9.9958986043930054e-01" cType="1" res="6.5193732734769583e-04" rms="4.5061323046684265e-01" purity="4.9957427382469177e-01" nType="0">
        <Node pos="l" depth="1" NCoef="0" IVar="0" Cut="9.8201936483383179e-01" cType="1" res="-6.5919803455471992e-03" rms="4.4914758205413818e-01" purity="4.5731478929519653e-01" nType="0">
          <Node pos="l" depth="2" NCoef="0" IVar="-1" Cut="0.0000000000000000e+00" cType="1" res="6.8651302717626095e-04" rms="4.4714540243148804e-01" purity="5.1780933141708374e-01" nType="-99"/>
          <Node pos="r" depth="2" NCoef="0" IVar="-1" Cut="0.0000000000000000e+00" cType="1" res="-8.1714079715311527e-04" rms="4.4965663552284241e-01" purity="4.3415692448616028e-01" nType="-99"/>
        </Node>
        <Node pos="r" depth="1" NCoef="0" IVar="8" Cut="1.3456739807128906e+02" cType="1" res="1.8063331022858620e-02" rms="4.5364379882812500e-01" purity="6.0114872455596924e-01" nType="0">
          <Node pos="l" depth="2" NCoef="0" IVar="-1" Cut="0.0000000000000000e+00" cType="1" res="-1.0840799659490585e-03" rms="4.6372669935226440e-01" purity="5.1186788082122803e-01" nType="-99"/>
          <Node pos="r" depth="2" NCoef="0" IVar="-1" Cut="0.0000000000000000e+00" cType="1" res="1.2142315972596407e-03" rms="4.5071107149124146e-01" purity="6.2221950292587280e-01" nType="-99"/>
        </Node>
      </Node>
    </BinaryTree>
    <BinaryTree type="DecisionTree" boostWeight="1.0000000000000000e+00" itree="468">
      <Node pos="s" depth="0" NCoef="0" IVar="5" Cut="1.6923249959945679e+00" cType="1" res="5.6295283138751984e-04" rms="4.5035126805305481e-01" purity="4.9867668747901917e-01" nType="0">
        <Node pos="l" depth="1" NCoef="0" IVar="6" Cut="5.1205493164062500e+02" cType="1" res="4.0168957784771919e-03" rms="4.5217853784561157e-01" purity="5.1860445737838745e-01" nType="0">
          <Node pos="l" depth="2" NCoef="0" IVar="-1" Cut="0.0000000000000000e+00" cType="1" res="-2.3199823044706136e-04" rms="4.5300835371017456e-01" purity="4.5941096544265747e-01" nType="-99"/>
          <Node pos="r" depth="2" NCoef="0" IVar="-1" Cut="0.0000000000000000e+00" cType="1" res="7.0639367913827300e-04" rms="4.5076349377632141e-01" purity="6.0101169347763062e-01" nType="-99"/>
        </Node>
        <Node pos="r" depth="1" NCoef="0" IVar="0" Cut="1.2605220079421997e+00" cType="1" res="-2.8090495616197586e-02" rms="4.3383747339248657e-01" purity="3.3335894346237183e-01" nType="0">
          <Node pos="l" depth="2" NCoef="0" IVar="-1" Cut="0.0000000000000000e+00" cType="1" res="-2.8609298169612885e-03" rms="4.3949696421623230e-01" purity="3.7183839082717896e-01" nType="-99"/>
          <Node pos="r" depth="2" NCoef="0" IVar="-1" Cut="0.0000000000000000e+00" cType="1" res="-7.3018658440560102e-04" rms="4.2734867334365845e-01" purity="2.9536888003349304e-01" nType="-99"/>
        </Node>
      </Node>
    </BinaryTree>
    <BinaryTree type="DecisionTree" boostWeight="1.0000000000000000e+00" itree="469">
      <Node pos="s" depth="0" NCoef="0" IVar="3" Cut="1.0796383666992188e+02" cType="1" res="3.4767130273394287e-04" rms="4.5287123322486877e-01" purity="4.9825972318649292e-01" nType="0">
        <Node pos="l" depth="1" NCoef="0" IVar="3" Cut="1.0034526824951172e+02" cType="1" res="-3.5779658704996109e-02" rms="4.4493570923805237e-01" purity="3.7223446369171143e-01" nType="0">
          <Node pos="l" depth="2" NCoef="0" IVar="-1" Cut="0.0000000000000000e+00" cType="1" res="-4.7743939794600010e-03" rms="4.2769375443458557e-01" purity="2.9898229241371155e-01" nType="-99"/>
          <Node pos="r" depth="2" NCoef="0" IVar="-1" Cut="0.0000000000000000e+00" cType="1" res="-3.6370477755554020e-04" rms="4.5956021547317505e-01" purity="4.4497114419937134e-01" nType="-99"/>
        </Node>
        <Node pos="r" depth="1" NCoef="0" IVar="0" Cut="1.0886578559875488e+00" cType="1" res="4.7084232792258263e-03" rms="4.5362514257431030e-01" purity="5.1347166299819946e-01" nType="0">
          <Node pos="l" depth="2" NCoef="0" IVar="-1" Cut="0.0000000000000000e+00" cType="1" res="1.0165178682655096e-03" rms="4.4929203391075134e-01" purity="5.6407457590103149e-01" nType="-99"/>
          <Node pos="r" depth="2" NCoef="0" IVar="-1" Cut="0.0000000000000000e+00" cType="1" res="-2.2029440151527524e-04" rms="4.5563286542892456e-01" purity="4.8683685064315796e-01" nType="-99"/>
        </Node>
      </Node>
    </BinaryTree>
    <BinaryTree type="DecisionTree" boostWeight="1.0000000000000000e+00" itree="470">
      <Node pos="s" depth="0" NCoef="0" IVar="2" Cut="5.9469474792480469e+01" cType="1" res="3.6640386097133160e-03" rms="4.5181515812873840e-01" purity="5.0229656696319580e-01" nType="0">
        <Node pos="l" depth="1" NCoef="0" IVar="2" Cut="3.5117450714111328e+01" cType="1" res="-1.2987644411623478e-02" rms="4.5857271552085876e-01" purity="4.2296573519706726e-01" nType="0">
          <Node pos="l" depth="2" NCoef="0" IVar="-1" Cut="0.0000000000000000e+00" cType="1" res="-4.3030944652855396e-03" rms="4.3835017085075378e-01" purity="2.9985329508781433e-01" nType="-99"/>
          <Node pos="r" depth="2" NCoef="0" IVar="-1" Cut="0.0000000000000000e+00" cType="1" res="2.1006207680329680e-04" rms="4.6399495005607605e-01" purity="4.6478557586669922e-01" nType="-99"/>
        </Node>
        <Node pos="r" depth="1" NCoef="0" IVar="6" Cut="3.4283938598632812e+02" cType="1" res="9.8179765045642853e-03" rms="4.4913583993911743e-01" purity="5.3161466121673584e-01" nType="0">
          <Node pos="l" depth="2" NCoef="0" IVar="-1" Cut="0.0000000000000000e+00" cType="1" res="-2.0461129024624825e-03" rms="4.4234019517898560e-01" purity="3.2732537388801575e-01" nType="-99"/>
          <Node pos="r" depth="2" NCoef="0" IVar="-1" Cut="0.0000000000000000e+00" cType="1" res="7.2115403600037098e-04" rms="4.4981944561004639e-01" purity="5.6047093868255615e-01" nType="-99"/>
        </Node>
      </Node>
    </BinaryTree>
    <BinaryTree type="DecisionTree" boostWeight="1.0000000000000000e+00" itree="471">
      <Node pos="s" depth="0" NCoef="0" IVar="7" Cut="-1.1422764062881470e+00" cType="1" res="3.5980455577373505e-03" rms="4.5059135556221008e-01" purity="5.0106763839721680e-01" nType="0">
        <Node pos="l" depth="1" NCoef="0" IVar="8" Cut="1.4735859680175781e+02" cType="1" res="2.5975331664085388e-02" rms="4.6208375692367554e-01" purity="6.1287623643875122e-01" nType="0">
          <Node pos="l" depth="2" NCoef="0" IVar="-1" Cut="0.0000000000000000e+00" cType="1" res="2.5120088830590248e-03" rms="4.8196342587471008e-01" purity="6.0005956888198853e-01" nType="-99"/>
          <Node pos="r" depth="2" NCoef="0" IVar="-1" Cut="0.0000000000000000e+00" cType="1" res="6.1680062208324671e-04" rms="4.5360976457595825e-01" purity="6.1781173944473267e-01" nType="-99"/>
        </Node>
        <Node pos="r" depth="1" NCoef="0" IVar="4" Cut="1.9145334959030151e+00" cType="1" res="-2.5887812953442335e-03" rms="4.4716429710388184e-01" purity="4.7015500068664551e-01" nType="0">
          <Node pos="l" depth="2" NCoef="0" IVar="-1" Cut="0.0000000000000000e+00" cType="1" res="1.4201387530192733e-03" rms="4.4932946562767029e-01" purity="5.9877765178680420e-01" nType="-99"/>
          <Node pos="r" depth="2" NCoef="0" IVar="-1" Cut="0.0000000000000000e+00" cType="1" res="-4.2964509339071810e-04" rms="4.4660255312919617e-01" purity="4.5092582702636719e-01" nType="-99"/>
        </Node>
      </Node>
    </BinaryTree>
    <BinaryTree type="DecisionTree" boostWeight="1.0000000000000000e+00" itree="472">
      <Node pos="s" depth="0" NCoef="0" IVar="7" Cut="7.1398317813873291e-01" cType="1" res="8.0633041216060519e-04" rms="4.4925910234451294e-01" purity="5.0058019161224365e-01" nType="0">
        <Node pos="l" depth="1" NCoef="0" IVar="7" Cut="1.9472070038318634e-01" cType="1" res="-9.1429809108376503e-03" rms="4.4522139430046082e-01" purity="4.6196198463439941e-01" nType="0">
          <Node pos="l" depth="2" NCoef="0" IVar="-1" Cut="0.0000000000000000e+00" cType="1" res="-1.8099455337505788e-04" rms="4.4856894016265869e-01" purity="4.8834428191184998e-01" nType="-99"/>
          <Node pos="r" depth="2" NCoef="0" IVar="-1" Cut="0.0000000000000000e+00" cType="1" res="-3.2451692968606949e-03" rms="4.2230752110481262e-01" purity="2.9908007383346558e-01" nType="-99"/>
        </Node>
        <Node pos="r" depth="1" NCoef="0" IVar="3" Cut="1.3173039245605469e+02" cType="1" res="1.5587793663144112e-02" rms="4.5478999614715576e-01" purity="5.5795443058013916e-01" nType="0">
          <Node pos="l" depth="2" NCoef="0" IVar="-1" Cut="0.0000000000000000e+00" cType="1" res="9.8615523893386126e-04" rms="4.5487856864929199e-01" purity="5.7887142896652222e-01" nType="-99"/>
          <Node pos="r" depth="2" NCoef="0" IVar="-1" Cut="0.0000000000000000e+00" cType="1" res="-5.2329135360196233e-04" rms="4.5353731513023376e-01" purity="4.7160890698432922e-01" nType="-99"/>
        </Node>
      </Node>
    </BinaryTree>
    <BinaryTree type="DecisionTree" boostWeight="1.0000000000000000e+00" itree="473">
      <Node pos="s" depth="0" NCoef="0" IVar="4" Cut="2.4423973560333252e+00" cType="1" res="9.5011908560991287e-03" rms="4.5329236984252930e-01" purity="5.0709271430969238e-01" nType="0">
        <Node pos="l" depth="1" NCoef="0" IVar="4" Cut="2.2903981208801270e+00" cType="1" res="3.9234454743564129e-03" rms="4.5765277743339539e-01" purity="5.6641769409179688e-01" nType="0">
          <Node pos="l" depth="2" NCoef="0" IVar="-1" Cut="0.0000000000000000e+00" cType="1" res="6.5427145455032587e-04" rms="4.5687499642372131e-01" purity="5.9869956970214844e-01" nType="-99"/>
          <Node pos="r" depth="2" NCoef="0" IVar="-1" Cut="0.0000000000000000e+00" cType="1" res="-2.0024983678013086e-03" rms="4.5826619863510132e-01" purity="4.4184491038322449e-01" nType="-99"/>
        </Node>
        <Node pos="r" depth="1" NCoef="0" IVar="2" Cut="8.7717849731445312e+01" cType="1" res="2.4881584569811821e-02" rms="4.4067993760108948e-01" purity="3.4350663423538208e-01" nType="0">
          <Node pos="l" depth="2" NCoef="0" IVar="-1" Cut="0.0000000000000000e+00" cType="1" res="-1.7017877325997688e-05" rms="4.3782532215118408e-01" purity="2.9605561494827271e-01" nType="-99"/>
          <Node pos="r" depth="2" NCoef="0" IVar="-1" Cut="0.0000000000000000e+00" cType="1" res="2.5593936443328857e-03" rms="4.4167500734329224e-01" purity="3.7107536196708679e-01" nType="-99"/>
        </Node>
      </Node>
    </BinaryTree>
    <BinaryTree type="DecisionTree" boostWeight="1.0000000000000000e+00" itree="474">
      <Node pos="s" depth="0" NCoef="0" IVar="3" Cut="1.4461666870117188e+02" cType="1" res="3.9828917942941189e-03" rms="4.5032250881195068e-01" purity="5.0315332412719727e-01" nType="0">
        <Node pos="l" depth="1" NCoef="0" IVar="6" Cut="8.1896081542968750e+02" cType="1" res="6.8268151953816414e-03" rms="4.5179218053817749e-01" purity="5.1559507846832275e-01" nType="0">
          <Node pos="l" depth="2" NCoef="0" IVar="-1" Cut="0.0000000000000000e+00" cType="1" res="1.2494820111896843e-04" rms="4.5219162106513977e-01" purity="5.0156551599502563e-01" nType="-99"/>
          <Node pos="r" depth="2" NCoef="0" IVar="-1" Cut="0.0000000000000000e+00" cType="1" res="1.7727339873090386e-03" rms="4.4721478223800659e-01" purity="6.2494504451751709e-01" nType="-99"/>
        </Node>
        <Node pos="r" depth="1" NCoef="0" IVar="-1" Cut="0.0000000000000000e+00" cType="1" res="-3.9220070466399193e-03" rms="4.1844436526298523e-01" purity="2.7108433842658997e-01" nType="-99"/>
      </Node>
    </BinaryTree>
    <BinaryTree type="DecisionTree" boostWeight="1.0000000000000000e+00" itree="475">
      <Node pos="s" depth="0" NCoef="0" IVar="2" Cut="5.7335525512695312e+01" cType="1" res="-4.2135146213695407e-04" rms="4.5099553465843201e-01" purity="4.9809795618057251e-01" nType="0">
        <Node pos="l" depth="1" NCoef="0" IVar="7" Cut="-9.9942070245742798e-01" cType="1" res="-2.1245127543807030e-02" rms="4.5793655514717102e-01" purity="4.0774372220039368e-01" nType="0">
          <Node pos="l" depth="2" NCoef="0" IVar="-1" Cut="0.0000000000000000e+00" cType="1" res="7.7306648017838597e-04" rms="4.7563993930816650e-01" purity="5.0129479169845581e-01" nType="-99"/>
          <Node pos="r" depth="2" NCoef="0" IVar="-1" Cut="0.0000000000000000e+00" cType="1" res="-2.3078136146068573e-03" rms="4.4866526126861572e-01" purity="3.6543899774551392e-01" nType="-99"/>
        </Node>
        <Node pos="r" depth="1" NCoef="0" IVar="0" Cut="1.1381822824478149e+00" cType="1" res="6.4914473332464695e-03" rms="4.4845390319824219e-01" purity="5.2809256315231323e-01" nType="0">
          <Node pos="l" depth="2" NCoef="0" IVar="-1" Cut="0.0000000000000000e+00" cType="1" res="1.2857181718572974e-03" rms="4.3578183650970459e-01" purity="6.7088818550109863e-01" nType="-99"/>
          <Node pos="r" depth="2" NCoef="0" IVar="-1" Cut="0.0000000000000000e+00" cType="1" res="-4.5007072912994772e-05" rms="4.5210760831832886e-01" purity="4.8327276110649109e-01" nType="-99"/>
        </Node>
      </Node>
    </BinaryTree>
    <BinaryTree type="DecisionTree" boostWeight="1.0000000000000000e+00" itree="476">
      <Node pos="s" depth="0" NCoef="0" IVar="5" Cut="1.1341922283172607e+00" cType="1" res="-3.3184047788381577e-03" rms="4.5134231448173523e-01" purity="4.9444547295570374e-01" nType="0">
        <Node pos="l" depth="1" NCoef="0" IVar="0" Cut="1.4436440467834473e+00" cType="1" res="1.2552839703857899e-02" rms="4.5405358076095581e-01" purity="5.6827855110168457e-01" nType="0">
          <Node pos="l" depth="2" NCoef="0" IVar="-1" Cut="0.0000000000000000e+00" cType="1" res="1.4364360831677914e-03" rms="4.4384455680847168e-01" purity="6.3687759637832642e-01" nType="-99"/>
          <Node pos="r" depth="2" NCoef="0" IVar="-1" Cut="0.0000000000000000e+00" cType="1" res="-4.2367735295556486e-04" rms="4.6319895982742310e-01" purity="4.9898496270179749e-01" nType="-99"/>
        </Node>
        <Node pos="r" depth="1" NCoef="0" IVar="1" Cut="9.1453933715820312e-01" cType="1" res="-1.1904677376151085e-02" rms="4.4963526725769043e-01" purity="4.5450210571289062e-01" nType="0">
          <Node pos="l" depth="2" NCoef="0" IVar="-1" Cut="0.0000000000000000e+00" cType="1" res="-4.7455760650336742e-03" rms="3.8758575916290283e-01" purity="2.3191285133361816e-01" nType="-99"/>
          <Node pos="r" depth="2" NCoef="0" IVar="-1" Cut="0.0000000000000000e+00" cType="1" res="-3.9933575317263603e-04" rms="4.5483112335205078e-01" purity="4.7557306289672852e-01" nType="-99"/>
        </Node>
      </Node>
    </BinaryTree>
    <BinaryTree type="DecisionTree" boostWeight="1.0000000000000000e+00" itree="477">
      <Node pos="s" depth="0" NCoef="0" IVar="7" Cut="1.2851819992065430e+00" cType="1" res="2.4519553408026695e-03" rms="4.4835740327835083e-01" purity="5.0423872470855713e-01" nType="0">
        <Node pos="l" depth="1" NCoef="0" IVar="7" Cut="-9.2169570922851562e-01" cType="1" res="-2.5820077862590551e-03" rms="4.4908422231674194e-01" purity="4.8023012280464172e-01" nType="0">
          <Node pos="l" depth="2" NCoef="0" IVar="-1" Cut="0.0000000000000000e+00" cType="1" res="7.6451012864708900e-04" rms="4.5702952146530151e-01" purity="5.8460682630538940e-01" nType="-99"/>
          <Node pos="r" depth="2" NCoef="0" IVar="-1" Cut="0.0000000000000000e+00" cType="1" res="-8.5004506399855018e-04" rms="4.4368579983711243e-01" purity="4.1590920090675354e-01" nType="-99"/>
        </Node>
        <Node pos="r" depth="1" NCoef="0" IVar="5" Cut="1.2191098928451538e+00" cType="1" res="3.1327519565820694e-02" rms="4.4306170940399170e-01" purity="6.4195543527603149e-01" nType="0">
          <Node pos="l" depth="2" NCoef="0" IVar="-1" Cut="0.0000000000000000e+00" cType="1" res="1.7976849339902401e-03" rms="4.3526324629783630e-01" purity="6.6808414459228516e-01" nType="-99"/>
          <Node pos="r" depth="2" NCoef="0" IVar="-1" Cut="0.0000000000000000e+00" cType="1" res="8.3554896991699934e-04" rms="4.5212477445602417e-01" purity="6.0992664098739624e-01" nType="-99"/>
        </Node>
      </Node>
    </BinaryTree>
    <BinaryTree type="DecisionTree" boostWeight="1.0000000000000000e+00" itree="478">
      <Node pos="s" depth="0" NCoef="0" IVar="1" Cut="9.7902899980545044e-01" cType="1" res="-6.8639341043308377e-04" rms="4.5052158832550049e-01" purity="4.9540710449218750e-01" nType="0">
        <Node pos="l" depth="1" NCoef="0" IVar="1" Cut="9.2752796411514282e-01" cType="1" res="-6.8436856381595135e-03" rms="4.5406615734100342e-01" purity="4.4999414682388306e-01" nType="0">
          <Node pos="l" depth="2" NCoef="0" IVar="-1" Cut="0.0000000000000000e+00" cType="1" res="-1.9657823722809553e-03" rms="4.2978376150131226e-01" purity="3.0599677562713623e-01" nType="-99"/>
          <Node pos="r" depth="2" NCoef="0" IVar="-1" Cut="0.0000000000000000e+00" cType="1" res="-5.9314537793397903e-05" rms="4.5992180705070496e-01" purity="4.8695746064186096e-01" nType="-99"/>
        </Node>
        <Node pos="r" depth="1" NCoef="0" IVar="0" Cut="1.1763552427291870e+00" cType="1" res="2.5203840807080269e-02" rms="4.3434762954711914e-01" purity="6.8635982275009155e-01" nType="0">
          <Node pos="l" depth="2" NCoef="0" IVar="-1" Cut="0.0000000000000000e+00" cType="1" res="2.4586371146142483e-03" rms="4.1460981965065002e-01" purity="7.3922765254974365e-01" nType="-99"/>
          <Node pos="r" depth="2" NCoef="0" IVar="-1" Cut="0.0000000000000000e+00" cType="1" res="-1.0994989133905619e-04" rms="4.4828432798385620e-01" purity="6.4226293563842773e-01" nType="-99"/>
        </Node>
      </Node>
    </BinaryTree>
    <BinaryTree type="DecisionTree" boostWeight="1.0000000000000000e+00" itree="479">
      <Node pos="s" depth="0" NCoef="0" IVar="7" Cut="-1.2851746082305908e+00" cType="1" res="7.2886273264884949e-03" rms="4.5292568206787109e-01" purity="5.0320184230804443e-01" nType="0">
        <Node pos="l" depth="1" NCoef="0" IVar="4" Cut="2.1479651927947998e+00" cType="1" res="3.1355254352092743e-02" rms="4.5282649993896484e-01" purity="6.3271141052246094e-01" nType="0">
          <Node pos="l" depth="2" NCoef="0" IVar="-1" Cut="0.0000000000000000e+00" cType="1" res="6.3305173534899950e-04" rms="4.4800102710723877e-01" purity="6.5499055385589600e-01" nType="-99"/>
          <Node pos="r" depth="2" NCoef="0" IVar="-1" Cut="0.0000000000000000e+00" cType="1" res="2.3153519723564386e-03" rms="4.5813602209091187e-01" purity="6.0356956720352173e-01" nType="-99"/>
        </Node>
        <Node pos="r" depth="1" NCoef="0" IVar="2" Cut="1.0942878723144531e+02" cType="1" res="3.0461549758911133e-03" rms="4.5281058549880981e-01" purity="4.8037189245223999e-01" nType="0">
          <Node pos="l" depth="2" NCoef="0" IVar="-1" Cut="0.0000000000000000e+00" cType="1" res="-2.8825260233134031e-04" rms="4.5525035262107849e-01" purity="4.7049474716186523e-01" nType="-99"/>
          <Node pos="r" depth="2" NCoef="0" IVar="-1" Cut="0.0000000000000000e+00" cType="1" res="9.9840213079005480e-04" rms="4.4793909788131714e-01" purity="4.9823153018951416e-01" nType="-99"/>
        </Node>
      </Node>
    </BinaryTree>
    <BinaryTree type="DecisionTree" boostWeight="1.0000000000000000e+00" itree="480">
      <Node pos="s" depth="0" NCoef="0" IVar="5" Cut="1.6136249303817749e+00" cType="1" res="6.9122929126024246e-03" rms="4.5115765929222107e-01" purity="5.0707155466079712e-01" nType="0">
        <Node pos="l" depth="1" NCoef="0" IVar="8" Cut="2.2813464355468750e+02" cType="1" res="1.1224512942135334e-02" rms="4.5307660102844238e-01" purity="5.3290748596191406e-01" nType="0">
          <Node pos="l" depth="2" NCoef="0" IVar="-1" Cut="0.0000000000000000e+00" cType="1" res="9.7832328174263239e-04" rms="4.5683100819587708e-01" purity="5.6565105915069580e-01" nType="-99"/>
          <Node pos="r" depth="2" NCoef="0" IVar="-1" Cut="0.0000000000000000e+00" cType="1" res="-1.2001102004433051e-04" rms="4.4761905074119568e-01" purity="4.8884183168411255e-01" nType="-99"/>
        </Node>
        <Node pos="r" depth="1" NCoef="0" IVar="2" Cut="9.2172294616699219e+01" cType="1" res="-1.7679397016763687e-02" rms="4.3924602866172791e-01" purity="3.5973477363586426e-01" nType="0">
          <Node pos="l" depth="2" NCoef="0" IVar="-1" Cut="0.0000000000000000e+00" cType="1" res="-2.3896964266896248e-03" rms="4.3231227993965149e-01" purity="3.1785586476325989e-01" nType="-99"/>
          <Node pos="r" depth="2" NCoef="0" IVar="-1" Cut="0.0000000000000000e+00" cType="1" res="2.5373234529979527e-04" rms="4.4703936576843262e-01" purity="4.1359463334083557e-01" nType="-99"/>
        </Node>
      </Node>
    </BinaryTree>
    <BinaryTree type="DecisionTree" boostWeight="1.0000000000000000e+00" itree="481">
      <Node pos="s" depth="0" NCoef="0" IVar="3" Cut="1.0796383666992188e+02" cType="1" res="4.8853373154997826e-03" rms="4.5234441757202148e-01" purity="5.0285053253173828e-01" nType="0">
        <Node pos="l" depth="1" NCoef="0" IVar="5" Cut="1.3191502094268799e+00" cType="1" res="-3.3926006406545639e-02" rms="4.4186064600944519e-01" purity="3.7823587656021118e-01" nType="0">
          <Node pos="l" depth="2" NCoef="0" IVar="-1" Cut="0.0000000000000000e+00" cType="1" res="-2.6536106597632170e-03" rms="4.4971144199371338e-01" purity="4.0644073486328125e-01" nType="-99"/>
          <Node pos="r" depth="2" NCoef="0" IVar="-1" Cut="0.0000000000000000e+00" cType="1" res="-1.4153110096231103e-03" rms="4.3250852823257446e-01" purity="3.4667462110519409e-01" nType="-99"/>
        </Node>
        <Node pos="r" depth="1" NCoef="0" IVar="0" Cut="1.1418095827102661e+00" cType="1" res="9.7162863239645958e-03" rms="4.5339995622634888e-01" purity="5.1836168766021729e-01" nType="0">
          <Node pos="l" depth="2" NCoef="0" IVar="-1" Cut="0.0000000000000000e+00" cType="1" res="1.2018796987831593e-03" rms="4.5152270793914795e-01" purity="5.7183456420898438e-01" nType="-99"/>
          <Node pos="r" depth="2" NCoef="0" IVar="-1" Cut="0.0000000000000000e+00" cType="1" res="-2.5690134862088598e-05" rms="4.5425048470497131e-01" purity="4.8544910550117493e-01" nType="-99"/>
        </Node>
      </Node>
    </BinaryTree>
    <BinaryTree type="DecisionTree" boostWeight="1.0000000000000000e+00" itree="482">
      <Node pos="s" depth="0" NCoef="0" IVar="0" Cut="8.3263325691223145e-01" cType="1" res="5.9366563800722361e-04" rms="4.5185965299606323e-01" purity="5.0033849477767944e-01" nType="0">
        <Node pos="l" depth="1" NCoef="0" IVar="2" Cut="5.4668815612792969e+01" cType="1" res="1.9178180024027824e-02" rms="4.5520088076591492e-01" purity="5.1894688606262207e-01" nType="0">
          <Node pos="l" depth="2" NCoef="0" IVar="-1" Cut="0.0000000000000000e+00" cType="1" res="1.0201133409282193e-04" rms="4.6193417906761169e-01" purity="4.2971450090408325e-01" nType="-99"/>
          <Node pos="r" depth="2" NCoef="0" IVar="-1" Cut="0.0000000000000000e+00" cType="1" res="2.0276401191949844e-03" rms="4.4110900163650513e-01" purity="6.7987316846847534e-01" nType="-99"/>
        </Node>
        <Node pos="r" depth="1" NCoef="0" IVar="6" Cut="6.1600518798828125e+02" cType="1" res="-4.4899070635437965e-03" rms="4.5080792903900146e-01" purity="4.9524843692779541e-01" nType="0">
          <Node pos="l" depth="2" NCoef="0" IVar="-1" Cut="0.0000000000000000e+00" cType="1" res="-6.3395360484719276e-04" rms="4.5047232508659363e-01" purity="4.6772491931915283e-01" nType="-99"/>
          <Node pos="r" depth="2" NCoef="0" IVar="-1" Cut="0.0000000000000000e+00" cType="1" res="7.7239965321496129e-04" rms="4.5111611485481262e-01" purity="5.7300996780395508e-01" nType="-99"/>
        </Node>
      </Node>
    </BinaryTree>
    <BinaryTree type="DecisionTree" boostWeight="1.0000000000000000e+00" itree="483">
      <Node pos="s" depth="0" NCoef="0" IVar="7" Cut="-2.8559604287147522e-01" cType="1" res="-3.4333236981183290e-03" rms="4.5109364390373230e-01" purity="4.9366462230682373e-01" nType="0">
        <Node pos="l" depth="1" NCoef="0" IVar="1" Cut="9.5958209037780762e-01" cType="1" res="8.4977457299828529e-03" rms="4.5541369915008545e-01" purity="5.0991576910018921e-01" nType="0">
          <Node pos="l" depth="2" NCoef="0" IVar="-1" Cut="0.0000000000000000e+00" cType="1" res="1.1641340097412467e-03" rms="4.6109318733215332e-01" purity="4.4382083415985107e-01" nType="-99"/>
          <Node pos="r" depth="2" NCoef="0" IVar="-1" Cut="0.0000000000000000e+00" cType="1" res="-5.3271988872438669e-04" rms="4.4639602303504944e-01" purity="6.0467469692230225e-01" nType="-99"/>
        </Node>
        <Node pos="r" depth="1" NCoef="0" IVar="7" Cut="8.1150674819946289e-01" cType="1" res="-1.4303796924650669e-02" rms="4.4684401154518127e-01" purity="4.7885817289352417e-01" nType="0">
          <Node pos="l" depth="2" NCoef="0" IVar="-1" Cut="0.0000000000000000e+00" cType="1" res="-2.6899282820522785e-03" rms="4.2409089207649231e-01" purity="3.1841486692428589e-01" nType="-99"/>
          <Node pos="r" depth="2" NCoef="0" IVar="-1" Cut="0.0000000000000000e+00" cType="1" res="-1.6373769904021174e-04" rms="4.5628911256790161e-01" purity="5.5099546909332275e-01" nType="-99"/>
        </Node>
      </Node>
    </BinaryTree>
    <BinaryTree type="DecisionTree" boostWeight="1.0000000000000000e+00" itree="484">
      <Node pos="s" depth="0" NCoef="0" IVar="7" Cut="-1.1423968076705933e+00" cType="1" res="-2.7229511179029942e-03" rms="4.4959965348243713e-01" purity="4.9733012914657593e-01" nType="0">
        <Node pos="l" depth="1" NCoef="0" IVar="0" Cut="9.1654157638549805e-01" cType="1" res="2.0186252892017365e-02" rms="4.6142596006393433e-01" purity="6.1064225435256958e-01" nType="0">
          <Node pos="l" depth="2" NCoef="0" IVar="-1" Cut="0.0000000000000000e+00" cType="1" res="2.2762671578675508e-03" rms="4.5167881250381470e-01" purity="6.3846725225448608e-01" nType="-99"/>
          <Node pos="r" depth="2" NCoef="0" IVar="-1" Cut="0.0000000000000000e+00" cType="1" res="1.9640434766188264e-04" rms="4.6500590443611145e-01" purity="5.9779602289199829e-01" nType="-99"/>
        </Node>
        <Node pos="r" depth="1" NCoef="0" IVar="1" Cut="9.7902673482894897e-01" cType="1" res="-9.1872829943895340e-03" rms="4.4599309563636780e-01" purity="4.6535664796829224e-01" nType="0">
          <Node pos="l" depth="2" NCoef="0" IVar="-1" Cut="0.0000000000000000e+00" cType="1" res="-7.9336442286148667e-04" rms="4.4786351919174194e-01" purity="4.2190310359001160e-01" nType="-99"/>
          <Node pos="r" depth="2" NCoef="0" IVar="-1" Cut="0.0000000000000000e+00" cType="1" res="6.0933845816180110e-04" rms="4.3687596917152405e-01" purity="6.5787428617477417e-01" nType="-99"/>
        </Node>
      </Node>
    </BinaryTree>
    <BinaryTree type="DecisionTree" boostWeight="1.0000000000000000e+00" itree="485">
      <Node pos="s" depth="0" NCoef="0" IVar="3" Cut="1.0796383666992188e+02" cType="1" res="-7.6416959927882999e-05" rms="4.5073127746582031e-01" purity="4.9941757321357727e-01" nType="0">
        <Node pos="l" depth="1" NCoef="0" IVar="8" Cut="2.0463223266601562e+02" cType="1" res="-3.2117664813995361e-02" rms="4.3787550926208496e-01" purity="3.7721520662307739e-01" nType="0">
          <Node pos="l" depth="2" NCoef="0" IVar="-1" Cut="0.0000000000000000e+00" cType="1" res="-2.0772959032910876e-05" rms="4.5215329527854919e-01" purity="4.1749545931816101e-01" nType="-99"/>
          <Node pos="r" depth="2" NCoef="0" IVar="-1" Cut="0.0000000000000000e+00" cType="1" res="-4.7396714799106121e-03" rms="4.1740855574607849e-01" purity="3.2989048957824707e-01" nType="-99"/>
        </Node>
        <Node pos="r" depth="1" NCoef="0" IVar="1" Cut="9.1358435153961182e-01" cType="1" res="3.8857408799231052e-03" rms="4.5213788747787476e-01" purity="5.1452887058258057e-01" nType="0">
          <Node pos="l" depth="2" NCoef="0" IVar="-1" Cut="0.0000000000000000e+00" cType="1" res="-2.0398769993335009e-03" rms="4.1923990845680237e-01" purity="3.0126082897186279e-01" nType="-99"/>
          <Node pos="r" depth="2" NCoef="0" IVar="-1" Cut="0.0000000000000000e+00" cType="1" res="3.1991186551749706e-04" rms="4.5447167754173279e-01" purity="5.3099536895751953e-01" nType="-99"/>
        </Node>
      </Node>
    </BinaryTree>
    <BinaryTree type="DecisionTree" boostWeight="1.0000000000000000e+00" itree="486">
      <Node pos="s" depth="0" NCoef="0" IVar="7" Cut="-1.2851244211196899e+00" cType="1" res="-4.1022403165698051e-03" rms="4.5182830095291138e-01" purity="4.9312880635261536e-01" nType="0">
        <Node pos="l" depth="1" NCoef="0" IVar="6" Cut="4.5542514038085938e+02" cType="1" res="1.9324040040373802e-02" rms="4.5482051372528076e-01" purity="6.2584799528121948e-01" nType="0">
          <Node pos="l" depth="2" NCoef="0" IVar="-1" Cut="0.0000000000000000e+00" cType="1" res="1.5750153688713908e-03" rms="4.6751028299331665e-01" purity="5.7581341266632080e-01" nType="-99"/>
          <Node pos="r" depth="2" NCoef="0" IVar="-1" Cut="0.0000000000000000e+00" cType="1" res="3.4673881600610912e-04" rms="4.4532531499862671e-01" purity="6.6104727983474731e-01" nType="-99"/>
        </Node>
        <Node pos="r" depth="1" NCoef="0" IVar="4" Cut="2.3937861919403076e+00" cType="1" res="-8.1171430647373199e-03" rms="4.5119142532348633e-01" purity="4.7038272023200989e-01" nType="0">
          <Node pos="l" depth="2" NCoef="0" IVar="-1" Cut="0.0000000000000000e+00" cType="1" res="-7.3538901051506400e-04" rms="4.5960724353790283e-01" purity="5.4198747873306274e-01" nType="-99"/>
          <Node pos="r" depth="2" NCoef="0" IVar="-1" Cut="0.0000000000000000e+00" cType="1" res="4.2828414007090032e-04" rms="4.3425679206848145e-01" purity="3.3322218060493469e-01" nType="-99"/>
        </Node>
      </Node>
    </BinaryTree>
    <BinaryTree type="DecisionTree" boostWeight="1.0000000000000000e+00" itree="487">
      <Node pos="s" depth="0" NCoef="0" IVar="7" Cut="-9.9957990646362305e-01" cType="1" res="-1.1260412429692224e-04" rms="4.5149049162864685e-01" purity="4.9660763144493103e-01" nType="0">
        <Node pos="l" depth="1" NCoef="0" IVar="0" Cut="1.5637708902359009e+00" cType="1" res="1.6509737819433212e-02" rms="4.5966804027557373e-01" purity="5.9241187572479248e-01" nType="0">
          <Node pos="l" depth="2" NCoef="0" IVar="-1" Cut="0.0000000000000000e+00" cType="1" res="1.2303474359214306e-03" rms="4.5496702194213867e-01" purity="6.2301266193389893e-01" nType="-99"/>
          <Node pos="r" depth="2" NCoef="0" IVar="-1" Cut="0.0000000000000000e+00" cType="1" res="-7.6458521652966738e-04" rms="4.7090452909469604e-01" purity="5.0787824392318726e-01" nType="-99"/>
        </Node>
        <Node pos="r" depth="1" NCoef="0" IVar="8" Cut="5.3007055664062500e+02" cType="1" res="-6.9025200791656971e-03" rms="4.4792976975440979e-01" purity="4.5747336745262146e-01" nType="0">
          <Node pos="l" depth="2" NCoef="0" IVar="-1" Cut="0.0000000000000000e+00" cType="1" res="-2.1488484344445169e-04" rms="4.5048964023590088e-01" purity="4.6900957822799683e-01" nType="-99"/>
          <Node pos="r" depth="2" NCoef="0" IVar="-1" Cut="0.0000000000000000e+00" cType="1" res="-3.0764921102672815e-03" rms="4.1342049837112427e-01" purity="3.1518611311912537e-01" nType="-99"/>
        </Node>
      </Node>
    </BinaryTree>
    <BinaryTree type="DecisionTree" boostWeight="1.0000000000000000e+00" itree="488">
      <Node pos="s" depth="0" NCoef="0" IVar="7" Cut="-9.9953472614288330e-01" cType="1" res="2.4726965930312872e-03" rms="4.5157676935195923e-01" purity="4.9922907352447510e-01" nType="0">
        <Node pos="l" depth="1" NCoef="0" IVar="4" Cut="2.3545758724212646e+00" cType="1" res="2.3366784676909447e-02" rms="4.6088275313377380e-01" purity="5.9844952821731567e-01" nType="0">
          <Node pos="l" depth="2" NCoef="0" IVar="-1" Cut="0.0000000000000000e+00" cType="1" res="6.0274475254118443e-04" rms="4.5661166310310364e-01" purity="6.2695914506912231e-01" nType="-99"/>
          <Node pos="r" depth="2" NCoef="0" IVar="-1" Cut="0.0000000000000000e+00" cType="1" res="2.8114551678299904e-03" rms="4.7387614846229553e-01" purity="4.9994680285453796e-01" nType="-99"/>
        </Node>
        <Node pos="r" depth="1" NCoef="0" IVar="8" Cut="1.6110401916503906e+02" cType="1" res="-5.9459335170686245e-03" rms="4.4749689102172852e-01" purity="4.5925119519233704e-01" nType="0">
          <Node pos="l" depth="2" NCoef="0" IVar="-1" Cut="0.0000000000000000e+00" cType="1" res="-1.2898863060399890e-03" rms="4.5851069688796997e-01" purity="4.5230618119239807e-01" nType="-99"/>
          <Node pos="r" depth="2" NCoef="0" IVar="-1" Cut="0.0000000000000000e+00" cType="1" res="2.9560933398897760e-05" rms="4.4326767325401306e-01" purity="4.6176275610923767e-01" nType="-99"/>
        </Node>
      </Node>
    </BinaryTree>
    <BinaryTree type="DecisionTree" boostWeight="1.0000000000000000e+00" itree="489">
      <Node pos="s" depth="0" NCoef="0" IVar="1" Cut="9.8571515083312988e-01" cType="1" res="3.3521400764584541e-03" rms="4.5152863860130310e-01" purity="5.0118809938430786e-01" nType="0">
        <Node pos="l" depth="1" NCoef="0" IVar="0" Cut="1.1238124370574951e+00" cType="1" res="-4.0612363955006003e-04" rms="4.5434075593948364e-01" purity="4.7477978467941284e-01" nType="0">
          <Node pos="l" depth="2" NCoef="0" IVar="-1" Cut="0.0000000000000000e+00" cType="1" res="4.8505846643820405e-04" rms="4.5294541120529175e-01" purity="5.2087885141372681e-01" nType="-99"/>
          <Node pos="r" depth="2" NCoef="0" IVar="-1" Cut="0.0000000000000000e+00" cType="1" res="-3.5616738023236394e-04" rms="4.5505002140998840e-01" purity="4.4757440686225891e-01" nType="-99"/>
        </Node>
        <Node pos="r" depth="1" NCoef="0" IVar="-1" Cut="0.0000000000000000e+00" cType="1" res="1.4170331414788961e-03" rms="4.2802295088768005e-01" purity="7.0560568571090698e-01" nType="-99"/>
      </Node>
    </BinaryTree>
    <BinaryTree type="DecisionTree" boostWeight="1.0000000000000000e+00" itree="490">
      <Node pos="s" depth="0" NCoef="0" IVar="2" Cut="6.4459197998046875e+01" cType="1" res="-5.4457867518067360e-03" rms="4.5111852884292603e-01" purity="4.9340978264808655e-01" nType="0">
        <Node pos="l" depth="1" NCoef="0" IVar="2" Cut="3.3555435180664062e+01" cType="1" res="-2.1249333396553993e-02" rms="4.5896047353744507e-01" purity="4.1881990432739258e-01" nType="0">
          <Node pos="l" depth="2" NCoef="0" IVar="-1" Cut="0.0000000000000000e+00" cType="1" res="-3.5672129597514868e-03" rms="4.3110194802284241e-01" purity="3.0885487794876099e-01" nType="-99"/>
          <Node pos="r" depth="2" NCoef="0" IVar="-1" Cut="0.0000000000000000e+00" cType="1" res="-7.1301485877484083e-04" rms="4.6520507335662842e-01" purity="4.4577565789222717e-01" nType="-99"/>
        </Node>
        <Node pos="r" depth="1" NCoef="0" IVar="0" Cut="9.7934949398040771e-01" cType="1" res="1.7066765576601028e-03" rms="4.4734072685241699e-01" purity="5.2716809511184692e-01" nType="0">
          <Node pos="l" depth="2" NCoef="0" IVar="-1" Cut="0.0000000000000000e+00" cType="1" res="2.0392055157572031e-03" rms="4.2214608192443848e-01" purity="7.1971511840820312e-01" nType="-99"/>
          <Node pos="r" depth="2" NCoef="0" IVar="-1" Cut="0.0000000000000000e+00" cType="1" res="-3.1129331910051405e-04" rms="4.5076471567153931e-01" purity="4.9633166193962097e-01" nType="-99"/>
        </Node>
      </Node>
    </BinaryTree>
    <BinaryTree type="DecisionTree" boostWeight="1.0000000000000000e+00" itree="491">
      <Node pos="s" depth="0" NCoef="0" IVar="3" Cut="1.2807376098632812e+02" cType="1" res="4.8401816748082638e-03" rms="4.5079517364501953e-01" purity="5.0252521038055420e-01" nType="0">
        <Node pos="l" depth="1" NCoef="0" IVar="8" Cut="2.5782583618164062e+02" cType="1" res="1.1740813031792641e-02" rms="4.5156747102737427e-01" purity="5.2429330348968506e-01" nType="0">
          <Node pos="l" depth="2" NCoef="0" IVar="-1" Cut="0.0000000000000000e+00" cType="1" res="9.7550178179517388e-04" rms="4.5440483093261719e-01" purity="5.5686819553375244e-01" nType="-99"/>
          <Node pos="r" depth="2" NCoef="0" IVar="-1" Cut="0.0000000000000000e+00" cType="1" res="-3.2994139473885298e-04" rms="4.4549182057380676e-01" purity="4.6132582426071167e-01" nType="-99"/>
        </Node>
        <Node pos="r" depth="1" NCoef="0" IVar="7" Cut="8.5668492317199707e-01" cType="1" res="-1.0850762948393822e-02" rms="4.4863921403884888e-01" purity="4.5302814245223999e-01" nType="0">
          <Node pos="l" depth="2" NCoef="0" IVar="-1" Cut="0.0000000000000000e+00" cType="1" res="2.1881410793866962e-04" rms="4.4849947094917297e-01" purity="4.3220514059066772e-01" nType="-99"/>
          <Node pos="r" depth="2" NCoef="0" IVar="-1" Cut="0.0000000000000000e+00" cType="1" res="-2.1144773345440626e-03" rms="4.4741132855415344e-01" purity="4.9572786688804626e-01" nType="-99"/>
        </Node>
      </Node>
    </BinaryTree>
    <BinaryTree type="DecisionTree" boostWeight="1.0000000000000000e+00" itree="492">
      <Node pos="s" depth="0" NCoef="0" IVar="1" Cut="9.2605543136596680e-01" cType="1" res="6.8909055553376675e-03" rms="4.5076462626457214e-01" purity="5.0726729631423950e-01" nType="0">
        <Node pos="l" depth="1" NCoef="0" IVar="7" Cut="7.1398317813873291e-01" cType="1" res="-2.7538560330867767e-02" rms="4.2836168408393860e-01" purity="3.0285844206809998e-01" nType="0">
          <Node pos="l" depth="2" NCoef="0" IVar="-1" Cut="0.0000000000000000e+00" cType="1" res="-6.9740213803015649e-05" rms="4.2854806780815125e-01" purity="3.0898681282997131e-01" nType="-99"/>
          <Node pos="r" depth="2" NCoef="0" IVar="-1" Cut="0.0000000000000000e+00" cType="1" res="-5.2132140845060349e-03" rms="4.2361089587211609e-01" purity="2.9145056009292603e-01" nType="-99"/>
        </Node>
        <Node pos="r" depth="1" NCoef="0" IVar="2" Cut="1.5850431823730469e+02" cType="1" res="1.3082145713269711e-02" rms="4.5439946651458740e-01" purity="5.4402494430541992e-01" nType="0">
          <Node pos="l" depth="2" NCoef="0" IVar="-1" Cut="0.0000000000000000e+00" cType="1" res="8.3847373025491834e-04" rms="4.5440250635147095e-01" purity="5.6255024671554565e-01" nType="-99"/>
          <Node pos="r" depth="2" NCoef="0" IVar="-1" Cut="0.0000000000000000e+00" cType="1" res="-1.1238142615184188e-03" rms="4.5311039686203003e-01" purity="4.1804835200309753e-01" nType="-99"/>
        </Node>
      </Node>
    </BinaryTree>
    <BinaryTree type="DecisionTree" boostWeight="1.0000000000000000e+00" itree="493">
      <Node pos="s" depth="0" NCoef="0" IVar="4" Cut="2.4423973560333252e+00" cType="1" res="-8.9900911552831531e-04" rms="4.5217716693878174e-01" purity="4.9493667483329773e-01" nType="0">
        <Node pos="l" depth="1" NCoef="0" IVar="1" Cut="9.5347064733505249e-01" cType="1" res="-8.6114723235368729e-03" rms="4.5783236622810364e-01" purity="5.5257499217987061e-01" nType="0">
          <Node pos="l" depth="2" NCoef="0" IVar="-1" Cut="0.0000000000000000e+00" cType="1" res="-1.3018214376643300e-03" rms="4.6811410784721375e-01" purity="4.3275982141494751e-01" nType="-99"/>
          <Node pos="r" depth="2" NCoef="0" IVar="-1" Cut="0.0000000000000000e+00" cType="1" res="2.4405268777627498e-04" rms="4.4847559928894043e-01" purity="6.5379136800765991e-01" nType="-99"/>
        </Node>
        <Node pos="r" depth="1" NCoef="0" IVar="4" Cut="2.7591278553009033e+00" cType="1" res="2.0251337438821793e-02" rms="4.3559250235557556e-01" purity="3.3687159419059753e-01" nType="0">
          <Node pos="l" depth="2" NCoef="0" IVar="-1" Cut="0.0000000000000000e+00" cType="1" res="2.2228858433663845e-03" rms="4.5356523990631104e-01" purity="3.8807740807533264e-01" nType="-99"/>
          <Node pos="r" depth="2" NCoef="0" IVar="-1" Cut="0.0000000000000000e+00" cType="1" res="-2.8520505875349045e-03" rms="3.7722310423851013e-01" purity="1.9384044408798218e-01" nType="-99"/>
        </Node>
      </Node>
    </BinaryTree>
    <BinaryTree type="DecisionTree" boostWeight="1.0000000000000000e+00" itree="494">
      <Node pos="s" depth="0" NCoef="0" IVar="3" Cut="1.1153086090087891e+02" cType="1" res="4.5618712902069092e-03" rms="4.5228892564773560e-01" purity="5.0160926580429077e-01" nType="0">
        <Node pos="l" depth="1" NCoef="0" IVar="2" Cut="6.8770484924316406e+01" cType="1" res="-2.5058988481760025e-02" rms="4.5167204737663269e-01" purity="3.9833325147628784e-01" nType="0">
          <Node pos="l" depth="2" NCoef="0" IVar="-1" Cut="0.0000000000000000e+00" cType="1" res="-3.9890364860184491e-05" rms="4.6009919047355652e-01" purity="3.8215303421020508e-01" nType="-99"/>
          <Node pos="r" depth="2" NCoef="0" IVar="-1" Cut="0.0000000000000000e+00" cType="1" res="-2.7321113739162683e-03" rms="4.4322726130485535e-01" purity="4.1224578022956848e-01" nType="-99"/>
        </Node>
        <Node pos="r" depth="1" NCoef="0" IVar="6" Cut="5.5674133300781250e+02" cType="1" res="1.0009229183197021e-02" rms="4.5219111442565918e-01" purity="5.2060198783874512e-01" nType="0">
          <Node pos="l" depth="2" NCoef="0" IVar="-1" Cut="0.0000000000000000e+00" cType="1" res="2.0747544112964533e-05" rms="4.5326429605484009e-01" purity="4.7183904051780701e-01" nType="-99"/>
          <Node pos="r" depth="2" NCoef="0" IVar="-1" Cut="0.0000000000000000e+00" cType="1" res="1.1533549986779690e-03" rms="4.5001995563507080e-01" purity="5.9932297468185425e-01" nType="-99"/>
        </Node>
      </Node>
    </BinaryTree>
    <BinaryTree type="DecisionTree" boostWeight="1.0000000000000000e+00" itree="495">
      <Node pos="s" depth="0" NCoef="0" IVar="2" Cut="1.0834378051757812e+02" cType="1" res="7.4848355725407600e-03" rms="4.5240575075149536e-01" purity="5.0711971521377563e-01" nType="0">
        <Node pos="l" depth="1" NCoef="0" IVar="8" Cut="2.3709782409667969e+02" cType="1" res="-1.4030749443918467e-03" rms="4.5781266689300537e-01" purity="4.9230629205703735e-01" nType="0">
          <Node pos="l" depth="2" NCoef="0" IVar="-1" Cut="0.0000000000000000e+00" cType="1" res="3.4196462365798652e-04" rms="4.6062734723091125e-01" purity="5.1870441436767578e-01" nType="-99"/>
          <Node pos="r" depth="2" NCoef="0" IVar="-1" Cut="0.0000000000000000e+00" cType="1" res="-1.0692049982026219e-03" rms="4.5128726959228516e-01" purity="4.3655717372894287e-01" nType="-99"/>
        </Node>
        <Node pos="r" depth="1" NCoef="0" IVar="2" Cut="1.5261238098144531e+02" cType="1" res="2.3720648139715195e-02" rms="4.4189688563346863e-01" purity="5.3417986631393433e-01" nType="0">
          <Node pos="l" depth="2" NCoef="0" IVar="-1" Cut="0.0000000000000000e+00" cType="1" res="1.8130515236407518e-03" rms="4.3411746621131897e-01" purity="6.1367452144622803e-01" nType="-99"/>
          <Node pos="r" depth="2" NCoef="0" IVar="-1" Cut="0.0000000000000000e+00" cType="1" res="-5.7262681366410106e-05" rms="4.5243263244628906e-01" purity="4.1252151131629944e-01" nType="-99"/>
        </Node>
      </Node>
    </BinaryTree>
    <BinaryTree type="DecisionTree" boostWeight="1.0000000000000000e+00" itree="496">
      <Node pos="s" depth="0" NCoef="0" IVar="3" Cut="1.4146928405761719e+02" cType="1" res="4.8693944700062275e-03" rms="4.4858655333518982e-01" purity="5.0571316480636597e-01" nType="0">
        <Node pos="l" depth="1" NCoef="0" IVar="7" Cut="1.4279708862304688e+00" cType="1" res="8.6089167743921280e-03" rms="4.5030608773231506e-01" purity="5.2028840780258179e-01" nType="0">
          <Node pos="l" depth="2" NCoef="0" IVar="-1" Cut="0.0000000000000000e+00" cType="1" res="2.4704920360818505e-04" rms="4.5147591829299927e-01" purity="5.0610572099685669e-01" nType="-99"/>
          <Node pos="r" depth="2" NCoef="0" IVar="-1" Cut="0.0000000000000000e+00" cType="1" res="2.1460556890815496e-03" rms="4.3448981642723083e-01" purity="6.8265753984451294e-01" nType="-99"/>
        </Node>
        <Node pos="r" depth="1" NCoef="0" IVar="-1" Cut="0.0000000000000000e+00" cType="1" res="-3.5169960465282202e-03" rms="4.2026355862617493e-01" purity="3.0141818523406982e-01" nType="-99"/>
      </Node>
    </BinaryTree>
    <BinaryTree type="DecisionTree" boostWeight="1.0000000000000000e+00" itree="497">
      <Node pos="s" depth="0" NCoef="0" IVar="1" Cut="9.8571515083312988e-01" cType="1" res="-1.2016679393127561e-03" rms="4.4977951049804688e-01" purity="4.9770262837409973e-01" nType="0">
        <Node pos="l" depth="1" NCoef="0" IVar="3" Cut="1.0796383666992188e+02" cType="1" res="-4.7104135155677795e-03" rms="4.5251899957656860e-01" purity="4.7101256251335144e-01" nType="0">
          <Node pos="l" depth="2" NCoef="0" IVar="-1" Cut="0.0000000000000000e+00" cType="1" res="-2.2666084114462137e-03" rms="4.3859386444091797e-01" purity="3.4876599907875061e-01" nType="-99"/>
          <Node pos="r" depth="2" NCoef="0" IVar="-1" Cut="0.0000000000000000e+00" cType="1" res="-4.9956324801314622e-05" rms="4.5408704876899719e-01" purity="4.8625585436820984e-01" nType="-99"/>
        </Node>
        <Node pos="r" depth="1" NCoef="0" IVar="-1" Cut="0.0000000000000000e+00" cType="1" res="1.1453029001131654e-03" rms="4.2706704139709473e-01" purity="7.0379108190536499e-01" nType="-99"/>
      </Node>
    </BinaryTree>
    <BinaryTree type="DecisionTree" boostWeight="1.0000000000000000e+00" itree="498">
      <Node pos="s" depth="0" NCoef="0" IVar="1" Cut="9.1939520835876465e-01" cType="1" res="2.6824865490198135e-03" rms="4.4961819052696228e-01" purity="4.9937066435813904e-01" nType="0">
        <Node pos="l" depth="1" NCoef="0" IVar="7" Cut="-1.4288683235645294e-01" cType="1" res="-2.9263556003570557e-02" rms="4.1131111979484558e-01" purity="2.9049557447433472e-01" nType="0">
          <Node pos="l" depth="2" NCoef="0" IVar="-1" Cut="0.0000000000000000e+00" cType="1" res="-8.1679306458681822e-04" rms="4.2074713110923767e-01" purity="3.1594669818878174e-01" nType="-99"/>
          <Node pos="r" depth="2" NCoef="0" IVar="-1" Cut="0.0000000000000000e+00" cType="1" res="-3.5513448528945446e-03" rms="4.0064799785614014e-01" purity="2.6434424519538879e-01" nType="-99"/>
        </Node>
        <Node pos="r" depth="1" NCoef="0" IVar="0" Cut="2.2653434276580811e+00" cType="1" res="6.6885934211313725e-03" rms="4.5403546094894409e-01" purity="5.2556413412094116e-01" nType="0">
          <Node pos="l" depth="2" NCoef="0" IVar="-1" Cut="0.0000000000000000e+00" cType="1" res="4.7175117651931942e-04" rms="4.5728668570518494e-01" purity="5.4822158813476562e-01" nType="-99"/>
          <Node pos="r" depth="2" NCoef="0" IVar="-1" Cut="0.0000000000000000e+00" cType="1" res="-3.1188353896141052e-03" rms="4.0937060117721558e-01" purity="2.4444340169429779e-01" nType="-99"/>
        </Node>
      </Node>
    </BinaryTree>
    <BinaryTree type="DecisionTree" boostWeight="1.0000000000000000e+00" itree="499">
      <Node pos="s" depth="0" NCoef="0" IVar="5" Cut="1.5211300849914551e+00" cType="1" res="2.1635310258716345e-03" rms="4.5229694247245789e-01" purity="4.9761894345283508e-01" nType="0">
        <Node pos="l" depth="1" NCoef="0" IVar="5" Cut="9.1312050819396973e-01" cType="1" res="8.0290222540497780e-03" rms="4.5615372061729431e-01" purity="5.3126126527786255e-01" nType="0">
          <Node pos="l" depth="2" NCoef="0" IVar="-1" Cut="0.0000000000000000e+00" cType="1" res="1.8048107158392668e-03" rms="4.5803290605545044e-01" purity="6.0851323604583740e-01" nType="-99"/>
          <Node pos="r" depth="2" NCoef="0" IVar="-1" Cut="0.0000000000000000e+00" cType="1" res="2.5860380264930427e-04" rms="4.5588716864585876e-01" purity="5.2484208345413208e-01" nType="-99"/>
        </Node>
        <Node pos="r" depth="1" NCoef="0" IVar="7" Cut="7.1347916126251221e-01" cType="1" res="-1.8955143168568611e-02" rms="4.3747869133949280e-01" purity="3.7648987770080566e-01" nType="0">
          <Node pos="l" depth="2" NCoef="0" IVar="-1" Cut="0.0000000000000000e+00" cType="1" res="-2.0387857221066952e-03" rms="4.2815899848937988e-01" purity="3.2792985439300537e-01" nType="-99"/>
          <Node pos="r" depth="2" NCoef="0" IVar="-1" Cut="0.0000000000000000e+00" cType="1" res="9.1990725195501000e-05" rms="4.5245376229286194e-01" purity="4.6078091859817505e-01" nType="-99"/>
        </Node>
      </Node>
    </BinaryTree>
    <BinaryTree type="DecisionTree" boostWeight="1.0000000000000000e+00" itree="500">
      <Node pos="s" depth="0" NCoef="0" IVar="6" Cut="5.1044085693359375e+02" cType="1" res="9.5482676988467574e-04" rms="4.5279160141944885e-01" purity="4.9861094355583191e-01" nType="0">
        <Node pos="l" depth="1" NCoef="0" IVar="8" Cut="1.3795668029785156e+02" cType="1" res="-1.1723599396646023e-02" rms="4.5086061954498291e-01" purity="4.3695461750030518e-01" nType="0">
          <Node pos="l" depth="2" NCoef="0" IVar="-1" Cut="0.0000000000000000e+00" cType="1" res="-1.8193891737610102e-03" rms="4.6140718460083008e-01" purity="4.2914831638336182e-01" nType="-99"/>
          <Node pos="r" depth="2" NCoef="0" IVar="-1" Cut="0.0000000000000000e+00" cType="1" res="-1.9278292893432081e-04" rms="4.4645467400550842e-01" purity="4.3996286392211914e-01" nType="-99"/>
        </Node>
        <Node pos="r" depth="1" NCoef="0" IVar="5" Cut="1.3329075574874878e+00" cType="1" res="1.6826538369059563e-02" rms="4.5469939708709717e-01" purity="5.7579642534255981e-01" nType="0">
          <Node pos="l" depth="2" NCoef="0" IVar="-1" Cut="0.0000000000000000e+00" cType="1" res="1.2809602776542306e-03" rms="4.5520049333572388e-01" purity="6.2864285707473755e-01" nType="-99"/>
          <Node pos="r" depth="2" NCoef="0" IVar="-1" Cut="0.0000000000000000e+00" cType="1" res="8.8480373960919678e-05" rms="4.5363986492156982e-01" purity="5.1211971044540405e-01" nType="-99"/>
        </Node>
      </Node>
    </BinaryTree>
    <BinaryTree type="DecisionTree" boostWeight="1.0000000000000000e+00" itree="501">
      <Node pos="s" depth="0" NCoef="0" IVar="0" Cut="1.1323347091674805e+00" cType="1" res="1.6942226793617010e-03" rms="4.5076686143875122e-01" purity="4.9890738725662231e-01" nType="0">
        <Node pos="l" depth="1" NCoef="0" IVar="2" Cut="8.0259063720703125e+01" cType="1" res="1.7093544825911522e-02" rms="4.4822439551353455e-01" purity="5.5138117074966431e-01" nType="0">
          <Node pos="l" depth="2" NCoef="0" IVar="-1" Cut="0.0000000000000000e+00" cType="1" res="6.3250889070332050e-05" rms="4.5810872316360474e-01" purity="4.8645317554473877e-01" nType="-99"/>
          <Node pos="r" depth="2" NCoef="0" IVar="-1" Cut="0.0000000000000000e+00" cType="1" res="2.6632235385477543e-03" rms="4.1263833642005920e-01" purity="7.5073760747909546e-01" nType="-99"/>
        </Node>
        <Node pos="r" depth="1" NCoef="0" IVar="2" Cut="1.2987907409667969e+02" cType="1" res="-7.8621944412589073e-03" rms="4.5207375288009644e-01" purity="4.6634349226951599e-01" nType="0">
          <Node pos="l" depth="2" NCoef="0" IVar="-1" Cut="0.0000000000000000e+00" cType="1" res="9.9052580480929464e-05" rms="4.5631614327430725e-01" purity="4.9097752571105957e-01" nType="-99"/>
          <Node pos="r" depth="2" NCoef="0" IVar="-1" Cut="0.0000000000000000e+00" cType="1" res="-1.6415290301665664e-03" rms="4.4277209043502808e-01" purity="4.1684740781784058e-01" nType="-99"/>
        </Node>
      </Node>
    </BinaryTree>
    <BinaryTree type="DecisionTree" boostWeight="1.0000000000000000e+00" itree="502">
      <Node pos="s" depth="0" NCoef="0" IVar="2" Cut="6.4147903442382812e+01" cType="1" res="2.2050268016755581e-03" rms="4.4923692941665649e-01" purity="5.0227236747741699e-01" nType="0">
        <Node pos="l" depth="1" NCoef="0" IVar="0" Cut="9.0047168731689453e-01" cType="1" res="-2.0341873168945312e-02" rms="4.5596629381179810e-01" purity="4.2260020971298218e-01" nType="0">
          <Node pos="l" depth="2" NCoef="0" IVar="-1" Cut="0.0000000000000000e+00" cType="1" res="-2.8028993983753026e-04" rms="4.6233752369880676e-01" purity="4.4528284668922424e-01" nType="-99"/>
          <Node pos="r" depth="2" NCoef="0" IVar="-1" Cut="0.0000000000000000e+00" cType="1" res="-2.3635120596736670e-03" rms="4.4663935899734497e-01" purity="3.9263126254081726e-01" nType="-99"/>
        </Node>
        <Node pos="r" depth="1" NCoef="0" IVar="0" Cut="1.0978792905807495e+00" cType="1" res="1.2163567356765270e-02" rms="4.4586953520774841e-01" purity="5.3746205568313599e-01" nType="0">
          <Node pos="l" depth="2" NCoef="0" IVar="-1" Cut="0.0000000000000000e+00" cType="1" res="1.8670490244403481e-03" rms="4.1971802711486816e-01" purity="7.1244114637374878e-01" nType="-99"/>
          <Node pos="r" depth="2" NCoef="0" IVar="-1" Cut="0.0000000000000000e+00" cType="1" res="2.3002049420028925e-04" rms="4.5161771774291992e-01" purity="4.9520537257194519e-01" nType="-99"/>
        </Node>
      </Node>
    </BinaryTree>
    <BinaryTree type="DecisionTree" boostWeight="1.0000000000000000e+00" itree="503">
      <Node pos="s" depth="0" NCoef="0" IVar="8" Cut="2.5829278564453125e+02" cType="1" res="1.0744022438302636e-03" rms="4.5161649584770203e-01" purity="4.9943062663078308e-01" nType="0">
        <Node pos="l" depth="1" NCoef="0" IVar="8" Cut="1.0517881011962891e+02" cType="1" res="1.1551461182534695e-02" rms="4.5613151788711548e-01" purity="5.3785347938537598e-01" nType="0">
          <Node pos="l" depth="2" NCoef="0" IVar="-1" Cut="0.0000000000000000e+00" cType="1" res="-2.8237113729119301e-03" rms="4.6046233177185059e-01" purity="4.0207237005233765e-01" nType="-99"/>
          <Node pos="r" depth="2" NCoef="0" IVar="-1" Cut="0.0000000000000000e+00" cType="1" res="9.3597924569621682e-04" rms="4.5488440990447998e-01" purity="5.5708998441696167e-01" nType="-99"/>
        </Node>
        <Node pos="r" depth="1" NCoef="0" IVar="4" Cut="2.5189116001129150e+00" cType="1" res="-1.7561534419655800e-02" rms="4.4285970926284790e-01" purity="4.3108636140823364e-01" nType="0">
          <Node pos="l" depth="2" NCoef="0" IVar="-1" Cut="0.0000000000000000e+00" cType="1" res="-1.6256534727290273e-03" rms="4.5457568764686584e-01" purity="5.0810337066650391e-01" nType="-99"/>
          <Node pos="r" depth="2" NCoef="0" IVar="-1" Cut="0.0000000000000000e+00" cType="1" res="7.4590666918084025e-04" rms="4.1940641403198242e-01" purity="2.9122710227966309e-01" nType="-99"/>
        </Node>
      </Node>
    </BinaryTree>
    <BinaryTree type="DecisionTree" boostWeight="1.0000000000000000e+00" itree="504">
      <Node pos="s" depth="0" NCoef="0" IVar="8" Cut="5.3068957519531250e+02" cType="1" res="3.4651916939765215e-03" rms="4.5245167613029480e-01" purity="5.0066643953323364e-01" nType="0">
        <Node pos="l" depth="1" NCoef="0" IVar="8" Cut="1.4726101684570312e+02" cType="1" res="7.0614153519272804e-03" rms="4.5442354679107666e-01" purity="5.1262933015823364e-01" nType="0">
          <Node pos="l" depth="2" NCoef="0" IVar="-1" Cut="0.0000000000000000e+00" cType="1" res="-5.9284758754074574e-04" rms="4.6490636467933655e-01" purity="4.7754356265068054e-01" nType="-99"/>
          <Node pos="r" depth="2" NCoef="0" IVar="-1" Cut="0.0000000000000000e+00" cType="1" res="6.4079073490574956e-04" rms="4.5087510347366333e-01" purity="5.2379608154296875e-01" nType="-99"/>
        </Node>
        <Node pos="r" depth="1" NCoef="0" IVar="-1" Cut="0.0000000000000000e+00" cType="1" res="-3.2831868156790733e-03" rms="4.2000365257263184e-01" purity="3.3010321855545044e-01" nType="-99"/>
      </Node>
    </BinaryTree>
    <BinaryTree type="DecisionTree" boostWeight="1.0000000000000000e+00" itree="505">
      <Node pos="s" depth="0" NCoef="0" IVar="1" Cut="9.1400462388992310e-01" cType="1" res="5.7477676309645176e-03" rms="4.5017817616462708e-01" purity="5.0472545623779297e-01" nType="0">
        <Node pos="l" depth="1" NCoef="0" IVar="-1" Cut="0.0000000000000000e+00" cType="1" res="-2.2992999292910099e-03" rms="4.0841814875602722e-01" purity="2.8175136446952820e-01" nType="-99"/>
        <Node pos="r" depth="1" NCoef="0" IVar="5" Cut="9.5657259225845337e-01" cType="1" res="9.0953698381781578e-03" rms="4.5344692468643188e-01" purity="5.2397108078002930e-01" nType="0">
          <Node pos="l" depth="2" NCoef="0" IVar="-1" Cut="0.0000000000000000e+00" cType="1" res="1.6222342383116484e-03" rms="4.4073992967605591e-01" purity="6.2930428981781006e-01" nType="-99"/>
          <Node pos="r" depth="2" NCoef="0" IVar="-1" Cut="0.0000000000000000e+00" cType="1" res="2.9167698812671006e-04" rms="4.5477813482284546e-01" purity="5.1181560754776001e-01" nType="-99"/>
        </Node>
      </Node>
    </BinaryTree>
    <BinaryTree type="DecisionTree" boostWeight="1.0000000000000000e+00" itree="506">
      <Node pos="s" depth="0" NCoef="0" IVar="7" Cut="-9.9957990646362305e-01" cType="1" res="-1.1459555244073272e-03" rms="4.5313954353332520e-01" purity="4.9612629413604736e-01" nType="0">
        <Node pos="l" depth="1" NCoef="0" IVar="3" Cut="1.3056646728515625e+02" cType="1" res="1.5869336202740669e-02" rms="4.5990183949470520e-01" purity="5.9320998191833496e-01" nType="0">
          <Node pos="l" depth="2" NCoef="0" IVar="-1" Cut="0.0000000000000000e+00" cType="1" res="1.0542590171098709e-03" rms="4.5983472466468811e-01" purity="6.1126720905303955e-01" nType="-99"/>
          <Node pos="r" depth="2" NCoef="0" IVar="-1" Cut="0.0000000000000000e+00" cType="1" res="-6.7577528534457088e-04" rms="4.5894339680671692e-01" purity="5.2438211441040039e-01" nType="-99"/>
        </Node>
        <Node pos="r" depth="1" NCoef="0" IVar="2" Cut="1.0035180664062500e+02" cType="1" res="-7.9429531469941139e-03" rms="4.5023018121719360e-01" purity="4.5734485983848572e-01" nType="0">
          <Node pos="l" depth="2" NCoef="0" IVar="-1" Cut="0.0000000000000000e+00" cType="1" res="-9.4726734096184373e-04" rms="4.5479083061218262e-01" purity="4.3752700090408325e-01" nType="-99"/>
          <Node pos="r" depth="2" NCoef="0" IVar="-1" Cut="0.0000000000000000e+00" cType="1" res="2.4728363496251404e-04" rms="4.4369575381278992e-01" purity="4.8409190773963928e-01" nType="-99"/>
        </Node>
      </Node>
    </BinaryTree>
    <BinaryTree type="DecisionTree" boostWeight="1.0000000000000000e+00" itree="507">
      <Node pos="s" depth="0" NCoef="0" IVar="3" Cut="1.1516166687011719e+02" cType="1" res="-1.8231492722406983e-03" rms="4.5149895548820496e-01" purity="4.9484348297119141e-01" nType="0">
        <Node pos="l" depth="1" NCoef="0" IVar="6" Cut="3.5291897583007812e+02" cType="1" res="-1.8886977806687355e-02" rms="4.5266965031623840e-01" purity="4.2663905024528503e-01" nType="0">
          <Node pos="l" depth="2" NCoef="0" IVar="-1" Cut="0.0000000000000000e+00" cType="1" res="2.2939711925573647e-04" rms="4.4474956393241882e-01" purity="3.4222909808158875e-01" nType="-99"/>
          <Node pos="r" depth="2" NCoef="0" IVar="-1" Cut="0.0000000000000000e+00" cType="1" res="-1.5482687158510089e-03" rms="4.5586514472961426e-01" purity="4.6500691771507263e-01" nType="-99"/>
        </Node>
        <Node pos="r" depth="1" NCoef="0" IVar="4" Cut="2.6390404701232910e+00" cType="1" res="2.8041838668286800e-03" rms="4.5106974244117737e-01" purity="5.1333904266357422e-01" nType="0">
          <Node pos="l" depth="2" NCoef="0" IVar="-1" Cut="0.0000000000000000e+00" cType="1" res="3.3818747033365071e-04" rms="4.5811477303504944e-01" purity="5.5238199234008789e-01" nType="-99"/>
          <Node pos="r" depth="2" NCoef="0" IVar="-1" Cut="0.0000000000000000e+00" cType="1" res="-2.8205479029566050e-03" rms="3.9328619837760925e-01" purity="2.2322067618370056e-01" nType="-99"/>
        </Node>
      </Node>
    </BinaryTree>
    <BinaryTree type="DecisionTree" boostWeight="1.0000000000000000e+00" itree="508">
      <Node pos="s" depth="0" NCoef="0" IVar="0" Cut="1.2808762788772583e+00" cType="1" res="1.6662668203935027e-03" rms="4.4933536648750305e-01" purity="5.0094664096832275e-01" nType="0">
        <Node pos="l" depth="1" NCoef="0" IVar="2" Cut="8.8004341125488281e+01" cType="1" res="1.2218117713928223e-02" rms="4.4874384999275208e-01" purity="5.5556881427764893e-01" nType="0">
          <Node pos="l" depth="2" NCoef="0" IVar="-1" Cut="0.0000000000000000e+00" cType="1" res="-2.8337002731859684e-05" rms="4.6095499396324158e-01" purity="4.9157908558845520e-01" nType="-99"/>
          <Node pos="r" depth="2" NCoef="0" IVar="-1" Cut="0.0000000000000000e+00" cType="1" res="2.1101110614836216e-03" rms="4.0822702646255493e-01" purity="7.4457979202270508e-01" nType="-99"/>
        </Node>
        <Node pos="r" depth="1" NCoef="0" IVar="7" Cut="8.5658675432205200e-01" cType="1" res="-7.9717850312590599e-03" rms="4.4965863227844238e-01" purity="4.5105478167533875e-01" nType="0">
          <Node pos="l" depth="2" NCoef="0" IVar="-1" Cut="0.0000000000000000e+00" cType="1" res="-1.0036410531029105e-03" rms="4.4401746988296509e-01" purity="4.0412658452987671e-01" nType="-99"/>
          <Node pos="r" depth="2" NCoef="0" IVar="-1" Cut="0.0000000000000000e+00" cType="1" res="5.3174432832747698e-04" rms="4.6101993322372437e-01" purity="5.5244803428649902e-01" nType="-99"/>
        </Node>
      </Node>
    </BinaryTree>
    <BinaryTree type="DecisionTree" boostWeight="1.0000000000000000e+00" itree="509">
      <Node pos="s" depth="0" NCoef="0" IVar="5" Cut="1.1359186172485352e+00" cType="1" res="6.9443574175238609e-03" rms="4.5099022984504700e-01" purity="5.0606250762939453e-01" nType="0">
        <Node pos="l" depth="1" NCoef="0" IVar="3" Cut="1.1524002838134766e+02" cType="1" res="2.2002579644322395e-02" rms="4.5539388060569763e-01" purity="5.7888776063919067e-01" nType="0">
          <Node pos="l" depth="2" NCoef="0" IVar="-1" Cut="0.0000000000000000e+00" cType="1" res="-3.1324927113018930e-04" rms="4.6385365724563599e-01" purity="5.0845837593078613e-01" nType="-99"/>
          <Node pos="r" depth="2" NCoef="0" IVar="-1" Cut="0.0000000000000000e+00" cType="1" res="1.3358650030568242e-03" rms="4.5283871889114380e-01" purity="5.9748184680938721e-01" nType="-99"/>
        </Node>
        <Node pos="r" depth="1" NCoef="0" IVar="7" Cut="-1.1423172950744629e+00" cType="1" res="-1.1826307745650411e-03" rms="4.4838553667068481e-01" purity="4.6675843000411987e-01" nType="0">
          <Node pos="l" depth="2" NCoef="0" IVar="-1" Cut="0.0000000000000000e+00" cType="1" res="1.0110504226759076e-03" rms="4.6613869071006775e-01" purity="5.9617596864700317e-01" nType="-99"/>
          <Node pos="r" depth="2" NCoef="0" IVar="-1" Cut="0.0000000000000000e+00" cType="1" res="-3.9215566357597709e-04" rms="4.4367194175720215e-01" purity="4.3462654948234558e-01" nType="-99"/>
        </Node>
      </Node>
    </BinaryTree>
    <BinaryTree type="DecisionTree" boostWeight="1.0000000000000000e+00" itree="510">
      <Node pos="s" depth="0" NCoef="0" IVar="6" Cut="8.0290478515625000e+02" cType="1" res="1.3627064181491733e-03" rms="4.5146536827087402e-01" purity="4.9871736764907837e-01" nType="0">
        <Node pos="l" depth="1" NCoef="0" IVar="3" Cut="1.3371324157714844e+02" cType="1" res="-2.9601883143186569e-03" rms="4.5117110013961792e-01" purity="4.8504400253295898e-01" nType="0">
          <Node pos="l" depth="2" NCoef="0" IVar="-1" Cut="0.0000000000000000e+00" cType="1" res="7.9468423791695386e-05" rms="4.5272925496101379e-01" purity="5.0639533996582031e-01" nType="-99"/>
          <Node pos="r" depth="2" NCoef="0" IVar="-1" Cut="0.0000000000000000e+00" cType="1" res="-1.7263414338231087e-03" rms="4.4186383485794067e-01" purity="3.6980623006820679e-01" nType="-99"/>
        </Node>
        <Node pos="r" depth="1" NCoef="0" IVar="5" Cut="1.3534719944000244e+00" cType="1" res="3.2343879342079163e-02" rms="4.5236134529113770e-01" purity="5.9671127796173096e-01" nType="0">
          <Node pos="l" depth="2" NCoef="0" IVar="-1" Cut="0.0000000000000000e+00" cType="1" res="4.8063352005556226e-04" rms="4.4702509045600891e-01" purity="6.2114524841308594e-01" nType="-99"/>
          <Node pos="r" depth="2" NCoef="0" IVar="-1" Cut="0.0000000000000000e+00" cType="1" res="2.3654331453144550e-03" rms="4.5675319433212280e-01" purity="5.7138752937316895e-01" nType="-99"/>
        </Node>
      </Node>
    </BinaryTree>
    <BinaryTree type="DecisionTree" boostWeight="1.0000000000000000e+00" itree="511">
      <Node pos="s" depth="0" NCoef="0" IVar="3" Cut="1.3423814392089844e+02" cType="1" res="2.5084787048399448e-03" rms="4.5187675952911377e-01" purity="4.9601635336875916e-01" nType="0">
        <Node pos="l" depth="1" NCoef="0" IVar="0" Cut="6.8625324964523315e-01" cType="1" res="6.6551822237670422e-03" rms="4.5277491211891174e-01" purity="5.1728069782257080e-01" nType="0">
          <Node pos="l" depth="2" NCoef="0" IVar="-1" Cut="0.0000000000000000e+00" cType="1" res="-1.7697644652798772e-03" rms="4.4021487236022949e-01" purity="4.6449407935142517e-01" nType="-99"/>
          <Node pos="r" depth="2" NCoef="0" IVar="-1" Cut="0.0000000000000000e+00" cType="1" res="5.9375457931309938e-04" rms="4.5413935184478760e-01" purity="5.2425730228424072e-01" nType="-99"/>
        </Node>
        <Node pos="r" depth="1" NCoef="0" IVar="7" Cut="-7.1401590108871460e-01" cType="1" res="-2.1459080278873444e-02" rms="4.4589510560035706e-01" purity="3.7311059236526489e-01" nType="0">
          <Node pos="l" depth="2" NCoef="0" IVar="-1" Cut="0.0000000000000000e+00" cType="1" res="-3.1261828262358904e-03" rms="4.5504608750343323e-01" purity="3.8789641857147217e-01" nType="-99"/>
          <Node pos="r" depth="2" NCoef="0" IVar="-1" Cut="0.0000000000000000e+00" cType="1" res="-3.2196808024309576e-04" rms="4.4003295898437500e-01" purity="3.6518394947052002e-01" nType="-99"/>
        </Node>
      </Node>
    </BinaryTree>
    <BinaryTree type="DecisionTree" boostWeight="1.0000000000000000e+00" itree="512">
      <Node pos="s" depth="0" NCoef="0" IVar="7" Cut="7.1400213241577148e-01" cType="1" res="-3.9971824735403061e-03" rms="4.4985318183898926e-01" purity="4.9392396211624146e-01" nType="0">
        <Node pos="l" depth="1" NCoef="0" IVar="7" Cut="-2.2066032886505127e-01" cType="1" res="-1.3317326083779335e-02" rms="4.4571670889854431e-01" purity="4.5725736021995544e-01" nType="0">
          <Node pos="l" depth="2" NCoef="0" IVar="-1" Cut="0.0000000000000000e+00" cType="1" res="-2.0730168034788221e-04" rms="4.5255571603775024e-01" purity="4.9692028760910034e-01" nType="-99"/>
          <Node pos="r" depth="2" NCoef="0" IVar="-1" Cut="0.0000000000000000e+00" cType="1" res="-3.6927259061485529e-03" rms="4.1540670394897461e-01" purity="2.9966616630554199e-01" nType="-99"/>
        </Node>
        <Node pos="r" depth="1" NCoef="0" IVar="6" Cut="6.3739807128906250e+02" cType="1" res="1.0050578042864799e-02" rms="4.5565691590309143e-01" purity="5.4918962717056274e-01" nType="0">
          <Node pos="l" depth="2" NCoef="0" IVar="-1" Cut="0.0000000000000000e+00" cType="1" res="5.6163844419643283e-05" rms="4.5751181244850159e-01" purity="5.1709532737731934e-01" nType="-99"/>
          <Node pos="r" depth="2" NCoef="0" IVar="-1" Cut="0.0000000000000000e+00" cType="1" res="1.4921852853149176e-03" rms="4.4970297813415527e-01" purity="6.3619691133499146e-01" nType="-99"/>
        </Node>
      </Node>
    </BinaryTree>
    <BinaryTree type="DecisionTree" boostWeight="1.0000000000000000e+00" itree="513">
      <Node pos="s" depth="0" NCoef="0" IVar="0" Cut="2.1608362197875977e+00" cType="1" res="5.6320633739233017e-03" rms="4.5344448089599609e-01" purity="4.9946406483650208e-01" nType="0">
        <Node pos="l" depth="1" NCoef="0" IVar="2" Cut="9.3114143371582031e+01" cType="1" res="2.8139862697571516e-03" rms="4.5615172386169434e-01" purity="5.2370971441268921e-01" nType="0">
          <Node pos="l" depth="2" NCoef="0" IVar="-1" Cut="0.0000000000000000e+00" cType="1" res="-3.5751017276197672e-04" rms="4.6046435832977295e-01" purity="4.7483456134796143e-01" nType="-99"/>
          <Node pos="r" depth="2" NCoef="0" IVar="-1" Cut="0.0000000000000000e+00" cType="1" res="7.8843004303053021e-04" rms="4.4944328069686890e-01" purity="5.9461247920989990e-01" nType="-99"/>
        </Node>
        <Node pos="r" depth="1" NCoef="0" IVar="8" Cut="2.8121990966796875e+02" cType="1" res="2.7958419173955917e-02" rms="4.3074503540992737e-01" purity="3.0737617611885071e-01" nType="0">
          <Node pos="l" depth="2" NCoef="0" IVar="-1" Cut="0.0000000000000000e+00" cType="1" res="4.5802621170878410e-03" rms="4.5908209681510925e-01" purity="3.9703142642974854e-01" nType="-99"/>
          <Node pos="r" depth="2" NCoef="0" IVar="-1" Cut="0.0000000000000000e+00" cType="1" res="-1.4620944857597351e-03" rms="3.9669218659400940e-01" purity="2.2013384103775024e-01" nType="-99"/>
        </Node>
      </Node>
    </BinaryTree>
    <BinaryTree type="DecisionTree" boostWeight="1.0000000000000000e+00" itree="514">
      <Node pos="s" depth="0" NCoef="0" IVar="0" Cut="1.2503315210342407e+00" cType="1" res="3.4029365051537752e-03" rms="4.4931560754776001e-01" purity="5.0197756290435791e-01" nType="0">
        <Node pos="l" depth="1" NCoef="0" IVar="2" Cut="9.4156379699707031e+01" cType="1" res="1.6283946111798286e-02" rms="4.4872391223907471e-01" purity="5.5776232481002808e-01" nType="0">
          <Node pos="l" depth="2" NCoef="0" IVar="-1" Cut="0.0000000000000000e+00" cType="1" res="9.6425523224752396e-05" rms="4.6057358384132385e-01" purity="4.9931845068931580e-01" nType="-99"/>
          <Node pos="r" depth="2" NCoef="0" IVar="-1" Cut="0.0000000000000000e+00" cType="1" res="2.8660863172262907e-03" rms="3.9674711227416992e-01" purity="7.7645635604858398e-01" nType="-99"/>
        </Node>
        <Node pos="r" depth="1" NCoef="0" IVar="1" Cut="9.7898072004318237e-01" cType="1" res="-7.2980313561856747e-03" rms="4.4952598214149475e-01" purity="4.5563408732414246e-01" nType="0">
          <Node pos="l" depth="2" NCoef="0" IVar="-1" Cut="0.0000000000000000e+00" cType="1" res="-7.3248246917501092e-04" rms="4.5042741298675537e-01" purity="4.1111889481544495e-01" nType="-99"/>
          <Node pos="r" depth="2" NCoef="0" IVar="-1" Cut="0.0000000000000000e+00" cType="1" res="7.7046430669724941e-04" rms="4.4468358159065247e-01" purity="6.5351277589797974e-01" nType="-99"/>
        </Node>
      </Node>
    </BinaryTree>
    <BinaryTree type="DecisionTree" boostWeight="1.0000000000000000e+00" itree="515">
      <Node pos="s" depth="0" NCoef="0" IVar="2" Cut="1.1651625823974609e+02" cType="1" res="7.8775212168693542e-03" rms="4.5055031776428223e-01" purity="5.0717216730117798e-01" nType="0">
        <Node pos="l" depth="1" NCoef="0" IVar="2" Cut="3.5671936035156250e+01" cType="1" res="-7.2978448588401079e-04" rms="4.5357832312583923e-01" purity="5.0137597322463989e-01" nType="0">
          <Node pos="l" depth="2" NCoef="0" IVar="-1" Cut="0.0000000000000000e+00" cType="1" res="-2.7501562144607306e-03" rms="4.3574532866477966e-01" purity="3.2254347205162048e-01" nType="-99"/>
          <Node pos="r" depth="2" NCoef="0" IVar="-1" Cut="0.0000000000000000e+00" cType="1" res="2.0723007037304342e-04" rms="4.5538026094436646e-01" purity="5.2247959375381470e-01" nType="-99"/>
        </Node>
        <Node pos="r" depth="1" NCoef="0" IVar="4" Cut="2.4755434989929199e+00" cType="1" res="2.7011418715119362e-02" rms="4.4314655661582947e-01" purity="5.2005708217620850e-01" nType="0">
          <Node pos="l" depth="2" NCoef="0" IVar="-1" Cut="0.0000000000000000e+00" cType="1" res="5.3444463992491364e-04" rms="4.4767794013023376e-01" purity="6.0283255577087402e-01" nType="-99"/>
          <Node pos="r" depth="2" NCoef="0" IVar="-1" Cut="0.0000000000000000e+00" cType="1" res="3.7421609740704298e-03" rms="4.3295952677726746e-01" purity="3.6359235644340515e-01" nType="-99"/>
        </Node>
      </Node>
    </BinaryTree>
    <BinaryTree type="DecisionTree" boostWeight="1.0000000000000000e+00" itree="516">
      <Node pos="s" depth="0" NCoef="0" IVar="8" Cut="5.0774508666992188e+02" cType="1" res="-2.3707556538283825e-03" rms="4.5039254426956177e-01" purity="4.9495100975036621e-01" nType="0">
        <Node pos="l" depth="1" NCoef="0" IVar="2" Cut="4.3178054809570312e+01" cType="1" res="1.2183560756966472e-03" rms="4.5247754454612732e-01" purity="5.0874787569046021e-01" nType="0">
          <Node pos="l" depth="2" NCoef="0" IVar="-1" Cut="0.0000000000000000e+00" cType="1" res="-1.5774619532749057e-03" rms="4.5018756389617920e-01" purity="3.6932113766670227e-01" nType="-99"/>
          <Node pos="r" depth="2" NCoef="0" IVar="-1" Cut="0.0000000000000000e+00" cType="1" res="2.7796227368526161e-04" rms="4.5267900824546814e-01" purity="5.3061765432357788e-01" nType="-99"/>
        </Node>
        <Node pos="r" depth="1" NCoef="0" IVar="-1" Cut="0.0000000000000000e+00" cType="1" res="-3.0649381224066019e-03" rms="4.2272770404815674e-01" purity="3.3217337727546692e-01" nType="-99"/>
      </Node>
    </BinaryTree>
    <BinaryTree type="DecisionTree" boostWeight="1.0000000000000000e+00" itree="517">
      <Node pos="s" depth="0" NCoef="0" IVar="7" Cut="-1.4278594255447388e+00" cType="1" res="8.2683813525363803e-04" rms="4.5191848278045654e-01" purity="4.9674457311630249e-01" nType="0">
        <Node pos="l" depth="1" NCoef="0" IVar="-1" Cut="0.0000000000000000e+00" cType="1" res="1.5831565251573920e-03" rms="4.4204625487327576e-01" purity="6.6156792640686035e-01" nType="-99"/>
        <Node pos="r" depth="1" NCoef="0" IVar="4" Cut="1.8618031740188599e+00" cType="1" res="-2.1811132319271564e-03" rms="4.5260739326477051e-01" purity="4.8292300105094910e-01" nType="0">
          <Node pos="l" depth="2" NCoef="0" IVar="-1" Cut="0.0000000000000000e+00" cType="1" res="1.1250170646235347e-03" rms="4.5058628916740417e-01" purity="5.8844691514968872e-01" nType="-99"/>
          <Node pos="r" depth="2" NCoef="0" IVar="-1" Cut="0.0000000000000000e+00" cType="1" res="-2.8726394521072507e-04" rms="4.5273885130882263e-01" purity="4.7051921486854553e-01" nType="-99"/>
        </Node>
      </Node>
    </BinaryTree>
    <BinaryTree type="DecisionTree" boostWeight="1.0000000000000000e+00" itree="518">
      <Node pos="s" depth="0" NCoef="0" IVar="2" Cut="9.1050697326660156e+01" cType="1" res="9.9982263054698706e-04" rms="4.5210298895835876e-01" purity="4.9890401959419250e-01" nType="0">
        <Node pos="l" depth="1" NCoef="0" IVar="0" Cut="1.1655446290969849e+00" cType="1" res="-1.0285057127475739e-02" rms="4.6060088276863098e-01" purity="4.6256348490715027e-01" nType="0">
          <Node pos="l" depth="2" NCoef="0" IVar="-1" Cut="0.0000000000000000e+00" cType="1" res="-1.0086303063872037e-06" rms="4.6198546886444092e-01" purity="4.8848244547843933e-01" nType="-99"/>
          <Node pos="r" depth="2" NCoef="0" IVar="-1" Cut="0.0000000000000000e+00" cType="1" res="-1.4988713664934039e-03" rms="4.5789396762847900e-01" purity="4.2103096842765808e-01" nType="-99"/>
        </Node>
        <Node pos="r" depth="1" NCoef="0" IVar="2" Cut="1.2755119323730469e+02" cType="1" res="1.3328190892934799e-02" rms="4.4230395555496216e-01" purity="5.3860491514205933e-01" nType="0">
          <Node pos="l" depth="2" NCoef="0" IVar="-1" Cut="0.0000000000000000e+00" cType="1" res="1.5449877828359604e-03" rms="4.4036835432052612e-01" purity="6.1164170503616333e-01" nType="-99"/>
          <Node pos="r" depth="2" NCoef="0" IVar="-1" Cut="0.0000000000000000e+00" cType="1" res="-4.0382723091170192e-04" rms="4.4332391023635864e-01" purity="4.6407786011695862e-01" nType="-99"/>
        </Node>
      </Node>
    </BinaryTree>
    <BinaryTree type="DecisionTree" boostWeight="1.0000000000000000e+00" itree="519">
      <Node pos="s" depth="0" NCoef="0" IVar="7" Cut="9.9944072961807251e-01" cType="1" res="2.9845624230802059e-03" rms="4.5007729530334473e-01" purity="5.0255531072616577e-01" nType="0">
        <Node pos="l" depth="1" NCoef="0" IVar="3" Cut="1.2743621826171875e+02" cType="1" res="-5.3918380290269852e-03" rms="4.4781515002250671e-01" purity="4.5933347940444946e-01" nType="0">
          <Node pos="l" depth="2" NCoef="0" IVar="-1" Cut="0.0000000000000000e+00" cType="1" res="2.2225033899303526e-04" rms="4.5045617222785950e-01" purity="4.8506072163581848e-01" nType="-99"/>
          <Node pos="r" depth="2" NCoef="0" IVar="-1" Cut="0.0000000000000000e+00" cType="1" res="-1.5311660245060921e-03" rms="4.4152972102165222e-01" purity="4.0529772639274597e-01" nType="-99"/>
        </Node>
        <Node pos="r" depth="1" NCoef="0" IVar="4" Cut="2.3612658977508545e+00" cType="1" res="2.2979049012064934e-02" rms="4.5480838418006897e-01" purity="6.0572588443756104e-01" nType="0">
          <Node pos="l" depth="2" NCoef="0" IVar="-1" Cut="0.0000000000000000e+00" cType="1" res="5.9379811864346266e-04" rms="4.5030444860458374e-01" purity="6.3081705570220947e-01" nType="-99"/>
          <Node pos="r" depth="2" NCoef="0" IVar="-1" Cut="0.0000000000000000e+00" cType="1" res="2.5761444121599197e-03" rms="4.6825402975082397e-01" purity="5.2133697271347046e-01" nType="-99"/>
        </Node>
      </Node>
    </BinaryTree>
    <BinaryTree type="DecisionTree" boostWeight="1.0000000000000000e+00" itree="520">
      <Node pos="s" depth="0" NCoef="0" IVar="7" Cut="-8.5678255558013916e-01" cType="1" res="3.6475341767072678e-03" rms="4.5449629426002502e-01" purity="4.9819386005401611e-01" nType="0">
        <Node pos="l" depth="1" NCoef="0" IVar="0" Cut="1.4436994791030884e+00" cType="1" res="-1.1186863295733929e-02" rms="4.6324098110198975e-01" purity="5.4121160507202148e-01" nType="0">
          <Node pos="l" depth="2" NCoef="0" IVar="-1" Cut="0.0000000000000000e+00" cType="1" res="-1.2473987881094217e-03" rms="4.5796799659729004e-01" purity="5.5331158638000488e-01" nType="-99"/>
          <Node pos="r" depth="2" NCoef="0" IVar="-1" Cut="0.0000000000000000e+00" cType="1" res="5.7882221881300211e-04" rms="4.7044038772583008e-01" purity="5.2226591110229492e-01" nType="-99"/>
        </Node>
        <Node pos="r" depth="1" NCoef="0" IVar="4" Cut="1.9879449605941772e+00" cType="1" res="1.0936534032225609e-02" rms="4.4995811581611633e-01" purity="4.7705674171447754e-01" nType="0">
          <Node pos="l" depth="2" NCoef="0" IVar="-1" Cut="0.0000000000000000e+00" cType="1" res="1.7170251812785864e-03" rms="4.4855368137359619e-01" purity="6.1934936046600342e-01" nType="-99"/>
          <Node pos="r" depth="2" NCoef="0" IVar="-1" Cut="0.0000000000000000e+00" cType="1" res="2.2019892639946193e-04" rms="4.5002847909927368e-01" purity="4.4191455841064453e-01" nType="-99"/>
        </Node>
      </Node>
    </BinaryTree>
    <BinaryTree type="DecisionTree" boostWeight="1.0000000000000000e+00" itree="521">
      <Node pos="s" depth="0" NCoef="0" IVar="1" Cut="9.4695276021957397e-01" cType="1" res="2.0239755976945162e-03" rms="4.5284757018089294e-01" purity="5.0010681152343750e-01" nType="0">
        <Node pos="l" depth="1" NCoef="0" IVar="4" Cut="2.3713150024414062e+00" cType="1" res="1.3849359005689621e-02" rms="4.5201477408409119e-01" purity="3.9458039402961731e-01" nType="0">
          <Node pos="l" depth="2" NCoef="0" IVar="-1" Cut="0.0000000000000000e+00" cType="1" res="-9.2019508883822709e-05" rms="4.6777734160423279e-01" purity="4.5517328381538391e-01" nType="-99"/>
          <Node pos="r" depth="2" NCoef="0" IVar="-1" Cut="0.0000000000000000e+00" cType="1" res="3.1438118312507868e-03" rms="4.2350572347640991e-01" purity="2.9476282000541687e-01" nType="-99"/>
        </Node>
        <Node pos="r" depth="1" NCoef="0" IVar="3" Cut="1.3459834289550781e+02" cType="1" res="-5.4692449048161507e-03" rms="4.5321482419967651e-01" purity="5.6697422266006470e-01" nType="0">
          <Node pos="l" depth="2" NCoef="0" IVar="-1" Cut="0.0000000000000000e+00" cType="1" res="1.9030516341445036e-05" rms="4.5293113589286804e-01" purity="5.8884477615356445e-01" nType="-99"/>
          <Node pos="r" depth="2" NCoef="0" IVar="-1" Cut="0.0000000000000000e+00" cType="1" res="-2.3929190356284380e-03" rms="4.5324042439460754e-01" purity="4.2853331565856934e-01" nType="-99"/>
        </Node>
      </Node>
    </BinaryTree>
    <BinaryTree type="DecisionTree" boostWeight="1.0000000000000000e+00" itree="522">
      <Node pos="s" depth="0" NCoef="0" IVar="5" Cut="9.5154267549514771e-01" cType="1" res="-1.8341247923672199e-03" rms="4.5279756188392639e-01" purity="4.9212339520454407e-01" nType="0">
        <Node pos="l" depth="1" NCoef="0" IVar="-1" Cut="0.0000000000000000e+00" cType="1" res="1.3887508539482951e-03" rms="4.5075196027755737e-01" purity="6.0030466318130493e-01" nType="-99"/>
        <Node pos="r" depth="1" NCoef="0" IVar="0" Cut="1.1381822824478149e+00" cType="1" res="-5.2801221609115601e-03" rms="4.5287072658538818e-01" purity="4.8086866736412048e-01" nType="0">
          <Node pos="l" depth="2" NCoef="0" IVar="-1" Cut="0.0000000000000000e+00" cType="1" res="4.3972887215204537e-04" rms="4.5162564516067505e-01" purity="5.3368866443634033e-01" nType="-99"/>
          <Node pos="r" depth="2" NCoef="0" IVar="-1" Cut="0.0000000000000000e+00" cType="1" res="-8.4422796498984098e-04" rms="4.5346683263778687e-01" purity="4.4421595335006714e-01" nType="-99"/>
        </Node>
      </Node>
    </BinaryTree>
    <BinaryTree type="DecisionTree" boostWeight="1.0000000000000000e+00" itree="523">
      <Node pos="s" depth="0" NCoef="0" IVar="2" Cut="1.2926399230957031e+02" cType="1" res="7.1529200067743659e-04" rms="4.5061048865318298e-01" purity="4.9964258074760437e-01" nType="0">
        <Node pos="l" depth="1" NCoef="0" IVar="2" Cut="1.1312219238281250e+02" cType="1" res="8.1007378175854683e-03" rms="4.5252868533134460e-01" purity="5.1757317781448364e-01" nType="0">
          <Node pos="l" depth="2" NCoef="0" IVar="-1" Cut="0.0000000000000000e+00" cType="1" res="8.2087186456192285e-05" rms="4.5577624440193176e-01" purity="4.9840351939201355e-01" nType="-99"/>
          <Node pos="r" depth="2" NCoef="0" IVar="-1" Cut="0.0000000000000000e+00" cType="1" res="2.3429170250892639e-03" rms="4.2730775475502014e-01" purity="6.4748454093933105e-01" nType="-99"/>
        </Node>
        <Node pos="r" depth="1" NCoef="0" IVar="0" Cut="1.6106609106063843e+00" cType="1" res="-2.5717901065945625e-02" rms="4.4266861677169800e-01" purity="4.3546724319458008e-01" nType="0">
          <Node pos="l" depth="2" NCoef="0" IVar="-1" Cut="0.0000000000000000e+00" cType="1" res="8.1682097516022623e-05" rms="4.5225167274475098e-01" purity="6.4065992832183838e-01" nType="-99"/>
          <Node pos="r" depth="2" NCoef="0" IVar="-1" Cut="0.0000000000000000e+00" cType="1" res="-2.5471397675573826e-03" rms="4.3784794211387634e-01" purity="3.4538123011589050e-01" nType="-99"/>
        </Node>
      </Node>
    </BinaryTree>
    <BinaryTree type="DecisionTree" boostWeight="1.0000000000000000e+00" itree="524">
      <Node pos="s" depth="0" NCoef="0" IVar="2" Cut="5.9469474792480469e+01" cType="1" res="-5.6213635252788663e-04" rms="4.5318859815597534e-01" purity="4.9545916914939880e-01" nType="0">
        <Node pos="l" depth="1" NCoef="0" IVar="2" Cut="3.2904319763183594e+01" cType="1" res="-2.1001905202865601e-02" rms="4.5616117119789124e-01" purity="4.0912193059921265e-01" nType="0">
          <Node pos="l" depth="2" NCoef="0" IVar="-1" Cut="0.0000000000000000e+00" cType="1" res="-5.1386430859565735e-03" rms="4.2167222499847412e-01" purity="2.7660638093948364e-01" nType="-99"/>
          <Node pos="r" depth="2" NCoef="0" IVar="-1" Cut="0.0000000000000000e+00" cType="1" res="-4.3351738713681698e-04" rms="4.6382662653923035e-01" purity="4.4345214962959290e-01" nType="-99"/>
        </Node>
        <Node pos="r" depth="1" NCoef="0" IVar="0" Cut="9.8867559432983398e-01" cType="1" res="6.6467756405472755e-03" rms="4.5191505551338196e-01" purity="5.2590948343276978e-01" nType="0">
          <Node pos="l" depth="2" NCoef="0" IVar="-1" Cut="0.0000000000000000e+00" cType="1" res="1.8531555542722344e-03" rms="4.2854574322700500e-01" purity="6.9919270277023315e-01" nType="-99"/>
          <Node pos="r" depth="2" NCoef="0" IVar="-1" Cut="0.0000000000000000e+00" cType="1" res="-1.5216468455037102e-05" rms="4.5576244592666626e-01" purity="4.9389892816543579e-01" nType="-99"/>
        </Node>
      </Node>
    </BinaryTree>
    <BinaryTree type="DecisionTree" boostWeight="1.0000000000000000e+00" itree="525">
      <Node pos="s" depth="0" NCoef="0" IVar="0" Cut="1.2719587087631226e+00" cType="1" res="6.3095468794927001e-04" rms="4.4999659061431885e-01" purity="5.0051802396774292e-01" nType="0">
        <Node pos="l" depth="1" NCoef="0" IVar="2" Cut="9.4156379699707031e+01" cType="1" res="1.5995958819985390e-02" rms="4.4885304570198059e-01" purity="5.5867683887481689e-01" nType="0">
          <Node pos="l" depth="2" NCoef="0" IVar="-1" Cut="0.0000000000000000e+00" cType="1" res="1.3835450226906687e-04" rms="4.5885428786277771e-01" purity="5.0469160079956055e-01" nType="-99"/>
          <Node pos="r" depth="2" NCoef="0" IVar="-1" Cut="0.0000000000000000e+00" cType="1" res="2.7067135088145733e-03" rms="4.0553510189056396e-01" purity="7.6050609350204468e-01" nType="-99"/>
        </Node>
        <Node pos="r" depth="1" NCoef="0" IVar="2" Cut="1.2987907409667969e+02" cType="1" res="-1.3276911340653896e-02" rms="4.5057764649391174e-01" purity="4.4787463545799255e-01" nType="0">
          <Node pos="l" depth="2" NCoef="0" IVar="-1" Cut="0.0000000000000000e+00" cType="1" res="-2.1186191588640213e-04" rms="4.5253384113311768e-01" purity="4.7715020179748535e-01" nType="-99"/>
          <Node pos="r" depth="2" NCoef="0" IVar="-1" Cut="0.0000000000000000e+00" cType="1" res="-1.8087573116645217e-03" rms="4.4670286774635315e-01" purity="3.9702716469764709e-01" nType="-99"/>
        </Node>
      </Node>
    </BinaryTree>
    <BinaryTree type="DecisionTree" boostWeight="1.0000000000000000e+00" itree="526">
      <Node pos="s" depth="0" NCoef="0" IVar="3" Cut="1.3738551330566406e+02" cType="1" res="4.5733870938420296e-03" rms="4.5073351263999939e-01" purity="5.0148361921310425e-01" nType="0">
        <Node pos="l" depth="1" NCoef="0" IVar="5" Cut="1.6120668649673462e+00" cType="1" res="8.6183603852987289e-03" rms="4.5187520980834961e-01" purity="5.1995128393173218e-01" nType="0">
          <Node pos="l" depth="2" NCoef="0" IVar="-1" Cut="0.0000000000000000e+00" cType="1" res="6.6242780303582549e-04" rms="4.5364788174629211e-01" purity="5.4553735256195068e-01" nType="-99"/>
          <Node pos="r" depth="2" NCoef="0" IVar="-1" Cut="0.0000000000000000e+00" cType="1" res="-1.3007085071876645e-03" rms="4.4044411182403564e-01" purity="3.7367871403694153e-01" nType="-99"/>
        </Node>
        <Node pos="r" depth="1" NCoef="0" IVar="7" Cut="1.4284802973270416e-01" cType="1" res="-3.1018864363431931e-02" rms="4.3895614147186279e-01" purity="3.3898371458053589e-01" nType="0">
          <Node pos="l" depth="2" NCoef="0" IVar="-1" Cut="0.0000000000000000e+00" cType="1" res="-9.2539085017051548e-05" rms="4.4361746311187744e-01" purity="3.6296066641807556e-01" nType="-99"/>
          <Node pos="r" depth="2" NCoef="0" IVar="-1" Cut="0.0000000000000000e+00" cType="1" res="-4.3930211104452610e-03" rms="4.3211826682090759e-01" purity="3.1468328833580017e-01" nType="-99"/>
        </Node>
      </Node>
    </BinaryTree>
    <BinaryTree type="DecisionTree" boostWeight="1.0000000000000000e+00" itree="527">
      <Node pos="s" depth="0" NCoef="0" IVar="8" Cut="5.2965032958984375e+02" cType="1" res="-2.4934804532676935e-03" rms="4.4995874166488647e-01" purity="4.9478411674499512e-01" nType="0">
        <Node pos="l" depth="1" NCoef="0" IVar="0" Cut="1.9626868963241577e+00" cType="1" res="4.3649226427078247e-04" rms="4.5172911882400513e-01" purity="5.0679880380630493e-01" nType="0">
          <Node pos="l" depth="2" NCoef="0" IVar="-1" Cut="0.0000000000000000e+00" cType="1" res="-1.8687387637328357e-04" rms="4.5266923308372498e-01" purity="5.3706413507461548e-01" nType="-99"/>
          <Node pos="r" depth="2" NCoef="0" IVar="-1" Cut="0.0000000000000000e+00" cType="1" res="1.4582523144781590e-03" rms="4.4634091854095459e-01" purity="3.5442471504211426e-01" nType="-99"/>
        </Node>
        <Node pos="r" depth="1" NCoef="0" IVar="-1" Cut="0.0000000000000000e+00" cType="1" res="-2.9584474395960569e-03" rms="4.2292180657386780e-01" purity="3.3017411828041077e-01" nType="-99"/>
      </Node>
    </BinaryTree>
    <BinaryTree type="DecisionTree" boostWeight="1.0000000000000000e+00" itree="528">
      <Node pos="s" depth="0" NCoef="0" IVar="6" Cut="2.8238894653320312e+02" cType="1" res="-2.5651995092630386e-03" rms="4.5177343487739563e-01" purity="4.9391195178031921e-01" nType="0">
        <Node pos="l" depth="1" NCoef="0" IVar="-1" Cut="0.0000000000000000e+00" cType="1" res="-3.8534724153578281e-03" rms="3.9340624213218689e-01" purity="2.4818250536918640e-01" nType="-99"/>
        <Node pos="r" depth="1" NCoef="0" IVar="0" Cut="8.2732456922531128e-01" cType="1" res="-1.1513935169205070e-04" rms="4.5479401946067810e-01" purity="5.0810021162033081e-01" nType="0">
          <Node pos="l" depth="2" NCoef="0" IVar="-1" Cut="0.0000000000000000e+00" cType="1" res="9.4756321050226688e-04" rms="4.6203830838203430e-01" purity="5.2827072143554688e-01" nType="-99"/>
          <Node pos="r" depth="2" NCoef="0" IVar="-1" Cut="0.0000000000000000e+00" cType="1" res="-2.6561610866338015e-04" rms="4.5278298854827881e-01" purity="5.0294184684753418e-01" nType="-99"/>
        </Node>
      </Node>
    </BinaryTree>
    <BinaryTree type="DecisionTree" boostWeight="1.0000000000000000e+00" itree="529">
      <Node pos="s" depth="0" NCoef="0" IVar="6" Cut="8.5674896240234375e+02" cType="1" res="5.5108820088207722e-03" rms="4.5211210846900940e-01" purity="5.0261610746383667e-01" nType="0">
        <Node pos="l" depth="1" NCoef="0" IVar="8" Cut="1.9364382934570312e+02" cType="1" res="2.2145952098071575e-03" rms="4.5182347297668457e-01" purity="4.9200394749641418e-01" nType="0">
          <Node pos="l" depth="2" NCoef="0" IVar="-1" Cut="0.0000000000000000e+00" cType="1" res="5.8446690673008561e-04" rms="4.6043860912322998e-01" purity="5.2808308601379395e-01" nType="-99"/>
          <Node pos="r" depth="2" NCoef="0" IVar="-1" Cut="0.0000000000000000e+00" cType="1" res="-3.4800608409568667e-04" rms="4.4406118988990784e-01" purity="4.6080568432807922e-01" nType="-99"/>
        </Node>
        <Node pos="r" depth="1" NCoef="0" IVar="-1" Cut="0.0000000000000000e+00" cType="1" res="1.6664506401866674e-03" rms="4.5365402102470398e-01" purity="6.0388565063476562e-01" nType="-99"/>
      </Node>
    </BinaryTree>
    <BinaryTree type="DecisionTree" boostWeight="1.0000000000000000e+00" itree="530">
      <Node pos="s" depth="0" NCoef="0" IVar="1" Cut="9.0801155567169189e-01" cType="1" res="3.0030137859284878e-03" rms="4.4982060790061951e-01" purity="5.0177204608917236e-01" nType="0">
        <Node pos="l" depth="1" NCoef="0" IVar="-1" Cut="0.0000000000000000e+00" cType="1" res="-3.2539744861423969e-03" rms="4.0397146344184875e-01" purity="2.5212267041206360e-01" nType="-99"/>
        <Node pos="r" depth="1" NCoef="0" IVar="0" Cut="1.1296601295471191e+00" cType="1" res="5.3778807632625103e-03" rms="4.5198422670364380e-01" purity="5.1493376493453979e-01" nType="0">
          <Node pos="l" depth="2" NCoef="0" IVar="-1" Cut="0.0000000000000000e+00" cType="1" res="7.9092400847002864e-04" rms="4.5037207007408142e-01" purity="5.6069868803024292e-01" nType="-99"/>
          <Node pos="r" depth="2" NCoef="0" IVar="-1" Cut="0.0000000000000000e+00" cType="1" res="-1.0099267819896340e-04" rms="4.5283663272857666e-01" purity="4.8630678653717041e-01" nType="-99"/>
        </Node>
      </Node>
    </BinaryTree>
    <BinaryTree type="DecisionTree" boostWeight="1.0000000000000000e+00" itree="531">
      <Node pos="s" depth="0" NCoef="0" IVar="3" Cut="1.4461666870117188e+02" cType="1" res="-3.1489590182900429e-03" rms="4.4943317770957947e-01" purity="4.9493500590324402e-01" nType="0">
        <Node pos="l" depth="1" NCoef="0" IVar="2" Cut="1.3118980407714844e+02" cType="1" res="-3.5576862865127623e-04" rms="4.5160388946533203e-01" purity="5.0776576995849609e-01" nType="0">
          <Node pos="l" depth="2" NCoef="0" IVar="-1" Cut="0.0000000000000000e+00" cType="1" res="3.4781394060701132e-04" rms="4.5280855894088745e-01" purity="5.2419209480285645e-01" nType="-99"/>
          <Node pos="r" depth="2" NCoef="0" IVar="-1" Cut="0.0000000000000000e+00" cType="1" res="-1.6954565653577447e-03" rms="4.4560495018959045e-01" purity="4.4303235411643982e-01" nType="-99"/>
        </Node>
        <Node pos="r" depth="1" NCoef="0" IVar="-1" Cut="0.0000000000000000e+00" cType="1" res="-4.6520167961716652e-03" rms="4.0368488430976868e-01" purity="2.5739452242851257e-01" nType="-99"/>
      </Node>
    </BinaryTree>
    <BinaryTree type="DecisionTree" boostWeight="1.0000000000000000e+00" itree="532">
      <Node pos="s" depth="0" NCoef="0" IVar="3" Cut="1.3738551330566406e+02" cType="1" res="-9.4822171377018094e-04" rms="4.5002904534339905e-01" purity="4.9531102180480957e-01" nType="0">
        <Node pos="l" depth="1" NCoef="0" IVar="7" Cut="8.5678565502166748e-01" cType="1" res="1.9201255636289716e-03" rms="4.5133945345878601e-01" purity="5.1345860958099365e-01" nType="0">
          <Node pos="l" depth="2" NCoef="0" IVar="-1" Cut="0.0000000000000000e+00" cType="1" res="-2.8345925966277719e-04" rms="4.4989696145057678e-01" purity="4.7135037183761597e-01" nType="-99"/>
          <Node pos="r" depth="2" NCoef="0" IVar="-1" Cut="0.0000000000000000e+00" cType="1" res="6.8856618599966168e-04" rms="4.5364299416542053e-01" purity="5.8965444564819336e-01" nType="-99"/>
        </Node>
        <Node pos="r" depth="1" NCoef="0" IVar="7" Cut="1.4280322194099426e-01" cType="1" res="-2.6265280321240425e-02" rms="4.3747818470001221e-01" purity="3.3513429760932922e-01" nType="0">
          <Node pos="l" depth="2" NCoef="0" IVar="-1" Cut="0.0000000000000000e+00" cType="1" res="-1.0960146319121122e-03" rms="4.4212073087692261e-01" purity="3.2967710494995117e-01" nType="-99"/>
          <Node pos="r" depth="2" NCoef="0" IVar="-1" Cut="0.0000000000000000e+00" cType="1" res="-2.4792957119643688e-03" rms="4.3250271677970886e-01" purity="3.4061503410339355e-01" nType="-99"/>
        </Node>
      </Node>
    </BinaryTree>
    <BinaryTree type="DecisionTree" boostWeight="1.0000000000000000e+00" itree="533">
      <Node pos="s" depth="0" NCoef="0" IVar="5" Cut="9.6223545074462891e-01" cType="1" res="4.0616896003484726e-03" rms="4.5274677872657776e-01" purity="5.0379806756973267e-01" nType="0">
        <Node pos="l" depth="1" NCoef="0" IVar="-1" Cut="0.0000000000000000e+00" cType="1" res="1.5924060717225075e-03" rms="4.5135840773582458e-01" purity="6.1461579799652100e-01" nType="-99"/>
        <Node pos="r" depth="1" NCoef="0" IVar="7" Cut="7.1400338411331177e-01" cType="1" res="2.5155014009214938e-04" rms="4.5276311039924622e-01" purity="4.9051770567893982e-01" nType="0">
          <Node pos="l" depth="2" NCoef="0" IVar="-1" Cut="0.0000000000000000e+00" cType="1" res="-4.3563899816945195e-04" rms="4.4966411590576172e-01" purity="4.5290860533714294e-01" nType="-99"/>
          <Node pos="r" depth="2" NCoef="0" IVar="-1" Cut="0.0000000000000000e+00" cType="1" res="6.0052447952330112e-04" rms="4.5712769031524658e-01" purity="5.4735249280929565e-01" nType="-99"/>
        </Node>
      </Node>
    </BinaryTree>
    <BinaryTree type="DecisionTree" boostWeight="1.0000000000000000e+00" itree="534">
      <Node pos="s" depth="0" NCoef="0" IVar="8" Cut="1.4624856567382812e+02" cType="1" res="3.5487290006130934e-04" rms="4.5177176594734192e-01" purity="4.9796074628829956e-01" nType="0">
        <Node pos="l" depth="1" NCoef="0" IVar="6" Cut="3.4227804565429688e+02" cType="1" res="-1.9987901672720909e-02" rms="4.6416625380516052e-01" purity="4.7307959198951721e-01" nType="0">
          <Node pos="l" depth="2" NCoef="0" IVar="-1" Cut="0.0000000000000000e+00" cType="1" res="3.6941279540769756e-04" rms="4.5780026912689209e-01" purity="3.8638949394226074e-01" nType="-99"/>
          <Node pos="r" depth="2" NCoef="0" IVar="-1" Cut="0.0000000000000000e+00" cType="1" res="-1.6975187463685870e-03" rms="4.6720328927040100e-01" purity="5.2435070276260376e-01" nType="-99"/>
        </Node>
        <Node pos="r" depth="1" NCoef="0" IVar="2" Cut="6.6462875366210938e+01" cType="1" res="6.1752833425998688e-03" rms="4.4799247384071350e-01" purity="5.0507962703704834e-01" nType="0">
          <Node pos="l" depth="2" NCoef="0" IVar="-1" Cut="0.0000000000000000e+00" cType="1" res="-8.0599507782608271e-04" rms="4.5451748371124268e-01" purity="4.3096095323562622e-01" nType="-99"/>
          <Node pos="r" depth="2" NCoef="0" IVar="-1" Cut="0.0000000000000000e+00" cType="1" res="6.6643947502598166e-04" rms="4.4555571675300598e-01" purity="5.3002136945724487e-01" nType="-99"/>
        </Node>
      </Node>
    </BinaryTree>
    <BinaryTree type="DecisionTree" boostWeight="1.0000000000000000e+00" itree="535">
      <Node pos="s" depth="0" NCoef="0" IVar="5" Cut="1.3175890445709229e+00" cType="1" res="1.8512293463572860e-03" rms="4.5215559005737305e-01" purity="4.9808585643768311e-01" nType="0">
        <Node pos="l" depth="1" NCoef="0" IVar="7" Cut="-4.2845621705055237e-01" cType="1" res="9.9542615935206413e-03" rms="4.5687702298164368e-01" purity="5.4999232292175293e-01" nType="0">
          <Node pos="l" depth="2" NCoef="0" IVar="-1" Cut="0.0000000000000000e+00" cType="1" res="1.2446920154616237e-03" rms="4.6287620067596436e-01" purity="5.7389032840728760e-01" nType="-99"/>
          <Node pos="r" depth="2" NCoef="0" IVar="-1" Cut="0.0000000000000000e+00" cType="1" res="-2.4118763394653797e-04" rms="4.5102182030677795e-01" purity="5.2901983261108398e-01" nType="-99"/>
        </Node>
        <Node pos="r" depth="1" NCoef="0" IVar="7" Cut="9.9977153539657593e-01" cType="1" res="-9.6850218251347542e-03" rms="4.4509291648864746e-01" purity="4.2418679594993591e-01" nType="0">
          <Node pos="l" depth="2" NCoef="0" IVar="-1" Cut="0.0000000000000000e+00" cType="1" res="-1.2083402834832668e-03" rms="4.3717697262763977e-01" purity="3.8225930929183960e-01" nType="-99"/>
          <Node pos="r" depth="2" NCoef="0" IVar="-1" Cut="0.0000000000000000e+00" cType="1" res="1.0366826318204403e-03" rms="4.6810287237167358e-01" purity="5.5846399068832397e-01" nType="-99"/>
        </Node>
      </Node>
    </BinaryTree>
    <BinaryTree type="DecisionTree" boostWeight="1.0000000000000000e+00" itree="536">
      <Node pos="s" depth="0" NCoef="0" IVar="0" Cut="2.0314388275146484e+00" cType="1" res="3.0398052185773849e-03" rms="4.5131608843803406e-01" purity="5.0169289112091064e-01" nType="0">
        <Node pos="l" depth="1" NCoef="0" IVar="2" Cut="9.2148284912109375e+01" cType="1" res="7.3329666629433632e-03" rms="4.5710584521293640e-01" purity="5.3683447837829590e-01" nType="0">
          <Node pos="l" depth="2" NCoef="0" IVar="-1" Cut="0.0000000000000000e+00" cType="1" res="-2.0807544933632016e-04" rms="4.6187523007392883e-01" purity="4.7983589768409729e-01" nType="-99"/>
          <Node pos="r" depth="2" NCoef="0" IVar="-1" Cut="0.0000000000000000e+00" cType="1" res="1.0964833199977875e-03" rms="4.4941252470016479e-01" purity="6.2126380205154419e-01" nType="-99"/>
        </Node>
        <Node pos="r" depth="1" NCoef="0" IVar="7" Cut="9.2655420303344727e-04" cType="1" res="-2.4113118648529053e-02" rms="4.1178554296493530e-01" purity="2.7943316102027893e-01" nType="0">
          <Node pos="l" depth="2" NCoef="0" IVar="-1" Cut="0.0000000000000000e+00" cType="1" res="-1.6692675126250833e-04" rms="4.2419758439064026e-01" purity="3.0133661627769470e-01" nType="-99"/>
          <Node pos="r" depth="2" NCoef="0" IVar="-1" Cut="0.0000000000000000e+00" cType="1" res="-3.9361231029033661e-03" rms="3.9618968963623047e-01" purity="2.5519576668739319e-01" nType="-99"/>
        </Node>
      </Node>
    </BinaryTree>
    <BinaryTree type="DecisionTree" boostWeight="1.0000000000000000e+00" itree="537">
      <Node pos="s" depth="0" NCoef="0" IVar="7" Cut="8.5678565502166748e-01" cType="1" res="1.8796937074512243e-03" rms="4.5080292224884033e-01" purity="4.9914729595184326e-01" nType="0">
        <Node pos="l" depth="1" NCoef="0" IVar="7" Cut="-1.2397441864013672e+00" cType="1" res="-5.1281405612826347e-03" rms="4.4796723127365112e-01" purity="4.5673656463623047e-01" nType="0">
          <Node pos="l" depth="2" NCoef="0" IVar="-1" Cut="0.0000000000000000e+00" cType="1" res="1.0390392271801829e-03" rms="4.6122670173645020e-01" purity="6.2071561813354492e-01" nType="-99"/>
          <Node pos="r" depth="2" NCoef="0" IVar="-1" Cut="0.0000000000000000e+00" cType="1" res="-9.3680887948721647e-04" rms="4.4250360131263733e-01" purity="3.9615508913993835e-01" nType="-99"/>
        </Node>
        <Node pos="r" depth="1" NCoef="0" IVar="4" Cut="2.4649662971496582e+00" cType="1" res="1.4746398665010929e-02" rms="4.5568302273750305e-01" purity="5.7701539993286133e-01" nType="0">
          <Node pos="l" depth="2" NCoef="0" IVar="-1" Cut="0.0000000000000000e+00" cType="1" res="4.2074170778505504e-04" rms="4.5542559027671814e-01" purity="6.0386449098587036e-01" nType="-99"/>
          <Node pos="r" depth="2" NCoef="0" IVar="-1" Cut="0.0000000000000000e+00" cType="1" res="2.2753591183573008e-03" rms="4.5599576830863953e-01" purity="4.3780100345611572e-01" nType="-99"/>
        </Node>
      </Node>
    </BinaryTree>
    <BinaryTree type="DecisionTree" boostWeight="1.0000000000000000e+00" itree="538">
      <Node pos="s" depth="0" NCoef="0" IVar="1" Cut="9.8571515083312988e-01" cType="1" res="9.3342940090224147e-04" rms="4.5221352577209473e-01" purity="4.9908602237701416e-01" nType="0">
        <Node pos="l" depth="1" NCoef="0" IVar="4" Cut="2.4463772773742676e+00" cType="1" res="-2.8183166868984699e-03" rms="4.5476704835891724e-01" purity="4.7287523746490479e-01" nType="0">
          <Node pos="l" depth="2" NCoef="0" IVar="-1" Cut="0.0000000000000000e+00" cType="1" res="-3.6979335709474981e-04" rms="4.6336561441421509e-01" purity="5.3257161378860474e-01" nType="-99"/>
          <Node pos="r" depth="2" NCoef="0" IVar="-1" Cut="0.0000000000000000e+00" cType="1" res="8.1257254350930452e-04" rms="4.2977508902549744e-01" purity="3.0764532089233398e-01" nType="-99"/>
        </Node>
        <Node pos="r" depth="1" NCoef="0" IVar="-1" Cut="0.0000000000000000e+00" cType="1" res="1.3504910748451948e-03" rms="4.3025904893875122e-01" purity="7.0705646276473999e-01" nType="-99"/>
      </Node>
    </BinaryTree>
    <BinaryTree type="DecisionTree" boostWeight="1.0000000000000000e+00" itree="539">
      <Node pos="s" depth="0" NCoef="0" IVar="3" Cut="1.3738551330566406e+02" cType="1" res="1.8541322788223624e-03" rms="4.5117193460464478e-01" purity="4.9932560324668884e-01" nType="0">
        <Node pos="l" depth="1" NCoef="0" IVar="4" Cut="2.0295772552490234e+00" cType="1" res="5.4336036555469036e-03" rms="4.5332002639770508e-01" purity="5.1856398582458496e-01" nType="0">
          <Node pos="l" depth="2" NCoef="0" IVar="-1" Cut="0.0000000000000000e+00" cType="1" res="1.0733483359217644e-03" rms="4.5048758387565613e-01" purity="6.3023066520690918e-01" nType="-99"/>
          <Node pos="r" depth="2" NCoef="0" IVar="-1" Cut="0.0000000000000000e+00" cType="1" res="-7.1752030635252595e-05" rms="4.5413854718208313e-01" purity="4.7850143909454346e-01" nType="-99"/>
        </Node>
        <Node pos="r" depth="1" NCoef="0" IVar="0" Cut="1.4373303651809692e+00" cType="1" res="-2.8482044115662575e-02" rms="4.3134766817092896e-01" purity="3.3627977967262268e-01" nType="0">
          <Node pos="l" depth="2" NCoef="0" IVar="-1" Cut="0.0000000000000000e+00" cType="1" res="-2.5794289540499449e-03" rms="4.4160041213035583e-01" purity="3.8075977563858032e-01" nType="-99"/>
          <Node pos="r" depth="2" NCoef="0" IVar="-1" Cut="0.0000000000000000e+00" cType="1" res="-9.6926471451297402e-04" rms="4.1969072818756104e-01" purity="2.8955224156379700e-01" nType="-99"/>
        </Node>
      </Node>
    </BinaryTree>
    <BinaryTree type="DecisionTree" boostWeight="1.0000000000000000e+00" itree="540">
      <Node pos="s" depth="0" NCoef="0" IVar="7" Cut="-4.2839050292968750e-01" cType="1" res="8.9955382281914353e-04" rms="4.5091870427131653e-01" purity="4.9901726841926575e-01" nType="0">
        <Node pos="l" depth="1" NCoef="0" IVar="8" Cut="3.9084991455078125e+02" cType="1" res="1.5809275209903717e-02" rms="4.5729383826255798e-01" purity="5.2645963430404663e-01" nType="0">
          <Node pos="l" depth="2" NCoef="0" IVar="-1" Cut="0.0000000000000000e+00" cType="1" res="5.4942409042268991e-04" rms="4.5676586031913757e-01" purity="5.3563314676284790e-01" nType="-99"/>
          <Node pos="r" depth="2" NCoef="0" IVar="-1" Cut="0.0000000000000000e+00" cType="1" res="2.1199532784521580e-03" rms="4.5944455265998840e-01" purity="4.7474780678749084e-01" nType="-99"/>
        </Node>
        <Node pos="r" depth="1" NCoef="0" IVar="7" Cut="7.5307387113571167e-01" cType="1" res="-1.1966159567236900e-02" rms="4.4494280219078064e-01" purity="4.7533705830574036e-01" nType="0">
          <Node pos="l" depth="2" NCoef="0" IVar="-1" Cut="0.0000000000000000e+00" cType="1" res="-3.3048349432647228e-03" rms="4.1511288285255432e-01" purity="3.0068007111549377e-01" nType="-99"/>
          <Node pos="r" depth="2" NCoef="0" IVar="-1" Cut="0.0000000000000000e+00" cType="1" res="8.1842546933330595e-05" rms="4.5621803402900696e-01" purity="5.4881465435028076e-01" nType="-99"/>
        </Node>
      </Node>
    </BinaryTree>
    <BinaryTree type="DecisionTree" boostWeight="1.0000000000000000e+00" itree="541">
      <Node pos="s" depth="0" NCoef="0" IVar="0" Cut="9.8248398303985596e-01" cType="1" res="-1.8572119297459722e-03" rms="4.4952735304832458e-01" purity="4.9574175477027893e-01" nType="0">
        <Node pos="l" depth="1" NCoef="0" IVar="2" Cut="3.9072563171386719e+01" cType="1" res="1.1162993498146534e-02" rms="4.4622004032135010e-01" purity="5.3321772813796997e-01" nType="0">
          <Node pos="l" depth="2" NCoef="0" IVar="-1" Cut="0.0000000000000000e+00" cType="1" res="-2.0056709181517363e-03" rms="4.4071528315544128e-01" purity="3.4483289718627930e-01" nType="-99"/>
          <Node pos="r" depth="2" NCoef="0" IVar="-1" Cut="0.0000000000000000e+00" cType="1" res="1.2726454297080636e-03" rms="4.4722995162010193e-01" purity="6.1012589931488037e-01" nType="-99"/>
        </Node>
        <Node pos="r" depth="1" NCoef="0" IVar="6" Cut="3.9202438354492188e+02" cType="1" res="-7.2991088964045048e-03" rms="4.5079109072685242e-01" purity="4.8007842898368835e-01" nType="0">
          <Node pos="l" depth="2" NCoef="0" IVar="-1" Cut="0.0000000000000000e+00" cType="1" res="-1.6530116554349661e-03" rms="4.4867673516273499e-01" purity="3.6363372206687927e-01" nType="-99"/>
          <Node pos="r" depth="2" NCoef="0" IVar="-1" Cut="0.0000000000000000e+00" cType="1" res="1.7936634321813472e-05" rms="4.5147389173507690e-01" purity="5.2981615066528320e-01" nType="-99"/>
        </Node>
      </Node>
    </BinaryTree>
    <BinaryTree type="DecisionTree" boostWeight="1.0000000000000000e+00" itree="542">
      <Node pos="s" depth="0" NCoef="0" IVar="3" Cut="1.0636575317382812e+02" cType="1" res="-4.7477558255195618e-03" rms="4.5269510149955750e-01" purity="4.9210613965988159e-01" nType="0">
        <Node pos="l" depth="1" NCoef="0" IVar="-1" Cut="0.0000000000000000e+00" cType="1" res="-2.8606096748262644e-03" rms="4.3400189280509949e-01" purity="3.5413536429405212e-01" nType="-99"/>
        <Node pos="r" depth="1" NCoef="0" IVar="0" Cut="2.2654242515563965e+00" cType="1" res="-6.0224457411095500e-04" rms="4.5443788170814514e-01" purity="5.0675618648529053e-01" nType="0">
          <Node pos="l" depth="2" NCoef="0" IVar="-1" Cut="0.0000000000000000e+00" cType="1" res="-1.8565449863672256e-04" rms="4.5638215541839600e-01" purity="5.2526026964187622e-01" nType="-99"/>
          <Node pos="r" depth="2" NCoef="0" IVar="-1" Cut="0.0000000000000000e+00" cType="1" res="2.6578491088002920e-03" rms="4.3126678466796875e-01" purity="3.0583700537681580e-01" nType="-99"/>
        </Node>
      </Node>
    </BinaryTree>
    <BinaryTree type="DecisionTree" boostWeight="1.0000000000000000e+00" itree="543">
      <Node pos="s" depth="0" NCoef="0" IVar="5" Cut="1.8013542890548706e+00" cType="1" res="-3.7127861287444830e-03" rms="4.4943618774414062e-01" purity="4.9684852361679077e-01" nType="0">
        <Node pos="l" depth="1" NCoef="0" IVar="3" Cut="1.2827944946289062e+02" cType="1" res="-2.0921947725582868e-04" rms="4.5144480466842651e-01" purity="5.1110595464706421e-01" nType="0">
          <Node pos="l" depth="2" NCoef="0" IVar="-1" Cut="0.0000000000000000e+00" cType="1" res="3.4911595867015421e-04" rms="4.5249933004379272e-01" purity="5.3478920459747314e-01" nType="-99"/>
          <Node pos="r" depth="2" NCoef="0" IVar="-1" Cut="0.0000000000000000e+00" cType="1" res="-1.0311349760740995e-03" rms="4.4824048876762390e-01" purity="4.5144799351692200e-01" nType="-99"/>
        </Node>
        <Node pos="r" depth="1" NCoef="0" IVar="-1" Cut="0.0000000000000000e+00" cType="1" res="-3.9087715558707714e-03" rms="4.1623771190643311e-01" purity="2.9180443286895752e-01" nType="-99"/>
      </Node>
    </BinaryTree>
    <BinaryTree type="DecisionTree" boostWeight="1.0000000000000000e+00" itree="544">
      <Node pos="s" depth="0" NCoef="0" IVar="5" Cut="9.5657259225845337e-01" cType="1" res="2.0008333958685398e-03" rms="4.5075985789299011e-01" purity="4.9871566891670227e-01" nType="0">
        <Node pos="l" depth="1" NCoef="0" IVar="-1" Cut="0.0000000000000000e+00" cType="1" res="1.8035608809441328e-03" rms="4.4605135917663574e-01" purity="6.1985617876052856e-01" nType="-99"/>
        <Node pos="r" depth="1" NCoef="0" IVar="4" Cut="2.7726175785064697e+00" cType="1" res="-2.4630059488117695e-03" rms="4.5108243823051453e-01" purity="4.8481619358062744e-01" nType="0">
          <Node pos="l" depth="2" NCoef="0" IVar="-1" Cut="0.0000000000000000e+00" cType="1" res="-4.8659717322152574e-06" rms="4.5740717649459839e-01" purity="5.0898301601409912e-01" nType="-99"/>
          <Node pos="r" depth="2" NCoef="0" IVar="-1" Cut="0.0000000000000000e+00" cType="1" res="-3.8302747998386621e-03" rms="3.5991531610488892e-01" purity="1.7794020473957062e-01" nType="-99"/>
        </Node>
      </Node>
    </BinaryTree>
    <BinaryTree type="DecisionTree" boostWeight="1.0000000000000000e+00" itree="545">
      <Node pos="s" depth="0" NCoef="0" IVar="6" Cut="9.2972589111328125e+02" cType="1" res="-1.9726152531802654e-03" rms="4.4745123386383057e-01" purity="4.9652105569839478e-01" nType="0">
        <Node pos="l" depth="1" NCoef="0" IVar="2" Cut="3.9389194488525391e+01" cType="1" res="-4.4815721921622753e-03" rms="4.4726642966270447e-01" purity="4.8911854624748230e-01" nType="0">
          <Node pos="l" depth="2" NCoef="0" IVar="-1" Cut="0.0000000000000000e+00" cType="1" res="-2.5936434976756573e-03" rms="4.3388304114341736e-01" purity="3.3212715387344360e-01" nType="-99"/>
          <Node pos="r" depth="2" NCoef="0" IVar="-1" Cut="0.0000000000000000e+00" cType="1" res="-6.9321295086410828e-06" rms="4.4861197471618652e-01" purity="5.0755697488784790e-01" nType="-99"/>
        </Node>
        <Node pos="r" depth="1" NCoef="0" IVar="-1" Cut="0.0000000000000000e+00" cType="1" res="1.4612398808822036e-03" rms="4.4856595993041992e-01" purity="5.9715372323989868e-01" nType="-99"/>
      </Node>
    </BinaryTree>
    <BinaryTree type="DecisionTree" boostWeight="1.0000000000000000e+00" itree="546">
      <Node pos="s" depth="0" NCoef="0" IVar="2" Cut="1.0942878723144531e+02" cType="1" res="-6.3013178296387196e-03" rms="4.4891723990440369e-01" purity="4.9498203396797180e-01" nType="0">
        <Node pos="l" depth="1" NCoef="0" IVar="2" Cut="3.8688560485839844e+01" cType="1" res="-1.3964388519525528e-02" rms="4.5365315675735474e-01" purity="4.8197069764137268e-01" nType="0">
          <Node pos="l" depth="2" NCoef="0" IVar="-1" Cut="0.0000000000000000e+00" cType="1" res="-3.2540638931095600e-03" rms="4.3293470144271851e-01" purity="3.2343107461929321e-01" nType="-99"/>
          <Node pos="r" depth="2" NCoef="0" IVar="-1" Cut="0.0000000000000000e+00" cType="1" res="-3.9907658356241882e-04" rms="4.5677343010902405e-01" purity="5.0859284400939941e-01" nType="-99"/>
        </Node>
        <Node pos="r" depth="1" NCoef="0" IVar="0" Cut="1.4656093120574951e+00" cType="1" res="7.9693449661135674e-03" rms="4.3960595130920410e-01" purity="5.1921254396438599e-01" nType="0">
          <Node pos="l" depth="2" NCoef="0" IVar="-1" Cut="0.0000000000000000e+00" cType="1" res="2.1943042520433664e-03" rms="4.0729427337646484e-01" purity="7.4938017129898071e-01" nType="-99"/>
          <Node pos="r" depth="2" NCoef="0" IVar="-1" Cut="0.0000000000000000e+00" cType="1" res="-5.8514164993539453e-04" rms="4.5122307538986206e-01" purity="4.2289316654205322e-01" nType="-99"/>
        </Node>
      </Node>
    </BinaryTree>
    <BinaryTree type="DecisionTree" boostWeight="1.0000000000000000e+00" itree="547">
      <Node pos="s" depth="0" NCoef="0" IVar="7" Cut="8.5679274797439575e-01" cType="1" res="5.9360279701650143e-03" rms="4.5091953873634338e-01" purity="5.0293850898742676e-01" nType="0">
        <Node pos="l" depth="1" NCoef="0" IVar="0" Cut="1.5730669498443604e+00" cType="1" res="-1.7322275089100003e-03" rms="4.4783022999763489e-01" purity="4.6256577968597412e-01" nType="0">
          <Node pos="l" depth="2" NCoef="0" IVar="-1" Cut="0.0000000000000000e+00" cType="1" res="4.5744088129140437e-04" rms="4.5694780349731445e-01" purity="5.2868956327438354e-01" nType="-99"/>
          <Node pos="r" depth="2" NCoef="0" IVar="-1" Cut="0.0000000000000000e+00" cType="1" res="-1.2943907640874386e-03" rms="4.3245124816894531e-01" purity="3.5816296935081482e-01" nType="-99"/>
        </Node>
        <Node pos="r" depth="1" NCoef="0" IVar="4" Cut="2.3554861545562744e+00" cType="1" res="2.0225083455443382e-02" rms="4.5627671480178833e-01" purity="5.7816922664642334e-01" nType="0">
          <Node pos="l" depth="2" NCoef="0" IVar="-1" Cut="0.0000000000000000e+00" cType="1" res="4.1372122359462082e-04" rms="4.5377531647682190e-01" purity="6.1204636096954346e-01" nType="-99"/>
          <Node pos="r" depth="2" NCoef="0" IVar="-1" Cut="0.0000000000000000e+00" cType="1" res="2.4860480334609747e-03" rms="4.6175786852836609e-01" purity="4.8490306735038757e-01" nType="-99"/>
        </Node>
      </Node>
    </BinaryTree>
    <BinaryTree type="DecisionTree" boostWeight="1.0000000000000000e+00" itree="548">
      <Node pos="s" depth="0" NCoef="0" IVar="6" Cut="4.2185641479492188e+02" cType="1" res="2.2061171475797892e-03" rms="4.4909387826919556e-01" purity="4.9949920177459717e-01" nType="0">
        <Node pos="l" depth="1" NCoef="0" IVar="0" Cut="8.3810955286026001e-01" cType="1" res="-1.0149781592190266e-02" rms="4.4680309295654297e-01" purity="3.9694243669509888e-01" nType="0">
          <Node pos="l" depth="2" NCoef="0" IVar="-1" Cut="0.0000000000000000e+00" cType="1" res="1.0772063396871090e-03" rms="4.4325149059295654e-01" purity="4.0362191200256348e-01" nType="-99"/>
          <Node pos="r" depth="2" NCoef="0" IVar="-1" Cut="0.0000000000000000e+00" cType="1" res="-1.0803818004205823e-03" rms="4.4743973016738892e-01" purity="3.9515492320060730e-01" nType="-99"/>
        </Node>
        <Node pos="r" depth="1" NCoef="0" IVar="2" Cut="1.6877384948730469e+02" cType="1" res="9.3883285298943520e-03" rms="4.5026430487632751e-01" purity="5.5911320447921753e-01" nType="0">
          <Node pos="l" depth="2" NCoef="0" IVar="-1" Cut="0.0000000000000000e+00" cType="1" res="6.2038720352575183e-04" rms="4.5049253106117249e-01" purity="5.8896327018737793e-01" nType="-99"/>
          <Node pos="r" depth="2" NCoef="0" IVar="-1" Cut="0.0000000000000000e+00" cType="1" res="-9.4675365835428238e-04" rms="4.4818952679634094e-01" purity="3.9056056737899780e-01" nType="-99"/>
        </Node>
      </Node>
    </BinaryTree>
    <BinaryTree type="DecisionTree" boostWeight="1.0000000000000000e+00" itree="549">
      <Node pos="s" depth="0" NCoef="0" IVar="8" Cut="4.0619729614257812e+02" cType="1" res="-8.2830182509496808e-04" rms="4.5242789387702942e-01" purity="4.9578446149826050e-01" nType="0">
        <Node pos="l" depth="1" NCoef="0" IVar="8" Cut="1.0165681457519531e+02" cType="1" res="3.5593227948993444e-03" rms="4.5456278324127197e-01" purity="5.1565676927566528e-01" nType="0">
          <Node pos="l" depth="2" NCoef="0" IVar="-1" Cut="0.0000000000000000e+00" cType="1" res="-1.8716814229264855e-03" rms="4.6212884783744812e-01" purity="4.0543419122695923e-01" nType="-99"/>
          <Node pos="r" depth="2" NCoef="0" IVar="-1" Cut="0.0000000000000000e+00" cType="1" res="3.4205606789328158e-04" rms="4.5370784401893616e-01" purity="5.2589708566665649e-01" nType="-99"/>
        </Node>
        <Node pos="r" depth="1" NCoef="0" IVar="4" Cut="2.4111003875732422e+00" cType="1" res="-2.9149623587727547e-02" rms="4.3733978271484375e-01" purity="3.6751213669776917e-01" nType="0">
          <Node pos="l" depth="2" NCoef="0" IVar="-1" Cut="0.0000000000000000e+00" cType="1" res="-3.0317329801619053e-03" rms="4.6283659338951111e-01" purity="4.8518449068069458e-01" nType="-99"/>
          <Node pos="r" depth="2" NCoef="0" IVar="-1" Cut="0.0000000000000000e+00" cType="1" res="-6.4493442187085748e-04" rms="4.1819816827774048e-01" purity="2.8911751508712769e-01" nType="-99"/>
        </Node>
      </Node>
    </BinaryTree>
    <BinaryTree type="DecisionTree" boostWeight="1.0000000000000000e+00" itree="550">
      <Node pos="s" depth="0" NCoef="0" IVar="4" Cut="2.1637346744537354e+00" cType="1" res="2.5919666513800621e-03" rms="4.5020452141761780e-01" purity="5.0148284435272217e-01" nType="0">
        <Node pos="l" depth="1" NCoef="0" IVar="5" Cut="1.5656104087829590e+00" cType="1" res="1.1407527141273022e-02" rms="4.5357480645179749e-01" purity="6.0791808366775513e-01" nType="0">
          <Node pos="l" depth="2" NCoef="0" IVar="-1" Cut="0.0000000000000000e+00" cType="1" res="2.4386878067161888e-04" rms="4.5190447568893433e-01" purity="6.1688154935836792e-01" nType="-99"/>
          <Node pos="r" depth="2" NCoef="0" IVar="-1" Cut="0.0000000000000000e+00" cType="1" res="1.8666115356609225e-03" rms="4.6101257205009460e-01" purity="5.6064492464065552e-01" nType="-99"/>
        </Node>
        <Node pos="r" depth="1" NCoef="0" IVar="7" Cut="-1.4279513061046600e-01" cType="1" res="-3.9645172655582428e-03" rms="4.4756886363029480e-01" purity="4.2232272028923035e-01" nType="0">
          <Node pos="l" depth="2" NCoef="0" IVar="-1" Cut="0.0000000000000000e+00" cType="1" res="4.6258227666839957e-04" rms="4.5296579599380493e-01" purity="4.3374061584472656e-01" nType="-99"/>
          <Node pos="r" depth="2" NCoef="0" IVar="-1" Cut="0.0000000000000000e+00" cType="1" res="-9.3729706713929772e-04" rms="4.4189351797103882e-01" purity="4.1115793585777283e-01" nType="-99"/>
        </Node>
      </Node>
    </BinaryTree>
    <BinaryTree type="DecisionTree" boostWeight="1.0000000000000000e+00" itree="551">
      <Node pos="s" depth="0" NCoef="0" IVar="5" Cut="1.5151391029357910e+00" cType="1" res="5.6131160818040371e-03" rms="4.5196670293807983e-01" purity="5.0435382127761841e-01" nType="0">
        <Node pos="l" depth="1" NCoef="0" IVar="2" Cut="1.1722224426269531e+02" cType="1" res="1.0548683814704418e-02" rms="4.5464941859245300e-01" purity="5.3798049688339233e-01" nType="0">
          <Node pos="l" depth="2" NCoef="0" IVar="-1" Cut="0.0000000000000000e+00" cType="1" res="2.6033024187199771e-04" rms="4.5984020829200745e-01" purity="5.3575062751770020e-01" nType="-99"/>
          <Node pos="r" depth="2" NCoef="0" IVar="-1" Cut="0.0000000000000000e+00" cType="1" res="1.0933713056147099e-03" rms="4.4282031059265137e-01" purity="5.4288083314895630e-01" nType="-99"/>
        </Node>
        <Node pos="r" depth="1" NCoef="0" IVar="8" Cut="1.5960508728027344e+02" cType="1" res="-1.1916487477719784e-02" rms="4.4186162948608398e-01" purity="3.8492238521575928e-01" nType="0">
          <Node pos="l" depth="2" NCoef="0" IVar="-1" Cut="0.0000000000000000e+00" cType="1" res="-2.4840307887643576e-03" rms="4.4007375836372375e-01" purity="3.8205459713935852e-01" nType="-99"/>
          <Node pos="r" depth="2" NCoef="0" IVar="-1" Cut="0.0000000000000000e+00" cType="1" res="-1.6770404181443155e-04" rms="4.4202736020088196e-01" purity="3.8582822680473328e-01" nType="-99"/>
        </Node>
      </Node>
    </BinaryTree>
    <BinaryTree type="DecisionTree" boostWeight="1.0000000000000000e+00" itree="552">
      <Node pos="s" depth="0" NCoef="0" IVar="2" Cut="6.3319942474365234e+01" cType="1" res="4.1480199433863163e-03" rms="4.5147797465324402e-01" purity="5.0164467096328735e-01" nType="0">
        <Node pos="l" depth="1" NCoef="0" IVar="6" Cut="5.4864093017578125e+02" cType="1" res="-5.8533116243779659e-03" rms="4.6060004830360413e-01" purity="4.2784053087234497e-01" nType="0">
          <Node pos="l" depth="2" NCoef="0" IVar="-1" Cut="0.0000000000000000e+00" cType="1" res="3.5740199382416904e-04" rms="4.5760324597358704e-01" purity="4.2048174142837524e-01" nType="-99"/>
          <Node pos="r" depth="2" NCoef="0" IVar="-1" Cut="0.0000000000000000e+00" cType="1" res="-2.5198480580002069e-03" rms="4.6866813302040100e-01" purity="4.5481866598129272e-01" nType="-99"/>
        </Node>
        <Node pos="r" depth="1" NCoef="0" IVar="0" Cut="9.8867559432983398e-01" cType="1" res="8.4724491462111473e-03" rms="4.4740691781044006e-01" purity="5.3355658054351807e-01" nType="0">
          <Node pos="l" depth="2" NCoef="0" IVar="-1" Cut="0.0000000000000000e+00" cType="1" res="1.6354192048311234e-03" rms="4.2134454846382141e-01" purity="7.1284949779510498e-01" nType="-99"/>
          <Node pos="r" depth="2" NCoef="0" IVar="-1" Cut="0.0000000000000000e+00" cType="1" res="1.7722352640703321e-04" rms="4.5135250687599182e-01" purity="5.0406229496002197e-01" nType="-99"/>
        </Node>
      </Node>
    </BinaryTree>
    <BinaryTree type="DecisionTree" boostWeight="1.0000000000000000e+00" itree="553">
      <Node pos="s" depth="0" NCoef="0" IVar="7" Cut="1.4279775619506836e+00" cType="1" res="2.8732332866638899e-03" rms="4.5031809806823730e-01" purity="5.0378549098968506e-01" nType="0">
        <Node pos="l" depth="1" NCoef="0" IVar="2" Cut="1.0816646575927734e+02" cType="1" res="-5.0008995458483696e-04" rms="4.5156988501548767e-01" purity="4.8960074782371521e-01" nType="0">
          <Node pos="l" depth="2" NCoef="0" IVar="-1" Cut="0.0000000000000000e+00" cType="1" res="-3.7058562156744301e-04" rms="4.5609450340270996e-01" purity="4.7918114066123962e-01" nType="-99"/>
          <Node pos="r" depth="2" NCoef="0" IVar="-1" Cut="0.0000000000000000e+00" cType="1" res="6.0032651526853442e-04" rms="4.4318887591362000e-01" purity="5.0806617736816406e-01" nType="-99"/>
        </Node>
        <Node pos="r" depth="1" NCoef="0" IVar="-1" Cut="0.0000000000000000e+00" cType="1" res="1.8132940167561173e-03" rms="4.3394717574119568e-01" purity="6.6546314954757690e-01" nType="-99"/>
      </Node>
    </BinaryTree>
    <BinaryTree type="DecisionTree" boostWeight="1.0000000000000000e+00" itree="554">
      <Node pos="s" depth="0" NCoef="0" IVar="3" Cut="1.2807376098632812e+02" cType="1" res="7.3320686351507902e-04" rms="4.4946187734603882e-01" purity="4.9901551008224487e-01" nType="0">
        <Node pos="l" depth="1" NCoef="0" IVar="3" Cut="1.1453595733642578e+02" cType="1" res="8.2176877185702324e-03" rms="4.5021897554397583e-01" purity="5.2220886945724487e-01" nType="0">
          <Node pos="l" depth="2" NCoef="0" IVar="-1" Cut="0.0000000000000000e+00" cType="1" res="-7.3548511136323214e-04" rms="4.4747191667556763e-01" purity="4.3190538883209229e-01" nType="-99"/>
          <Node pos="r" depth="2" NCoef="0" IVar="-1" Cut="0.0000000000000000e+00" cType="1" res="7.9477287363260984e-04" rms="4.5106288790702820e-01" purity="5.5957442522048950e-01" nType="-99"/>
        </Node>
        <Node pos="r" depth="1" NCoef="0" IVar="6" Cut="5.5693499755859375e+02" cType="1" res="-1.6928350552916527e-02" rms="4.4717395305633545e-01" purity="4.4428464770317078e-01" nType="0">
          <Node pos="l" depth="2" NCoef="0" IVar="-1" Cut="0.0000000000000000e+00" cType="1" res="-1.7006106209009886e-03" rms="4.4907253980636597e-01" purity="3.9158913493156433e-01" nType="-99"/>
          <Node pos="r" depth="2" NCoef="0" IVar="-1" Cut="0.0000000000000000e+00" cType="1" res="8.9674729679245502e-05" rms="4.4336348772048950e-01" purity="5.3194147348403931e-01" nType="-99"/>
        </Node>
      </Node>
    </BinaryTree>
    <BinaryTree type="DecisionTree" boostWeight="1.0000000000000000e+00" itree="555">
      <Node pos="s" depth="0" NCoef="0" IVar="7" Cut="-1.1423782110214233e+00" cType="1" res="5.1220445893704891e-03" rms="4.5193800330162048e-01" purity="5.0308305025100708e-01" nType="0">
        <Node pos="l" depth="1" NCoef="0" IVar="6" Cut="4.1947686767578125e+02" cType="1" res="2.2593123838305473e-02" rms="4.6054011583328247e-01" purity="6.1463427543640137e-01" nType="0">
          <Node pos="l" depth="2" NCoef="0" IVar="-1" Cut="0.0000000000000000e+00" cType="1" res="2.2583133541047573e-03" rms="4.7794580459594727e-01" purity="5.5097067356109619e-01" nType="-99"/>
          <Node pos="r" depth="2" NCoef="0" IVar="-1" Cut="0.0000000000000000e+00" cType="1" res="4.1511203744448721e-04" rms="4.5102131366729736e-01" purity="6.4641666412353516e-01" nType="-99"/>
        </Node>
        <Node pos="r" depth="1" NCoef="0" IVar="2" Cut="9.3114143371582031e+01" cType="1" res="1.8231307331006974e-04" rms="4.4935283064842224e-01" purity="4.7154334187507629e-01" nType="0">
          <Node pos="l" depth="2" NCoef="0" IVar="-1" Cut="0.0000000000000000e+00" cType="1" res="-6.0688611119985580e-04" rms="4.5220184326171875e-01" purity="4.4324746727943420e-01" nType="-99"/>
          <Node pos="r" depth="2" NCoef="0" IVar="-1" Cut="0.0000000000000000e+00" cType="1" res="7.1520736673846841e-04" rms="4.4567990303039551e-01" purity="5.0409758090972900e-01" nType="-99"/>
        </Node>
      </Node>
    </BinaryTree>
    <BinaryTree type="DecisionTree" boostWeight="1.0000000000000000e+00" itree="556">
      <Node pos="s" depth="0" NCoef="0" IVar="1" Cut="9.8571515083312988e-01" cType="1" res="3.8870789576321840e-03" rms="4.5240306854248047e-01" purity="5.0287014245986938e-01" nType="0">
        <Node pos="l" depth="1" NCoef="0" IVar="7" Cut="1.4279750585556030e+00" cType="1" res="6.8494305014610291e-04" rms="4.5511654019355774e-01" purity="4.7622126340866089e-01" nType="0">
          <Node pos="l" depth="2" NCoef="0" IVar="-1" Cut="0.0000000000000000e+00" cType="1" res="-1.0668405593605712e-04" rms="4.5540463924407959e-01" purity="4.6353596448898315e-01" nType="-99"/>
          <Node pos="r" depth="2" NCoef="0" IVar="-1" Cut="0.0000000000000000e+00" cType="1" res="1.3863944914191961e-03" rms="4.5042967796325684e-01" purity="6.2773400545120239e-01" nType="-99"/>
        </Node>
        <Node pos="r" depth="1" NCoef="0" IVar="-1" Cut="0.0000000000000000e+00" cType="1" res="1.2569368118420243e-03" rms="4.3041718006134033e-01" purity="7.0564734935760498e-01" nType="-99"/>
      </Node>
    </BinaryTree>
    <BinaryTree type="DecisionTree" boostWeight="1.0000000000000000e+00" itree="557">
      <Node pos="s" depth="0" NCoef="0" IVar="0" Cut="2.3361563682556152e+00" cType="1" res="1.0219170711934566e-02" rms="4.5238599181175232e-01" purity="5.0802814960479736e-01" nType="0">
        <Node pos="l" depth="1" NCoef="0" IVar="2" Cut="9.1050697326660156e+01" cType="1" res="7.9456092789769173e-03" rms="4.5393604040145874e-01" purity="5.2396714687347412e-01" nType="0">
          <Node pos="l" depth="2" NCoef="0" IVar="-1" Cut="0.0000000000000000e+00" cType="1" res="-1.2468408385757357e-06" rms="4.5785653591156006e-01" purity="4.7925347089767456e-01" nType="-99"/>
          <Node pos="r" depth="2" NCoef="0" IVar="-1" Cut="0.0000000000000000e+00" cType="1" res="8.5468142060562968e-04" rms="4.4872748851776123e-01" purity="5.8050167560577393e-01" nType="-99"/>
        </Node>
        <Node pos="r" depth="1" NCoef="0" IVar="-1" Cut="0.0000000000000000e+00" cType="1" res="3.4855352714657784e-03" rms="4.2963528633117676e-01" purity="2.9193311929702759e-01" nType="-99"/>
      </Node>
    </BinaryTree>
    <BinaryTree type="DecisionTree" boostWeight="1.0000000000000000e+00" itree="558">
      <Node pos="s" depth="0" NCoef="0" IVar="1" Cut="9.1367799043655396e-01" cType="1" res="3.8192963693290949e-03" rms="4.5015716552734375e-01" purity="5.0290852785110474e-01" nType="0">
        <Node pos="l" depth="1" NCoef="0" IVar="-1" Cut="0.0000000000000000e+00" cType="1" res="-2.9959110543131828e-03" rms="4.1261637210845947e-01" purity="2.6770883798599243e-01" nType="-99"/>
        <Node pos="r" depth="1" NCoef="0" IVar="1" Cut="9.8734211921691895e-01" cType="1" res="7.3376321233808994e-03" rms="4.5283862948417664e-01" purity="5.2170622348785400e-01" nType="0">
          <Node pos="l" depth="2" NCoef="0" IVar="-1" Cut="0.0000000000000000e+00" cType="1" res="1.8156881560571492e-04" rms="4.5586234331130981e-01" purity="4.9856948852539062e-01" nType="-99"/>
          <Node pos="r" depth="2" NCoef="0" IVar="-1" Cut="0.0000000000000000e+00" cType="1" res="1.7153787193819880e-03" rms="4.2519018054008484e-01" purity="7.1673297882080078e-01" nType="-99"/>
        </Node>
      </Node>
    </BinaryTree>
    <BinaryTree type="DecisionTree" boostWeight="1.0000000000000000e+00" itree="559">
      <Node pos="s" depth="0" NCoef="0" IVar="4" Cut="2.4865896701812744e+00" cType="1" res="3.7975755985826254e-03" rms="4.5334988832473755e-01" purity="5.0066971778869629e-01" nType="0">
        <Node pos="l" depth="1" NCoef="0" IVar="0" Cut="1.0549021959304810e+00" cType="1" res="-2.0802139770239592e-03" rms="4.6000999212265015e-01" purity="5.5251616239547729e-01" nType="0">
          <Node pos="l" depth="2" NCoef="0" IVar="-1" Cut="0.0000000000000000e+00" cType="1" res="7.2037387872114778e-04" rms="4.5176604390144348e-01" purity="5.6969779729843140e-01" nType="-99"/>
          <Node pos="r" depth="2" NCoef="0" IVar="-1" Cut="0.0000000000000000e+00" cType="1" res="-6.0994690284132957e-04" rms="4.6461027860641479e-01" purity="5.4209679365158081e-01" nType="-99"/>
        </Node>
        <Node pos="r" depth="1" NCoef="0" IVar="7" Cut="-5.7130509614944458e-01" cType="1" res="2.3714819923043251e-02" rms="4.2941769957542419e-01" purity="3.2498478889465332e-01" nType="0">
          <Node pos="l" depth="2" NCoef="0" IVar="-1" Cut="0.0000000000000000e+00" cType="1" res="3.3972640521824360e-03" rms="4.5195972919464111e-01" purity="3.7627676129341125e-01" nType="-99"/>
          <Node pos="r" depth="2" NCoef="0" IVar="-1" Cut="0.0000000000000000e+00" cType="1" res="5.0609419122338295e-04" rms="4.1470322012901306e-01" purity="2.9498842358589172e-01" nType="-99"/>
        </Node>
      </Node>
    </BinaryTree>
    <BinaryTree type="DecisionTree" boostWeight="1.0000000000000000e+00" itree="560">
      <Node pos="s" depth="0" NCoef="0" IVar="5" Cut="1.2455399036407471e+00" cType="1" res="8.7694562971591949e-03" rms="4.5082429051399231e-01" purity="5.0785148143768311e-01" nType="0">
        <Node pos="l" depth="1" NCoef="0" IVar="6" Cut="6.2030041503906250e+02" cType="1" res="1.7873080447316170e-02" rms="4.5373737812042236e-01" purity="5.6617641448974609e-01" nType="0">
          <Node pos="l" depth="2" NCoef="0" IVar="-1" Cut="0.0000000000000000e+00" cType="1" res="4.0935154538601637e-04" rms="4.5498308539390564e-01" purity="5.3866541385650635e-01" nType="-99"/>
          <Node pos="r" depth="2" NCoef="0" IVar="-1" Cut="0.0000000000000000e+00" cType="1" res="2.0924180280417204e-03" rms="4.4839692115783691e-01" purity="6.5440821647644043e-01" nType="-99"/>
        </Node>
        <Node pos="r" depth="1" NCoef="0" IVar="8" Cut="5.0712728881835938e+02" cType="1" res="-2.9491136956494302e-05" rms="4.4781482219696045e-01" purity="4.5147857069969177e-01" nType="0">
          <Node pos="l" depth="2" NCoef="0" IVar="-1" Cut="0.0000000000000000e+00" cType="1" res="2.0207122724968940e-04" rms="4.5021018385887146e-01" purity="4.6786367893218994e-01" nType="-99"/>
          <Node pos="r" depth="2" NCoef="0" IVar="-1" Cut="0.0000000000000000e+00" cType="1" res="-2.5501567870378494e-03" rms="4.2441970109939575e-01" purity="3.0590039491653442e-01" nType="-99"/>
        </Node>
      </Node>
    </BinaryTree>
    <BinaryTree type="DecisionTree" boostWeight="1.0000000000000000e+00" itree="561">
      <Node pos="s" depth="0" NCoef="0" IVar="3" Cut="1.4146928405761719e+02" cType="1" res="2.4722495581954718e-03" rms="4.5191219449043274e-01" purity="4.9955695867538452e-01" nType="0">
        <Node pos="l" depth="1" NCoef="0" IVar="2" Cut="1.3283618164062500e+02" cType="1" res="4.8052598722279072e-03" rms="4.5441135764122009e-01" purity="5.1343053579330444e-01" nType="0">
          <Node pos="l" depth="2" NCoef="0" IVar="-1" Cut="0.0000000000000000e+00" cType="1" res="4.6083683264441788e-04" rms="4.5366337895393372e-01" purity="5.2716428041458130e-01" nType="-99"/>
          <Node pos="r" depth="2" NCoef="0" IVar="-1" Cut="0.0000000000000000e+00" cType="1" res="-8.4417709149420261e-04" rms="4.5707878470420837e-01" purity="4.5450213551521301e-01" nType="-99"/>
        </Node>
        <Node pos="r" depth="1" NCoef="0" IVar="-1" Cut="0.0000000000000000e+00" cType="1" res="-2.1508387289941311e-03" rms="4.1478499770164490e-01" purity="3.0919817090034485e-01" nType="-99"/>
      </Node>
    </BinaryTree>
    <BinaryTree type="DecisionTree" boostWeight="1.0000000000000000e+00" itree="562">
      <Node pos="s" depth="0" NCoef="0" IVar="2" Cut="1.5046159362792969e+02" cType="1" res="4.4672009535133839e-03" rms="4.5008257031440735e-01" purity="5.0324064493179321e-01" nType="0">
        <Node pos="l" depth="1" NCoef="0" IVar="2" Cut="9.3314163208007812e+01" cType="1" res="1.0824859142303467e-02" rms="4.5201060175895691e-01" purity="5.2281194925308228e-01" nType="0">
          <Node pos="l" depth="2" NCoef="0" IVar="-1" Cut="0.0000000000000000e+00" cType="1" res="-2.1991578250890598e-05" rms="4.5658212900161743e-01" purity="4.7831499576568604e-01" nType="-99"/>
          <Node pos="r" depth="2" NCoef="0" IVar="-1" Cut="0.0000000000000000e+00" cType="1" res="1.4457894721999764e-03" rms="4.4322079420089722e-01" purity="6.0059195756912231e-01" nType="-99"/>
        </Node>
        <Node pos="r" depth="1" NCoef="0" IVar="7" Cut="7.1102029085159302e-01" cType="1" res="-3.3135838806629181e-02" rms="4.3661662936210632e-01" purity="3.8748359680175781e-01" nType="0">
          <Node pos="l" depth="2" NCoef="0" IVar="-1" Cut="0.0000000000000000e+00" cType="1" res="-3.4612542949616909e-03" rms="4.2868378758430481e-01" purity="3.2745134830474854e-01" nType="-99"/>
          <Node pos="r" depth="2" NCoef="0" IVar="-1" Cut="0.0000000000000000e+00" cType="1" res="-2.9498719959519804e-04" rms="4.4884657859802246e-01" purity="4.9250590801239014e-01" nType="-99"/>
        </Node>
      </Node>
    </BinaryTree>
    <BinaryTree type="DecisionTree" boostWeight="1.0000000000000000e+00" itree="563">
      <Node pos="s" depth="0" NCoef="0" IVar="6" Cut="4.8888092041015625e+02" cType="1" res="2.5823302567005157e-03" rms="4.5188334584236145e-01" purity="5.0137031078338623e-01" nType="0">
        <Node pos="l" depth="1" NCoef="0" IVar="6" Cut="4.5969024658203125e+02" cType="1" res="1.1648770421743393e-02" rms="4.5389285683631897e-01" purity="4.5236784219741821e-01" nType="0">
          <Node pos="l" depth="2" NCoef="0" IVar="-1" Cut="0.0000000000000000e+00" cType="1" res="3.1782421865500510e-04" rms="4.5530876517295837e-01" purity="4.3279737234115601e-01" nType="-99"/>
          <Node pos="r" depth="2" NCoef="0" IVar="-1" Cut="0.0000000000000000e+00" cType="1" res="2.3713398259133101e-03" rms="4.4219857454299927e-01" purity="5.8328652381896973e-01" nType="-99"/>
        </Node>
        <Node pos="r" depth="1" NCoef="0" IVar="8" Cut="5.4125030517578125e+02" cType="1" res="-7.6450435444712639e-03" rms="4.4938626885414124e-01" purity="5.5664741992950439e-01" nType="0">
          <Node pos="l" depth="2" NCoef="0" IVar="-1" Cut="0.0000000000000000e+00" cType="1" res="-1.2872225488536060e-04" rms="4.5187494158744812e-01" purity="5.8521348237991333e-01" nType="-99"/>
          <Node pos="r" depth="2" NCoef="0" IVar="-1" Cut="0.0000000000000000e+00" cType="1" res="-2.6656545232981443e-03" rms="4.3004432320594788e-01" purity="3.5685163736343384e-01" nType="-99"/>
        </Node>
      </Node>
    </BinaryTree>
    <BinaryTree type="DecisionTree" boostWeight="1.0000000000000000e+00" itree="564">
      <Node pos="s" depth="0" NCoef="0" IVar="7" Cut="8.5679274797439575e-01" cType="1" res="2.0995477680116892e-03" rms="4.5361962914466858e-01" purity="4.9844616651535034e-01" nType="0">
        <Node pos="l" depth="1" NCoef="0" IVar="3" Cut="1.2316383361816406e+02" cType="1" res="-4.9522412009537220e-03" rms="4.5045274496078491e-01" purity="4.5718288421630859e-01" nType="0">
          <Node pos="l" depth="2" NCoef="0" IVar="-1" Cut="0.0000000000000000e+00" cType="1" res="3.6878010723739862e-04" rms="4.5408183336257935e-01" purity="4.6740227937698364e-01" nType="-99"/>
          <Node pos="r" depth="2" NCoef="0" IVar="-1" Cut="0.0000000000000000e+00" cType="1" res="-8.6044572526589036e-04" rms="4.4690772891044617e-01" purity="4.4802469015121460e-01" nType="-99"/>
        </Node>
        <Node pos="r" depth="1" NCoef="0" IVar="7" Cut="1.0191061496734619e+00" cType="1" res="1.5229006297886372e-02" rms="4.5916938781738281e-01" purity="5.7527279853820801e-01" nType="0">
          <Node pos="l" depth="2" NCoef="0" IVar="-1" Cut="0.0000000000000000e+00" cType="1" res="2.0527676679193974e-03" rms="4.7795766592025757e-01" purity="4.9912855029106140e-01" nType="-99"/>
          <Node pos="r" depth="2" NCoef="0" IVar="-1" Cut="0.0000000000000000e+00" cType="1" res="3.8345428765751421e-04" rms="4.5392632484436035e-01" purity="5.9501981735229492e-01" nType="-99"/>
        </Node>
      </Node>
    </BinaryTree>
    <BinaryTree type="DecisionTree" boostWeight="1.0000000000000000e+00" itree="565">
      <Node pos="s" depth="0" NCoef="0" IVar="5" Cut="9.5657259225845337e-01" cType="1" res="-1.6244777943938971e-03" rms="4.4995763897895813e-01" purity="4.9851936101913452e-01" nType="0">
        <Node pos="l" depth="1" NCoef="0" IVar="-1" Cut="0.0000000000000000e+00" cType="1" res="1.3022373896092176e-03" rms="4.4781580567359924e-01" purity="6.1406767368316650e-01" nType="-99"/>
        <Node pos="r" depth="1" NCoef="0" IVar="5" Cut="1.1187099218368530e+00" cType="1" res="-5.0452668219804764e-03" rms="4.5006519556045532e-01" purity="4.8567456007003784e-01" nType="0">
          <Node pos="l" depth="2" NCoef="0" IVar="-1" Cut="0.0000000000000000e+00" cType="1" res="-1.1786981485784054e-03" rms="4.5352408289909363e-01" purity="5.2472335100173950e-01" nType="-99"/>
          <Node pos="r" depth="2" NCoef="0" IVar="-1" Cut="0.0000000000000000e+00" cType="1" res="4.7173823986668140e-05" rms="4.4879317283630371e-01" purity="4.7320362925529480e-01" nType="-99"/>
        </Node>
      </Node>
    </BinaryTree>
    <BinaryTree type="DecisionTree" boostWeight="1.0000000000000000e+00" itree="566">
      <Node pos="s" depth="0" NCoef="0" IVar="2" Cut="1.6802473449707031e+02" cType="1" res="-2.9734876006841660e-03" rms="4.5136520266532898e-01" purity="4.9256980419158936e-01" nType="0">
        <Node pos="l" depth="1" NCoef="0" IVar="2" Cut="7.5196342468261719e+01" cType="1" res="4.3152604484930634e-04" rms="4.5266762375831604e-01" purity="5.0960373878479004e-01" nType="0">
          <Node pos="l" depth="2" NCoef="0" IVar="-1" Cut="0.0000000000000000e+00" cType="1" res="-6.9789221743121743e-04" rms="4.5723441243171692e-01" purity="4.4446745514869690e-01" nType="-99"/>
          <Node pos="r" depth="2" NCoef="0" IVar="-1" Cut="0.0000000000000000e+00" cType="1" res="5.6401896290481091e-04" rms="4.4847613573074341e-01" purity="5.6440919637680054e-01" nType="-99"/>
        </Node>
        <Node pos="r" depth="1" NCoef="0" IVar="7" Cut="-1.2023448944091797e-03" cType="1" res="-3.0688554048538208e-02" rms="4.3964135646820068e-01" purity="3.5392144322395325e-01" nType="0">
          <Node pos="l" depth="2" NCoef="0" IVar="-1" Cut="0.0000000000000000e+00" cType="1" res="-1.7172769876196980e-03" rms="4.3958967924118042e-01" purity="3.5417526960372925e-01" nType="-99"/>
          <Node pos="r" depth="2" NCoef="0" IVar="-1" Cut="0.0000000000000000e+00" cType="1" res="-2.3580552078783512e-03" rms="4.3964534997940063e-01" purity="3.5367381572723389e-01" nType="-99"/>
        </Node>
      </Node>
    </BinaryTree>
    <BinaryTree type="DecisionTree" boostWeight="1.0000000000000000e+00" itree="567">
      <Node pos="s" depth="0" NCoef="0" IVar="5" Cut="1.0558019876480103e+00" cType="1" res="-4.4666510075330734e-03" rms="4.5004099607467651e-01" purity="4.9448066949844360e-01" nType="0">
        <Node pos="l" depth="1" NCoef="0" IVar="6" Cut="4.1526992797851562e+02" cType="1" res="1.2033396400511265e-02" rms="4.5289948582649231e-01" purity="5.7868927717208862e-01" nType="0">
          <Node pos="l" depth="2" NCoef="0" IVar="-1" Cut="0.0000000000000000e+00" cType="1" res="-4.9386889440938830e-04" rms="4.7263994812965393e-01" purity="4.7345185279846191e-01" nType="-99"/>
          <Node pos="r" depth="2" NCoef="0" IVar="-1" Cut="0.0000000000000000e+00" cType="1" res="1.1161925503984094e-03" rms="4.3929594755172729e-01" purity="6.4582669734954834e-01" nType="-99"/>
        </Node>
        <Node pos="r" depth="1" NCoef="0" IVar="4" Cut="2.0244033336639404e+00" cType="1" res="-9.5447693020105362e-03" rms="4.4903558492660522e-01" purity="4.6856424212455750e-01" nType="0">
          <Node pos="l" depth="2" NCoef="0" IVar="-1" Cut="0.0000000000000000e+00" cType="1" res="5.8255722979083657e-04" rms="4.5510831475257874e-01" purity="5.9587997198104858e-01" nType="-99"/>
          <Node pos="r" depth="2" NCoef="0" IVar="-1" Cut="0.0000000000000000e+00" cType="1" res="-9.6230808412656188e-04" rms="4.4680175185203552e-01" purity="4.2721295356750488e-01" nType="-99"/>
        </Node>
      </Node>
    </BinaryTree>
    <BinaryTree type="DecisionTree" boostWeight="1.0000000000000000e+00" itree="568">
      <Node pos="s" depth="0" NCoef="0" IVar="2" Cut="1.1549501800537109e+02" cType="1" res="2.2660514805465937e-03" rms="4.5169934630393982e-01" purity="4.9914482235908508e-01" nType="0">
        <Node pos="l" depth="1" NCoef="0" IVar="2" Cut="3.9332607269287109e+01" cType="1" res="-3.2927435822784901e-03" rms="4.5510682463645935e-01" purity="4.9532631039619446e-01" nType="0">
          <Node pos="l" depth="2" NCoef="0" IVar="-1" Cut="0.0000000000000000e+00" cType="1" res="-2.8922695200890303e-03" rms="4.4006472826004028e-01" purity="3.2332098484039307e-01" nType="-99"/>
          <Node pos="r" depth="2" NCoef="0" IVar="-1" Cut="0.0000000000000000e+00" cType="1" res="1.6850284009706229e-04" rms="4.5718172192573547e-01" purity="5.2359092235565186e-01" nType="-99"/>
        </Node>
        <Node pos="r" depth="1" NCoef="0" IVar="6" Cut="4.1249273681640625e+02" cType="1" res="1.4648857526481152e-02" rms="4.4376462697982788e-01" purity="5.0765091180801392e-01" nType="0">
          <Node pos="l" depth="2" NCoef="0" IVar="-1" Cut="0.0000000000000000e+00" cType="1" res="3.2696523703634739e-03" rms="4.4026464223861694e-01" purity="4.3821159005165100e-01" nType="-99"/>
          <Node pos="r" depth="2" NCoef="0" IVar="-1" Cut="0.0000000000000000e+00" cType="1" res="2.3199502902571112e-04" rms="4.4398936629295349e-01" purity="5.2430379390716553e-01" nType="-99"/>
        </Node>
      </Node>
    </BinaryTree>
    <BinaryTree type="DecisionTree" boostWeight="1.0000000000000000e+00" itree="569">
      <Node pos="s" depth="0" NCoef="0" IVar="4" Cut="2.5223028659820557e+00" cType="1" res="2.6853810995817184e-03" rms="4.5216745138168335e-01" purity="5.0185722112655640e-01" nType="0">
        <Node pos="l" depth="1" NCoef="0" IVar="0" Cut="1.1139932870864868e+00" cType="1" res="-1.5719787916168571e-03" rms="4.5876821875572205e-01" purity="5.4829359054565430e-01" nType="0">
          <Node pos="l" depth="2" NCoef="0" IVar="-1" Cut="0.0000000000000000e+00" cType="1" res="5.6700367713347077e-04" rms="4.4995746016502380e-01" purity="5.6970351934432983e-01" nType="-99"/>
          <Node pos="r" depth="2" NCoef="0" IVar="-1" Cut="0.0000000000000000e+00" cType="1" res="-5.5376108502969146e-04" rms="4.6470445394515991e-01" purity="5.3301429748535156e-01" nType="-99"/>
        </Node>
        <Node pos="r" depth="1" NCoef="0" IVar="6" Cut="5.2444573974609375e+02" cType="1" res="1.9990883767604828e-02" rms="4.2384061217308044e-01" purity="3.1310066580772400e-01" nType="0">
          <Node pos="l" depth="2" NCoef="0" IVar="-1" Cut="0.0000000000000000e+00" cType="1" res="5.5062322644516826e-04" rms="4.0865933895111084e-01" purity="2.6589727401733398e-01" nType="-99"/>
          <Node pos="r" depth="2" NCoef="0" IVar="-1" Cut="0.0000000000000000e+00" cType="1" res="2.5875978171825409e-03" rms="4.4727092981338501e-01" purity="3.9243566989898682e-01" nType="-99"/>
        </Node>
      </Node>
    </BinaryTree>
    <BinaryTree type="DecisionTree" boostWeight="1.0000000000000000e+00" itree="570">
      <Node pos="s" depth="0" NCoef="0" IVar="2" Cut="1.1549501800537109e+02" cType="1" res="-5.5317627266049385e-04" rms="4.4979181885719299e-01" purity="4.9711135029792786e-01" nType="0">
        <Node pos="l" depth="1" NCoef="0" IVar="7" Cut="-7.1390140056610107e-01" cType="1" res="-6.4883800223469734e-03" rms="4.5343956351280212e-01" purity="4.9121746420860291e-01" nType="0">
          <Node pos="l" depth="2" NCoef="0" IVar="-1" Cut="0.0000000000000000e+00" cType="1" res="4.7377659939229488e-04" rms="4.6452951431274414e-01" purity="5.3962594270706177e-01" nType="-99"/>
          <Node pos="r" depth="2" NCoef="0" IVar="-1" Cut="0.0000000000000000e+00" cType="1" res="-9.4622414326295257e-04" rms="4.4546151161193848e-01" purity="4.5858740806579590e-01" nType="-99"/>
        </Node>
        <Node pos="r" depth="1" NCoef="0" IVar="3" Cut="1.1955215454101562e+02" cType="1" res="1.2559077702462673e-02" rms="4.4134348630905151e-01" purity="5.1013231277465820e-01" nType="0">
          <Node pos="l" depth="2" NCoef="0" IVar="-1" Cut="0.0000000000000000e+00" cType="1" res="-2.2515363525599241e-03" rms="4.4411557912826538e-01" purity="4.1994220018386841e-01" nType="-99"/>
          <Node pos="r" depth="2" NCoef="0" IVar="-1" Cut="0.0000000000000000e+00" cType="1" res="1.3505303068086505e-03" rms="4.3962022662162781e-01" purity="5.3446251153945923e-01" nType="-99"/>
        </Node>
      </Node>
    </BinaryTree>
    <BinaryTree type="DecisionTree" boostWeight="1.0000000000000000e+00" itree="571">
      <Node pos="s" depth="0" NCoef="0" IVar="3" Cut="1.1851843261718750e+02" cType="1" res="2.4511062074452639e-03" rms="4.4962480664253235e-01" purity="5.0180941820144653e-01" nType="0">
        <Node pos="l" depth="1" NCoef="0" IVar="8" Cut="2.4655426025390625e+02" cType="1" res="-1.9443821161985397e-02" rms="4.4958704710006714e-01" purity="4.5106741786003113e-01" nType="0">
          <Node pos="l" depth="2" NCoef="0" IVar="-1" Cut="0.0000000000000000e+00" cType="1" res="-2.3514099302701652e-04" rms="4.5604494214057922e-01" purity="4.9156236648559570e-01" nType="-99"/>
          <Node pos="r" depth="2" NCoef="0" IVar="-1" Cut="0.0000000000000000e+00" cType="1" res="-2.9711704701185226e-03" rms="4.3568277359008789e-01" purity="3.7421900033950806e-01" nType="-99"/>
        </Node>
        <Node pos="r" depth="1" NCoef="0" IVar="5" Cut="1.1639336347579956e+00" cType="1" res="1.1329797096550465e-02" rms="4.4933620095252991e-01" purity="5.2238595485687256e-01" nType="0">
          <Node pos="l" depth="2" NCoef="0" IVar="-1" Cut="0.0000000000000000e+00" cType="1" res="1.1002738028764725e-03" rms="4.4864830374717712e-01" purity="5.9306836128234863e-01" nType="-99"/>
          <Node pos="r" depth="2" NCoef="0" IVar="-1" Cut="0.0000000000000000e+00" cType="1" res="1.4186375483404845e-04" rms="4.4959434866905212e-01" purity="4.7453123331069946e-01" nType="-99"/>
        </Node>
      </Node>
    </BinaryTree>
    <BinaryTree type="DecisionTree" boostWeight="1.0000000000000000e+00" itree="572">
      <Node pos="s" depth="0" NCoef="0" IVar="5" Cut="1.5075539350509644e+00" cType="1" res="4.6152109280228615e-03" rms="4.5135146379470825e-01" purity="5.0097358226776123e-01" nType="0">
        <Node pos="l" depth="1" NCoef="0" IVar="1" Cut="9.2602229118347168e-01" cType="1" res="9.0251099318265915e-03" rms="4.5400649309158325e-01" purity="5.3576415777206421e-01" nType="0">
          <Node pos="l" depth="2" NCoef="0" IVar="-1" Cut="0.0000000000000000e+00" cType="1" res="1.7566826427355409e-03" rms="4.5108556747436523e-01" purity="3.9560878276824951e-01" nType="-99"/>
          <Node pos="r" depth="2" NCoef="0" IVar="-1" Cut="0.0000000000000000e+00" cType="1" res="2.3059501836542040e-04" rms="4.5442947745323181e-01" purity="5.6196039915084839e-01" nType="-99"/>
        </Node>
        <Node pos="r" depth="1" NCoef="0" IVar="0" Cut="1.4000997543334961e+00" cType="1" res="-9.9469702690839767e-03" rms="4.4215875864028931e-01" purity="3.8608968257904053e-01" nType="0">
          <Node pos="l" depth="2" NCoef="0" IVar="-1" Cut="0.0000000000000000e+00" cType="1" res="-1.1267784429946914e-06" rms="4.5715132355690002e-01" purity="4.4584983587265015e-01" nType="-99"/>
          <Node pos="r" depth="2" NCoef="0" IVar="-1" Cut="0.0000000000000000e+00" cType="1" res="-1.9204313866794109e-03" rms="4.1865918040275574e-01" purity="2.9802164435386658e-01" nType="-99"/>
        </Node>
      </Node>
    </BinaryTree>
    <BinaryTree type="DecisionTree" boostWeight="1.0000000000000000e+00" itree="573">
      <Node pos="s" depth="0" NCoef="0" IVar="5" Cut="9.5503222942352295e-01" cType="1" res="7.5470288284122944e-03" rms="4.5227998495101929e-01" purity="5.0248116254806519e-01" nType="0">
        <Node pos="l" depth="1" NCoef="0" IVar="-1" Cut="0.0000000000000000e+00" cType="1" res="1.8715570913627744e-03" rms="4.4473645091056824e-01" purity="6.1856132745742798e-01" nType="-99"/>
        <Node pos="r" depth="1" NCoef="0" IVar="6" Cut="8.1449438476562500e+02" cType="1" res="3.5019388888031244e-03" rms="4.5295807719230652e-01" purity="4.8921456933021545e-01" nType="0">
          <Node pos="l" depth="2" NCoef="0" IVar="-1" Cut="0.0000000000000000e+00" cType="1" res="-1.9284319932921790e-05" rms="4.5262488722801208e-01" purity="4.7500199079513550e-01" nType="-99"/>
          <Node pos="r" depth="2" NCoef="0" IVar="-1" Cut="0.0000000000000000e+00" cType="1" res="1.4845655532553792e-03" rms="4.5440995693206787e-01" purity="5.9736841917037964e-01" nType="-99"/>
        </Node>
      </Node>
    </BinaryTree>
    <BinaryTree type="DecisionTree" boostWeight="1.0000000000000000e+00" itree="574">
      <Node pos="s" depth="0" NCoef="0" IVar="2" Cut="1.0035180664062500e+02" cType="1" res="3.8146357983350754e-03" rms="4.4991451501846313e-01" purity="5.0293678045272827e-01" nType="0">
        <Node pos="l" depth="1" NCoef="0" IVar="8" Cut="2.4608732604980469e+02" cType="1" res="-3.2224380411207676e-03" rms="4.5534136891365051e-01" purity="4.8388627171516418e-01" nType="0">
          <Node pos="l" depth="2" NCoef="0" IVar="-1" Cut="0.0000000000000000e+00" cType="1" res="5.8099225861951709e-04" rms="4.5869436860084534e-01" purity="5.1685261726379395e-01" nType="-99"/>
          <Node pos="r" depth="2" NCoef="0" IVar="-1" Cut="0.0000000000000000e+00" cType="1" res="-2.4058250710368156e-03" rms="4.4461083412170410e-01" purity="4.0170940756797791e-01" nType="-99"/>
        </Node>
        <Node pos="r" depth="1" NCoef="0" IVar="0" Cut="1.2774623632431030e+00" cType="1" res="1.4156242832541466e-02" rms="4.4161489605903625e-01" purity="5.3093320131301880e-01" nType="0">
          <Node pos="l" depth="2" NCoef="0" IVar="-1" Cut="0.0000000000000000e+00" cType="1" res="2.8311095666140318e-03" rms="4.0008759498596191e-01" purity="7.7116578817367554e-01" nType="-99"/>
          <Node pos="r" depth="2" NCoef="0" IVar="-1" Cut="0.0000000000000000e+00" cType="1" res="2.8182357709738426e-05" rms="4.5077827572822571e-01" purity="4.6853482723236084e-01" nType="-99"/>
        </Node>
      </Node>
    </BinaryTree>
    <BinaryTree type="DecisionTree" boostWeight="1.0000000000000000e+00" itree="575">
      <Node pos="s" depth="0" NCoef="0" IVar="0" Cut="8.2041835784912109e-01" cType="1" res="9.9227076862007380e-04" rms="4.5042562484741211e-01" purity="4.9946734309196472e-01" nType="0">
        <Node pos="l" depth="1" NCoef="0" IVar="2" Cut="4.1285442352294922e+01" cType="1" res="2.2048655897378922e-02" rms="4.5107251405715942e-01" purity="5.2069026231765747e-01" nType="0">
          <Node pos="l" depth="2" NCoef="0" IVar="-1" Cut="0.0000000000000000e+00" cType="1" res="-7.3775125201791525e-04" rms="4.4932323694229126e-01" purity="3.7347471714019775e-01" nType="-99"/>
          <Node pos="r" depth="2" NCoef="0" IVar="-1" Cut="0.0000000000000000e+00" cType="1" res="2.0255451090633869e-03" rms="4.5064014196395874e-01" purity="6.2923598289489746e-01" nType="-99"/>
        </Node>
        <Node pos="r" depth="1" NCoef="0" IVar="8" Cut="1.4850964355468750e+02" cType="1" res="-4.4388403184711933e-03" rms="4.5009884238243103e-01" purity="4.9399334192276001e-01" nType="0">
          <Node pos="l" depth="2" NCoef="0" IVar="-1" Cut="0.0000000000000000e+00" cType="1" res="-1.3455824228003621e-03" rms="4.6572920680046082e-01" purity="4.8167374730110168e-01" nType="-99"/>
          <Node pos="r" depth="2" NCoef="0" IVar="-1" Cut="0.0000000000000000e+00" cType="1" res="4.5646218495676294e-05" rms="4.4594934582710266e-01" purity="4.9707216024398804e-01" nType="-99"/>
        </Node>
      </Node>
    </BinaryTree>
    <BinaryTree type="DecisionTree" boostWeight="1.0000000000000000e+00" itree="576">
      <Node pos="s" depth="0" NCoef="0" IVar="5" Cut="9.5503222942352295e-01" cType="1" res="-8.6731376359239221e-04" rms="4.5214739441871643e-01" purity="4.9507939815521240e-01" nType="0">
        <Node pos="l" depth="1" NCoef="0" IVar="-1" Cut="0.0000000000000000e+00" cType="1" res="9.3481392832472920e-04" rms="4.5191708207130432e-01" purity="5.9546595811843872e-01" nType="-99"/>
        <Node pos="r" depth="1" NCoef="0" IVar="5" Cut="1.4387667179107666e+00" cType="1" res="-3.1575092580169439e-03" rms="4.5211210846900940e-01" purity="4.8432877659797668e-01" nType="0">
          <Node pos="l" depth="2" NCoef="0" IVar="-1" Cut="0.0000000000000000e+00" cType="1" res="-5.1169283688068390e-04" rms="4.5456007122993469e-01" purity="5.1391375064849854e-01" nType="-99"/>
          <Node pos="r" depth="2" NCoef="0" IVar="-1" Cut="0.0000000000000000e+00" cType="1" res="6.1431201174855232e-04" rms="4.4687616825103760e-01" purity="4.2551535367965698e-01" nType="-99"/>
        </Node>
      </Node>
    </BinaryTree>
    <BinaryTree type="DecisionTree" boostWeight="1.0000000000000000e+00" itree="577">
      <Node pos="s" depth="0" NCoef="0" IVar="6" Cut="5.4329656982421875e+02" cType="1" res="6.5577952191233635e-03" rms="4.5126432180404663e-01" purity="5.0507777929306030e-01" nType="0">
        <Node pos="l" depth="1" NCoef="0" IVar="1" Cut="9.3411594629287720e-01" cType="1" res="-3.1547688413411379e-03" rms="4.5129585266113281e-01" purity="4.5154681801795959e-01" nType="0">
          <Node pos="l" depth="2" NCoef="0" IVar="-1" Cut="0.0000000000000000e+00" cType="1" res="-1.8713283352553844e-03" rms="4.1974005103111267e-01" purity="2.8042352199554443e-01" nType="-99"/>
          <Node pos="r" depth="2" NCoef="0" IVar="-1" Cut="0.0000000000000000e+00" cType="1" res="1.9042922940570861e-04" rms="4.6024835109710693e-01" purity="5.0362122058868408e-01" nType="-99"/>
        </Node>
        <Node pos="r" depth="1" NCoef="0" IVar="1" Cut="9.2599034309387207e-01" cType="1" res="2.2007444873452187e-02" rms="4.5078319311141968e-01" purity="5.9022879600524902e-01" nType="0">
          <Node pos="l" depth="2" NCoef="0" IVar="-1" Cut="0.0000000000000000e+00" cType="1" res="2.5413627736270428e-03" rms="4.6271464228630066e-01" purity="4.6221378445625305e-01" nType="-99"/>
          <Node pos="r" depth="2" NCoef="0" IVar="-1" Cut="0.0000000000000000e+00" cType="1" res="7.4127694824710488e-04" rms="4.4825139641761780e-01" purity="6.1458623409271240e-01" nType="-99"/>
        </Node>
      </Node>
    </BinaryTree>
    <BinaryTree type="DecisionTree" boostWeight="1.0000000000000000e+00" itree="578">
      <Node pos="s" depth="0" NCoef="0" IVar="4" Cut="1.7715194225311279e+00" cType="1" res="3.1860780436545610e-03" rms="4.4992661476135254e-01" purity="5.0272250175476074e-01" nType="0">
        <Node pos="l" depth="1" NCoef="0" IVar="-1" Cut="0.0000000000000000e+00" cType="1" res="1.6877999296411872e-03" rms="4.5029056072235107e-01" purity="5.9790104627609253e-01" nType="-99"/>
        <Node pos="r" depth="1" NCoef="0" IVar="1" Cut="9.4048899412155151e-01" cType="1" res="8.9632201706990600e-04" rms="4.4980767369270325e-01" purity="4.9651521444320679e-01" nType="0">
          <Node pos="l" depth="2" NCoef="0" IVar="-1" Cut="0.0000000000000000e+00" cType="1" res="-7.0367642911151052e-04" rms="4.3949973583221436e-01" purity="3.4851190447807312e-01" nType="-99"/>
          <Node pos="r" depth="2" NCoef="0" IVar="-1" Cut="0.0000000000000000e+00" cType="1" res="2.8868406661786139e-04" rms="4.5398393273353577e-01" purity="5.5887061357498169e-01" nType="-99"/>
        </Node>
      </Node>
    </BinaryTree>
    <BinaryTree type="DecisionTree" boostWeight="1.0000000000000000e+00" itree="579">
      <Node pos="s" depth="0" NCoef="0" IVar="3" Cut="1.2520747375488281e+02" cType="1" res="-2.0864102989435196e-03" rms="4.4870451092720032e-01" purity="4.9870198965072632e-01" nType="0">
        <Node pos="l" depth="1" NCoef="0" IVar="3" Cut="1.1268789672851562e+02" cType="1" res="1.1180815286934376e-02" rms="4.4910487532615662e-01" purity="5.2130085229873657e-01" nType="0">
          <Node pos="l" depth="2" NCoef="0" IVar="-1" Cut="0.0000000000000000e+00" cType="1" res="-9.6031650900840759e-04" rms="4.4875213503837585e-01" purity="4.1966623067855835e-01" nType="-99"/>
          <Node pos="r" depth="2" NCoef="0" IVar="-1" Cut="0.0000000000000000e+00" cType="1" res="1.0700279381126165e-03" rms="4.4873768091201782e-01" purity="5.6320267915725708e-01" nType="-99"/>
        </Node>
        <Node pos="r" depth="1" NCoef="0" IVar="5" Cut="1.1374557018280029e+00" cType="1" res="-2.0603498443961143e-02" rms="4.4748795032501221e-01" purity="4.6716076135635376e-01" nType="0">
          <Node pos="l" depth="2" NCoef="0" IVar="-1" Cut="0.0000000000000000e+00" cType="1" res="-2.2401814931072295e-04" rms="4.5463585853576660e-01" purity="5.4609280824661255e-01" nType="-99"/>
          <Node pos="r" depth="2" NCoef="0" IVar="-1" Cut="0.0000000000000000e+00" cType="1" res="-1.6958888154476881e-03" rms="4.4329836964607239e-01" purity="4.2409592866897583e-01" nType="-99"/>
        </Node>
      </Node>
    </BinaryTree>
    <BinaryTree type="DecisionTree" boostWeight="1.0000000000000000e+00" itree="580">
      <Node pos="s" depth="0" NCoef="0" IVar="5" Cut="1.6141412258148193e+00" cType="1" res="-2.1959799341857433e-03" rms="4.5171019434928894e-01" purity="4.9334695935249329e-01" nType="0">
        <Node pos="l" depth="1" NCoef="0" IVar="0" Cut="1.1418095827102661e+00" cType="1" res="2.5345019530504942e-03" rms="4.5424127578735352e-01" purity="5.1979869604110718e-01" nType="0">
          <Node pos="l" depth="2" NCoef="0" IVar="-1" Cut="0.0000000000000000e+00" cType="1" res="8.4083847468718886e-04" rms="4.5073789358139038e-01" purity="5.7480043172836304e-01" nType="-99"/>
          <Node pos="r" depth="2" NCoef="0" IVar="-1" Cut="0.0000000000000000e+00" cType="1" res="-3.4138947376050055e-04" rms="4.5606294274330139e-01" purity="4.8719963431358337e-01" nType="-99"/>
        </Node>
        <Node pos="r" depth="1" NCoef="0" IVar="0" Cut="1.2605220079421997e+00" cType="1" res="-2.8802927583456039e-02" rms="4.3624639511108398e-01" purity="3.4456753730773926e-01" nType="0">
          <Node pos="l" depth="2" NCoef="0" IVar="-1" Cut="0.0000000000000000e+00" cType="1" res="-3.8993626367300749e-03" rms="4.3216449022293091e-01" purity="3.6341333389282227e-01" nType="-99"/>
          <Node pos="r" depth="2" NCoef="0" IVar="-1" Cut="0.0000000000000000e+00" cType="1" res="4.0573900332674384e-04" rms="4.3748259544372559e-01" purity="3.2611107826232910e-01" nType="-99"/>
        </Node>
      </Node>
    </BinaryTree>
    <BinaryTree type="DecisionTree" boostWeight="1.0000000000000000e+00" itree="581">
      <Node pos="s" depth="0" NCoef="0" IVar="4" Cut="2.5058546066284180e+00" cType="1" res="1.2777318479493260e-03" rms="4.4976732134819031e-01" purity="5.0179147720336914e-01" nType="0">
        <Node pos="l" depth="1" NCoef="0" IVar="1" Cut="9.7905790805816650e-01" cType="1" res="-3.4824789036065340e-03" rms="4.5506450533866882e-01" purity="5.5170571804046631e-01" nType="0">
          <Node pos="l" depth="2" NCoef="0" IVar="-1" Cut="0.0000000000000000e+00" cType="1" res="-4.7936977352946997e-04" rms="4.6257176995277405e-01" purity="5.0672084093093872e-01" nType="-99"/>
          <Node pos="r" depth="2" NCoef="0" IVar="-1" Cut="0.0000000000000000e+00" cType="1" res="9.3391072005033493e-04" rms="4.2387261986732483e-01" purity="7.2566336393356323e-01" nType="-99"/>
        </Node>
        <Node pos="r" depth="1" NCoef="0" IVar="7" Cut="7.1367049217224121e-01" cType="1" res="1.9308067858219147e-02" rms="4.2863148450851440e-01" purity="3.1273055076599121e-01" nType="0">
          <Node pos="l" depth="2" NCoef="0" IVar="-1" Cut="0.0000000000000000e+00" cType="1" res="8.9065631618723273e-04" rms="4.1855704784393311e-01" purity="2.7825427055358887e-01" nType="-99"/>
          <Node pos="r" depth="2" NCoef="0" IVar="-1" Cut="0.0000000000000000e+00" cType="1" res="2.3793748114258051e-03" rms="4.5120719075202942e-01" purity="3.9542934298515320e-01" nType="-99"/>
        </Node>
      </Node>
    </BinaryTree>
    <BinaryTree type="DecisionTree" boostWeight="1.0000000000000000e+00" itree="582">
      <Node pos="s" depth="0" NCoef="0" IVar="1" Cut="9.2104661464691162e-01" cType="1" res="3.9927721954882145e-03" rms="4.5172441005706787e-01" purity="5.0128996372222900e-01" nType="0">
        <Node pos="l" depth="1" NCoef="0" IVar="4" Cut="2.3206217288970947e+00" cType="1" res="-1.9845351576805115e-02" rms="4.2694950103759766e-01" purity="2.9333105683326721e-01" nType="0">
          <Node pos="l" depth="2" NCoef="0" IVar="-1" Cut="0.0000000000000000e+00" cType="1" res="-2.1947661880403757e-03" rms="4.5617321133613586e-01" purity="3.5134240984916687e-01" nType="-99"/>
          <Node pos="r" depth="2" NCoef="0" IVar="-1" Cut="0.0000000000000000e+00" cType="1" res="1.9370396330486983e-04" rms="3.8680392503738403e-01" purity="2.2183717787265778e-01" nType="-99"/>
        </Node>
        <Node pos="r" depth="1" NCoef="0" IVar="3" Cut="1.0165298461914062e+02" cType="1" res="7.2461361996829510e-03" rms="4.5490413904190063e-01" purity="5.2967154979705811e-01" nType="0">
          <Node pos="l" depth="2" NCoef="0" IVar="-1" Cut="0.0000000000000000e+00" cType="1" res="-1.7757189925760031e-03" rms="4.3935838341712952e-01" purity="3.7057921290397644e-01" nType="-99"/>
          <Node pos="r" depth="2" NCoef="0" IVar="-1" Cut="0.0000000000000000e+00" cType="1" res="4.6857094275765121e-04" rms="4.5583325624465942e-01" purity="5.4037928581237793e-01" nType="-99"/>
        </Node>
      </Node>
    </BinaryTree>
    <BinaryTree type="DecisionTree" boostWeight="1.0000000000000000e+00" itree="583">
      <Node pos="s" depth="0" NCoef="0" IVar="7" Cut="1.4278043508529663e+00" cType="1" res="3.0939152929931879e-03" rms="4.5232850313186646e-01" purity="5.0047302246093750e-01" nType="0">
        <Node pos="l" depth="1" NCoef="0" IVar="7" Cut="-3.4413182735443115e-01" cType="1" res="5.4699782049283385e-04" rms="4.5335769653320312e-01" purity="4.8722812533378601e-01" nType="0">
          <Node pos="l" depth="2" NCoef="0" IVar="-1" Cut="0.0000000000000000e+00" cType="1" res="3.9265633677132428e-04" rms="4.5523598790168762e-01" purity="5.1802504062652588e-01" nType="-99"/>
          <Node pos="r" depth="2" NCoef="0" IVar="-1" Cut="0.0000000000000000e+00" cType="1" res="-3.9012782508507371e-04" rms="4.5125594735145569e-01" purity="4.5498743653297424e-01" nType="-99"/>
        </Node>
        <Node pos="r" depth="1" NCoef="0" IVar="-1" Cut="0.0000000000000000e+00" cType="1" res="1.4588109916076064e-03" rms="4.3886065483093262e-01" purity="6.5704780817031860e-01" nType="-99"/>
      </Node>
    </BinaryTree>
    <BinaryTree type="DecisionTree" boostWeight="1.0000000000000000e+00" itree="584">
      <Node pos="s" depth="0" NCoef="0" IVar="3" Cut="1.4146928405761719e+02" cType="1" res="5.0971717573702335e-03" rms="4.5110714435577393e-01" purity="5.0291001796722412e-01" nType="0">
        <Node pos="l" depth="1" NCoef="0" IVar="2" Cut="1.7219818115234375e+02" cType="1" res="8.6183333769440651e-03" rms="4.5313760638237000e-01" purity="5.1853054761886597e-01" nType="0">
          <Node pos="l" depth="2" NCoef="0" IVar="-1" Cut="0.0000000000000000e+00" cType="1" res="6.0011411551386118e-04" rms="4.5381441712379456e-01" purity="5.3276807069778442e-01" nType="-99"/>
          <Node pos="r" depth="2" NCoef="0" IVar="-1" Cut="0.0000000000000000e+00" cType="1" res="-1.8214856972917914e-03" rms="4.4440731406211853e-01" purity="3.7259978055953979e-01" nType="-99"/>
        </Node>
        <Node pos="r" depth="1" NCoef="0" IVar="-1" Cut="0.0000000000000000e+00" cType="1" res="-3.3632535487413406e-03" rms="4.1918024420738220e-01" purity="2.8794500231742859e-01" nType="-99"/>
      </Node>
    </BinaryTree>
    <BinaryTree type="DecisionTree" boostWeight="1.0000000000000000e+00" itree="585">
      <Node pos="s" depth="0" NCoef="0" IVar="0" Cut="1.1381822824478149e+00" cType="1" res="3.6375329364091158e-03" rms="4.5070073008537292e-01" purity="5.0004857778549194e-01" nType="0">
        <Node pos="l" depth="1" NCoef="0" IVar="2" Cut="8.0008666992187500e+01" cType="1" res="1.5746783465147018e-02" rms="4.4830393791198730e-01" purity="5.5033844709396362e-01" nType="0">
          <Node pos="l" depth="2" NCoef="0" IVar="-1" Cut="0.0000000000000000e+00" cType="1" res="2.1340469538699836e-04" rms="4.5967179536819458e-01" purity="4.8502495884895325e-01" nType="-99"/>
          <Node pos="r" depth="2" NCoef="0" IVar="-1" Cut="0.0000000000000000e+00" cType="1" res="2.1528687793761492e-03" rms="4.0942114591598511e-01" purity="7.5093281269073486e-01" nType="-99"/>
        </Node>
        <Node pos="r" depth="1" NCoef="0" IVar="2" Cut="1.3023297119140625e+02" cType="1" res="-3.9418982341885567e-03" rms="4.5202940702438354e-01" purity="4.6857109665870667e-01" nType="0">
          <Node pos="l" depth="2" NCoef="0" IVar="-1" Cut="0.0000000000000000e+00" cType="1" res="1.9042787607759237e-04" rms="4.5433086156845093e-01" purity="4.9531054496765137e-01" nType="-99"/>
          <Node pos="r" depth="2" NCoef="0" IVar="-1" Cut="0.0000000000000000e+00" cType="1" res="-1.1475059436634183e-03" rms="4.4697374105453491e-01" purity="4.1485911607742310e-01" nType="-99"/>
        </Node>
      </Node>
    </BinaryTree>
    <BinaryTree type="DecisionTree" boostWeight="1.0000000000000000e+00" itree="586">
      <Node pos="s" depth="0" NCoef="0" IVar="0" Cut="2.3089823722839355e+00" cType="1" res="4.2035961523652077e-03" rms="4.5163226127624512e-01" purity="5.0260126590728760e-01" nType="0">
        <Node pos="l" depth="1" NCoef="0" IVar="2" Cut="9.2325607299804688e+01" cType="1" res="9.3409826513379812e-04" rms="4.5282381772994995e-01" purity="5.1939427852630615e-01" nType="0">
          <Node pos="l" depth="2" NCoef="0" IVar="-1" Cut="0.0000000000000000e+00" cType="1" res="-4.6430306974798441e-04" rms="4.5745494961738586e-01" purity="4.7314745187759399e-01" nType="-99"/>
          <Node pos="r" depth="2" NCoef="0" IVar="-1" Cut="0.0000000000000000e+00" cType="1" res="6.6172180231660604e-04" rms="4.4637349247932434e-01" purity="5.7971411943435669e-01" nType="-99"/>
        </Node>
        <Node pos="r" depth="1" NCoef="0" IVar="-1" Cut="0.0000000000000000e+00" cType="1" res="3.6354812327772379e-03" rms="4.3502199649810791e-01" purity="2.9949450492858887e-01" nType="-99"/>
      </Node>
    </BinaryTree>
    <BinaryTree type="DecisionTree" boostWeight="1.0000000000000000e+00" itree="587">
      <Node pos="s" depth="0" NCoef="0" IVar="0" Cut="2.3984918594360352e+00" cType="1" res="4.4281883165240288e-03" rms="4.5144650340080261e-01" purity="5.0191539525985718e-01" nType="0">
        <Node pos="l" depth="1" NCoef="0" IVar="6" Cut="6.4940930175781250e+02" cType="1" res="6.9797923788428307e-03" rms="4.5555177330970764e-01" purity="5.1861006021499634e-01" nType="0">
          <Node pos="l" depth="2" NCoef="0" IVar="-1" Cut="0.0000000000000000e+00" cType="1" res="6.1748106963932514e-04" rms="4.5515266060829163e-01" purity="5.0460892915725708e-01" nType="-99"/>
          <Node pos="r" depth="2" NCoef="0" IVar="-1" Cut="0.0000000000000000e+00" cType="1" res="-5.6385871721431613e-04" rms="4.5646625757217407e-01" purity="5.6821227073669434e-01" nType="-99"/>
        </Node>
        <Node pos="r" depth="1" NCoef="0" IVar="-1" Cut="0.0000000000000000e+00" cType="1" res="-4.2618690058588982e-03" rms="3.6805602908134460e-01" purity="2.0524829626083374e-01" nType="-99"/>
      </Node>
    </BinaryTree>
    <BinaryTree type="DecisionTree" boostWeight="1.0000000000000000e+00" itree="588">
      <Node pos="s" depth="0" NCoef="0" IVar="5" Cut="1.1359186172485352e+00" cType="1" res="-2.8851793613284826e-03" rms="4.5075711607933044e-01" purity="4.9603953957557678e-01" nType="0">
        <Node pos="l" depth="1" NCoef="0" IVar="5" Cut="9.2638456821441650e-01" cType="1" res="9.7963707521557808e-03" rms="4.5440325140953064e-01" purity="5.6875491142272949e-01" nType="0">
          <Node pos="l" depth="2" NCoef="0" IVar="-1" Cut="0.0000000000000000e+00" cType="1" res="1.9818253349512815e-03" rms="4.3930420279502869e-01" purity="6.4000886678695679e-01" nType="-99"/>
          <Node pos="r" depth="2" NCoef="0" IVar="-1" Cut="0.0000000000000000e+00" cType="1" res="1.3842469343217090e-05" rms="4.5773994922637939e-01" purity="5.5035758018493652e-01" nType="-99"/>
        </Node>
        <Node pos="r" depth="1" NCoef="0" IVar="4" Cut="2.0058848857879639e+00" cType="1" res="-9.6221761777997017e-03" rms="4.4866231083869934e-01" purity="4.5740991830825806e-01" nType="0">
          <Node pos="l" depth="2" NCoef="0" IVar="-1" Cut="0.0000000000000000e+00" cType="1" res="4.7814904246479273e-04" rms="4.5141667127609253e-01" purity="5.8975178003311157e-01" nType="-99"/>
          <Node pos="r" depth="2" NCoef="0" IVar="-1" Cut="0.0000000000000000e+00" cType="1" res="-8.9147232938557863e-04" rms="4.4769966602325439e-01" purity="4.1937866806983948e-01" nType="-99"/>
        </Node>
      </Node>
    </BinaryTree>
    <BinaryTree type="DecisionTree" boostWeight="1.0000000000000000e+00" itree="589">
      <Node pos="s" depth="0" NCoef="0" IVar="5" Cut="1.4124826192855835e+00" cType="1" res="4.0908046066761017e-03" rms="4.5049917697906494e-01" purity="5.0164747238159180e-01" nType="0">
        <Node pos="l" depth="1" NCoef="0" IVar="0" Cut="1.5818867683410645e+00" cType="1" res="-3.9935642853379250e-03" rms="4.5143347978591919e-01" purity="5.3239768743515015e-01" nType="0">
          <Node pos="l" depth="2" NCoef="0" IVar="-1" Cut="0.0000000000000000e+00" cType="1" res="2.1271086006890982e-04" rms="4.4971436262130737e-01" purity="5.9029048681259155e-01" nType="-99"/>
          <Node pos="r" depth="2" NCoef="0" IVar="-1" Cut="0.0000000000000000e+00" cType="1" res="-1.0606162250041962e-03" rms="4.5400434732437134e-01" purity="4.3224412202835083e-01" nType="-99"/>
        </Node>
        <Node pos="r" depth="1" NCoef="0" IVar="7" Cut="8.5683399438858032e-01" cType="1" res="2.0750375464558601e-02" rms="4.4810792803764343e-01" purity="4.3827998638153076e-01" nType="0">
          <Node pos="l" depth="2" NCoef="0" IVar="-1" Cut="0.0000000000000000e+00" cType="1" res="5.4149708012118936e-04" rms="4.3598034977912903e-01" purity="3.9347368478775024e-01" nType="-99"/>
          <Node pos="r" depth="2" NCoef="0" IVar="-1" Cut="0.0000000000000000e+00" cType="1" res="2.2752056829631329e-03" rms="4.7315481305122375e-01" purity="5.3901666402816772e-01" nType="-99"/>
        </Node>
      </Node>
    </BinaryTree>
    <BinaryTree type="DecisionTree" boostWeight="1.0000000000000000e+00" itree="590">
      <Node pos="s" depth="0" NCoef="0" IVar="5" Cut="1.6892699003219604e+00" cType="1" res="3.7226208951324224e-03" rms="4.5200234651565552e-01" purity="5.0102561712265015e-01" nType="0">
        <Node pos="l" depth="1" NCoef="0" IVar="3" Cut="1.3078764343261719e+02" cType="1" res="-1.7254696285817772e-04" rms="4.5190125703811646e-01" purity="5.1512777805328369e-01" nType="0">
          <Node pos="l" depth="2" NCoef="0" IVar="-1" Cut="0.0000000000000000e+00" cType="1" res="2.5479000760242343e-04" rms="4.5263636112213135e-01" purity="5.3735917806625366e-01" nType="-99"/>
          <Node pos="r" depth="2" NCoef="0" IVar="-1" Cut="0.0000000000000000e+00" cType="1" res="-1.1445797281339765e-03" rms="4.4859072566032410e-01" purity="4.3247887492179871e-01" nType="-99"/>
        </Node>
        <Node pos="r" depth="1" NCoef="0" IVar="7" Cut="-4.2794471979141235e-01" cType="1" res="3.3272273838520050e-02" rms="4.5167586207389832e-01" purity="3.9404305815696716e-01" nType="0">
          <Node pos="l" depth="2" NCoef="0" IVar="-1" Cut="0.0000000000000000e+00" cType="1" res="3.2750365789979696e-03" rms="4.6208888292312622e-01" purity="4.2174437642097473e-01" nType="-99"/>
          <Node pos="r" depth="2" NCoef="0" IVar="-1" Cut="0.0000000000000000e+00" cType="1" res="8.4501854144036770e-04" rms="4.4241666793823242e-01" purity="3.7269476056098938e-01" nType="-99"/>
        </Node>
      </Node>
    </BinaryTree>
    <BinaryTree type="DecisionTree" boostWeight="1.0000000000000000e+00" itree="591">
      <Node pos="s" depth="0" NCoef="0" IVar="5" Cut="1.2281066179275513e+00" cType="1" res="-2.1350353490561247e-03" rms="4.5174142718315125e-01" purity="4.9174353480339050e-01" nType="0">
        <Node pos="l" depth="1" NCoef="0" IVar="0" Cut="1.9942092895507812e+00" cType="1" res="-1.6540138050913811e-02" rms="4.5776659250259399e-01" purity="5.2781093120574951e-01" nType="0">
          <Node pos="l" depth="2" NCoef="0" IVar="-1" Cut="0.0000000000000000e+00" cType="1" res="-1.0555752087384462e-03" rms="4.5882859826087952e-01" purity="5.5873936414718628e-01" nType="-99"/>
          <Node pos="r" depth="2" NCoef="0" IVar="-1" Cut="0.0000000000000000e+00" cType="1" res="6.3775130547583103e-04" rms="4.5166999101638794e-01" purity="3.7908387184143066e-01" nType="-99"/>
        </Node>
        <Node pos="r" depth="1" NCoef="0" IVar="6" Cut="5.1218695068359375e+02" cType="1" res="9.9165951833128929e-03" rms="4.4628110527992249e-01" purity="4.6156877279281616e-01" nType="0">
          <Node pos="l" depth="2" NCoef="0" IVar="-1" Cut="0.0000000000000000e+00" cType="1" res="-1.0841561743291095e-04" rms="4.4116187095642090e-01" purity="3.8441222906112671e-01" nType="-99"/>
          <Node pos="r" depth="2" NCoef="0" IVar="-1" Cut="0.0000000000000000e+00" cType="1" res="1.0820832103490829e-03" rms="4.5151227712631226e-01" purity="5.4670298099517822e-01" nType="-99"/>
        </Node>
      </Node>
    </BinaryTree>
    <BinaryTree type="DecisionTree" boostWeight="1.0000000000000000e+00" itree="592">
      <Node pos="s" depth="0" NCoef="0" IVar="0" Cut="1.2776060104370117e+00" cType="1" res="2.3289858363568783e-03" rms="4.4999295473098755e-01" purity="5.0171071290969849e-01" nType="0">
        <Node pos="l" depth="1" NCoef="0" IVar="2" Cut="6.8696372985839844e+01" cType="1" res="1.5864757820963860e-02" rms="4.4789958000183105e-01" purity="5.5874508619308472e-01" nType="0">
          <Node pos="l" depth="2" NCoef="0" IVar="-1" Cut="0.0000000000000000e+00" cType="1" res="1.8896799883805215e-04" rms="4.6030518412590027e-01" purity="4.6345385909080505e-01" nType="-99"/>
          <Node pos="r" depth="2" NCoef="0" IVar="-1" Cut="0.0000000000000000e+00" cType="1" res="1.4372623991221189e-03" rms="4.2825040221214294e-01" purity="6.9977813959121704e-01" nType="-99"/>
        </Node>
        <Node pos="r" depth="1" NCoef="0" IVar="7" Cut="1.4277683198451996e-01" cType="1" res="-1.0081908665597439e-02" rms="4.5154744386672974e-01" purity="4.4941604137420654e-01" nType="0">
          <Node pos="l" depth="2" NCoef="0" IVar="-1" Cut="0.0000000000000000e+00" cType="1" res="1.1219937005080283e-04" rms="4.5647114515304565e-01" purity="4.4934093952178955e-01" nType="-99"/>
          <Node pos="r" depth="2" NCoef="0" IVar="-1" Cut="0.0000000000000000e+00" cType="1" res="-1.2879774440079927e-03" rms="4.4582590460777283e-01" purity="4.4949677586555481e-01" nType="-99"/>
        </Node>
      </Node>
    </BinaryTree>
    <BinaryTree type="DecisionTree" boostWeight="1.0000000000000000e+00" itree="593">
      <Node pos="s" depth="0" NCoef="0" IVar="2" Cut="1.0389855957031250e+02" cType="1" res="-3.2256620470434427e-03" rms="4.5121058821678162e-01" purity="4.9498897790908813e-01" nType="0">
        <Node pos="l" depth="1" NCoef="0" IVar="8" Cut="2.3709782409667969e+02" cType="1" res="-1.0654576122760773e-02" rms="4.5596766471862793e-01" purity="4.7795531153678894e-01" nType="0">
          <Node pos="l" depth="2" NCoef="0" IVar="-1" Cut="0.0000000000000000e+00" cType="1" res="-1.1160980648128316e-04" rms="4.6063512563705444e-01" purity="5.0377607345581055e-01" nType="-99"/>
          <Node pos="r" depth="2" NCoef="0" IVar="-1" Cut="0.0000000000000000e+00" cType="1" res="-1.6108878189697862e-03" rms="4.4531750679016113e-01" purity="4.2286294698715210e-01" nType="-99"/>
        </Node>
        <Node pos="r" depth="1" NCoef="0" IVar="0" Cut="1.4252645969390869e+00" cType="1" res="8.7409317493438721e-03" rms="4.4317877292633057e-01" purity="5.2242696285247803e-01" nType="0">
          <Node pos="l" depth="2" NCoef="0" IVar="-1" Cut="0.0000000000000000e+00" cType="1" res="1.7617996782064438e-03" rms="4.1066539287567139e-01" purity="7.4413186311721802e-01" nType="-99"/>
          <Node pos="r" depth="2" NCoef="0" IVar="-1" Cut="0.0000000000000000e+00" cType="1" res="-1.9318242266308516e-04" rms="4.5451405644416809e-01" purity="4.3691706657409668e-01" nType="-99"/>
        </Node>
      </Node>
    </BinaryTree>
    <BinaryTree type="DecisionTree" boostWeight="1.0000000000000000e+00" itree="594">
      <Node pos="s" depth="0" NCoef="0" IVar="4" Cut="1.7774894237518311e+00" cType="1" res="-1.3082640944048762e-03" rms="4.4951102137565613e-01" purity="4.9788123369216919e-01" nType="0">
        <Node pos="l" depth="1" NCoef="0" IVar="-1" Cut="0.0000000000000000e+00" cType="1" res="1.8850892083719373e-03" rms="4.5270085334777832e-01" purity="5.9318751096725464e-01" nType="-99"/>
        <Node pos="r" depth="1" NCoef="0" IVar="0" Cut="1.7163974046707153e+00" cType="1" res="-4.1591497138142586e-03" rms="4.4915318489074707e-01" purity="4.9155724048614502e-01" nType="0">
          <Node pos="l" depth="2" NCoef="0" IVar="-1" Cut="0.0000000000000000e+00" cType="1" res="8.2156540884170681e-05" rms="4.5344388484954834e-01" purity="5.4399973154067993e-01" nType="-99"/>
          <Node pos="r" depth="2" NCoef="0" IVar="-1" Cut="0.0000000000000000e+00" cType="1" res="-1.2031382648274302e-03" rms="4.3829661607742310e-01" purity="3.6493572592735291e-01" nType="-99"/>
        </Node>
      </Node>
    </BinaryTree>
    <BinaryTree type="DecisionTree" boostWeight="1.0000000000000000e+00" itree="595">
      <Node pos="s" depth="0" NCoef="0" IVar="5" Cut="1.1493686437606812e+00" cType="1" res="6.4444625750184059e-03" rms="4.5075869560241699e-01" purity="5.0513958930969238e-01" nType="0">
        <Node pos="l" depth="1" NCoef="0" IVar="0" Cut="1.6040310859680176e+00" cType="1" res="2.4558180943131447e-02" rms="4.5139822363853455e-01" purity="5.8100962638854980e-01" nType="0">
          <Node pos="l" depth="2" NCoef="0" IVar="-1" Cut="0.0000000000000000e+00" cType="1" res="1.5258237253874540e-03" rms="4.4215324521064758e-01" purity="6.3900297880172729e-01" nType="-99"/>
          <Node pos="r" depth="2" NCoef="0" IVar="-1" Cut="0.0000000000000000e+00" cType="1" res="3.3757238998077810e-04" rms="4.6549576520919800e-01" purity="4.8663938045501709e-01" nType="-99"/>
        </Node>
        <Node pos="r" depth="1" NCoef="0" IVar="8" Cut="2.5589117431640625e+02" cType="1" res="-4.2743044905364513e-03" rms="4.5003658533096313e-01" purity="4.6024361252784729e-01" nType="0">
          <Node pos="l" depth="2" NCoef="0" IVar="-1" Cut="0.0000000000000000e+00" cType="1" res="3.2022621599026024e-04" rms="4.5992407202720642e-01" purity="4.9997630715370178e-01" nType="-99"/>
          <Node pos="r" depth="2" NCoef="0" IVar="-1" Cut="0.0000000000000000e+00" cType="1" res="-1.2678285129368305e-03" rms="4.3383231759071350e-01" purity="3.9896085858345032e-01" nType="-99"/>
        </Node>
      </Node>
    </BinaryTree>
    <BinaryTree type="DecisionTree" boostWeight="1.0000000000000000e+00" itree="596">
      <Node pos="s" depth="0" NCoef="0" IVar="0" Cut="1.1118377447128296e+00" cType="1" res="3.7418289575725794e-03" rms="4.5076119899749756e-01" purity="5.0323766469955444e-01" nType="0">
        <Node pos="l" depth="1" NCoef="0" IVar="0" Cut="5.5470108985900879e-01" cType="1" res="1.6669968143105507e-02" rms="4.5080137252807617e-01" purity="5.5006372928619385e-01" nType="0">
          <Node pos="l" depth="2" NCoef="0" IVar="-1" Cut="0.0000000000000000e+00" cType="1" res="-1.8348132725805044e-03" rms="4.5054244995117188e-01" purity="4.1678896546363831e-01" nType="-99"/>
          <Node pos="r" depth="2" NCoef="0" IVar="-1" Cut="0.0000000000000000e+00" cType="1" res="1.1667365906760097e-03" rms="4.5030868053436279e-01" purity="5.7189899682998657e-01" nType="-99"/>
        </Node>
        <Node pos="r" depth="1" NCoef="0" IVar="2" Cut="7.4572723388671875e+01" cType="1" res="-3.9406679570674896e-03" rms="4.5056167244911194e-01" purity="4.7541144490242004e-01" nType="0">
          <Node pos="l" depth="2" NCoef="0" IVar="-1" Cut="0.0000000000000000e+00" cType="1" res="-1.2920587323606014e-03" rms="4.5707213878631592e-01" purity="4.0723979473114014e-01" nType="-99"/>
          <Node pos="r" depth="2" NCoef="0" IVar="-1" Cut="0.0000000000000000e+00" cType="1" res="6.3916129874996841e-05" rms="4.4858241081237793e-01" purity="4.9453979730606079e-01" nType="-99"/>
        </Node>
      </Node>
    </BinaryTree>
    <BinaryTree type="DecisionTree" boostWeight="1.0000000000000000e+00" itree="597">
      <Node pos="s" depth="0" NCoef="0" IVar="6" Cut="4.9703701782226562e+02" cType="1" res="7.3134382255375385e-03" rms="4.5002794265747070e-01" purity="5.0753575563430786e-01" nType="0">
        <Node pos="l" depth="1" NCoef="0" IVar="8" Cut="1.9032012939453125e+02" cType="1" res="-3.6608826485462487e-04" rms="4.5006904006004333e-01" purity="4.4369310140609741e-01" nType="0">
          <Node pos="l" depth="2" NCoef="0" IVar="-1" Cut="0.0000000000000000e+00" cType="1" res="4.7478560009039938e-04" rms="4.6303787827491760e-01" purity="4.9041357636451721e-01" nType="-99"/>
          <Node pos="r" depth="2" NCoef="0" IVar="-1" Cut="0.0000000000000000e+00" cType="1" res="-8.2137546269223094e-04" rms="4.3213558197021484e-01" purity="3.8238635659217834e-01" nType="-99"/>
        </Node>
        <Node pos="r" depth="1" NCoef="0" IVar="7" Cut="-1.1423172950744629e+00" cType="1" res="1.6088416799902916e-02" rms="4.4982048869132996e-01" purity="5.8048528432846069e-01" nType="0">
          <Node pos="l" depth="2" NCoef="0" IVar="-1" Cut="0.0000000000000000e+00" cType="1" res="-3.3533337409608066e-04" rms="4.4394329190254211e-01" purity="6.4688259363174438e-01" nType="-99"/>
          <Node pos="r" depth="2" NCoef="0" IVar="-1" Cut="0.0000000000000000e+00" cType="1" res="1.0810972889885306e-03" rms="4.5126783847808838e-01" purity="5.6141561269760132e-01" nType="-99"/>
        </Node>
      </Node>
    </BinaryTree>
    <BinaryTree type="DecisionTree" boostWeight="1.0000000000000000e+00" itree="598">
      <Node pos="s" depth="0" NCoef="0" IVar="4" Cut="1.7774894237518311e+00" cType="1" res="-1.2127843219786882e-03" rms="4.4939249753952026e-01" purity="4.9681752920150757e-01" nType="0">
        <Node pos="l" depth="1" NCoef="0" IVar="-1" Cut="0.0000000000000000e+00" cType="1" res="1.7324694199487567e-03" rms="4.4126918911933899e-01" purity="6.0242778062820435e-01" nType="-99"/>
        <Node pos="r" depth="1" NCoef="0" IVar="1" Cut="9.2744219303131104e-01" cType="1" res="-4.0385061874985695e-03" rms="4.4984376430511475e-01" purity="4.8916843533515930e-01" nType="0">
          <Node pos="l" depth="2" NCoef="0" IVar="-1" Cut="0.0000000000000000e+00" cType="1" res="-1.8345363205298781e-03" rms="4.2890009284019470e-01" purity="2.9895535111427307e-01" nType="-99"/>
          <Node pos="r" depth="2" NCoef="0" IVar="-1" Cut="0.0000000000000000e+00" cType="1" res="2.3965601940290071e-05" rms="4.5380082726478577e-01" purity="5.2738708257675171e-01" nType="-99"/>
        </Node>
      </Node>
    </BinaryTree>
    <BinaryTree type="DecisionTree" boostWeight="1.0000000000000000e+00" itree="599">
      <Node pos="s" depth="0" NCoef="0" IVar="2" Cut="1.0035180664062500e+02" cType="1" res="-1.1252127587795258e-03" rms="4.5034649968147278e-01" purity="4.9672293663024902e-01" nType="0">
        <Node pos="l" depth="1" NCoef="0" IVar="5" Cut="1.1404073238372803e+00" cType="1" res="-9.4057898968458176e-03" rms="4.5747292041778564e-01" purity="4.7291848063468933e-01" nType="0">
          <Node pos="l" depth="2" NCoef="0" IVar="-1" Cut="0.0000000000000000e+00" cType="1" res="3.5593536449596286e-04" rms="4.6289989352226257e-01" purity="5.5334573984146118e-01" nType="-99"/>
          <Node pos="r" depth="2" NCoef="0" IVar="-1" Cut="0.0000000000000000e+00" cType="1" res="-9.7430410096421838e-04" rms="4.5457941293716431e-01" purity="4.3379110097885132e-01" nType="-99"/>
        </Node>
        <Node pos="r" depth="1" NCoef="0" IVar="0" Cut="1.3048434257507324e+00" cType="1" res="1.0855456814169884e-02" rms="4.3955531716346741e-01" purity="5.3116434812545776e-01" nType="0">
          <Node pos="l" depth="2" NCoef="0" IVar="-1" Cut="0.0000000000000000e+00" cType="1" res="2.0276645664125681e-03" rms="4.0240624547004700e-01" purity="7.6349866390228271e-01" nType="-99"/>
          <Node pos="r" depth="2" NCoef="0" IVar="-1" Cut="0.0000000000000000e+00" cType="1" res="3.5911405575461686e-05" rms="4.4902563095092773e-01" purity="4.6516638994216919e-01" nType="-99"/>
        </Node>
      </Node>
    </BinaryTree>
    <BinaryTree type="DecisionTree" boostWeight="1.0000000000000000e+00" itree="600">
      <Node pos="s" depth="0" NCoef="0" IVar="0" Cut="1.8815881013870239e+00" cType="1" res="1.8782066763378680e-04" rms="4.5118221640586853e-01" purity="4.9971243739128113e-01" nType="0">
        <Node pos="l" depth="1" NCoef="0" IVar="0" Cut="5.8742284774780273e-01" cType="1" res="-3.3752759918570518e-03" rms="4.5343971252441406e-01" purity="5.3946000337600708e-01" nType="0">
          <Node pos="l" depth="2" NCoef="0" IVar="-1" Cut="0.0000000000000000e+00" cType="1" res="-1.9375029951334000e-03" rms="4.4568255543708801e-01" purity="4.2839291691780090e-01" nType="-99"/>
          <Node pos="r" depth="2" NCoef="0" IVar="-1" Cut="0.0000000000000000e+00" cType="1" res="-1.1305100088065956e-05" rms="4.5405226945877075e-01" purity="5.5010706186294556e-01" nType="-99"/>
        </Node>
        <Node pos="r" depth="1" NCoef="0" IVar="7" Cut="1.7100572586059570e-04" cType="1" res="1.3910634443163872e-02" rms="4.4211196899414062e-01" purity="3.4662991762161255e-01" nType="0">
          <Node pos="l" depth="2" NCoef="0" IVar="-1" Cut="0.0000000000000000e+00" cType="1" res="2.3963407147675753e-03" rms="4.5079535245895386e-01" purity="3.6618292331695557e-01" nType="-99"/>
          <Node pos="r" depth="2" NCoef="0" IVar="-1" Cut="0.0000000000000000e+00" cType="1" res="-7.6497008558362722e-04" rms="4.3124580383300781e-01" purity="3.2561358809471130e-01" nType="-99"/>
        </Node>
      </Node>
    </BinaryTree>
    <BinaryTree type="DecisionTree" boostWeight="1.0000000000000000e+00" itree="601">
      <Node pos="s" depth="0" NCoef="0" IVar="5" Cut="1.5151391029357910e+00" cType="1" res="-2.2515968885272741e-03" rms="4.4979861378669739e-01" purity="4.9845945835113525e-01" nType="0">
        <Node pos="l" depth="1" NCoef="0" IVar="6" Cut="5.0711431884765625e+02" cType="1" res="3.1426795758306980e-03" rms="4.5428976416587830e-01" purity="5.3176563978195190e-01" nType="0">
          <Node pos="l" depth="2" NCoef="0" IVar="-1" Cut="0.0000000000000000e+00" cType="1" res="-4.1383272036910057e-04" rms="4.5414653420448303e-01" purity="4.7011637687683105e-01" nType="-99"/>
          <Node pos="r" depth="2" NCoef="0" IVar="-1" Cut="0.0000000000000000e+00" cType="1" res="8.0078939208760858e-04" rms="4.5406290888786316e-01" purity="6.1510372161865234e-01" nType="-99"/>
        </Node>
        <Node pos="r" depth="1" NCoef="0" IVar="1" Cut="9.3398255109786987e-01" cType="1" res="-2.0954232662916183e-02" rms="4.3334767222404480e-01" purity="3.8298293948173523e-01" nType="0">
          <Node pos="l" depth="2" NCoef="0" IVar="-1" Cut="0.0000000000000000e+00" cType="1" res="-4.9172560684382915e-03" rms="3.9636719226837158e-01" purity="2.1392267942428589e-01" nType="-99"/>
          <Node pos="r" depth="2" NCoef="0" IVar="-1" Cut="0.0000000000000000e+00" cType="1" res="-5.6602177210152149e-04" rms="4.4462466239929199e-01" purity="4.4005429744720459e-01" nType="-99"/>
        </Node>
      </Node>
    </BinaryTree>
    <BinaryTree type="DecisionTree" boostWeight="1.0000000000000000e+00" itree="602">
      <Node pos="s" depth="0" NCoef="0" IVar="1" Cut="9.7905790805816650e-01" cType="1" res="2.3450104054063559e-03" rms="4.5161005854606628e-01" purity="5.0055211782455444e-01" nType="0">
        <Node pos="l" depth="1" NCoef="0" IVar="4" Cut="2.4905695915222168e+00" cType="1" res="-3.1444726046174765e-03" rms="4.5559346675872803e-01" purity="4.5560705661773682e-01" nType="0">
          <Node pos="l" depth="2" NCoef="0" IVar="-1" Cut="0.0000000000000000e+00" cType="1" res="-4.1281754965893924e-04" rms="4.6540805697441101e-01" purity="5.0786197185516357e-01" nType="-99"/>
          <Node pos="r" depth="2" NCoef="0" IVar="-1" Cut="0.0000000000000000e+00" cType="1" res="1.1964266886934638e-03" rms="4.2114588618278503e-01" purity="2.8338339924812317e-01" nType="-99"/>
        </Node>
        <Node pos="r" depth="1" NCoef="0" IVar="7" Cut="4.2846715450286865e-01" cType="1" res="2.5967167690396309e-02" rms="4.3325904011726379e-01" purity="6.9395798444747925e-01" nType="0">
          <Node pos="l" depth="2" NCoef="0" IVar="-1" Cut="0.0000000000000000e+00" cType="1" res="2.1384719002526253e-04" rms="4.3684583902359009e-01" purity="6.6328418254852295e-01" nType="-99"/>
          <Node pos="r" depth="2" NCoef="0" IVar="-1" Cut="0.0000000000000000e+00" cType="1" res="2.1778729278594255e-03" rms="4.2789730429649353e-01" purity="7.2857409715652466e-01" nType="-99"/>
        </Node>
      </Node>
    </BinaryTree>
    <BinaryTree type="DecisionTree" boostWeight="1.0000000000000000e+00" itree="603">
      <Node pos="s" depth="0" NCoef="0" IVar="7" Cut="1.1423803567886353e+00" cType="1" res="-2.4542030878365040e-03" rms="4.4830119609832764e-01" purity="4.9847185611724854e-01" nType="0">
        <Node pos="l" depth="1" NCoef="0" IVar="6" Cut="5.1205493164062500e+02" cType="1" res="-7.5290310196578503e-03" rms="4.4910529255867004e-01" purity="4.6134364604949951e-01" nType="0">
          <Node pos="l" depth="2" NCoef="0" IVar="-1" Cut="0.0000000000000000e+00" cType="1" res="-1.0998803190886974e-03" rms="4.4832313060760498e-01" purity="3.9730882644653320e-01" nType="-99"/>
          <Node pos="r" depth="2" NCoef="0" IVar="-1" Cut="0.0000000000000000e+00" cType="1" res="3.3116209669969976e-04" rms="4.4974446296691895e-01" purity="5.4701715707778931e-01" nType="-99"/>
        </Node>
        <Node pos="r" depth="1" NCoef="0" IVar="1" Cut="9.5966786146163940e-01" cType="1" res="1.5076406300067902e-02" rms="4.4506728649139404e-01" purity="6.2672853469848633e-01" nType="0">
          <Node pos="l" depth="2" NCoef="0" IVar="-1" Cut="0.0000000000000000e+00" cType="1" res="1.9702674762811512e-05" rms="4.6233165264129639e-01" purity="5.2796173095703125e-01" nType="-99"/>
          <Node pos="r" depth="2" NCoef="0" IVar="-1" Cut="0.0000000000000000e+00" cType="1" res="1.3497443869709969e-03" rms="4.2502796649932861e-01" purity="7.3360919952392578e-01" nType="-99"/>
        </Node>
      </Node>
    </BinaryTree>
    <BinaryTree type="DecisionTree" boostWeight="1.0000000000000000e+00" itree="604">
      <Node pos="s" depth="0" NCoef="0" IVar="8" Cut="2.5782583618164062e+02" cType="1" res="2.1279747597873211e-03" rms="4.5211988687515259e-01" purity="4.9886268377304077e-01" nType="0">
        <Node pos="l" depth="1" NCoef="0" IVar="6" Cut="3.3483779907226562e+02" cType="1" res="9.5121497288346291e-03" rms="4.5834025740623474e-01" purity="5.3453350067138672e-01" nType="0">
          <Node pos="l" depth="2" NCoef="0" IVar="-1" Cut="0.0000000000000000e+00" cType="1" res="1.7398124327883124e-03" rms="4.5464694499969482e-01" purity="3.9131823182106018e-01" nType="-99"/>
          <Node pos="r" depth="2" NCoef="0" IVar="-1" Cut="0.0000000000000000e+00" cType="1" res="1.7985947488341480e-04" rms="4.5927870273590088e-01" purity="5.7691729068756104e-01" nType="-99"/>
        </Node>
        <Node pos="r" depth="1" NCoef="0" IVar="7" Cut="-1.1419700384140015e+00" cType="1" res="-1.0700591839849949e-02" rms="4.4081059098243713e-01" purity="4.3689167499542236e-01" nType="0">
          <Node pos="l" depth="2" NCoef="0" IVar="-1" Cut="0.0000000000000000e+00" cType="1" res="1.2204195372760296e-03" rms="4.5035389065742493e-01" purity="6.0509449243545532e-01" nType="-99"/>
          <Node pos="r" depth="2" NCoef="0" IVar="-1" Cut="0.0000000000000000e+00" cType="1" res="-1.2071236269548535e-03" rms="4.3807354569435120e-01" purity="3.9752438664436340e-01" nType="-99"/>
        </Node>
      </Node>
    </BinaryTree>
    <BinaryTree type="DecisionTree" boostWeight="1.0000000000000000e+00" itree="605">
      <Node pos="s" depth="0" NCoef="0" IVar="1" Cut="9.7272825241088867e-01" cType="1" res="1.8376867228653282e-04" rms="4.4887688755989075e-01" purity="4.9987125396728516e-01" nType="0">
        <Node pos="l" depth="1" NCoef="0" IVar="0" Cut="8.1388276815414429e-01" cType="1" res="-5.0607533194124699e-03" rms="4.5213609933853149e-01" purity="4.4029515981674194e-01" nType="0">
          <Node pos="l" depth="2" NCoef="0" IVar="-1" Cut="0.0000000000000000e+00" cType="1" res="5.0142820691689849e-04" rms="4.5266872644424438e-01" purity="4.6461689472198486e-01" nType="-99"/>
          <Node pos="r" depth="2" NCoef="0" IVar="-1" Cut="0.0000000000000000e+00" cType="1" res="-4.8161362065002322e-04" rms="4.5192545652389526e-01" purity="4.3420687317848206e-01" nType="-99"/>
        </Node>
        <Node pos="r" depth="1" NCoef="0" IVar="4" Cut="2.2185525894165039e+00" cType="1" res="1.4747843146324158e-02" rms="4.3937119841575623e-01" purity="6.6531461477279663e-01" nType="0">
          <Node pos="l" depth="2" NCoef="0" IVar="-1" Cut="0.0000000000000000e+00" cType="1" res="1.2919424334540963e-03" rms="4.2191189527511597e-01" purity="7.4839156866073608e-01" nType="-99"/>
          <Node pos="r" depth="2" NCoef="0" IVar="-1" Cut="0.0000000000000000e+00" cType="1" res="-1.6804730694275349e-04" rms="4.5939844846725464e-01" purity="5.6253504753112793e-01" nType="-99"/>
        </Node>
      </Node>
    </BinaryTree>
    <BinaryTree type="DecisionTree" boostWeight="1.0000000000000000e+00" itree="606">
      <Node pos="s" depth="0" NCoef="0" IVar="4" Cut="1.8618031740188599e+00" cType="1" res="-3.0596498399972916e-03" rms="4.5028528571128845e-01" purity="4.9405220150947571e-01" nType="0">
        <Node pos="l" depth="1" NCoef="0" IVar="-1" Cut="0.0000000000000000e+00" cType="1" res="8.9177757035940886e-04" rms="4.4681301712989807e-01" purity="5.9975391626358032e-01" nType="-99"/>
        <Node pos="r" depth="1" NCoef="0" IVar="0" Cut="6.8278259038925171e-01" cType="1" res="-5.8657815679907799e-03" rms="4.5063441991806030e-01" purity="4.8095521330833435e-01" nType="0">
          <Node pos="l" depth="2" NCoef="0" IVar="-1" Cut="0.0000000000000000e+00" cType="1" res="-2.1078127902001143e-03" rms="4.4357731938362122e-01" purity="4.2715293169021606e-01" nType="-99"/>
          <Node pos="r" depth="2" NCoef="0" IVar="-1" Cut="0.0000000000000000e+00" cType="1" res="-1.1617012205533683e-04" rms="4.5128020644187927e-01" purity="4.8704478144645691e-01" nType="-99"/>
        </Node>
      </Node>
    </BinaryTree>
    <BinaryTree type="DecisionTree" boostWeight="1.0000000000000000e+00" itree="607">
      <Node pos="s" depth="0" NCoef="0" IVar="2" Cut="1.0834378051757812e+02" cType="1" res="-5.3828500676900148e-04" rms="4.5320692658424377e-01" purity="4.9765694141387939e-01" nType="0">
        <Node pos="l" depth="1" NCoef="0" IVar="1" Cut="9.6624147891998291e-01" cType="1" res="-6.8354569375514984e-03" rms="4.5760688185691833e-01" purity="4.8399499058723450e-01" nType="0">
          <Node pos="l" depth="2" NCoef="0" IVar="-1" Cut="0.0000000000000000e+00" cType="1" res="-8.3363975863903761e-04" rms="4.5805361866950989e-01" purity="4.1219562292098999e-01" nType="-99"/>
          <Node pos="r" depth="2" NCoef="0" IVar="-1" Cut="0.0000000000000000e+00" cType="1" res="4.4944547698833048e-04" rms="4.5624366402626038e-01" purity="6.2894928455352783e-01" nType="-99"/>
        </Node>
        <Node pos="r" depth="1" NCoef="0" IVar="2" Cut="1.5260969543457031e+02" cType="1" res="1.0903711430728436e-02" rms="4.4487279653549194e-01" purity="5.2248084545135498e-01" nType="0">
          <Node pos="l" depth="2" NCoef="0" IVar="-1" Cut="0.0000000000000000e+00" cType="1" res="1.3568411814048886e-03" rms="4.4238197803497314e-01" purity="6.0727310180664062e-01" nType="-99"/>
          <Node pos="r" depth="2" NCoef="0" IVar="-1" Cut="0.0000000000000000e+00" cType="1" res="-9.4769563293084502e-04" rms="4.4720968604087830e-01" purity="3.9818039536476135e-01" nType="-99"/>
        </Node>
      </Node>
    </BinaryTree>
    <BinaryTree type="DecisionTree" boostWeight="1.0000000000000000e+00" itree="608">
      <Node pos="s" depth="0" NCoef="0" IVar="2" Cut="1.5046159362792969e+02" cType="1" res="-5.4612988606095314e-04" rms="4.4886466860771179e-01" purity="5.0056707859039307e-01" nType="0">
        <Node pos="l" depth="1" NCoef="0" IVar="2" Cut="3.6169929504394531e+01" cType="1" res="3.6645520012825727e-03" rms="4.4955804944038391e-01" purity="5.1931953430175781e-01" nType="0">
          <Node pos="l" depth="2" NCoef="0" IVar="-1" Cut="0.0000000000000000e+00" cType="1" res="-2.7127759531140327e-03" rms="4.4040226936340332e-01" purity="3.1767362356185913e-01" nType="-99"/>
          <Node pos="r" depth="2" NCoef="0" IVar="-1" Cut="0.0000000000000000e+00" cType="1" res="3.9913557702675462e-04" rms="4.5021501183509827e-01" purity="5.3945147991180420e-01" nType="-99"/>
        </Node>
        <Node pos="r" depth="1" NCoef="0" IVar="4" Cut="2.4755434989929199e+00" cType="1" res="-2.6262968778610229e-02" rms="4.4373998045921326e-01" purity="3.8603582978248596e-01" nType="0">
          <Node pos="l" depth="2" NCoef="0" IVar="-1" Cut="0.0000000000000000e+00" cType="1" res="-2.5449865497648716e-03" rms="4.6587476134300232e-01" purity="4.7397828102111816e-01" nType="-99"/>
          <Node pos="r" depth="2" NCoef="0" IVar="-1" Cut="0.0000000000000000e+00" cType="1" res="6.9151102798059583e-04" rms="4.0559199452400208e-01" purity="2.5282740592956543e-01" nType="-99"/>
        </Node>
      </Node>
    </BinaryTree>
    <BinaryTree type="DecisionTree" boostWeight="1.0000000000000000e+00" itree="609">
      <Node pos="s" depth="0" NCoef="0" IVar="7" Cut="8.5668766498565674e-01" cType="1" res="3.4250253811478615e-03" rms="4.5095244050025940e-01" purity="5.0135248899459839e-01" nType="0">
        <Node pos="l" depth="1" NCoef="0" IVar="5" Cut="1.1468012332916260e+00" cType="1" res="-4.6448595821857452e-03" rms="4.4578042626380920e-01" purity="4.6068048477172852e-01" nType="0">
          <Node pos="l" depth="2" NCoef="0" IVar="-1" Cut="0.0000000000000000e+00" cType="1" res="5.3125544218346477e-04" rms="4.5485967397689819e-01" purity="5.4210609197616577e-01" nType="-99"/>
          <Node pos="r" depth="2" NCoef="0" IVar="-1" Cut="0.0000000000000000e+00" cType="1" res="-7.6411024201661348e-04" rms="4.4054406881332397e-01" purity="4.1650968790054321e-01" nType="-99"/>
        </Node>
        <Node pos="r" depth="1" NCoef="0" IVar="7" Cut="1.0838922262191772e+00" cType="1" res="1.8105205148458481e-02" rms="4.5984897017478943e-01" purity="5.7534009218215942e-01" nType="0">
          <Node pos="l" depth="2" NCoef="0" IVar="-1" Cut="0.0000000000000000e+00" cType="1" res="2.4104993790388107e-03" rms="4.7493565082550049e-01" purity="5.2056229114532471e-01" nType="-99"/>
          <Node pos="r" depth="2" NCoef="0" IVar="-1" Cut="0.0000000000000000e+00" cType="1" res="1.9398157019168139e-04" rms="4.5235779881477356e-01" purity="5.9942609071731567e-01" nType="-99"/>
        </Node>
      </Node>
    </BinaryTree>
    <BinaryTree type="DecisionTree" boostWeight="1.0000000000000000e+00" itree="610">
      <Node pos="s" depth="0" NCoef="0" IVar="5" Cut="1.1417344808578491e+00" cType="1" res="-1.1731385020539165e-03" rms="4.5051279664039612e-01" purity="4.9704492092132568e-01" nType="0">
        <Node pos="l" depth="1" NCoef="0" IVar="1" Cut="9.3409764766693115e-01" cType="1" res="1.2232913635671139e-02" rms="4.5860391855239868e-01" purity="5.6543803215026855e-01" nType="0">
          <Node pos="l" depth="2" NCoef="0" IVar="-1" Cut="0.0000000000000000e+00" cType="1" res="2.7213969733566046e-03" rms="4.7986885905265808e-01" purity="4.4956970214843750e-01" nType="-99"/>
          <Node pos="r" depth="2" NCoef="0" IVar="-1" Cut="0.0000000000000000e+00" cType="1" res="2.9815653761033900e-05" rms="4.5174726843833923e-01" purity="5.9813261032104492e-01" nType="-99"/>
        </Node>
        <Node pos="r" depth="1" NCoef="0" IVar="7" Cut="8.5678565502166748e-01" cType="1" res="-8.5486182942986488e-03" rms="4.4582691788673401e-01" purity="4.5941773056983948e-01" nType="0">
          <Node pos="l" depth="2" NCoef="0" IVar="-1" Cut="0.0000000000000000e+00" cType="1" res="-9.9975906778126955e-04" rms="4.3877223134040833e-01" purity="4.1323438286781311e-01" nType="-99"/>
          <Node pos="r" depth="2" NCoef="0" IVar="-1" Cut="0.0000000000000000e+00" cType="1" res="3.7155742757022381e-04" rms="4.5877894759178162e-01" purity="5.4909026622772217e-01" nType="-99"/>
        </Node>
      </Node>
    </BinaryTree>
    <BinaryTree type="DecisionTree" boostWeight="1.0000000000000000e+00" itree="611">
      <Node pos="s" depth="0" NCoef="0" IVar="0" Cut="2.1812894344329834e+00" cType="1" res="3.7407618947327137e-03" rms="4.5245778560638428e-01" purity="5.0286287069320679e-01" nType="0">
        <Node pos="l" depth="1" NCoef="0" IVar="3" Cut="1.4146928405761719e+02" cType="1" res="-8.3641389210242778e-05" rms="4.5449501276016235e-01" purity="5.2495956420898438e-01" nType="0">
          <Node pos="l" depth="2" NCoef="0" IVar="-1" Cut="0.0000000000000000e+00" cType="1" res="1.1677691509248689e-04" rms="4.5579817891120911e-01" purity="5.3874659538269043e-01" nType="-99"/>
          <Node pos="r" depth="2" NCoef="0" IVar="-1" Cut="0.0000000000000000e+00" cType="1" res="-2.6514001656323671e-03" rms="4.3264359235763550e-01" purity="3.1710603833198547e-01" nType="-99"/>
        </Node>
        <Node pos="r" depth="1" NCoef="0" IVar="7" Cut="-5.7876110076904297e-05" cType="1" res="3.6886375397443771e-02" rms="4.3298846483230591e-01" purity="3.1135311722755432e-01" nType="0">
          <Node pos="l" depth="2" NCoef="0" IVar="-1" Cut="0.0000000000000000e+00" cType="1" res="4.5748087577521801e-03" rms="4.4207394123077393e-01" purity="3.3383914828300476e-01" nType="-99"/>
          <Node pos="r" depth="2" NCoef="0" IVar="-1" Cut="0.0000000000000000e+00" cType="1" res="9.1161305317655206e-04" rms="4.2160618305206299e-01" purity="2.8763094544410706e-01" nType="-99"/>
        </Node>
      </Node>
    </BinaryTree>
    <BinaryTree type="DecisionTree" boostWeight="1.0000000000000000e+00" itree="612">
      <Node pos="s" depth="0" NCoef="0" IVar="3" Cut="1.0796383666992188e+02" cType="1" res="1.8715395126491785e-03" rms="4.4998759031295776e-01" purity="5.0168317556381226e-01" nType="0">
        <Node pos="l" depth="1" NCoef="0" IVar="3" Cut="1.0034526824951172e+02" cType="1" res="-2.0997460931539536e-02" rms="4.4166225194931030e-01" purity="3.8676056265830994e-01" nType="0">
          <Node pos="l" depth="2" NCoef="0" IVar="-1" Cut="0.0000000000000000e+00" cType="1" res="-2.4443217553198338e-03" rms="4.2474892735481262e-01" purity="3.3502677083015442e-01" nType="-99"/>
          <Node pos="r" depth="2" NCoef="0" IVar="-1" Cut="0.0000000000000000e+00" cType="1" res="-3.2207989715971053e-04" rms="4.5772585272789001e-01" purity="4.3936681747436523e-01" nType="-99"/>
        </Node>
        <Node pos="r" depth="1" NCoef="0" IVar="6" Cut="6.8334332275390625e+02" cType="1" res="4.8682382330298424e-03" rms="4.5098119974136353e-01" purity="5.1674234867095947e-01" nType="0">
          <Node pos="l" depth="2" NCoef="0" IVar="-1" Cut="0.0000000000000000e+00" cType="1" res="1.3720694369112607e-05" rms="4.5050278306007385e-01" purity="4.9499604105949402e-01" nType="-99"/>
          <Node pos="r" depth="2" NCoef="0" IVar="-1" Cut="0.0000000000000000e+00" cType="1" res="1.0226625017821789e-03" rms="4.5236307382583618e-01" purity="5.9902691841125488e-01" nType="-99"/>
        </Node>
      </Node>
    </BinaryTree>
    <BinaryTree type="DecisionTree" boostWeight="1.0000000000000000e+00" itree="613">
      <Node pos="s" depth="0" NCoef="0" IVar="3" Cut="1.3738551330566406e+02" cType="1" res="-2.3969830363057554e-04" rms="4.5138317346572876e-01" purity="4.9719598889350891e-01" nType="0">
        <Node pos="l" depth="1" NCoef="0" IVar="3" Cut="1.1764476776123047e+02" cType="1" res="2.7161347679793835e-03" rms="4.5333752036094666e-01" purity="5.1550388336181641e-01" nType="0">
          <Node pos="l" depth="2" NCoef="0" IVar="-1" Cut="0.0000000000000000e+00" cType="1" res="-5.9812952531501651e-04" rms="4.5270186662673950e-01" purity="4.5020261406898499e-01" nType="-99"/>
          <Node pos="r" depth="2" NCoef="0" IVar="-1" Cut="0.0000000000000000e+00" cType="1" res="4.1847923421300948e-04" rms="4.5348814129829407e-01" purity="5.4398453235626221e-01" nType="-99"/>
        </Node>
        <Node pos="r" depth="1" NCoef="0" IVar="0" Cut="1.3851169347763062e+00" cType="1" res="-2.5061273947358131e-02" rms="4.3383127450942993e-01" purity="3.4345522522926331e-01" nType="0">
          <Node pos="l" depth="2" NCoef="0" IVar="-1" Cut="0.0000000000000000e+00" cType="1" res="-9.5441652229055762e-04" rms="4.5410475134849548e-01" purity="4.0432640910148621e-01" nType="-99"/>
          <Node pos="r" depth="2" NCoef="0" IVar="-1" Cut="0.0000000000000000e+00" cType="1" res="-2.6701681781560183e-03" rms="4.1167721152305603e-01" purity="2.8061786293983459e-01" nType="-99"/>
        </Node>
      </Node>
    </BinaryTree>
    <BinaryTree type="DecisionTree" boostWeight="1.0000000000000000e+00" itree="614">
      <Node pos="s" depth="0" NCoef="0" IVar="2" Cut="5.7335525512695312e+01" cType="1" res="5.7012322358787060e-03" rms="4.4877353310585022e-01" purity="5.0709950923919678e-01" nType="0">
        <Node pos="l" depth="1" NCoef="0" IVar="2" Cut="4.0400558471679688e+01" cType="1" res="-9.9581340327858925e-03" rms="4.5484659075737000e-01" purity="4.1809991002082825e-01" nType="0">
          <Node pos="l" depth="2" NCoef="0" IVar="-1" Cut="0.0000000000000000e+00" cType="1" res="-2.3838719353079796e-03" rms="4.3961864709854126e-01" purity="3.4061604738235474e-01" nType="-99"/>
          <Node pos="r" depth="2" NCoef="0" IVar="-1" Cut="0.0000000000000000e+00" cType="1" res="4.9824250163510442e-04" rms="4.6473655104637146e-01" purity="4.7520905733108521e-01" nType="-99"/>
        </Node>
        <Node pos="r" depth="1" NCoef="0" IVar="0" Cut="1.4252645969390869e+00" cType="1" res="1.0809658095240593e-02" rms="4.4665575027465820e-01" purity="5.3613311052322388e-01" nType="0">
          <Node pos="l" depth="2" NCoef="0" IVar="-1" Cut="0.0000000000000000e+00" cType="1" res="1.1150786885991693e-03" rms="4.3992847204208374e-01" purity="6.5547025203704834e-01" nType="-99"/>
          <Node pos="r" depth="2" NCoef="0" IVar="-1" Cut="0.0000000000000000e+00" cType="1" res="-5.0492340960772708e-05" rms="4.5164880156517029e-01" purity="4.4022858142852783e-01" nType="-99"/>
        </Node>
      </Node>
    </BinaryTree>
    <BinaryTree type="DecisionTree" boostWeight="1.0000000000000000e+00" itree="615">
      <Node pos="s" depth="0" NCoef="0" IVar="4" Cut="1.8004169464111328e+00" cType="1" res="-1.3469629921019077e-03" rms="4.4976514577865601e-01" purity="4.9617135524749756e-01" nType="0">
        <Node pos="l" depth="1" NCoef="0" IVar="-1" Cut="0.0000000000000000e+00" cType="1" res="1.6000374453142285e-03" rms="4.4338920712471008e-01" purity="6.0686230659484863e-01" nType="-99"/>
        <Node pos="r" depth="1" NCoef="0" IVar="4" Cut="2.4739067554473877e+00" cType="1" res="-4.3906513601541519e-03" rms="4.5015665888786316e-01" purity="4.8697513341903687e-01" nType="0">
          <Node pos="l" depth="2" NCoef="0" IVar="-1" Cut="0.0000000000000000e+00" cType="1" res="-4.8289552796632051e-04" rms="4.5663285255432129e-01" purity="5.4747074842453003e-01" nType="-99"/>
          <Node pos="r" depth="2" NCoef="0" IVar="-1" Cut="0.0000000000000000e+00" cType="1" res="9.2118774773553014e-04" rms="4.3024122714996338e-01" purity="3.1015789508819580e-01" nType="-99"/>
        </Node>
      </Node>
    </BinaryTree>
    <BinaryTree type="DecisionTree" boostWeight="1.0000000000000000e+00" itree="616">
      <Node pos="s" depth="0" NCoef="0" IVar="1" Cut="9.3359476327896118e-01" cType="1" res="-4.8576266271993518e-04" rms="4.5252683758735657e-01" purity="4.9749341607093811e-01" nType="0">
        <Node pos="l" depth="1" NCoef="0" IVar="7" Cut="-7.1398711204528809e-01" cType="1" res="1.4946704730391502e-02" rms="4.4457018375396729e-01" purity="3.6358657479286194e-01" nType="0">
          <Node pos="l" depth="2" NCoef="0" IVar="-1" Cut="0.0000000000000000e+00" cType="1" res="-6.5657199593260884e-04" rms="4.5414322614669800e-01" purity="3.7300765514373779e-01" nType="-99"/>
          <Node pos="r" depth="2" NCoef="0" IVar="-1" Cut="0.0000000000000000e+00" cType="1" res="1.8834857037290931e-03" rms="4.3845388293266296e-01" purity="3.5833245515823364e-01" nType="-99"/>
        </Node>
        <Node pos="r" depth="1" NCoef="0" IVar="7" Cut="1.1422643661499023e+00" cType="1" res="-5.0824782811105251e-03" rms="4.5476868748664856e-01" purity="5.3737890720367432e-01" nType="0">
          <Node pos="l" depth="2" NCoef="0" IVar="-1" Cut="0.0000000000000000e+00" cType="1" res="-5.2053719991818070e-04" rms="4.5608755946159363e-01" purity="5.0181937217712402e-01" nType="-99"/>
          <Node pos="r" depth="2" NCoef="0" IVar="-1" Cut="0.0000000000000000e+00" cType="1" res="5.1370216533541679e-04" rms="4.4998663663864136e-01" purity="6.5461236238479614e-01" nType="-99"/>
        </Node>
      </Node>
    </BinaryTree>
    <BinaryTree type="DecisionTree" boostWeight="1.0000000000000000e+00" itree="617">
      <Node pos="s" depth="0" NCoef="0" IVar="1" Cut="9.7908627986907959e-01" cType="1" res="7.8875161707401276e-03" rms="4.4891005754470825e-01" purity="5.0938057899475098e-01" nType="0">
        <Node pos="l" depth="1" NCoef="0" IVar="4" Cut="2.5200095176696777e+00" cType="1" res="3.7853776011615992e-03" rms="4.5300376415252686e-01" purity="4.6595531702041626e-01" nType="0">
          <Node pos="l" depth="2" NCoef="0" IVar="-1" Cut="0.0000000000000000e+00" cType="1" res="-1.2189940207463223e-05" rms="4.6275699138641357e-01" purity="5.1477921009063721e-01" nType="-99"/>
          <Node pos="r" depth="2" NCoef="0" IVar="-1" Cut="0.0000000000000000e+00" cType="1" res="1.5665579121559858e-03" rms="4.1367059946060181e-01" purity="2.8122487664222717e-01" nType="-99"/>
        </Node>
        <Node pos="r" depth="1" NCoef="0" IVar="3" Cut="1.2402853393554688e+02" cType="1" res="2.5373410433530807e-02" rms="4.3058615922927856e-01" purity="6.9448632001876831e-01" nType="0">
          <Node pos="l" depth="2" NCoef="0" IVar="-1" Cut="0.0000000000000000e+00" cType="1" res="1.8653819570317864e-03" rms="4.3710500001907349e-01" purity="7.0677447319030762e-01" nType="-99"/>
          <Node pos="r" depth="2" NCoef="0" IVar="-1" Cut="0.0000000000000000e+00" cType="1" res="3.2975230715237558e-04" rms="4.2299300432205200e-01" purity="6.8183046579360962e-01" nType="-99"/>
        </Node>
      </Node>
    </BinaryTree>
    <BinaryTree type="DecisionTree" boostWeight="1.0000000000000000e+00" itree="618">
      <Node pos="s" depth="0" NCoef="0" IVar="3" Cut="1.0279872894287109e+02" cType="1" res="-3.0375493224710226e-03" rms="4.4953966140747070e-01" purity="4.9573382735252380e-01" nType="0">
        <Node pos="l" depth="1" NCoef="0" IVar="-1" Cut="0.0000000000000000e+00" cType="1" res="-3.0275464523583651e-03" rms="4.3467494845390320e-01" purity="3.2297235727310181e-01" nType="-99"/>
        <Node pos="r" depth="1" NCoef="0" IVar="5" Cut="1.7842149734497070e+00" cType="1" res="6.1156599258538336e-05" rms="4.5051053166389465e-01" purity="5.0899064540863037e-01" nType="0">
          <Node pos="l" depth="2" NCoef="0" IVar="-1" Cut="0.0000000000000000e+00" cType="1" res="1.2646448158193380e-04" rms="4.5152720808982849e-01" purity="5.2304571866989136e-01" nType="-99"/>
          <Node pos="r" depth="2" NCoef="0" IVar="-1" Cut="0.0000000000000000e+00" cType="1" res="-2.4258897174149752e-03" rms="4.3470311164855957e-01" purity="3.1387028098106384e-01" nType="-99"/>
        </Node>
      </Node>
    </BinaryTree>
    <BinaryTree type="DecisionTree" boostWeight="1.0000000000000000e+00" itree="619">
      <Node pos="s" depth="0" NCoef="0" IVar="4" Cut="2.7918231487274170e+00" cType="1" res="4.2580408044159412e-03" rms="4.4940474629402161e-01" purity="5.0428426265716553e-01" nType="0">
        <Node pos="l" depth="1" NCoef="0" IVar="7" Cut="1.4279750585556030e+00" cType="1" res="6.8419007584452629e-03" rms="4.5440191030502319e-01" purity="5.2555173635482788e-01" nType="0">
          <Node pos="l" depth="2" NCoef="0" IVar="-1" Cut="0.0000000000000000e+00" cType="1" res="1.9400038581807166e-04" rms="4.5616760849952698e-01" purity="5.1227349042892456e-01" nType="-99"/>
          <Node pos="r" depth="2" NCoef="0" IVar="-1" Cut="0.0000000000000000e+00" cType="1" res="1.7037403304129839e-03" rms="4.3300110101699829e-01" purity="6.7278200387954712e-01" nType="-99"/>
        </Node>
        <Node pos="r" depth="1" NCoef="0" IVar="-1" Cut="0.0000000000000000e+00" cType="1" res="-4.1221315041184425e-03" rms="3.6242896318435669e-01" purity="1.7960058152675629e-01" nType="-99"/>
      </Node>
    </BinaryTree>
    <BinaryTree type="DecisionTree" boostWeight="1.0000000000000000e+00" itree="620">
      <Node pos="s" depth="0" NCoef="0" IVar="6" Cut="3.2809652709960938e+02" cType="1" res="1.1895314790308475e-02" rms="4.5018032193183899e-01" purity="5.1170164346694946e-01" nType="0">
        <Node pos="l" depth="1" NCoef="0" IVar="1" Cut="9.5341646671295166e-01" cType="1" res="-3.6894259974360466e-03" rms="4.4097259640693665e-01" purity="3.2192352414131165e-01" nType="0">
          <Node pos="l" depth="2" NCoef="0" IVar="-1" Cut="0.0000000000000000e+00" cType="1" res="9.4707729294896126e-04" rms="4.1245537996292114e-01" purity="2.4128831923007965e-01" nType="-99"/>
          <Node pos="r" depth="2" NCoef="0" IVar="-1" Cut="0.0000000000000000e+00" cType="1" res="-1.1767345713451505e-03" rms="4.7190809249877930e-01" purity="4.1715687513351440e-01" nType="-99"/>
        </Node>
        <Node pos="r" depth="1" NCoef="0" IVar="1" Cut="9.1941165924072266e-01" cType="1" res="1.4413535594940186e-02" rms="4.5160004496574402e-01" purity="5.4236644506454468e-01" nType="0">
          <Node pos="l" depth="2" NCoef="0" IVar="-1" Cut="0.0000000000000000e+00" cType="1" res="-5.5725866695865989e-04" rms="4.3413856625556946e-01" purity="3.3782088756561279e-01" nType="-99"/>
          <Node pos="r" depth="2" NCoef="0" IVar="-1" Cut="0.0000000000000000e+00" cType="1" res="8.1054668407887220e-04" rms="4.5355689525604248e-01" purity="5.6675517559051514e-01" nType="-99"/>
        </Node>
      </Node>
    </BinaryTree>
    <BinaryTree type="DecisionTree" boostWeight="1.0000000000000000e+00" itree="621">
      <Node pos="s" depth="0" NCoef="0" IVar="7" Cut="7.1398830413818359e-01" cType="1" res="-1.2970690149813890e-03" rms="4.4939503073692322e-01" purity="4.9845838546752930e-01" nType="0">
        <Node pos="l" depth="1" NCoef="0" IVar="7" Cut="-1.3630973100662231e+00" cType="1" res="-1.0649345815181732e-02" rms="4.4822725653648376e-01" purity="4.5675483345985413e-01" nType="0">
          <Node pos="l" depth="2" NCoef="0" IVar="-1" Cut="0.0000000000000000e+00" cType="1" res="4.8922345740720630e-04" rms="4.5470878481864929e-01" purity="6.2324255704879761e-01" nType="-99"/>
          <Node pos="r" depth="2" NCoef="0" IVar="-1" Cut="0.0000000000000000e+00" cType="1" res="-8.7849679403007030e-04" rms="4.4670221209526062e-01" purity="4.2134520411491394e-01" nType="-99"/>
        </Node>
        <Node pos="r" depth="1" NCoef="0" IVar="1" Cut="9.2599433660507202e-01" cType="1" res="1.2343055568635464e-02" rms="4.5074507594108582e-01" purity="5.5928224325180054e-01" nType="0">
          <Node pos="l" depth="2" NCoef="0" IVar="-1" Cut="0.0000000000000000e+00" cType="1" res="-1.7499488312751055e-03" rms="4.4489747285842896e-01" purity="3.3665204048156738e-01" nType="-99"/>
          <Node pos="r" depth="2" NCoef="0" IVar="-1" Cut="0.0000000000000000e+00" cType="1" res="8.7563227862119675e-04" rms="4.5135962963104248e-01" purity="5.9576982259750366e-01" nType="-99"/>
        </Node>
      </Node>
    </BinaryTree>
    <BinaryTree type="DecisionTree" boostWeight="1.0000000000000000e+00" itree="622">
      <Node pos="s" depth="0" NCoef="0" IVar="4" Cut="1.9145334959030151e+00" cType="1" res="1.9778525456786156e-03" rms="4.5064297318458557e-01" purity="5.0174844264984131e-01" nType="0">
        <Node pos="l" depth="1" NCoef="0" IVar="1" Cut="9.4705402851104736e-01" cType="1" res="2.5939596816897392e-02" rms="4.4499310851097107e-01" purity="6.1942052841186523e-01" nType="0">
          <Node pos="l" depth="2" NCoef="0" IVar="-1" Cut="0.0000000000000000e+00" cType="1" res="2.3031304590404034e-03" rms="4.6517631411552429e-01" purity="5.2065938711166382e-01" nType="-99"/>
          <Node pos="r" depth="2" NCoef="0" IVar="-1" Cut="0.0000000000000000e+00" cType="1" res="5.3479010239243507e-04" rms="4.3234354257583618e-01" purity="6.7619389295578003e-01" nType="-99"/>
        </Node>
        <Node pos="r" depth="1" NCoef="0" IVar="4" Cut="2.6426727771759033e+00" cType="1" res="-2.2581904195249081e-03" rms="4.5150214433670044e-01" purity="4.8094597458839417e-01" nType="0">
          <Node pos="l" depth="2" NCoef="0" IVar="-1" Cut="0.0000000000000000e+00" cType="1" res="-3.2037860364653170e-04" rms="4.5851108431816101e-01" purity="5.1738274097442627e-01" nType="-99"/>
          <Node pos="r" depth="2" NCoef="0" IVar="-1" Cut="0.0000000000000000e+00" cType="1" res="1.8250118009746075e-03" rms="4.0848696231842041e-01" purity="2.7344095706939697e-01" nType="-99"/>
        </Node>
      </Node>
    </BinaryTree>
    <BinaryTree type="DecisionTree" boostWeight="1.0000000000000000e+00" itree="623">
      <Node pos="s" depth="0" NCoef="0" IVar="0" Cut="2.3311402797698975e+00" cType="1" res="1.3875254662707448e-03" rms="4.4877013564109802e-01" purity="5.0347167253494263e-01" nType="0">
        <Node pos="l" depth="1" NCoef="0" IVar="2" Cut="9.1228019714355469e+01" cType="1" res="-4.6113136340864003e-04" rms="4.5069774985313416e-01" purity="5.2070420980453491e-01" nType="0">
          <Node pos="l" depth="2" NCoef="0" IVar="-1" Cut="0.0000000000000000e+00" cType="1" res="-4.9327505985274911e-04" rms="4.5707538723945618e-01" purity="4.7072562575340271e-01" nType="-99"/>
          <Node pos="r" depth="2" NCoef="0" IVar="-1" Cut="0.0000000000000000e+00" cType="1" res="5.1532185170799494e-04" rms="4.4246155023574829e-01" purity="5.8226305246353149e-01" nType="-99"/>
        </Node>
        <Node pos="r" depth="1" NCoef="0" IVar="-1" Cut="0.0000000000000000e+00" cType="1" res="2.2930463310331106e-03" rms="4.2175054550170898e-01" purity="2.7605962753295898e-01" nType="-99"/>
      </Node>
    </BinaryTree>
    <BinaryTree type="DecisionTree" boostWeight="1.0000000000000000e+00" itree="624">
      <Node pos="s" depth="0" NCoef="0" IVar="5" Cut="1.5989357233047485e+00" cType="1" res="6.8531217984855175e-03" rms="4.5019102096557617e-01" purity="5.0582844018936157e-01" nType="0">
        <Node pos="l" depth="1" NCoef="0" IVar="7" Cut="9.9957722425460815e-01" cType="1" res="1.2696444988250732e-02" rms="4.5334365963935852e-01" purity="5.3451323509216309e-01" nType="0">
          <Node pos="l" depth="2" NCoef="0" IVar="-1" Cut="0.0000000000000000e+00" cType="1" res="9.8158395849168301e-04" rms="4.5317769050598145e-01" purity="5.0903278589248657e-01" nType="-99"/>
          <Node pos="r" depth="2" NCoef="0" IVar="-1" Cut="0.0000000000000000e+00" cType="1" res="-1.5346787404268980e-04" rms="4.5332828164100647e-01" purity="5.9415376186370850e-01" nType="-99"/>
        </Node>
        <Node pos="r" depth="1" NCoef="0" IVar="7" Cut="5.7114434242248535e-01" cType="1" res="-2.4675464257597923e-02" rms="4.3142098188400269e-01" purity="3.5105496644973755e-01" nType="0">
          <Node pos="l" depth="2" NCoef="0" IVar="-1" Cut="0.0000000000000000e+00" cType="1" res="-5.4658245062455535e-04" rms="4.2850503325462341e-01" purity="3.4573119878768921e-01" nType="-99"/>
          <Node pos="r" depth="2" NCoef="0" IVar="-1" Cut="0.0000000000000000e+00" cType="1" res="-3.2050018198788166e-03" rms="4.3467906117439270e-01" purity="3.5932111740112305e-01" nType="-99"/>
        </Node>
      </Node>
    </BinaryTree>
    <BinaryTree type="DecisionTree" boostWeight="1.0000000000000000e+00" itree="625">
      <Node pos="s" depth="0" NCoef="0" IVar="8" Cut="5.2965032958984375e+02" cType="1" res="-1.7734282882884145e-03" rms="4.5007821917533875e-01" purity="4.9604776501655579e-01" nType="0">
        <Node pos="l" depth="1" NCoef="0" IVar="6" Cut="8.1928179931640625e+02" cType="1" res="9.7866717260330915e-04" rms="4.5195651054382324e-01" purity="5.0763249397277832e-01" nType="0">
          <Node pos="l" depth="2" NCoef="0" IVar="-1" Cut="0.0000000000000000e+00" cType="1" res="-1.0545471013756469e-04" rms="4.5225164294242859e-01" purity="4.9440509080886841e-01" nType="-99"/>
          <Node pos="r" depth="2" NCoef="0" IVar="-1" Cut="0.0000000000000000e+00" cType="1" res="1.4350755373016000e-03" rms="4.4740352034568787e-01" purity="6.5209126472473145e-01" nType="-99"/>
        </Node>
        <Node pos="r" depth="1" NCoef="0" IVar="-1" Cut="0.0000000000000000e+00" cType="1" res="-2.8509837575256824e-03" rms="4.2062357068061829e-01" purity="3.3183133602142334e-01" nType="-99"/>
      </Node>
    </BinaryTree>
    <BinaryTree type="DecisionTree" boostWeight="1.0000000000000000e+00" itree="626">
      <Node pos="s" depth="0" NCoef="0" IVar="6" Cut="2.9750354003906250e+02" cType="1" res="4.8912214115262032e-03" rms="4.5215961337089539e-01" purity="5.0074130296707153e-01" nType="0">
        <Node pos="l" depth="1" NCoef="0" IVar="-1" Cut="0.0000000000000000e+00" cType="1" res="-2.0456775091588497e-03" rms="4.1449844837188721e-01" purity="2.7588382363319397e-01" nType="-99"/>
        <Node pos="r" depth="1" NCoef="0" IVar="1" Cut="9.5915144681930542e-01" cType="1" res="7.5649060308933258e-03" rms="4.5524251461029053e-01" purity="5.2061963081359863e-01" nType="0">
          <Node pos="l" depth="2" NCoef="0" IVar="-1" Cut="0.0000000000000000e+00" cType="1" res="7.9574430128559470e-04" rms="4.6151548624038696e-01" purity="4.4667330384254456e-01" nType="-99"/>
          <Node pos="r" depth="2" NCoef="0" IVar="-1" Cut="0.0000000000000000e+00" cType="1" res="-1.3040022167842835e-04" rms="4.4638806581497192e-01" purity="6.2088012695312500e-01" nType="-99"/>
        </Node>
      </Node>
    </BinaryTree>
    <BinaryTree type="DecisionTree" boostWeight="1.0000000000000000e+00" itree="627">
      <Node pos="s" depth="0" NCoef="0" IVar="3" Cut="1.3078764343261719e+02" cType="1" res="3.7724077701568604e-03" rms="4.5054423809051514e-01" purity="5.0173819065093994e-01" nType="0">
        <Node pos="l" depth="1" NCoef="0" IVar="2" Cut="1.2926399230957031e+02" cType="1" res="9.1208927333354950e-03" rms="4.5250192284584045e-01" purity="5.2468931674957275e-01" nType="0">
          <Node pos="l" depth="2" NCoef="0" IVar="-1" Cut="0.0000000000000000e+00" cType="1" res="7.8240688890218735e-04" rms="4.5255094766616821e-01" purity="5.4052180051803589e-01" nType="-99"/>
          <Node pos="r" depth="2" NCoef="0" IVar="-1" Cut="0.0000000000000000e+00" cType="1" res="-1.1998290428891778e-03" rms="4.5102435350418091e-01" purity="4.5617550611495972e-01" nType="-99"/>
        </Node>
        <Node pos="r" depth="1" NCoef="0" IVar="5" Cut="1.1590951681137085e+00" cType="1" res="-1.5797207131981850e-02" rms="4.4275715947151184e-01" purity="4.1776230931282043e-01" nType="0">
          <Node pos="l" depth="2" NCoef="0" IVar="-1" Cut="0.0000000000000000e+00" cType="1" res="-2.2690398618578911e-03" rms="4.5064938068389893e-01" purity="4.6357393264770508e-01" nType="-99"/>
          <Node pos="r" depth="2" NCoef="0" IVar="-1" Cut="0.0000000000000000e+00" cType="1" res="-1.8304624245502055e-04" rms="4.3817961215972900e-01" purity="3.9474576711654663e-01" nType="-99"/>
        </Node>
      </Node>
    </BinaryTree>
    <BinaryTree type="DecisionTree" boostWeight="1.0000000000000000e+00" itree="628">
      <Node pos="s" depth="0" NCoef="0" IVar="4" Cut="2.1868526935577393e+00" cType="1" res="-1.9937343895435333e-03" rms="4.4630205631256104e-01" purity="5.0067955255508423e-01" nType="0">
        <Node pos="l" depth="1" NCoef="0" IVar="8" Cut="2.8144006347656250e+02" cType="1" res="1.0113934054970741e-02" rms="4.5126751065254211e-01" purity="6.1069923639297485e-01" nType="0">
          <Node pos="l" depth="2" NCoef="0" IVar="-1" Cut="0.0000000000000000e+00" cType="1" res="7.7925407094880939e-04" rms="4.5037001371383667e-01" purity="6.1501544713973999e-01" nType="-99"/>
          <Node pos="r" depth="2" NCoef="0" IVar="-1" Cut="0.0000000000000000e+00" cType="1" res="-1.3673265930265188e-03" rms="4.5411798357963562e-01" purity="5.8723396062850952e-01" nType="-99"/>
        </Node>
        <Node pos="r" depth="1" NCoef="0" IVar="8" Cut="1.5595007324218750e+02" cType="1" res="-1.2288009747862816e-02" rms="4.4177550077438354e-01" purity="4.0713778138160706e-01" nType="0">
          <Node pos="l" depth="2" NCoef="0" IVar="-1" Cut="0.0000000000000000e+00" cType="1" res="-3.4257015213370323e-03" rms="4.4058358669281006e-01" purity="3.5792011022567749e-01" nType="-99"/>
          <Node pos="r" depth="2" NCoef="0" IVar="-1" Cut="0.0000000000000000e+00" cType="1" res="-2.8992656734772027e-04" rms="4.4158881902694702e-01" purity="4.1591924428939819e-01" nType="-99"/>
        </Node>
      </Node>
    </BinaryTree>
    <BinaryTree type="DecisionTree" boostWeight="1.0000000000000000e+00" itree="629">
      <Node pos="s" depth="0" NCoef="0" IVar="3" Cut="1.2827944946289062e+02" cType="1" res="-3.0092557426542044e-03" rms="4.4912511110305786e-01" purity="4.9691897630691528e-01" nType="0">
        <Node pos="l" depth="1" NCoef="0" IVar="3" Cut="1.0122885894775391e+02" cType="1" res="2.1857549436390400e-03" rms="4.4996365904808044e-01" purity="5.1785415410995483e-01" nType="0">
          <Node pos="l" depth="2" NCoef="0" IVar="-1" Cut="0.0000000000000000e+00" cType="1" res="-2.4431471247226000e-03" rms="4.2299228906631470e-01" purity="3.3909910917282104e-01" nType="-99"/>
          <Node pos="r" depth="2" NCoef="0" IVar="-1" Cut="0.0000000000000000e+00" cType="1" res="2.8502315399236977e-04" rms="4.5230230689048767e-01" purity="5.3503137826919556e-01" nType="-99"/>
        </Node>
        <Node pos="r" depth="1" NCoef="0" IVar="7" Cut="-2.8556585311889648e-01" cType="1" res="-1.5513936057686806e-02" rms="4.4685268402099609e-01" purity="4.4652676582336426e-01" nType="0">
          <Node pos="l" depth="2" NCoef="0" IVar="-1" Cut="0.0000000000000000e+00" cType="1" res="2.3472410975955427e-04" rms="4.5126667618751526e-01" purity="4.7476679086685181e-01" nType="-99"/>
          <Node pos="r" depth="2" NCoef="0" IVar="-1" Cut="0.0000000000000000e+00" cType="1" res="-2.0664860494434834e-03" rms="4.4181281328201294e-01" purity="4.1980674862861633e-01" nType="-99"/>
        </Node>
      </Node>
    </BinaryTree>
    <BinaryTree type="DecisionTree" boostWeight="1.0000000000000000e+00" itree="630">
      <Node pos="s" depth="0" NCoef="0" IVar="1" Cut="9.8571515083312988e-01" cType="1" res="1.6286952886730433e-03" rms="4.4883567094802856e-01" purity="5.0279164314270020e-01" nType="0">
        <Node pos="l" depth="1" NCoef="0" IVar="8" Cut="1.4552781677246094e+02" cType="1" res="-2.0277320872992277e-03" rms="4.5113751292228699e-01" purity="4.7659850120544434e-01" nType="0">
          <Node pos="l" depth="2" NCoef="0" IVar="-1" Cut="0.0000000000000000e+00" cType="1" res="-1.2996681034564972e-03" rms="4.5991724729537964e-01" purity="4.4964912533760071e-01" nType="-99"/>
          <Node pos="r" depth="2" NCoef="0" IVar="-1" Cut="0.0000000000000000e+00" cType="1" res="2.2889976389706135e-04" rms="4.4839087128639221e-01" purity="4.8430007696151733e-01" nType="-99"/>
        </Node>
        <Node pos="r" depth="1" NCoef="0" IVar="-1" Cut="0.0000000000000000e+00" cType="1" res="1.3630253961309791e-03" rms="4.2925211787223816e-01" purity="7.0846790075302124e-01" nType="-99"/>
      </Node>
    </BinaryTree>
    <BinaryTree type="DecisionTree" boostWeight="1.0000000000000000e+00" itree="631">
      <Node pos="s" depth="0" NCoef="0" IVar="0" Cut="8.3933943510055542e-01" cType="1" res="-1.2010505888611078e-03" rms="4.4887125492095947e-01" purity="4.9763545393943787e-01" nType="0">
        <Node pos="l" depth="1" NCoef="0" IVar="2" Cut="4.3960842132568359e+01" cType="1" res="1.8187260255217552e-02" rms="4.5186308026313782e-01" purity="5.1564496755599976e-01" nType="0">
          <Node pos="l" depth="2" NCoef="0" IVar="-1" Cut="0.0000000000000000e+00" cType="1" res="-4.1133327613351867e-05" rms="4.5415255427360535e-01" purity="3.9367306232452393e-01" nType="-99"/>
          <Node pos="r" depth="2" NCoef="0" IVar="-1" Cut="0.0000000000000000e+00" cType="1" res="1.5425562160089612e-03" rms="4.4902804493904114e-01" purity="6.2841439247131348e-01" nType="-99"/>
        </Node>
        <Node pos="r" depth="1" NCoef="0" IVar="1" Cut="9.4594198465347290e-01" cType="1" res="-6.4654168672859669e-03" rms="4.4791063666343689e-01" purity="4.9274545907974243e-01" nType="0">
          <Node pos="l" depth="2" NCoef="0" IVar="-1" Cut="0.0000000000000000e+00" cType="1" res="-1.5145866200327873e-03" rms="4.3810606002807617e-01" purity="3.4485885500907898e-01" nType="-99"/>
          <Node pos="r" depth="2" NCoef="0" IVar="-1" Cut="0.0000000000000000e+00" cType="1" res="1.5179046022240072e-04" rms="4.5308461785316467e-01" purity="5.7649314403533936e-01" nType="-99"/>
        </Node>
      </Node>
    </BinaryTree>
    <BinaryTree type="DecisionTree" boostWeight="1.0000000000000000e+00" itree="632">
      <Node pos="s" depth="0" NCoef="0" IVar="0" Cut="1.1323347091674805e+00" cType="1" res="2.1113627590239048e-03" rms="4.5142778754234314e-01" purity="4.9852681159973145e-01" nType="0">
        <Node pos="l" depth="1" NCoef="0" IVar="0" Cut="5.5335158109664917e-01" cType="1" res="1.3559774495661259e-02" rms="4.4972708821296692e-01" purity="5.4526799917221069e-01" nType="0">
          <Node pos="l" depth="2" NCoef="0" IVar="-1" Cut="0.0000000000000000e+00" cType="1" res="-1.4092547353357077e-03" rms="4.5420557260513306e-01" purity="4.3045166134834290e-01" nType="-99"/>
          <Node pos="r" depth="2" NCoef="0" IVar="-1" Cut="0.0000000000000000e+00" cType="1" res="9.5409993082284927e-04" rms="4.4868603348731995e-01" purity="5.6347644329071045e-01" nType="-99"/>
        </Node>
        <Node pos="r" depth="1" NCoef="0" IVar="4" Cut="2.1311168670654297e+00" cType="1" res="-4.9825748428702354e-03" rms="4.5233300328254700e-01" purity="4.6956387162208557e-01" nType="0">
          <Node pos="l" depth="2" NCoef="0" IVar="-1" Cut="0.0000000000000000e+00" cType="1" res="-1.0077666956931353e-03" rms="4.6055635809898376e-01" purity="5.9392052888870239e-01" nType="-99"/>
          <Node pos="r" depth="2" NCoef="0" IVar="-1" Cut="0.0000000000000000e+00" cType="1" res="1.1051313776988536e-04" rms="4.4875004887580872e-01" purity="4.1879153251647949e-01" nType="-99"/>
        </Node>
      </Node>
    </BinaryTree>
    <BinaryTree type="DecisionTree" boostWeight="1.0000000000000000e+00" itree="633">
      <Node pos="s" depth="0" NCoef="0" IVar="5" Cut="1.0566785335540771e+00" cType="1" res="1.9274589139968157e-03" rms="4.5042651891708374e-01" purity="5.0097119808197021e-01" nType="0">
        <Node pos="l" depth="1" NCoef="0" IVar="2" Cut="8.5933395385742188e+01" cType="1" res="2.1715860813856125e-02" rms="4.5336189866065979e-01" purity="5.8769047260284424e-01" nType="0">
          <Node pos="l" depth="2" NCoef="0" IVar="-1" Cut="0.0000000000000000e+00" cType="1" res="-4.8544807214057073e-06" rms="4.5941489934921265e-01" purity="5.4223459959030151e-01" nType="-99"/>
          <Node pos="r" depth="2" NCoef="0" IVar="-1" Cut="0.0000000000000000e+00" cType="1" res="1.6690308693796396e-03" rms="4.4857192039489746e-01" purity="6.1873263120651245e-01" nType="-99"/>
        </Node>
        <Node pos="r" depth="1" NCoef="0" IVar="3" Cut="1.4073695373535156e+02" cType="1" res="-4.2977146804332733e-03" rms="4.4931897521018982e-01" purity="4.7369045019149780e-01" nType="0">
          <Node pos="l" depth="2" NCoef="0" IVar="-1" Cut="0.0000000000000000e+00" cType="1" res="-8.8419939856976271e-05" rms="4.5299309492111206e-01" purity="4.8931860923767090e-01" nType="-99"/>
          <Node pos="r" depth="2" NCoef="0" IVar="-1" Cut="0.0000000000000000e+00" cType="1" res="-2.7796323411166668e-03" rms="4.0154683589935303e-01" purity="2.8704893589019775e-01" nType="-99"/>
        </Node>
      </Node>
    </BinaryTree>
    <BinaryTree type="DecisionTree" boostWeight="1.0000000000000000e+00" itree="634">
      <Node pos="s" depth="0" NCoef="0" IVar="7" Cut="8.5678565502166748e-01" cType="1" res="1.5503891045227647e-03" rms="4.5127493143081665e-01" purity="4.9805143475532532e-01" nType="0">
        <Node pos="l" depth="1" NCoef="0" IVar="1" Cut="9.3336141109466553e-01" cType="1" res="-3.6833896301686764e-03" rms="4.4802376627922058e-01" purity="4.5804557204246521e-01" nType="0">
          <Node pos="l" depth="2" NCoef="0" IVar="-1" Cut="0.0000000000000000e+00" cType="1" res="1.0826800717040896e-03" rms="4.3942600488662720e-01" purity="3.2676032185554504e-01" nType="-99"/>
          <Node pos="r" depth="2" NCoef="0" IVar="-1" Cut="0.0000000000000000e+00" cType="1" res="-4.9933348782360554e-04" rms="4.5045262575149536e-01" purity="4.9819162487983704e-01" nType="-99"/>
        </Node>
        <Node pos="r" depth="1" NCoef="0" IVar="1" Cut="9.6643537282943726e-01" cType="1" res="1.1206882074475288e-02" rms="4.5705547928810120e-01" purity="5.7186365127563477e-01" nType="0">
          <Node pos="l" depth="2" NCoef="0" IVar="-1" Cut="0.0000000000000000e+00" cType="1" res="1.0475257877260447e-03" rms="4.6110373735427856e-01" purity="5.2436888217926025e-01" nType="-99"/>
          <Node pos="r" depth="2" NCoef="0" IVar="-1" Cut="0.0000000000000000e+00" cType="1" res="-5.5227783741429448e-04" rms="4.4786992669105530e-01" purity="6.6795909404754639e-01" nType="-99"/>
        </Node>
      </Node>
    </BinaryTree>
    <BinaryTree type="DecisionTree" boostWeight="1.0000000000000000e+00" itree="635">
      <Node pos="s" depth="0" NCoef="0" IVar="4" Cut="2.0575475692749023e+00" cType="1" res="4.4652502983808517e-03" rms="4.5106047391891479e-01" purity="5.0485360622406006e-01" nType="0">
        <Node pos="l" depth="1" NCoef="0" IVar="4" Cut="1.8234409093856812e+00" cType="1" res="2.2272154688835144e-02" rms="4.4830381870269775e-01" purity="6.2466317415237427e-01" nType="0">
          <Node pos="l" depth="2" NCoef="0" IVar="-1" Cut="0.0000000000000000e+00" cType="1" res="1.9525836687535048e-03" rms="4.3782812356948853e-01" purity="6.2507027387619019e-01" nType="-99"/>
          <Node pos="r" depth="2" NCoef="0" IVar="-1" Cut="0.0000000000000000e+00" cType="1" res="5.6906038662418723e-04" rms="4.5252004265785217e-01" purity="6.2448352575302124e-01" nType="-99"/>
        </Node>
        <Node pos="r" depth="1" NCoef="0" IVar="0" Cut="6.8643277883529663e-01" cType="1" res="-3.0682128854095936e-03" rms="4.5201054215431213e-01" purity="4.5416647195816040e-01" nType="0">
          <Node pos="l" depth="2" NCoef="0" IVar="-1" Cut="0.0000000000000000e+00" cType="1" res="-2.8547775000333786e-03" rms="4.4854214787483215e-01" purity="3.8406991958618164e-01" nType="-99"/>
          <Node pos="r" depth="2" NCoef="0" IVar="-1" Cut="0.0000000000000000e+00" cType="1" res="6.6610009525902569e-05" rms="4.5210257172584534e-01" purity="4.6080681681632996e-01" nType="-99"/>
        </Node>
      </Node>
    </BinaryTree>
    <BinaryTree type="DecisionTree" boostWeight="1.0000000000000000e+00" itree="636">
      <Node pos="s" depth="0" NCoef="0" IVar="7" Cut="7.1400338411331177e-01" cType="1" res="4.8630507662892342e-03" rms="4.5049560070037842e-01" purity="5.0220412015914917e-01" nType="0">
        <Node pos="l" depth="1" NCoef="0" IVar="7" Cut="-7.3991537094116211e-01" cType="1" res="-3.1381526496261358e-03" rms="4.4902467727661133e-01" purity="4.6283757686614990e-01" nType="0">
          <Node pos="l" depth="2" NCoef="0" IVar="-1" Cut="0.0000000000000000e+00" cType="1" res="3.2247844501398504e-04" rms="4.6143361926078796e-01" purity="5.4235517978668213e-01" nType="-99"/>
          <Node pos="r" depth="2" NCoef="0" IVar="-1" Cut="0.0000000000000000e+00" cType="1" res="-1.3914842857047915e-03" rms="4.2616412043571472e-01" purity="3.2520037889480591e-01" nType="-99"/>
        </Node>
        <Node pos="r" depth="1" NCoef="0" IVar="0" Cut="1.4353556632995605e+00" cType="1" res="1.7110031098127365e-02" rms="4.5246386528015137e-01" purity="5.6246018409729004e-01" nType="0">
          <Node pos="l" depth="2" NCoef="0" IVar="-1" Cut="0.0000000000000000e+00" cType="1" res="1.3032673159614205e-03" rms="4.4890654087066650e-01" purity="6.0083472728729248e-01" nType="-99"/>
          <Node pos="r" depth="2" NCoef="0" IVar="-1" Cut="0.0000000000000000e+00" cType="1" res="-6.0164180467836559e-05" rms="4.5754119753837585e-01" purity="5.0065892934799194e-01" nType="-99"/>
        </Node>
      </Node>
    </BinaryTree>
    <BinaryTree type="DecisionTree" boostWeight="1.0000000000000000e+00" itree="637">
      <Node pos="s" depth="0" NCoef="0" IVar="1" Cut="9.1941165924072266e-01" cType="1" res="-2.5978833436965942e-03" rms="4.4960543513298035e-01" purity="4.9863648414611816e-01" nType="0">
        <Node pos="l" depth="1" NCoef="0" IVar="3" Cut="1.2471656036376953e+02" cType="1" res="-2.3758968338370323e-02" rms="4.2329883575439453e-01" purity="2.9168805480003357e-01" nType="0">
          <Node pos="l" depth="2" NCoef="0" IVar="-1" Cut="0.0000000000000000e+00" cType="1" res="-3.0439626425504684e-03" rms="4.1889023780822754e-01" purity="2.7246460318565369e-01" nType="-99"/>
          <Node pos="r" depth="2" NCoef="0" IVar="-1" Cut="0.0000000000000000e+00" cType="1" res="-2.9812008142471313e-04" rms="4.2756626009941101e-01" purity="3.1413179636001587e-01" nType="-99"/>
        </Node>
        <Node pos="r" depth="1" NCoef="0" IVar="8" Cut="3.5251608276367188e+02" cType="1" res="1.0705064596550073e-05" rms="4.5267403125762939e-01" purity="5.2414762973785400e-01" nType="0">
          <Node pos="l" depth="2" NCoef="0" IVar="-1" Cut="0.0000000000000000e+00" cType="1" res="-2.6731795514933765e-04" rms="4.5330059528350830e-01" purity="5.3807467222213745e-01" nType="-99"/>
          <Node pos="r" depth="2" NCoef="0" IVar="-1" Cut="0.0000000000000000e+00" cType="1" res="1.2044250033795834e-03" rms="4.4939789175987244e-01" purity="4.6672049164772034e-01" nType="-99"/>
        </Node>
      </Node>
    </BinaryTree>
    <BinaryTree type="DecisionTree" boostWeight="1.0000000000000000e+00" itree="638">
      <Node pos="s" depth="0" NCoef="0" IVar="0" Cut="9.8883712291717529e-01" cType="1" res="-2.1255586761981249e-03" rms="4.5066821575164795e-01" purity="4.9693602323532104e-01" nType="0">
        <Node pos="l" depth="1" NCoef="0" IVar="4" Cut="2.3072118759155273e+00" cType="1" res="1.5313362702727318e-02" rms="4.4618830084800720e-01" purity="5.3902810811996460e-01" nType="0">
          <Node pos="l" depth="2" NCoef="0" IVar="-1" Cut="0.0000000000000000e+00" cType="1" res="1.3245103182271123e-03" rms="4.5306059718132019e-01" purity="5.8839178085327148e-01" nType="-99"/>
          <Node pos="r" depth="2" NCoef="0" IVar="-1" Cut="0.0000000000000000e+00" cType="1" res="-1.3058192562311888e-03" rms="4.2358687520027161e-01" purity="3.9790061116218567e-01" nType="-99"/>
        </Node>
        <Node pos="r" depth="1" NCoef="0" IVar="8" Cut="3.9251916503906250e+02" cType="1" res="-9.6551971510052681e-03" rms="4.5238107442855835e-01" purity="4.7876185178756714e-01" nType="0">
          <Node pos="l" depth="2" NCoef="0" IVar="-1" Cut="0.0000000000000000e+00" cType="1" res="-8.1922678509727120e-04" rms="4.5392969250679016e-01" purity="4.9541872739791870e-01" nType="-99"/>
          <Node pos="r" depth="2" NCoef="0" IVar="-1" Cut="0.0000000000000000e+00" cType="1" res="1.2391018681228161e-03" rms="4.4361227750778198e-01" purity="3.9795714616775513e-01" nType="-99"/>
        </Node>
      </Node>
    </BinaryTree>
    <BinaryTree type="DecisionTree" boostWeight="1.0000000000000000e+00" itree="639">
      <Node pos="s" depth="0" NCoef="0" IVar="1" Cut="9.2761677503585815e-01" cType="1" res="1.3891486451029778e-03" rms="4.5182919502258301e-01" purity="5.0084090232849121e-01" nType="0">
        <Node pos="l" depth="1" NCoef="0" IVar="4" Cut="2.3842878341674805e+00" cType="1" res="1.9107641652226448e-02" rms="4.4555196166038513e-01" purity="3.5137766599655151e-01" nType="0">
          <Node pos="l" depth="2" NCoef="0" IVar="-1" Cut="0.0000000000000000e+00" cType="1" res="-2.8191975434310734e-04" rms="4.6120646595954895e-01" purity="3.9548513293266296e-01" nType="-99"/>
          <Node pos="r" depth="2" NCoef="0" IVar="-1" Cut="0.0000000000000000e+00" cType="1" res="4.9078543670475483e-03" rms="4.1667956113815308e-01" purity="2.8150787949562073e-01" nType="-99"/>
        </Node>
        <Node pos="r" depth="1" NCoef="0" IVar="1" Cut="9.8918545246124268e-01" cType="1" res="-2.3776420857757330e-03" rms="4.5306316018104553e-01" purity="5.3261548280715942e-01" nType="0">
          <Node pos="l" depth="2" NCoef="0" IVar="-1" Cut="0.0000000000000000e+00" cType="1" res="-2.5727547472342849e-04" rms="4.5572519302368164e-01" purity="5.1363694667816162e-01" nType="-99"/>
          <Node pos="r" depth="2" NCoef="0" IVar="-1" Cut="0.0000000000000000e+00" cType="1" res="1.0280231945216656e-03" rms="4.2669638991355896e-01" purity="7.0898598432540894e-01" nType="-99"/>
        </Node>
      </Node>
    </BinaryTree>
    <BinaryTree type="DecisionTree" boostWeight="1.0000000000000000e+00" itree="640">
      <Node pos="s" depth="0" NCoef="0" IVar="7" Cut="7.1402043104171753e-01" cType="1" res="-3.9267661049962044e-03" rms="4.5046555995941162e-01" purity="4.9443972110748291e-01" nType="0">
        <Node pos="l" depth="1" NCoef="0" IVar="7" Cut="9.0884372591972351e-02" cType="1" res="-1.1725557036697865e-02" rms="4.4773343205451965e-01" purity="4.5609703660011292e-01" nType="0">
          <Node pos="l" depth="2" NCoef="0" IVar="-1" Cut="0.0000000000000000e+00" cType="1" res="-3.3266423270106316e-04" rms="4.5279431343078613e-01" purity="4.8615598678588867e-01" nType="-99"/>
          <Node pos="r" depth="2" NCoef="0" IVar="-1" Cut="0.0000000000000000e+00" cType="1" res="-3.2132631167769432e-03" rms="4.1801199316978455e-01" purity="2.9295206069946289e-01" nType="-99"/>
        </Node>
        <Node pos="r" depth="1" NCoef="0" IVar="0" Cut="9.1754996776580811e-01" cType="1" res="7.8628296032547951e-03" rms="4.5431053638458252e-01" purity="5.5240315198898315e-01" nType="0">
          <Node pos="l" depth="2" NCoef="0" IVar="-1" Cut="0.0000000000000000e+00" cType="1" res="1.6932222060859203e-03" rms="4.5081493258476257e-01" purity="5.6444448232650757e-01" nType="-99"/>
          <Node pos="r" depth="2" NCoef="0" IVar="-1" Cut="0.0000000000000000e+00" cType="1" res="-1.3767379277851433e-04" rms="4.5516657829284668e-01" purity="5.4785495996475220e-01" nType="-99"/>
        </Node>
      </Node>
    </BinaryTree>
    <BinaryTree type="DecisionTree" boostWeight="1.0000000000000000e+00" itree="641">
      <Node pos="s" depth="0" NCoef="0" IVar="7" Cut="-1.4279196262359619e+00" cType="1" res="-2.7326808776706457e-03" rms="4.4985112547874451e-01" purity="4.9636566638946533e-01" nType="0">
        <Node pos="l" depth="1" NCoef="0" IVar="-1" Cut="0.0000000000000000e+00" cType="1" res="1.1664233170449734e-03" rms="4.3744215369224548e-01" purity="6.6606199741363525e-01" nType="-99"/>
        <Node pos="r" depth="1" NCoef="0" IVar="7" Cut="-8.8258665800094604e-01" cType="1" res="-5.2402052097022533e-03" rms="4.5080035924911499e-01" purity="4.8195144534111023e-01" nType="0">
          <Node pos="l" depth="2" NCoef="0" IVar="-1" Cut="0.0000000000000000e+00" cType="1" res="-9.8340399563312531e-04" rms="4.6337336301803589e-01" purity="5.2340656518936157e-01" nType="-99"/>
          <Node pos="r" depth="2" NCoef="0" IVar="-1" Cut="0.0000000000000000e+00" cType="1" res="9.1603951659635641e-06" rms="4.4598153233528137e-01" purity="4.6675875782966614e-01" nType="-99"/>
        </Node>
      </Node>
    </BinaryTree>
    <BinaryTree type="DecisionTree" boostWeight="1.0000000000000000e+00" itree="642">
      <Node pos="s" depth="0" NCoef="0" IVar="1" Cut="9.2023909091949463e-01" cType="1" res="2.5383674073964357e-03" rms="4.5165437459945679e-01" purity="5.0166225433349609e-01" nType="0">
        <Node pos="l" depth="1" NCoef="0" IVar="0" Cut="1.2991319894790649e+00" cType="1" res="-2.4312900379300117e-02" rms="4.1860303282737732e-01" purity="2.9042953252792358e-01" nType="0">
          <Node pos="l" depth="2" NCoef="0" IVar="-1" Cut="0.0000000000000000e+00" cType="1" res="-3.0416427180171013e-03" rms="4.2141029238700867e-01" purity="3.0534279346466064e-01" nType="-99"/>
          <Node pos="r" depth="2" NCoef="0" IVar="-1" Cut="0.0000000000000000e+00" cType="1" res="-5.1415862981230021e-04" rms="4.1554492712020874e-01" purity="2.7855706214904785e-01" nType="-99"/>
        </Node>
        <Node pos="r" depth="1" NCoef="0" IVar="0" Cut="1.8285938501358032e+00" cType="1" res="6.0247876681387424e-03" rms="4.5565402507781982e-01" purity="5.2908915281295776e-01" nType="0">
          <Node pos="l" depth="2" NCoef="0" IVar="-1" Cut="0.0000000000000000e+00" cType="1" res="1.8304075638297945e-05" rms="4.5586130023002625e-01" purity="5.6590110063552856e-01" nType="-99"/>
          <Node pos="r" depth="2" NCoef="0" IVar="-1" Cut="0.0000000000000000e+00" cType="1" res="1.5532688703387976e-03" rms="4.5438423752784729e-01" purity="4.0076410770416260e-01" nType="-99"/>
        </Node>
      </Node>
    </BinaryTree>
    <BinaryTree type="DecisionTree" boostWeight="1.0000000000000000e+00" itree="643">
      <Node pos="s" depth="0" NCoef="0" IVar="0" Cut="2.3120782375335693e+00" cType="1" res="-3.2286271452903748e-03" rms="4.4964072108268738e-01" purity="4.9530923366546631e-01" nType="0">
        <Node pos="l" depth="1" NCoef="0" IVar="4" Cut="2.0960845947265625e+00" cType="1" res="-6.5534906461834908e-03" rms="4.5088452100753784e-01" purity="5.1182097196578979e-01" nType="0">
          <Node pos="l" depth="2" NCoef="0" IVar="-1" Cut="0.0000000000000000e+00" cType="1" res="3.4479776513762772e-04" rms="4.5287942886352539e-01" purity="6.0737013816833496e-01" nType="-99"/>
          <Node pos="r" depth="2" NCoef="0" IVar="-1" Cut="0.0000000000000000e+00" cType="1" res="-7.8840815695002675e-04" rms="4.4955804944038391e-01" purity="4.5776322484016418e-01" nType="-99"/>
        </Node>
        <Node pos="r" depth="1" NCoef="0" IVar="-1" Cut="0.0000000000000000e+00" cType="1" res="3.1316787935793400e-03" rms="4.3193882703781128e-01" purity="2.9197677969932556e-01" nType="-99"/>
      </Node>
    </BinaryTree>
    <BinaryTree type="DecisionTree" boostWeight="1.0000000000000000e+00" itree="644">
      <Node pos="s" depth="0" NCoef="0" IVar="0" Cut="2.0630125999450684e+00" cType="1" res="1.3718194095417857e-03" rms="4.5111596584320068e-01" purity="5.0003808736801147e-01" nType="0">
        <Node pos="l" depth="1" NCoef="0" IVar="2" Cut="9.2148284912109375e+01" cType="1" res="-1.6303712036460638e-03" rms="4.5332959294319153e-01" purity="5.2977055311203003e-01" nType="0">
          <Node pos="l" depth="2" NCoef="0" IVar="-1" Cut="0.0000000000000000e+00" cType="1" res="-5.2281975513324142e-04" rms="4.5741230249404907e-01" purity="4.7469174861907959e-01" nType="-99"/>
          <Node pos="r" depth="2" NCoef="0" IVar="-1" Cut="0.0000000000000000e+00" cType="1" res="5.0027854740619659e-04" rms="4.4705036282539368e-01" purity="6.0969126224517822e-01" nType="-99"/>
        </Node>
        <Node pos="r" depth="1" NCoef="0" IVar="6" Cut="4.2831924438476562e+02" cType="1" res="2.0281000062823296e-02" rms="4.3644148111343384e-01" purity="3.1276902556419373e-01" nType="0">
          <Node pos="l" depth="2" NCoef="0" IVar="-1" Cut="0.0000000000000000e+00" cType="1" res="3.5674159880727530e-03" rms="4.3780446052551270e-01" purity="2.9996976256370544e-01" nType="-99"/>
          <Node pos="r" depth="2" NCoef="0" IVar="-1" Cut="0.0000000000000000e+00" cType="1" res="2.7930375654250383e-04" rms="4.3470436334609985e-01" purity="3.2223111391067505e-01" nType="-99"/>
        </Node>
      </Node>
    </BinaryTree>
    <BinaryTree type="DecisionTree" boostWeight="1.0000000000000000e+00" itree="645">
      <Node pos="s" depth="0" NCoef="0" IVar="1" Cut="9.2680025100708008e-01" cType="1" res="4.1934489272534847e-03" rms="4.4779199361801147e-01" purity="5.0282704830169678e-01" nType="0">
        <Node pos="l" depth="1" NCoef="0" IVar="7" Cut="-2.8559604287147522e-01" cType="1" res="-1.9888581708073616e-02" rms="4.2482811212539673e-01" purity="3.1067988276481628e-01" nType="0">
          <Node pos="l" depth="2" NCoef="0" IVar="-1" Cut="0.0000000000000000e+00" cType="1" res="4.4746760977432132e-05" rms="4.4213238358497620e-01" purity="3.4053510427474976e-01" nType="-99"/>
          <Node pos="r" depth="2" NCoef="0" IVar="-1" Cut="0.0000000000000000e+00" cType="1" res="-2.7608841191977262e-03" rms="4.0747514367103577e-01" purity="2.8341102600097656e-01" nType="-99"/>
        </Node>
        <Node pos="r" depth="1" NCoef="0" IVar="6" Cut="3.3733166503906250e+02" cType="1" res="8.7918033823370934e-03" rms="4.5189833641052246e-01" purity="5.3951668739318848e-01" nType="0">
          <Node pos="l" depth="2" NCoef="0" IVar="-1" Cut="0.0000000000000000e+00" cType="1" res="-1.0232109343633056e-03" rms="4.4776445627212524e-01" purity="3.5625422000885010e-01" nType="-99"/>
          <Node pos="r" depth="2" NCoef="0" IVar="-1" Cut="0.0000000000000000e+00" cType="1" res="6.2429480021819472e-04" rms="4.5251214504241943e-01" purity="5.7326442003250122e-01" nType="-99"/>
        </Node>
      </Node>
    </BinaryTree>
    <BinaryTree type="DecisionTree" boostWeight="1.0000000000000000e+00" itree="646">
      <Node pos="s" depth="0" NCoef="0" IVar="1" Cut="9.8565244674682617e-01" cType="1" res="6.8849259987473488e-03" rms="4.4934871792793274e-01" purity="5.0936114788055420e-01" nType="0">
        <Node pos="l" depth="1" NCoef="0" IVar="1" Cut="9.3144035339355469e-01" cType="1" res="4.1195824742317200e-03" rms="4.5292040705680847e-01" purity="4.8286151885986328e-01" nType="0">
          <Node pos="l" depth="2" NCoef="0" IVar="-1" Cut="0.0000000000000000e+00" cType="1" res="1.3818513834849000e-03" rms="4.4713127613067627e-01" purity="3.6597058176994324e-01" nType="-99"/>
          <Node pos="r" depth="2" NCoef="0" IVar="-1" Cut="0.0000000000000000e+00" cType="1" res="-7.3558556323405355e-05" rms="4.5450636744499207e-01" purity="5.1817965507507324e-01" nType="-99"/>
        </Node>
        <Node pos="r" depth="1" NCoef="0" IVar="-1" Cut="0.0000000000000000e+00" cType="1" res="1.2659024214372039e-03" rms="4.2055991291999817e-01" purity="7.1116811037063599e-01" nType="-99"/>
      </Node>
    </BinaryTree>
    <BinaryTree type="DecisionTree" boostWeight="1.0000000000000000e+00" itree="647">
      <Node pos="s" depth="0" NCoef="0" IVar="4" Cut="2.7726175785064697e+00" cType="1" res="1.4774948358535767e-03" rms="4.4927930831909180e-01" purity="5.0300204753875732e-01" nType="0">
        <Node pos="l" depth="1" NCoef="0" IVar="0" Cut="1.0718758106231689e+00" cType="1" res="4.4143060222268105e-03" rms="4.5491367578506470e-01" purity="5.2629321813583374e-01" nType="0">
          <Node pos="l" depth="2" NCoef="0" IVar="-1" Cut="0.0000000000000000e+00" cType="1" res="8.6335226660594344e-04" rms="4.4548022747039795e-01" purity="5.6428742408752441e-01" nType="-99"/>
          <Node pos="r" depth="2" NCoef="0" IVar="-1" Cut="0.0000000000000000e+00" cType="1" res="-1.7944115097634494e-04" rms="4.6000593900680542e-01" purity="5.0467681884765625e-01" nType="-99"/>
        </Node>
        <Node pos="r" depth="1" NCoef="0" IVar="-1" Cut="0.0000000000000000e+00" cType="1" res="-4.8698061145842075e-03" rms="3.5763731598854065e-01" purity="1.7338505387306213e-01" nType="-99"/>
      </Node>
    </BinaryTree>
    <BinaryTree type="DecisionTree" boostWeight="1.0000000000000000e+00" itree="648">
      <Node pos="s" depth="0" NCoef="0" IVar="6" Cut="5.4352819824218750e+02" cType="1" res="1.0506262769922614e-03" rms="4.4771566987037659e-01" purity="4.9966591596603394e-01" nType="0">
        <Node pos="l" depth="1" NCoef="0" IVar="4" Cut="2.2585058212280273e+00" cType="1" res="-6.6405492834746838e-03" rms="4.4818478822708130e-01" purity="4.4841954112052917e-01" nType="0">
          <Node pos="l" depth="2" NCoef="0" IVar="-1" Cut="0.0000000000000000e+00" cType="1" res="2.4518568534404039e-04" rms="4.6541684865951538e-01" purity="5.4853254556655884e-01" nType="-99"/>
          <Node pos="r" depth="2" NCoef="0" IVar="-1" Cut="0.0000000000000000e+00" cType="1" res="-1.4380911597982049e-03" rms="4.2652410268783569e-01" purity="3.3024713397026062e-01" nType="-99"/>
        </Node>
        <Node pos="r" depth="1" NCoef="0" IVar="8" Cut="5.4125030517578125e+02" cType="1" res="1.3391369953751564e-02" rms="4.4668531417846680e-01" purity="5.8189237117767334e-01" nType="0">
          <Node pos="l" depth="2" NCoef="0" IVar="-1" Cut="0.0000000000000000e+00" cType="1" res="8.8790181325748563e-04" rms="4.4971626996994019e-01" purity="6.1545753479003906e-01" nType="-99"/>
          <Node pos="r" depth="2" NCoef="0" IVar="-1" Cut="0.0000000000000000e+00" cType="1" res="-1.5539331361651421e-03" rms="4.2627227306365967e-01" purity="3.8355275988578796e-01" nType="-99"/>
        </Node>
      </Node>
    </BinaryTree>
    <BinaryTree type="DecisionTree" boostWeight="1.0000000000000000e+00" itree="649">
      <Node pos="s" depth="0" NCoef="0" IVar="0" Cut="2.0188941955566406e+00" cType="1" res="3.2887945417314768e-03" rms="4.5075279474258423e-01" purity="5.0099569559097290e-01" nType="0">
        <Node pos="l" depth="1" NCoef="0" IVar="1" Cut="9.2678380012512207e-01" cType="1" res="7.7098100446164608e-03" rms="4.5602256059646606e-01" purity="5.3779894113540649e-01" nType="0">
          <Node pos="l" depth="2" NCoef="0" IVar="-1" Cut="0.0000000000000000e+00" cType="1" res="2.0976886153221130e-03" rms="4.6030709147453308e-01" purity="4.0411746501922607e-01" nType="-99"/>
          <Node pos="r" depth="2" NCoef="0" IVar="-1" Cut="0.0000000000000000e+00" cType="1" res="7.5134761573281139e-05" rms="4.5490887761116028e-01" purity="5.6467348337173462e-01" nType="-99"/>
        </Node>
        <Node pos="r" depth="1" NCoef="0" IVar="6" Cut="4.3988369750976562e+02" cType="1" res="-2.3660799488425255e-02" rms="4.1617786884307861e-01" purity="2.7665078639984131e-01" nType="0">
          <Node pos="l" depth="2" NCoef="0" IVar="-1" Cut="0.0000000000000000e+00" cType="1" res="4.0318816900253296e-04" rms="4.1640302538871765e-01" purity="2.7869582176208496e-01" nType="-99"/>
          <Node pos="r" depth="2" NCoef="0" IVar="-1" Cut="0.0000000000000000e+00" cType="1" res="-3.9536911062896252e-03" rms="4.1430923342704773e-01" purity="2.7481392025947571e-01" nType="-99"/>
        </Node>
      </Node>
    </BinaryTree>
    <BinaryTree type="DecisionTree" boostWeight="1.0000000000000000e+00" itree="650">
      <Node pos="s" depth="0" NCoef="0" IVar="0" Cut="2.0352225303649902e+00" cType="1" res="-1.1203563772141933e-03" rms="4.4814962148666382e-01" purity="4.9994179606437683e-01" nType="0">
        <Node pos="l" depth="1" NCoef="0" IVar="2" Cut="9.2148284912109375e+01" cType="1" res="1.8943020841106772e-03" rms="4.5319592952728271e-01" purity="5.3510576486587524e-01" nType="0">
          <Node pos="l" depth="2" NCoef="0" IVar="-1" Cut="0.0000000000000000e+00" cType="1" res="-2.5317468680441380e-04" rms="4.5965409278869629e-01" purity="4.7871589660644531e-01" nType="-99"/>
          <Node pos="r" depth="2" NCoef="0" IVar="-1" Cut="0.0000000000000000e+00" cType="1" res="5.5707967840135098e-04" rms="4.4318863749504089e-01" purity="6.1925709247589111e-01" nType="-99"/>
        </Node>
        <Node pos="r" depth="1" NCoef="0" IVar="8" Cut="3.2142156982421875e+02" cType="1" res="-1.9756726920604706e-02" rms="4.1511002182960510e-01" purity="2.8256091475486755e-01" nType="0">
          <Node pos="l" depth="2" NCoef="0" IVar="-1" Cut="0.0000000000000000e+00" cType="1" res="-4.3409515637904406e-04" rms="4.4081035256385803e-01" purity="3.3988299965858459e-01" nType="-99"/>
          <Node pos="r" depth="2" NCoef="0" IVar="-1" Cut="0.0000000000000000e+00" cType="1" res="-4.3420796282589436e-03" rms="3.7108013033866882e-01" purity="1.9422517716884613e-01" nType="-99"/>
        </Node>
      </Node>
    </BinaryTree>
    <BinaryTree type="DecisionTree" boostWeight="1.0000000000000000e+00" itree="651">
      <Node pos="s" depth="0" NCoef="0" IVar="0" Cut="2.1608362197875977e+00" cType="1" res="7.3829758912324905e-03" rms="4.5134392380714417e-01" purity="5.0639301538467407e-01" nType="0">
        <Node pos="l" depth="1" NCoef="0" IVar="4" Cut="1.8739191293716431e+00" cType="1" res="4.9387621693313122e-03" rms="4.5350873470306396e-01" purity="5.3114950656890869e-01" nType="0">
          <Node pos="l" depth="2" NCoef="0" IVar="-1" Cut="0.0000000000000000e+00" cType="1" res="1.3655142392963171e-03" rms="4.4939312338829041e-01" purity="6.0859817266464233e-01" nType="-99"/>
          <Node pos="r" depth="2" NCoef="0" IVar="-1" Cut="0.0000000000000000e+00" cType="1" res="5.2118466555839404e-05" rms="4.5401692390441895e-01" purity="5.1918458938598633e-01" nType="-99"/>
        </Node>
        <Node pos="r" depth="1" NCoef="0" IVar="0" Cut="2.4302079677581787e+00" cType="1" res="2.7539094910025597e-02" rms="4.3255329132080078e-01" purity="3.0223980545997620e-01" nType="0">
          <Node pos="l" depth="2" NCoef="0" IVar="-1" Cut="0.0000000000000000e+00" cType="1" res="3.9516249671578407e-03" rms="4.6418526768684387e-01" purity="3.6892879009246826e-01" nType="-99"/>
          <Node pos="r" depth="2" NCoef="0" IVar="-1" Cut="0.0000000000000000e+00" cType="1" res="-5.7081092381849885e-04" rms="3.9133474230766296e-01" purity="2.2734364867210388e-01" nType="-99"/>
        </Node>
      </Node>
    </BinaryTree>
    <BinaryTree type="DecisionTree" boostWeight="1.0000000000000000e+00" itree="652">
      <Node pos="s" depth="0" NCoef="0" IVar="8" Cut="5.0774508666992188e+02" cType="1" res="-5.1245130598545074e-03" rms="4.4982895255088806e-01" purity="4.9519303441047668e-01" nType="0">
        <Node pos="l" depth="1" NCoef="0" IVar="2" Cut="9.5917739868164062e+01" cType="1" res="-2.5580837391316891e-03" rms="4.5176452398300171e-01" purity="5.0852572917938232e-01" nType="0">
          <Node pos="l" depth="2" NCoef="0" IVar="-1" Cut="0.0000000000000000e+00" cType="1" res="-5.1260745385661721e-04" rms="4.5646005868911743e-01" purity="4.7904714941978455e-01" nType="-99"/>
          <Node pos="r" depth="2" NCoef="0" IVar="-1" Cut="0.0000000000000000e+00" cType="1" res="3.8773153210058808e-04" rms="4.4496980309486389e-01" purity="5.4939264059066772e-01" nType="-99"/>
        </Node>
        <Node pos="r" depth="1" NCoef="0" IVar="-1" Cut="0.0000000000000000e+00" cType="1" res="-2.4456335231661797e-03" rms="4.2461234331130981e-01" purity="3.3463031053543091e-01" nType="-99"/>
      </Node>
    </BinaryTree>
    <BinaryTree type="DecisionTree" boostWeight="1.0000000000000000e+00" itree="653">
      <Node pos="s" depth="0" NCoef="0" IVar="0" Cut="1.5896896123886108e+00" cType="1" res="9.9542166572064161e-04" rms="4.4966652989387512e-01" purity="5.0120043754577637e-01" nType="0">
        <Node pos="l" depth="1" NCoef="0" IVar="2" Cut="7.9374328613281250e+01" cType="1" res="6.8424618802964687e-03" rms="4.5164340734481812e-01" purity="5.5442762374877930e-01" nType="0">
          <Node pos="l" depth="2" NCoef="0" IVar="-1" Cut="0.0000000000000000e+00" cType="1" res="-3.9689749246463180e-04" rms="4.5889240503311157e-01" purity="4.7171461582183838e-01" nType="-99"/>
          <Node pos="r" depth="2" NCoef="0" IVar="-1" Cut="0.0000000000000000e+00" cType="1" res="1.2275625485926867e-03" rms="4.4003251194953918e-01" purity="6.7459625005722046e-01" nType="-99"/>
        </Node>
        <Node pos="r" depth="1" NCoef="0" IVar="0" Cut="2.1597251892089844e+00" cType="1" res="-1.0242651216685772e-02" rms="4.4562697410583496e-01" purity="3.9889729022979736e-01" nType="0">
          <Node pos="l" depth="2" NCoef="0" IVar="-1" Cut="0.0000000000000000e+00" cType="1" res="-1.1635839473456144e-03" rms="4.5333108305931091e-01" purity="4.4912743568420410e-01" nType="-99"/>
          <Node pos="r" depth="2" NCoef="0" IVar="-1" Cut="0.0000000000000000e+00" cType="1" res="1.2598218163475394e-03" rms="4.2666161060333252e-01" purity="2.8557023406028748e-01" nType="-99"/>
        </Node>
      </Node>
    </BinaryTree>
    <BinaryTree type="DecisionTree" boostWeight="1.0000000000000000e+00" itree="654">
      <Node pos="s" depth="0" NCoef="0" IVar="0" Cut="9.8248398303985596e-01" cType="1" res="-3.0437251552939415e-03" rms="4.4952008128166199e-01" purity="4.9631673097610474e-01" nType="0">
        <Node pos="l" depth="1" NCoef="0" IVar="8" Cut="2.4608732604980469e+02" cType="1" res="1.7759351059794426e-02" rms="4.4729483127593994e-01" purity="5.4363262653350830e-01" nType="0">
          <Node pos="l" depth="2" NCoef="0" IVar="-1" Cut="0.0000000000000000e+00" cType="1" res="1.6044049989432096e-03" rms="4.4836431741714478e-01" purity="5.6659740209579468e-01" nType="-99"/>
          <Node pos="r" depth="2" NCoef="0" IVar="-1" Cut="0.0000000000000000e+00" cType="1" res="-9.3944079708307981e-04" rms="4.4274497032165527e-01" purity="4.9203518033027649e-01" nType="-99"/>
        </Node>
        <Node pos="r" depth="1" NCoef="0" IVar="7" Cut="1.2851712703704834e+00" cType="1" res="-1.1705043725669384e-02" rms="4.5015996694564819e-01" purity="4.7661682963371277e-01" nType="0">
          <Node pos="l" depth="2" NCoef="0" IVar="-1" Cut="0.0000000000000000e+00" cType="1" res="-9.3833910068497062e-04" rms="4.5080327987670898e-01" purity="4.4756111502647400e-01" nType="-99"/>
          <Node pos="r" depth="2" NCoef="0" IVar="-1" Cut="0.0000000000000000e+00" cType="1" res="8.6228630971163511e-04" rms="4.4501844048500061e-01" purity="6.5106534957885742e-01" nType="-99"/>
        </Node>
      </Node>
    </BinaryTree>
    <BinaryTree type="DecisionTree" boostWeight="1.0000000000000000e+00" itree="655">
      <Node pos="s" depth="0" NCoef="0" IVar="4" Cut="1.8618031740188599e+00" cType="1" res="5.1396916387602687e-04" rms="4.4825693964958191e-01" purity="5.0000089406967163e-01" nType="0">
        <Node pos="l" depth="1" NCoef="0" IVar="-1" Cut="0.0000000000000000e+00" cType="1" res="1.4175828546285629e-03" rms="4.4930258393287659e-01" purity="6.1028051376342773e-01" nType="-99"/>
        <Node pos="r" depth="1" NCoef="0" IVar="7" Cut="7.1390318870544434e-01" cType="1" res="-3.3254092559218407e-03" rms="4.4797798991203308e-01" purity="4.8637527227401733e-01" nType="0">
          <Node pos="l" depth="2" NCoef="0" IVar="-1" Cut="0.0000000000000000e+00" cType="1" res="-6.5679970430210233e-04" rms="4.4353973865509033e-01" purity="4.4668248295783997e-01" nType="-99"/>
          <Node pos="r" depth="2" NCoef="0" IVar="-1" Cut="0.0000000000000000e+00" cType="1" res="4.6488319640047848e-04" rms="4.5436581969261169e-01" purity="5.4697954654693604e-01" nType="-99"/>
        </Node>
      </Node>
    </BinaryTree>
    <BinaryTree type="DecisionTree" boostWeight="1.0000000000000000e+00" itree="656">
      <Node pos="s" depth="0" NCoef="0" IVar="1" Cut="9.1365081071853638e-01" cType="1" res="3.9895540103316307e-03" rms="4.5113423466682434e-01" purity="5.0311958789825439e-01" nType="0">
        <Node pos="l" depth="1" NCoef="0" IVar="-1" Cut="0.0000000000000000e+00" cType="1" res="-1.8397367093712091e-03" rms="4.1241830587387085e-01" purity="2.7068707346916199e-01" nType="-99"/>
        <Node pos="r" depth="1" NCoef="0" IVar="4" Cut="2.5223028659820557e+00" cType="1" res="6.3630347140133381e-03" rms="4.5409566164016724e-01" purity="5.2227121591567993e-01" nType="0">
          <Node pos="l" depth="2" NCoef="0" IVar="-1" Cut="0.0000000000000000e+00" cType="1" res="9.4897201051935554e-05" rms="4.5878288149833679e-01" purity="5.6755787134170532e-01" nType="-99"/>
          <Node pos="r" depth="2" NCoef="0" IVar="-1" Cut="0.0000000000000000e+00" cType="1" res="1.7957115778699517e-03" rms="4.3285936117172241e-01" purity="3.2746371626853943e-01" nType="-99"/>
        </Node>
      </Node>
    </BinaryTree>
    <BinaryTree type="DecisionTree" boostWeight="1.0000000000000000e+00" itree="657">
      <Node pos="s" depth="0" NCoef="0" IVar="2" Cut="1.5703190612792969e+02" cType="1" res="-1.0924444068223238e-03" rms="4.4886878132820129e-01" purity="4.9891221523284912e-01" nType="0">
        <Node pos="l" depth="1" NCoef="0" IVar="2" Cut="3.7518775939941406e+01" cType="1" res="3.4208286087960005e-03" rms="4.4960132241249084e-01" purity="5.1876050233840942e-01" nType="0">
          <Node pos="l" depth="2" NCoef="0" IVar="-1" Cut="0.0000000000000000e+00" cType="1" res="-1.9337786361575127e-03" rms="4.3695899844169617e-01" purity="3.3247226476669312e-01" nType="-99"/>
          <Node pos="r" depth="2" NCoef="0" IVar="-1" Cut="0.0000000000000000e+00" cType="1" res="3.5831070272251964e-04" rms="4.5086228847503662e-01" purity="5.4004156589508057e-01" nType="-99"/>
        </Node>
        <Node pos="r" depth="1" NCoef="0" IVar="4" Cut="2.4889705181121826e+00" cType="1" res="-3.1103586778044701e-02" rms="4.4279846549034119e-01" purity="3.6693051457405090e-01" nType="0">
          <Node pos="l" depth="2" NCoef="0" IVar="-1" Cut="0.0000000000000000e+00" cType="1" res="-2.8706574812531471e-03" rms="4.6652227640151978e-01" purity="4.4802203774452209e-01" nType="-99"/>
          <Node pos="r" depth="2" NCoef="0" IVar="-1" Cut="0.0000000000000000e+00" cType="1" res="1.7231803212780505e-04" rms="4.0156105160713196e-01" purity="2.4278202652931213e-01" nType="-99"/>
        </Node>
      </Node>
    </BinaryTree>
    <BinaryTree type="DecisionTree" boostWeight="1.0000000000000000e+00" itree="658">
      <Node pos="s" depth="0" NCoef="0" IVar="7" Cut="-1.4279192686080933e+00" cType="1" res="5.6314842368010432e-05" rms="4.5048138499259949e-01" purity="4.9877706170082092e-01" nType="0">
        <Node pos="l" depth="1" NCoef="0" IVar="-1" Cut="0.0000000000000000e+00" cType="1" res="1.7259262967854738e-03" rms="4.4888240098953247e-01" purity="6.5924650430679321e-01" nType="-99"/>
        <Node pos="r" depth="1" NCoef="0" IVar="1" Cut="9.1449534893035889e-01" cType="1" res="-3.4746413584798574e-03" rms="4.5044913887977600e-01" purity="4.8473092913627625e-01" nType="0">
          <Node pos="l" depth="2" NCoef="0" IVar="-1" Cut="0.0000000000000000e+00" cType="1" res="-2.6610374916344881e-03" rms="4.0668919682502747e-01" purity="2.5862374901771545e-01" nType="-99"/>
          <Node pos="r" depth="2" NCoef="0" IVar="-1" Cut="0.0000000000000000e+00" cType="1" res="-3.3513919333927333e-05" rms="4.5403656363487244e-01" purity="5.0487852096557617e-01" nType="-99"/>
        </Node>
      </Node>
    </BinaryTree>
    <BinaryTree type="DecisionTree" boostWeight="1.0000000000000000e+00" itree="659">
      <Node pos="s" depth="0" NCoef="0" IVar="6" Cut="2.9458425903320312e+02" cType="1" res="-3.5492877941578627e-03" rms="4.5008590817451477e-01" purity="4.9470481276512146e-01" nType="0">
        <Node pos="l" depth="1" NCoef="0" IVar="-1" Cut="0.0000000000000000e+00" cType="1" res="-3.2275787089020014e-03" rms="4.0822008252143860e-01" purity="2.5109452009201050e-01" nType="-99"/>
        <Node pos="r" depth="1" NCoef="0" IVar="3" Cut="1.0279872894287109e+02" cType="1" res="-9.1744418023154140e-04" rms="4.5310127735137939e-01" purity="5.1381391286849976e-01" nType="0">
          <Node pos="l" depth="2" NCoef="0" IVar="-1" Cut="0.0000000000000000e+00" cType="1" res="-2.2444974165409803e-03" rms="4.3597695231437683e-01" purity="3.5721755027770996e-01" nType="-99"/>
          <Node pos="r" depth="2" NCoef="0" IVar="-1" Cut="0.0000000000000000e+00" cType="1" res="6.2014427385292947e-05" rms="4.5406326651573181e-01" purity="5.2360188961029053e-01" nType="-99"/>
        </Node>
      </Node>
    </BinaryTree>
    <BinaryTree type="DecisionTree" boostWeight="1.0000000000000000e+00" itree="660">
      <Node pos="s" depth="0" NCoef="0" IVar="1" Cut="9.1450881958007812e-01" cType="1" res="2.1538762375712395e-03" rms="4.5208638906478882e-01" purity="4.9975633621215820e-01" nType="0">
        <Node pos="l" depth="1" NCoef="0" IVar="-1" Cut="0.0000000000000000e+00" cType="1" res="-2.6949304156005383e-03" rms="4.0282687544822693e-01" purity="2.6294624805450439e-01" nType="-99"/>
        <Node pos="r" depth="1" NCoef="0" IVar="7" Cut="1.2851775884628296e+00" cType="1" res="5.5493833497166634e-03" rms="4.5601919293403625e-01" purity="5.2063924074172974e-01" nType="0">
          <Node pos="l" depth="2" NCoef="0" IVar="-1" Cut="0.0000000000000000e+00" cType="1" res="4.8374640755355358e-04" rms="4.5518955588340759e-01" purity="5.0747436285018921e-01" nType="-99"/>
          <Node pos="r" depth="2" NCoef="0" IVar="-1" Cut="0.0000000000000000e+00" cType="1" res="-8.8923645671457052e-04" rms="4.6040076017379761e-01" purity="6.0269498825073242e-01" nType="-99"/>
        </Node>
      </Node>
    </BinaryTree>
    <BinaryTree type="DecisionTree" boostWeight="1.0000000000000000e+00" itree="661">
      <Node pos="s" depth="0" NCoef="0" IVar="4" Cut="2.7726175785064697e+00" cType="1" res="-4.1191135533154011e-03" rms="4.4806522130966187e-01" purity="4.9254819750785828e-01" nType="0">
        <Node pos="l" depth="1" NCoef="0" IVar="4" Cut="2.4995331764221191e+00" cType="1" res="-1.7371355788782239e-03" rms="4.5388281345367432e-01" purity="5.1611191034317017e-01" nType="0">
          <Node pos="l" depth="2" NCoef="0" IVar="-1" Cut="0.0000000000000000e+00" cType="1" res="-2.8045583167113364e-04" rms="4.5535886287689209e-01" purity="5.4669928550720215e-01" nType="-99"/>
          <Node pos="r" depth="2" NCoef="0" IVar="-1" Cut="0.0000000000000000e+00" cType="1" res="1.3021288905292749e-03" rms="4.4540411233901978e-01" purity="3.5482016205787659e-01" nType="-99"/>
        </Node>
        <Node pos="r" depth="1" NCoef="0" IVar="-1" Cut="0.0000000000000000e+00" cType="1" res="-4.3522301129996777e-03" rms="3.5911059379577637e-01" purity="1.7507202923297882e-01" nType="-99"/>
      </Node>
    </BinaryTree>
    <BinaryTree type="DecisionTree" boostWeight="1.0000000000000000e+00" itree="662">
      <Node pos="s" depth="0" NCoef="0" IVar="5" Cut="1.6885268688201904e+00" cType="1" res="5.1706857047975063e-03" rms="4.5293441414833069e-01" purity="4.9971336126327515e-01" nType="0">
        <Node pos="l" depth="1" NCoef="0" IVar="7" Cut="-2.8559315204620361e-01" cType="1" res="1.7261089524254203e-03" rms="4.5352971553802490e-01" purity="5.1503139734268188e-01" nType="0">
          <Node pos="l" depth="2" NCoef="0" IVar="-1" Cut="0.0000000000000000e+00" cType="1" res="5.4556701797991991e-04" rms="4.6246498823165894e-01" purity="5.2694928646087646e-01" nType="-99"/>
          <Node pos="r" depth="2" NCoef="0" IVar="-1" Cut="0.0000000000000000e+00" cType="1" res="-3.4815285471267998e-04" rms="4.4509446620941162e-01" purity="5.0421065092086792e-01" nType="-99"/>
        </Node>
        <Node pos="r" depth="1" NCoef="0" IVar="2" Cut="9.4170555114746094e+01" cType="1" res="2.9746308922767639e-02" rms="4.4789624214172363e-01" purity="3.9042535424232483e-01" nType="0">
          <Node pos="l" depth="2" NCoef="0" IVar="-1" Cut="0.0000000000000000e+00" cType="1" res="3.2910646405071020e-04" rms="4.4390851259231567e-01" purity="3.3948948979377747e-01" nType="-99"/>
          <Node pos="r" depth="2" NCoef="0" IVar="-1" Cut="0.0000000000000000e+00" cType="1" res="3.1960359774529934e-03" rms="4.5083686709403992e-01" purity="4.5134624838829041e-01" nType="-99"/>
        </Node>
      </Node>
    </BinaryTree>
    <BinaryTree type="DecisionTree" boostWeight="1.0000000000000000e+00" itree="663">
      <Node pos="s" depth="0" NCoef="0" IVar="2" Cut="1.0389855957031250e+02" cType="1" res="3.4797466360032558e-03" rms="4.4963935017585754e-01" purity="5.0261908769607544e-01" nType="0">
        <Node pos="l" depth="1" NCoef="0" IVar="2" Cut="4.0402458190917969e+01" cType="1" res="-3.1269348692148924e-03" rms="4.5491480827331543e-01" purity="4.8736807703971863e-01" nType="0">
          <Node pos="l" depth="2" NCoef="0" IVar="-1" Cut="0.0000000000000000e+00" cType="1" res="-2.5874720886349678e-03" rms="4.3624463677406311e-01" purity="3.3156979084014893e-01" nType="-99"/>
          <Node pos="r" depth="2" NCoef="0" IVar="-1" Cut="0.0000000000000000e+00" cType="1" res="2.2296994575299323e-04" rms="4.5830839872360229e-01" purity="5.1959252357482910e-01" nType="-99"/>
        </Node>
        <Node pos="r" depth="1" NCoef="0" IVar="0" Cut="1.3150700330734253e+00" cType="1" res="1.4115898869931698e-02" rms="4.4080585241317749e-01" purity="5.2717173099517822e-01" nType="0">
          <Node pos="l" depth="2" NCoef="0" IVar="-1" Cut="0.0000000000000000e+00" cType="1" res="2.0937509834766388e-03" rms="4.0502405166625977e-01" purity="7.6051843166351318e-01" nType="-99"/>
          <Node pos="r" depth="2" NCoef="0" IVar="-1" Cut="0.0000000000000000e+00" cType="1" res="2.7010796475224197e-04" rms="4.4952422380447388e-01" purity="4.6426010131835938e-01" nType="-99"/>
        </Node>
      </Node>
    </BinaryTree>
    <BinaryTree type="DecisionTree" boostWeight="1.0000000000000000e+00" itree="664">
      <Node pos="s" depth="0" NCoef="0" IVar="5" Cut="1.5211300849914551e+00" cType="1" res="6.5816321875900030e-04" rms="4.4782257080078125e-01" purity="5.0115054845809937e-01" nType="0">
        <Node pos="l" depth="1" NCoef="0" IVar="8" Cut="2.2516662597656250e+02" cType="1" res="5.5978796444833279e-03" rms="4.5061191916465759e-01" purity="5.3633362054824829e-01" nType="0">
          <Node pos="l" depth="2" NCoef="0" IVar="-1" Cut="0.0000000000000000e+00" cType="1" res="7.3235115269199014e-04" rms="4.5304989814758301e-01" purity="5.6782984733581543e-01" nType="-99"/>
          <Node pos="r" depth="2" NCoef="0" IVar="-1" Cut="0.0000000000000000e+00" cType="1" res="-4.1358810267411172e-04" rms="4.4691678881645203e-01" purity="4.9338632822036743e-01" nType="-99"/>
        </Node>
        <Node pos="r" depth="1" NCoef="0" IVar="5" Cut="1.7407038211822510e+00" cType="1" res="-1.6903895884752274e-02" rms="4.3731012940406799e-01" purity="3.7606498599052429e-01" nType="0">
          <Node pos="l" depth="2" NCoef="0" IVar="-1" Cut="0.0000000000000000e+00" cType="1" res="-1.5827075112611055e-03" rms="4.3395355343818665e-01" purity="3.9977815747261047e-01" nType="-99"/>
          <Node pos="r" depth="2" NCoef="0" IVar="-1" Cut="0.0000000000000000e+00" cType="1" res="-2.1911515796091408e-04" rms="4.4192519783973694e-01" purity="3.4065249562263489e-01" nType="-99"/>
        </Node>
      </Node>
    </BinaryTree>
    <BinaryTree type="DecisionTree" boostWeight="1.0000000000000000e+00" itree="665">
      <Node pos="s" depth="0" NCoef="0" IVar="1" Cut="9.2746877670288086e-01" cType="1" res="5.7965544983744621e-03" rms="4.5024025440216064e-01" purity="5.0759255886077881e-01" nType="0">
        <Node pos="l" depth="1" NCoef="0" IVar="1" Cut="9.1772490739822388e-01" cType="1" res="3.7463624030351639e-02" rms="4.4554504752159119e-01" purity="3.7816578149795532e-01" nType="0">
          <Node pos="l" depth="2" NCoef="0" IVar="-1" Cut="0.0000000000000000e+00" cType="1" res="9.4621058087795973e-04" rms="4.3341591954231262e-01" purity="3.2390260696411133e-01" nType="-99"/>
          <Node pos="r" depth="2" NCoef="0" IVar="-1" Cut="0.0000000000000000e+00" cType="1" res="3.6739108618348837e-03" rms="4.6037569642066956e-01" purity="4.5586735010147095e-01" nType="-99"/>
        </Node>
        <Node pos="r" depth="1" NCoef="0" IVar="2" Cut="1.3375375366210938e+02" cType="1" res="-9.8891183733940125e-04" rms="4.5095074176788330e-01" purity="5.3532546758651733e-01" nType="0">
          <Node pos="l" depth="2" NCoef="0" IVar="-1" Cut="0.0000000000000000e+00" cType="1" res="2.4939604918472469e-04" rms="4.5196285843849182e-01" purity="5.5464655160903931e-01" nType="-99"/>
          <Node pos="r" depth="2" NCoef="0" IVar="-1" Cut="0.0000000000000000e+00" cType="1" res="-1.4274321729317307e-03" rms="4.4603651762008667e-01" purity="4.5806291699409485e-01" nType="-99"/>
        </Node>
      </Node>
    </BinaryTree>
    <BinaryTree type="DecisionTree" boostWeight="1.0000000000000000e+00" itree="666">
      <Node pos="s" depth="0" NCoef="0" IVar="5" Cut="1.1468012332916260e+00" cType="1" res="7.3796981014311314e-03" rms="4.5099011063575745e-01" purity="5.0573027133941650e-01" nType="0">
        <Node pos="l" depth="1" NCoef="0" IVar="2" Cut="7.2549766540527344e+01" cType="1" res="-5.4980139248073101e-03" rms="4.5282396674156189e-01" purity="5.5396980047225952e-01" nType="0">
          <Node pos="l" depth="2" NCoef="0" IVar="-1" Cut="0.0000000000000000e+00" cType="1" res="-1.4285732759162784e-03" rms="4.7039619088172913e-01" purity="4.8400169610977173e-01" nType="-99"/>
          <Node pos="r" depth="2" NCoef="0" IVar="-1" Cut="0.0000000000000000e+00" cType="1" res="2.2924244694877416e-04" rms="4.4429150223731995e-01" purity="5.8551961183547974e-01" nType="-99"/>
        </Node>
        <Node pos="r" depth="1" NCoef="0" IVar="7" Cut="8.5680145025253296e-01" cType="1" res="1.4547633938491344e-02" rms="4.4980645179748535e-01" purity="4.7887945175170898e-01" nType="0">
          <Node pos="l" depth="2" NCoef="0" IVar="-1" Cut="0.0000000000000000e+00" cType="1" res="2.7840348775498569e-04" rms="4.4669523835182190e-01" purity="4.2859578132629395e-01" nType="-99"/>
          <Node pos="r" depth="2" NCoef="0" IVar="-1" Cut="0.0000000000000000e+00" cType="1" res="1.5306974528357387e-03" rms="4.5519369840621948e-01" purity="5.7650715112686157e-01" nType="-99"/>
        </Node>
      </Node>
    </BinaryTree>
    <BinaryTree type="DecisionTree" boostWeight="1.0000000000000000e+00" itree="667">
      <Node pos="s" depth="0" NCoef="0" IVar="5" Cut="1.0483833551406860e+00" cType="1" res="7.8901890665292740e-03" rms="4.5279830694198608e-01" purity="5.0333666801452637e-01" nType="0">
        <Node pos="l" depth="1" NCoef="0" IVar="4" Cut="2.1925876140594482e+00" cType="1" res="2.4267382919788361e-02" rms="4.6106335520744324e-01" purity="5.8448821306228638e-01" nType="0">
          <Node pos="l" depth="2" NCoef="0" IVar="-1" Cut="0.0000000000000000e+00" cType="1" res="4.2946540634147823e-04" rms="4.5881888270378113e-01" purity="6.3581651449203491e-01" nType="-99"/>
          <Node pos="r" depth="2" NCoef="0" IVar="-1" Cut="0.0000000000000000e+00" cType="1" res="1.8828811589628458e-03" rms="4.6289271116256714e-01" purity="5.3117400407791138e-01" nType="-99"/>
        </Node>
        <Node pos="r" depth="1" NCoef="0" IVar="1" Cut="9.5254844427108765e-01" cType="1" res="3.1604664400219917e-03" rms="4.5027229189872742e-01" purity="4.7990009188652039e-01" nType="0">
          <Node pos="l" depth="2" NCoef="0" IVar="-1" Cut="0.0000000000000000e+00" cType="1" res="6.6173693630844355e-04" rms="4.4206154346466064e-01" purity="3.9164212346076965e-01" nType="-99"/>
          <Node pos="r" depth="2" NCoef="0" IVar="-1" Cut="0.0000000000000000e+00" cType="1" res="-2.3841082293074578e-04" rms="4.5798563957214355e-01" purity="5.6587553024291992e-01" nType="-99"/>
        </Node>
      </Node>
    </BinaryTree>
    <BinaryTree type="DecisionTree" boostWeight="1.0000000000000000e+00" itree="668">
      <Node pos="s" depth="0" NCoef="0" IVar="7" Cut="8.5678023099899292e-01" cType="1" res="2.8461320325732231e-03" rms="4.5034298300743103e-01" purity="5.0141167640686035e-01" nType="0">
        <Node pos="l" depth="1" NCoef="0" IVar="5" Cut="1.5010066032409668e+00" cType="1" res="-3.8086601998656988e-03" rms="4.4735735654830933e-01" purity="4.5852291584014893e-01" nType="0">
          <Node pos="l" depth="2" NCoef="0" IVar="-1" Cut="0.0000000000000000e+00" cType="1" res="6.6118424001615494e-05" rms="4.5101940631866455e-01" purity="5.0035965442657471e-01" nType="-99"/>
          <Node pos="r" depth="2" NCoef="0" IVar="-1" Cut="0.0000000000000000e+00" cType="1" res="-1.2397031532600522e-03" rms="4.3646955490112305e-01" purity="3.3974722027778625e-01" nType="-99"/>
        </Node>
        <Node pos="r" depth="1" NCoef="0" IVar="7" Cut="1.0840072631835938e+00" cType="1" res="1.5203967690467834e-02" rms="4.5557755231857300e-01" purity="5.8105516433715820e-01" nType="0">
          <Node pos="l" depth="2" NCoef="0" IVar="-1" Cut="0.0000000000000000e+00" cType="1" res="1.8354724161326885e-03" rms="4.6392652392387390e-01" purity="5.2278745174407959e-01" nType="-99"/>
          <Node pos="r" depth="2" NCoef="0" IVar="-1" Cut="0.0000000000000000e+00" cType="1" res="2.4633287102915347e-04" rms="4.5159068703651428e-01" purity="6.0606420040130615e-01" nType="-99"/>
        </Node>
      </Node>
    </BinaryTree>
    <BinaryTree type="DecisionTree" boostWeight="1.0000000000000000e+00" itree="669">
      <Node pos="s" depth="0" NCoef="0" IVar="2" Cut="1.5046159362792969e+02" cType="1" res="-2.5906786322593689e-03" rms="4.4985985755920410e-01" purity="4.9700492620468140e-01" nType="0">
        <Node pos="l" depth="1" NCoef="0" IVar="2" Cut="9.3307205200195312e+01" cType="1" res="1.2286615092307329e-03" rms="4.5083457231521606e-01" purity="5.1655578613281250e-01" nType="0">
          <Node pos="l" depth="2" NCoef="0" IVar="-1" Cut="0.0000000000000000e+00" cType="1" res="-5.1002291729673743e-04" rms="4.5650368928909302e-01" purity="4.6942004561424255e-01" nType="-99"/>
          <Node pos="r" depth="2" NCoef="0" IVar="-1" Cut="0.0000000000000000e+00" cType="1" res="9.7436865326017141e-04" rms="4.4013604521751404e-01" purity="5.9860426187515259e-01" nType="-99"/>
        </Node>
        <Node pos="r" depth="1" NCoef="0" IVar="4" Cut="2.3599936962127686e+00" cType="1" res="-2.4440946057438850e-02" rms="4.4361081719398499e-01" purity="3.8515499234199524e-01" nType="0">
          <Node pos="l" depth="2" NCoef="0" IVar="-1" Cut="0.0000000000000000e+00" cType="1" res="-3.0770651064813137e-03" rms="4.5935884118080139e-01" purity="5.0657087564468384e-01" nType="-99"/>
          <Node pos="r" depth="2" NCoef="0" IVar="-1" Cut="0.0000000000000000e+00" cType="1" res="4.1802812484093010e-04" rms="4.2791089415550232e-01" purity="2.8482103347778320e-01" nType="-99"/>
        </Node>
      </Node>
    </BinaryTree>
    <BinaryTree type="DecisionTree" boostWeight="1.0000000000000000e+00" itree="670">
      <Node pos="s" depth="0" NCoef="0" IVar="1" Cut="9.3336141109466553e-01" cType="1" res="1.1318975128233433e-02" rms="4.5169800519943237e-01" purity="5.0943189859390259e-01" nType="0">
        <Node pos="l" depth="1" NCoef="0" IVar="0" Cut="8.4322285652160645e-01" cType="1" res="2.7001595124602318e-02" rms="4.5047682523727417e-01" purity="3.7406742572784424e-01" nType="0">
          <Node pos="l" depth="2" NCoef="0" IVar="-1" Cut="0.0000000000000000e+00" cType="1" res="3.9538103155791759e-03" rms="4.5468634366989136e-01" purity="4.2729896306991577e-01" nType="-99"/>
          <Node pos="r" depth="2" NCoef="0" IVar="-1" Cut="0.0000000000000000e+00" cType="1" res="8.6422124877572060e-04" rms="4.4842922687530518e-01" purity="3.5906323790550232e-01" nType="-99"/>
        </Node>
        <Node pos="r" depth="1" NCoef="0" IVar="1" Cut="9.4827336072921753e-01" cType="1" res="6.6446005366742611e-03" rms="4.5195612311363220e-01" purity="5.4977875947952271e-01" nType="0">
          <Node pos="l" depth="2" NCoef="0" IVar="-1" Cut="0.0000000000000000e+00" cType="1" res="-8.7405595695599914e-04" rms="4.5342397689819336e-01" purity="4.0841364860534668e-01" nType="-99"/>
          <Node pos="r" depth="2" NCoef="0" IVar="-1" Cut="0.0000000000000000e+00" cType="1" res="6.1622791690751910e-04" rms="4.5132386684417725e-01" purity="5.9084177017211914e-01" nType="-99"/>
        </Node>
      </Node>
    </BinaryTree>
    <BinaryTree type="DecisionTree" boostWeight="1.0000000000000000e+00" itree="671">
      <Node pos="s" depth="0" NCoef="0" IVar="8" Cut="5.7205664062500000e+02" cType="1" res="-5.9625036083161831e-03" rms="4.4687247276306152e-01" purity="4.9448242783546448e-01" nType="0">
        <Node pos="l" depth="1" NCoef="0" IVar="8" Cut="1.0714070892333984e+02" cType="1" res="-3.4326396416872740e-03" rms="4.4791707396507263e-01" purity="5.0446438789367676e-01" nType="0">
          <Node pos="l" depth="2" NCoef="0" IVar="-1" Cut="0.0000000000000000e+00" cType="1" res="-2.5923959910869598e-03" rms="4.5320010185241699e-01" purity="4.0445557236671448e-01" nType="-99"/>
          <Node pos="r" depth="2" NCoef="0" IVar="-1" Cut="0.0000000000000000e+00" cType="1" res="3.0965326004661620e-05" rms="4.4719648361206055e-01" purity="5.1411783695220947e-01" nType="-99"/>
        </Node>
        <Node pos="r" depth="1" NCoef="0" IVar="-1" Cut="0.0000000000000000e+00" cType="1" res="-3.6661138292402029e-03" rms="4.2551437020301819e-01" purity="3.1805726885795593e-01" nType="-99"/>
      </Node>
    </BinaryTree>
    <BinaryTree type="DecisionTree" boostWeight="1.0000000000000000e+00" itree="672">
      <Node pos="s" depth="0" NCoef="0" IVar="4" Cut="2.7726175785064697e+00" cType="1" res="-2.7072471566498280e-03" rms="4.4767147302627563e-01" purity="4.9768978357315063e-01" nType="0">
        <Node pos="l" depth="1" NCoef="0" IVar="6" Cut="8.4667266845703125e+02" cType="1" res="5.8756151702255011e-05" rms="4.5364630222320557e-01" purity="5.2096903324127197e-01" nType="0">
          <Node pos="l" depth="2" NCoef="0" IVar="-1" Cut="0.0000000000000000e+00" cType="1" res="-1.2395135127007961e-04" rms="4.5380169153213501e-01" purity="5.1140654087066650e-01" nType="-99"/>
          <Node pos="r" depth="2" NCoef="0" IVar="-1" Cut="0.0000000000000000e+00" cType="1" res="1.0130964219570160e-03" rms="4.5165383815765381e-01" purity="6.0575121641159058e-01" nType="-99"/>
        </Node>
        <Node pos="r" depth="1" NCoef="0" IVar="-1" Cut="0.0000000000000000e+00" cType="1" res="-4.8029334284365177e-03" rms="3.5133451223373413e-01" purity="1.7188799381256104e-01" nType="-99"/>
      </Node>
    </BinaryTree>
    <BinaryTree type="DecisionTree" boostWeight="1.0000000000000000e+00" itree="673">
      <Node pos="s" depth="0" NCoef="0" IVar="0" Cut="8.1388276815414429e-01" cType="1" res="6.9834676105529070e-04" rms="4.5103725790977478e-01" purity="4.9994522333145142e-01" nType="0">
        <Node pos="l" depth="1" NCoef="0" IVar="2" Cut="4.3344379425048828e+01" cType="1" res="1.5986056998372078e-02" rms="4.4409319758415222e-01" purity="5.1906508207321167e-01" nType="0">
          <Node pos="l" depth="2" NCoef="0" IVar="-1" Cut="0.0000000000000000e+00" cType="1" res="-8.7006035028025508e-04" rms="4.5540720224380493e-01" purity="3.7481519579887390e-01" nType="-99"/>
          <Node pos="r" depth="2" NCoef="0" IVar="-1" Cut="0.0000000000000000e+00" cType="1" res="1.8812459893524647e-03" rms="4.3190452456474304e-01" purity="6.4744466543197632e-01" nType="-99"/>
        </Node>
        <Node pos="r" depth="1" NCoef="0" IVar="8" Cut="1.5623068237304688e+02" cType="1" res="-3.0473147053271532e-03" rms="4.5264363288879395e-01" purity="4.9526059627532959e-01" nType="0">
          <Node pos="l" depth="2" NCoef="0" IVar="-1" Cut="0.0000000000000000e+00" cType="1" res="-8.5353822214528918e-04" rms="4.5991763472557068e-01" purity="4.9942526221275330e-01" nType="-99"/>
          <Node pos="r" depth="2" NCoef="0" IVar="-1" Cut="0.0000000000000000e+00" cType="1" res="6.7015826061833650e-05" rms="4.5022237300872803e-01" purity="4.9393764138221741e-01" nType="-99"/>
        </Node>
      </Node>
    </BinaryTree>
    <BinaryTree type="DecisionTree" boostWeight="1.0000000000000000e+00" itree="674">
      <Node pos="s" depth="0" NCoef="0" IVar="0" Cut="1.1323347091674805e+00" cType="1" res="-1.8508597277104855e-03" rms="4.5156708359718323e-01" purity="4.9444398283958435e-01" nType="0">
        <Node pos="l" depth="1" NCoef="0" IVar="0" Cut="7.5768864154815674e-01" cType="1" res="8.4635438397526741e-03" rms="4.5190915465354919e-01" purity="5.4352188110351562e-01" nType="0">
          <Node pos="l" depth="2" NCoef="0" IVar="-1" Cut="0.0000000000000000e+00" cType="1" res="-5.0655362429097295e-04" rms="4.5354482531547546e-01" purity="4.7931835055351257e-01" nType="-99"/>
          <Node pos="r" depth="2" NCoef="0" IVar="-1" Cut="0.0000000000000000e+00" cType="1" res="1.0471827117726207e-03" rms="4.5019978284835815e-01" purity="5.9146922826766968e-01" nType="-99"/>
        </Node>
        <Node pos="r" depth="1" NCoef="0" IVar="8" Cut="5.0774508666992188e+02" cType="1" res="-8.3992937579751015e-03" rms="4.5122745633125305e-01" purity="4.6328532695770264e-01" nType="0">
          <Node pos="l" depth="2" NCoef="0" IVar="-1" Cut="0.0000000000000000e+00" cType="1" res="-2.9152195202186704e-04" rms="4.5516470074653625e-01" purity="4.7983425855636597e-01" nType="-99"/>
          <Node pos="r" depth="2" NCoef="0" IVar="-1" Cut="0.0000000000000000e+00" cType="1" res="-3.3357390202581882e-03" rms="4.0361195802688599e-01" purity="2.7982825040817261e-01" nType="-99"/>
        </Node>
      </Node>
    </BinaryTree>
    <BinaryTree type="DecisionTree" boostWeight="1.0000000000000000e+00" itree="675">
      <Node pos="s" depth="0" NCoef="0" IVar="4" Cut="2.5817286968231201e+00" cType="1" res="5.8386041782796383e-03" rms="4.5266306400299072e-01" purity="5.0642514228820801e-01" nType="0">
        <Node pos="l" depth="1" NCoef="0" IVar="8" Cut="2.7064547729492188e+02" cType="1" res="3.6099151475355029e-04" rms="4.5691606402397156e-01" purity="5.4472470283508301e-01" nType="0">
          <Node pos="l" depth="2" NCoef="0" IVar="-1" Cut="0.0000000000000000e+00" cType="1" res="2.6959355454891920e-04" rms="4.5933789014816284e-01" purity="5.5705332756042480e-01" nType="-99"/>
          <Node pos="r" depth="2" NCoef="0" IVar="-1" Cut="0.0000000000000000e+00" cType="1" res="-6.8272423231974244e-04" rms="4.5019021630287170e-01" purity="5.1232159137725830e-01" nType="-99"/>
        </Node>
        <Node pos="r" depth="1" NCoef="0" IVar="7" Cut="4.2832219600677490e-01" cType="1" res="3.4956976771354675e-02" rms="4.2817318439483643e-01" purity="3.0282899737358093e-01" nType="0">
          <Node pos="l" depth="2" NCoef="0" IVar="-1" Cut="0.0000000000000000e+00" cType="1" res="1.6179746016860008e-03" rms="4.1489848494529724e-01" purity="2.7869653701782227e-01" nType="-99"/>
          <Node pos="r" depth="2" NCoef="0" IVar="-1" Cut="0.0000000000000000e+00" cType="1" res="4.3810266070067883e-03" rms="4.4683229923248291e-01" purity="3.4017750620841980e-01" nType="-99"/>
        </Node>
      </Node>
    </BinaryTree>
    <BinaryTree type="DecisionTree" boostWeight="1.0000000000000000e+00" itree="676">
      <Node pos="s" depth="0" NCoef="0" IVar="8" Cut="2.8144006347656250e+02" cType="1" res="-3.5036648623645306e-03" rms="4.5115903019905090e-01" purity="4.9596664309501648e-01" nType="0">
        <Node pos="l" depth="1" NCoef="0" IVar="1" Cut="9.2602229118347168e-01" cType="1" res="3.9288825355470181e-03" rms="4.5691674947738647e-01" purity="5.3031098842620850e-01" nType="0">
          <Node pos="l" depth="2" NCoef="0" IVar="-1" Cut="0.0000000000000000e+00" cType="1" res="1.8519395962357521e-03" rms="4.5608347654342651e-01" purity="3.8449960947036743e-01" nType="-99"/>
          <Node pos="r" depth="2" NCoef="0" IVar="-1" Cut="0.0000000000000000e+00" cType="1" res="-7.5484065746422857e-05" rms="4.5687380433082581e-01" purity="5.5851852893829346e-01" nType="-99"/>
        </Node>
        <Node pos="r" depth="1" NCoef="0" IVar="4" Cut="2.1588103771209717e+00" cType="1" res="-2.0338013768196106e-02" rms="4.3737149238586426e-01" purity="4.1817846894264221e-01" nType="0">
          <Node pos="l" depth="2" NCoef="0" IVar="-1" Cut="0.0000000000000000e+00" cType="1" res="-2.7092457748949528e-03" rms="4.5199459791183472e-01" purity="5.6930309534072876e-01" nType="-99"/>
          <Node pos="r" depth="2" NCoef="0" IVar="-1" Cut="0.0000000000000000e+00" cType="1" res="-7.1099732303991914e-04" rms="4.3306475877761841e-01" purity="3.7911921739578247e-01" nType="-99"/>
        </Node>
      </Node>
    </BinaryTree>
    <BinaryTree type="DecisionTree" boostWeight="1.0000000000000000e+00" itree="677">
      <Node pos="s" depth="0" NCoef="0" IVar="2" Cut="1.0035180664062500e+02" cType="1" res="-1.4391121221706271e-03" rms="4.4728177785873413e-01" purity="4.9648869037628174e-01" nType="0">
        <Node pos="l" depth="1" NCoef="0" IVar="8" Cut="2.4967692565917969e+02" cType="1" res="-9.2719933018088341e-03" rms="4.5327195525169373e-01" purity="4.7687199711799622e-01" nType="0">
          <Node pos="l" depth="2" NCoef="0" IVar="-1" Cut="0.0000000000000000e+00" cType="1" res="7.2221431764774024e-05" rms="4.5859393477439880e-01" purity="5.0570803880691528e-01" nType="-99"/>
          <Node pos="r" depth="2" NCoef="0" IVar="-1" Cut="0.0000000000000000e+00" cType="1" res="-2.1525041665881872e-03" rms="4.3817958235740662e-01" purity="4.0316492319107056e-01" nType="-99"/>
        </Node>
        <Node pos="r" depth="1" NCoef="0" IVar="3" Cut="1.1507093811035156e+02" cType="1" res="9.6990112215280533e-03" rms="4.3838214874267578e-01" purity="5.2438294887542725e-01" nType="0">
          <Node pos="l" depth="2" NCoef="0" IVar="-1" Cut="0.0000000000000000e+00" cType="1" res="-1.9061291823163629e-03" rms="4.4610333442687988e-01" purity="4.2702123522758484e-01" nType="-99"/>
          <Node pos="r" depth="2" NCoef="0" IVar="-1" Cut="0.0000000000000000e+00" cType="1" res="8.7673374218866229e-04" rms="4.3654093146324158e-01" purity="5.4208606481552124e-01" nType="-99"/>
        </Node>
      </Node>
    </BinaryTree>
    <BinaryTree type="DecisionTree" boostWeight="1.0000000000000000e+00" itree="678">
      <Node pos="s" depth="0" NCoef="0" IVar="6" Cut="3.8653256225585938e+02" cType="1" res="3.0573162803193554e-05" rms="4.4775745272636414e-01" purity="4.9793773889541626e-01" nType="0">
        <Node pos="l" depth="1" NCoef="0" IVar="8" Cut="2.0793688964843750e+02" cType="1" res="-1.3680401258170605e-02" rms="4.3812617659568787e-01" purity="3.7582319974899292e-01" nType="0">
          <Node pos="l" depth="2" NCoef="0" IVar="-1" Cut="0.0000000000000000e+00" cType="1" res="-1.2928590876981616e-04" rms="4.5369601249694824e-01" purity="4.2430156469345093e-01" nType="-99"/>
          <Node pos="r" depth="2" NCoef="0" IVar="-1" Cut="0.0000000000000000e+00" cType="1" res="-4.0516895242035389e-03" rms="3.9057895541191101e-01" purity="2.4290545284748077e-01" nType="-99"/>
        </Node>
        <Node pos="r" depth="1" NCoef="0" IVar="5" Cut="1.8073316812515259e+00" cType="1" res="5.4231048561632633e-03" rms="4.5137503743171692e-01" purity="5.4596549272537231e-01" nType="0">
          <Node pos="l" depth="2" NCoef="0" IVar="-1" Cut="0.0000000000000000e+00" cType="1" res="4.0476312278769910e-04" rms="4.5262569189071655e-01" purity="5.6391960382461548e-01" nType="-99"/>
          <Node pos="r" depth="2" NCoef="0" IVar="-1" Cut="0.0000000000000000e+00" cType="1" res="-2.1600138861685991e-03" rms="4.3420356512069702e-01" purity="3.2889923453330994e-01" nType="-99"/>
        </Node>
      </Node>
    </BinaryTree>
    <BinaryTree type="DecisionTree" boostWeight="1.0000000000000000e+00" itree="679">
      <Node pos="s" depth="0" NCoef="0" IVar="4" Cut="2.2005615234375000e+00" cType="1" res="-7.9024247825145721e-03" rms="4.4730889797210693e-01" purity="4.9161270260810852e-01" nType="0">
        <Node pos="l" depth="1" NCoef="0" IVar="7" Cut="-9.9957990646362305e-01" cType="1" res="2.0902035757899284e-03" rms="4.5306691527366638e-01" purity="5.9826904535293579e-01" nType="0">
          <Node pos="l" depth="2" NCoef="0" IVar="-1" Cut="0.0000000000000000e+00" cType="1" res="6.7632709397003055e-04" rms="4.4917446374893188e-01" purity="6.4512711763381958e-01" nType="-99"/>
          <Node pos="r" depth="2" NCoef="0" IVar="-1" Cut="0.0000000000000000e+00" cType="1" res="-2.6649161009117961e-04" rms="4.5516842603683472e-01" purity="5.7065171003341675e-01" nType="-99"/>
        </Node>
        <Node pos="r" depth="1" NCoef="0" IVar="3" Cut="1.1507093811035156e+02" cType="1" res="-1.7080543562769890e-02" rms="4.4175502657890320e-01" purity="3.9365002512931824e-01" nType="0">
          <Node pos="l" depth="2" NCoef="0" IVar="-1" Cut="0.0000000000000000e+00" cType="1" res="-3.1059698667377234e-03" rms="4.2776465415954590e-01" purity="3.1816625595092773e-01" nType="-99"/>
          <Node pos="r" depth="2" NCoef="0" IVar="-1" Cut="0.0000000000000000e+00" cType="1" res="-6.2743772286921740e-04" rms="4.4480127096176147e-01" purity="4.1168913245201111e-01" nType="-99"/>
        </Node>
      </Node>
    </BinaryTree>
    <BinaryTree type="DecisionTree" boostWeight="1.0000000000000000e+00" itree="680">
      <Node pos="s" depth="0" NCoef="0" IVar="5" Cut="1.2440159320831299e+00" cType="1" res="8.1583606079220772e-03" rms="4.5018273591995239e-01" purity="5.0544601678848267e-01" nType="0">
        <Node pos="l" depth="1" NCoef="0" IVar="2" Cut="4.9402050018310547e+01" cType="1" res="-4.0246271528303623e-03" rms="4.5585215091705322e-01" purity="5.4119604825973511e-01" nType="0">
          <Node pos="l" depth="2" NCoef="0" IVar="-1" Cut="0.0000000000000000e+00" cType="1" res="-2.1855414379388094e-03" rms="4.6050167083740234e-01" purity="4.1276994347572327e-01" nType="-99"/>
          <Node pos="r" depth="2" NCoef="0" IVar="-1" Cut="0.0000000000000000e+00" cType="1" res="1.1081814591307193e-04" rms="4.5474031567573547e-01" purity="5.6355339288711548e-01" nType="-99"/>
        </Node>
        <Node pos="r" depth="1" NCoef="0" IVar="1" Cut="9.4190478324890137e-01" cType="1" res="1.9362382590770721e-02" rms="4.4461056590080261e-01" purity="4.7256872057914734e-01" nType="0">
          <Node pos="l" depth="2" NCoef="0" IVar="-1" Cut="0.0000000000000000e+00" cType="1" res="1.4804095553699881e-04" rms="4.3253999948501587e-01" purity="3.2890668511390686e-01" nType="-99"/>
          <Node pos="r" depth="2" NCoef="0" IVar="-1" Cut="0.0000000000000000e+00" cType="1" res="1.3569325674325228e-03" rms="4.5022180676460266e-01" purity="5.4366159439086914e-01" nType="-99"/>
        </Node>
      </Node>
    </BinaryTree>
    <BinaryTree type="DecisionTree" boostWeight="1.0000000000000000e+00" itree="681">
      <Node pos="s" depth="0" NCoef="0" IVar="3" Cut="1.0796383666992188e+02" cType="1" res="-2.4094993714243174e-03" rms="4.5055612921714783e-01" purity="4.9386319518089294e-01" nType="0">
        <Node pos="l" depth="1" NCoef="0" IVar="6" Cut="4.0040029907226562e+02" cType="1" res="-3.1032428145408630e-02" rms="4.4131699204444885e-01" purity="3.5801005363464355e-01" nType="0">
          <Node pos="l" depth="2" NCoef="0" IVar="-1" Cut="0.0000000000000000e+00" cType="1" res="-6.4509251387789845e-04" rms="4.4321238994598389e-01" purity="3.0838638544082642e-01" nType="-99"/>
          <Node pos="r" depth="2" NCoef="0" IVar="-1" Cut="0.0000000000000000e+00" cType="1" res="-3.0688382685184479e-03" rms="4.3839469552040100e-01" purity="4.0570119023323059e-01" nType="-99"/>
        </Node>
        <Node pos="r" depth="1" NCoef="0" IVar="2" Cut="2.0647955322265625e+02" cType="1" res="1.1982867727056146e-03" rms="4.5157852768898010e-01" purity="5.1098686456680298e-01" nType="0">
          <Node pos="l" depth="2" NCoef="0" IVar="-1" Cut="0.0000000000000000e+00" cType="1" res="-7.4240728281438351e-05" rms="4.5212426781654358e-01" purity="5.1698088645935059e-01" nType="-99"/>
          <Node pos="r" depth="2" NCoef="0" IVar="-1" Cut="0.0000000000000000e+00" cType="1" res="2.3852188605815172e-03" rms="4.4167101383209229e-01" purity="4.2325645685195923e-01" nType="-99"/>
        </Node>
      </Node>
    </BinaryTree>
    <BinaryTree type="DecisionTree" boostWeight="1.0000000000000000e+00" itree="682">
      <Node pos="s" depth="0" NCoef="0" IVar="8" Cut="1.5782522583007812e+02" cType="1" res="-2.5153164751827717e-03" rms="4.5004457235336304e-01" purity="4.9648436903953552e-01" nType="0">
        <Node pos="l" depth="1" NCoef="0" IVar="8" Cut="1.2961337280273438e+02" cType="1" res="-2.0480861887335777e-02" rms="4.5959413051605225e-01" purity="4.8226550221443176e-01" nType="0">
          <Node pos="l" depth="2" NCoef="0" IVar="-1" Cut="0.0000000000000000e+00" cType="1" res="-2.2692610509693623e-03" rms="4.5450797677040100e-01" purity="4.3258425593376160e-01" nType="-99"/>
          <Node pos="r" depth="2" NCoef="0" IVar="-1" Cut="0.0000000000000000e+00" cType="1" res="3.2694352557882667e-04" rms="4.6484562754631042e-01" purity="5.4813206195831299e-01" nType="-99"/>
        </Node>
        <Node pos="r" depth="1" NCoef="0" IVar="7" Cut="-1.1423772573471069e+00" cType="1" res="4.2330292053520679e-03" rms="4.4621786475181580e-01" purity="5.0182539224624634e-01" nType="0">
          <Node pos="l" depth="2" NCoef="0" IVar="-1" Cut="0.0000000000000000e+00" cType="1" res="-6.7178590688854456e-04" rms="4.5009213685989380e-01" purity="6.0477352142333984e-01" nType="-99"/>
          <Node pos="r" depth="2" NCoef="0" IVar="-1" Cut="0.0000000000000000e+00" cType="1" res="4.6748173190280795e-04" rms="4.4515633583068848e-01" purity="4.7684183716773987e-01" nType="-99"/>
        </Node>
      </Node>
    </BinaryTree>
    <BinaryTree type="DecisionTree" boostWeight="1.0000000000000000e+00" itree="683">
      <Node pos="s" depth="0" NCoef="0" IVar="7" Cut="-2.8545331954956055e-01" cType="1" res="4.8763970844447613e-03" rms="4.5342478156089783e-01" purity="4.9907985329627991e-01" nType="0">
        <Node pos="l" depth="1" NCoef="0" IVar="1" Cut="9.5955580472946167e-01" cType="1" res="1.6443062573671341e-02" rms="4.5873561501502991e-01" purity="5.1581668853759766e-01" nType="0">
          <Node pos="l" depth="2" NCoef="0" IVar="-1" Cut="0.0000000000000000e+00" cType="1" res="1.4789125416427851e-03" rms="4.6262410283088684e-01" purity="4.5065051317214966e-01" nType="-99"/>
          <Node pos="r" depth="2" NCoef="0" IVar="-1" Cut="0.0000000000000000e+00" cType="1" res="-4.0346956666326150e-05" rms="4.5245507359504700e-01" purity="6.1071825027465820e-01" nType="-99"/>
        </Node>
        <Node pos="r" depth="1" NCoef="0" IVar="7" Cut="1.4020476341247559e+00" cType="1" res="-5.9518055059015751e-03" rms="4.4812551140785217e-01" purity="4.8341158032417297e-01" nType="0">
          <Node pos="l" depth="2" NCoef="0" IVar="-1" Cut="0.0000000000000000e+00" cType="1" res="-7.9308333806693554e-04" rms="4.4902658462524414e-01" purity="4.4858476519584656e-01" nType="-99"/>
          <Node pos="r" depth="2" NCoef="0" IVar="-1" Cut="0.0000000000000000e+00" cType="1" res="1.4548349427059293e-03" rms="4.4165977835655212e-01" purity="6.5052747726440430e-01" nType="-99"/>
        </Node>
      </Node>
    </BinaryTree>
    <BinaryTree type="DecisionTree" boostWeight="1.0000000000000000e+00" itree="684">
      <Node pos="s" depth="0" NCoef="0" IVar="7" Cut="-8.5678416490554810e-01" cType="1" res="-3.7246636929921806e-04" rms="4.4990137219429016e-01" purity="4.9707728624343872e-01" nType="0">
        <Node pos="l" depth="1" NCoef="0" IVar="7" Cut="-1.3435952663421631e+00" cType="1" res="-1.5390582382678986e-02" rms="4.5829361677169800e-01" purity="5.3834360837936401e-01" nType="0">
          <Node pos="l" depth="2" NCoef="0" IVar="-1" Cut="0.0000000000000000e+00" cType="1" res="-1.7336255405098200e-03" rms="4.5537382364273071e-01" purity="5.8102256059646606e-01" nType="-99"/>
          <Node pos="r" depth="2" NCoef="0" IVar="-1" Cut="0.0000000000000000e+00" cType="1" res="-2.4023532751016319e-04" rms="4.5941233634948730e-01" purity="5.1667857170104980e-01" nType="-99"/>
        </Node>
        <Node pos="r" depth="1" NCoef="0" IVar="0" Cut="1.6719383001327515e+00" cType="1" res="7.2149042971432209e-03" rms="4.4540891051292419e-01" purity="4.7622892260551453e-01" nType="0">
          <Node pos="l" depth="2" NCoef="0" IVar="-1" Cut="0.0000000000000000e+00" cType="1" res="7.6406827429309487e-04" rms="4.5140123367309570e-01" purity="5.3736591339111328e-01" nType="-99"/>
          <Node pos="r" depth="2" NCoef="0" IVar="-1" Cut="0.0000000000000000e+00" cType="1" res="-6.6160649294033647e-04" rms="4.3269515037536621e-01" purity="3.5415422916412354e-01" nType="-99"/>
        </Node>
      </Node>
    </BinaryTree>
    <BinaryTree type="DecisionTree" boostWeight="1.0000000000000000e+00" itree="685">
      <Node pos="s" depth="0" NCoef="0" IVar="8" Cut="5.6577050781250000e+02" cType="1" res="1.3562274398282170e-03" rms="4.5040845870971680e-01" purity="4.9819219112396240e-01" nType="0">
        <Node pos="l" depth="1" NCoef="0" IVar="4" Cut="2.4782986640930176e+00" cType="1" res="3.6493199877440929e-03" rms="4.5195013284683228e-01" purity="5.0823140144348145e-01" nType="0">
          <Node pos="l" depth="2" NCoef="0" IVar="-1" Cut="0.0000000000000000e+00" cType="1" res="-5.4538628319278359e-05" rms="4.5683842897415161e-01" purity="5.5731409788131714e-01" nType="-99"/>
          <Node pos="r" depth="2" NCoef="0" IVar="-1" Cut="0.0000000000000000e+00" cType="1" res="1.5194400912150741e-03" rms="4.3313887715339661e-01" purity="3.2862174510955811e-01" nType="-99"/>
        </Node>
        <Node pos="r" depth="1" NCoef="0" IVar="-1" Cut="0.0000000000000000e+00" cType="1" res="-2.5250730104744434e-03" rms="4.2241385579109192e-01" purity="3.3278799057006836e-01" nType="-99"/>
      </Node>
    </BinaryTree>
    <BinaryTree type="DecisionTree" boostWeight="1.0000000000000000e+00" itree="686">
      <Node pos="s" depth="0" NCoef="0" IVar="4" Cut="2.7726175785064697e+00" cType="1" res="3.9132291567511857e-04" rms="4.4877409934997559e-01" purity="5.0042927265167236e-01" nType="0">
        <Node pos="l" depth="1" NCoef="0" IVar="1" Cut="9.7294312715530396e-01" cType="1" res="2.7594757266342640e-03" rms="4.5445883274078369e-01" purity="5.2359652519226074e-01" nType="0">
          <Node pos="l" depth="2" NCoef="0" IVar="-1" Cut="0.0000000000000000e+00" cType="1" res="-1.2376577069517225e-04" rms="4.6036624908447266e-01" purity="4.6603512763977051e-01" nType="-99"/>
          <Node pos="r" depth="2" NCoef="0" IVar="-1" Cut="0.0000000000000000e+00" cType="1" res="7.7426567440852523e-04" rms="4.3717458844184875e-01" purity="6.8471819162368774e-01" nType="-99"/>
        </Node>
        <Node pos="r" depth="1" NCoef="0" IVar="-1" Cut="0.0000000000000000e+00" cType="1" res="-4.1139712557196617e-03" rms="3.5752487182617188e-01" purity="1.7385149002075195e-01" nType="-99"/>
      </Node>
    </BinaryTree>
    <BinaryTree type="DecisionTree" boostWeight="1.0000000000000000e+00" itree="687">
      <Node pos="s" depth="0" NCoef="0" IVar="0" Cut="1.2821853160858154e+00" cType="1" res="9.3471782747656107e-04" rms="4.4893336296081543e-01" purity="5.0096708536148071e-01" nType="0">
        <Node pos="l" depth="1" NCoef="0" IVar="5" Cut="1.5440555810928345e+00" cType="1" res="1.2842698954045773e-02" rms="4.4848546385765076e-01" purity="5.5759233236312866e-01" nType="0">
          <Node pos="l" depth="2" NCoef="0" IVar="-1" Cut="0.0000000000000000e+00" cType="1" res="1.0463916696608067e-03" rms="4.4917666912078857e-01" purity="5.9721499681472778e-01" nType="-99"/>
          <Node pos="r" depth="2" NCoef="0" IVar="-1" Cut="0.0000000000000000e+00" cType="1" res="-1.2105982750654221e-03" rms="4.4443553686141968e-01" purity="4.2273807525634766e-01" nType="-99"/>
        </Node>
        <Node pos="r" depth="1" NCoef="0" IVar="5" Cut="1.7018414735794067e+00" cType="1" res="-1.0033156722784042e-02" rms="4.4906625151634216e-01" purity="4.4881230592727661e-01" nType="0">
          <Node pos="l" depth="2" NCoef="0" IVar="-1" Cut="0.0000000000000000e+00" cType="1" res="-8.8854768546298146e-04" rms="4.4928312301635742e-01" purity="4.6103104948997498e-01" nType="-99"/>
          <Node pos="r" depth="2" NCoef="0" IVar="-1" Cut="0.0000000000000000e+00" cType="1" res="3.1234342604875565e-03" rms="4.4342309236526489e-01" purity="3.4303933382034302e-01" nType="-99"/>
        </Node>
      </Node>
    </BinaryTree>
    <BinaryTree type="DecisionTree" boostWeight="1.0000000000000000e+00" itree="688">
      <Node pos="s" depth="0" NCoef="0" IVar="0" Cut="2.0126900672912598e+00" cType="1" res="-7.5878272764384747e-04" rms="4.5085284113883972e-01" purity="4.9541950225830078e-01" nType="0">
        <Node pos="l" depth="1" NCoef="0" IVar="1" Cut="9.4708073139190674e-01" cType="1" res="3.0574544798582792e-03" rms="4.5566087961196899e-01" purity="5.3299456834793091e-01" nType="0">
          <Node pos="l" depth="2" NCoef="0" IVar="-1" Cut="0.0000000000000000e+00" cType="1" res="1.0149533627554774e-03" rms="4.6253731846809387e-01" purity="4.3016797304153442e-01" nType="-99"/>
          <Node pos="r" depth="2" NCoef="0" IVar="-1" Cut="0.0000000000000000e+00" cType="1" res="-3.1536762253381312e-04" rms="4.5106244087219238e-01" purity="5.9681433439254761e-01" nType="-99"/>
        </Node>
        <Node pos="r" depth="1" NCoef="0" IVar="4" Cut="2.5361692905426025e+00" cType="1" res="-2.2919783368706703e-02" rms="4.2116785049438477e-01" purity="2.7722027897834778e-01" nType="0">
          <Node pos="l" depth="2" NCoef="0" IVar="-1" Cut="0.0000000000000000e+00" cType="1" res="-3.5110544413328171e-03" rms="4.4305357336997986e-01" purity="3.3863750100135803e-01" nType="-99"/>
          <Node pos="r" depth="2" NCoef="0" IVar="-1" Cut="0.0000000000000000e+00" cType="1" res="1.5863140579313040e-03" rms="3.9056369662284851e-01" purity="2.0436926186084747e-01" nType="-99"/>
        </Node>
      </Node>
    </BinaryTree>
    <BinaryTree type="DecisionTree" boostWeight="1.0000000000000000e+00" itree="689">
      <Node pos="s" depth="0" NCoef="0" IVar="1" Cut="9.4708073139190674e-01" cType="1" res="2.4619238683953881e-04" rms="4.4945740699768066e-01" purity="4.9798396229743958e-01" nType="0">
        <Node pos="l" depth="1" NCoef="0" IVar="6" Cut="6.1622460937500000e+02" cType="1" res="1.0269924998283386e-02" rms="4.4819924235343933e-01" purity="3.9132672548294067e-01" nType="0">
          <Node pos="l" depth="2" NCoef="0" IVar="-1" Cut="0.0000000000000000e+00" cType="1" res="-3.4729982871795073e-05" rms="4.3984183669090271e-01" purity="3.5243916511535645e-01" nType="-99"/>
          <Node pos="r" depth="2" NCoef="0" IVar="-1" Cut="0.0000000000000000e+00" cType="1" res="1.8549598753452301e-03" rms="4.6830326318740845e-01" purity="4.9374571442604065e-01" nType="-99"/>
        </Node>
        <Node pos="r" depth="1" NCoef="0" IVar="1" Cut="9.8243933916091919e-01" cType="1" res="-6.2272208742797375e-03" rms="4.5014950633049011e-01" purity="5.6686413288116455e-01" nType="0">
          <Node pos="l" depth="2" NCoef="0" IVar="-1" Cut="0.0000000000000000e+00" cType="1" res="-6.0717918677255511e-04" rms="4.5599696040153503e-01" purity="5.2718335390090942e-01" nType="-99"/>
          <Node pos="r" depth="2" NCoef="0" IVar="-1" Cut="0.0000000000000000e+00" cType="1" res="5.5337644880637527e-04" rms="4.3127062916755676e-01" purity="6.8814373016357422e-01" nType="-99"/>
        </Node>
      </Node>
    </BinaryTree>
    <BinaryTree type="DecisionTree" boostWeight="1.0000000000000000e+00" itree="690">
      <Node pos="s" depth="0" NCoef="0" IVar="0" Cut="8.3405554294586182e-01" cType="1" res="3.4616594202816486e-03" rms="4.5113432407379150e-01" purity="5.0009107589721680e-01" nType="0">
        <Node pos="l" depth="1" NCoef="0" IVar="2" Cut="4.1665012359619141e+01" cType="1" res="1.7419734969735146e-02" rms="4.5198073983192444e-01" purity="5.2097231149673462e-01" nType="0">
          <Node pos="l" depth="2" NCoef="0" IVar="-1" Cut="0.0000000000000000e+00" cType="1" res="-4.8174260882660747e-04" rms="4.5580762624740601e-01" purity="3.7848284840583801e-01" nType="-99"/>
          <Node pos="r" depth="2" NCoef="0" IVar="-1" Cut="0.0000000000000000e+00" cType="1" res="1.5847539762035012e-03" rms="4.4825422763824463e-01" purity="6.2477952241897583e-01" nType="-99"/>
        </Node>
        <Node pos="r" depth="1" NCoef="0" IVar="4" Cut="1.9087071418762207e+00" cType="1" res="-2.9042080859653652e-04" rms="4.5083284378051758e-01" purity="4.9447792768478394e-01" nType="0">
          <Node pos="l" depth="2" NCoef="0" IVar="-1" Cut="0.0000000000000000e+00" cType="1" res="-1.5289889415726066e-03" rms="4.5240148901939392e-01" purity="5.9253144264221191e-01" nType="-99"/>
          <Node pos="r" depth="2" NCoef="0" IVar="-1" Cut="0.0000000000000000e+00" cType="1" res="1.7890406888909638e-04" rms="4.5050734281539917e-01" purity="4.8277074098587036e-01" nType="-99"/>
        </Node>
      </Node>
    </BinaryTree>
    <BinaryTree type="DecisionTree" boostWeight="1.0000000000000000e+00" itree="691">
      <Node pos="s" depth="0" NCoef="0" IVar="1" Cut="9.7933644056320190e-01" cType="1" res="-3.3759530633687973e-03" rms="4.4796377420425415e-01" purity="4.9491026997566223e-01" nType="0">
        <Node pos="l" depth="1" NCoef="0" IVar="7" Cut="9.9959301948547363e-01" cType="1" res="-7.3663033545017242e-03" rms="4.5115026831626892e-01" purity="4.5244428515434265e-01" nType="0">
          <Node pos="l" depth="2" NCoef="0" IVar="-1" Cut="0.0000000000000000e+00" cType="1" res="-7.1788456989452243e-04" rms="4.4585570693016052e-01" purity="4.1335242986679077e-01" nType="-99"/>
          <Node pos="r" depth="2" NCoef="0" IVar="-1" Cut="0.0000000000000000e+00" cType="1" res="2.4933865643106401e-04" rms="4.6404540538787842e-01" purity="5.5147236585617065e-01" nType="-99"/>
        </Node>
        <Node pos="r" depth="1" NCoef="0" IVar="4" Cut="2.2116520404815674e+00" cType="1" res="1.4419821090996265e-02" rms="4.3302056193351746e-01" purity="6.8429619073867798e-01" nType="0">
          <Node pos="l" depth="2" NCoef="0" IVar="-1" Cut="0.0000000000000000e+00" cType="1" res="1.4054157072678208e-03" rms="4.1787183284759521e-01" purity="7.6261115074157715e-01" nType="-99"/>
          <Node pos="r" depth="2" NCoef="0" IVar="-1" Cut="0.0000000000000000e+00" cType="1" res="-3.3367166179232299e-04" rms="4.5008274912834167e-01" purity="5.8770000934600830e-01" nType="-99"/>
        </Node>
      </Node>
    </BinaryTree>
    <BinaryTree type="DecisionTree" boostWeight="1.0000000000000000e+00" itree="692">
      <Node pos="s" depth="0" NCoef="0" IVar="3" Cut="1.4146928405761719e+02" cType="1" res="1.9449363462626934e-03" rms="4.4887220859527588e-01" purity="5.0130218267440796e-01" nType="0">
        <Node pos="l" depth="1" NCoef="0" IVar="1" Cut="9.8595529794692993e-01" cType="1" res="4.1163018904626369e-03" rms="4.5050212740898132e-01" purity="5.1649159193038940e-01" nType="0">
          <Node pos="l" depth="2" NCoef="0" IVar="-1" Cut="0.0000000000000000e+00" cType="1" res="2.6286894353688695e-05" rms="4.5349022746086121e-01" purity="4.8987442255020142e-01" nType="-99"/>
          <Node pos="r" depth="2" NCoef="0" IVar="-1" Cut="0.0000000000000000e+00" cType="1" res="1.4496833318844438e-03" rms="4.2554840445518494e-01" purity="7.2319710254669189e-01" nType="-99"/>
        </Node>
        <Node pos="r" depth="1" NCoef="0" IVar="-1" Cut="0.0000000000000000e+00" cType="1" res="-2.1247593685984612e-03" rms="4.2489907145500183e-01" purity="2.9401743412017822e-01" nType="-99"/>
      </Node>
    </BinaryTree>
    <BinaryTree type="DecisionTree" boostWeight="1.0000000000000000e+00" itree="693">
      <Node pos="s" depth="0" NCoef="0" IVar="1" Cut="9.7925239801406860e-01" cType="1" res="2.2519018966704607e-03" rms="4.5142227411270142e-01" purity="4.9735158681869507e-01" nType="0">
        <Node pos="l" depth="1" NCoef="0" IVar="4" Cut="2.3435754776000977e+00" cType="1" res="-2.3256600834429264e-03" rms="4.5510324835777283e-01" purity="4.5349946618080139e-01" nType="0">
          <Node pos="l" depth="2" NCoef="0" IVar="-1" Cut="0.0000000000000000e+00" cType="1" res="-5.0762121099978685e-04" rms="4.6757283806800842e-01" purity="5.2848976850509644e-01" nType="-99"/>
          <Node pos="r" depth="2" NCoef="0" IVar="-1" Cut="0.0000000000000000e+00" cType="1" res="8.0978183541446924e-04" rms="4.3342450261116028e-01" purity="3.2994991540908813e-01" nType="-99"/>
        </Node>
        <Node pos="r" depth="1" NCoef="0" IVar="7" Cut="-4.2836749553680420e-01" cType="1" res="2.2211316972970963e-02" rms="4.3444520235061646e-01" purity="6.8855905532836914e-01" nType="0">
          <Node pos="l" depth="2" NCoef="0" IVar="-1" Cut="0.0000000000000000e+00" cType="1" res="1.7478426452726126e-03" rms="4.3432825803756714e-01" purity="7.0534873008728027e-01" nType="-99"/>
          <Node pos="r" depth="2" NCoef="0" IVar="-1" Cut="0.0000000000000000e+00" cType="1" res="3.0838622478768229e-04" rms="4.3395638465881348e-01" purity="6.7353618144989014e-01" nType="-99"/>
        </Node>
      </Node>
    </BinaryTree>
    <BinaryTree type="DecisionTree" boostWeight="1.0000000000000000e+00" itree="694">
      <Node pos="s" depth="0" NCoef="0" IVar="8" Cut="1.4552781677246094e+02" cType="1" res="2.8261262923479080e-03" rms="4.4894218444824219e-01" purity="5.0069111585617065e-01" nType="0">
        <Node pos="l" depth="1" NCoef="0" IVar="5" Cut="1.3726266622543335e+00" cType="1" res="-1.2846687808632851e-02" rms="4.5830246806144714e-01" purity="4.8359191417694092e-01" nType="0">
          <Node pos="l" depth="2" NCoef="0" IVar="-1" Cut="0.0000000000000000e+00" cType="1" res="7.5546282459981740e-05" rms="4.6523833274841309e-01" purity="5.2936792373657227e-01" nType="-99"/>
          <Node pos="r" depth="2" NCoef="0" IVar="-1" Cut="0.0000000000000000e+00" cType="1" res="-2.5585475377738476e-03" rms="4.4199031591415405e-01" purity="3.8818496465682983e-01" nType="-99"/>
        </Node>
        <Node pos="r" depth="1" NCoef="0" IVar="8" Cut="5.7430847167968750e+02" cType="1" res="7.3344805277884007e-03" rms="4.4611132144927979e-01" purity="5.0560981035232544e-01" nType="0">
          <Node pos="l" depth="2" NCoef="0" IVar="-1" Cut="0.0000000000000000e+00" cType="1" res="5.4019893286749721e-04" rms="4.4741976261138916e-01" purity="5.1845157146453857e-01" nType="-99"/>
          <Node pos="r" depth="2" NCoef="0" IVar="-1" Cut="0.0000000000000000e+00" cType="1" res="-2.4297814816236496e-03" rms="4.2632275819778442e-01" purity="3.3796408772468567e-01" nType="-99"/>
        </Node>
      </Node>
    </BinaryTree>
    <BinaryTree type="DecisionTree" boostWeight="1.0000000000000000e+00" itree="695">
      <Node pos="s" depth="0" NCoef="0" IVar="2" Cut="1.4530992126464844e+02" cType="1" res="-4.0781782008707523e-03" rms="4.4928857684135437e-01" purity="4.9558582901954651e-01" nType="0">
        <Node pos="l" depth="1" NCoef="0" IVar="2" Cut="1.0866585540771484e+02" cType="1" res="1.7376246978528798e-04" rms="4.5111000537872314e-01" purity="5.1505839824676514e-01" nType="0">
          <Node pos="l" depth="2" NCoef="0" IVar="-1" Cut="0.0000000000000000e+00" cType="1" res="-3.4002788015641272e-04" rms="4.5475232601165771e-01" purity="4.8567900061607361e-01" nType="-99"/>
          <Node pos="r" depth="2" NCoef="0" IVar="-1" Cut="0.0000000000000000e+00" cType="1" res="1.0875092120841146e-03" rms="4.3785101175308228e-01" purity="6.1400640010833740e-01" nType="-99"/>
        </Node>
        <Node pos="r" depth="1" NCoef="0" IVar="5" Cut="1.2223472595214844e+00" cType="1" res="-2.6079609990119934e-02" rms="4.3908590078353882e-01" purity="3.9482596516609192e-01" nType="0">
          <Node pos="l" depth="2" NCoef="0" IVar="-1" Cut="0.0000000000000000e+00" cType="1" res="-6.1674846801906824e-04" rms="4.5463603734970093e-01" purity="4.5496052503585815e-01" nType="-99"/>
          <Node pos="r" depth="2" NCoef="0" IVar="-1" Cut="0.0000000000000000e+00" cType="1" res="-3.0846586450934410e-03" rms="4.2064437270164490e-01" purity="3.2849344611167908e-01" nType="-99"/>
        </Node>
      </Node>
    </BinaryTree>
    <BinaryTree type="DecisionTree" boostWeight="1.0000000000000000e+00" itree="696">
      <Node pos="s" depth="0" NCoef="0" IVar="8" Cut="2.7017852783203125e+02" cType="1" res="4.5659546740353107e-03" rms="4.5095190405845642e-01" purity="5.0394797325134277e-01" nType="0">
        <Node pos="l" depth="1" NCoef="0" IVar="5" Cut="1.4761130809783936e+00" cType="1" res="-4.0650059236213565e-04" rms="4.5533901453018188e-01" purity="5.2580028772354126e-01" nType="0">
          <Node pos="l" depth="2" NCoef="0" IVar="-1" Cut="0.0000000000000000e+00" cType="1" res="-4.1881544166244566e-04" rms="4.5479646325111389e-01" purity="5.4391044378280640e-01" nType="-99"/>
          <Node pos="r" depth="2" NCoef="0" IVar="-1" Cut="0.0000000000000000e+00" cType="1" res="1.4350868295878172e-03" rms="4.5609185099601746e-01" purity="4.6548730134963989e-01" nType="-99"/>
        </Node>
        <Node pos="r" depth="1" NCoef="0" IVar="1" Cut="9.4049775600433350e-01" cType="1" res="1.4113874174654484e-02" rms="4.4224926829338074e-01" purity="4.6198812127113342e-01" nType="0">
          <Node pos="l" depth="2" NCoef="0" IVar="-1" Cut="0.0000000000000000e+00" cType="1" res="-5.3278601262718439e-04" rms="4.2891550064086914e-01" purity="3.0491635203361511e-01" nType="-99"/>
          <Node pos="r" depth="2" NCoef="0" IVar="-1" Cut="0.0000000000000000e+00" cType="1" res="1.1317961616441607e-03" rms="4.4749391078948975e-01" purity="5.2870047092437744e-01" nType="-99"/>
        </Node>
      </Node>
    </BinaryTree>
    <BinaryTree type="DecisionTree" boostWeight="1.0000000000000000e+00" itree="697">
      <Node pos="s" depth="0" NCoef="0" IVar="5" Cut="1.1341922283172607e+00" cType="1" res="1.6963398957159370e-04" rms="4.4927808642387390e-01" purity="4.9708989262580872e-01" nType="0">
        <Node pos="l" depth="1" NCoef="0" IVar="5" Cut="1.0923975706100464e+00" cType="1" res="1.3999310322105885e-02" rms="4.5071935653686523e-01" purity="5.7350093126296997e-01" nType="0">
          <Node pos="l" depth="2" NCoef="0" IVar="-1" Cut="0.0000000000000000e+00" cType="1" res="2.7422845596447587e-04" rms="4.4999128580093384e-01" purity="5.6847083568572998e-01" nType="-99"/>
          <Node pos="r" depth="2" NCoef="0" IVar="-1" Cut="0.0000000000000000e+00" cType="1" res="2.3449126165360212e-03" rms="4.5211237668991089e-01" purity="5.9622007608413696e-01" nType="-99"/>
        </Node>
        <Node pos="r" depth="1" NCoef="0" IVar="8" Cut="5.0774508666992188e+02" cType="1" res="-7.2803329676389694e-03" rms="4.4832298159599304e-01" purity="4.5592767000198364e-01" nType="0">
          <Node pos="l" depth="2" NCoef="0" IVar="-1" Cut="0.0000000000000000e+00" cType="1" res="-2.2540875943377614e-04" rms="4.5027619600296021e-01" purity="4.7203445434570312e-01" nType="-99"/>
          <Node pos="r" depth="2" NCoef="0" IVar="-1" Cut="0.0000000000000000e+00" cType="1" res="-2.9858471825718880e-03" rms="4.2698493599891663e-01" purity="2.9430106282234192e-01" nType="-99"/>
        </Node>
      </Node>
    </BinaryTree>
    <BinaryTree type="DecisionTree" boostWeight="1.0000000000000000e+00" itree="698">
      <Node pos="s" depth="0" NCoef="0" IVar="3" Cut="1.2187563323974609e+02" cType="1" res="8.8571908418089151e-04" rms="4.4882714748382568e-01" purity="5.0161039829254150e-01" nType="0">
        <Node pos="l" depth="1" NCoef="0" IVar="3" Cut="1.0072470092773438e+02" cType="1" res="-8.9946771040558815e-03" rms="4.4641542434692383e-01" purity="4.7985687851905823e-01" nType="0">
          <Node pos="l" depth="2" NCoef="0" IVar="-1" Cut="0.0000000000000000e+00" cType="1" res="-4.6556717716157436e-03" rms="4.0706580877304077e-01" purity="2.9094421863555908e-01" nType="-99"/>
          <Node pos="r" depth="2" NCoef="0" IVar="-1" Cut="0.0000000000000000e+00" cType="1" res="-3.3290325518464670e-05" rms="4.5184054970741272e-01" purity="5.1009911298751831e-01" nType="-99"/>
        </Node>
        <Node pos="r" depth="1" NCoef="0" IVar="0" Cut="2.1812894344329834e+00" cType="1" res="7.5467568822205067e-03" rms="4.5032343268394470e-01" purity="5.1627594232559204e-01" nType="0">
          <Node pos="l" depth="2" NCoef="0" IVar="-1" Cut="0.0000000000000000e+00" cType="1" res="9.8977805464528501e-05" rms="4.5120131969451904e-01" purity="5.3804844617843628e-01" nType="-99"/>
          <Node pos="r" depth="2" NCoef="0" IVar="-1" Cut="0.0000000000000000e+00" cType="1" res="3.8318745791912079e-03" rms="4.4067230820655823e-01" purity="3.4081348776817322e-01" nType="-99"/>
        </Node>
      </Node>
    </BinaryTree>
    <BinaryTree type="DecisionTree" boostWeight="1.0000000000000000e+00" itree="699">
      <Node pos="s" depth="0" NCoef="0" IVar="8" Cut="5.0712728881835938e+02" cType="1" res="-1.1376574402675033e-03" rms="4.4913581013679504e-01" purity="4.9905681610107422e-01" nType="0">
        <Node pos="l" depth="1" NCoef="0" IVar="0" Cut="2.2654242515563965e+00" cType="1" res="1.7817512853071094e-03" rms="4.5128682255744934e-01" purity="5.1250112056732178e-01" nType="0">
          <Node pos="l" depth="2" NCoef="0" IVar="-1" Cut="0.0000000000000000e+00" cType="1" res="-5.2042931201867759e-05" rms="4.5271834731101990e-01" purity="5.2913022041320801e-01" nType="-99"/>
          <Node pos="r" depth="2" NCoef="0" IVar="-1" Cut="0.0000000000000000e+00" cType="1" res="2.7675533201545477e-03" rms="4.3230241537094116e-01" purity="3.1304311752319336e-01" nType="-99"/>
        </Node>
        <Node pos="r" depth="1" NCoef="0" IVar="-1" Cut="0.0000000000000000e+00" cType="1" res="-2.4910727515816689e-03" rms="4.2103898525238037e-01" purity="3.3848828077316284e-01" nType="-99"/>
      </Node>
    </BinaryTree>
    <BinaryTree type="DecisionTree" boostWeight="1.0000000000000000e+00" itree="700">
      <Node pos="s" depth="0" NCoef="0" IVar="0" Cut="8.3916884660720825e-01" cType="1" res="5.7983375154435635e-03" rms="4.5094984769821167e-01" purity="5.0488179922103882e-01" nType="0">
        <Node pos="l" depth="1" NCoef="0" IVar="0" Cut="5.9451413154602051e-01" cType="1" res="2.1523747593164444e-02" rms="4.5249032974243164e-01" purity="5.2772367000579834e-01" nType="0">
          <Node pos="l" depth="2" NCoef="0" IVar="-1" Cut="0.0000000000000000e+00" cType="1" res="-5.8047822676599026e-04" rms="4.5501613616943359e-01" purity="4.5866617560386658e-01" nType="-99"/>
          <Node pos="r" depth="2" NCoef="0" IVar="-1" Cut="0.0000000000000000e+00" cType="1" res="1.9082928774878383e-03" rms="4.4994568824768066e-01" purity="5.6740581989288330e-01" nType="-99"/>
        </Node>
        <Node pos="r" depth="1" NCoef="0" IVar="5" Cut="1.4166551828384399e+00" cType="1" res="1.5905197942629457e-03" rms="4.5044368505477905e-01" purity="4.9876978993415833e-01" nType="0">
          <Node pos="l" depth="2" NCoef="0" IVar="-1" Cut="0.0000000000000000e+00" cType="1" res="-2.2418249864131212e-04" rms="4.5252674818038940e-01" purity="5.3105604648590088e-01" nType="-99"/>
          <Node pos="r" depth="2" NCoef="0" IVar="-1" Cut="0.0000000000000000e+00" cType="1" res="9.5882534515112638e-04" rms="4.4503307342529297e-01" purity="4.2081785202026367e-01" nType="-99"/>
        </Node>
      </Node>
    </BinaryTree>
    <BinaryTree type="DecisionTree" boostWeight="1.0000000000000000e+00" itree="701">
      <Node pos="s" depth="0" NCoef="0" IVar="6" Cut="4.8888092041015625e+02" cType="1" res="1.1917614610865712e-03" rms="4.5103356242179871e-01" purity="5.0051456689834595e-01" nType="0">
        <Node pos="l" depth="1" NCoef="0" IVar="7" Cut="7.1385687589645386e-01" cType="1" res="1.1477775871753693e-02" rms="4.5272171497344971e-01" purity="4.5253369212150574e-01" nType="0">
          <Node pos="l" depth="2" NCoef="0" IVar="-1" Cut="0.0000000000000000e+00" cType="1" res="-1.2667472765315324e-04" rms="4.4761508703231812e-01" purity="4.0944463014602661e-01" nType="-99"/>
          <Node pos="r" depth="2" NCoef="0" IVar="-1" Cut="0.0000000000000000e+00" cType="1" res="1.5772015321999788e-03" rms="4.5964774489402771e-01" purity="5.1848697662353516e-01" nType="-99"/>
        </Node>
        <Node pos="r" depth="1" NCoef="0" IVar="2" Cut="6.4206054687500000e+01" cType="1" res="-1.0375996120274067e-02" rms="4.4884595274925232e-01" purity="5.5447435379028320e-01" nType="0">
          <Node pos="l" depth="2" NCoef="0" IVar="-1" Cut="0.0000000000000000e+00" cType="1" res="-1.7198761925101280e-03" rms="4.6801927685737610e-01" purity="4.6996238827705383e-01" nType="-99"/>
          <Node pos="r" depth="2" NCoef="0" IVar="-1" Cut="0.0000000000000000e+00" cType="1" res="-2.0023007527925074e-04" rms="4.4360589981079102e-01" purity="5.7601892948150635e-01" nType="-99"/>
        </Node>
      </Node>
    </BinaryTree>
    <BinaryTree type="DecisionTree" boostWeight="1.0000000000000000e+00" itree="702">
      <Node pos="s" depth="0" NCoef="0" IVar="1" Cut="9.7245740890502930e-01" cType="1" res="6.3124793814495206e-04" rms="4.5077267289161682e-01" purity="5.0126945972442627e-01" nType="0">
        <Node pos="l" depth="1" NCoef="0" IVar="5" Cut="1.3257784843444824e+00" cType="1" res="-4.7538783401250839e-03" rms="4.5410799980163574e-01" purity="4.4228932261466980e-01" nType="0">
          <Node pos="l" depth="2" NCoef="0" IVar="-1" Cut="0.0000000000000000e+00" cType="1" res="-6.6026585409417748e-04" rms="4.6116891503334045e-01" purity="4.7600874304771423e-01" nType="-99"/>
          <Node pos="r" depth="2" NCoef="0" IVar="-1" Cut="0.0000000000000000e+00" cType="1" res="3.4057424636557698e-04" rms="4.4461387395858765e-01" purity="3.9880260825157166e-01" nType="-99"/>
        </Node>
        <Node pos="r" depth="1" NCoef="0" IVar="5" Cut="1.4598326683044434e+00" cType="1" res="1.5569011680781841e-02" rms="4.4104486703872681e-01" purity="6.6487401723861694e-01" nType="0">
          <Node pos="l" depth="2" NCoef="0" IVar="-1" Cut="0.0000000000000000e+00" cType="1" res="2.6980973780155182e-04" rms="4.3572965264320374e-01" purity="6.8493974208831787e-01" nType="-99"/>
          <Node pos="r" depth="2" NCoef="0" IVar="-1" Cut="0.0000000000000000e+00" cType="1" res="2.0679680164903402e-03" rms="4.5563051104545593e-01" purity="6.0357868671417236e-01" nType="-99"/>
        </Node>
      </Node>
    </BinaryTree>
    <BinaryTree type="DecisionTree" boostWeight="1.0000000000000000e+00" itree="703">
      <Node pos="s" depth="0" NCoef="0" IVar="1" Cut="9.5960599184036255e-01" cType="1" res="1.4409614959731698e-03" rms="4.4971737265586853e-01" purity="5.0049835443496704e-01" nType="0">
        <Node pos="l" depth="1" NCoef="0" IVar="4" Cut="2.6331856250762939e+00" cType="1" res="-7.5309383682906628e-03" rms="4.4980275630950928e-01" purity="4.0673646330833435e-01" nType="0">
          <Node pos="l" depth="2" NCoef="0" IVar="-1" Cut="0.0000000000000000e+00" cType="1" res="-6.4694904722273350e-04" rms="4.5920976996421814e-01" purity="4.3976026773452759e-01" nType="-99"/>
          <Node pos="r" depth="2" NCoef="0" IVar="-1" Cut="0.0000000000000000e+00" cType="1" res="1.9435320282354951e-03" rms="3.9243948459625244e-01" purity="2.2322405874729156e-01" nType="-99"/>
        </Node>
        <Node pos="r" depth="1" NCoef="0" IVar="6" Cut="6.8437780761718750e+02" cType="1" res="1.3176293112337589e-02" rms="4.4933539628982544e-01" purity="6.2313973903656006e-01" nType="0">
          <Node pos="l" depth="2" NCoef="0" IVar="-1" Cut="0.0000000000000000e+00" cType="1" res="9.1451476328074932e-04" rms="4.5237204432487488e-01" purity="6.1394870281219482e-01" nType="-99"/>
          <Node pos="r" depth="2" NCoef="0" IVar="-1" Cut="0.0000000000000000e+00" cType="1" res="-6.4095557900145650e-04" rms="4.3547317385673523e-01" purity="6.6132903099060059e-01" nType="-99"/>
        </Node>
      </Node>
    </BinaryTree>
    <BinaryTree type="DecisionTree" boostWeight="1.0000000000000000e+00" itree="704">
      <Node pos="s" depth="0" NCoef="0" IVar="5" Cut="1.6120668649673462e+00" cType="1" res="-1.4262050390243530e-03" rms="4.4715797901153564e-01" purity="4.9730756878852844e-01" nType="0">
        <Node pos="l" depth="1" NCoef="0" IVar="1" Cut="9.2020893096923828e-01" cType="1" res="2.4990383535623550e-03" rms="4.4993531703948975e-01" purity="5.2362430095672607e-01" nType="0">
          <Node pos="l" depth="2" NCoef="0" IVar="-1" Cut="0.0000000000000000e+00" cType="1" res="-1.7697088187560439e-03" rms="4.2677843570709229e-01" purity="3.1206524372100830e-01" nType="-99"/>
          <Node pos="r" depth="2" NCoef="0" IVar="-1" Cut="0.0000000000000000e+00" cType="1" res="3.0408299062401056e-04" rms="4.5264017581939697e-01" purity="5.5035084486007690e-01" nType="-99"/>
        </Node>
        <Node pos="r" depth="1" NCoef="0" IVar="2" Cut="9.6367218017578125e+01" cType="1" res="-2.3431785404682159e-02" rms="4.3059465289115906e-01" purity="3.4977158904075623e-01" nType="0">
          <Node pos="l" depth="2" NCoef="0" IVar="-1" Cut="0.0000000000000000e+00" cType="1" res="-3.7283189594745636e-03" rms="4.2957147955894470e-01" purity="2.8746306896209717e-01" nType="-99"/>
          <Node pos="r" depth="2" NCoef="0" IVar="-1" Cut="0.0000000000000000e+00" cType="1" res="5.7786895195022225e-04" rms="4.2955285310745239e-01" purity="4.2862308025360107e-01" nType="-99"/>
        </Node>
      </Node>
    </BinaryTree>
    <BinaryTree type="DecisionTree" boostWeight="1.0000000000000000e+00" itree="705">
      <Node pos="s" depth="0" NCoef="0" IVar="7" Cut="7.1385687589645386e-01" cType="1" res="7.3726865230128169e-04" rms="4.4913563132286072e-01" purity="4.9971380829811096e-01" nType="0">
        <Node pos="l" depth="1" NCoef="0" IVar="8" Cut="2.7422225952148438e+02" cType="1" res="-5.8196117170155048e-03" rms="4.4753968715667725e-01" purity="4.6142894029617310e-01" nType="0">
          <Node pos="l" depth="2" NCoef="0" IVar="-1" Cut="0.0000000000000000e+00" cType="1" res="3.0959412106312811e-04" rms="4.5675140619277954e-01" purity="5.0683969259262085e-01" nType="-99"/>
          <Node pos="r" depth="2" NCoef="0" IVar="-1" Cut="0.0000000000000000e+00" cType="1" res="-1.8593806307762861e-03" rms="4.2835316061973572e-01" purity="3.7417614459991455e-01" nType="-99"/>
        </Node>
        <Node pos="r" depth="1" NCoef="0" IVar="6" Cut="4.5315719604492188e+02" cType="1" res="1.0503516532480717e-02" rms="4.5132574439048767e-01" purity="5.5673795938491821e-01" nType="0">
          <Node pos="l" depth="2" NCoef="0" IVar="-1" Cut="0.0000000000000000e+00" cType="1" res="-5.2524922648444772e-04" rms="4.5018494129180908e-01" purity="4.6553167700767517e-01" nType="-99"/>
          <Node pos="r" depth="2" NCoef="0" IVar="-1" Cut="0.0000000000000000e+00" cType="1" res="1.0950678260996938e-03" rms="4.5157402753829956e-01" purity="6.1998635530471802e-01" nType="-99"/>
        </Node>
      </Node>
    </BinaryTree>
    <BinaryTree type="DecisionTree" boostWeight="1.0000000000000000e+00" itree="706">
      <Node pos="s" depth="0" NCoef="0" IVar="2" Cut="1.6882646179199219e+02" cType="1" res="-1.1875979835167527e-03" rms="4.4884264469146729e-01" purity="4.9816903471946716e-01" nType="0">
        <Node pos="l" depth="1" NCoef="0" IVar="1" Cut="9.6582853794097900e-01" cType="1" res="2.9181188438087702e-03" rms="4.5066958665847778e-01" purity="5.1584345102310181e-01" nType="0">
          <Node pos="l" depth="2" NCoef="0" IVar="-1" Cut="0.0000000000000000e+00" cType="1" res="-1.7403543461114168e-04" rms="4.5375427603721619e-01" purity="4.4244444370269775e-01" nType="-99"/>
          <Node pos="r" depth="2" NCoef="0" IVar="-1" Cut="0.0000000000000000e+00" cType="1" res="6.6129787592217326e-04" rms="4.4454023241996765e-01" purity="6.5473139286041260e-01" nType="-99"/>
        </Node>
        <Node pos="r" depth="1" NCoef="0" IVar="2" Cut="2.1400799560546875e+02" cType="1" res="-3.4808285534381866e-02" rms="4.3212765455245972e-01" purity="3.5343778133392334e-01" nType="0">
          <Node pos="l" depth="2" NCoef="0" IVar="-1" Cut="0.0000000000000000e+00" cType="1" res="-3.6214145366102457e-03" rms="4.2822238802909851e-01" purity="3.7017211318016052e-01" nType="-99"/>
          <Node pos="r" depth="2" NCoef="0" IVar="-1" Cut="0.0000000000000000e+00" cType="1" res="-1.0068177944049239e-03" rms="4.3479189276695251e-01" purity="3.3768436312675476e-01" nType="-99"/>
        </Node>
      </Node>
    </BinaryTree>
    <BinaryTree type="DecisionTree" boostWeight="1.0000000000000000e+00" itree="707">
      <Node pos="s" depth="0" NCoef="0" IVar="2" Cut="1.0816646575927734e+02" cType="1" res="1.7346612003166229e-04" rms="4.4956576824188232e-01" purity="4.9820527434349060e-01" nType="0">
        <Node pos="l" depth="1" NCoef="0" IVar="1" Cut="9.7298216819763184e-01" cType="1" res="-7.6925270259380341e-03" rms="4.5396620035171509e-01" purity="4.8351502418518066e-01" nType="0">
          <Node pos="l" depth="2" NCoef="0" IVar="-1" Cut="0.0000000000000000e+00" cType="1" res="-7.9023395664989948e-04" rms="4.5595309138298035e-01" purity="4.2319011688232422e-01" nType="-99"/>
          <Node pos="r" depth="2" NCoef="0" IVar="-1" Cut="0.0000000000000000e+00" cType="1" res="5.6037853937596083e-04" rms="4.4738730788230896e-01" purity="6.6347724199295044e-01" nType="-99"/>
        </Node>
        <Node pos="r" depth="1" NCoef="0" IVar="2" Cut="1.5244198608398438e+02" cType="1" res="1.3973109424114227e-02" rms="4.4140142202377319e-01" purity="5.2397692203521729e-01" nType="0">
          <Node pos="l" depth="2" NCoef="0" IVar="-1" Cut="0.0000000000000000e+00" cType="1" res="1.3532204320654273e-03" rms="4.3683367967605591e-01" purity="6.0965758562088013e-01" nType="-99"/>
          <Node pos="r" depth="2" NCoef="0" IVar="-1" Cut="0.0000000000000000e+00" cType="1" res="-4.1780699393711984e-04" rms="4.4714772701263428e-01" purity="3.9951968193054199e-01" nType="-99"/>
        </Node>
      </Node>
    </BinaryTree>
    <BinaryTree type="DecisionTree" boostWeight="1.0000000000000000e+00" itree="708">
      <Node pos="s" depth="0" NCoef="0" IVar="0" Cut="8.2327055931091309e-01" cType="1" res="-4.3286881409585476e-03" rms="4.5034879446029663e-01" purity="4.9233764410018921e-01" nType="0">
        <Node pos="l" depth="1" NCoef="0" IVar="2" Cut="4.1116985321044922e+01" cType="1" res="1.6289187595248222e-02" rms="4.5224612951278687e-01" purity="5.0998055934906006e-01" nType="0">
          <Node pos="l" depth="2" NCoef="0" IVar="-1" Cut="0.0000000000000000e+00" cType="1" res="-9.7556971013545990e-04" rms="4.4868403673171997e-01" purity="3.6235201358795166e-01" nType="-99"/>
          <Node pos="r" depth="2" NCoef="0" IVar="-1" Cut="0.0000000000000000e+00" cType="1" res="1.7339576734229922e-03" rms="4.5337772369384766e-01" purity="6.1773306131362915e-01" nType="-99"/>
        </Node>
        <Node pos="r" depth="1" NCoef="0" IVar="0" Cut="2.1932754516601562e+00" cType="1" res="-9.6360007300972939e-03" rms="4.4970613718032837e-01" purity="4.8779612779617310e-01" nType="0">
          <Node pos="l" depth="2" NCoef="0" IVar="-1" Cut="0.0000000000000000e+00" cType="1" res="-6.9034559419378638e-04" rms="4.5186978578567505e-01" purity="5.1693218946456909e-01" nType="-99"/>
          <Node pos="r" depth="2" NCoef="0" IVar="-1" Cut="0.0000000000000000e+00" cType="1" res="1.5993112465366721e-03" rms="4.3325817584991455e-01" purity="2.8444677591323853e-01" nType="-99"/>
        </Node>
      </Node>
    </BinaryTree>
    <BinaryTree type="DecisionTree" boostWeight="1.0000000000000000e+00" itree="709">
      <Node pos="s" depth="0" NCoef="0" IVar="0" Cut="2.3089823722839355e+00" cType="1" res="-2.6996640954166651e-03" rms="4.4902449846267700e-01" purity="4.9620163440704346e-01" nType="0">
        <Node pos="l" depth="1" NCoef="0" IVar="5" Cut="9.5657259225845337e-01" cType="1" res="-5.6044477969408035e-03" rms="4.5115044713020325e-01" purity="5.1323753595352173e-01" nType="0">
          <Node pos="l" depth="2" NCoef="0" IVar="-1" Cut="0.0000000000000000e+00" cType="1" res="1.1595378164201975e-03" rms="4.4290387630462646e-01" purity="6.2712627649307251e-01" nType="-99"/>
          <Node pos="r" depth="2" NCoef="0" IVar="-1" Cut="0.0000000000000000e+00" cType="1" res="-4.8677262384444475e-04" rms="4.5198923349380493e-01" purity="4.9941629171371460e-01" nType="-99"/>
        </Node>
        <Node pos="r" depth="1" NCoef="0" IVar="-1" Cut="0.0000000000000000e+00" cType="1" res="2.6817575562745333e-03" rms="4.2131692171096802e-01" purity="2.9310002923011780e-01" nType="-99"/>
      </Node>
    </BinaryTree>
    <BinaryTree type="DecisionTree" boostWeight="1.0000000000000000e+00" itree="710">
      <Node pos="s" depth="0" NCoef="0" IVar="4" Cut="2.6331856250762939e+00" cType="1" res="3.5761147737503052e-03" rms="4.4912308454513550e-01" purity="5.0144815444946289e-01" nType="0">
        <Node pos="l" depth="1" NCoef="0" IVar="4" Cut="2.4645211696624756e+00" cType="1" res="6.9871186278760433e-03" rms="4.5679971575737000e-01" purity="5.3988480567932129e-01" nType="0">
          <Node pos="l" depth="2" NCoef="0" IVar="-1" Cut="0.0000000000000000e+00" cType="1" res="1.0659868712536991e-04" rms="4.5741072297096252e-01" purity="5.5970329046249390e-01" nType="-99"/>
          <Node pos="r" depth="2" NCoef="0" IVar="-1" Cut="0.0000000000000000e+00" cType="1" res="2.1509374491870403e-03" rms="4.5172354578971863e-01" purity="4.1361597180366516e-01" nType="-99"/>
        </Node>
        <Node pos="r" depth="1" NCoef="0" IVar="8" Cut="3.3953591918945312e+02" cType="1" res="-2.0382013171911240e-02" rms="3.9014020562171936e-01" purity="2.3147769272327423e-01" nType="0">
          <Node pos="l" depth="2" NCoef="0" IVar="-1" Cut="0.0000000000000000e+00" cType="1" res="-4.6503823250532150e-03" rms="3.7618282437324524e-01" purity="2.1348609030246735e-01" nType="-99"/>
          <Node pos="r" depth="2" NCoef="0" IVar="-1" Cut="0.0000000000000000e+00" cType="1" res="8.1692525418475270e-04" rms="4.0186211466789246e-01" purity="2.4990142881870270e-01" nType="-99"/>
        </Node>
      </Node>
    </BinaryTree>
    <BinaryTree type="DecisionTree" boostWeight="1.0000000000000000e+00" itree="711">
      <Node pos="s" depth="0" NCoef="0" IVar="4" Cut="2.4616622924804688e+00" cType="1" res="4.0873773396015167e-03" rms="4.5183324813842773e-01" purity="5.0413411855697632e-01" nType="0">
        <Node pos="l" depth="1" NCoef="0" IVar="6" Cut="2.9458425903320312e+02" cType="1" res="-2.1199863404035568e-03" rms="4.5649200677871704e-01" purity="5.6055313348770142e-01" nType="0">
          <Node pos="l" depth="2" NCoef="0" IVar="-1" Cut="0.0000000000000000e+00" cType="1" res="1.6609971644356847e-03" rms="4.4818383455276489e-01" purity="3.5647445917129517e-01" nType="-99"/>
          <Node pos="r" depth="2" NCoef="0" IVar="-1" Cut="0.0000000000000000e+00" cType="1" res="-1.9810111552942544e-04" rms="4.5707470178604126e-01" purity="5.7671439647674561e-01" nType="-99"/>
        </Node>
        <Node pos="r" depth="1" NCoef="0" IVar="0" Cut="1.2878326177597046e+00" cType="1" res="2.2702654823660851e-02" rms="4.3703645467758179e-01" purity="3.3493882417678833e-01" nType="0">
          <Node pos="l" depth="2" NCoef="0" IVar="-1" Cut="0.0000000000000000e+00" cType="1" res="-4.4224536395631731e-04" rms="4.4160130620002747e-01" purity="3.6824169754981995e-01" nType="-99"/>
          <Node pos="r" depth="2" NCoef="0" IVar="-1" Cut="0.0000000000000000e+00" cType="1" res="2.6252055540680885e-03" rms="4.3459796905517578e-01" purity="3.2147544622421265e-01" nType="-99"/>
        </Node>
      </Node>
    </BinaryTree>
    <BinaryTree type="DecisionTree" boostWeight="1.0000000000000000e+00" itree="712">
      <Node pos="s" depth="0" NCoef="0" IVar="8" Cut="4.0554519653320312e+02" cType="1" res="4.8837717622518539e-03" rms="4.5174431800842285e-01" purity="5.0038385391235352e-01" nType="0">
        <Node pos="l" depth="1" NCoef="0" IVar="6" Cut="3.5263684082031250e+02" cType="1" res="7.2860978543758392e-03" rms="4.5450508594512939e-01" purity="5.1813447475433350e-01" nType="0">
          <Node pos="l" depth="2" NCoef="0" IVar="-1" Cut="0.0000000000000000e+00" cType="1" res="1.3798468280583620e-03" rms="4.4763708114624023e-01" purity="3.8237041234970093e-01" nType="-99"/>
          <Node pos="r" depth="2" NCoef="0" IVar="-1" Cut="0.0000000000000000e+00" cType="1" res="1.3395730638876557e-04" rms="4.5648530125617981e-01" purity="5.5953991413116455e-01" nType="-99"/>
        </Node>
        <Node pos="r" depth="1" NCoef="0" IVar="5" Cut="1.2477303743362427e+00" cType="1" res="-1.0014196857810020e-02" rms="4.3393468856811523e-01" purity="3.9030399918556213e-01" nType="0">
          <Node pos="l" depth="2" NCoef="0" IVar="-1" Cut="0.0000000000000000e+00" cType="1" res="5.2993738790974021e-04" rms="4.6221143007278442e-01" purity="4.8200488090515137e-01" nType="-99"/>
          <Node pos="r" depth="2" NCoef="0" IVar="-1" Cut="0.0000000000000000e+00" cType="1" res="-1.5042389277368784e-03" rms="4.1518351435661316e-01" purity="3.3409640192985535e-01" nType="-99"/>
        </Node>
      </Node>
    </BinaryTree>
    <BinaryTree type="DecisionTree" boostWeight="1.0000000000000000e+00" itree="713">
      <Node pos="s" depth="0" NCoef="0" IVar="0" Cut="2.3311402797698975e+00" cType="1" res="6.4561690669506788e-04" rms="4.4752511382102966e-01" purity="5.0074774026870728e-01" nType="0">
        <Node pos="l" depth="1" NCoef="0" IVar="6" Cut="5.1205493164062500e+02" cType="1" res="-2.1583533380180597e-03" rms="4.4933697581291199e-01" purity="5.1685291528701782e-01" nType="0">
          <Node pos="l" depth="2" NCoef="0" IVar="-1" Cut="0.0000000000000000e+00" cType="1" res="-5.5824290029704571e-04" rms="4.4852989912033081e-01" purity="4.5717966556549072e-01" nType="-99"/>
          <Node pos="r" depth="2" NCoef="0" IVar="-1" Cut="0.0000000000000000e+00" cType="1" res="3.8043176755309105e-04" rms="4.5016106963157654e-01" purity="5.9371066093444824e-01" nType="-99"/>
        </Node>
        <Node pos="r" depth="1" NCoef="0" IVar="-1" Cut="0.0000000000000000e+00" cType="1" res="3.2200014684349298e-03" rms="4.2123264074325562e-01" purity="2.8887727856636047e-01" nType="-99"/>
      </Node>
    </BinaryTree>
    <BinaryTree type="DecisionTree" boostWeight="1.0000000000000000e+00" itree="714">
      <Node pos="s" depth="0" NCoef="0" IVar="0" Cut="9.8883712291717529e-01" cType="1" res="5.5851973593235016e-03" rms="4.4969636201858521e-01" purity="5.0643050670623779e-01" nType="0">
        <Node pos="l" depth="1" NCoef="0" IVar="8" Cut="2.4608732604980469e+02" cType="1" res="1.9117327407002449e-02" rms="4.4679021835327148e-01" purity="5.4269570112228394e-01" nType="0">
          <Node pos="l" depth="2" NCoef="0" IVar="-1" Cut="0.0000000000000000e+00" cType="1" res="1.9147555576637387e-03" rms="4.4737321138381958e-01" purity="5.7009059190750122e-01" nType="-99"/>
          <Node pos="r" depth="2" NCoef="0" IVar="-1" Cut="0.0000000000000000e+00" cType="1" res="-1.8160595791414380e-03" rms="4.4094884395599365e-01" purity="4.7828879952430725e-01" nType="-99"/>
        </Node>
        <Node pos="r" depth="1" NCoef="0" IVar="8" Cut="2.5851226806640625e+02" cType="1" res="-2.0121023408137262e-04" rms="4.5080935955047607e-01" purity="4.9092340469360352e-01" nType="0">
          <Node pos="l" depth="2" NCoef="0" IVar="-1" Cut="0.0000000000000000e+00" cType="1" res="-4.2239617323502898e-04" rms="4.5358982682228088e-01" purity="5.2381992340087891e-01" nType="-99"/>
          <Node pos="r" depth="2" NCoef="0" IVar="-1" Cut="0.0000000000000000e+00" cType="1" res="6.9268816150724888e-04" rms="4.4634479284286499e-01" purity="4.4178602099418640e-01" nType="-99"/>
        </Node>
      </Node>
    </BinaryTree>
    <BinaryTree type="DecisionTree" boostWeight="1.0000000000000000e+00" itree="715">
      <Node pos="s" depth="0" NCoef="0" IVar="7" Cut="2.9146671295166016e-05" cType="1" res="-1.0129093425348401e-03" rms="4.4915717840194702e-01" purity="4.9973106384277344e-01" nType="0">
        <Node pos="l" depth="1" NCoef="0" IVar="5" Cut="1.2328753471374512e+00" cType="1" res="7.5693125836551189e-03" rms="4.5208927989006042e-01" purity="5.0574606657028198e-01" nType="0">
          <Node pos="l" depth="2" NCoef="0" IVar="-1" Cut="0.0000000000000000e+00" cType="1" res="8.9966814266517758e-04" rms="4.5472303032875061e-01" purity="5.7017135620117188e-01" nType="-99"/>
          <Node pos="r" depth="2" NCoef="0" IVar="-1" Cut="0.0000000000000000e+00" cType="1" res="-1.7183404997922480e-04" rms="4.4938457012176514e-01" purity="4.4640159606933594e-01" nType="-99"/>
        </Node>
        <Node pos="r" depth="1" NCoef="0" IVar="4" Cut="2.1394245624542236e+00" cType="1" res="-9.7410995513200760e-03" rms="4.4598609209060669e-01" purity="4.9361380934715271e-01" nType="0">
          <Node pos="l" depth="2" NCoef="0" IVar="-1" Cut="0.0000000000000000e+00" cType="1" res="3.4459101152606308e-04" rms="4.4860360026359558e-01" purity="6.1260962486267090e-01" nType="-99"/>
          <Node pos="r" depth="2" NCoef="0" IVar="-1" Cut="0.0000000000000000e+00" cType="1" res="-1.2255462352186441e-03" rms="4.4392219185829163e-01" purity="4.1643574833869934e-01" nType="-99"/>
        </Node>
      </Node>
    </BinaryTree>
    <BinaryTree type="DecisionTree" boostWeight="1.0000000000000000e+00" itree="716">
      <Node pos="s" depth="0" NCoef="0" IVar="2" Cut="1.5686344909667969e+02" cType="1" res="2.8285649605095387e-03" rms="4.4941368699073792e-01" purity="5.0396901369094849e-01" nType="0">
        <Node pos="l" depth="1" NCoef="0" IVar="0" Cut="1.6885143518447876e+00" cType="1" res="-4.7452523722313344e-04" rms="4.4884800910949707e-01" purity="5.1624268293380737e-01" nType="0">
          <Node pos="l" depth="2" NCoef="0" IVar="-1" Cut="0.0000000000000000e+00" cType="1" res="1.5764290583319962e-04" rms="4.5071676373481750e-01" purity="5.4807716608047485e-01" nType="-99"/>
          <Node pos="r" depth="2" NCoef="0" IVar="-1" Cut="0.0000000000000000e+00" cType="1" res="-8.1923016114160419e-04" rms="4.4180116057395935e-01" purity="4.0169888734817505e-01" nType="-99"/>
        </Node>
        <Node pos="r" depth="1" NCoef="0" IVar="1" Cut="9.5585793256759644e-01" cType="1" res="2.3593602702021599e-02" rms="4.5240169763565063e-01" purity="4.2680981755256653e-01" nType="0">
          <Node pos="l" depth="2" NCoef="0" IVar="-1" Cut="0.0000000000000000e+00" cType="1" res="3.0610430985689163e-03" rms="4.4975060224533081e-01" purity="3.6490225791931152e-01" nType="-99"/>
          <Node pos="r" depth="2" NCoef="0" IVar="-1" Cut="0.0000000000000000e+00" cType="1" res="-2.2287337924353778e-04" rms="4.5418223738670349e-01" purity="5.0479048490524292e-01" nType="-99"/>
        </Node>
      </Node>
    </BinaryTree>
    <BinaryTree type="DecisionTree" boostWeight="1.0000000000000000e+00" itree="717">
      <Node pos="s" depth="0" NCoef="0" IVar="4" Cut="2.2005615234375000e+00" cType="1" res="-4.4133441406302154e-04" rms="4.4987988471984863e-01" purity="4.9581322073936462e-01" nType="0">
        <Node pos="l" depth="1" NCoef="0" IVar="5" Cut="1.3226455450057983e+00" cType="1" res="9.2441411688923836e-03" rms="4.5641300082206726e-01" purity="6.0442668199539185e-01" nType="0">
          <Node pos="l" depth="2" NCoef="0" IVar="-1" Cut="0.0000000000000000e+00" cType="1" res="-2.8950072010047734e-04" rms="4.5019677281379700e-01" purity="6.1778533458709717e-01" nType="-99"/>
          <Node pos="r" depth="2" NCoef="0" IVar="-1" Cut="0.0000000000000000e+00" cType="1" res="1.5388629399240017e-03" rms="4.6516910195350647e-01" purity="5.8286535739898682e-01" nType="-99"/>
        </Node>
        <Node pos="r" depth="1" NCoef="0" IVar="7" Cut="5.7104516029357910e-01" cType="1" res="-9.1823972761631012e-03" rms="4.4371983408927917e-01" purity="3.9779049158096313e-01" nType="0">
          <Node pos="l" depth="2" NCoef="0" IVar="-1" Cut="0.0000000000000000e+00" cType="1" res="-1.3608975568786263e-03" rms="4.3702879548072815e-01" purity="3.6356532573699951e-01" nType="-99"/>
          <Node pos="r" depth="2" NCoef="0" IVar="-1" Cut="0.0000000000000000e+00" cType="1" res="4.7365025966428220e-04" rms="4.5283788442611694e-01" purity="4.4834861159324646e-01" nType="-99"/>
        </Node>
      </Node>
    </BinaryTree>
    <BinaryTree type="DecisionTree" boostWeight="1.0000000000000000e+00" itree="718">
      <Node pos="s" depth="0" NCoef="0" IVar="1" Cut="9.3334347009658813e-01" cType="1" res="-4.1315206326544285e-03" rms="4.4958347082138062e-01" purity="4.9388059973716736e-01" nType="0">
        <Node pos="l" depth="1" NCoef="0" IVar="2" Cut="6.3133754730224609e+01" cType="1" res="1.7586762085556984e-02" rms="4.4723916053771973e-01" purity="3.5835051536560059e-01" nType="0">
          <Node pos="l" depth="2" NCoef="0" IVar="-1" Cut="0.0000000000000000e+00" cType="1" res="2.7955854311585426e-03" rms="4.4994351267814636e-01" purity="3.3808082342147827e-01" nType="-99"/>
          <Node pos="r" depth="2" NCoef="0" IVar="-1" Cut="0.0000000000000000e+00" cType="1" res="2.7379865059629083e-04" rms="4.4525206089019775e-01" purity="3.6900100111961365e-01" nType="-99"/>
        </Node>
        <Node pos="r" depth="1" NCoef="0" IVar="1" Cut="9.8403173685073853e-01" cType="1" res="-1.0488251224160194e-02" rms="4.5006909966468811e-01" purity="5.3354901075363159e-01" nType="0">
          <Node pos="l" depth="2" NCoef="0" IVar="-1" Cut="0.0000000000000000e+00" cType="1" res="-8.1017496995627880e-04" rms="4.5334210991859436e-01" purity="5.0087773799896240e-01" nType="-99"/>
          <Node pos="r" depth="2" NCoef="0" IVar="-1" Cut="0.0000000000000000e+00" cType="1" res="7.2990165790542960e-04" rms="4.3249887228012085e-01" purity="6.9571459293365479e-01" nType="-99"/>
        </Node>
      </Node>
    </BinaryTree>
    <BinaryTree type="DecisionTree" boostWeight="1.0000000000000000e+00" itree="719">
      <Node pos="s" depth="0" NCoef="0" IVar="0" Cut="1.7317374944686890e+00" cType="1" res="2.3557455278933048e-03" rms="4.5207497477531433e-01" purity="4.9899107217788696e-01" nType="0">
        <Node pos="l" depth="1" NCoef="0" IVar="2" Cut="9.6895195007324219e+01" cType="1" res="-4.5766895636916161e-03" rms="4.5253491401672363e-01" purity="5.3731328248977661e-01" nType="0">
          <Node pos="l" depth="2" NCoef="0" IVar="-1" Cut="0.0000000000000000e+00" cType="1" res="-8.3303201245144010e-04" rms="4.5859891176223755e-01" purity="4.7791552543640137e-01" nType="-99"/>
          <Node pos="r" depth="2" NCoef="0" IVar="-1" Cut="0.0000000000000000e+00" cType="1" res="9.4757496844977140e-04" rms="4.3746703863143921e-01" purity="6.7100471258163452e-01" nType="-99"/>
        </Node>
        <Node pos="r" depth="1" NCoef="0" IVar="2" Cut="1.3896102905273438e+02" cType="1" res="2.0346269011497498e-02" rms="4.5038163661956787e-01" purity="3.9954030513763428e-01" nType="0">
          <Node pos="l" depth="2" NCoef="0" IVar="-1" Cut="0.0000000000000000e+00" cType="1" res="2.2963779047131538e-03" rms="4.5885014533996582e-01" purity="4.4233542680740356e-01" nType="-99"/>
          <Node pos="r" depth="2" NCoef="0" IVar="-1" Cut="0.0000000000000000e+00" cType="1" res="-3.4410017542541027e-04" rms="4.3793499469757080e-01" purity="3.4445753693580627e-01" nType="-99"/>
        </Node>
      </Node>
    </BinaryTree>
    <BinaryTree type="DecisionTree" boostWeight="1.0000000000000000e+00" itree="720">
      <Node pos="s" depth="0" NCoef="0" IVar="7" Cut="-1.4279056787490845e+00" cType="1" res="1.4788522385060787e-03" rms="4.4989392161369324e-01" purity="4.9810674786567688e-01" nType="0">
        <Node pos="l" depth="1" NCoef="0" IVar="-1" Cut="0.0000000000000000e+00" cType="1" res="1.1697469744831324e-03" rms="4.4546985626220703e-01" purity="6.5189450979232788e-01" nType="-99"/>
        <Node pos="r" depth="1" NCoef="0" IVar="6" Cut="2.8436898803710938e+02" cType="1" res="-5.4045516299083829e-04" rms="4.5019489526748657e-01" purity="4.8550006747245789e-01" nType="0">
          <Node pos="l" depth="2" NCoef="0" IVar="-1" Cut="0.0000000000000000e+00" cType="1" res="-2.3826586548238993e-03" rms="4.0105324983596802e-01" purity="2.4691683053970337e-01" nType="-99"/>
          <Node pos="r" depth="2" NCoef="0" IVar="-1" Cut="0.0000000000000000e+00" cType="1" res="5.3791052778251469e-05" rms="4.5298841595649719e-01" purity="5.0013852119445801e-01" nType="-99"/>
        </Node>
      </Node>
    </BinaryTree>
    <BinaryTree type="DecisionTree" boostWeight="1.0000000000000000e+00" itree="721">
      <Node pos="s" depth="0" NCoef="0" IVar="7" Cut="-4.2831549048423767e-01" cType="1" res="1.6833427362143993e-03" rms="4.4766545295715332e-01" purity="5.0097316503524780e-01" nType="0">
        <Node pos="l" depth="1" NCoef="0" IVar="5" Cut="1.1409853696823120e+00" cType="1" res="1.3038371689617634e-02" rms="4.5434972643852234e-01" purity="5.2284544706344604e-01" nType="0">
          <Node pos="l" depth="2" NCoef="0" IVar="-1" Cut="0.0000000000000000e+00" cType="1" res="1.2864143354818225e-03" rms="4.5337408781051636e-01" purity="5.9782403707504272e-01" nType="-99"/>
          <Node pos="r" depth="2" NCoef="0" IVar="-1" Cut="0.0000000000000000e+00" cType="1" res="2.4548958754166961e-04" rms="4.5468538999557495e-01" purity="4.8073524236679077e-01" nType="-99"/>
        </Node>
        <Node pos="r" depth="1" NCoef="0" IVar="7" Cut="8.4391325712203979e-01" cType="1" res="-8.1087695434689522e-03" rms="4.4158563017845154e-01" purity="4.8211139440536499e-01" nType="0">
          <Node pos="l" depth="2" NCoef="0" IVar="-1" Cut="0.0000000000000000e+00" cType="1" res="-2.3450206499546766e-03" rms="4.1766703128814697e-01" purity="3.2240632176399231e-01" nType="-99"/>
          <Node pos="r" depth="2" NCoef="0" IVar="-1" Cut="0.0000000000000000e+00" cType="1" res="2.6172323850914836e-04" rms="4.5330676436424255e-01" purity="5.6775623559951782e-01" nType="-99"/>
        </Node>
      </Node>
    </BinaryTree>
    <BinaryTree type="DecisionTree" boostWeight="1.0000000000000000e+00" itree="722">
      <Node pos="s" depth="0" NCoef="0" IVar="6" Cut="2.9305883789062500e+02" cType="1" res="-1.3638838427141309e-03" rms="4.4971916079521179e-01" purity="4.9801090359687805e-01" nType="0">
        <Node pos="l" depth="1" NCoef="0" IVar="-1" Cut="0.0000000000000000e+00" cType="1" res="1.9219000823795795e-03" rms="4.2533302307128906e-01" purity="3.2216560840606689e-01" nType="-99"/>
        <Node pos="r" depth="1" NCoef="0" IVar="4" Cut="1.8651137351989746e+00" cType="1" res="-3.5518750082701445e-03" rms="4.5157191157341003e-01" purity="5.1229637861251831e-01" nType="0">
          <Node pos="l" depth="2" NCoef="0" IVar="-1" Cut="0.0000000000000000e+00" cType="1" res="9.8265509586781263e-04" rms="4.5615085959434509e-01" purity="6.2449431419372559e-01" nType="-99"/>
          <Node pos="r" depth="2" NCoef="0" IVar="-1" Cut="0.0000000000000000e+00" cType="1" res="-3.4074738505296409e-04" rms="4.5091840624809265e-01" purity="4.9875244498252869e-01" nType="-99"/>
        </Node>
      </Node>
    </BinaryTree>
    <BinaryTree type="DecisionTree" boostWeight="1.0000000000000000e+00" itree="723">
      <Node pos="s" depth="0" NCoef="0" IVar="5" Cut="1.8043346405029297e+00" cType="1" res="7.8589245676994324e-03" rms="4.5174536108970642e-01" purity="5.0593549013137817e-01" nType="0">
        <Node pos="l" depth="1" NCoef="0" IVar="5" Cut="1.4470041990280151e+00" cType="1" res="9.8926071077585220e-03" rms="4.5244917273521423e-01" purity="5.1950180530548096e-01" nType="0">
          <Node pos="l" depth="2" NCoef="0" IVar="-1" Cut="0.0000000000000000e+00" cType="1" res="2.0172263612039387e-04" rms="4.5217481255531311e-01" purity="5.3865569829940796e-01" nType="-99"/>
          <Node pos="r" depth="2" NCoef="0" IVar="-1" Cut="0.0000000000000000e+00" cType="1" res="1.5435410896316171e-03" rms="4.5282435417175293e-01" purity="4.5864608883857727e-01" nType="-99"/>
        </Node>
        <Node pos="r" depth="1" NCoef="0" IVar="-1" Cut="0.0000000000000000e+00" cType="1" res="-1.5416624955832958e-03" rms="4.4050595164299011e-01" purity="3.1152415275573730e-01" nType="-99"/>
      </Node>
    </BinaryTree>
    <BinaryTree type="DecisionTree" boostWeight="1.0000000000000000e+00" itree="724">
      <Node pos="s" depth="0" NCoef="0" IVar="0" Cut="1.9731451272964478e+00" cType="1" res="-3.2795774750411510e-03" rms="4.4898009300231934e-01" purity="4.9613514542579651e-01" nType="0">
        <Node pos="l" depth="1" NCoef="0" IVar="0" Cut="1.1780235767364502e+00" cType="1" res="2.2018558811396360e-03" rms="4.5404183864593506e-01" purity="5.3704220056533813e-01" nType="0">
          <Node pos="l" depth="2" NCoef="0" IVar="-1" Cut="0.0000000000000000e+00" cType="1" res="5.8659951901063323e-04" rms="4.5046064257621765e-01" purity="5.4885828495025635e-01" nType="-99"/>
          <Node pos="r" depth="2" NCoef="0" IVar="-1" Cut="0.0000000000000000e+00" cType="1" res="-3.6409718450158834e-04" rms="4.5727133750915527e-01" purity="5.2561962604522705e-01" nType="-99"/>
        </Node>
        <Node pos="r" depth="1" NCoef="0" IVar="4" Cut="2.3710172176361084e+00" cType="1" res="-3.2124850898981094e-02" rms="4.2016586661338806e-01" purity="2.8086745738983154e-01" nType="0">
          <Node pos="l" depth="2" NCoef="0" IVar="-1" Cut="0.0000000000000000e+00" cType="1" res="-3.4023758489638567e-03" rms="4.5678555965423584e-01" purity="3.9511516690254211e-01" nType="-99"/>
          <Node pos="r" depth="2" NCoef="0" IVar="-1" Cut="0.0000000000000000e+00" cType="1" res="-1.7078288365155458e-03" rms="3.9776664972305298e-01" purity="2.1809758245944977e-01" nType="-99"/>
        </Node>
      </Node>
    </BinaryTree>
    <BinaryTree type="DecisionTree" boostWeight="1.0000000000000000e+00" itree="725">
      <Node pos="s" depth="0" NCoef="0" IVar="2" Cut="1.1549501800537109e+02" cType="1" res="8.8819675147533417e-04" rms="4.5091912150382996e-01" purity="4.9853932857513428e-01" nType="0">
        <Node pos="l" depth="1" NCoef="0" IVar="5" Cut="1.0508258342742920e+00" cType="1" res="-5.4597593843936920e-03" rms="4.5312449336051941e-01" purity="4.9242341518402100e-01" nType="0">
          <Node pos="l" depth="2" NCoef="0" IVar="-1" Cut="0.0000000000000000e+00" cType="1" res="1.0526314144954085e-03" rms="4.5393610000610352e-01" purity="5.9485435485839844e-01" nType="-99"/>
          <Node pos="r" depth="2" NCoef="0" IVar="-1" Cut="0.0000000000000000e+00" cType="1" res="-7.1226421277970076e-04" rms="4.5258119702339172e-01" purity="4.6406888961791992e-01" nType="-99"/>
        </Node>
        <Node pos="r" depth="1" NCoef="0" IVar="4" Cut="2.3673305511474609e+00" cType="1" res="1.4712844975292683e-02" rms="4.4576573371887207e-01" purity="5.1185870170593262e-01" nType="0">
          <Node pos="l" depth="2" NCoef="0" IVar="-1" Cut="0.0000000000000000e+00" cType="1" res="-9.9138422228861600e-05" rms="4.5017564296722412e-01" purity="6.2503290176391602e-01" nType="-99"/>
          <Node pos="r" depth="2" NCoef="0" IVar="-1" Cut="0.0000000000000000e+00" cType="1" res="2.1898786071687937e-03" rms="4.3987721204757690e-01" purity="3.8245084881782532e-01" nType="-99"/>
        </Node>
      </Node>
    </BinaryTree>
    <BinaryTree type="DecisionTree" boostWeight="1.0000000000000000e+00" itree="726">
      <Node pos="s" depth="0" NCoef="0" IVar="0" Cut="9.8867559432983398e-01" cType="1" res="2.2706431336700916e-03" rms="4.4910860061645508e-01" purity="5.0342202186584473e-01" nType="0">
        <Node pos="l" depth="1" NCoef="0" IVar="2" Cut="5.2602733612060547e+01" cType="1" res="2.1546477451920509e-02" rms="4.4737675786018372e-01" purity="5.4858511686325073e-01" nType="0">
          <Node pos="l" depth="2" NCoef="0" IVar="-1" Cut="0.0000000000000000e+00" cType="1" res="1.0521105286898091e-04" rms="4.6134969592094421e-01" purity="4.2190754413604736e-01" nType="-99"/>
          <Node pos="r" depth="2" NCoef="0" IVar="-1" Cut="0.0000000000000000e+00" cType="1" res="1.8605828518047929e-03" rms="4.3039119243621826e-01" purity="6.8846333026885986e-01" nType="-99"/>
        </Node>
        <Node pos="r" depth="1" NCoef="0" IVar="0" Cut="1.7227389812469482e+00" cType="1" res="-5.9451223351061344e-03" rms="4.4959360361099243e-01" purity="4.8417258262634277e-01" nType="0">
          <Node pos="l" depth="2" NCoef="0" IVar="-1" Cut="0.0000000000000000e+00" cType="1" res="-6.5518566407263279e-04" rms="4.5542919635772705e-01" purity="5.4270529747009277e-01" nType="-99"/>
          <Node pos="r" depth="2" NCoef="0" IVar="-1" Cut="0.0000000000000000e+00" cType="1" res="3.5146044683642685e-04" rms="4.4013252854347229e-01" purity="3.9334505796432495e-01" nType="-99"/>
        </Node>
      </Node>
    </BinaryTree>
    <BinaryTree type="DecisionTree" boostWeight="1.0000000000000000e+00" itree="727">
      <Node pos="s" depth="0" NCoef="0" IVar="3" Cut="1.0279872894287109e+02" cType="1" res="3.7925322540104389e-03" rms="4.4922187924385071e-01" purity="5.0367069244384766e-01" nType="0">
        <Node pos="l" depth="1" NCoef="0" IVar="-1" Cut="0.0000000000000000e+00" cType="1" res="-2.2064961958676577e-03" rms="4.3284210562705994e-01" purity="3.3404022455215454e-01" nType="-99"/>
        <Node pos="r" depth="1" NCoef="0" IVar="4" Cut="1.8657068014144897e+00" cType="1" res="6.5125017426908016e-03" rms="4.5031026005744934e-01" purity="5.1640903949737549e-01" nType="0">
          <Node pos="l" depth="2" NCoef="0" IVar="-1" Cut="0.0000000000000000e+00" cType="1" res="1.5113549306988716e-03" rms="4.4701737165451050e-01" purity="6.4403796195983887e-01" nType="-99"/>
          <Node pos="r" depth="2" NCoef="0" IVar="-1" Cut="0.0000000000000000e+00" cType="1" res="1.6454898286610842e-04" rms="4.5057523250579834e-01" purity="5.0155586004257202e-01" nType="-99"/>
        </Node>
      </Node>
    </BinaryTree>
    <BinaryTree type="DecisionTree" boostWeight="1.0000000000000000e+00" itree="728">
      <Node pos="s" depth="0" NCoef="0" IVar="7" Cut="1.2851840257644653e+00" cType="1" res="-1.2724528787657619e-03" rms="4.4895565509796143e-01" purity="4.9767348170280457e-01" nType="0">
        <Node pos="l" depth="1" NCoef="0" IVar="6" Cut="8.0290478515625000e+02" cType="1" res="-4.6421620063483715e-03" rms="4.5040157437324524e-01" purity="4.7229745984077454e-01" nType="0">
          <Node pos="l" depth="2" NCoef="0" IVar="-1" Cut="0.0000000000000000e+00" cType="1" res="-4.6913552796468139e-04" rms="4.5086073875427246e-01" purity="4.5905923843383789e-01" nType="-99"/>
          <Node pos="r" depth="2" NCoef="0" IVar="-1" Cut="0.0000000000000000e+00" cType="1" res="1.1957671958953142e-03" rms="4.4567400217056274e-01" purity="5.7462573051452637e-01" nType="-99"/>
        </Node>
        <Node pos="r" depth="1" NCoef="0" IVar="4" Cut="2.1522796154022217e+00" cType="1" res="1.7152497544884682e-02" rms="4.4051012396812439e-01" purity="6.3642472028732300e-01" nType="0">
          <Node pos="l" depth="2" NCoef="0" IVar="-1" Cut="0.0000000000000000e+00" cType="1" res="1.6028139507398009e-03" rms="4.3266841769218445e-01" purity="6.8969565629959106e-01" nType="-99"/>
          <Node pos="r" depth="2" NCoef="0" IVar="-1" Cut="0.0000000000000000e+00" cType="1" res="-5.7905964786186814e-04" rms="4.5001092553138733e-01" purity="5.5934381484985352e-01" nType="-99"/>
        </Node>
      </Node>
    </BinaryTree>
    <BinaryTree type="DecisionTree" boostWeight="1.0000000000000000e+00" itree="729">
      <Node pos="s" depth="0" NCoef="0" IVar="7" Cut="7.1400719881057739e-01" cType="1" res="-1.6047421377152205e-03" rms="4.4972750544548035e-01" purity="4.9707108736038208e-01" nType="0">
        <Node pos="l" depth="1" NCoef="0" IVar="2" Cut="1.5806265258789062e+02" cType="1" res="-8.9885648339986801e-03" rms="4.4375032186508179e-01" purity="4.6251028776168823e-01" nType="0">
          <Node pos="l" depth="2" NCoef="0" IVar="-1" Cut="0.0000000000000000e+00" cType="1" res="-2.3331337433774024e-04" rms="4.4726240634918213e-01" purity="4.8461443185806274e-01" nType="-99"/>
          <Node pos="r" depth="2" NCoef="0" IVar="-1" Cut="0.0000000000000000e+00" cType="1" res="-2.6642838492989540e-03" rms="4.2028883099555969e-01" purity="3.2572004199028015e-01" nType="-99"/>
        </Node>
        <Node pos="r" depth="1" NCoef="0" IVar="7" Cut="9.0875762701034546e-01" cType="1" res="9.6115013584494591e-03" rms="4.5843049883842468e-01" purity="5.4957002401351929e-01" nType="0">
          <Node pos="l" depth="2" NCoef="0" IVar="-1" Cut="0.0000000000000000e+00" cType="1" res="2.3859497159719467e-03" rms="4.6448671817779541e-01" purity="4.4649788737297058e-01" nType="-99"/>
          <Node pos="r" depth="2" NCoef="0" IVar="-1" Cut="0.0000000000000000e+00" cType="1" res="1.1099985567852855e-04" rms="4.5677718520164490e-01" purity="5.7206654548645020e-01" nType="-99"/>
        </Node>
      </Node>
    </BinaryTree>
    <BinaryTree type="DecisionTree" boostWeight="1.0000000000000000e+00" itree="730">
      <Node pos="s" depth="0" NCoef="0" IVar="0" Cut="9.8201936483383179e-01" cType="1" res="6.3828268321231008e-04" rms="4.4952401518821716e-01" purity="4.9794504046440125e-01" nType="0">
        <Node pos="l" depth="1" NCoef="0" IVar="0" Cut="7.4012488126754761e-01" cType="1" res="1.0999620892107487e-02" rms="4.4547414779663086e-01" purity="5.3823602199554443e-01" nType="0">
          <Node pos="l" depth="2" NCoef="0" IVar="-1" Cut="0.0000000000000000e+00" cType="1" res="-5.7280651526525617e-04" rms="4.5047309994697571e-01" purity="4.7315123677253723e-01" nType="-99"/>
          <Node pos="r" depth="2" NCoef="0" IVar="-1" Cut="0.0000000000000000e+00" cType="1" res="1.5881257131695747e-03" rms="4.3889930844306946e-01" purity="6.0736042261123657e-01" nType="-99"/>
        </Node>
        <Node pos="r" depth="1" NCoef="0" IVar="2" Cut="7.5624313354492188e+01" cType="1" res="-3.6973042879253626e-03" rms="4.5113724470138550e-01" purity="4.8108565807342529e-01" nType="0">
          <Node pos="l" depth="2" NCoef="0" IVar="-1" Cut="0.0000000000000000e+00" cType="1" res="-1.4812881126999855e-03" rms="4.5389708876609802e-01" purity="4.1246917843818665e-01" nType="-99"/>
          <Node pos="r" depth="2" NCoef="0" IVar="-1" Cut="0.0000000000000000e+00" cType="1" res="2.0887385471723974e-04" rms="4.4991585612297058e-01" purity="5.0508457422256470e-01" nType="-99"/>
        </Node>
      </Node>
    </BinaryTree>
    <BinaryTree type="DecisionTree" boostWeight="1.0000000000000000e+00" itree="731">
      <Node pos="s" depth="0" NCoef="0" IVar="4" Cut="2.3647670745849609e+00" cType="1" res="1.5442003495991230e-03" rms="4.5145949721336365e-01" purity="5.0112348794937134e-01" nType="0">
        <Node pos="l" depth="1" NCoef="0" IVar="2" Cut="1.3118980407714844e+02" cType="1" res="-6.3496264629065990e-03" rms="4.5538607239723206e-01" purity="5.7148122787475586e-01" nType="0">
          <Node pos="l" depth="2" NCoef="0" IVar="-1" Cut="0.0000000000000000e+00" cType="1" res="-5.3919538913760334e-05" rms="4.5449411869049072e-01" purity="5.7251954078674316e-01" nType="-99"/>
          <Node pos="r" depth="2" NCoef="0" IVar="-1" Cut="0.0000000000000000e+00" cType="1" res="-1.5867191832512617e-03" rms="4.5900636911392212e-01" purity="5.6615900993347168e-01" nType="-99"/>
        </Node>
        <Node pos="r" depth="1" NCoef="0" IVar="0" Cut="1.8918471336364746e+00" cType="1" res="1.6852319240570068e-02" rms="4.4334551692008972e-01" purity="3.6468201875686646e-01" nType="0">
          <Node pos="l" depth="2" NCoef="0" IVar="-1" Cut="0.0000000000000000e+00" cType="1" res="6.7041815782431513e-05" rms="4.4940194487571716e-01" purity="4.0454530715942383e-01" nType="-99"/>
          <Node pos="r" depth="2" NCoef="0" IVar="-1" Cut="0.0000000000000000e+00" cType="1" res="3.7175342440605164e-03" rms="4.3123140931129456e-01" purity="2.9524767398834229e-01" nType="-99"/>
        </Node>
      </Node>
    </BinaryTree>
    <BinaryTree type="DecisionTree" boostWeight="1.0000000000000000e+00" itree="732">
      <Node pos="s" depth="0" NCoef="0" IVar="4" Cut="2.1394245624542236e+00" cType="1" res="5.0624967552721500e-03" rms="4.5134940743446350e-01" purity="5.0434964895248413e-01" nType="0">
        <Node pos="l" depth="1" NCoef="0" IVar="0" Cut="1.1019785404205322e+00" cType="1" res="-5.2242730744183064e-03" rms="4.5363512635231018e-01" purity="5.9704387187957764e-01" nType="0">
          <Node pos="l" depth="2" NCoef="0" IVar="-1" Cut="0.0000000000000000e+00" cType="1" res="5.6395144201815128e-04" rms="4.4940447807312012e-01" purity="5.9595936536788940e-01" nType="-99"/>
          <Node pos="r" depth="2" NCoef="0" IVar="-1" Cut="0.0000000000000000e+00" cType="1" res="-1.0369657538831234e-03" rms="4.5706310868263245e-01" purity="5.9809845685958862e-01" nType="-99"/>
        </Node>
        <Node pos="r" depth="1" NCoef="0" IVar="7" Cut="1.1424238681793213e+00" cType="1" res="1.1554281227290630e-02" rms="4.4977986812591553e-01" purity="4.4585213065147400e-01" nType="0">
          <Node pos="l" depth="2" NCoef="0" IVar="-1" Cut="0.0000000000000000e+00" cType="1" res="9.7770686261355877e-04" rms="4.4933101534843445e-01" purity="4.2565578222274780e-01" nType="-99"/>
          <Node pos="r" depth="2" NCoef="0" IVar="-1" Cut="0.0000000000000000e+00" cType="1" res="-8.5742771625518799e-04" rms="4.5099538564682007e-01" purity="5.5158483982086182e-01" nType="-99"/>
        </Node>
      </Node>
    </BinaryTree>
    <BinaryTree type="DecisionTree" boostWeight="1.0000000000000000e+00" itree="733">
      <Node pos="s" depth="0" NCoef="0" IVar="6" Cut="2.9280282592773438e+02" cType="1" res="-3.0970263760536909e-03" rms="4.4958376884460449e-01" purity="4.9663043022155762e-01" nType="0">
        <Node pos="l" depth="1" NCoef="0" IVar="-1" Cut="0.0000000000000000e+00" cType="1" res="-2.5142761878669262e-03" rms="4.0250897407531738e-01" purity="2.5616028904914856e-01" nType="-99"/>
        <Node pos="r" depth="1" NCoef="0" IVar="5" Cut="1.6005785465240479e+00" cType="1" res="-1.0910411365330219e-03" rms="4.5291614532470703e-01" purity="5.1499998569488525e-01" nType="0">
          <Node pos="l" depth="2" NCoef="0" IVar="-1" Cut="0.0000000000000000e+00" cType="1" res="-2.2325076861307025e-04" rms="4.5423027873039246e-01" purity="5.3721261024475098e-01" nType="-99"/>
          <Node pos="r" depth="2" NCoef="0" IVar="-1" Cut="0.0000000000000000e+00" cType="1" res="9.4137870473787189e-04" rms="4.4598701596260071e-01" purity="4.0541103482246399e-01" nType="-99"/>
        </Node>
      </Node>
    </BinaryTree>
    <BinaryTree type="DecisionTree" boostWeight="1.0000000000000000e+00" itree="734">
      <Node pos="s" depth="0" NCoef="0" IVar="6" Cut="5.4329656982421875e+02" cType="1" res="8.1251928349956870e-04" rms="4.4747313857078552e-01" purity="4.9941650032997131e-01" nType="0">
        <Node pos="l" depth="1" NCoef="0" IVar="8" Cut="1.9648423767089844e+02" cType="1" res="-7.7036316506564617e-03" rms="4.4631984829902649e-01" purity="4.4858393073081970e-01" nType="0">
          <Node pos="l" depth="2" NCoef="0" IVar="-1" Cut="0.0000000000000000e+00" cType="1" res="1.8390524201095104e-04" rms="4.5681315660476685e-01" purity="4.9737948179244995e-01" nType="-99"/>
          <Node pos="r" depth="2" NCoef="0" IVar="-1" Cut="0.0000000000000000e+00" cType="1" res="-1.4473195187747478e-03" rms="4.3154448270797729e-01" purity="3.8385537266731262e-01" nType="-99"/>
        </Node>
        <Node pos="r" depth="1" NCoef="0" IVar="1" Cut="9.2673516273498535e-01" cType="1" res="1.4331378974020481e-02" rms="4.4896623492240906e-01" purity="5.8011007308959961e-01" nType="0">
          <Node pos="l" depth="2" NCoef="0" IVar="-1" Cut="0.0000000000000000e+00" cType="1" res="2.8509809635579586e-03" rms="4.7635701298713684e-01" purity="4.5533651113510132e-01" nType="-99"/>
          <Node pos="r" depth="2" NCoef="0" IVar="-1" Cut="0.0000000000000000e+00" cType="1" res="2.7709995629265904e-04" rms="4.4282275438308716e-01" purity="6.0499531030654907e-01" nType="-99"/>
        </Node>
      </Node>
    </BinaryTree>
    <BinaryTree type="DecisionTree" boostWeight="1.0000000000000000e+00" itree="735">
      <Node pos="s" depth="0" NCoef="0" IVar="7" Cut="-5.7114052772521973e-01" cType="1" res="-3.4055488649755716e-03" rms="4.4989988207817078e-01" purity="4.9565693736076355e-01" nType="0">
        <Node pos="l" depth="1" NCoef="0" IVar="7" Cut="-8.8922810554504395e-01" cType="1" res="7.5294468551874161e-03" rms="4.5556652545928955e-01" purity="5.3011053800582886e-01" nType="0">
          <Node pos="l" depth="2" NCoef="0" IVar="-1" Cut="0.0000000000000000e+00" cType="1" res="9.6952884632628411e-05" rms="4.5655149221420288e-01" purity="5.6749916076660156e-01" nType="-99"/>
          <Node pos="r" depth="2" NCoef="0" IVar="-1" Cut="0.0000000000000000e+00" cType="1" res="1.4310197439044714e-03" rms="4.5195892453193665e-01" purity="4.1054239869117737e-01" nType="-99"/>
        </Node>
        <Node pos="r" depth="1" NCoef="0" IVar="0" Cut="9.8883712291717529e-01" cType="1" res="-1.1978521011769772e-02" rms="4.4521906971931458e-01" purity="4.6864551305770874e-01" nType="0">
          <Node pos="l" depth="2" NCoef="0" IVar="-1" Cut="0.0000000000000000e+00" cType="1" res="5.9872832935070619e-05" rms="4.4730156660079956e-01" purity="5.0964242219924927e-01" nType="-99"/>
          <Node pos="r" depth="2" NCoef="0" IVar="-1" Cut="0.0000000000000000e+00" cType="1" res="-9.7301165806129575e-04" rms="4.4426870346069336e-01" purity="4.5214626193046570e-01" nType="-99"/>
        </Node>
      </Node>
    </BinaryTree>
    <BinaryTree type="DecisionTree" boostWeight="1.0000000000000000e+00" itree="736">
      <Node pos="s" depth="0" NCoef="0" IVar="2" Cut="1.0816646575927734e+02" cType="1" res="-2.7917311526834965e-03" rms="4.5110878348350525e-01" purity="4.9448740482330322e-01" nType="0">
        <Node pos="l" depth="1" NCoef="0" IVar="2" Cut="3.2905834197998047e+01" cType="1" res="-1.0445775464177132e-02" rms="4.5427194237709045e-01" purity="4.8002588748931885e-01" nType="0">
          <Node pos="l" depth="2" NCoef="0" IVar="-1" Cut="0.0000000000000000e+00" cType="1" res="-3.9913933724164963e-03" rms="4.2006322741508484e-01" purity="2.9281476140022278e-01" nType="-99"/>
          <Node pos="r" depth="2" NCoef="0" IVar="-1" Cut="0.0000000000000000e+00" cType="1" res="-3.1078772735781968e-04" rms="4.5714783668518066e-01" purity="4.9781498312950134e-01" nType="-99"/>
        </Node>
        <Node pos="r" depth="1" NCoef="0" IVar="5" Cut="1.3329075574874878e+00" cType="1" res="1.0968009009957314e-02" rms="4.4503492116928101e-01" purity="5.2048504352569580e-01" nType="0">
          <Node pos="l" depth="2" NCoef="0" IVar="-1" Cut="0.0000000000000000e+00" cType="1" res="-3.5130782634951174e-04" rms="4.4392621517181396e-01" purity="5.3836238384246826e-01" nType="-99"/>
          <Node pos="r" depth="2" NCoef="0" IVar="-1" Cut="0.0000000000000000e+00" cType="1" res="2.1274166647344828e-03" rms="4.4533252716064453e-01" purity="4.9243921041488647e-01" nType="-99"/>
        </Node>
      </Node>
    </BinaryTree>
    <BinaryTree type="DecisionTree" boostWeight="1.0000000000000000e+00" itree="737">
      <Node pos="s" depth="0" NCoef="0" IVar="2" Cut="1.1549501800537109e+02" cType="1" res="3.5995896905660629e-04" rms="4.5059081912040710e-01" purity="4.9993166327476501e-01" nType="0">
        <Node pos="l" depth="1" NCoef="0" IVar="4" Cut="1.7958705425262451e+00" cType="1" res="-5.3800353780388832e-03" rms="4.5401418209075928e-01" purity="4.9513319134712219e-01" nType="0">
          <Node pos="l" depth="2" NCoef="0" IVar="-1" Cut="0.0000000000000000e+00" cType="1" res="1.3260269770398736e-03" rms="4.4913658499717712e-01" purity="5.7989096641540527e-01" nType="-99"/>
          <Node pos="r" depth="2" NCoef="0" IVar="-1" Cut="0.0000000000000000e+00" cType="1" res="-4.7147044097073376e-04" rms="4.5438462495803833e-01" purity="4.8596143722534180e-01" nType="-99"/>
        </Node>
        <Node pos="r" depth="1" NCoef="0" IVar="0" Cut="1.4509344100952148e+00" cType="1" res="1.3083953410387039e-02" rms="4.4264253973960876e-01" purity="5.1056867837905884e-01" nType="0">
          <Node pos="l" depth="2" NCoef="0" IVar="-1" Cut="0.0000000000000000e+00" cType="1" res="1.9004167988896370e-03" rms="4.1303655505180359e-01" purity="7.4334520101547241e-01" nType="-99"/>
          <Node pos="r" depth="2" NCoef="0" IVar="-1" Cut="0.0000000000000000e+00" cType="1" res="1.3092740846332163e-04" rms="4.5225474238395691e-01" purity="4.2745772004127502e-01" nType="-99"/>
        </Node>
      </Node>
    </BinaryTree>
    <BinaryTree type="DecisionTree" boostWeight="1.0000000000000000e+00" itree="738">
      <Node pos="s" depth="0" NCoef="0" IVar="7" Cut="1.4279775619506836e+00" cType="1" res="1.2373063946142793e-03" rms="4.5016068220138550e-01" purity="5.0030899047851562e-01" nType="0">
        <Node pos="l" depth="1" NCoef="0" IVar="7" Cut="-2.0771102607250214e-01" cType="1" res="-1.3228275347501040e-03" rms="4.5089876651763916e-01" purity="4.8665025830268860e-01" nType="0">
          <Node pos="l" depth="2" NCoef="0" IVar="-1" Cut="0.0000000000000000e+00" cType="1" res="3.9392054895870388e-04" rms="4.5477423071861267e-01" purity="5.0982552766799927e-01" nType="-99"/>
          <Node pos="r" depth="2" NCoef="0" IVar="-1" Cut="0.0000000000000000e+00" cType="1" res="-6.1896227998659015e-04" rms="4.4640082120895386e-01" purity="4.6125030517578125e-01" nType="-99"/>
        </Node>
        <Node pos="r" depth="1" NCoef="0" IVar="-1" Cut="0.0000000000000000e+00" cType="1" res="1.3515335740521550e-03" rms="4.4053283333778381e-01" purity="6.5713196992874146e-01" nType="-99"/>
      </Node>
    </BinaryTree>
    <BinaryTree type="DecisionTree" boostWeight="1.0000000000000000e+00" itree="739">
      <Node pos="s" depth="0" NCoef="0" IVar="1" Cut="9.3332523107528687e-01" cType="1" res="5.1363841630518436e-03" rms="4.5208671689033508e-01" purity="5.0228905677795410e-01" nType="0">
        <Node pos="l" depth="1" NCoef="0" IVar="2" Cut="6.3133754730224609e+01" cType="1" res="2.5789448991417885e-02" rms="4.4911363720893860e-01" purity="3.7111464142799377e-01" nType="0">
          <Node pos="l" depth="2" NCoef="0" IVar="-1" Cut="0.0000000000000000e+00" cType="1" res="3.6552348174154758e-03" rms="4.5536136627197266e-01" purity="3.5601764917373657e-01" nType="-99"/>
          <Node pos="r" depth="2" NCoef="0" IVar="-1" Cut="0.0000000000000000e+00" cType="1" res="5.2637362387031317e-04" rms="4.4484642148017883e-01" purity="3.7907949090003967e-01" nType="-99"/>
        </Node>
        <Node pos="r" depth="1" NCoef="0" IVar="1" Cut="9.4823235273361206e-01" cType="1" res="-1.0794383706524968e-03" rms="4.5279327034950256e-01" purity="5.4176783561706543e-01" nType="0">
          <Node pos="l" depth="2" NCoef="0" IVar="-1" Cut="0.0000000000000000e+00" cType="1" res="-1.5401944983750582e-03" rms="4.5079475641250610e-01" purity="3.9572274684906006e-01" nType="-99"/>
          <Node pos="r" depth="2" NCoef="0" IVar="-1" Cut="0.0000000000000000e+00" cType="1" res="2.9469589935615659e-04" rms="4.5309188961982727e-01" purity="5.8297318220138550e-01" nType="-99"/>
        </Node>
      </Node>
    </BinaryTree>
    <BinaryTree type="DecisionTree" boostWeight="1.0000000000000000e+00" itree="740">
      <Node pos="s" depth="0" NCoef="0" IVar="5" Cut="1.1443018913269043e+00" cType="1" res="2.2335981484502554e-03" rms="4.5004725456237793e-01" purity="5.0198084115982056e-01" nType="0">
        <Node pos="l" depth="1" NCoef="0" IVar="0" Cut="1.9616544246673584e+00" cType="1" res="1.6650594770908356e-02" rms="4.5291531085968018e-01" purity="5.7258516550064087e-01" nType="0">
          <Node pos="l" depth="2" NCoef="0" IVar="-1" Cut="0.0000000000000000e+00" cType="1" res="1.0884124785661697e-03" rms="4.5235630869865417e-01" purity="6.1546993255615234e-01" nType="-99"/>
          <Node pos="r" depth="2" NCoef="0" IVar="-1" Cut="0.0000000000000000e+00" cType="1" res="-1.1705324286594987e-03" rms="4.5386683940887451e-01" purity="3.7245991826057434e-01" nType="-99"/>
        </Node>
        <Node pos="r" depth="1" NCoef="0" IVar="5" Cut="1.2168366909027100e+00" cType="1" res="-5.9859412722289562e-03" rms="4.4819638133049011e-01" purity="4.6172741055488586e-01" nType="0">
          <Node pos="l" depth="2" NCoef="0" IVar="-1" Cut="0.0000000000000000e+00" cType="1" res="-1.7190609360113740e-03" rms="4.6072956919670105e-01" purity="4.8529383540153503e-01" nType="-99"/>
          <Node pos="r" depth="2" NCoef="0" IVar="-1" Cut="0.0000000000000000e+00" cType="1" res="-8.5379375377669930e-05" rms="4.4593608379364014e-01" purity="4.5783278346061707e-01" nType="-99"/>
        </Node>
      </Node>
    </BinaryTree>
    <BinaryTree type="DecisionTree" boostWeight="1.0000000000000000e+00" itree="741">
      <Node pos="s" depth="0" NCoef="0" IVar="5" Cut="9.5503222942352295e-01" cType="1" res="2.2781372535973787e-03" rms="4.5099249482154846e-01" purity="5.0112909078598022e-01" nType="0">
        <Node pos="l" depth="1" NCoef="0" IVar="-1" Cut="0.0000000000000000e+00" cType="1" res="1.1155890533700585e-03" rms="4.4825968146324158e-01" purity="6.1144220829010010e-01" nType="-99"/>
        <Node pos="r" depth="1" NCoef="0" IVar="0" Cut="1.5472941398620605e+00" cType="1" res="-2.4885151651687920e-04" rms="4.5122471451759338e-01" purity="4.8886018991470337e-01" nType="0">
          <Node pos="l" depth="2" NCoef="0" IVar="-1" Cut="0.0000000000000000e+00" cType="1" res="-2.8993148589506745e-04" rms="4.5091739296913147e-01" purity="5.3503054380416870e-01" nType="-99"/>
          <Node pos="r" depth="2" NCoef="0" IVar="-1" Cut="0.0000000000000000e+00" cType="1" res="5.8235391043126583e-04" rms="4.5159521698951721e-01" purity="4.0699714422225952e-01" nType="-99"/>
        </Node>
      </Node>
    </BinaryTree>
    <BinaryTree type="DecisionTree" boostWeight="1.0000000000000000e+00" itree="742">
      <Node pos="s" depth="0" NCoef="0" IVar="8" Cut="4.0619729614257812e+02" cType="1" res="1.3632108457386494e-03" rms="4.5128700137138367e-01" purity="4.9964624643325806e-01" nType="0">
        <Node pos="l" depth="1" NCoef="0" IVar="1" Cut="9.3266636133193970e-01" cType="1" res="5.5925375781953335e-03" rms="4.5395055413246155e-01" purity="5.1974707841873169e-01" nType="0">
          <Node pos="l" depth="2" NCoef="0" IVar="-1" Cut="0.0000000000000000e+00" cType="1" res="-6.7841238342225552e-04" rms="4.4061529636383057e-01" purity="3.5301199555397034e-01" nType="-99"/>
          <Node pos="r" depth="2" NCoef="0" IVar="-1" Cut="0.0000000000000000e+00" cType="1" res="4.8235166468657553e-04" rms="4.5727750658988953e-01" purity="5.6341671943664551e-01" nType="-99"/>
        </Node>
        <Node pos="r" depth="1" NCoef="0" IVar="7" Cut="-1.1518001556396484e-03" cType="1" res="-2.6175312697887421e-02" rms="4.3253362178802490e-01" purity="3.6876341700553894e-01" nType="0">
          <Node pos="l" depth="2" NCoef="0" IVar="-1" Cut="0.0000000000000000e+00" cType="1" res="-1.1613565220613964e-05" rms="4.4469717144966125e-01" purity="3.9235898852348328e-01" nType="-99"/>
          <Node pos="r" depth="2" NCoef="0" IVar="-1" Cut="0.0000000000000000e+00" cType="1" res="-3.7490103859454393e-03" rms="4.1701436042785645e-01" purity="3.4301397204399109e-01" nType="-99"/>
        </Node>
      </Node>
    </BinaryTree>
    <BinaryTree type="DecisionTree" boostWeight="1.0000000000000000e+00" itree="743">
      <Node pos="s" depth="0" NCoef="0" IVar="1" Cut="9.7902673482894897e-01" cType="1" res="1.8487804336473346e-03" rms="4.4906532764434814e-01" purity="5.0243568420410156e-01" nType="0">
        <Node pos="l" depth="1" NCoef="0" IVar="7" Cut="-1.4276570081710815e-01" cType="1" res="-2.6217859704047441e-03" rms="4.5363435149192810e-01" purity="4.5717960596084595e-01" nType="0">
          <Node pos="l" depth="2" NCoef="0" IVar="-1" Cut="0.0000000000000000e+00" cType="1" res="3.7784673622809350e-04" rms="4.6017995476722717e-01" purity="4.6653452515602112e-01" nType="-99"/>
          <Node pos="r" depth="2" NCoef="0" IVar="-1" Cut="0.0000000000000000e+00" cType="1" res="-6.7040452267974615e-04" rms="4.4690969586372375e-01" purity="4.4800364971160889e-01" nType="-99"/>
        </Node>
        <Node pos="r" depth="1" NCoef="0" IVar="2" Cut="8.6168395996093750e+01" cType="1" res="2.0855201408267021e-02" rms="4.2857733368873596e-01" purity="6.9483983516693115e-01" nType="0">
          <Node pos="l" depth="2" NCoef="0" IVar="-1" Cut="0.0000000000000000e+00" cType="1" res="7.8511104220524430e-05" rms="4.4737312197685242e-01" purity="6.5185689926147461e-01" nType="-99"/>
          <Node pos="r" depth="2" NCoef="0" IVar="-1" Cut="0.0000000000000000e+00" cType="1" res="1.6976855695247650e-03" rms="4.1148820519447327e-01" purity="7.3085367679595947e-01" nType="-99"/>
        </Node>
      </Node>
    </BinaryTree>
    <BinaryTree type="DecisionTree" boostWeight="1.0000000000000000e+00" itree="744">
      <Node pos="s" depth="0" NCoef="0" IVar="6" Cut="3.2809652709960938e+02" cType="1" res="-4.3063298799097538e-03" rms="4.4853502511978149e-01" purity="4.9430060386657715e-01" nType="0">
        <Node pos="l" depth="1" NCoef="0" IVar="3" Cut="1.1605052947998047e+02" cType="1" res="-2.2498426958918571e-02" rms="4.2983675003051758e-01" purity="3.0473539233207703e-01" nType="0">
          <Node pos="l" depth="2" NCoef="0" IVar="-1" Cut="0.0000000000000000e+00" cType="1" res="2.1389048197306693e-04" rms="4.2950785160064697e-01" purity="3.2640692591667175e-01" nType="-99"/>
          <Node pos="r" depth="2" NCoef="0" IVar="-1" Cut="0.0000000000000000e+00" cType="1" res="-3.0252772849053144e-03" rms="4.2924645543098450e-01" purity="2.9081475734710693e-01" nType="-99"/>
        </Node>
        <Node pos="r" depth="1" NCoef="0" IVar="5" Cut="1.7824442386627197e+00" cType="1" res="-1.2768335873261094e-03" rms="4.5150244235992432e-01" purity="5.2586859464645386e-01" nType="0">
          <Node pos="l" depth="2" NCoef="0" IVar="-1" Cut="0.0000000000000000e+00" cType="1" res="5.5293912737397477e-05" rms="4.5221966505050659e-01" purity="5.4287707805633545e-01" nType="-99"/>
          <Node pos="r" depth="2" NCoef="0" IVar="-1" Cut="0.0000000000000000e+00" cType="1" res="-2.1132701076567173e-03" rms="4.4177478551864624e-01" purity="3.2165661454200745e-01" nType="-99"/>
        </Node>
      </Node>
    </BinaryTree>
    <BinaryTree type="DecisionTree" boostWeight="1.0000000000000000e+00" itree="745">
      <Node pos="s" depth="0" NCoef="0" IVar="8" Cut="5.3007055664062500e+02" cType="1" res="-1.9113236339762807e-03" rms="4.5062237977981567e-01" purity="4.9493399262428284e-01" nType="0">
        <Node pos="l" depth="1" NCoef="0" IVar="8" Cut="2.1417297363281250e+02" cType="1" res="3.4202277311123908e-04" rms="4.5187652111053467e-01" purity="5.0701594352722168e-01" nType="0">
          <Node pos="l" depth="2" NCoef="0" IVar="-1" Cut="0.0000000000000000e+00" cType="1" res="4.4666870962828398e-04" rms="4.5637610554695129e-01" purity="5.3501909971237183e-01" nType="-99"/>
          <Node pos="r" depth="2" NCoef="0" IVar="-1" Cut="0.0000000000000000e+00" cType="1" res="-5.7052931515499949e-04" rms="4.4609454274177551e-01" purity="4.7288158535957336e-01" nType="-99"/>
        </Node>
        <Node pos="r" depth="1" NCoef="0" IVar="-1" Cut="0.0000000000000000e+00" cType="1" res="-2.2189114242792130e-03" rms="4.3252560496330261e-01" purity="3.3459952473640442e-01" nType="-99"/>
      </Node>
    </BinaryTree>
    <BinaryTree type="DecisionTree" boostWeight="1.0000000000000000e+00" itree="746">
      <Node pos="s" depth="0" NCoef="0" IVar="4" Cut="2.4616622924804688e+00" cType="1" res="4.1635432280600071e-03" rms="4.5161715149879456e-01" purity="5.0272417068481445e-01" nType="0">
        <Node pos="l" depth="1" NCoef="0" IVar="3" Cut="1.1979517364501953e+02" cType="1" res="-2.4279716890305281e-03" rms="4.5591986179351807e-01" purity="5.5662208795547485e-01" nType="0">
          <Node pos="l" depth="2" NCoef="0" IVar="-1" Cut="0.0000000000000000e+00" cType="1" res="5.8552273549139500e-04" rms="4.6233522891998291e-01" purity="5.3984153270721436e-01" nType="-99"/>
          <Node pos="r" depth="2" NCoef="0" IVar="-1" Cut="0.0000000000000000e+00" cType="1" res="-4.8625053022988141e-04" rms="4.5228749513626099e-01" purity="5.6552112102508545e-01" nType="-99"/>
        </Node>
        <Node pos="r" depth="1" NCoef="0" IVar="5" Cut="1.2356411218643188e+00" cType="1" res="2.4139391258358955e-02" rms="4.3771401047706604e-01" purity="3.3938428759574890e-01" nType="0">
          <Node pos="l" depth="2" NCoef="0" IVar="-1" Cut="0.0000000000000000e+00" cType="1" res="-4.4207870814716443e-05" rms="4.4534188508987427e-01" purity="3.7128818035125732e-01" nType="-99"/>
          <Node pos="r" depth="2" NCoef="0" IVar="-1" Cut="0.0000000000000000e+00" cType="1" res="2.9382291249930859e-03" rms="4.3241244554519653e-01" purity="3.2032310962677002e-01" nType="-99"/>
        </Node>
      </Node>
    </BinaryTree>
    <BinaryTree type="DecisionTree" boostWeight="1.0000000000000000e+00" itree="747">
      <Node pos="s" depth="0" NCoef="0" IVar="7" Cut="-4.2839050292968750e-01" cType="1" res="-6.1976577853783965e-04" rms="4.5099568367004395e-01" purity="4.9785590171813965e-01" nType="0">
        <Node pos="l" depth="1" NCoef="0" IVar="7" Cut="-8.9592003822326660e-01" cType="1" res="9.4486167654395103e-03" rms="4.5453608036041260e-01" purity="5.2212226390838623e-01" nType="0">
          <Node pos="l" depth="2" NCoef="0" IVar="-1" Cut="0.0000000000000000e+00" cType="1" res="9.3962997198104858e-05" rms="4.5634675025939941e-01" purity="5.6795334815979004e-01" nType="-99"/>
          <Node pos="r" depth="2" NCoef="0" IVar="-1" Cut="0.0000000000000000e+00" cType="1" res="1.6541313380002975e-03" rms="4.4943875074386597e-01" purity="4.0754011273384094e-01" nType="-99"/>
        </Node>
        <Node pos="r" depth="1" NCoef="0" IVar="5" Cut="1.2537584304809570e+00" cType="1" res="-9.1378083452582359e-03" rms="4.4780188798904419e-01" purity="4.7732606530189514e-01" nType="0">
          <Node pos="l" depth="2" NCoef="0" IVar="-1" Cut="0.0000000000000000e+00" cType="1" res="1.1623000318650156e-04" rms="4.5697942376136780e-01" purity="5.4132676124572754e-01" nType="-99"/>
          <Node pos="r" depth="2" NCoef="0" IVar="-1" Cut="0.0000000000000000e+00" cType="1" res="-1.2770898174494505e-03" rms="4.3762853741645813e-01" purity="4.1008746623992920e-01" nType="-99"/>
        </Node>
      </Node>
    </BinaryTree>
    <BinaryTree type="DecisionTree" boostWeight="1.0000000000000000e+00" itree="748">
      <Node pos="s" depth="0" NCoef="0" IVar="8" Cut="4.0619729614257812e+02" cType="1" res="3.7101593334227800e-03" rms="4.5283085107803345e-01" purity="5.0138556957244873e-01" nType="0">
        <Node pos="l" depth="1" NCoef="0" IVar="7" Cut="-1.1423305273056030e+00" cType="1" res="-1.4364576782099903e-04" rms="4.5275616645812988e-01" purity="5.1457494497299194e-01" nType="0">
          <Node pos="l" depth="2" NCoef="0" IVar="-1" Cut="0.0000000000000000e+00" cType="1" res="6.7007751204073429e-04" rms="4.6090939640998840e-01" purity="6.1915725469589233e-01" nType="-99"/>
          <Node pos="r" depth="2" NCoef="0" IVar="-1" Cut="0.0000000000000000e+00" cType="1" res="-2.4473591474816203e-04" rms="4.5018878579139709e-01" purity="4.8324838280677795e-01" nType="-99"/>
        </Node>
        <Node pos="r" depth="1" NCoef="0" IVar="4" Cut="2.4444813728332520e+00" cType="1" res="2.7219884097576141e-02" rms="4.5257601141929626e-01" purity="4.2092511057853699e-01" nType="0">
          <Node pos="l" depth="2" NCoef="0" IVar="-1" Cut="0.0000000000000000e+00" cType="1" res="-3.3940153662115335e-04" rms="4.6769320964813232e-01" purity="5.1680266857147217e-01" nType="-99"/>
          <Node pos="r" depth="2" NCoef="0" IVar="-1" Cut="0.0000000000000000e+00" cType="1" res="3.7748031318187714e-03" rms="4.3834018707275391e-01" purity="3.4497615694999695e-01" nType="-99"/>
        </Node>
      </Node>
    </BinaryTree>
    <BinaryTree type="DecisionTree" boostWeight="1.0000000000000000e+00" itree="749">
      <Node pos="s" depth="0" NCoef="0" IVar="5" Cut="9.5616966485977173e-01" cType="1" res="1.0106345638632774e-02" rms="4.5250615477561951e-01" purity="5.0633352994918823e-01" nType="0">
        <Node pos="l" depth="1" NCoef="0" IVar="-1" Cut="0.0000000000000000e+00" cType="1" res="1.8362153787165880e-03" rms="4.4843223690986633e-01" purity="6.2667751312255859e-01" nType="-99"/>
        <Node pos="r" depth="1" NCoef="0" IVar="7" Cut="1.4279708862304688e+00" cType="1" res="6.5040206536650658e-03" rms="4.5282062888145447e-01" purity="4.9279165267944336e-01" nType="0">
          <Node pos="l" depth="2" NCoef="0" IVar="-1" Cut="0.0000000000000000e+00" cType="1" res="4.6804480371065438e-04" rms="4.5286697149276733e-01" purity="4.8599058389663696e-01" nType="-99"/>
          <Node pos="r" depth="2" NCoef="0" IVar="-1" Cut="0.0000000000000000e+00" cType="1" res="-1.2886616168543696e-03" rms="4.5087140798568726e-01" purity="5.8710074424743652e-01" nType="-99"/>
        </Node>
      </Node>
    </BinaryTree>
    <BinaryTree type="DecisionTree" boostWeight="1.0000000000000000e+00" itree="750">
      <Node pos="s" depth="0" NCoef="0" IVar="3" Cut="1.1642599487304688e+02" cType="1" res="5.6195161305367947e-03" rms="4.5090988278388977e-01" purity="5.0571316480636597e-01" nType="0">
        <Node pos="l" depth="1" NCoef="0" IVar="8" Cut="2.4655426025390625e+02" cType="1" res="2.2804420441389084e-02" rms="4.5380508899688721e-01" purity="4.7821220755577087e-01" nType="0">
          <Node pos="l" depth="2" NCoef="0" IVar="-1" Cut="0.0000000000000000e+00" cType="1" res="1.9691197667270899e-03" rms="4.5450171828269958e-01" purity="5.2293252944946289e-01" nType="-99"/>
          <Node pos="r" depth="2" NCoef="0" IVar="-1" Cut="0.0000000000000000e+00" cType="1" res="-5.9723306912928820e-04" rms="4.5066189765930176e-01" purity="3.9011555910110474e-01" nType="-99"/>
        </Node>
        <Node pos="r" depth="1" NCoef="0" IVar="0" Cut="1.1381822824478149e+00" cType="1" res="-2.1295432816259563e-04" rms="4.4977381825447083e-01" purity="5.1504689455032349e-01" nType="0">
          <Node pos="l" depth="2" NCoef="0" IVar="-1" Cut="0.0000000000000000e+00" cType="1" res="6.8161758827045560e-04" rms="4.4516757130622864e-01" purity="5.7300853729248047e-01" nType="-99"/>
          <Node pos="r" depth="2" NCoef="0" IVar="-1" Cut="0.0000000000000000e+00" cType="1" res="-4.8923928989097476e-04" rms="4.5235872268676758e-01" purity="4.7930160164833069e-01" nType="-99"/>
        </Node>
      </Node>
    </BinaryTree>
    <BinaryTree type="DecisionTree" boostWeight="1.0000000000000000e+00" itree="751">
      <Node pos="s" depth="0" NCoef="0" IVar="8" Cut="5.2965032958984375e+02" cType="1" res="7.2515266947448254e-04" rms="4.5192646980285645e-01" purity="4.9782520532608032e-01" nType="0">
        <Node pos="l" depth="1" NCoef="0" IVar="8" Cut="1.0090467071533203e+02" cType="1" res="2.8607072308659554e-03" rms="4.5319074392318726e-01" purity="5.0957846641540527e-01" nType="0">
          <Node pos="l" depth="2" NCoef="0" IVar="-1" Cut="0.0000000000000000e+00" cType="1" res="-1.5029170317575336e-03" rms="4.6714255213737488e-01" purity="4.0842953324317932e-01" nType="-99"/>
          <Node pos="r" depth="2" NCoef="0" IVar="-1" Cut="0.0000000000000000e+00" cType="1" res="2.6292813709005713e-04" rms="4.5195063948631287e-01" purity="5.1784068346023560e-01" nType="-99"/>
        </Node>
        <Node pos="r" depth="1" NCoef="0" IVar="-1" Cut="0.0000000000000000e+00" cType="1" res="-2.0833725575357676e-03" rms="4.3256390094757080e-01" purity="3.3191815018653870e-01" nType="-99"/>
      </Node>
    </BinaryTree>
    <BinaryTree type="DecisionTree" boostWeight="1.0000000000000000e+00" itree="752">
      <Node pos="s" depth="0" NCoef="0" IVar="1" Cut="9.5919972658157349e-01" cType="1" res="8.8899871334433556e-03" rms="4.5375409722328186e-01" purity="5.0632971525192261e-01" nType="0">
        <Node pos="l" depth="1" NCoef="0" IVar="4" Cut="2.3479535579681396e+00" cType="1" res="1.6308143734931946e-02" rms="4.5471620559692383e-01" purity="4.3128389120101929e-01" nType="0">
          <Node pos="l" depth="2" NCoef="0" IVar="-1" Cut="0.0000000000000000e+00" cType="1" res="3.3324313699267805e-04" rms="4.6896523237228394e-01" purity="5.0296884775161743e-01" nType="-99"/>
          <Node pos="r" depth="2" NCoef="0" IVar="-1" Cut="0.0000000000000000e+00" cType="1" res="2.1851886995136738e-03" rms="4.3126165866851807e-01" purity="3.1994879245758057e-01" nType="-99"/>
        </Node>
        <Node pos="r" depth="1" NCoef="0" IVar="3" Cut="1.2708691406250000e+02" cType="1" res="-1.1789245763793588e-03" rms="4.5225033164024353e-01" purity="6.0819202661514282e-01" nType="0">
          <Node pos="l" depth="2" NCoef="0" IVar="-1" Cut="0.0000000000000000e+00" cType="1" res="2.3381675418931991e-04" rms="4.5291778445243835e-01" purity="6.2676995992660522e-01" nType="-99"/>
          <Node pos="r" depth="2" NCoef="0" IVar="-1" Cut="0.0000000000000000e+00" cType="1" res="-6.7002617288380861e-04" rms="4.5064172148704529e-01" purity="5.7077306509017944e-01" nType="-99"/>
        </Node>
      </Node>
    </BinaryTree>
    <BinaryTree type="DecisionTree" boostWeight="1.0000000000000000e+00" itree="753">
      <Node pos="s" depth="0" NCoef="0" IVar="1" Cut="9.8571515083312988e-01" cType="1" res="-1.3822828186675906e-03" rms="4.4940233230590820e-01" purity="4.9869298934936523e-01" nType="0">
        <Node pos="l" depth="1" NCoef="0" IVar="7" Cut="-1.4279719591140747e+00" cType="1" res="-4.4663557782769203e-03" rms="4.5233321189880371e-01" purity="4.7164615988731384e-01" nType="0">
          <Node pos="l" depth="2" NCoef="0" IVar="-1" Cut="0.0000000000000000e+00" cType="1" res="7.5055088382214308e-04" rms="4.4896712899208069e-01" purity="6.3301944732666016e-01" nType="-99"/>
          <Node pos="r" depth="2" NCoef="0" IVar="-1" Cut="0.0000000000000000e+00" cType="1" res="-3.3790624001994729e-04" rms="4.5256417989730835e-01" purity="4.5835548639297485e-01" nType="-99"/>
        </Node>
        <Node pos="r" depth="1" NCoef="0" IVar="-1" Cut="0.0000000000000000e+00" cType="1" res="1.0254643857479095e-03" rms="4.2504081130027771e-01" purity="7.1000021696090698e-01" nType="-99"/>
      </Node>
    </BinaryTree>
    <BinaryTree type="DecisionTree" boostWeight="1.0000000000000000e+00" itree="754">
      <Node pos="s" depth="0" NCoef="0" IVar="7" Cut="1.4279750585556030e+00" cType="1" res="-6.1864324379712343e-04" rms="4.4790774583816528e-01" purity="5.0063180923461914e-01" nType="0">
        <Node pos="l" depth="1" NCoef="0" IVar="7" Cut="-2.0774112641811371e-01" cType="1" res="-3.6713213194161654e-03" rms="4.4943317770957947e-01" purity="4.8596993088722229e-01" nType="0">
          <Node pos="l" depth="2" NCoef="0" IVar="-1" Cut="0.0000000000000000e+00" cType="1" res="1.6384100308641791e-04" rms="4.5173484086990356e-01" purity="5.0816684961318970e-01" nType="-99"/>
          <Node pos="r" depth="2" NCoef="0" IVar="-1" Cut="0.0000000000000000e+00" cType="1" res="-6.0930871404707432e-04" rms="4.4678902626037598e-01" purity="4.6176493167877197e-01" nType="-99"/>
        </Node>
        <Node pos="r" depth="1" NCoef="0" IVar="-1" Cut="0.0000000000000000e+00" cType="1" res="1.5435316599905491e-03" rms="4.2813628911972046e-01" purity="6.7144727706909180e-01" nType="-99"/>
      </Node>
    </BinaryTree>
    <BinaryTree type="DecisionTree" boostWeight="1.0000000000000000e+00" itree="755">
      <Node pos="s" depth="0" NCoef="0" IVar="6" Cut="8.1449438476562500e+02" cType="1" res="5.1639736630022526e-03" rms="4.4949373602867126e-01" purity="5.0389730930328369e-01" nType="0">
        <Node pos="l" depth="1" NCoef="0" IVar="6" Cut="3.7737820434570312e+02" cType="1" res="1.3563532847911119e-03" rms="4.4941127300262451e-01" purity="4.9033516645431519e-01" nType="0">
          <Node pos="l" depth="2" NCoef="0" IVar="-1" Cut="0.0000000000000000e+00" cType="1" res="-8.8082422735169530e-04" rms="4.3885549902915955e-01" purity="3.6616080999374390e-01" nType="-99"/>
          <Node pos="r" depth="2" NCoef="0" IVar="-1" Cut="0.0000000000000000e+00" cType="1" res="3.6911724600940943e-04" rms="4.5348504185676575e-01" purity="5.4080331325531006e-01" nType="-99"/>
        </Node>
        <Node pos="r" depth="1" NCoef="0" IVar="-1" Cut="0.0000000000000000e+00" cType="1" res="1.5546922804787755e-03" rms="4.4904905557632446e-01" purity="6.0825157165527344e-01" nType="-99"/>
      </Node>
    </BinaryTree>
    <BinaryTree type="DecisionTree" boostWeight="1.0000000000000000e+00" itree="756">
      <Node pos="s" depth="0" NCoef="0" IVar="7" Cut="-1.4279800653457642e+00" cType="1" res="-4.5242654159665108e-03" rms="4.4953909516334534e-01" purity="4.9642136693000793e-01" nType="0">
        <Node pos="l" depth="1" NCoef="0" IVar="-1" Cut="0.0000000000000000e+00" cType="1" res="8.1624439917504787e-04" rms="4.5772892236709595e-01" purity="6.4083129167556763e-01" nType="-99"/>
        <Node pos="r" depth="1" NCoef="0" IVar="7" Cut="-6.1017519235610962e-01" cType="1" res="-6.3431928865611553e-03" rms="4.4882100820541382e-01" purity="4.8474326729774475e-01" nType="0">
          <Node pos="l" depth="2" NCoef="0" IVar="-1" Cut="0.0000000000000000e+00" cType="1" res="-8.0121937207877636e-04" rms="4.5301815867424011e-01" purity="4.9113154411315918e-01" nType="-99"/>
          <Node pos="r" depth="2" NCoef="0" IVar="-1" Cut="0.0000000000000000e+00" cType="1" res="-4.6444481995422393e-05" rms="4.4622746109962463e-01" purity="4.8096203804016113e-01" nType="-99"/>
        </Node>
      </Node>
    </BinaryTree>
    <BinaryTree type="DecisionTree" boostWeight="1.0000000000000000e+00" itree="757">
      <Node pos="s" depth="0" NCoef="0" IVar="0" Cut="1.1383348703384399e+00" cType="1" res="-1.8138878513127565e-03" rms="4.5004412531852722e-01" purity="4.9818277359008789e-01" nType="0">
        <Node pos="l" depth="1" NCoef="0" IVar="4" Cut="2.0836758613586426e+00" cType="1" res="1.0088300332427025e-02" rms="4.4963309168815613e-01" purity="5.4686468839645386e-01" nType="0">
          <Node pos="l" depth="2" NCoef="0" IVar="-1" Cut="0.0000000000000000e+00" cType="1" res="1.0780331213027239e-03" rms="4.4642159342765808e-01" purity="6.1214244365692139e-01" nType="-99"/>
          <Node pos="r" depth="2" NCoef="0" IVar="-1" Cut="0.0000000000000000e+00" cType="1" res="-7.2428883868269622e-05" rms="4.5204287767410278e-01" purity="4.9105712771415710e-01" nType="-99"/>
        </Node>
        <Node pos="r" depth="1" NCoef="0" IVar="6" Cut="2.9750354003906250e+02" cType="1" res="-9.3120643869042397e-03" rms="4.5014131069183350e-01" purity="4.6751403808593750e-01" nType="0">
          <Node pos="l" depth="2" NCoef="0" IVar="-1" Cut="0.0000000000000000e+00" cType="1" res="1.6014692373573780e-03" rms="4.3875575065612793e-01" purity="3.0880999565124512e-01" nType="-99"/>
          <Node pos="r" depth="2" NCoef="0" IVar="-1" Cut="0.0000000000000000e+00" cType="1" res="-6.3370144926011562e-04" rms="4.5107993483543396e-01" purity="4.8210167884826660e-01" nType="-99"/>
        </Node>
      </Node>
    </BinaryTree>
    <BinaryTree type="DecisionTree" boostWeight="1.0000000000000000e+00" itree="758">
      <Node pos="s" depth="0" NCoef="0" IVar="0" Cut="2.3311402797698975e+00" cType="1" res="2.0063333213329315e-03" rms="4.4970953464508057e-01" purity="5.0129944086074829e-01" nType="0">
        <Node pos="l" depth="1" NCoef="0" IVar="3" Cut="1.1286311340332031e+02" cType="1" res="9.3242997536435723e-05" rms="4.5189601182937622e-01" purity="5.1833283901214600e-01" nType="0">
          <Node pos="l" depth="2" NCoef="0" IVar="-1" Cut="0.0000000000000000e+00" cType="1" res="-8.9093472342938185e-04" rms="4.5450082421302795e-01" purity="4.2985910177230835e-01" nType="-99"/>
          <Node pos="r" depth="2" NCoef="0" IVar="-1" Cut="0.0000000000000000e+00" cType="1" res="1.6841320029925555e-04" rms="4.5127189159393311e-01" purity="5.3708791732788086e-01" nType="-99"/>
        </Node>
        <Node pos="r" depth="1" NCoef="0" IVar="-1" Cut="0.0000000000000000e+00" cType="1" res="2.3905341513454914e-03" rms="4.1897571086883545e-01" purity="2.7653700113296509e-01" nType="-99"/>
      </Node>
    </BinaryTree>
    <BinaryTree type="DecisionTree" boostWeight="1.0000000000000000e+00" itree="759">
      <Node pos="s" depth="0" NCoef="0" IVar="4" Cut="1.8485022783279419e+00" cType="1" res="1.0707584442570806e-03" rms="4.5288202166557312e-01" purity="4.9741950631141663e-01" nType="0">
        <Node pos="l" depth="1" NCoef="0" IVar="-1" Cut="0.0000000000000000e+00" cType="1" res="1.6345889307558537e-03" rms="4.4617465138435364e-01" purity="6.1880183219909668e-01" nType="-99"/>
        <Node pos="r" depth="1" NCoef="0" IVar="0" Cut="2.1847293376922607e+00" cType="1" res="-3.1231164466589689e-03" rms="4.5349428057670593e-01" purity="4.8292955756187439e-01" nType="0">
          <Node pos="l" depth="2" NCoef="0" IVar="-1" Cut="0.0000000000000000e+00" cType="1" res="-3.4450061502866447e-04" rms="4.5617285370826721e-01" purity="5.0663310289382935e-01" nType="-99"/>
          <Node pos="r" depth="2" NCoef="0" IVar="-1" Cut="0.0000000000000000e+00" cType="1" res="2.0493078045547009e-03" rms="4.3116867542266846e-01" purity="2.9963034391403198e-01" nType="-99"/>
        </Node>
      </Node>
    </BinaryTree>
    <BinaryTree type="DecisionTree" boostWeight="1.0000000000000000e+00" itree="760">
      <Node pos="s" depth="0" NCoef="0" IVar="2" Cut="1.0486442565917969e+02" cType="1" res="-1.5961403260007501e-03" rms="4.4962057471275330e-01" purity="4.9523219466209412e-01" nType="0">
        <Node pos="l" depth="1" NCoef="0" IVar="0" Cut="9.3411689996719360e-01" cType="1" res="-9.3587609007954597e-03" rms="4.5556136965751648e-01" purity="4.7681742906570435e-01" nType="0">
          <Node pos="l" depth="2" NCoef="0" IVar="-1" Cut="0.0000000000000000e+00" cType="1" res="2.9307708609849215e-04" rms="4.5722416043281555e-01" purity="4.9888664484024048e-01" nType="-99"/>
          <Node pos="r" depth="2" NCoef="0" IVar="-1" Cut="0.0000000000000000e+00" cType="1" res="-1.0428646346554160e-03" rms="4.5421615242958069e-01" purity="4.6261098980903625e-01" nType="-99"/>
        </Node>
        <Node pos="r" depth="1" NCoef="0" IVar="0" Cut="1.4122437238693237e+00" cType="1" res="1.1108681559562683e-02" rms="4.3942859768867493e-01" purity="5.2537113428115845e-01" nType="0">
          <Node pos="l" depth="2" NCoef="0" IVar="-1" Cut="0.0000000000000000e+00" cType="1" res="2.0064439158886671e-03" rms="4.0512850880622864e-01" purity="7.5681167840957642e-01" nType="-99"/>
          <Node pos="r" depth="2" NCoef="0" IVar="-1" Cut="0.0000000000000000e+00" cType="1" res="-1.0138727520825341e-04" rms="4.5083364844322205e-01" purity="4.3934288620948792e-01" nType="-99"/>
        </Node>
      </Node>
    </BinaryTree>
    <BinaryTree type="DecisionTree" boostWeight="1.0000000000000000e+00" itree="761">
      <Node pos="s" depth="0" NCoef="0" IVar="8" Cut="4.0598880004882812e+02" cType="1" res="3.8609197363257408e-03" rms="4.5045709609985352e-01" purity="5.0274020433425903e-01" nType="0">
        <Node pos="l" depth="1" NCoef="0" IVar="8" Cut="2.0292077636718750e+02" cType="1" res="-7.2711391840130091e-04" rms="4.5082247257232666e-01" purity="5.1463943719863892e-01" nType="0">
          <Node pos="l" depth="2" NCoef="0" IVar="-1" Cut="0.0000000000000000e+00" cType="1" res="3.8371430127881467e-04" rms="4.5731636881828308e-01" purity="5.3404855728149414e-01" nType="-99"/>
          <Node pos="r" depth="2" NCoef="0" IVar="-1" Cut="0.0000000000000000e+00" cType="1" res="-5.8325834106653929e-04" rms="4.4286853075027466e-01" purity="4.9187082052230835e-01" nType="-99"/>
        </Node>
        <Node pos="r" depth="1" NCoef="0" IVar="5" Cut="1.3679140806198120e+00" cType="1" res="3.1202744692564011e-02" rms="4.4729858636856079e-01" purity="4.3182820081710815e-01" nType="0">
          <Node pos="l" depth="2" NCoef="0" IVar="-1" Cut="0.0000000000000000e+00" cType="1" res="2.7965032495558262e-03" rms="4.6320596337318420e-01" purity="5.2139329910278320e-01" nType="-99"/>
          <Node pos="r" depth="2" NCoef="0" IVar="-1" Cut="0.0000000000000000e+00" cType="1" res="3.8219752605073154e-04" rms="4.2886385321617126e-01" purity="3.4003001451492310e-01" nType="-99"/>
        </Node>
      </Node>
    </BinaryTree>
    <BinaryTree type="DecisionTree" boostWeight="1.0000000000000000e+00" itree="762">
      <Node pos="s" depth="0" NCoef="0" IVar="7" Cut="-1.4279196262359619e+00" cType="1" res="8.1699425354599953e-03" rms="4.4924232363700867e-01" purity="5.0652992725372314e-01" nType="0">
        <Node pos="l" depth="1" NCoef="0" IVar="-1" Cut="0.0000000000000000e+00" cType="1" res="1.5236141625791788e-03" rms="4.4082415103912354e-01" purity="6.6221934556961060e-01" nType="-99"/>
        <Node pos="r" depth="1" NCoef="0" IVar="1" Cut="9.2603898048400879e-01" cType="1" res="5.9789144434034824e-03" rms="4.4985413551330566e-01" purity="4.9378201365470886e-01" nType="0">
          <Node pos="l" depth="2" NCoef="0" IVar="-1" Cut="0.0000000000000000e+00" cType="1" res="1.5980320749804378e-03" rms="4.4383329153060913e-01" purity="3.4621042013168335e-01" nType="-99"/>
          <Node pos="r" depth="2" NCoef="0" IVar="-1" Cut="0.0000000000000000e+00" cType="1" res="1.1038713273592293e-04" rms="4.5093867182731628e-01" purity="5.2294689416885376e-01" nType="-99"/>
        </Node>
      </Node>
    </BinaryTree>
    <BinaryTree type="DecisionTree" boostWeight="1.0000000000000000e+00" itree="763">
      <Node pos="s" depth="0" NCoef="0" IVar="0" Cut="2.0314388275146484e+00" cType="1" res="1.0404891800135374e-03" rms="4.5135876536369324e-01" purity="4.9984356760978699e-01" nType="0">
        <Node pos="l" depth="1" NCoef="0" IVar="4" Cut="2.5292289257049561e+00" cType="1" res="4.0249619632959366e-03" rms="4.5627146959304810e-01" purity="5.3483557701110840e-01" nType="0">
          <Node pos="l" depth="2" NCoef="0" IVar="-1" Cut="0.0000000000000000e+00" cType="1" res="2.1651801944244653e-05" rms="4.5805016160011292e-01" purity="5.6435638666152954e-01" nType="-99"/>
          <Node pos="r" depth="2" NCoef="0" IVar="-1" Cut="0.0000000000000000e+00" cType="1" res="1.5973439440131187e-03" rms="4.4522082805633545e-01" purity="3.6314120888710022e-01" nType="-99"/>
        </Node>
        <Node pos="r" depth="1" NCoef="0" IVar="5" Cut="1.1688151359558105e+00" cType="1" res="-1.7136642709374428e-02" rms="4.1974127292633057e-01" purity="2.8672227263450623e-01" nType="0">
          <Node pos="l" depth="2" NCoef="0" IVar="-1" Cut="0.0000000000000000e+00" cType="1" res="-2.6558719109743834e-03" rms="4.4575044512748718e-01" purity="3.3181118965148926e-01" nType="-99"/>
          <Node pos="r" depth="2" NCoef="0" IVar="-1" Cut="0.0000000000000000e+00" cType="1" res="-3.1272374326363206e-04" rms="4.0148031711578369e-01" purity="2.5763186812400818e-01" nType="-99"/>
        </Node>
      </Node>
    </BinaryTree>
    <BinaryTree type="DecisionTree" boostWeight="1.0000000000000000e+00" itree="764">
      <Node pos="s" depth="0" NCoef="0" IVar="1" Cut="9.2022418975830078e-01" cType="1" res="-1.9247289746999741e-03" rms="4.4910341501235962e-01" purity="4.9869662523269653e-01" nType="0">
        <Node pos="l" depth="1" NCoef="0" IVar="5" Cut="1.3339207172393799e+00" cType="1" res="-2.6831170544028282e-02" rms="4.1781562566757202e-01" purity="2.8530535101890564e-01" nType="0">
          <Node pos="l" depth="2" NCoef="0" IVar="-1" Cut="0.0000000000000000e+00" cType="1" res="-2.7744797989726067e-03" rms="4.2606830596923828e-01" purity="3.1058278679847717e-01" nType="-99"/>
          <Node pos="r" depth="2" NCoef="0" IVar="-1" Cut="0.0000000000000000e+00" cType="1" res="-6.1426084721460938e-04" rms="4.0665072202682495e-01" purity="2.5444966554641724e-01" nType="-99"/>
        </Node>
        <Node pos="r" depth="1" NCoef="0" IVar="1" Cut="9.2738175392150879e-01" cType="1" res="1.3220668770372868e-03" rms="4.5292198657989502e-01" purity="5.2651429176330566e-01" nType="0">
          <Node pos="l" depth="2" NCoef="0" IVar="-1" Cut="0.0000000000000000e+00" cType="1" res="2.4202300701290369e-03" rms="4.5924150943756104e-01" purity="4.2714747786521912e-01" nType="-99"/>
          <Node pos="r" depth="2" NCoef="0" IVar="-1" Cut="0.0000000000000000e+00" cType="1" res="-7.5585005106404424e-05" rms="4.5236018300056458e-01" purity="5.3305053710937500e-01" nType="-99"/>
        </Node>
      </Node>
    </BinaryTree>
    <BinaryTree type="DecisionTree" boostWeight="1.0000000000000000e+00" itree="765">
      <Node pos="s" depth="0" NCoef="0" IVar="7" Cut="7.1398830413818359e-01" cType="1" res="-3.3573948312550783e-03" rms="4.5199078321456909e-01" purity="4.9410367012023926e-01" nType="0">
        <Node pos="l" depth="1" NCoef="0" IVar="0" Cut="2.3120782375335693e+00" cType="1" res="-1.1047683656215668e-02" rms="4.4837516546249390e-01" purity="4.5525470376014709e-01" nType="0">
          <Node pos="l" depth="2" NCoef="0" IVar="-1" Cut="0.0000000000000000e+00" cType="1" res="-7.5715605635195971e-04" rms="4.5297536253929138e-01" purity="4.7697749733924866e-01" nType="-99"/>
          <Node pos="r" depth="2" NCoef="0" IVar="-1" Cut="0.0000000000000000e+00" cType="1" res="1.6697250539436936e-03" rms="4.0316748619079590e-01" purity="2.5851136445999146e-01" nType="-99"/>
        </Node>
        <Node pos="r" depth="1" NCoef="0" IVar="6" Cut="6.5727813720703125e+02" cType="1" res="8.3744181320071220e-03" rms="4.5720237493515015e-01" purity="5.5336910486221313e-01" nType="0">
          <Node pos="l" depth="2" NCoef="0" IVar="-1" Cut="0.0000000000000000e+00" cType="1" res="8.5610733367502689e-04" rms="4.5688593387603760e-01" purity="5.4368990659713745e-01" nType="-99"/>
          <Node pos="r" depth="2" NCoef="0" IVar="-1" Cut="0.0000000000000000e+00" cType="1" res="-1.1507655726745725e-03" rms="4.5677193999290466e-01" purity="5.8642673492431641e-01" nType="-99"/>
        </Node>
      </Node>
    </BinaryTree>
    <BinaryTree type="DecisionTree" boostWeight="1.0000000000000000e+00" itree="766">
      <Node pos="s" depth="0" NCoef="0" IVar="6" Cut="6.4917767333984375e+02" cType="1" res="2.5817437563091516e-03" rms="4.4743528962135315e-01" purity="5.0315856933593750e-01" nType="0">
        <Node pos="l" depth="1" NCoef="0" IVar="8" Cut="1.0436526489257812e+02" cType="1" res="-2.5214715860784054e-03" rms="4.4631648063659668e-01" purity="4.7760793566703796e-01" nType="0">
          <Node pos="l" depth="2" NCoef="0" IVar="-1" Cut="0.0000000000000000e+00" cType="1" res="-3.8250745274126530e-03" rms="4.5505276322364807e-01" purity="3.7022367119789124e-01" nType="-99"/>
          <Node pos="r" depth="2" NCoef="0" IVar="-1" Cut="0.0000000000000000e+00" cType="1" res="1.9355519907549024e-04" rms="4.4494250416755676e-01" purity="4.8878684639930725e-01" nType="-99"/>
        </Node>
        <Node pos="r" depth="1" NCoef="0" IVar="0" Cut="1.7362091541290283e+00" cType="1" res="1.9087539985775948e-02" rms="4.5063930749893188e-01" purity="5.8579933643341064e-01" nType="0">
          <Node pos="l" depth="2" NCoef="0" IVar="-1" Cut="0.0000000000000000e+00" cType="1" res="4.5456227962858975e-04" rms="4.4600093364715576e-01" purity="6.3447964191436768e-01" nType="-99"/>
          <Node pos="r" depth="2" NCoef="0" IVar="-1" Cut="0.0000000000000000e+00" cType="1" res="2.5347871705889702e-03" rms="4.6266949176788330e-01" purity="4.4646850228309631e-01" nType="-99"/>
        </Node>
      </Node>
    </BinaryTree>
    <BinaryTree type="DecisionTree" boostWeight="1.0000000000000000e+00" itree="767">
      <Node pos="s" depth="0" NCoef="0" IVar="8" Cut="2.8190701293945312e+02" cType="1" res="-8.8520563440397382e-04" rms="4.5050939917564392e-01" purity="4.9860051274299622e-01" nType="0">
        <Node pos="l" depth="1" NCoef="0" IVar="8" Cut="2.2548574829101562e+02" cType="1" res="4.0331548079848289e-03" rms="4.5523038506507874e-01" purity="5.3194195032119751e-01" nType="0">
          <Node pos="l" depth="2" NCoef="0" IVar="-1" Cut="0.0000000000000000e+00" cType="1" res="4.3414454557932913e-04" rms="4.5711350440979004e-01" purity="5.3670537471771240e-01" nType="-99"/>
          <Node pos="r" depth="2" NCoef="0" IVar="-1" Cut="0.0000000000000000e+00" cType="1" res="-7.5861904770135880e-04" rms="4.4763866066932678e-01" purity="5.1413291692733765e-01" nType="-99"/>
        </Node>
        <Node pos="r" depth="1" NCoef="0" IVar="1" Cut="9.5982307195663452e-01" cType="1" res="-1.2154672294855118e-02" rms="4.3929344415664673e-01" purity="4.2220517992973328e-01" nType="0">
          <Node pos="l" depth="2" NCoef="0" IVar="-1" Cut="0.0000000000000000e+00" cType="1" res="-1.8789891619235277e-03" rms="4.3349099159240723e-01" purity="3.2866534590721130e-01" nType="-99"/>
          <Node pos="r" depth="2" NCoef="0" IVar="-1" Cut="0.0000000000000000e+00" cType="1" res="4.7898406046442688e-04" rms="4.4675481319427490e-01" purity="5.5916160345077515e-01" nType="-99"/>
        </Node>
      </Node>
    </BinaryTree>
    <BinaryTree type="DecisionTree" boostWeight="1.0000000000000000e+00" itree="768">
      <Node pos="s" depth="0" NCoef="0" IVar="5" Cut="1.7126696109771729e+00" cType="1" res="6.6320216283202171e-03" rms="4.5198553800582886e-01" purity="5.0518870353698730e-01" nType="0">
        <Node pos="l" depth="1" NCoef="0" IVar="7" Cut="-5.7119804620742798e-01" cType="1" res="3.8454795721918344e-03" rms="4.5241713523864746e-01" purity="5.1886039972305298e-01" nType="0">
          <Node pos="l" depth="2" NCoef="0" IVar="-1" Cut="0.0000000000000000e+00" cType="1" res="-3.7107360549271107e-04" rms="4.5528665184974670e-01" purity="5.3062802553176880e-01" nType="-99"/>
          <Node pos="r" depth="2" NCoef="0" IVar="-1" Cut="0.0000000000000000e+00" cType="1" res="6.2084366800263524e-04" rms="4.5012518763542175e-01" purity="5.1024311780929565e-01" nType="-99"/>
        </Node>
        <Node pos="r" depth="1" NCoef="0" IVar="8" Cut="2.6351986694335938e+02" cType="1" res="2.9854822903871536e-02" rms="4.4769838452339172e-01" purity="3.9125019311904907e-01" nType="0">
          <Node pos="l" depth="2" NCoef="0" IVar="-1" Cut="0.0000000000000000e+00" cType="1" res="3.1346112955361605e-03" rms="4.6955630183219910e-01" purity="4.6273696422576904e-01" nType="-99"/>
          <Node pos="r" depth="2" NCoef="0" IVar="-1" Cut="0.0000000000000000e+00" cType="1" res="4.9811555072665215e-05" rms="4.2221206426620483e-01" purity="3.1819930672645569e-01" nType="-99"/>
        </Node>
      </Node>
    </BinaryTree>
    <BinaryTree type="DecisionTree" boostWeight="1.0000000000000000e+00" itree="769">
      <Node pos="s" depth="0" NCoef="0" IVar="1" Cut="9.1367799043655396e-01" cType="1" res="1.9311797805130482e-03" rms="4.4954523444175720e-01" purity="5.0345253944396973e-01" nType="0">
        <Node pos="l" depth="1" NCoef="0" IVar="-1" Cut="0.0000000000000000e+00" cType="1" res="-1.9381132442504168e-03" rms="4.1121816635131836e-01" purity="2.7274450659751892e-01" nType="-99"/>
        <Node pos="r" depth="1" NCoef="0" IVar="3" Cut="1.2361612701416016e+02" cType="1" res="4.2481254786252975e-03" rms="4.5251625776290894e-01" purity="5.2268248796463013e-01" nType="0">
          <Node pos="l" depth="2" NCoef="0" IVar="-1" Cut="0.0000000000000000e+00" cType="1" res="7.0722971577197313e-04" rms="4.5463511347770691e-01" purity="5.3188997507095337e-01" nType="-99"/>
          <Node pos="r" depth="2" NCoef="0" IVar="-1" Cut="0.0000000000000000e+00" cType="1" res="-2.8049011598341167e-04" rms="4.5024013519287109e-01" purity="5.1375788450241089e-01" nType="-99"/>
        </Node>
      </Node>
    </BinaryTree>
    <BinaryTree type="DecisionTree" boostWeight="1.0000000000000000e+00" itree="770">
      <Node pos="s" depth="0" NCoef="0" IVar="1" Cut="9.1366451978683472e-01" cType="1" res="-2.7182209305465221e-03" rms="4.4963130354881287e-01" purity="4.9586802721023560e-01" nType="0">
        <Node pos="l" depth="1" NCoef="0" IVar="-1" Cut="0.0000000000000000e+00" cType="1" res="-2.9594404622912407e-03" rms="4.0717661380767822e-01" purity="2.6070821285247803e-01" nType="-99"/>
        <Node pos="r" depth="1" NCoef="0" IVar="3" Cut="1.1622031402587891e+02" cType="1" res="2.1012785146012902e-04" rms="4.5281314849853516e-01" purity="5.1516216993331909e-01" nType="0">
          <Node pos="l" depth="2" NCoef="0" IVar="-1" Cut="0.0000000000000000e+00" cType="1" res="-1.1351399589329958e-03" rms="4.5702883601188660e-01" purity="4.4449877738952637e-01" nType="-99"/>
          <Node pos="r" depth="2" NCoef="0" IVar="-1" Cut="0.0000000000000000e+00" cType="1" res="3.1457815202884376e-04" rms="4.5136111974716187e-01" purity="5.3634572029113770e-01" nType="-99"/>
        </Node>
      </Node>
    </BinaryTree>
    <BinaryTree type="DecisionTree" boostWeight="1.0000000000000000e+00" itree="771">
      <Node pos="s" depth="0" NCoef="0" IVar="0" Cut="9.9338400363922119e-01" cType="1" res="2.4156398139894009e-03" rms="4.4658017158508301e-01" purity="5.0458103418350220e-01" nType="0">
        <Node pos="l" depth="1" NCoef="0" IVar="5" Cut="1.5834770202636719e+00" cType="1" res="1.6230186447501183e-02" rms="4.4144716858863831e-01" purity="5.5022102594375610e-01" nType="0">
          <Node pos="l" depth="2" NCoef="0" IVar="-1" Cut="0.0000000000000000e+00" cType="1" res="1.3306724140420556e-03" rms="4.4403415918350220e-01" purity="5.8649080991744995e-01" nType="-99"/>
          <Node pos="r" depth="2" NCoef="0" IVar="-1" Cut="0.0000000000000000e+00" cType="1" res="-1.6773354727774858e-03" rms="4.2837187647819519e-01" purity="4.1283920407295227e-01" nType="-99"/>
        </Node>
        <Node pos="r" depth="1" NCoef="0" IVar="6" Cut="3.7629144287109375e+02" cType="1" res="-3.5517462529242039e-03" rms="4.4864773750305176e-01" purity="4.8486617207527161e-01" nType="0">
          <Node pos="l" depth="2" NCoef="0" IVar="-1" Cut="0.0000000000000000e+00" cType="1" res="-1.4248432125896215e-03" rms="4.3865936994552612e-01" purity="3.5629713535308838e-01" nType="-99"/>
          <Node pos="r" depth="2" NCoef="0" IVar="-1" Cut="0.0000000000000000e+00" cType="1" res="1.2840493582189083e-04" rms="4.5185062289237976e-01" purity="5.2885276079177856e-01" nType="-99"/>
        </Node>
      </Node>
    </BinaryTree>
    <BinaryTree type="DecisionTree" boostWeight="1.0000000000000000e+00" itree="772">
      <Node pos="s" depth="0" NCoef="0" IVar="7" Cut="7.1388429403305054e-01" cType="1" res="1.4429613947868347e-03" rms="4.4872188568115234e-01" purity="4.9951162934303284e-01" nType="0">
        <Node pos="l" depth="1" NCoef="0" IVar="1" Cut="9.7267180681228638e-01" cType="1" res="-5.9763882309198380e-03" rms="4.4527614116668701e-01" purity="4.6151250600814819e-01" nType="0">
          <Node pos="l" depth="2" NCoef="0" IVar="-1" Cut="0.0000000000000000e+00" cType="1" res="-7.1397668216377497e-04" rms="4.4579109549522400e-01" purity="4.0284252166748047e-01" nType="-99"/>
          <Node pos="r" depth="2" NCoef="0" IVar="-1" Cut="0.0000000000000000e+00" cType="1" res="5.7684711646288633e-04" rms="4.4323286414146423e-01" purity="6.3592910766601562e-01" nType="-99"/>
        </Node>
        <Node pos="r" depth="1" NCoef="0" IVar="0" Cut="1.3047919273376465e+00" cType="1" res="1.2723511084914207e-02" rms="4.5367830991744995e-01" purity="5.5728620290756226e-01" nType="0">
          <Node pos="l" depth="2" NCoef="0" IVar="-1" Cut="0.0000000000000000e+00" cType="1" res="1.0946553084068000e-04" rms="4.4873937964439392e-01" purity="5.7329386472702026e-01" nType="-99"/>
          <Node pos="r" depth="2" NCoef="0" IVar="-1" Cut="0.0000000000000000e+00" cType="1" res="1.1498180683702230e-03" rms="4.5866870880126953e-01" purity="5.4005950689315796e-01" nType="-99"/>
        </Node>
      </Node>
    </BinaryTree>
    <BinaryTree type="DecisionTree" boostWeight="1.0000000000000000e+00" itree="773">
      <Node pos="s" depth="0" NCoef="0" IVar="6" Cut="3.3279724121093750e+02" cType="1" res="2.9736156575381756e-03" rms="4.4878211617469788e-01" purity="5.0518506765365601e-01" nType="0">
        <Node pos="l" depth="1" NCoef="0" IVar="0" Cut="1.6848316192626953e+00" cType="1" res="3.0138472095131874e-02" rms="4.4722342491149902e-01" purity="3.6691492795944214e-01" nType="0">
          <Node pos="l" depth="2" NCoef="0" IVar="-1" Cut="0.0000000000000000e+00" cType="1" res="9.0659892885014415e-04" rms="4.4996517896652222e-01" purity="3.7121978402137756e-01" nType="-99"/>
          <Node pos="r" depth="2" NCoef="0" IVar="-1" Cut="0.0000000000000000e+00" cType="1" res="4.3351799249649048e-03" rms="4.3973574042320251e-01" purity="3.5808873176574707e-01" nType="-99"/>
        </Node>
        <Node pos="r" depth="1" NCoef="0" IVar="6" Cut="7.9189880371093750e+02" cType="1" res="-2.0742192864418030e-03" rms="4.4889006018638611e-01" purity="5.3087872266769409e-01" nType="0">
          <Node pos="l" depth="2" NCoef="0" IVar="-1" Cut="0.0000000000000000e+00" cType="1" res="-2.8908485546708107e-04" rms="4.5040115714073181e-01" purity="5.1925075054168701e-01" nType="-99"/>
          <Node pos="r" depth="2" NCoef="0" IVar="-1" Cut="0.0000000000000000e+00" cType="1" res="8.6000340525060892e-04" rms="4.3966785073280334e-01" purity="5.9668457508087158e-01" nType="-99"/>
        </Node>
      </Node>
    </BinaryTree>
    <BinaryTree type="DecisionTree" boostWeight="1.0000000000000000e+00" itree="774">
      <Node pos="s" depth="0" NCoef="0" IVar="7" Cut="-1.4278675317764282e+00" cType="1" res="9.8991894628852606e-04" rms="4.5136016607284546e-01" purity="4.9774447083473206e-01" nType="0">
        <Node pos="l" depth="1" NCoef="0" IVar="-1" Cut="0.0000000000000000e+00" cType="1" res="-1.4286194927990437e-03" rms="4.5036324858665466e-01" purity="6.0677808523178101e-01" nType="-99"/>
        <Node pos="r" depth="1" NCoef="0" IVar="6" Cut="3.2835253906250000e+02" cType="1" res="3.3254183363169432e-03" rms="4.5134913921356201e-01" purity="4.8952063918113708e-01" nType="0">
          <Node pos="l" depth="2" NCoef="0" IVar="-1" Cut="0.0000000000000000e+00" cType="1" res="-1.4396419283002615e-03" rms="4.2712810635566711e-01" purity="2.9642462730407715e-01" nType="-99"/>
          <Node pos="r" depth="2" NCoef="0" IVar="-1" Cut="0.0000000000000000e+00" cType="1" res="3.4685252467170358e-04" rms="4.5513558387756348e-01" purity="5.2149921655654907e-01" nType="-99"/>
        </Node>
      </Node>
    </BinaryTree>
    <BinaryTree type="DecisionTree" boostWeight="1.0000000000000000e+00" itree="775">
      <Node pos="s" depth="0" NCoef="0" IVar="3" Cut="1.0528379821777344e+02" cType="1" res="1.2822922144550830e-05" rms="4.4855359196662903e-01" purity="5.0187659263610840e-01" nType="0">
        <Node pos="l" depth="1" NCoef="0" IVar="-1" Cut="0.0000000000000000e+00" cType="1" res="-2.0422232337296009e-03" rms="4.3698507547378540e-01" purity="3.4268632531166077e-01" nType="-99"/>
        <Node pos="r" depth="1" NCoef="0" IVar="0" Cut="9.8248398303985596e-01" cType="1" res="2.7876594103872776e-03" rms="4.4948732852935791e-01" purity="5.1634311676025391e-01" nType="0">
          <Node pos="l" depth="2" NCoef="0" IVar="-1" Cut="0.0000000000000000e+00" cType="1" res="7.8467256389558315e-04" rms="4.4842407107353210e-01" purity="5.5522400140762329e-01" nType="-99"/>
          <Node pos="r" depth="2" NCoef="0" IVar="-1" Cut="0.0000000000000000e+00" cType="1" res="-1.3555577606894076e-04" rms="4.4979673624038696e-01" purity="5.0085085630416870e-01" nType="-99"/>
        </Node>
      </Node>
    </BinaryTree>
    <BinaryTree type="DecisionTree" boostWeight="1.0000000000000000e+00" itree="776">
      <Node pos="s" depth="0" NCoef="0" IVar="0" Cut="8.3422607183456421e-01" cType="1" res="1.4214943803381175e-04" rms="4.4750320911407471e-01" purity="4.9781987071037292e-01" nType="0">
        <Node pos="l" depth="1" NCoef="0" IVar="0" Cut="7.3330622911453247e-01" cType="1" res="1.9899293780326843e-02" rms="4.5009982585906982e-01" purity="5.2153187990188599e-01" nType="0">
          <Node pos="l" depth="2" NCoef="0" IVar="-1" Cut="0.0000000000000000e+00" cType="1" res="3.8201536517590284e-04" rms="4.4937831163406372e-01" purity="4.9183118343353271e-01" nType="-99"/>
          <Node pos="r" depth="2" NCoef="0" IVar="-1" Cut="0.0000000000000000e+00" cType="1" res="2.2811922244727612e-03" rms="4.5041200518608093e-01" purity="5.9661632776260376e-01" nType="-99"/>
        </Node>
        <Node pos="r" depth="1" NCoef="0" IVar="5" Cut="1.6120668649673462e+00" cType="1" res="-5.2959905005991459e-03" rms="4.4663247466087341e-01" purity="4.9129310250282288e-01" nType="0">
          <Node pos="l" depth="2" NCoef="0" IVar="-1" Cut="0.0000000000000000e+00" cType="1" res="-7.4415424933249597e-06" rms="4.5095232129096985e-01" purity="5.1747328042984009e-01" nType="-99"/>
          <Node pos="r" depth="2" NCoef="0" IVar="-1" Cut="0.0000000000000000e+00" cType="1" res="-2.6650365907698870e-03" rms="4.1660666465759277e-01" purity="3.2467818260192871e-01" nType="-99"/>
        </Node>
      </Node>
    </BinaryTree>
    <BinaryTree type="DecisionTree" boostWeight="1.0000000000000000e+00" itree="777">
      <Node pos="s" depth="0" NCoef="0" IVar="5" Cut="1.0483833551406860e+00" cType="1" res="6.2575069023296237e-04" rms="4.5175728201866150e-01" purity="4.9989071488380432e-01" nType="0">
        <Node pos="l" depth="1" NCoef="0" IVar="5" Cut="9.4651061296463013e-01" cType="1" res="-1.4456449076533318e-02" rms="4.5645377039909363e-01" purity="5.4816007614135742e-01" nType="0">
          <Node pos="l" depth="2" NCoef="0" IVar="-1" Cut="0.0000000000000000e+00" cType="1" res="2.5832379469648004e-04" rms="4.4767662882804871e-01" purity="5.8872139453887939e-01" nType="-99"/>
          <Node pos="r" depth="2" NCoef="0" IVar="-1" Cut="0.0000000000000000e+00" cType="1" res="-1.4415263431146741e-03" rms="4.6198558807373047e-01" purity="5.1974749565124512e-01" nType="-99"/>
        </Node>
        <Node pos="r" depth="1" NCoef="0" IVar="4" Cut="2.0244033336639404e+00" cType="1" res="4.6702786348760128e-03" rms="4.5040366053581238e-01" purity="4.8694655299186707e-01" nType="0">
          <Node pos="l" depth="2" NCoef="0" IVar="-1" Cut="0.0000000000000000e+00" cType="1" res="1.1230380041524768e-03" rms="4.5673778653144836e-01" purity="6.1524713039398193e-01" nType="-99"/>
          <Node pos="r" depth="2" NCoef="0" IVar="-1" Cut="0.0000000000000000e+00" cType="1" res="-1.2379068357404321e-04" rms="4.4803947210311890e-01" purity="4.4371864199638367e-01" nType="-99"/>
        </Node>
      </Node>
    </BinaryTree>
    <BinaryTree type="DecisionTree" boostWeight="1.0000000000000000e+00" itree="778">
      <Node pos="s" depth="0" NCoef="0" IVar="5" Cut="1.7107681035995483e+00" cType="1" res="3.3400952816009521e-03" rms="4.4998010993003845e-01" purity="5.0403058528900146e-01" nType="0">
        <Node pos="l" depth="1" NCoef="0" IVar="0" Cut="2.1812894344329834e+00" cType="1" res="6.6579906269907951e-03" rms="4.5132079720497131e-01" purity="5.2359986305236816e-01" nType="0">
          <Node pos="l" depth="2" NCoef="0" IVar="-1" Cut="0.0000000000000000e+00" cType="1" res="1.7790353740565479e-04" rms="4.5279851555824280e-01" purity="5.4556000232696533e-01" nType="-99"/>
          <Node pos="r" depth="2" NCoef="0" IVar="-1" Cut="0.0000000000000000e+00" cType="1" res="2.4964418262243271e-03" rms="4.3706119060516357e-01" purity="3.2837504148483276e-01" nType="-99"/>
        </Node>
        <Node pos="r" depth="1" NCoef="0" IVar="-1" Cut="0.0000000000000000e+00" cType="1" res="-1.9021339248865843e-03" rms="4.3629381060600281e-01" purity="3.2427006959915161e-01" nType="-99"/>
      </Node>
    </BinaryTree>
    <BinaryTree type="DecisionTree" boostWeight="1.0000000000000000e+00" itree="779">
      <Node pos="s" depth="0" NCoef="0" IVar="7" Cut="9.9958300590515137e-01" cType="1" res="6.9723324850201607e-03" rms="4.5300972461700439e-01" purity="5.0687807798385620e-01" nType="0">
        <Node pos="l" depth="1" NCoef="0" IVar="1" Cut="9.4592112302780151e-01" cType="1" res="1.3472309336066246e-02" rms="4.5245724916458130e-01" purity="4.7835612297058105e-01" nType="0">
          <Node pos="l" depth="2" NCoef="0" IVar="-1" Cut="0.0000000000000000e+00" cType="1" res="1.7839620122686028e-03" rms="4.5130255818367004e-01" purity="3.6785492300987244e-01" nType="-99"/>
          <Node pos="r" depth="2" NCoef="0" IVar="-1" Cut="0.0000000000000000e+00" cType="1" res="2.2524081578012556e-04" rms="4.5290854573249817e-01" purity="5.4406917095184326e-01" nType="-99"/>
        </Node>
        <Node pos="r" depth="1" NCoef="0" IVar="8" Cut="1.3456739807128906e+02" cType="1" res="-1.0115750133991241e-02" rms="4.5401528477668762e-01" purity="5.8186078071594238e-01" nType="0">
          <Node pos="l" depth="2" NCoef="0" IVar="-1" Cut="0.0000000000000000e+00" cType="1" res="-2.0732942502945662e-03" rms="4.6820548176765442e-01" purity="4.8736557364463806e-01" nType="-99"/>
          <Node pos="r" depth="2" NCoef="0" IVar="-1" Cut="0.0000000000000000e+00" cType="1" res="-1.5005936438683420e-04" rms="4.5041379332542419e-01" purity="6.0354220867156982e-01" nType="-99"/>
        </Node>
      </Node>
    </BinaryTree>
    <BinaryTree type="DecisionTree" boostWeight="1.0000000000000000e+00" itree="780">
      <Node pos="s" depth="0" NCoef="0" IVar="0" Cut="1.1323347091674805e+00" cType="1" res="3.6498712142929435e-04" rms="4.5027396082878113e-01" purity="5.0147175788879395e-01" nType="0">
        <Node pos="l" depth="1" NCoef="0" IVar="4" Cut="2.0477633476257324e+00" cType="1" res="1.2537549249827862e-02" rms="4.4710105657577515e-01" purity="5.5488455295562744e-01" nType="0">
          <Node pos="l" depth="2" NCoef="0" IVar="-1" Cut="0.0000000000000000e+00" cType="1" res="1.6205895226448774e-03" rms="4.4918727874755859e-01" purity="6.1993509531021118e-01" nType="-99"/>
          <Node pos="r" depth="2" NCoef="0" IVar="-1" Cut="0.0000000000000000e+00" cType="1" res="-2.2750021889805794e-04" rms="4.4480994343757629e-01" purity="5.0779849290847778e-01" nType="-99"/>
        </Node>
        <Node pos="r" depth="1" NCoef="0" IVar="5" Cut="1.5839219093322754e+00" cType="1" res="-7.3112845420837402e-03" rms="4.5209494233131409e-01" purity="4.6778851747512817e-01" nType="0">
          <Node pos="l" depth="2" NCoef="0" IVar="-1" Cut="0.0000000000000000e+00" cType="1" res="-6.4816244412213564e-04" rms="4.5560774207115173e-01" purity="4.8701494932174683e-01" nType="-99"/>
          <Node pos="r" depth="2" NCoef="0" IVar="-1" Cut="0.0000000000000000e+00" cType="1" res="1.2573747662827373e-03" rms="4.3189302086830139e-01" purity="3.6518105864524841e-01" nType="-99"/>
        </Node>
      </Node>
    </BinaryTree>
    <BinaryTree type="DecisionTree" boostWeight="1.0000000000000000e+00" itree="781">
      <Node pos="s" depth="0" NCoef="0" IVar="2" Cut="1.0816646575927734e+02" cType="1" res="-1.1985194869339466e-03" rms="4.4826507568359375e-01" purity="4.9816089868545532e-01" nType="0">
        <Node pos="l" depth="1" NCoef="0" IVar="2" Cut="8.6026390075683594e+01" cType="1" res="-1.3650506734848022e-02" rms="4.5247098803520203e-01" purity="4.7732236981391907e-01" nType="0">
          <Node pos="l" depth="2" NCoef="0" IVar="-1" Cut="0.0000000000000000e+00" cType="1" res="-1.1045363498851657e-03" rms="4.5550045371055603e-01" purity="4.4689983129501343e-01" nType="-99"/>
          <Node pos="r" depth="2" NCoef="0" IVar="-1" Cut="0.0000000000000000e+00" cType="1" res="3.5994820063933730e-04" rms="4.4232329726219177e-01" purity="5.7128757238388062e-01" nType="-99"/>
        </Node>
        <Node pos="r" depth="1" NCoef="0" IVar="0" Cut="1.5980368852615356e+00" cType="1" res="2.0989719778299332e-02" rms="4.3979814648628235e-01" purity="5.3529316186904907e-01" nType="0">
          <Node pos="l" depth="2" NCoef="0" IVar="-1" Cut="0.0000000000000000e+00" cType="1" res="1.9159477669745684e-03" rms="4.2328938841819763e-01" purity="7.2309756278991699e-01" nType="-99"/>
          <Node pos="r" depth="2" NCoef="0" IVar="-1" Cut="0.0000000000000000e+00" cType="1" res="3.8640576531179249e-04" rms="4.4942533969879150e-01" purity="4.1537931561470032e-01" nType="-99"/>
        </Node>
      </Node>
    </BinaryTree>
    <BinaryTree type="DecisionTree" boostWeight="1.0000000000000000e+00" itree="782">
      <Node pos="s" depth="0" NCoef="0" IVar="2" Cut="1.6802473449707031e+02" cType="1" res="6.8286391906440258e-03" rms="4.5067417621612549e-01" purity="5.0495785474777222e-01" nType="0">
        <Node pos="l" depth="1" NCoef="0" IVar="5" Cut="1.0504372119903564e+00" cType="1" res="1.0438555851578712e-02" rms="4.5234996080398560e-01" purity="5.2185887098312378e-01" nType="0">
          <Node pos="l" depth="2" NCoef="0" IVar="-1" Cut="0.0000000000000000e+00" cType="1" res="1.3994495384395123e-03" rms="4.4860041141510010e-01" purity="6.1444264650344849e-01" nType="-99"/>
          <Node pos="r" depth="2" NCoef="0" IVar="-1" Cut="0.0000000000000000e+00" cType="1" res="2.1754932822659612e-04" rms="4.5328611135482788e-01" purity="4.9399173259735107e-01" nType="-99"/>
        </Node>
        <Node pos="r" depth="1" NCoef="0" IVar="8" Cut="3.4593011474609375e+02" cType="1" res="-2.2398307919502258e-02" rms="4.3577009439468384e-01" purity="3.6812198162078857e-01" nType="0">
          <Node pos="l" depth="2" NCoef="0" IVar="-1" Cut="0.0000000000000000e+00" cType="1" res="-2.1879647101741284e-04" rms="4.5155498385429382e-01" purity="4.4644758105278015e-01" nType="-99"/>
          <Node pos="r" depth="2" NCoef="0" IVar="-1" Cut="0.0000000000000000e+00" cType="1" res="-3.4789892379194498e-03" rms="4.1640132665634155e-01" purity="2.8034687042236328e-01" nType="-99"/>
        </Node>
      </Node>
    </BinaryTree>
    <BinaryTree type="DecisionTree" boostWeight="1.0000000000000000e+00" itree="783">
      <Node pos="s" depth="0" NCoef="0" IVar="5" Cut="1.0549640655517578e+00" cType="1" res="6.2781358137726784e-03" rms="4.5099559426307678e-01" purity="5.0454634428024292e-01" nType="0">
        <Node pos="l" depth="1" NCoef="0" IVar="2" Cut="1.2245899200439453e+02" cType="1" res="1.9993964582681656e-02" rms="4.4891256093978882e-01" purity="5.8900970220565796e-01" nType="0">
          <Node pos="l" depth="2" NCoef="0" IVar="-1" Cut="0.0000000000000000e+00" cType="1" res="1.3298464473336935e-03" rms="4.5151466131210327e-01" purity="6.0703688859939575e-01" nType="-99"/>
          <Node pos="r" depth="2" NCoef="0" IVar="-1" Cut="0.0000000000000000e+00" cType="1" res="-1.4557025860995054e-04" rms="4.4166809320449829e-01" purity="5.4506975412368774e-01" nType="-99"/>
        </Node>
        <Node pos="r" depth="1" NCoef="0" IVar="7" Cut="1.1423897743225098e+00" cType="1" res="2.1571337711066008e-03" rms="4.5153820514678955e-01" purity="4.7916886210441589e-01" nType="0">
          <Node pos="l" depth="2" NCoef="0" IVar="-1" Cut="0.0000000000000000e+00" cType="1" res="4.2378410580568016e-04" rms="4.5169970393180847e-01" purity="4.5388042926788330e-01" nType="-99"/>
          <Node pos="r" depth="2" NCoef="0" IVar="-1" Cut="0.0000000000000000e+00" cType="1" res="-9.7919348627328873e-04" rms="4.5015415549278259e-01" purity="5.8273571729660034e-01" nType="-99"/>
        </Node>
      </Node>
    </BinaryTree>
    <BinaryTree type="DecisionTree" boostWeight="1.0000000000000000e+00" itree="784">
      <Node pos="s" depth="0" NCoef="0" IVar="8" Cut="2.5782583618164062e+02" cType="1" res="6.0261222533881664e-03" rms="4.5073714852333069e-01" purity="5.0460159778594971e-01" nType="0">
        <Node pos="l" depth="1" NCoef="0" IVar="8" Cut="9.4480361938476562e+01" cType="1" res="1.2542640790343285e-02" rms="4.5422503352165222e-01" purity="5.4328000545501709e-01" nType="0">
          <Node pos="l" depth="2" NCoef="0" IVar="-1" Cut="0.0000000000000000e+00" cType="1" res="-2.2421451285481453e-03" rms="4.5539787411689758e-01" purity="3.9547970890998840e-01" nType="-99"/>
          <Node pos="r" depth="2" NCoef="0" IVar="-1" Cut="0.0000000000000000e+00" cType="1" res="8.2677695900201797e-04" rms="4.5382753014564514e-01" purity="5.5696493387222290e-01" nType="-99"/>
        </Node>
        <Node pos="r" depth="1" NCoef="0" IVar="2" Cut="1.1898619079589844e+02" cType="1" res="-5.4181520827114582e-03" rms="4.4431430101394653e-01" purity="4.3667492270469666e-01" nType="0">
          <Node pos="l" depth="2" NCoef="0" IVar="-1" Cut="0.0000000000000000e+00" cType="1" res="-1.1388298589736223e-03" rms="4.4253554940223694e-01" purity="4.3446579575538635e-01" nType="-99"/>
          <Node pos="r" depth="2" NCoef="0" IVar="-1" Cut="0.0000000000000000e+00" cType="1" res="7.5109669705852866e-04" rms="4.4585311412811279e-01" purity="4.3943211436271667e-01" nType="-99"/>
        </Node>
      </Node>
    </BinaryTree>
    <BinaryTree type="DecisionTree" boostWeight="1.0000000000000000e+00" itree="785">
      <Node pos="s" depth="0" NCoef="0" IVar="7" Cut="9.9959301948547363e-01" cType="1" res="-5.2302847616374493e-03" rms="4.4642755389213562e-01" purity="4.9653825163841248e-01" nType="0">
        <Node pos="l" depth="1" NCoef="0" IVar="0" Cut="9.7566622495651245e-01" cType="1" res="-1.1904725804924965e-02" rms="4.4478824734687805e-01" purity="4.5384120941162109e-01" nType="0">
          <Node pos="l" depth="2" NCoef="0" IVar="-1" Cut="0.0000000000000000e+00" cType="1" res="2.2635419736616313e-04" rms="4.4204348325729370e-01" purity="5.1407778263092041e-01" nType="-99"/>
          <Node pos="r" depth="2" NCoef="0" IVar="-1" Cut="0.0000000000000000e+00" cType="1" res="-1.0501251090317965e-03" rms="4.4567018747329712e-01" purity="4.3092539906501770e-01" nType="-99"/>
        </Node>
        <Node pos="r" depth="1" NCoef="0" IVar="7" Cut="1.1294453144073486e+00" cType="1" res="1.1389523744583130e-02" rms="4.5005369186401367e-01" purity="6.0285675525665283e-01" nType="0">
          <Node pos="l" depth="2" NCoef="0" IVar="-1" Cut="0.0000000000000000e+00" cType="1" res="1.7219881992787123e-03" rms="4.6631819009780884e-01" purity="5.6126290559768677e-01" nType="-99"/>
          <Node pos="r" depth="2" NCoef="0" IVar="-1" Cut="0.0000000000000000e+00" cType="1" res="1.3866170775145292e-04" rms="4.4453915953636169e-01" purity="6.1579501628875732e-01" nType="-99"/>
        </Node>
      </Node>
    </BinaryTree>
    <BinaryTree type="DecisionTree" boostWeight="1.0000000000000000e+00" itree="786">
      <Node pos="s" depth="0" NCoef="0" IVar="5" Cut="9.5657259225845337e-01" cType="1" res="-6.5212072804570198e-03" rms="4.4946533441543579e-01" purity="4.9300181865692139e-01" nType="0">
        <Node pos="l" depth="1" NCoef="0" IVar="-1" Cut="0.0000000000000000e+00" cType="1" res="8.6193054448813200e-04" rms="4.4645211100578308e-01" purity="6.0969507694244385e-01" nType="-99"/>
        <Node pos="r" depth="1" NCoef="0" IVar="1" Cut="9.4668471813201904e-01" cType="1" res="-9.3599492684006691e-03" rms="4.4971647858619690e-01" purity="4.7981017827987671e-01" nType="0">
          <Node pos="l" depth="2" NCoef="0" IVar="-1" Cut="0.0000000000000000e+00" cType="1" res="-1.2258978094905615e-03" rms="4.3857952952384949e-01" purity="3.4814867377281189e-01" nType="-99"/>
          <Node pos="r" depth="2" NCoef="0" IVar="-1" Cut="0.0000000000000000e+00" cType="1" res="-1.5870940114837140e-04" rms="4.5622256398200989e-01" purity="5.5957150459289551e-01" nType="-99"/>
        </Node>
      </Node>
    </BinaryTree>
    <BinaryTree type="DecisionTree" boostWeight="1.0000000000000000e+00" itree="787">
      <Node pos="s" depth="0" NCoef="0" IVar="0" Cut="2.1608362197875977e+00" cType="1" res="6.7353452323004603e-04" rms="4.4966962933540344e-01" purity="4.9841621518135071e-01" nType="0">
        <Node pos="l" depth="1" NCoef="0" IVar="2" Cut="9.2325607299804688e+01" cType="1" res="-1.7487732693552971e-03" rms="4.5200833678245544e-01" purity="5.2333015203475952e-01" nType="0">
          <Node pos="l" depth="2" NCoef="0" IVar="-1" Cut="0.0000000000000000e+00" cType="1" res="-4.4972874457016587e-04" rms="4.5708125829696655e-01" purity="4.7066867351531982e-01" nType="-99"/>
          <Node pos="r" depth="2" NCoef="0" IVar="-1" Cut="0.0000000000000000e+00" cType="1" res="3.6728594568558037e-04" rms="4.4479376077651978e-01" purity="5.9545093774795532e-01" nType="-99"/>
        </Node>
        <Node pos="r" depth="1" NCoef="0" IVar="0" Cut="2.4305164813995361e+00" cType="1" res="2.0110452547669411e-02" rms="4.2994970083236694e-01" purity="2.9850324988365173e-01" nType="0">
          <Node pos="l" depth="2" NCoef="0" IVar="-1" Cut="0.0000000000000000e+00" cType="1" res="2.4355687201023102e-03" rms="4.5114281773567200e-01" purity="3.5713472962379456e-01" nType="-99"/>
          <Node pos="r" depth="2" NCoef="0" IVar="-1" Cut="0.0000000000000000e+00" cType="1" res="3.4402828896418214e-04" rms="4.0581047534942627e-01" purity="2.3684716224670410e-01" nType="-99"/>
        </Node>
      </Node>
    </BinaryTree>
    <BinaryTree type="DecisionTree" boostWeight="1.0000000000000000e+00" itree="788">
      <Node pos="s" depth="0" NCoef="0" IVar="0" Cut="1.1323347091674805e+00" cType="1" res="5.3989589214324951e-03" rms="4.5162189006805420e-01" purity="5.0435638427734375e-01" nType="0">
        <Node pos="l" depth="1" NCoef="0" IVar="3" Cut="1.3334454345703125e+02" cType="1" res="1.7931766808032990e-02" rms="4.4714501500129700e-01" purity="5.5598199367523193e-01" nType="0">
          <Node pos="l" depth="2" NCoef="0" IVar="-1" Cut="0.0000000000000000e+00" cType="1" res="1.1319250334054232e-03" rms="4.4680175185203552e-01" purity="5.7783454656600952e-01" nType="-99"/>
          <Node pos="r" depth="2" NCoef="0" IVar="-1" Cut="0.0000000000000000e+00" cType="1" res="-9.6701132133603096e-04" rms="4.4747367501258850e-01" purity="4.3240907788276672e-01" nType="-99"/>
        </Node>
        <Node pos="r" depth="1" NCoef="0" IVar="5" Cut="1.6120668649673462e+00" cType="1" res="-2.2801044397056103e-03" rms="4.5417234301567078e-01" purity="4.7272446751594543e-01" nType="0">
          <Node pos="l" depth="2" NCoef="0" IVar="-1" Cut="0.0000000000000000e+00" cType="1" res="-3.8787789526395500e-04" rms="4.5584899187088013e-01" purity="4.9246105551719666e-01" nType="-99"/>
          <Node pos="r" depth="2" NCoef="0" IVar="-1" Cut="0.0000000000000000e+00" cType="1" res="1.9375201081857085e-03" rms="4.4288778305053711e-01" purity="3.5609057545661926e-01" nType="-99"/>
        </Node>
      </Node>
    </BinaryTree>
    <BinaryTree type="DecisionTree" boostWeight="1.0000000000000000e+00" itree="789">
      <Node pos="s" depth="0" NCoef="0" IVar="4" Cut="2.6469421386718750e+00" cType="1" res="1.5208984259516001e-03" rms="4.4931179285049438e-01" purity="5.0325441360473633e-01" nType="0">
        <Node pos="l" depth="1" NCoef="0" IVar="0" Cut="1.9585981369018555e+00" cType="1" res="-6.1497092247009277e-04" rms="4.5385840535163879e-01" purity="5.3614997863769531e-01" nType="0">
          <Node pos="l" depth="2" NCoef="0" IVar="-1" Cut="0.0000000000000000e+00" cType="1" res="1.2265566329006106e-04" rms="4.5429074764251709e-01" purity="5.6309431791305542e-01" nType="-99"/>
          <Node pos="r" depth="2" NCoef="0" IVar="-1" Cut="0.0000000000000000e+00" cType="1" res="-1.3876878656446934e-03" rms="4.5042398571968079e-01" purity="3.5828417539596558e-01" nType="-99"/>
        </Node>
        <Node pos="r" depth="1" NCoef="0" IVar="5" Cut="1.4294205904006958e+00" cType="1" res="1.6912210732698441e-02" rms="4.1475334763526917e-01" purity="2.6620492339134216e-01" nType="0">
          <Node pos="l" depth="2" NCoef="0" IVar="-1" Cut="0.0000000000000000e+00" cType="1" res="2.7561192400753498e-03" rms="4.4090512394905090e-01" purity="3.1401863694190979e-01" nType="-99"/>
          <Node pos="r" depth="2" NCoef="0" IVar="-1" Cut="0.0000000000000000e+00" cType="1" res="-9.2368945479393005e-04" rms="3.7682792544364929e-01" purity="2.0448078215122223e-01" nType="-99"/>
        </Node>
      </Node>
    </BinaryTree>
    <BinaryTree type="DecisionTree" boostWeight="1.0000000000000000e+00" itree="790">
      <Node pos="s" depth="0" NCoef="0" IVar="8" Cut="2.8144006347656250e+02" cType="1" res="2.2941578645259142e-03" rms="4.4935968518257141e-01" purity="5.0435662269592285e-01" nType="0">
        <Node pos="l" depth="1" NCoef="0" IVar="7" Cut="9.9959301948547363e-01" cType="1" res="9.5087196677923203e-03" rms="4.5455977320671082e-01" purity="5.3999918699264526e-01" nType="0">
          <Node pos="l" depth="2" NCoef="0" IVar="-1" Cut="0.0000000000000000e+00" cType="1" res="1.3404218771029264e-04" rms="4.5741117000579834e-01" purity="4.9955949187278748e-01" nType="-99"/>
          <Node pos="r" depth="2" NCoef="0" IVar="-1" Cut="0.0000000000000000e+00" cType="1" res="1.0939018102362752e-03" rms="4.4797602295875549e-01" purity="6.2736260890960693e-01" nType="-99"/>
        </Node>
        <Node pos="r" depth="1" NCoef="0" IVar="7" Cut="-8.5589557886123657e-01" cType="1" res="-1.3935638591647148e-02" rms="4.3700063228607178e-01" purity="4.2417538166046143e-01" nType="0">
          <Node pos="l" depth="2" NCoef="0" IVar="-1" Cut="0.0000000000000000e+00" cType="1" res="7.0840312400832772e-04" rms="4.5883619785308838e-01" purity="5.3150761127471924e-01" nType="-99"/>
          <Node pos="r" depth="2" NCoef="0" IVar="-1" Cut="0.0000000000000000e+00" cType="1" res="-1.7316294834017754e-03" rms="4.2627498507499695e-01" purity="3.7622550129890442e-01" nType="-99"/>
        </Node>
      </Node>
    </BinaryTree>
    <BinaryTree type="DecisionTree" boostWeight="1.0000000000000000e+00" itree="791">
      <Node pos="s" depth="0" NCoef="0" IVar="1" Cut="9.1276949644088745e-01" cType="1" res="-2.7646312955766916e-03" rms="4.5097324252128601e-01" purity="4.9668169021606445e-01" nType="0">
        <Node pos="l" depth="1" NCoef="0" IVar="-1" Cut="0.0000000000000000e+00" cType="1" res="1.8635091837495565e-03" rms="4.3595412373542786e-01" purity="3.2687279582023621e-01" nType="-99"/>
        <Node pos="r" depth="1" NCoef="0" IVar="1" Cut="9.7541528940200806e-01" cType="1" res="-5.4002567194402218e-03" rms="4.5212247967720032e-01" purity="5.1104754209518433e-01" nType="0">
          <Node pos="l" depth="2" NCoef="0" IVar="-1" Cut="0.0000000000000000e+00" cType="1" res="-6.3887209398671985e-04" rms="4.5547664165496826e-01" purity="4.5575550198554993e-01" nType="-99"/>
          <Node pos="r" depth="2" NCoef="0" IVar="-1" Cut="0.0000000000000000e+00" cType="1" res="6.2650494510307908e-04" rms="4.4153916835784912e-01" purity="6.7391383647918701e-01" nType="-99"/>
        </Node>
      </Node>
    </BinaryTree>
    <BinaryTree type="DecisionTree" boostWeight="1.0000000000000000e+00" itree="792">
      <Node pos="s" depth="0" NCoef="0" IVar="8" Cut="1.4447341918945312e+02" cType="1" res="2.5528366677463055e-03" rms="4.5120543241500854e-01" purity="5.0213265419006348e-01" nType="0">
        <Node pos="l" depth="1" NCoef="0" IVar="0" Cut="1.5487678050994873e+00" cType="1" res="2.2343249991536140e-02" rms="4.6657142043113708e-01" purity="5.1360082626342773e-01" nType="0">
          <Node pos="l" depth="2" NCoef="0" IVar="-1" Cut="0.0000000000000000e+00" cType="1" res="3.7397013511508703e-04" rms="4.6459481120109558e-01" purity="5.0584882497787476e-01" nType="-99"/>
          <Node pos="r" depth="2" NCoef="0" IVar="-1" Cut="0.0000000000000000e+00" cType="1" res="3.3263596706092358e-03" rms="4.6969342231750488e-01" purity="5.3791487216949463e-01" nType="-99"/>
        </Node>
        <Node pos="r" depth="1" NCoef="0" IVar="1" Cut="9.3323338031768799e-01" cType="1" res="-3.2018711790442467e-03" rms="4.4647347927093506e-01" purity="4.9879789352416992e-01" nType="0">
          <Node pos="l" depth="2" NCoef="0" IVar="-1" Cut="0.0000000000000000e+00" cType="1" res="-1.6428020317107439e-03" rms="4.2615231871604919e-01" purity="3.2329383492469788e-01" nType="-99"/>
          <Node pos="r" depth="2" NCoef="0" IVar="-1" Cut="0.0000000000000000e+00" cType="1" res="1.2246469850651920e-04" rms="4.5160031318664551e-01" purity="5.4587042331695557e-01" nType="-99"/>
        </Node>
      </Node>
    </BinaryTree>
    <BinaryTree type="DecisionTree" boostWeight="1.0000000000000000e+00" itree="793">
      <Node pos="s" depth="0" NCoef="0" IVar="5" Cut="1.6923249959945679e+00" cType="1" res="-1.1531365453265607e-04" rms="4.4771781563758850e-01" purity="4.9953678250312805e-01" nType="0">
        <Node pos="l" depth="1" NCoef="0" IVar="3" Cut="1.3980003356933594e+02" cType="1" res="-3.8391838315874338e-03" rms="4.4778993725776672e-01" purity="5.1381844282150269e-01" nType="0">
          <Node pos="l" depth="2" NCoef="0" IVar="-1" Cut="0.0000000000000000e+00" cType="1" res="-6.6218941356055439e-05" rms="4.4985395669937134e-01" purity="5.2930605411529541e-01" nType="-99"/>
          <Node pos="r" depth="2" NCoef="0" IVar="-1" Cut="0.0000000000000000e+00" cType="1" res="-2.4981214664876461e-03" rms="4.2011904716491699e-01" purity="3.2186558842658997e-01" nType="-99"/>
        </Node>
        <Node pos="r" depth="1" NCoef="0" IVar="0" Cut="1.4000997543334961e+00" cType="1" res="2.8156792744994164e-02" rms="4.4615739583969116e-01" purity="3.9110901951789856e-01" nType="0">
          <Node pos="l" depth="2" NCoef="0" IVar="-1" Cut="0.0000000000000000e+00" cType="1" res="-2.5003720656968653e-04" rms="4.4398018717765808e-01" purity="4.0744519233703613e-01" nType="-99"/>
          <Node pos="r" depth="2" NCoef="0" IVar="-1" Cut="0.0000000000000000e+00" cType="1" res="4.5215403661131859e-03" rms="4.4557848572731018e-01" purity="3.7102079391479492e-01" nType="-99"/>
        </Node>
      </Node>
    </BinaryTree>
    <BinaryTree type="DecisionTree" boostWeight="1.0000000000000000e+00" itree="794">
      <Node pos="s" depth="0" NCoef="0" IVar="2" Cut="1.6877384948730469e+02" cType="1" res="-7.2228745557367802e-04" rms="4.4696959853172302e-01" purity="5.0273871421813965e-01" nType="0">
        <Node pos="l" depth="1" NCoef="0" IVar="2" Cut="3.3235538482666016e+01" cType="1" res="3.4262202680110931e-03" rms="4.4818216562271118e-01" purity="5.2056443691253662e-01" nType="0">
          <Node pos="l" depth="2" NCoef="0" IVar="-1" Cut="0.0000000000000000e+00" cType="1" res="-2.6260383892804384e-03" rms="4.3269106745719910e-01" purity="3.0349314212799072e-01" nType="-99"/>
          <Node pos="r" depth="2" NCoef="0" IVar="-1" Cut="0.0000000000000000e+00" cType="1" res="3.1077233143150806e-04" rms="4.4905984401702881e-01" purity="5.3513300418853760e-01" nType="-99"/>
        </Node>
        <Node pos="r" depth="1" NCoef="0" IVar="5" Cut="1.2328753471374512e+00" cType="1" res="-3.5691168159246445e-02" rms="4.3504539132118225e-01" purity="3.5248082876205444e-01" nType="0">
          <Node pos="l" depth="2" NCoef="0" IVar="-1" Cut="0.0000000000000000e+00" cType="1" res="-3.3814334310591221e-03" rms="4.4973871111869812e-01" purity="3.7624725699424744e-01" nType="-99"/>
          <Node pos="r" depth="2" NCoef="0" IVar="-1" Cut="0.0000000000000000e+00" cType="1" res="-1.1906928848475218e-03" rms="4.1790050268173218e-01" purity="3.2708612084388733e-01" nType="-99"/>
        </Node>
      </Node>
    </BinaryTree>
    <BinaryTree type="DecisionTree" boostWeight="1.0000000000000000e+00" itree="795">
      <Node pos="s" depth="0" NCoef="0" IVar="5" Cut="1.5245131254196167e+00" cType="1" res="-3.7429426447488368e-04" rms="4.5110875368118286e-01" purity="5.0013822317123413e-01" nType="0">
        <Node pos="l" depth="1" NCoef="0" IVar="0" Cut="1.1323347091674805e+00" cType="1" res="-5.1331291906535625e-03" rms="4.5287588238716125e-01" purity="5.2519989013671875e-01" nType="0">
          <Node pos="l" depth="2" NCoef="0" IVar="-1" Cut="0.0000000000000000e+00" cType="1" res="4.6183774247765541e-04" rms="4.4807699322700500e-01" purity="5.8276802301406860e-01" nType="-99"/>
          <Node pos="r" depth="2" NCoef="0" IVar="-1" Cut="0.0000000000000000e+00" cType="1" res="-7.0394377689808607e-04" rms="4.5535111427307129e-01" purity="4.9266240000724792e-01" nType="-99"/>
        </Node>
        <Node pos="r" depth="1" NCoef="0" IVar="5" Cut="1.7455124855041504e+00" cType="1" res="1.5981305390596390e-02" rms="4.4459357857704163e-01" purity="4.1400402784347534e-01" nType="0">
          <Node pos="l" depth="2" NCoef="0" IVar="-1" Cut="0.0000000000000000e+00" cType="1" res="2.6570554473437369e-04" rms="4.4082462787628174e-01" purity="4.3086102604866028e-01" nType="-99"/>
          <Node pos="r" depth="2" NCoef="0" IVar="-1" Cut="0.0000000000000000e+00" cType="1" res="2.0095328800380230e-03" rms="4.4952234625816345e-01" purity="3.8937771320343018e-01" nType="-99"/>
        </Node>
      </Node>
    </BinaryTree>
    <BinaryTree type="DecisionTree" boostWeight="1.0000000000000000e+00" itree="796">
      <Node pos="s" depth="0" NCoef="0" IVar="4" Cut="2.0575475692749023e+00" cType="1" res="-4.1188998147845268e-04" rms="4.5130434632301331e-01" purity="4.9798369407653809e-01" nType="0">
        <Node pos="l" depth="1" NCoef="0" IVar="1" Cut="9.3396431207656860e-01" cType="1" res="1.1733960360288620e-02" rms="4.5381388068199158e-01" purity="6.1162883043289185e-01" nType="0">
          <Node pos="l" depth="2" NCoef="0" IVar="-1" Cut="0.0000000000000000e+00" cType="1" res="2.5551291182637215e-03" rms="4.7623059153556824e-01" purity="5.0355839729309082e-01" nType="-99"/>
          <Node pos="r" depth="2" NCoef="0" IVar="-1" Cut="0.0000000000000000e+00" cType="1" res="-3.7119159969734028e-05" rms="4.4645732641220093e-01" purity="6.4226335287094116e-01" nType="-99"/>
        </Node>
        <Node pos="r" depth="1" NCoef="0" IVar="0" Cut="6.8984168767929077e-01" cType="1" res="-5.4295454174280167e-03" rms="4.5016789436340332e-01" purity="4.5103487372398376e-01" nType="0">
          <Node pos="l" depth="2" NCoef="0" IVar="-1" Cut="0.0000000000000000e+00" cType="1" res="-2.6476900093257427e-03" rms="4.3689027428627014e-01" purity="3.9077863097190857e-01" nType="-99"/>
          <Node pos="r" depth="2" NCoef="0" IVar="-1" Cut="0.0000000000000000e+00" cType="1" res="-6.9614798121619970e-05" rms="4.5134848356246948e-01" purity="4.5740631222724915e-01" nType="-99"/>
        </Node>
      </Node>
    </BinaryTree>
    <BinaryTree type="DecisionTree" boostWeight="1.0000000000000000e+00" itree="797">
      <Node pos="s" depth="0" NCoef="0" IVar="4" Cut="2.5439169406890869e+00" cType="1" res="5.8503602631390095e-03" rms="4.4826298952102661e-01" purity="5.0706976652145386e-01" nType="0">
        <Node pos="l" depth="1" NCoef="0" IVar="0" Cut="1.9890166521072388e+00" cType="1" res="9.2166233807802200e-03" rms="4.5606845617294312e-01" purity="5.5721759796142578e-01" nType="0">
          <Node pos="l" depth="2" NCoef="0" IVar="-1" Cut="0.0000000000000000e+00" cType="1" res="2.8782436856999993e-04" rms="4.5435643196105957e-01" purity="5.7335704565048218e-01" nType="-99"/>
          <Node pos="r" depth="2" NCoef="0" IVar="-1" Cut="0.0000000000000000e+00" cType="1" res="1.8376446096226573e-03" rms="4.6855443716049194e-01" purity="4.3106102943420410e-01" nType="-99"/>
        </Node>
        <Node pos="r" depth="1" NCoef="0" IVar="6" Cut="5.2306066894531250e+02" cType="1" res="-9.6095753833651543e-03" rms="4.1015940904617310e-01" purity="2.7676013112068176e-01" nType="0">
          <Node pos="l" depth="2" NCoef="0" IVar="-1" Cut="0.0000000000000000e+00" cType="1" res="-1.8818571697920561e-03" rms="3.9125692844390869e-01" purity="2.3522810637950897e-01" nType="-99"/>
          <Node pos="r" depth="2" NCoef="0" IVar="-1" Cut="0.0000000000000000e+00" cType="1" res="6.6151266219094396e-04" rms="4.4185528159141541e-01" purity="3.5243612527847290e-01" nType="-99"/>
        </Node>
      </Node>
    </BinaryTree>
    <BinaryTree type="DecisionTree" boostWeight="1.0000000000000000e+00" itree="798">
      <Node pos="s" depth="0" NCoef="0" IVar="3" Cut="1.4146928405761719e+02" cType="1" res="3.5878079943358898e-03" rms="4.5122361183166504e-01" purity="5.0403761863708496e-01" nType="0">
        <Node pos="l" depth="1" NCoef="0" IVar="8" Cut="2.7064547729492188e+02" cType="1" res="1.1664286721497774e-03" rms="4.5129638910293579e-01" purity="5.1619505882263184e-01" nType="0">
          <Node pos="l" depth="2" NCoef="0" IVar="-1" Cut="0.0000000000000000e+00" cType="1" res="4.3263196130283177e-04" rms="4.5534491539001465e-01" purity="5.4860657453536987e-01" nType="-99"/>
          <Node pos="r" depth="2" NCoef="0" IVar="-1" Cut="0.0000000000000000e+00" cType="1" res="-8.8516849791631103e-04" rms="4.4192454218864441e-01" purity="4.4590041041374207e-01" nType="-99"/>
        </Node>
        <Node pos="r" depth="1" NCoef="0" IVar="-1" Cut="0.0000000000000000e+00" cType="1" res="2.4154880084097385e-03" rms="4.4915741682052612e-01" purity="3.4931701421737671e-01" nType="-99"/>
      </Node>
    </BinaryTree>
    <BinaryTree type="DecisionTree" boostWeight="1.0000000000000000e+00" itree="799">
      <Node pos="s" depth="0" NCoef="0" IVar="8" Cut="1.5782522583007812e+02" cType="1" res="1.7123287543654442e-03" rms="4.4793599843978882e-01" purity="5.0383329391479492e-01" nType="0">
        <Node pos="l" depth="1" NCoef="0" IVar="1" Cut="9.7361475229263306e-01" cType="1" res="-1.5959866344928741e-02" rms="4.5511311292648315e-01" purity="4.9365136027336121e-01" nType="0">
          <Node pos="l" depth="2" NCoef="0" IVar="-1" Cut="0.0000000000000000e+00" cType="1" res="-1.4240307500585914e-03" rms="4.6143648028373718e-01" purity="4.2451182007789612e-01" nType="-99"/>
          <Node pos="r" depth="2" NCoef="0" IVar="-1" Cut="0.0000000000000000e+00" cType="1" res="5.6658359244465828e-04" rms="4.3533480167388916e-01" purity="6.9071394205093384e-01" nType="-99"/>
        </Node>
        <Node pos="r" depth="1" NCoef="0" IVar="2" Cut="6.0483627319335938e+01" cType="1" res="8.3332154899835587e-03" rms="4.4503661990165710e-01" purity="5.0764793157577515e-01" nType="0">
          <Node pos="l" depth="2" NCoef="0" IVar="-1" Cut="0.0000000000000000e+00" cType="1" res="-7.2288833325728774e-04" rms="4.4705387949943542e-01" purity="4.1232496500015259e-01" nType="-99"/>
          <Node pos="r" depth="2" NCoef="0" IVar="-1" Cut="0.0000000000000000e+00" cType="1" res="6.9995247758924961e-04" rms="4.4435262680053711e-01" purity="5.3214752674102783e-01" nType="-99"/>
        </Node>
      </Node>
    </BinaryTree>
    <BinaryTree type="DecisionTree" boostWeight="1.0000000000000000e+00" itree="800">
      <Node pos="s" depth="0" NCoef="0" IVar="7" Cut="1.4279750585556030e+00" cType="1" res="-4.1245943866670132e-03" rms="4.4900757074356079e-01" purity="4.9393555521965027e-01" nType="0">
        <Node pos="l" depth="1" NCoef="0" IVar="4" Cut="2.4905695915222168e+00" cType="1" res="-6.3465274870395660e-03" rms="4.4980388879776001e-01" purity="4.8051685094833374e-01" nType="0">
          <Node pos="l" depth="2" NCoef="0" IVar="-1" Cut="0.0000000000000000e+00" cType="1" res="-5.2485446212813258e-04" rms="4.5721605420112610e-01" purity="5.3463053703308105e-01" nType="-99"/>
          <Node pos="r" depth="2" NCoef="0" IVar="-1" Cut="0.0000000000000000e+00" cType="1" res="6.2826735666021705e-04" rms="4.2434498667716980e-01" purity="3.0359518527984619e-01" nType="-99"/>
        </Node>
        <Node pos="r" depth="1" NCoef="0" IVar="-1" Cut="0.0000000000000000e+00" cType="1" res="9.6229190239682794e-04" rms="4.3856170773506165e-01" purity="6.5355747938156128e-01" nType="-99"/>
      </Node>
    </BinaryTree>
    <BinaryTree type="DecisionTree" boostWeight="1.0000000000000000e+00" itree="801">
      <Node pos="s" depth="0" NCoef="0" IVar="0" Cut="1.1323347091674805e+00" cType="1" res="-3.1232403125613928e-03" rms="4.4852811098098755e-01" purity="4.9620825052261353e-01" nType="0">
        <Node pos="l" depth="1" NCoef="0" IVar="1" Cut="9.5346981287002563e-01" cType="1" res="1.0253317654132843e-02" rms="4.4888925552368164e-01" purity="5.5173707008361816e-01" nType="0">
          <Node pos="l" depth="2" NCoef="0" IVar="-1" Cut="0.0000000000000000e+00" cType="1" res="1.2012303341180086e-03" rms="4.5545965433120728e-01" purity="4.6532821655273438e-01" nType="-99"/>
          <Node pos="r" depth="2" NCoef="0" IVar="-1" Cut="0.0000000000000000e+00" cType="1" res="-1.1157819244544953e-04" rms="4.4239324331283569e-01" purity="6.3111335039138794e-01" nType="-99"/>
        </Node>
        <Node pos="r" depth="1" NCoef="0" IVar="1" Cut="9.2020893096923828e-01" cType="1" res="-1.1605624109506607e-02" rms="4.4809210300445557e-01" purity="4.6099615097045898e-01" nType="0">
          <Node pos="l" depth="2" NCoef="0" IVar="-1" Cut="0.0000000000000000e+00" cType="1" res="1.2024021707475185e-03" rms="4.3465578556060791e-01" purity="3.1111347675323486e-01" nType="-99"/>
          <Node pos="r" depth="2" NCoef="0" IVar="-1" Cut="0.0000000000000000e+00" cType="1" res="-8.4341136971488595e-04" rms="4.4983685016632080e-01" purity="4.8251995444297791e-01" nType="-99"/>
        </Node>
      </Node>
    </BinaryTree>
    <BinaryTree type="DecisionTree" boostWeight="1.0000000000000000e+00" itree="802">
      <Node pos="s" depth="0" NCoef="0" IVar="7" Cut="-9.9958115816116333e-01" cType="1" res="3.5475778859108686e-03" rms="4.4922444224357605e-01" purity="5.0257068872451782e-01" nType="0">
        <Node pos="l" depth="1" NCoef="0" IVar="3" Cut="1.2136014556884766e+02" cType="1" res="2.1399753168225288e-02" rms="4.5969772338867188e-01" purity="5.9583479166030884e-01" nType="0">
          <Node pos="l" depth="2" NCoef="0" IVar="-1" Cut="0.0000000000000000e+00" cType="1" res="1.9393495749682188e-03" rms="4.6521434187889099e-01" purity="5.9529328346252441e-01" nType="-99"/>
          <Node pos="r" depth="2" NCoef="0" IVar="-1" Cut="0.0000000000000000e+00" cType="1" res="2.9822275973856449e-04" rms="4.5522016286849976e-01" purity="5.9621208906173706e-01" nType="-99"/>
        </Node>
        <Node pos="r" depth="1" NCoef="0" IVar="2" Cut="1.0928806304931641e+02" cType="1" res="-3.5745527129620314e-03" rms="4.4477742910385132e-01" purity="4.6536290645599365e-01" nType="0">
          <Node pos="l" depth="2" NCoef="0" IVar="-1" Cut="0.0000000000000000e+00" cType="1" res="-5.5926037020981312e-04" rms="4.4966143369674683e-01" purity="4.5448565483093262e-01" nType="-99"/>
          <Node pos="r" depth="2" NCoef="0" IVar="-1" Cut="0.0000000000000000e+00" cType="1" res="4.4280561269260943e-04" rms="4.3591010570526123e-01" purity="4.8428061604499817e-01" nType="-99"/>
        </Node>
      </Node>
    </BinaryTree>
    <BinaryTree type="DecisionTree" boostWeight="1.0000000000000000e+00" itree="803">
      <Node pos="s" depth="0" NCoef="0" IVar="7" Cut="-5.7115024328231812e-01" cType="1" res="-1.1728300014510751e-03" rms="4.4976687431335449e-01" purity="4.9829363822937012e-01" nType="0">
        <Node pos="l" depth="1" NCoef="0" IVar="6" Cut="4.0169882202148438e+02" cType="1" res="-8.8219512253999710e-03" rms="4.5435151457786560e-01" purity="5.1169896125793457e-01" nType="0">
          <Node pos="l" depth="2" NCoef="0" IVar="-1" Cut="0.0000000000000000e+00" cType="1" res="4.9179053166881204e-04" rms="4.5642572641372681e-01" purity="4.3267902731895447e-01" nType="-99"/>
          <Node pos="r" depth="2" NCoef="0" IVar="-1" Cut="0.0000000000000000e+00" cType="1" res="-8.3519995678216219e-04" rms="4.5315086841583252e-01" purity="5.4842102527618408e-01" nType="-99"/>
        </Node>
        <Node pos="r" depth="1" NCoef="0" IVar="1" Cut="9.2048507928848267e-01" cType="1" res="4.4719311408698559e-03" rms="4.4626930356025696e-01" purity="4.8840105533599854e-01" nType="0">
          <Node pos="l" depth="2" NCoef="0" IVar="-1" Cut="0.0000000000000000e+00" cType="1" res="2.2494799923151731e-03" rms="4.3521904945373535e-01" purity="3.3182957768440247e-01" nType="-99"/>
          <Node pos="r" depth="2" NCoef="0" IVar="-1" Cut="0.0000000000000000e+00" cType="1" res="2.0079585738130845e-05" rms="4.4769635796546936e-01" purity="5.1102954149246216e-01" nType="-99"/>
        </Node>
      </Node>
    </BinaryTree>
    <BinaryTree type="DecisionTree" boostWeight="1.0000000000000000e+00" itree="804">
      <Node pos="s" depth="0" NCoef="0" IVar="7" Cut="1.4278097152709961e+00" cType="1" res="-1.8646024400368333e-03" rms="4.5029902458190918e-01" purity="4.9688884615898132e-01" nType="0">
        <Node pos="l" depth="1" NCoef="0" IVar="6" Cut="4.1804971313476562e+02" cType="1" res="-4.3210233561694622e-03" rms="4.5190259814262390e-01" purity="4.8240241408348083e-01" nType="0">
          <Node pos="l" depth="2" NCoef="0" IVar="-1" Cut="0.0000000000000000e+00" cType="1" res="3.3906692988239229e-04" rms="4.4887977838516235e-01" purity="4.0136620402336121e-01" nType="-99"/>
          <Node pos="r" depth="2" NCoef="0" IVar="-1" Cut="0.0000000000000000e+00" cType="1" res="-5.0546176498755813e-04" rms="4.5355924963951111e-01" purity="5.2978539466857910e-01" nType="-99"/>
        </Node>
        <Node pos="r" depth="1" NCoef="0" IVar="-1" Cut="0.0000000000000000e+00" cType="1" res="1.2178904144093394e-03" rms="4.3001538515090942e-01" purity="6.6667425632476807e-01" nType="-99"/>
      </Node>
    </BinaryTree>
    <BinaryTree type="DecisionTree" boostWeight="1.0000000000000000e+00" itree="805">
      <Node pos="s" depth="0" NCoef="0" IVar="5" Cut="1.0504372119903564e+00" cType="1" res="2.6378144975751638e-03" rms="4.5076406002044678e-01" purity="5.0149834156036377e-01" nType="0">
        <Node pos="l" depth="1" NCoef="0" IVar="7" Cut="-5.7112854719161987e-01" cType="1" res="1.8292820081114769e-02" rms="4.5828312635421753e-01" purity="5.8393126726150513e-01" nType="0">
          <Node pos="l" depth="2" NCoef="0" IVar="-1" Cut="0.0000000000000000e+00" cType="1" res="1.7720087198540568e-03" rms="4.5868623256683350e-01" purity="6.2058919668197632e-01" nType="-99"/>
          <Node pos="r" depth="2" NCoef="0" IVar="-1" Cut="0.0000000000000000e+00" cType="1" res="7.3346403951290995e-05" rms="4.5726484060287476e-01" purity="5.5536013841629028e-01" nType="-99"/>
        </Node>
        <Node pos="r" depth="1" NCoef="0" IVar="6" Cut="7.4192816162109375e+02" cType="1" res="-1.8589106621220708e-03" rms="4.4847995042800903e-01" purity="4.7782048583030701e-01" nType="0">
          <Node pos="l" depth="2" NCoef="0" IVar="-1" Cut="0.0000000000000000e+00" cType="1" res="-3.1115231104195118e-04" rms="4.4801715016365051e-01" purity="4.5671066641807556e-01" nType="-99"/>
          <Node pos="r" depth="2" NCoef="0" IVar="-1" Cut="0.0000000000000000e+00" cType="1" res="8.0904230708256364e-04" rms="4.5029655098915100e-01" purity="5.8290678262710571e-01" nType="-99"/>
        </Node>
      </Node>
    </BinaryTree>
    <BinaryTree type="DecisionTree" boostWeight="1.0000000000000000e+00" itree="806">
      <Node pos="s" depth="0" NCoef="0" IVar="0" Cut="1.5867024660110474e+00" cType="1" res="2.0501392427831888e-03" rms="4.4918295741081238e-01" purity="5.0427299737930298e-01" nType="0">
        <Node pos="l" depth="1" NCoef="0" IVar="2" Cut="1.0201699829101562e+02" cType="1" res="7.8742140904068947e-03" rms="4.5009893178939819e-01" purity="5.5863696336746216e-01" nType="0">
          <Node pos="l" depth="2" NCoef="0" IVar="-1" Cut="0.0000000000000000e+00" cType="1" res="3.8144371501402929e-05" rms="4.5698568224906921e-01" purity="5.1098042726516724e-01" nType="-99"/>
          <Node pos="r" depth="2" NCoef="0" IVar="-1" Cut="0.0000000000000000e+00" cType="1" res="1.3525498798117042e-03" rms="4.2643594741821289e-01" purity="7.1166974306106567e-01" nType="-99"/>
        </Node>
        <Node pos="r" depth="1" NCoef="0" IVar="7" Cut="-9.9850624799728394e-01" cType="1" res="-9.1023519635200500e-03" rms="4.4721210002899170e-01" purity="4.0017160773277283e-01" nType="0">
          <Node pos="l" depth="2" NCoef="0" IVar="-1" Cut="0.0000000000000000e+00" cType="1" res="-2.4326529819518328e-03" rms="4.6883204579353333e-01" purity="4.6886739134788513e-01" nType="-99"/>
          <Node pos="r" depth="2" NCoef="0" IVar="-1" Cut="0.0000000000000000e+00" cType="1" res="1.3482418580679223e-05" rms="4.4116258621215820e-01" purity="3.8303846120834351e-01" nType="-99"/>
        </Node>
      </Node>
    </BinaryTree>
    <BinaryTree type="DecisionTree" boostWeight="1.0000000000000000e+00" itree="807">
      <Node pos="s" depth="0" NCoef="0" IVar="4" Cut="2.7210600376129150e+00" cType="1" res="-4.6727913431823254e-03" rms="4.4630977511405945e-01" purity="4.9546137452125549e-01" nType="0">
        <Node pos="l" depth="1" NCoef="0" IVar="5" Cut="1.2328753471374512e+00" cType="1" res="-2.1020565181970596e-03" rms="4.5220226049423218e-01" purity="5.2402973175048828e-01" nType="0">
          <Node pos="l" depth="2" NCoef="0" IVar="-1" Cut="0.0000000000000000e+00" cType="1" res="2.6716684806160629e-04" rms="4.5385712385177612e-01" purity="5.7304704189300537e-01" nType="-99"/>
          <Node pos="r" depth="2" NCoef="0" IVar="-1" Cut="0.0000000000000000e+00" cType="1" res="-5.2265234990045428e-04" rms="4.5042073726654053e-01" purity="4.7531637549400330e-01" nType="-99"/>
        </Node>
        <Node pos="r" depth="1" NCoef="0" IVar="-1" Cut="0.0000000000000000e+00" cType="1" res="-3.5868932027369738e-03" rms="3.7688398361206055e-01" purity="1.9149795174598694e-01" nType="-99"/>
      </Node>
    </BinaryTree>
    <BinaryTree type="DecisionTree" boostWeight="1.0000000000000000e+00" itree="808">
      <Node pos="s" depth="0" NCoef="0" IVar="2" Cut="8.5931083679199219e+01" cType="1" res="4.1141379624605179e-03" rms="4.4897738099098206e-01" purity="5.0534290075302124e-01" nType="0">
        <Node pos="l" depth="1" NCoef="0" IVar="8" Cut="2.3709782409667969e+02" cType="1" res="-3.7652107421308756e-03" rms="4.5629703998565674e-01" purity="4.6706196665763855e-01" nType="0">
          <Node pos="l" depth="2" NCoef="0" IVar="-1" Cut="0.0000000000000000e+00" cType="1" res="1.9705633167177439e-04" rms="4.6015360951423645e-01" purity="4.9789133667945862e-01" nType="-99"/>
          <Node pos="r" depth="2" NCoef="0" IVar="-1" Cut="0.0000000000000000e+00" cType="1" res="-1.2821976561099291e-03" rms="4.4668710231781006e-01" purity="3.9538100361824036e-01" nType="-99"/>
        </Node>
        <Node pos="r" depth="1" NCoef="0" IVar="2" Cut="1.5408259582519531e+02" cType="1" res="1.1475679464638233e-02" rms="4.4190230965614319e-01" purity="5.4110807180404663e-01" nType="0">
          <Node pos="l" depth="2" NCoef="0" IVar="-1" Cut="0.0000000000000000e+00" cType="1" res="9.7343989182263613e-04" rms="4.4205054640769958e-01" purity="5.9398585557937622e-01" nType="-99"/>
          <Node pos="r" depth="2" NCoef="0" IVar="-1" Cut="0.0000000000000000e+00" cType="1" res="-8.5440929979085922e-04" rms="4.4052338600158691e-01" purity="3.9541503787040710e-01" nType="-99"/>
        </Node>
      </Node>
    </BinaryTree>
    <BinaryTree type="DecisionTree" boostWeight="1.0000000000000000e+00" itree="809">
      <Node pos="s" depth="0" NCoef="0" IVar="2" Cut="1.9702464294433594e+02" cType="1" res="-4.6860944712534547e-04" rms="4.4984138011932373e-01" purity="4.9903532862663269e-01" nType="0">
        <Node pos="l" depth="1" NCoef="0" IVar="0" Cut="6.7716181278228760e-01" cType="1" res="-2.6937173679471016e-03" rms="4.4947871565818787e-01" purity="5.0793778896331787e-01" nType="0">
          <Node pos="l" depth="2" NCoef="0" IVar="-1" Cut="0.0000000000000000e+00" cType="1" res="-1.1665124911814928e-03" rms="4.5284825563430786e-01" purity="4.5691335201263428e-01" nType="-99"/>
          <Node pos="r" depth="2" NCoef="0" IVar="-1" Cut="0.0000000000000000e+00" cType="1" res="2.3296470317291096e-06" rms="4.4892483949661255e-01" purity="5.1528847217559814e-01" nType="-99"/>
        </Node>
        <Node pos="r" depth="1" NCoef="0" IVar="-1" Cut="0.0000000000000000e+00" cType="1" res="1.6908784164115787e-03" rms="4.5339301228523254e-01" purity="3.8925966620445251e-01" nType="-99"/>
      </Node>
    </BinaryTree>
    <BinaryTree type="DecisionTree" boostWeight="1.0000000000000000e+00" itree="810">
      <Node pos="s" depth="0" NCoef="0" IVar="7" Cut="-1.4279056787490845e+00" cType="1" res="1.5963552286848426e-03" rms="4.4935303926467896e-01" purity="5.0073486566543579e-01" nType="0">
        <Node pos="l" depth="1" NCoef="0" IVar="-1" Cut="0.0000000000000000e+00" cType="1" res="1.5150749823078513e-03" rms="4.4167947769165039e-01" purity="6.6514229774475098e-01" nType="-99"/>
        <Node pos="r" depth="1" NCoef="0" IVar="8" Cut="2.3756475830078125e+02" cType="1" res="-1.0387558722868562e-03" rms="4.4986656308174133e-01" purity="4.8740491271018982e-01" nType="0">
          <Node pos="l" depth="2" NCoef="0" IVar="-1" Cut="0.0000000000000000e+00" cType="1" res="2.3286599025595933e-04" rms="4.5666813850402832e-01" purity="5.2572691440582275e-01" nType="-99"/>
          <Node pos="r" depth="2" NCoef="0" IVar="-1" Cut="0.0000000000000000e+00" cType="1" res="-5.2535475697368383e-04" rms="4.4024026393890381e-01" purity="4.3482187390327454e-01" nType="-99"/>
        </Node>
      </Node>
    </BinaryTree>
    <BinaryTree type="DecisionTree" boostWeight="1.0000000000000000e+00" itree="811">
      <Node pos="s" depth="0" NCoef="0" IVar="3" Cut="1.2807376098632812e+02" cType="1" res="-3.7689621094614267e-03" rms="4.4873812794685364e-01" purity="4.9501156806945801e-01" nType="0">
        <Node pos="l" depth="1" NCoef="0" IVar="5" Cut="1.5151391029357910e+00" cType="1" res="2.1147967781871557e-03" rms="4.5124045014381409e-01" purity="5.1801121234893799e-01" nType="0">
          <Node pos="l" depth="2" NCoef="0" IVar="-1" Cut="0.0000000000000000e+00" cType="1" res="3.2737691071815789e-04" rms="4.5378464460372925e-01" purity="5.5086493492126465e-01" nType="-99"/>
          <Node pos="r" depth="2" NCoef="0" IVar="-1" Cut="0.0000000000000000e+00" cType="1" res="-9.3200040282681584e-04" rms="4.4116005301475525e-01" purity="3.9506447315216064e-01" nType="-99"/>
        </Node>
        <Node pos="r" depth="1" NCoef="0" IVar="7" Cut="-1.4264532923698425e-01" cType="1" res="-1.7580362036824226e-02" rms="4.4250136613845825e-01" purity="4.4102269411087036e-01" nType="0">
          <Node pos="l" depth="2" NCoef="0" IVar="-1" Cut="0.0000000000000000e+00" cType="1" res="-2.3156742099672556e-04" rms="4.5022690296173096e-01" purity="4.5127665996551514e-01" nType="-99"/>
          <Node pos="r" depth="2" NCoef="0" IVar="-1" Cut="0.0000000000000000e+00" cType="1" res="-1.7448667204007506e-03" rms="4.3462371826171875e-01" purity="4.3123829364776611e-01" nType="-99"/>
        </Node>
      </Node>
    </BinaryTree>
    <BinaryTree type="DecisionTree" boostWeight="1.0000000000000000e+00" itree="812">
      <Node pos="s" depth="0" NCoef="0" IVar="5" Cut="1.0403802394866943e+00" cType="1" res="4.0587285184301436e-04" rms="4.5174711942672729e-01" purity="4.9942329525947571e-01" nType="0">
        <Node pos="l" depth="1" NCoef="0" IVar="2" Cut="1.2245899200439453e+02" cType="1" res="1.9570114091038704e-02" rms="4.5583659410476685e-01" purity="5.8703619241714478e-01" nType="0">
          <Node pos="l" depth="2" NCoef="0" IVar="-1" Cut="0.0000000000000000e+00" cType="1" res="1.3049745466560125e-03" rms="4.5711061358451843e-01" purity="6.0873627662658691e-01" nType="-99"/>
          <Node pos="r" depth="2" NCoef="0" IVar="-1" Cut="0.0000000000000000e+00" cType="1" res="-1.0830434621311724e-04" rms="4.5215249061584473e-01" purity="5.3729248046875000e-01" nType="-99"/>
        </Node>
        <Node pos="r" depth="1" NCoef="0" IVar="4" Cut="2.4463772773742676e+00" cType="1" res="-4.7436710447072983e-03" rms="4.5050299167633057e-01" purity="4.7588118910789490e-01" nType="0">
          <Node pos="l" depth="2" NCoef="0" IVar="-1" Cut="0.0000000000000000e+00" cType="1" res="-4.9779313849285245e-04" rms="4.5797166228294373e-01" purity="5.3831613063812256e-01" nType="-99"/>
          <Node pos="r" depth="2" NCoef="0" IVar="-1" Cut="0.0000000000000000e+00" cType="1" res="7.1780761936679482e-04" rms="4.2983782291412354e-01" purity="3.1109902262687683e-01" nType="-99"/>
        </Node>
      </Node>
    </BinaryTree>
    <BinaryTree type="DecisionTree" boostWeight="1.0000000000000000e+00" itree="813">
      <Node pos="s" depth="0" NCoef="0" IVar="7" Cut="1.5497207641601562e-06" cType="1" res="3.8463228847831488e-03" rms="4.4956517219543457e-01" purity="5.0223994255065918e-01" nType="0">
        <Node pos="l" depth="1" NCoef="0" IVar="7" Cut="-1.2852393388748169e+00" cType="1" res="-3.1297577079385519e-03" rms="4.4741567969322205e-01" purity="4.9598696827888489e-01" nType="0">
          <Node pos="l" depth="2" NCoef="0" IVar="-1" Cut="0.0000000000000000e+00" cType="1" res="8.3985325181856751e-04" rms="4.5239007472991943e-01" purity="6.2964820861816406e-01" nType="-99"/>
          <Node pos="r" depth="2" NCoef="0" IVar="-1" Cut="0.0000000000000000e+00" cType="1" res="-6.9431087467819452e-04" rms="4.4493091106414795e-01" purity="4.3842375278472900e-01" nType="-99"/>
        </Node>
        <Node pos="r" depth="1" NCoef="0" IVar="7" Cut="4.9987208843231201e-01" cType="1" res="1.0682941414415836e-02" rms="4.5155721902847290e-01" purity="5.0836801528930664e-01" nType="0">
          <Node pos="l" depth="2" NCoef="0" IVar="-1" Cut="0.0000000000000000e+00" cType="1" res="2.8383808676153421e-03" rms="4.3616971373558044e-01" purity="3.8362944126129150e-01" nType="-99"/>
          <Node pos="r" depth="2" NCoef="0" IVar="-1" Cut="0.0000000000000000e+00" cType="1" res="3.0061489087529480e-04" rms="4.5343706011772156e-01" purity="5.2558302879333496e-01" nType="-99"/>
        </Node>
      </Node>
    </BinaryTree>
    <BinaryTree type="DecisionTree" boostWeight="1.0000000000000000e+00" itree="814">
      <Node pos="s" depth="0" NCoef="0" IVar="0" Cut="1.4284651279449463e+00" cType="1" res="-6.2403827905654907e-03" rms="4.4913521409034729e-01" purity="4.9251323938369751e-01" nType="0">
        <Node pos="l" depth="1" NCoef="0" IVar="2" Cut="9.3563774108886719e+01" cType="1" res="2.9558024834841490e-03" rms="4.5281893014907837e-01" purity="5.5057650804519653e-01" nType="0">
          <Node pos="l" depth="2" NCoef="0" IVar="-1" Cut="0.0000000000000000e+00" cType="1" res="-3.7281026015989482e-04" rms="4.6183744072914124e-01" purity="4.8943245410919189e-01" nType="-99"/>
          <Node pos="r" depth="2" NCoef="0" IVar="-1" Cut="0.0000000000000000e+00" cType="1" res="1.4561899006366730e-03" rms="4.2411628365516663e-01" purity="7.2822135686874390e-01" nType="-99"/>
        </Node>
        <Node pos="r" depth="1" NCoef="0" IVar="7" Cut="-8.5685223340988159e-01" cType="1" res="-1.8366850912570953e-02" rms="4.4393992424011230e-01" purity="4.1594856977462769e-01" nType="0">
          <Node pos="l" depth="2" NCoef="0" IVar="-1" Cut="0.0000000000000000e+00" cType="1" res="5.9635902289301157e-04" rms="4.7142270207405090e-01" purity="5.1814979314804077e-01" nType="-99"/>
          <Node pos="r" depth="2" NCoef="0" IVar="-1" Cut="0.0000000000000000e+00" cType="1" res="-1.9888151437044144e-03" rms="4.3153601884841919e-01" purity="3.7403455376625061e-01" nType="-99"/>
        </Node>
      </Node>
    </BinaryTree>
    <BinaryTree type="DecisionTree" boostWeight="1.0000000000000000e+00" itree="815">
      <Node pos="s" depth="0" NCoef="0" IVar="0" Cut="9.4286441802978516e-01" cType="1" res="-1.1782173532992601e-03" rms="4.4791057705879211e-01" purity="4.9781075119972229e-01" nType="0">
        <Node pos="l" depth="1" NCoef="0" IVar="2" Cut="6.3060295104980469e+01" cType="1" res="1.3016295619308949e-02" rms="4.4395902752876282e-01" purity="5.3431010246276855e-01" nType="0">
          <Node pos="l" depth="2" NCoef="0" IVar="-1" Cut="0.0000000000000000e+00" cType="1" res="-6.9874360633548349e-05" rms="4.5530766248703003e-01" purity="4.4627279043197632e-01" nType="-99"/>
          <Node pos="r" depth="2" NCoef="0" IVar="-1" Cut="0.0000000000000000e+00" cType="1" res="1.8809946486726403e-03" rms="4.1669446229934692e-01" purity="7.2461038827896118e-01" nType="-99"/>
        </Node>
        <Node pos="r" depth="1" NCoef="0" IVar="1" Cut="9.1942656040191650e-01" cType="1" res="-6.4767752774059772e-03" rms="4.4926178455352783e-01" purity="4.8418617248535156e-01" nType="0">
          <Node pos="l" depth="2" NCoef="0" IVar="-1" Cut="0.0000000000000000e+00" cType="1" res="-2.5512380525469780e-03" rms="4.1207423806190491e-01" purity="2.7480405569076538e-01" nType="-99"/>
          <Node pos="r" depth="2" NCoef="0" IVar="-1" Cut="0.0000000000000000e+00" cType="1" res="-1.4840616495348513e-04" rms="4.5372250676155090e-01" purity="5.1126450300216675e-01" nType="-99"/>
        </Node>
      </Node>
    </BinaryTree>
    <BinaryTree type="DecisionTree" boostWeight="1.0000000000000000e+00" itree="816">
      <Node pos="s" depth="0" NCoef="0" IVar="7" Cut="2.8559625148773193e-01" cType="1" res="-6.0950969345867634e-03" rms="4.4868078827857971e-01" purity="4.9172490835189819e-01" nType="0">
        <Node pos="l" depth="1" NCoef="0" IVar="0" Cut="1.2876889705657959e+00" cType="1" res="1.5308383153751493e-03" rms="4.5061871409416199e-01" purity="4.8949199914932251e-01" nType="0">
          <Node pos="l" depth="2" NCoef="0" IVar="-1" Cut="0.0000000000000000e+00" cType="1" res="-4.8084266018122435e-04" rms="4.4796994328498840e-01" purity="5.3221935033798218e-01" nType="-99"/>
          <Node pos="r" depth="2" NCoef="0" IVar="-1" Cut="0.0000000000000000e+00" cType="1" res="5.9030367992818356e-04" rms="4.5262163877487183e-01" purity="4.5360895991325378e-01" nType="-99"/>
        </Node>
        <Node pos="r" depth="1" NCoef="0" IVar="7" Cut="6.9460254907608032e-01" cType="1" res="-1.4793680049479008e-02" rms="4.4630092382431030e-01" purity="4.9427181482315063e-01" nType="0">
          <Node pos="l" depth="2" NCoef="0" IVar="-1" Cut="0.0000000000000000e+00" cType="1" res="-3.2291358802467585e-03" rms="4.0379646420478821e-01" purity="2.9332637786865234e-01" nType="-99"/>
          <Node pos="r" depth="2" NCoef="0" IVar="-1" Cut="0.0000000000000000e+00" cType="1" res="-5.0030258717015386e-04" rms="4.5321145653724670e-01" purity="5.2969437837600708e-01" nType="-99"/>
        </Node>
      </Node>
    </BinaryTree>
    <BinaryTree type="DecisionTree" boostWeight="1.0000000000000000e+00" itree="817">
      <Node pos="s" depth="0" NCoef="0" IVar="6" Cut="8.1727813720703125e+02" cType="1" res="6.7703578679356724e-05" rms="4.4922390580177307e-01" purity="4.9732863903045654e-01" nType="0">
        <Node pos="l" depth="1" NCoef="0" IVar="7" Cut="5.7122844457626343e-01" cType="1" res="-3.3211137633770704e-03" rms="4.4937315583229065e-01" purity="4.8534128069877625e-01" nType="0">
          <Node pos="l" depth="2" NCoef="0" IVar="-1" Cut="0.0000000000000000e+00" cType="1" res="-4.8005927237682045e-04" rms="4.4792813062667847e-01" purity="4.5720136165618896e-01" nType="-99"/>
          <Node pos="r" depth="2" NCoef="0" IVar="-1" Cut="0.0000000000000000e+00" cType="1" res="1.9226627773605287e-04" rms="4.5118933916091919e-01" purity="5.2275770902633667e-01" nType="-99"/>
        </Node>
        <Node pos="r" depth="1" NCoef="0" IVar="-1" Cut="0.0000000000000000e+00" cType="1" res="1.2451803777366877e-03" rms="4.4711703062057495e-01" purity="5.9281712770462036e-01" nType="-99"/>
      </Node>
    </BinaryTree>
    <BinaryTree type="DecisionTree" boostWeight="1.0000000000000000e+00" itree="818">
      <Node pos="s" depth="0" NCoef="0" IVar="6" Cut="2.9484027099609375e+02" cType="1" res="5.3234393708407879e-03" rms="4.4879692792892456e-01" purity="5.0438398122787476e-01" nType="0">
        <Node pos="l" depth="1" NCoef="0" IVar="-1" Cut="0.0000000000000000e+00" cType="1" res="-2.0922641269862652e-03" rms="4.1356706619262695e-01" purity="2.6313185691833496e-01" nType="-99"/>
        <Node pos="r" depth="1" NCoef="0" IVar="7" Cut="-8.5672897100448608e-01" cType="1" res="7.7503835782408714e-03" rms="4.5146125555038452e-01" purity="5.2405124902725220e-01" nType="0">
          <Node pos="l" depth="2" NCoef="0" IVar="-1" Cut="0.0000000000000000e+00" cType="1" res="-1.8113883561454713e-04" rms="4.5401203632354736e-01" purity="5.7032817602157593e-01" nType="-99"/>
          <Node pos="r" depth="2" NCoef="0" IVar="-1" Cut="0.0000000000000000e+00" cType="1" res="7.0667691761627793e-04" rms="4.5004910230636597e-01" purity="5.0059378147125244e-01" nType="-99"/>
        </Node>
      </Node>
    </BinaryTree>
    <BinaryTree type="DecisionTree" boostWeight="1.0000000000000000e+00" itree="819">
      <Node pos="s" depth="0" NCoef="0" IVar="4" Cut="2.6331856250762939e+00" cType="1" res="-1.9966040272265673e-03" rms="4.5312127470970154e-01" purity="4.9325504899024963e-01" nType="0">
        <Node pos="l" depth="1" NCoef="0" IVar="0" Cut="2.1304628849029541e+00" cType="1" res="-5.9489193372428417e-03" rms="4.5733058452606201e-01" purity="5.2635687589645386e-01" nType="0">
          <Node pos="l" depth="2" NCoef="0" IVar="-1" Cut="0.0000000000000000e+00" cType="1" res="-1.8813071073964238e-04" rms="4.5903849601745605e-01" purity="5.4578727483749390e-01" nType="-99"/>
          <Node pos="r" depth="2" NCoef="0" IVar="-1" Cut="0.0000000000000000e+00" cType="1" res="-2.0203958265483379e-03" rms="4.3768769502639771e-01" purity="3.1490674614906311e-01" nType="-99"/>
        </Node>
        <Node pos="r" depth="1" NCoef="0" IVar="5" Cut="1.4163129329681396e+00" cType="1" res="2.4124979972839355e-02" rms="4.2332550883293152e-01" purity="2.7447885274887085e-01" nType="0">
          <Node pos="l" depth="2" NCoef="0" IVar="-1" Cut="0.0000000000000000e+00" cType="1" res="-2.9821641510352492e-04" rms="4.3122529983520508e-01" purity="2.7603244781494141e-01" nType="-99"/>
          <Node pos="r" depth="2" NCoef="0" IVar="-1" Cut="0.0000000000000000e+00" cType="1" res="4.9493042752146721e-03" rms="4.1281461715698242e-01" purity="2.7284145355224609e-01" nType="-99"/>
        </Node>
      </Node>
    </BinaryTree>
    <BinaryTree type="DecisionTree" boostWeight="1.0000000000000000e+00" itree="820">
      <Node pos="s" depth="0" NCoef="0" IVar="7" Cut="8.5678565502166748e-01" cType="1" res="4.1782433982007205e-04" rms="4.5108571648597717e-01" purity="4.9969878792762756e-01" nType="0">
        <Node pos="l" depth="1" NCoef="0" IVar="1" Cut="9.4594198465347290e-01" cType="1" res="-5.8992933481931686e-03" rms="4.4951444864273071e-01" purity="4.5704960823059082e-01" nType="0">
          <Node pos="l" depth="2" NCoef="0" IVar="-1" Cut="0.0000000000000000e+00" cType="1" res="4.1604149737395346e-04" rms="4.4346845149993896e-01" purity="3.4695884585380554e-01" nType="-99"/>
          <Node pos="r" depth="2" NCoef="0" IVar="-1" Cut="0.0000000000000000e+00" cType="1" res="-6.8179552908986807e-04" rms="4.5299312472343445e-01" purity="5.2407336235046387e-01" nType="-99"/>
        </Node>
        <Node pos="r" depth="1" NCoef="0" IVar="7" Cut="1.0517699718475342e+00" cType="1" res="1.1924163438379765e-02" rms="4.5370778441429138e-01" purity="5.7738226652145386e-01" nType="0">
          <Node pos="l" depth="2" NCoef="0" IVar="-1" Cut="0.0000000000000000e+00" cType="1" res="2.0558428950607777e-03" rms="4.7348171472549438e-01" purity="5.0389873981475830e-01" nType="-99"/>
          <Node pos="r" depth="2" NCoef="0" IVar="-1" Cut="0.0000000000000000e+00" cType="1" res="7.0065034378785640e-05" rms="4.4608795642852783e-01" purity="6.0318899154663086e-01" nType="-99"/>
        </Node>
      </Node>
    </BinaryTree>
    <BinaryTree type="DecisionTree" boostWeight="1.0000000000000000e+00" itree="821">
      <Node pos="s" depth="0" NCoef="0" IVar="4" Cut="2.8167624473571777e+00" cType="1" res="2.9409369453787804e-03" rms="4.5113408565521240e-01" purity="4.9996975064277649e-01" nType="0">
        <Node pos="l" depth="1" NCoef="0" IVar="5" Cut="1.8013542890548706e+00" cType="1" res="3.7857031566090882e-04" rms="4.5366933941841125e-01" purity="5.1592606306076050e-01" nType="0">
          <Node pos="l" depth="2" NCoef="0" IVar="-1" Cut="0.0000000000000000e+00" cType="1" res="1.4025476411916316e-04" rms="4.5500478148460388e-01" purity="5.2793502807617188e-01" nType="-99"/>
          <Node pos="r" depth="2" NCoef="0" IVar="-1" Cut="0.0000000000000000e+00" cType="1" res="-2.4903011508285999e-03" rms="4.3122494220733643e-01" purity="3.3394786715507507e-01" nType="-99"/>
        </Node>
        <Node pos="r" depth="1" NCoef="0" IVar="-1" Cut="0.0000000000000000e+00" cType="1" res="4.1910051368176937e-03" rms="4.0757843852043152e-01" purity="2.5158208608627319e-01" nType="-99"/>
      </Node>
    </BinaryTree>
    <BinaryTree type="DecisionTree" boostWeight="1.0000000000000000e+00" itree="822">
      <Node pos="s" depth="0" NCoef="0" IVar="4" Cut="1.8618031740188599e+00" cType="1" res="9.2506557703018188e-03" rms="4.4899666309356689e-01" purity="5.0920832157135010e-01" nType="0">
        <Node pos="l" depth="1" NCoef="0" IVar="-1" Cut="0.0000000000000000e+00" cType="1" res="1.5328858280554414e-03" rms="4.3821957707405090e-01" purity="6.2627667188644409e-01" nType="-99"/>
        <Node pos="r" depth="1" NCoef="0" IVar="8" Cut="3.5361303710937500e+02" cType="1" res="6.1709801666438580e-03" rms="4.5025524497032166e-01" purity="4.9432164430618286e-01" nType="0">
          <Node pos="l" depth="2" NCoef="0" IVar="-1" Cut="0.0000000000000000e+00" cType="1" res="5.0808553351089358e-04" rms="4.5363268256187439e-01" purity="5.1969897747039795e-01" nType="-99"/>
          <Node pos="r" depth="2" NCoef="0" IVar="-1" Cut="0.0000000000000000e+00" cType="1" res="-5.7984824525192380e-04" rms="4.3632513284683228e-01" purity="3.9418745040893555e-01" nType="-99"/>
        </Node>
      </Node>
    </BinaryTree>
    <BinaryTree type="DecisionTree" boostWeight="1.0000000000000000e+00" itree="823">
      <Node pos="s" depth="0" NCoef="0" IVar="2" Cut="2.0556044006347656e+02" cType="1" res="-5.7199317961931229e-04" rms="4.5087957382202148e-01" purity="4.9701407551765442e-01" nType="0">
        <Node pos="l" depth="1" NCoef="0" IVar="3" Cut="1.1467201232910156e+02" cType="1" res="1.7417247872799635e-03" rms="4.5221564173698425e-01" purity="5.0823479890823364e-01" nType="0">
          <Node pos="l" depth="2" NCoef="0" IVar="-1" Cut="0.0000000000000000e+00" cType="1" res="8.6210644803941250e-04" rms="4.5773372054100037e-01" purity="4.6498546004295349e-01" nType="-99"/>
          <Node pos="r" depth="2" NCoef="0" IVar="-1" Cut="0.0000000000000000e+00" cType="1" res="-1.0869756806641817e-04" rms="4.5063924789428711e-01" purity="5.1988023519515991e-01" nType="-99"/>
        </Node>
        <Node pos="r" depth="1" NCoef="0" IVar="-1" Cut="0.0000000000000000e+00" cType="1" res="-2.6157435495406389e-03" rms="4.2814728617668152e-01" purity="3.2381927967071533e-01" nType="-99"/>
      </Node>
    </BinaryTree>
    <BinaryTree type="DecisionTree" boostWeight="1.0000000000000000e+00" itree="824">
      <Node pos="s" depth="0" NCoef="0" IVar="4" Cut="1.9145334959030151e+00" cType="1" res="-2.0809327252209187e-03" rms="4.5031550526618958e-01" purity="4.9755093455314636e-01" nType="0">
        <Node pos="l" depth="1" NCoef="0" IVar="8" Cut="1.5163970947265625e+02" cType="1" res="-2.1617878228425980e-02" rms="4.5020848512649536e-01" purity="5.7553285360336304e-01" nType="0">
          <Node pos="l" depth="2" NCoef="0" IVar="-1" Cut="0.0000000000000000e+00" cType="1" res="-1.8845355953089893e-04" rms="4.5585021376609802e-01" purity="5.4226386547088623e-01" nType="-99"/>
          <Node pos="r" depth="2" NCoef="0" IVar="-1" Cut="0.0000000000000000e+00" cType="1" res="-2.0950601901859045e-03" rms="4.4286566972732544e-01" purity="6.1326313018798828e-01" nType="-99"/>
        </Node>
        <Node pos="r" depth="1" NCoef="0" IVar="7" Cut="-5.7114052772521973e-01" cType="1" res="1.0793732944875956e-03" rms="4.5025315880775452e-01" purity="4.8493653535842896e-01" nType="0">
          <Node pos="l" depth="2" NCoef="0" IVar="-1" Cut="0.0000000000000000e+00" cType="1" res="5.6858727475628257e-04" rms="4.5937383174896240e-01" purity="5.1744574308395386e-01" nType="-99"/>
          <Node pos="r" depth="2" NCoef="0" IVar="-1" Cut="0.0000000000000000e+00" cType="1" res="-3.7533818976953626e-04" rms="4.4296339154243469e-01" purity="4.5998620986938477e-01" nType="-99"/>
        </Node>
      </Node>
    </BinaryTree>
    <BinaryTree type="DecisionTree" boostWeight="1.0000000000000000e+00" itree="825">
      <Node pos="s" depth="0" NCoef="0" IVar="1" Cut="9.0744447708129883e-01" cType="1" res="-3.4294521901756525e-04" rms="4.5068156719207764e-01" purity="4.9813407659530640e-01" nType="0">
        <Node pos="l" depth="1" NCoef="0" IVar="-1" Cut="0.0000000000000000e+00" cType="1" res="2.5378004647791386e-03" rms="4.4127768278121948e-01" purity="3.2881042361259460e-01" nType="-99"/>
        <Node pos="r" depth="1" NCoef="0" IVar="7" Cut="1.4278043508529663e+00" cType="1" res="-2.5886939838528633e-03" rms="4.5113125443458557e-01" purity="5.0814455747604370e-01" nType="0">
          <Node pos="l" depth="2" NCoef="0" IVar="-1" Cut="0.0000000000000000e+00" cType="1" res="-2.6090722531080246e-04" rms="4.5268714427947998e-01" purity="4.9401107430458069e-01" nType="-99"/>
          <Node pos="r" depth="2" NCoef="0" IVar="-1" Cut="0.0000000000000000e+00" cType="1" res="1.1059587122872472e-03" rms="4.3187072873115540e-01" purity="6.7070376873016357e-01" nType="-99"/>
        </Node>
      </Node>
    </BinaryTree>
    <BinaryTree type="DecisionTree" boostWeight="1.0000000000000000e+00" itree="826">
      <Node pos="s" depth="0" NCoef="0" IVar="8" Cut="5.2965032958984375e+02" cType="1" res="-7.0513994432985783e-04" rms="4.5053008198738098e-01" purity="4.9662569165229797e-01" nType="0">
        <Node pos="l" depth="1" NCoef="0" IVar="7" Cut="-8.5669147968292236e-01" cType="1" res="1.5032381052151322e-03" rms="4.5224636793136597e-01" purity="5.0810247659683228e-01" nType="0">
          <Node pos="l" depth="2" NCoef="0" IVar="-1" Cut="0.0000000000000000e+00" cType="1" res="-5.7426188141107559e-04" rms="4.5834222435951233e-01" purity="5.5194431543350220e-01" nType="-99"/>
          <Node pos="r" depth="2" NCoef="0" IVar="-1" Cut="0.0000000000000000e+00" cType="1" res="4.4692473602481186e-04" rms="4.4889357686042786e-01" purity="4.8536029458045959e-01" nType="-99"/>
        </Node>
        <Node pos="r" depth="1" NCoef="0" IVar="-1" Cut="0.0000000000000000e+00" cType="1" res="-2.2252916824072599e-03" rms="4.2461007833480835e-01" purity="3.3617016673088074e-01" nType="-99"/>
      </Node>
    </BinaryTree>
    <BinaryTree type="DecisionTree" boostWeight="1.0000000000000000e+00" itree="827">
      <Node pos="s" depth="0" NCoef="0" IVar="7" Cut="-7.1399384737014771e-01" cType="1" res="-5.4554371163249016e-03" rms="4.5143818855285645e-01" purity="4.9307808279991150e-01" nType="0">
        <Node pos="l" depth="1" NCoef="0" IVar="1" Cut="9.2773890495300293e-01" cType="1" res="-1.7738092690706253e-02" rms="4.5438435673713684e-01" purity="5.1970964670181274e-01" nType="0">
          <Node pos="l" depth="2" NCoef="0" IVar="-1" Cut="0.0000000000000000e+00" cType="1" res="-3.8458097260445356e-03" rms="4.3508526682853699e-01" purity="3.1237450242042542e-01" nType="-99"/>
          <Node pos="r" depth="2" NCoef="0" IVar="-1" Cut="0.0000000000000000e+00" cType="1" res="-4.9343699356541038e-04" rms="4.5751169323921204e-01" purity="5.5863910913467407e-01" nType="-99"/>
        </Node>
        <Node pos="r" depth="1" NCoef="0" IVar="7" Cut="8.4369105100631714e-01" cType="1" res="2.2260146215558052e-03" rms="4.4941529631614685e-01" purity="4.7642296552658081e-01" nType="0">
          <Node pos="l" depth="2" NCoef="0" IVar="-1" Cut="0.0000000000000000e+00" cType="1" res="9.8680320661514997e-04" rms="4.3769943714141846e-01" purity="3.6699128150939941e-01" nType="-99"/>
          <Node pos="r" depth="2" NCoef="0" IVar="-1" Cut="0.0000000000000000e+00" cType="1" res="-3.6686711246147752e-04" rms="4.5773079991340637e-01" purity="5.5819636583328247e-01" nType="-99"/>
        </Node>
      </Node>
    </BinaryTree>
    <BinaryTree type="DecisionTree" boostWeight="1.0000000000000000e+00" itree="828">
      <Node pos="s" depth="0" NCoef="0" IVar="1" Cut="9.1367799043655396e-01" cType="1" res="4.0209706639871001e-04" rms="4.5150125026702881e-01" purity="4.9800810217857361e-01" nType="0">
        <Node pos="l" depth="1" NCoef="0" IVar="-1" Cut="0.0000000000000000e+00" cType="1" res="2.2235196083784103e-03" rms="4.4444119930267334e-01" purity="3.3284118771553040e-01" nType="-99"/>
        <Node pos="r" depth="1" NCoef="0" IVar="2" Cut="1.6785629272460938e+02" cType="1" res="-2.6004642713814974e-03" rms="4.5200371742248535e-01" purity="5.1273769140243530e-01" nType="0">
          <Node pos="l" depth="2" NCoef="0" IVar="-1" Cut="0.0000000000000000e+00" cType="1" res="1.6809342923806980e-05" rms="4.5329806208610535e-01" purity="5.3002524375915527e-01" nType="-99"/>
          <Node pos="r" depth="2" NCoef="0" IVar="-1" Cut="0.0000000000000000e+00" cType="1" res="-1.6779018333181739e-03" rms="4.4083312153816223e-01" purity="3.7473192811012268e-01" nType="-99"/>
        </Node>
      </Node>
    </BinaryTree>
    <BinaryTree type="DecisionTree" boostWeight="1.0000000000000000e+00" itree="829">
      <Node pos="s" depth="0" NCoef="0" IVar="7" Cut="2.8559210896492004e-01" cType="1" res="-1.0868632234632969e-03" rms="4.4924890995025635e-01" purity="4.9971246719360352e-01" nType="0">
        <Node pos="l" depth="1" NCoef="0" IVar="6" Cut="6.7566925048828125e+02" cType="1" res="5.5469335056841373e-03" rms="4.5040467381477356e-01" purity="4.9526974558830261e-01" nType="0">
          <Node pos="l" depth="2" NCoef="0" IVar="-1" Cut="0.0000000000000000e+00" cType="1" res="-4.6864119212841615e-05" rms="4.4957309961318970e-01" purity="4.7182065248489380e-01" nType="-99"/>
          <Node pos="r" depth="2" NCoef="0" IVar="-1" Cut="0.0000000000000000e+00" cType="1" res="1.3233846984803677e-03" rms="4.5264226198196411e-01" purity="5.8015888929367065e-01" nType="-99"/>
        </Node>
        <Node pos="r" depth="1" NCoef="0" IVar="3" Cut="1.0852011108398438e+02" cType="1" res="-8.7250582873821259e-03" rms="4.4779276847839355e-01" purity="5.0482785701751709e-01" nType="0">
          <Node pos="l" depth="2" NCoef="0" IVar="-1" Cut="0.0000000000000000e+00" cType="1" res="1.7759441398084164e-03" rms="4.5982837677001953e-01" purity="4.3965661525726318e-01" nType="-99"/>
          <Node pos="r" depth="2" NCoef="0" IVar="-1" Cut="0.0000000000000000e+00" cType="1" res="-7.3505053296685219e-04" rms="4.4583833217620850e-01" purity="5.1374590396881104e-01" nType="-99"/>
        </Node>
      </Node>
    </BinaryTree>
    <BinaryTree type="DecisionTree" boostWeight="1.0000000000000000e+00" itree="830">
      <Node pos="s" depth="0" NCoef="0" IVar="2" Cut="1.0816646575927734e+02" cType="1" res="-2.3196863476186991e-03" rms="4.4862896203994751e-01" purity="4.9652853608131409e-01" nType="0">
        <Node pos="l" depth="1" NCoef="0" IVar="0" Cut="1.8059051036834717e+00" cType="1" res="-9.9396677687764168e-03" rms="4.5368257164955139e-01" purity="4.7909408807754517e-01" nType="0">
          <Node pos="l" depth="2" NCoef="0" IVar="-1" Cut="0.0000000000000000e+00" cType="1" res="-7.9074298264458776e-04" rms="4.5316267013549805e-01" purity="4.9150899052619934e-01" nType="-99"/>
          <Node pos="r" depth="2" NCoef="0" IVar="-1" Cut="0.0000000000000000e+00" cType="1" res="2.2600046359002590e-03" rms="4.5531713962554932e-01" purity="3.7945333123207092e-01" nType="-99"/>
        </Node>
        <Node pos="r" depth="1" NCoef="0" IVar="7" Cut="-5.7140070199966431e-01" cType="1" res="1.1268446221947670e-02" rms="4.3914505839347839e-01" purity="5.2761822938919067e-01" nType="0">
          <Node pos="l" depth="2" NCoef="0" IVar="-1" Cut="0.0000000000000000e+00" cType="1" res="-4.7142998664639890e-04" rms="4.4006741046905518e-01" purity="5.3798240423202515e-01" nType="-99"/>
          <Node pos="r" depth="2" NCoef="0" IVar="-1" Cut="0.0000000000000000e+00" cType="1" res="1.3299309648573399e-03" rms="4.3797412514686584e-01" purity="5.2056920528411865e-01" nType="-99"/>
        </Node>
      </Node>
    </BinaryTree>
    <BinaryTree type="DecisionTree" boostWeight="1.0000000000000000e+00" itree="831">
      <Node pos="s" depth="0" NCoef="0" IVar="0" Cut="1.7163974046707153e+00" cType="1" res="-7.3889736086130142e-04" rms="4.5094248652458191e-01" purity="4.9771630764007568e-01" nType="0">
        <Node pos="l" depth="1" NCoef="0" IVar="6" Cut="3.9392819213867188e+02" cType="1" res="-7.1480376645922661e-03" rms="4.5152124762535095e-01" purity="5.3723120689392090e-01" nType="0">
          <Node pos="l" depth="2" NCoef="0" IVar="-1" Cut="0.0000000000000000e+00" cType="1" res="-1.8161674961447716e-03" rms="4.4578409194946289e-01" purity="3.8442412018775940e-01" nType="-99"/>
          <Node pos="r" depth="2" NCoef="0" IVar="-1" Cut="0.0000000000000000e+00" cType="1" res="7.3713054007384926e-05" rms="4.5341667532920837e-01" purity="5.9629076719284058e-01" nType="-99"/>
        </Node>
        <Node pos="r" depth="1" NCoef="0" IVar="6" Cut="3.9625744628906250e+02" cType="1" res="1.5531714074313641e-02" rms="4.4905918836593628e-01" purity="3.9740160107612610e-01" nType="0">
          <Node pos="l" depth="2" NCoef="0" IVar="-1" Cut="0.0000000000000000e+00" cType="1" res="3.1082297209650278e-03" rms="4.4691911339759827e-01" purity="3.6959138512611389e-01" nType="-99"/>
          <Node pos="r" depth="2" NCoef="0" IVar="-1" Cut="0.0000000000000000e+00" cType="1" res="2.1853509679203853e-05" rms="4.4937819242477417e-01" purity="4.1147723793983459e-01" nType="-99"/>
        </Node>
      </Node>
    </BinaryTree>
    <BinaryTree type="DecisionTree" boostWeight="1.0000000000000000e+00" itree="832">
      <Node pos="s" depth="0" NCoef="0" IVar="0" Cut="1.6840425729751587e+00" cType="1" res="-2.0987205207347870e-03" rms="4.5272961258888245e-01" purity="4.9544200301170349e-01" nType="0">
        <Node pos="l" depth="1" NCoef="0" IVar="8" Cut="1.4398312377929688e+02" cType="1" res="-7.1521601639688015e-03" rms="4.5454949140548706e-01" purity="5.3516703844070435e-01" nType="0">
          <Node pos="l" depth="2" NCoef="0" IVar="-1" Cut="0.0000000000000000e+00" cType="1" res="-1.4162911102175713e-03" rms="4.6472719311714172e-01" purity="4.6750047802925110e-01" nType="-99"/>
          <Node pos="r" depth="2" NCoef="0" IVar="-1" Cut="0.0000000000000000e+00" cType="1" res="-3.2761276088422164e-05" rms="4.5094808936119080e-01" purity="5.5753082036972046e-01" nType="-99"/>
        </Node>
        <Node pos="r" depth="1" NCoef="0" IVar="2" Cut="1.2530761718750000e+02" cType="1" res="9.6316700801253319e-03" rms="4.4825711846351624e-01" purity="4.0322971343994141e-01" nType="0">
          <Node pos="l" depth="2" NCoef="0" IVar="-1" Cut="0.0000000000000000e+00" cType="1" res="1.6608100850135088e-03" rms="4.5607349276542664e-01" purity="4.3954429030418396e-01" nType="-99"/>
          <Node pos="r" depth="2" NCoef="0" IVar="-1" Cut="0.0000000000000000e+00" cType="1" res="-5.9402378974482417e-04" rms="4.4001027941703796e-01" purity="3.6943536996841431e-01" nType="-99"/>
        </Node>
      </Node>
    </BinaryTree>
    <BinaryTree type="DecisionTree" boostWeight="1.0000000000000000e+00" itree="833">
      <Node pos="s" depth="0" NCoef="0" IVar="5" Cut="1.8059626817703247e+00" cType="1" res="-1.5698956558480859e-03" rms="4.4841369986534119e-01" purity="4.9575302004814148e-01" nType="0">
        <Node pos="l" depth="1" NCoef="0" IVar="8" Cut="2.1931190490722656e+02" cType="1" res="-4.5865774154663086e-03" rms="4.4833147525787354e-01" purity="5.0482398271560669e-01" nType="0">
          <Node pos="l" depth="2" NCoef="0" IVar="-1" Cut="0.0000000000000000e+00" cType="1" res="1.6750083887018263e-04" rms="4.5439872145652771e-01" purity="5.3945916891098022e-01" nType="-99"/>
          <Node pos="r" depth="2" NCoef="0" IVar="-1" Cut="0.0000000000000000e+00" cType="1" res="-7.7901326585561037e-04" rms="4.4080296158790588e-01" purity="4.6354961395263672e-01" nType="-99"/>
        </Node>
        <Node pos="r" depth="1" NCoef="0" IVar="-1" Cut="0.0000000000000000e+00" cType="1" res="2.3055197671055794e-03" rms="4.4764778017997742e-01" purity="3.7844684720039368e-01" nType="-99"/>
      </Node>
    </BinaryTree>
    <BinaryTree type="DecisionTree" boostWeight="1.0000000000000000e+00" itree="834">
      <Node pos="s" depth="0" NCoef="0" IVar="5" Cut="1.2409352064132690e+00" cType="1" res="3.0322708189487457e-03" rms="4.4981071352958679e-01" purity="5.0057148933410645e-01" nType="0">
        <Node pos="l" depth="1" NCoef="0" IVar="5" Cut="1.0380287170410156e+00" cType="1" res="-5.4318592883646488e-03" rms="4.5340216159820557e-01" purity="5.4429900646209717e-01" nType="0">
          <Node pos="l" depth="2" NCoef="0" IVar="-1" Cut="0.0000000000000000e+00" cType="1" res="6.7154056159779429e-04" rms="4.5304483175277710e-01" purity="5.8614385128021240e-01" nType="-99"/>
          <Node pos="r" depth="2" NCoef="0" IVar="-1" Cut="0.0000000000000000e+00" cType="1" res="-1.0514388559386134e-03" rms="4.5309746265411377e-01" purity="5.1227009296417236e-01" nType="-99"/>
        </Node>
        <Node pos="r" depth="1" NCoef="0" IVar="7" Cut="-8.5664033889770508e-01" cType="1" res="1.0679307393729687e-02" rms="4.4640314579010010e-01" purity="4.6106526255607605e-01" nType="0">
          <Node pos="l" depth="2" NCoef="0" IVar="-1" Cut="0.0000000000000000e+00" cType="1" res="-5.7881313841789961e-04" rms="4.6178656816482544e-01" purity="5.0754129886627197e-01" nType="-99"/>
          <Node pos="r" depth="2" NCoef="0" IVar="-1" Cut="0.0000000000000000e+00" cType="1" res="1.1527374153956771e-03" rms="4.3902274966239929e-01" purity="4.4037869572639465e-01" nType="-99"/>
        </Node>
      </Node>
    </BinaryTree>
    <BinaryTree type="DecisionTree" boostWeight="1.0000000000000000e+00" itree="835">
      <Node pos="s" depth="0" NCoef="0" IVar="3" Cut="1.1642599487304688e+02" cType="1" res="-2.8822433669120073e-03" rms="4.5129179954528809e-01" purity="4.9083697795867920e-01" nType="0">
        <Node pos="l" depth="1" NCoef="0" IVar="2" Cut="6.9029510498046875e+01" cType="1" res="-1.6332056373357773e-02" rms="4.5250019431114197e-01" purity="4.2696392536163330e-01" nType="0">
          <Node pos="l" depth="2" NCoef="0" IVar="-1" Cut="0.0000000000000000e+00" cType="1" res="3.9017677772790194e-04" rms="4.6104785799980164e-01" purity="4.0299546718597412e-01" nType="-99"/>
          <Node pos="r" depth="2" NCoef="0" IVar="-1" Cut="0.0000000000000000e+00" cType="1" res="-1.9612021278589964e-03" rms="4.4502300024032593e-01" purity="4.4533771276473999e-01" nType="-99"/>
        </Node>
        <Node pos="r" depth="1" NCoef="0" IVar="1" Cut="9.3332380056381226e-01" cType="1" res="1.3910987181589007e-03" rms="4.5082318782806396e-01" purity="5.1113104820251465e-01" nType="0">
          <Node pos="l" depth="2" NCoef="0" IVar="-1" Cut="0.0000000000000000e+00" cType="1" res="-1.3050761772319674e-03" rms="4.3965771794319153e-01" purity="3.3300590515136719e-01" nType="-99"/>
          <Node pos="r" depth="2" NCoef="0" IVar="-1" Cut="0.0000000000000000e+00" cType="1" res="3.4785133902914822e-04" rms="4.5361897349357605e-01" purity="5.5921596288681030e-01" nType="-99"/>
        </Node>
      </Node>
    </BinaryTree>
    <BinaryTree type="DecisionTree" boostWeight="1.0000000000000000e+00" itree="836">
      <Node pos="s" depth="0" NCoef="0" IVar="1" Cut="9.1277056932449341e-01" cType="1" res="-1.0814339475473389e-04" rms="4.4970241189002991e-01" purity="4.9688422679901123e-01" nType="0">
        <Node pos="l" depth="1" NCoef="0" IVar="-1" Cut="0.0000000000000000e+00" cType="1" res="-3.0933229718357325e-03" rms="4.0561214089393616e-01" purity="2.5875052809715271e-01" nType="-99"/>
        <Node pos="r" depth="1" NCoef="0" IVar="1" Cut="9.3234908580780029e-01" cType="1" res="2.9237507842481136e-03" rms="4.5271557569503784e-01" purity="5.1488095521926880e-01" nType="0">
          <Node pos="l" depth="2" NCoef="0" IVar="-1" Cut="0.0000000000000000e+00" cType="1" res="1.3622605474665761e-03" rms="4.4963213801383972e-01" purity="3.9267817139625549e-01" nType="-99"/>
          <Node pos="r" depth="2" NCoef="0" IVar="-1" Cut="0.0000000000000000e+00" cType="1" res="-4.4384469219949096e-05" rms="4.5318263769149780e-01" purity="5.3755015134811401e-01" nType="-99"/>
        </Node>
      </Node>
    </BinaryTree>
    <BinaryTree type="DecisionTree" boostWeight="1.0000000000000000e+00" itree="837">
      <Node pos="s" depth="0" NCoef="0" IVar="6" Cut="2.8074206542968750e+02" cType="1" res="-4.0411832742393017e-03" rms="4.5013484358787537e-01" purity="4.9454587697982788e-01" nType="0">
        <Node pos="l" depth="1" NCoef="0" IVar="-1" Cut="0.0000000000000000e+00" cType="1" res="-2.9960139654576778e-03" rms="3.9995780587196350e-01" purity="2.5181177258491516e-01" nType="-99"/>
        <Node pos="r" depth="1" NCoef="0" IVar="1" Cut="9.5302242040634155e-01" cType="1" res="-2.3535457439720631e-03" rms="4.5274710655212402e-01" purity="5.0827050209045410e-01" nType="0">
          <Node pos="l" depth="2" NCoef="0" IVar="-1" Cut="0.0000000000000000e+00" cType="1" res="2.3428801796399057e-04" rms="4.5271408557891846e-01" purity="4.1430783271789551e-01" nType="-99"/>
          <Node pos="r" depth="2" NCoef="0" IVar="-1" Cut="0.0000000000000000e+00" cType="1" res="-4.0494976565241814e-04" rms="4.5269191265106201e-01" purity="5.9552478790283203e-01" nType="-99"/>
        </Node>
      </Node>
    </BinaryTree>
    <BinaryTree type="DecisionTree" boostWeight="1.0000000000000000e+00" itree="838">
      <Node pos="s" depth="0" NCoef="0" IVar="7" Cut="1.2851777076721191e+00" cType="1" res="-2.2275617811828852e-03" rms="4.4775304198265076e-01" purity="4.9609804153442383e-01" nType="0">
        <Node pos="l" depth="1" NCoef="0" IVar="7" Cut="8.9511072635650635e-01" cType="1" res="2.6317258016206324e-04" rms="4.4818162918090820e-01" purity="4.7808885574340820e-01" nType="0">
          <Node pos="l" depth="2" NCoef="0" IVar="-1" Cut="0.0000000000000000e+00" cType="1" res="-2.2083868680056185e-04" rms="4.4359847903251648e-01" purity="4.5959267020225525e-01" nType="-99"/>
          <Node pos="r" depth="2" NCoef="0" IVar="-1" Cut="0.0000000000000000e+00" cType="1" res="7.2191300569102168e-04" rms="4.6344166994094849e-01" purity="5.4233843088150024e-01" nType="-99"/>
        </Node>
        <Node pos="r" depth="1" NCoef="0" IVar="7" Cut="1.4280021190643311e+00" cType="1" res="-1.6970111057162285e-02" rms="4.4492229819297791e-01" purity="6.0269379615783691e-01" nType="0">
          <Node pos="l" depth="2" NCoef="0" IVar="-1" Cut="0.0000000000000000e+00" cType="1" res="-1.6612301114946604e-03" rms="4.5233875513076782e-01" purity="5.7240217924118042e-01" nType="-99"/>
          <Node pos="r" depth="2" NCoef="0" IVar="-1" Cut="0.0000000000000000e+00" cType="1" res="-1.0181932157138363e-04" rms="4.3771383166313171e-01" purity="6.2952703237533569e-01" nType="-99"/>
        </Node>
      </Node>
    </BinaryTree>
    <BinaryTree type="DecisionTree" boostWeight="1.0000000000000000e+00" itree="839">
      <Node pos="s" depth="0" NCoef="0" IVar="4" Cut="1.8004169464111328e+00" cType="1" res="7.9407071461901069e-04" rms="4.5051506161689758e-01" purity="4.9826666712760925e-01" nType="0">
        <Node pos="l" depth="1" NCoef="0" IVar="-1" Cut="0.0000000000000000e+00" cType="1" res="-2.0236338023096323e-03" rms="4.4063219428062439e-01" purity="5.4581034183502197e-01" nType="-99"/>
        <Node pos="r" depth="1" NCoef="0" IVar="0" Cut="6.8278259038925171e-01" cType="1" res="3.7949485704302788e-03" rms="4.5112535357475281e-01" purity="4.9461460113525391e-01" nType="0">
          <Node pos="l" depth="2" NCoef="0" IVar="-1" Cut="0.0000000000000000e+00" cType="1" res="-1.3385958736762404e-03" rms="4.5101630687713623e-01" purity="4.4253009557723999e-01" nType="-99"/>
          <Node pos="r" depth="2" NCoef="0" IVar="-1" Cut="0.0000000000000000e+00" cType="1" res="3.7724242429248989e-04" rms="4.5102030038833618e-01" purity="5.0101208686828613e-01" nType="-99"/>
        </Node>
      </Node>
    </BinaryTree>
    <BinaryTree type="DecisionTree" boostWeight="1.0000000000000000e+00" itree="840">
      <Node pos="s" depth="0" NCoef="0" IVar="6" Cut="6.6876293945312500e+02" cType="1" res="2.6516895741224289e-04" rms="4.5190387964248657e-01" purity="4.9916931986808777e-01" nType="0">
        <Node pos="l" depth="1" NCoef="0" IVar="7" Cut="-9.9944460391998291e-01" cType="1" res="3.7245040293782949e-03" rms="4.5086380839347839e-01" purity="4.8439088463783264e-01" nType="0">
          <Node pos="l" depth="2" NCoef="0" IVar="-1" Cut="0.0000000000000000e+00" cType="1" res="9.0253073722124100e-04" rms="4.6049070358276367e-01" purity="5.8726018667221069e-01" nType="-99"/>
          <Node pos="r" depth="2" NCoef="0" IVar="-1" Cut="0.0000000000000000e+00" cType="1" res="-1.5492066449951380e-04" rms="4.4680520892143250e-01" purity="4.4340443611145020e-01" nType="-99"/>
        </Node>
        <Node pos="r" depth="1" NCoef="0" IVar="7" Cut="-9.9903714656829834e-01" cType="1" res="-1.2676293961703777e-02" rms="4.5554083585739136e-01" purity="5.5445581674575806e-01" nType="0">
          <Node pos="l" depth="2" NCoef="0" IVar="-1" Cut="0.0000000000000000e+00" cType="1" res="-2.6163246948271990e-03" rms="4.5477503538131714e-01" purity="5.8444225788116455e-01" nType="-99"/>
          <Node pos="r" depth="2" NCoef="0" IVar="-1" Cut="0.0000000000000000e+00" cType="1" res="1.7412217857781798e-04" rms="4.5481529831886292e-01" purity="5.4277271032333374e-01" nType="-99"/>
        </Node>
      </Node>
    </BinaryTree>
    <BinaryTree type="DecisionTree" boostWeight="1.0000000000000000e+00" itree="841">
      <Node pos="s" depth="0" NCoef="0" IVar="4" Cut="1.7748084068298340e+00" cType="1" res="-1.8689197895582765e-04" rms="4.5005476474761963e-01" purity="4.9873107671737671e-01" nType="0">
        <Node pos="l" depth="1" NCoef="0" IVar="-1" Cut="0.0000000000000000e+00" cType="1" res="-1.5867871697992086e-03" rms="4.3739816546440125e-01" purity="5.3894704580307007e-01" nType="-99"/>
        <Node pos="r" depth="1" NCoef="0" IVar="7" Cut="-1.2851115465164185e+00" cType="1" res="1.7086394364014268e-03" rms="4.5077064633369446e-01" purity="4.9620440602302551e-01" nType="0">
          <Node pos="l" depth="2" NCoef="0" IVar="-1" Cut="0.0000000000000000e+00" cType="1" res="8.5093779489398003e-04" rms="4.5931866765022278e-01" purity="6.2201970815658569e-01" nType="-99"/>
          <Node pos="r" depth="2" NCoef="0" IVar="-1" Cut="0.0000000000000000e+00" cType="1" res="-5.7007397117558867e-05" rms="4.4927695393562317e-01" purity="4.7534015774726868e-01" nType="-99"/>
        </Node>
      </Node>
    </BinaryTree>
    <BinaryTree type="DecisionTree" boostWeight="1.0000000000000000e+00" itree="842">
      <Node pos="s" depth="0" NCoef="0" IVar="6" Cut="9.2972589111328125e+02" cType="1" res="2.3948787711560726e-03" rms="4.5038369297981262e-01" purity="5.0070345401763916e-01" nType="0">
        <Node pos="l" depth="1" NCoef="0" IVar="5" Cut="1.1359186172485352e+00" cType="1" res="5.4592257365584373e-03" rms="4.5072332024574280e-01" purity="4.9841031432151794e-01" nType="0">
          <Node pos="l" depth="2" NCoef="0" IVar="-1" Cut="0.0000000000000000e+00" cType="1" res="9.1668392997235060e-04" rms="4.5345005393028259e-01" purity="5.7729500532150269e-01" nType="-99"/>
          <Node pos="r" depth="2" NCoef="0" IVar="-1" Cut="0.0000000000000000e+00" cType="1" res="-1.4208862558007240e-04" rms="4.4896623492240906e-01" purity="4.5347508788108826e-01" nType="-99"/>
        </Node>
        <Node pos="r" depth="1" NCoef="0" IVar="-1" Cut="0.0000000000000000e+00" cType="1" res="-2.2934912703931332e-03" rms="4.4251614809036255e-01" purity="5.3578919172286987e-01" nType="-99"/>
      </Node>
    </BinaryTree>
    <BinaryTree type="DecisionTree" boostWeight="1.0000000000000000e+00" itree="843">
      <Node pos="s" depth="0" NCoef="0" IVar="1" Cut="9.8568528890609741e-01" cType="1" res="2.4118814617395401e-03" rms="4.4988375902175903e-01" purity="5.0038981437683105e-01" nType="0">
        <Node pos="l" depth="1" NCoef="0" IVar="6" Cut="3.2809652709960938e+02" cType="1" res="-3.9627790101803839e-04" rms="4.5159038901329041e-01" purity="4.7482678294181824e-01" nType="0">
          <Node pos="l" depth="2" NCoef="0" IVar="-1" Cut="0.0000000000000000e+00" cType="1" res="1.4091628836467862e-03" rms="4.3699309229850769e-01" purity="3.2422509789466858e-01" nType="-99"/>
          <Node pos="r" depth="2" NCoef="0" IVar="-1" Cut="0.0000000000000000e+00" cType="1" res="-1.9625168351922184e-04" rms="4.5402601361274719e-01" purity="5.0138354301452637e-01" nType="-99"/>
        </Node>
        <Node pos="r" depth="1" NCoef="0" IVar="-1" Cut="0.0000000000000000e+00" cType="1" res="1.1163195595145226e-03" rms="4.3556749820709229e-01" purity="7.0184516906738281e-01" nType="-99"/>
      </Node>
    </BinaryTree>
    <BinaryTree type="DecisionTree" boostWeight="1.0000000000000000e+00" itree="844">
      <Node pos="s" depth="0" NCoef="0" IVar="1" Cut="9.0796715021133423e-01" cType="1" res="1.6041245544329286e-03" rms="4.5095005631446838e-01" purity="4.9777156114578247e-01" nType="0">
        <Node pos="l" depth="1" NCoef="0" IVar="-1" Cut="0.0000000000000000e+00" cType="1" res="2.2905329242348671e-03" rms="4.4046488404273987e-01" purity="3.3672240376472473e-01" nType="-99"/>
        <Node pos="r" depth="1" NCoef="0" IVar="7" Cut="-2.8563797473907471e-01" cType="1" res="-4.2660898179747164e-04" rms="4.5147311687469482e-01" purity="5.0719100236892700e-01" nType="0">
          <Node pos="l" depth="2" NCoef="0" IVar="-1" Cut="0.0000000000000000e+00" cType="1" res="4.0579788037575781e-04" rms="4.5773813128471375e-01" purity="5.2136909961700439e-01" nType="-99"/>
          <Node pos="r" depth="2" NCoef="0" IVar="-1" Cut="0.0000000000000000e+00" cType="1" res="-4.3814888340421021e-04" rms="4.4546711444854736e-01" purity="4.9410608410835266e-01" nType="-99"/>
        </Node>
      </Node>
    </BinaryTree>
    <BinaryTree type="DecisionTree" boostWeight="1.0000000000000000e+00" itree="845">
      <Node pos="s" depth="0" NCoef="0" IVar="2" Cut="1.1549501800537109e+02" cType="1" res="2.8428263030946255e-03" rms="4.4824558496475220e-01" purity="5.0275087356567383e-01" nType="0">
        <Node pos="l" depth="1" NCoef="0" IVar="2" Cut="9.6451751708984375e+01" cType="1" res="-4.0320940315723419e-03" rms="4.5234555006027222e-01" purity="4.9485558271408081e-01" nType="0">
          <Node pos="l" depth="2" NCoef="0" IVar="-1" Cut="0.0000000000000000e+00" cType="1" res="-4.7082584933377802e-04" rms="4.5481082797050476e-01" purity="4.7184181213378906e-01" nType="-99"/>
          <Node pos="r" depth="2" NCoef="0" IVar="-1" Cut="0.0000000000000000e+00" cType="1" res="8.6792896036058664e-04" rms="4.4026917219161987e-01" purity="5.9929072856903076e-01" nType="-99"/>
        </Node>
        <Node pos="r" depth="1" NCoef="0" IVar="0" Cut="1.4536782503128052e+00" cType="1" res="1.7979755997657776e-02" rms="4.3870395421981812e-01" purity="5.2013438940048218e-01" nType="0">
          <Node pos="l" depth="2" NCoef="0" IVar="-1" Cut="0.0000000000000000e+00" cType="1" res="1.7566671594977379e-03" rms="4.1008451581001282e-01" purity="7.4642074108123779e-01" nType="-99"/>
          <Node pos="r" depth="2" NCoef="0" IVar="-1" Cut="0.0000000000000000e+00" cType="1" res="5.8679986977949739e-04" rms="4.4808050990104675e-01" purity="4.4062438607215881e-01" nType="-99"/>
        </Node>
      </Node>
    </BinaryTree>
    <BinaryTree type="DecisionTree" boostWeight="1.0000000000000000e+00" itree="846">
      <Node pos="s" depth="0" NCoef="0" IVar="5" Cut="1.7800714969635010e+00" cType="1" res="6.7359204404056072e-03" rms="4.4996920228004456e-01" purity="5.0681304931640625e-01" nType="0">
        <Node pos="l" depth="1" NCoef="0" IVar="0" Cut="1.1010837554931641e+00" cType="1" res="4.1997828520834446e-03" rms="4.4954115152359009e-01" purity="5.1828479766845703e-01" nType="0">
          <Node pos="l" depth="2" NCoef="0" IVar="-1" Cut="0.0000000000000000e+00" cType="1" res="7.6931493822485209e-04" rms="4.4566529989242554e-01" purity="5.6862652301788330e-01" nType="-99"/>
          <Node pos="r" depth="2" NCoef="0" IVar="-1" Cut="0.0000000000000000e+00" cType="1" res="-1.2665083340834826e-04" rms="4.5154547691345215e-01" purity="4.9030399322509766e-01" nType="-99"/>
        </Node>
        <Node pos="r" depth="1" NCoef="0" IVar="-1" Cut="0.0000000000000000e+00" cType="1" res="2.3178504779934883e-03" rms="4.5385396480560303e-01" purity="3.7450826168060303e-01" nType="-99"/>
      </Node>
    </BinaryTree>
    <BinaryTree type="DecisionTree" boostWeight="1.0000000000000000e+00" itree="847">
      <Node pos="s" depth="0" NCoef="0" IVar="4" Cut="2.4865896701812744e+00" cType="1" res="3.3670973498374224e-03" rms="4.5019873976707458e-01" purity="5.0290489196777344e-01" nType="0">
        <Node pos="l" depth="1" NCoef="0" IVar="2" Cut="1.3283618164062500e+02" cType="1" res="-1.4455515192821622e-03" rms="4.5595654845237732e-01" purity="5.5519324541091919e-01" nType="0">
          <Node pos="l" depth="2" NCoef="0" IVar="-1" Cut="0.0000000000000000e+00" cType="1" res="1.2343074195086956e-04" rms="4.5447444915771484e-01" purity="5.6181949377059937e-01" nType="-99"/>
          <Node pos="r" depth="2" NCoef="0" IVar="-1" Cut="0.0000000000000000e+00" cType="1" res="-1.0458469623699784e-03" rms="4.6258169412612915e-01" purity="5.2301388978958130e-01" nType="-99"/>
        </Node>
        <Node pos="r" depth="1" NCoef="0" IVar="6" Cut="5.2261633300781250e+02" cType="1" res="1.9791079685091972e-02" rms="4.2956331372261047e-01" purity="3.2446175813674927e-01" nType="0">
          <Node pos="l" depth="2" NCoef="0" IVar="-1" Cut="0.0000000000000000e+00" cType="1" res="4.6871180529706180e-04" rms="4.1516724228858948e-01" purity="2.7521657943725586e-01" nType="-99"/>
          <Node pos="r" depth="2" NCoef="0" IVar="-1" Cut="0.0000000000000000e+00" cType="1" res="2.5802282616496086e-03" rms="4.5123201608657837e-01" purity="4.0533119440078735e-01" nType="-99"/>
        </Node>
      </Node>
    </BinaryTree>
    <BinaryTree type="DecisionTree" boostWeight="1.0000000000000000e+00" itree="848">
      <Node pos="s" depth="0" NCoef="0" IVar="3" Cut="1.4461666870117188e+02" cType="1" res="2.3035965859889984e-03" rms="4.5112475752830505e-01" purity="5.0087904930114746e-01" nType="0">
        <Node pos="l" depth="1" NCoef="0" IVar="2" Cut="1.6877384948730469e+02" cType="1" res="2.6407852419652045e-04" rms="4.5102772116661072e-01" purity="5.0938707590103149e-01" nType="0">
          <Node pos="l" depth="2" NCoef="0" IVar="-1" Cut="0.0000000000000000e+00" cType="1" res="1.4331848069559783e-04" rms="4.5211917161941528e-01" purity="5.2329856157302856e-01" nType="-99"/>
          <Node pos="r" depth="2" NCoef="0" IVar="-1" Cut="0.0000000000000000e+00" cType="1" res="-1.4231876702979207e-03" rms="4.4050553441047668e-01" purity="3.8535571098327637e-01" nType="-99"/>
        </Node>
        <Node pos="r" depth="1" NCoef="0" IVar="-1" Cut="0.0000000000000000e+00" cType="1" res="2.6907457504421473e-03" rms="4.5133116841316223e-01" purity="3.5212415456771851e-01" nType="-99"/>
      </Node>
    </BinaryTree>
    <BinaryTree type="DecisionTree" boostWeight="1.0000000000000000e+00" itree="849">
      <Node pos="s" depth="0" NCoef="0" IVar="4" Cut="1.8618031740188599e+00" cType="1" res="1.1563219595700502e-03" rms="4.5101574063301086e-01" purity="4.9812048673629761e-01" nType="0">
        <Node pos="l" depth="1" NCoef="0" IVar="-1" Cut="0.0000000000000000e+00" cType="1" res="1.3848957605659962e-03" rms="4.4912350177764893e-01" purity="6.1514675617218018e-01" nType="-99"/>
        <Node pos="r" depth="1" NCoef="0" IVar="6" Cut="3.3279724121093750e+02" cType="1" res="-2.5408933870494366e-03" rms="4.5112061500549316e-01" purity="4.8327645659446716e-01" nType="0">
          <Node pos="l" depth="2" NCoef="0" IVar="-1" Cut="0.0000000000000000e+00" cType="1" res="1.2487974017858505e-03" rms="4.3576025962829590e-01" purity="3.4337908029556274e-01" nType="-99"/>
          <Node pos="r" depth="2" NCoef="0" IVar="-1" Cut="0.0000000000000000e+00" cType="1" res="-3.1441223109140992e-04" rms="4.5368260145187378e-01" purity="5.0796991586685181e-01" nType="-99"/>
        </Node>
      </Node>
    </BinaryTree>
    <BinaryTree type="DecisionTree" boostWeight="1.0000000000000000e+00" itree="850">
      <Node pos="s" depth="0" NCoef="0" IVar="3" Cut="1.1622031402587891e+02" cType="1" res="1.3096376787871122e-03" rms="4.4861909747123718e-01" purity="4.9956700205802917e-01" nType="0">
        <Node pos="l" depth="1" NCoef="0" IVar="7" Cut="1.4282014966011047e-01" cType="1" res="-1.2364015914499760e-02" rms="4.4591844081878662e-01" purity="4.4049841165542603e-01" nType="0">
          <Node pos="l" depth="2" NCoef="0" IVar="-1" Cut="0.0000000000000000e+00" cType="1" res="6.8985966208856553e-05" rms="4.4625538587570190e-01" purity="4.5493620634078979e-01" nType="-99"/>
          <Node pos="r" depth="2" NCoef="0" IVar="-1" Cut="0.0000000000000000e+00" cType="1" res="-1.6772607341408730e-03" rms="4.4501242041587830e-01" purity="4.2386800050735474e-01" nType="-99"/>
        </Node>
        <Node pos="r" depth="1" NCoef="0" IVar="1" Cut="9.6572804450988770e-01" cType="1" res="5.6094573810696602e-03" rms="4.4937902688980103e-01" purity="5.1814168691635132e-01" nType="0">
          <Node pos="l" depth="2" NCoef="0" IVar="-1" Cut="0.0000000000000000e+00" cType="1" res="5.9327046619728208e-04" rms="4.5244118571281433e-01" purity="4.6050661802291870e-01" nType="-99"/>
          <Node pos="r" depth="2" NCoef="0" IVar="-1" Cut="0.0000000000000000e+00" cType="1" res="-2.7182331541553140e-04" rms="4.4305318593978882e-01" purity="6.3191789388656616e-01" nType="-99"/>
        </Node>
      </Node>
    </BinaryTree>
    <BinaryTree type="DecisionTree" boostWeight="1.0000000000000000e+00" itree="851">
      <Node pos="s" depth="0" NCoef="0" IVar="2" Cut="1.5046159362792969e+02" cType="1" res="4.8549151979386806e-03" rms="4.4752654433250427e-01" purity="5.0707936286926270e-01" nType="0">
        <Node pos="l" depth="1" NCoef="0" IVar="7" Cut="-9.9948471784591675e-01" cType="1" res="9.6869543194770813e-03" rms="4.4949224591255188e-01" purity="5.2707099914550781e-01" nType="0">
          <Node pos="l" depth="2" NCoef="0" IVar="-1" Cut="0.0000000000000000e+00" cType="1" res="1.3184316921979189e-03" rms="4.6043109893798828e-01" purity="6.1487972736358643e-01" nType="-99"/>
          <Node pos="r" depth="2" NCoef="0" IVar="-1" Cut="0.0000000000000000e+00" cType="1" res="5.7519260735716671e-05" rms="4.4435209035873413e-01" purity="4.8868209123611450e-01" nType="-99"/>
        </Node>
        <Node pos="r" depth="1" NCoef="0" IVar="7" Cut="5.7037913799285889e-01" cType="1" res="-2.3551760241389275e-02" rms="4.3470656871795654e-01" purity="3.8955262303352356e-01" nType="0">
          <Node pos="l" depth="2" NCoef="0" IVar="-1" Cut="0.0000000000000000e+00" cType="1" res="-2.9085876303724945e-04" rms="4.3691912293434143e-01" purity="3.7317976355552673e-01" nType="-99"/>
          <Node pos="r" depth="2" NCoef="0" IVar="-1" Cut="0.0000000000000000e+00" cType="1" res="-3.3263503573834896e-03" rms="4.2907825112342834e-01" purity="4.1702851653099060e-01" nType="-99"/>
        </Node>
      </Node>
    </BinaryTree>
    <BinaryTree type="DecisionTree" boostWeight="1.0000000000000000e+00" itree="852">
      <Node pos="s" depth="0" NCoef="0" IVar="1" Cut="9.5970845222473145e-01" cType="1" res="1.8208344699814916e-03" rms="4.5049968361854553e-01" purity="5.0079900026321411e-01" nType="0">
        <Node pos="l" depth="1" NCoef="0" IVar="5" Cut="9.5732939243316650e-01" cType="1" res="-4.3386002071201801e-03" rms="4.5205006003379822e-01" purity="4.1127738356590271e-01" nType="0">
          <Node pos="l" depth="2" NCoef="0" IVar="-1" Cut="0.0000000000000000e+00" cType="1" res="2.0088762976229191e-03" rms="4.7506102919578552e-01" purity="5.3787362575531006e-01" nType="-99"/>
          <Node pos="r" depth="2" NCoef="0" IVar="-1" Cut="0.0000000000000000e+00" cType="1" res="-5.6931679137051105e-04" rms="4.4907227158546448e-01" purity="3.9709362387657166e-01" nType="-99"/>
        </Node>
        <Node pos="r" depth="1" NCoef="0" IVar="8" Cut="4.0554519653320312e+02" cType="1" res="1.0027765296399593e-02" rms="4.4829407334327698e-01" purity="6.2007904052734375e-01" nType="0">
          <Node pos="l" depth="2" NCoef="0" IVar="-1" Cut="0.0000000000000000e+00" cType="1" res="1.8237215408589691e-04" rms="4.4790297746658325e-01" purity="6.3040053844451904e-01" nType="-99"/>
          <Node pos="r" depth="2" NCoef="0" IVar="-1" Cut="0.0000000000000000e+00" cType="1" res="2.2472660057246685e-03" rms="4.4888845086097717e-01" purity="5.5759137868881226e-01" nType="-99"/>
        </Node>
      </Node>
    </BinaryTree>
    <BinaryTree type="DecisionTree" boostWeight="1.0000000000000000e+00" itree="853">
      <Node pos="s" depth="0" NCoef="0" IVar="4" Cut="2.4905695915222168e+00" cType="1" res="1.4549988554790616e-03" rms="4.4477465748786926e-01" purity="5.0365424156188965e-01" nType="0">
        <Node pos="l" depth="1" NCoef="0" IVar="8" Cut="2.8190701293945312e+02" cType="1" res="7.5394874438643456e-03" rms="4.5312187075614929e-01" purity="5.6548720598220825e-01" nType="0">
          <Node pos="l" depth="2" NCoef="0" IVar="-1" Cut="0.0000000000000000e+00" cType="1" res="5.8233307208865881e-04" rms="4.5415377616882324e-01" purity="5.7500052452087402e-01" nType="-99"/>
          <Node pos="r" depth="2" NCoef="0" IVar="-1" Cut="0.0000000000000000e+00" cType="1" res="-4.1705707553774118e-04" rms="4.4933617115020752e-01" purity="5.3422558307647705e-01" nType="-99"/>
        </Node>
        <Node pos="r" depth="1" NCoef="0" IVar="7" Cut="5.7027876377105713e-01" cType="1" res="-2.0655196160078049e-02" rms="4.1226878762245178e-01" purity="2.7896153926849365e-01" nType="0">
          <Node pos="l" depth="2" NCoef="0" IVar="-1" Cut="0.0000000000000000e+00" cType="1" res="-3.0285587999969721e-03" rms="4.0084531903266907e-01" purity="2.4592119455337524e-01" nType="-99"/>
          <Node pos="r" depth="2" NCoef="0" IVar="-1" Cut="0.0000000000000000e+00" cType="1" res="1.7672807734925300e-04" rms="4.3031367659568787e-01" purity="3.3608952164649963e-01" nType="-99"/>
        </Node>
      </Node>
    </BinaryTree>
    <BinaryTree type="DecisionTree" boostWeight="1.0000000000000000e+00" itree="854">
      <Node pos="s" depth="0" NCoef="0" IVar="1" Cut="9.1942656040191650e-01" cType="1" res="6.5457872115075588e-03" rms="4.4754925370216370e-01" purity="5.0807505846023560e-01" nType="0">
        <Node pos="l" depth="1" NCoef="0" IVar="7" Cut="-4.5716762542724609e-04" cType="1" res="-2.3863617330789566e-02" rms="4.2080107331275940e-01" purity="2.8658398985862732e-01" nType="0">
          <Node pos="l" depth="2" NCoef="0" IVar="-1" Cut="0.0000000000000000e+00" cType="1" res="-3.0403402633965015e-03" rms="4.1234463453292847e-01" purity="2.6846721768379211e-01" nType="-99"/>
          <Node pos="r" depth="2" NCoef="0" IVar="-1" Cut="0.0000000000000000e+00" cType="1" res="-4.6253800974227488e-04" rms="4.2829144001007080e-01" purity="3.0449143052101135e-01" nType="-99"/>
        </Node>
        <Node pos="r" depth="1" NCoef="0" IVar="5" Cut="1.7074896097183228e+00" cType="1" res="1.0251301340758801e-02" rms="4.5055988430976868e-01" purity="5.3506469726562500e-01" nType="0">
          <Node pos="l" depth="2" NCoef="0" IVar="-1" Cut="0.0000000000000000e+00" cType="1" res="6.2365375924855471e-04" rms="4.5197761058807373e-01" purity="5.5361938476562500e-01" nType="-99"/>
          <Node pos="r" depth="2" NCoef="0" IVar="-1" Cut="0.0000000000000000e+00" cType="1" res="-8.1398163456469774e-04" rms="4.3673208355903625e-01" purity="3.6588644981384277e-01" nType="-99"/>
        </Node>
      </Node>
    </BinaryTree>
    <BinaryTree type="DecisionTree" boostWeight="1.0000000000000000e+00" itree="855">
      <Node pos="s" depth="0" NCoef="0" IVar="4" Cut="1.9145334959030151e+00" cType="1" res="4.9817450344562531e-03" rms="4.5205545425415039e-01" purity="5.0309252738952637e-01" nType="0">
        <Node pos="l" depth="1" NCoef="0" IVar="3" Cut="1.1835448455810547e+02" cType="1" res="-2.6285775005817413e-02" rms="4.4797891378402710e-01" purity="5.7025271654129028e-01" nType="0">
          <Node pos="l" depth="2" NCoef="0" IVar="-1" Cut="0.0000000000000000e+00" cType="1" res="-2.9770485125482082e-03" rms="4.4086956977844238e-01" purity="4.8719891905784607e-01" nType="-99"/>
          <Node pos="r" depth="2" NCoef="0" IVar="-1" Cut="0.0000000000000000e+00" cType="1" res="-4.6516928705386817e-04" rms="4.5129999518394470e-01" purity="6.1892491579055786e-01" nType="-99"/>
        </Node>
        <Node pos="r" depth="1" NCoef="0" IVar="0" Cut="1.8327215909957886e+00" cType="1" res="1.0062213055789471e-02" rms="4.5251035690307617e-01" purity="4.9218004941940308e-01" nType="0">
          <Node pos="l" depth="2" NCoef="0" IVar="-1" Cut="0.0000000000000000e+00" cType="1" res="2.1086826745886356e-04" rms="4.5505064725875854e-01" purity="5.3335767984390259e-01" nType="-99"/>
          <Node pos="r" depth="2" NCoef="0" IVar="-1" Cut="0.0000000000000000e+00" cType="1" res="1.6898458125069737e-03" rms="4.4492897391319275e-01" purity="3.7698027491569519e-01" nType="-99"/>
        </Node>
      </Node>
    </BinaryTree>
    <BinaryTree type="DecisionTree" boostWeight="1.0000000000000000e+00" itree="856">
      <Node pos="s" depth="0" NCoef="0" IVar="5" Cut="9.5503222942352295e-01" cType="1" res="-1.2565298238769174e-03" rms="4.5038866996765137e-01" purity="5.0142127275466919e-01" nType="0">
        <Node pos="l" depth="1" NCoef="0" IVar="-1" Cut="0.0000000000000000e+00" cType="1" res="1.2998974416404963e-03" rms="4.4116777181625366e-01" purity="6.2405049800872803e-01" nType="-99"/>
        <Node pos="r" depth="1" NCoef="0" IVar="5" Cut="1.5194102525711060e+00" cType="1" res="-4.6191643923521042e-03" rms="4.5129799842834473e-01" purity="4.8753291368484497e-01" nType="0">
          <Node pos="l" depth="2" NCoef="0" IVar="-1" Cut="0.0000000000000000e+00" cType="1" res="-4.3321022531017661e-04" rms="4.5397326350212097e-01" purity="5.1502388715744019e-01" nType="-99"/>
          <Node pos="r" depth="2" NCoef="0" IVar="-1" Cut="0.0000000000000000e+00" cType="1" res="4.1757622966542840e-04" rms="4.4299393892288208e-01" purity="4.0524822473526001e-01" nType="-99"/>
        </Node>
      </Node>
    </BinaryTree>
    <BinaryTree type="DecisionTree" boostWeight="1.0000000000000000e+00" itree="857">
      <Node pos="s" depth="0" NCoef="0" IVar="4" Cut="2.7758016586303711e+00" cType="1" res="-1.5899754362180829e-04" rms="4.4944688677787781e-01" purity="4.9847725033760071e-01" nType="0">
        <Node pos="l" depth="1" NCoef="0" IVar="5" Cut="1.7998009920120239e+00" cType="1" res="2.4553632829338312e-03" rms="4.5500507950782776e-01" purity="5.2201724052429199e-01" nType="0">
          <Node pos="l" depth="2" NCoef="0" IVar="-1" Cut="0.0000000000000000e+00" cType="1" res="2.3086919100023806e-04" rms="4.5567736029624939e-01" purity="5.3515303134918213e-01" nType="-99"/>
          <Node pos="r" depth="2" NCoef="0" IVar="-1" Cut="0.0000000000000000e+00" cType="1" res="-2.1986595820635557e-03" rms="4.4321683049201965e-01" purity="3.2174646854400635e-01" nType="-99"/>
        </Node>
        <Node pos="r" depth="1" NCoef="0" IVar="-1" Cut="0.0000000000000000e+00" cType="1" res="-4.5183035545051098e-03" rms="3.6178085207939148e-01" purity="1.7206144332885742e-01" nType="-99"/>
      </Node>
    </BinaryTree>
    <BinaryTree type="DecisionTree" boostWeight="1.0000000000000000e+00" itree="858">
      <Node pos="s" depth="0" NCoef="0" IVar="5" Cut="1.7981730699539185e+00" cType="1" res="1.3210850767791271e-02" rms="4.5213466882705688e-01" purity="5.1344293355941772e-01" nType="0">
        <Node pos="l" depth="1" NCoef="0" IVar="0" Cut="1.1323347091674805e+00" cType="1" res="1.1203533969819546e-02" rms="4.5236951112747192e-01" purity="5.2351760864257812e-01" nType="0">
          <Node pos="l" depth="2" NCoef="0" IVar="-1" Cut="0.0000000000000000e+00" cType="1" res="9.4474671641364694e-04" rms="4.4798937439918518e-01" purity="5.7388573884963989e-01" nType="-99"/>
          <Node pos="r" depth="2" NCoef="0" IVar="-1" Cut="0.0000000000000000e+00" cType="1" res="3.0250172130763531e-04" rms="4.5497220754623413e-01" purity="4.9237936735153198e-01" nType="-99"/>
        </Node>
        <Node pos="r" depth="1" NCoef="0" IVar="-1" Cut="0.0000000000000000e+00" cType="1" res="2.4159564636647701e-03" rms="4.4823586940765381e-01" purity="3.8198024034500122e-01" nType="-99"/>
      </Node>
    </BinaryTree>
    <BinaryTree type="DecisionTree" boostWeight="1.0000000000000000e+00" itree="859">
      <Node pos="s" depth="0" NCoef="0" IVar="4" Cut="2.0793409347534180e+00" cType="1" res="-1.9488292746245861e-03" rms="4.4932603836059570e-01" purity="4.9715167284011841e-01" nType="0">
        <Node pos="l" depth="1" NCoef="0" IVar="1" Cut="9.3411803245544434e-01" cType="1" res="1.5339584089815617e-02" rms="4.5260906219482422e-01" purity="6.1616992950439453e-01" nType="0">
          <Node pos="l" depth="2" NCoef="0" IVar="-1" Cut="0.0000000000000000e+00" cType="1" res="2.9043962713330984e-03" rms="4.7715759277343750e-01" purity="5.1465260982513428e-01" nType="-99"/>
          <Node pos="r" depth="2" NCoef="0" IVar="-1" Cut="0.0000000000000000e+00" cType="1" res="3.7429359508678317e-05" rms="4.4422152638435364e-01" purity="6.4543873071670532e-01" nType="-99"/>
        </Node>
        <Node pos="r" depth="1" NCoef="0" IVar="7" Cut="6.0498714447021484e-05" cType="1" res="-1.0289074853062630e-02" rms="4.4749486446380615e-01" purity="4.3973514437675476e-01" nType="0">
          <Node pos="l" depth="2" NCoef="0" IVar="-1" Cut="0.0000000000000000e+00" cType="1" res="-2.5650324460002594e-05" rms="4.5153221487998962e-01" purity="4.4548761844635010e-01" nType="-99"/>
          <Node pos="r" depth="2" NCoef="0" IVar="-1" Cut="0.0000000000000000e+00" cType="1" res="-1.1691104155033827e-03" rms="4.4308254122734070e-01" purity="4.3382617831230164e-01" nType="-99"/>
        </Node>
      </Node>
    </BinaryTree>
    <BinaryTree type="DecisionTree" boostWeight="1.0000000000000000e+00" itree="860">
      <Node pos="s" depth="0" NCoef="0" IVar="3" Cut="1.1489996337890625e+02" cType="1" res="3.9805709384381771e-03" rms="4.4920817017555237e-01" purity="5.0359612703323364e-01" nType="0">
        <Node pos="l" depth="1" NCoef="0" IVar="4" Cut="2.1394245624542236e+00" cType="1" res="-9.7907250747084618e-03" rms="4.5030513405799866e-01" purity="4.3002152442932129e-01" nType="0">
          <Node pos="l" depth="2" NCoef="0" IVar="-1" Cut="0.0000000000000000e+00" cType="1" res="-1.4044275740161538e-03" rms="4.5782259106636047e-01" purity="4.9882614612579346e-01" nType="-99"/>
          <Node pos="r" depth="2" NCoef="0" IVar="-1" Cut="0.0000000000000000e+00" cType="1" res="2.0281490287743509e-04" rms="4.4414156675338745e-01" purity="3.7841856479644775e-01" nType="-99"/>
        </Node>
        <Node pos="r" depth="1" NCoef="0" IVar="4" Cut="1.8756725788116455e+00" cType="1" res="7.5735352002084255e-03" rms="4.4885206222534180e-01" purity="5.2279198169708252e-01" nType="0">
          <Node pos="l" depth="2" NCoef="0" IVar="-1" Cut="0.0000000000000000e+00" cType="1" res="1.4752987772226334e-03" rms="4.4298467040061951e-01" purity="6.5955990552902222e-01" nType="-99"/>
          <Node pos="r" depth="2" NCoef="0" IVar="-1" Cut="0.0000000000000000e+00" cType="1" res="2.3240561131387949e-04" rms="4.4944265484809875e-01" purity="5.0661879777908325e-01" nType="-99"/>
        </Node>
      </Node>
    </BinaryTree>
    <BinaryTree type="DecisionTree" boostWeight="1.0000000000000000e+00" itree="861">
      <Node pos="s" depth="0" NCoef="0" IVar="5" Cut="1.3247652053833008e+00" cType="1" res="2.9365406371653080e-03" rms="4.4899553060531616e-01" purity="5.0256466865539551e-01" nType="0">
        <Node pos="l" depth="1" NCoef="0" IVar="5" Cut="1.2662659883499146e+00" cType="1" res="-4.1107032448053360e-03" rms="4.5132666826248169e-01" purity="5.4030251502990723e-01" nType="0">
          <Node pos="l" depth="2" NCoef="0" IVar="-1" Cut="0.0000000000000000e+00" cType="1" res="-7.5772190939460415e-06" rms="4.5110318064689636e-01" purity="5.5025923252105713e-01" nType="-99"/>
          <Node pos="r" depth="2" NCoef="0" IVar="-1" Cut="0.0000000000000000e+00" cType="1" res="-2.1078858990222216e-03" rms="4.5184183120727539e-01" purity="4.5744684338569641e-01" nType="-99"/>
        </Node>
        <Node pos="r" depth="1" NCoef="0" IVar="1" Cut="9.7945278882980347e-01" cType="1" res="1.2669273652136326e-02" rms="4.4557282328605652e-01" purity="4.5044612884521484e-01" nType="0">
          <Node pos="l" depth="2" NCoef="0" IVar="-1" Cut="0.0000000000000000e+00" cType="1" res="1.0625224094837904e-03" rms="4.4486299157142639e-01" purity="4.2514055967330933e-01" nType="-99"/>
          <Node pos="r" depth="2" NCoef="0" IVar="-1" Cut="0.0000000000000000e+00" cType="1" res="-9.9943357054144144e-04" rms="4.4812268018722534e-01" purity="5.9378731250762939e-01" nType="-99"/>
        </Node>
      </Node>
    </BinaryTree>
    <BinaryTree type="DecisionTree" boostWeight="1.0000000000000000e+00" itree="862">
      <Node pos="s" depth="0" NCoef="0" IVar="5" Cut="1.4269063472747803e+00" cType="1" res="3.5525176208466291e-03" rms="4.4968023896217346e-01" purity="5.0215816497802734e-01" nType="0">
        <Node pos="l" depth="1" NCoef="0" IVar="8" Cut="2.1931190490722656e+02" cType="1" res="-5.8433935046195984e-03" rms="4.4971877336502075e-01" purity="5.3122395277023315e-01" nType="0">
          <Node pos="l" depth="2" NCoef="0" IVar="-1" Cut="0.0000000000000000e+00" cType="1" res="2.1728659339714795e-04" rms="4.5529091358184814e-01" purity="5.6122493743896484e-01" nType="-99"/>
          <Node pos="r" depth="2" NCoef="0" IVar="-1" Cut="0.0000000000000000e+00" cType="1" res="-1.0312421945855021e-03" rms="4.4221949577331543e-01" purity="4.9328067898750305e-01" nType="-99"/>
        </Node>
        <Node pos="r" depth="1" NCoef="0" IVar="3" Cut="1.2675475311279297e+02" cType="1" res="2.3932568728923798e-02" rms="4.4892126321792603e-01" purity="4.3911355733871460e-01" nType="0">
          <Node pos="l" depth="2" NCoef="0" IVar="-1" Cut="0.0000000000000000e+00" cType="1" res="1.8706966657191515e-03" rms="4.5235589146614075e-01" purity="4.6354091167449951e-01" nType="-99"/>
          <Node pos="r" depth="2" NCoef="0" IVar="-1" Cut="0.0000000000000000e+00" cType="1" res="2.3797516769263893e-04" rms="4.4177925586700439e-01" purity="3.9380529522895813e-01" nType="-99"/>
        </Node>
      </Node>
    </BinaryTree>
    <BinaryTree type="DecisionTree" boostWeight="1.0000000000000000e+00" itree="863">
      <Node pos="s" depth="0" NCoef="0" IVar="4" Cut="2.7726175785064697e+00" cType="1" res="1.4343770453706384e-03" rms="4.5146632194519043e-01" purity="4.9893525242805481e-01" nType="0">
        <Node pos="l" depth="1" NCoef="0" IVar="5" Cut="1.7074896097183228e+00" cType="1" res="-1.4539607800543308e-03" rms="4.5425087213516235e-01" purity="5.1838779449462891e-01" nType="0">
          <Node pos="l" depth="2" NCoef="0" IVar="-1" Cut="0.0000000000000000e+00" cType="1" res="-2.2217046353034675e-04" rms="4.5297935605049133e-01" purity="5.3123754262924194e-01" nType="-99"/>
          <Node pos="r" depth="2" NCoef="0" IVar="-1" Cut="0.0000000000000000e+00" cType="1" res="1.5332718612626195e-03" rms="4.6463543176651001e-01" purity="4.0278533101081848e-01" nType="-99"/>
        </Node>
        <Node pos="r" depth="1" NCoef="0" IVar="-1" Cut="0.0000000000000000e+00" cType="1" res="3.7194981705397367e-03" rms="4.1266205906867981e-01" purity="2.5152659416198730e-01" nType="-99"/>
      </Node>
    </BinaryTree>
    <BinaryTree type="DecisionTree" boostWeight="1.0000000000000000e+00" itree="864">
      <Node pos="s" depth="0" NCoef="0" IVar="2" Cut="5.9469474792480469e+01" cType="1" res="1.1656415881589055e-03" rms="4.4821053743362427e-01" purity="5.0198060274124146e-01" nType="0">
        <Node pos="l" depth="1" NCoef="0" IVar="7" Cut="-5.7113373279571533e-01" cType="1" res="-1.7736183479428291e-02" rms="4.5592495799064636e-01" purity="4.0972185134887695e-01" nType="0">
          <Node pos="l" depth="2" NCoef="0" IVar="-1" Cut="0.0000000000000000e+00" cType="1" res="2.5406214990653098e-04" rms="4.6907088160514832e-01" purity="4.5477777719497681e-01" nType="-99"/>
          <Node pos="r" depth="2" NCoef="0" IVar="-1" Cut="0.0000000000000000e+00" cType="1" res="-2.1676472388207912e-03" rms="4.4416797161102295e-01" purity="3.7328827381134033e-01" nType="-99"/>
        </Node>
        <Node pos="r" depth="1" NCoef="0" IVar="0" Cut="1.5942965745925903e+00" cType="1" res="7.9744923859834671e-03" rms="4.4520232081413269e-01" purity="5.3521412611007690e-01" nType="0">
          <Node pos="l" depth="2" NCoef="0" IVar="-1" Cut="0.0000000000000000e+00" cType="1" res="7.0760992821305990e-04" rms="4.4227701425552368e-01" purity="6.4020812511444092e-01" nType="-99"/>
          <Node pos="r" depth="2" NCoef="0" IVar="-1" Cut="0.0000000000000000e+00" cType="1" res="-9.1150672233197838e-05" rms="4.4859731197357178e-01" purity="4.0589040517807007e-01" nType="-99"/>
        </Node>
      </Node>
    </BinaryTree>
    <BinaryTree type="DecisionTree" boostWeight="1.0000000000000000e+00" itree="865">
      <Node pos="s" depth="0" NCoef="0" IVar="7" Cut="-4.2835792899131775e-01" cType="1" res="8.6268335580825806e-03" rms="4.5103508234024048e-01" purity="5.0793242454528809e-01" nType="0">
        <Node pos="l" depth="1" NCoef="0" IVar="1" Cut="9.4640088081359863e-01" cType="1" res="1.9642347469925880e-02" rms="4.5778650045394897e-01" purity="5.3027319908142090e-01" nType="0">
          <Node pos="l" depth="2" NCoef="0" IVar="-1" Cut="0.0000000000000000e+00" cType="1" res="2.4120176676660776e-03" rms="4.6367260813713074e-01" purity="4.3841928243637085e-01" nType="-99"/>
          <Node pos="r" depth="2" NCoef="0" IVar="-1" Cut="0.0000000000000000e+00" cType="1" res="1.4827915583737195e-04" rms="4.5329031348228455e-01" purity="5.8768784999847412e-01" nType="-99"/>
        </Node>
        <Node pos="r" depth="1" NCoef="0" IVar="6" Cut="3.3366867065429688e+02" cType="1" res="-7.9940014984458685e-04" rms="4.4495996832847595e-01" purity="4.8881483078002930e-01" nType="0">
          <Node pos="l" depth="2" NCoef="0" IVar="-1" Cut="0.0000000000000000e+00" cType="1" res="-2.1837255917489529e-03" rms="4.1589275002479553e-01" purity="2.8880837559700012e-01" nType="-99"/>
          <Node pos="r" depth="2" NCoef="0" IVar="-1" Cut="0.0000000000000000e+00" cType="1" res="2.0584314188454300e-04" rms="4.4980150461196899e-01" purity="5.2469938993453979e-01" nType="-99"/>
        </Node>
      </Node>
    </BinaryTree>
    <BinaryTree type="DecisionTree" boostWeight="1.0000000000000000e+00" itree="866">
      <Node pos="s" depth="0" NCoef="0" IVar="1" Cut="9.0615689754486084e-01" cType="1" res="1.9087848486378789e-03" rms="4.5102697610855103e-01" purity="5.0022494792938232e-01" nType="0">
        <Node pos="l" depth="1" NCoef="0" IVar="-1" Cut="0.0000000000000000e+00" cType="1" res="2.6736969593912363e-03" rms="4.3838322162628174e-01" purity="3.3738836646080017e-01" nType="-99"/>
        <Node pos="r" depth="1" NCoef="0" IVar="5" Cut="1.6890465021133423e+00" cType="1" res="-1.7058684898074716e-04" rms="4.5159065723419189e-01" purity="5.0883841514587402e-01" nType="0">
          <Node pos="l" depth="2" NCoef="0" IVar="-1" Cut="0.0000000000000000e+00" cType="1" res="-1.6235798830166459e-04" rms="4.5241901278495789e-01" purity="5.2356189489364624e-01" nType="-99"/>
          <Node pos="r" depth="2" NCoef="0" IVar="-1" Cut="0.0000000000000000e+00" cType="1" res="1.3727801851928234e-03" rms="4.4473022222518921e-01" purity="3.9916104078292847e-01" nType="-99"/>
        </Node>
      </Node>
    </BinaryTree>
    <BinaryTree type="DecisionTree" boostWeight="1.0000000000000000e+00" itree="867">
      <Node pos="s" depth="0" NCoef="0" IVar="7" Cut="-5.7115024328231812e-01" cType="1" res="-6.6579054109752178e-03" rms="4.4837272167205811e-01" purity="4.9505695700645447e-01" nType="0">
        <Node pos="l" depth="1" NCoef="0" IVar="0" Cut="9.4829612970352173e-01" cType="1" res="-1.6518399119377136e-02" rms="4.5460388064384460e-01" purity="5.0778776407241821e-01" nType="0">
          <Node pos="l" depth="2" NCoef="0" IVar="-1" Cut="0.0000000000000000e+00" cType="1" res="-1.8710030708462000e-03" rms="4.4299465417861938e-01" purity="5.0796371698379517e-01" nType="-99"/>
          <Node pos="r" depth="2" NCoef="0" IVar="-1" Cut="0.0000000000000000e+00" cType="1" res="-4.5983475865796208e-04" rms="4.5865547657012939e-01" purity="5.0772178173065186e-01" nType="-99"/>
        </Node>
        <Node pos="r" depth="1" NCoef="0" IVar="4" Cut="1.8669987916946411e+00" cType="1" res="5.1863258704543114e-04" rms="4.4364488124847412e-01" purity="4.8579132556915283e-01" nType="0">
          <Node pos="l" depth="2" NCoef="0" IVar="-1" Cut="0.0000000000000000e+00" cType="1" res="1.7425176920369267e-03" rms="4.3972232937812805e-01" purity="6.1580085754394531e-01" nType="-99"/>
          <Node pos="r" depth="2" NCoef="0" IVar="-1" Cut="0.0000000000000000e+00" cType="1" res="-2.2843826445750892e-04" rms="4.4391924142837524e-01" purity="4.6929791569709778e-01" nType="-99"/>
        </Node>
      </Node>
    </BinaryTree>
    <BinaryTree type="DecisionTree" boostWeight="1.0000000000000000e+00" itree="868">
      <Node pos="s" depth="0" NCoef="0" IVar="0" Cut="9.7566622495651245e-01" cType="1" res="-1.3136629713699222e-03" rms="4.4969654083251953e-01" purity="4.9820780754089355e-01" nType="0">
        <Node pos="l" depth="1" NCoef="0" IVar="5" Cut="1.4055503606796265e+00" cType="1" res="1.1188077740371227e-02" rms="4.4748848676681519e-01" purity="5.3495085239410400e-01" nType="0">
          <Node pos="l" depth="2" NCoef="0" IVar="-1" Cut="0.0000000000000000e+00" cType="1" res="1.4353342121466994e-03" rms="4.4503554701805115e-01" purity="5.9516817331314087e-01" nType="-99"/>
          <Node pos="r" depth="2" NCoef="0" IVar="-1" Cut="0.0000000000000000e+00" cType="1" res="-1.0328990174457431e-03" rms="4.4950258731842041e-01" purity="4.4459038972854614e-01" nType="-99"/>
        </Node>
        <Node pos="r" depth="1" NCoef="0" IVar="5" Cut="1.6890465021133423e+00" cType="1" res="-6.4320275560021400e-03" rms="4.5049732923507690e-01" purity="4.8316475749015808e-01" nType="0">
          <Node pos="l" depth="2" NCoef="0" IVar="-1" Cut="0.0000000000000000e+00" cType="1" res="-5.6048872647807002e-04" rms="4.5145389437675476e-01" purity="4.9663349986076355e-01" nType="-99"/>
          <Node pos="r" depth="2" NCoef="0" IVar="-1" Cut="0.0000000000000000e+00" cType="1" res="1.8618999747559428e-03" rms="4.4086316227912903e-01" purity="3.7148609757423401e-01" nType="-99"/>
        </Node>
      </Node>
    </BinaryTree>
    <BinaryTree type="DecisionTree" boostWeight="1.0000000000000000e+00" itree="869">
      <Node pos="s" depth="0" NCoef="0" IVar="7" Cut="-4.2839050292968750e-01" cType="1" res="-7.9989767982624471e-05" rms="4.4967716932296753e-01" purity="4.9874269962310791e-01" nType="0">
        <Node pos="l" depth="1" NCoef="0" IVar="6" Cut="4.0595257568359375e+02" cType="1" res="9.3421610072255135e-03" rms="4.5417711138725281e-01" purity="5.2200239896774292e-01" nType="0">
          <Node pos="l" depth="2" NCoef="0" IVar="-1" Cut="0.0000000000000000e+00" cType="1" res="1.5280008083209395e-03" rms="4.5920172333717346e-01" purity="4.4446387887001038e-01" nType="-99"/>
          <Node pos="r" depth="2" NCoef="0" IVar="-1" Cut="0.0000000000000000e+00" cType="1" res="1.8800823454512283e-05" rms="4.5139870047569275e-01" purity="5.6042790412902832e-01" nType="-99"/>
        </Node>
        <Node pos="r" depth="1" NCoef="0" IVar="2" Cut="9.4910049438476562e+01" cType="1" res="-8.1493798643350601e-03" rms="4.4562885165214539e-01" purity="4.7882238030433655e-01" nType="0">
          <Node pos="l" depth="2" NCoef="0" IVar="-1" Cut="0.0000000000000000e+00" cType="1" res="-1.1084744473919272e-03" rms="4.5093074440956116e-01" purity="4.4676581025123596e-01" nType="-99"/>
          <Node pos="r" depth="2" NCoef="0" IVar="-1" Cut="0.0000000000000000e+00" cType="1" res="3.1953028519637883e-04" rms="4.3895572423934937e-01" purity="5.1615148782730103e-01" nType="-99"/>
        </Node>
      </Node>
    </BinaryTree>
    <BinaryTree type="DecisionTree" boostWeight="1.0000000000000000e+00" itree="870">
      <Node pos="s" depth="0" NCoef="0" IVar="4" Cut="2.5290665626525879e+00" cType="1" res="2.0851036533713341e-03" rms="4.5206087827682495e-01" purity="5.0052362680435181e-01" nType="0">
        <Node pos="l" depth="1" NCoef="0" IVar="0" Cut="1.0376644134521484e+00" cType="1" res="-2.4531730450689793e-03" rms="4.5704409480094910e-01" purity="5.4732882976531982e-01" nType="0">
          <Node pos="l" depth="2" NCoef="0" IVar="-1" Cut="0.0000000000000000e+00" cType="1" res="7.2850211290642619e-04" rms="4.4720417261123657e-01" purity="5.7232403755187988e-01" nType="-99"/>
          <Node pos="r" depth="2" NCoef="0" IVar="-1" Cut="0.0000000000000000e+00" cType="1" res="-6.2814203556627035e-04" rms="4.6235278248786926e-01" purity="5.3279936313629150e-01" nType="-99"/>
        </Node>
        <Node pos="r" depth="1" NCoef="0" IVar="1" Cut="9.6655333042144775e-01" cType="1" res="2.0660405978560448e-02" rms="4.3056604266166687e-01" purity="3.0894839763641357e-01" nType="0">
          <Node pos="l" depth="2" NCoef="0" IVar="-1" Cut="0.0000000000000000e+00" cType="1" res="2.7405507862567902e-03" rms="4.2060822248458862e-01" purity="2.7722123265266418e-01" nType="-99"/>
          <Node pos="r" depth="2" NCoef="0" IVar="-1" Cut="0.0000000000000000e+00" cType="1" res="-7.5325462967157364e-04" rms="4.5652091503143311e-01" purity="4.0070569515228271e-01" nType="-99"/>
        </Node>
      </Node>
    </BinaryTree>
    <BinaryTree type="DecisionTree" boostWeight="1.0000000000000000e+00" itree="871">
      <Node pos="s" depth="0" NCoef="0" IVar="0" Cut="1.8686714172363281e+00" cType="1" res="-1.1297045275568962e-03" rms="4.5058220624923706e-01" purity="4.9727827310562134e-01" nType="0">
        <Node pos="l" depth="1" NCoef="0" IVar="6" Cut="6.7566925048828125e+02" cType="1" res="3.2758021261543036e-03" rms="4.5496577024459839e-01" purity="5.4175418615341187e-01" nType="0">
          <Node pos="l" depth="2" NCoef="0" IVar="-1" Cut="0.0000000000000000e+00" cType="1" res="4.8642235924489796e-04" rms="4.5556911826133728e-01" purity="5.2806580066680908e-01" nType="-99"/>
          <Node pos="r" depth="2" NCoef="0" IVar="-1" Cut="0.0000000000000000e+00" cType="1" res="-1.0923693189397454e-03" rms="4.5162099599838257e-01" purity="5.9590387344360352e-01" nType="-99"/>
        </Node>
        <Node pos="r" depth="1" NCoef="0" IVar="5" Cut="1.4189343452453613e+00" cType="1" res="-1.8807550892233849e-02" rms="4.3209433555603027e-01" purity="3.1881123781204224e-01" nType="0">
          <Node pos="l" depth="2" NCoef="0" IVar="-1" Cut="0.0000000000000000e+00" cType="1" res="-2.1017682738602161e-03" rms="4.3986490368843079e-01" purity="3.4386286139488220e-01" nType="-99"/>
          <Node pos="r" depth="2" NCoef="0" IVar="-1" Cut="0.0000000000000000e+00" cType="1" res="9.1075495583936572e-04" rms="4.1276001930236816e-01" purity="2.6290646195411682e-01" nType="-99"/>
        </Node>
      </Node>
    </BinaryTree>
    <BinaryTree type="DecisionTree" boostWeight="1.0000000000000000e+00" itree="872">
      <Node pos="s" depth="0" NCoef="0" IVar="0" Cut="2.1868629455566406e+00" cType="1" res="2.5677601806819439e-03" rms="4.5200172066688538e-01" purity="4.9910721182823181e-01" nType="0">
        <Node pos="l" depth="1" NCoef="0" IVar="2" Cut="9.1228019714355469e+01" cType="1" res="-1.6988324932754040e-04" rms="4.5433554053306580e-01" purity="5.2173960208892822e-01" nType="0">
          <Node pos="l" depth="2" NCoef="0" IVar="-1" Cut="0.0000000000000000e+00" cType="1" res="-3.7633976899087429e-04" rms="4.5933589339256287e-01" purity="4.6887820959091187e-01" nType="-99"/>
          <Node pos="r" depth="2" NCoef="0" IVar="-1" Cut="0.0000000000000000e+00" cType="1" res="4.3445947812870145e-04" rms="4.4744724035263062e-01" purity="5.9183698892593384e-01" nType="-99"/>
        </Node>
        <Node pos="r" depth="1" NCoef="0" IVar="-1" Cut="0.0000000000000000e+00" cType="1" res="2.1492000669240952e-03" rms="4.3029543757438660e-01" purity="3.0103376507759094e-01" nType="-99"/>
      </Node>
    </BinaryTree>
    <BinaryTree type="DecisionTree" boostWeight="1.0000000000000000e+00" itree="873">
      <Node pos="s" depth="0" NCoef="0" IVar="1" Cut="9.5254844427108765e-01" cType="1" res="4.1918652132153511e-03" rms="4.5134299993515015e-01" purity="5.0278061628341675e-01" nType="0">
        <Node pos="l" depth="1" NCoef="0" IVar="6" Cut="7.2832470703125000e+02" cType="1" res="1.4306887984275818e-02" rms="4.5142042636871338e-01" purity="4.0971088409423828e-01" nType="0">
          <Node pos="l" depth="2" NCoef="0" IVar="-1" Cut="0.0000000000000000e+00" cType="1" res="1.1382126249372959e-03" rms="4.4842198491096497e-01" purity="4.0275153517723083e-01" nType="-99"/>
          <Node pos="r" depth="2" NCoef="0" IVar="-1" Cut="0.0000000000000000e+00" cType="1" res="-9.9905463866889477e-04" rms="4.6684315800666809e-01" purity="4.4947403669357300e-01" nType="-99"/>
        </Node>
        <Node pos="r" depth="1" NCoef="0" IVar="2" Cut="8.5277809143066406e+01" cType="1" res="-5.1460466347634792e-03" rms="4.5107021927833557e-01" purity="5.8870005607604980e-01" nType="0">
          <Node pos="l" depth="2" NCoef="0" IVar="-1" Cut="0.0000000000000000e+00" cType="1" res="-8.6026516510173678e-04" rms="4.6648731827735901e-01" purity="5.4172408580780029e-01" nType="-99"/>
          <Node pos="r" depth="2" NCoef="0" IVar="-1" Cut="0.0000000000000000e+00" cType="1" res="2.6718786102719605e-04" rms="4.3736255168914795e-01" purity="6.2831270694732666e-01" nType="-99"/>
        </Node>
      </Node>
    </BinaryTree>
    <BinaryTree type="DecisionTree" boostWeight="1.0000000000000000e+00" itree="874">
      <Node pos="s" depth="0" NCoef="0" IVar="8" Cut="3.8909652709960938e+02" cType="1" res="1.2757057265844196e-04" rms="4.5002990961074829e-01" purity="4.9854046106338501e-01" nType="0">
        <Node pos="l" depth="1" NCoef="0" IVar="3" Cut="1.3972209167480469e+02" cType="1" res="-3.8159375544637442e-03" rms="4.5120370388031006e-01" purity="5.1212948560714722e-01" nType="0">
          <Node pos="l" depth="2" NCoef="0" IVar="-1" Cut="0.0000000000000000e+00" cType="1" res="-1.6707845134078525e-05" rms="4.5251867175102234e-01" purity="5.2646648883819580e-01" nType="-99"/>
          <Node pos="r" depth="2" NCoef="0" IVar="-1" Cut="0.0000000000000000e+00" cType="1" res="-3.7755304947495461e-03" rms="4.2946970462799072e-01" purity="3.1180486083030701e-01" nType="-99"/>
        </Node>
        <Node pos="r" depth="1" NCoef="0" IVar="4" Cut="2.4111003875732422e+00" cType="1" res="2.1068247035145760e-02" rms="4.4315725564956665e-01" purity="4.2638033628463745e-01" nType="0">
          <Node pos="l" depth="2" NCoef="0" IVar="-1" Cut="0.0000000000000000e+00" cType="1" res="-1.2577348388731480e-04" rms="4.5828172564506531e-01" purity="5.3930717706680298e-01" nType="-99"/>
          <Node pos="r" depth="2" NCoef="0" IVar="-1" Cut="0.0000000000000000e+00" cType="1" res="2.5240622926503420e-03" rms="4.3186151981353760e-01" purity="3.4978213906288147e-01" nType="-99"/>
        </Node>
      </Node>
    </BinaryTree>
    <BinaryTree type="DecisionTree" boostWeight="1.0000000000000000e+00" itree="875">
      <Node pos="s" depth="0" NCoef="0" IVar="6" Cut="7.9399761962890625e+02" cType="1" res="-2.4251781869679689e-03" rms="4.5146974921226501e-01" purity="4.9366036057472229e-01" nType="0">
        <Node pos="l" depth="1" NCoef="0" IVar="2" Cut="1.4463291931152344e+02" cType="1" res="-8.7496181949973106e-03" rms="4.5057743787765503e-01" purity="4.7750350832939148e-01" nType="0">
          <Node pos="l" depth="2" NCoef="0" IVar="-1" Cut="0.0000000000000000e+00" cType="1" res="-2.5747041217982769e-04" rms="4.5358833670616150e-01" purity="4.9600234627723694e-01" nType="-99"/>
          <Node pos="r" depth="2" NCoef="0" IVar="-1" Cut="0.0000000000000000e+00" cType="1" res="-2.2010116372257471e-03" rms="4.3086695671081543e-01" purity="3.6380350589752197e-01" nType="-99"/>
        </Node>
        <Node pos="r" depth="1" NCoef="0" IVar="4" Cut="2.2565791606903076e+00" cType="1" res="4.1299335658550262e-02" rms="4.5519366860389709e-01" purity="6.0536164045333862e-01" nType="0">
          <Node pos="l" depth="2" NCoef="0" IVar="-1" Cut="0.0000000000000000e+00" cType="1" res="6.5826665377244353e-04" rms="4.4140386581420898e-01" purity="6.7530399560928345e-01" nType="-99"/>
          <Node pos="r" depth="2" NCoef="0" IVar="-1" Cut="0.0000000000000000e+00" cType="1" res="3.4793228842318058e-03" rms="4.6904942393302917e-01" purity="5.2305734157562256e-01" nType="-99"/>
        </Node>
      </Node>
    </BinaryTree>
    <BinaryTree type="DecisionTree" boostWeight="1.0000000000000000e+00" itree="876">
      <Node pos="s" depth="0" NCoef="0" IVar="4" Cut="1.7715194225311279e+00" cType="1" res="3.6531041841953993e-03" rms="4.4872540235519409e-01" purity="5.0661176443099976e-01" nType="0">
        <Node pos="l" depth="1" NCoef="0" IVar="-1" Cut="0.0000000000000000e+00" cType="1" res="-2.3843320086598396e-03" rms="4.4405105710029602e-01" purity="5.2504003047943115e-01" nType="-99"/>
        <Node pos="r" depth="1" NCoef="0" IVar="1" Cut="9.5960599184036255e-01" cType="1" res="6.5049109980463982e-03" rms="4.4883859157562256e-01" purity="5.0552070140838623e-01" nType="0">
          <Node pos="l" depth="2" NCoef="0" IVar="-1" Cut="0.0000000000000000e+00" cType="1" res="7.3661905480548739e-04" rms="4.5110681653022766e-01" purity="4.2900469899177551e-01" nType="-99"/>
          <Node pos="r" depth="2" NCoef="0" IVar="-1" Cut="0.0000000000000000e+00" cType="1" res="-1.4606669719796628e-04" rms="4.4548961520195007e-01" purity="6.1192631721496582e-01" nType="-99"/>
        </Node>
      </Node>
    </BinaryTree>
    <BinaryTree type="DecisionTree" boostWeight="1.0000000000000000e+00" itree="877">
      <Node pos="s" depth="0" NCoef="0" IVar="1" Cut="9.5302242040634155e-01" cType="1" res="6.7205680534243584e-04" rms="4.4976377487182617e-01" purity="4.9798107147216797e-01" nType="0">
        <Node pos="l" depth="1" NCoef="0" IVar="0" Cut="1.1010837554931641e+00" cType="1" res="9.3631641939282417e-03" rms="4.4698211550712585e-01" purity="4.0737125277519226e-01" nType="0">
          <Node pos="l" depth="2" NCoef="0" IVar="-1" Cut="0.0000000000000000e+00" cType="1" res="1.3791492674499750e-03" rms="4.5423734188079834e-01" purity="4.6193623542785645e-01" nType="-99"/>
          <Node pos="r" depth="2" NCoef="0" IVar="-1" Cut="0.0000000000000000e+00" cType="1" res="-2.5113919036812149e-05" rms="4.4270694255828857e-01" purity="3.7790447473526001e-01" nType="-99"/>
        </Node>
        <Node pos="r" depth="1" NCoef="0" IVar="8" Cut="4.4096585083007812e+02" cType="1" res="-7.8079300001263618e-03" rms="4.5230045914649963e-01" purity="5.8638989925384521e-01" nType="0">
          <Node pos="l" depth="2" NCoef="0" IVar="-1" Cut="0.0000000000000000e+00" cType="1" res="-5.7090882910415530e-04" rms="4.5203238725662231e-01" purity="5.9549415111541748e-01" nType="-99"/>
          <Node pos="r" depth="2" NCoef="0" IVar="-1" Cut="0.0000000000000000e+00" cType="1" res="1.2921222951263189e-03" rms="4.5317420363426208e-01" purity="5.1057684421539307e-01" nType="-99"/>
        </Node>
      </Node>
    </BinaryTree>
    <BinaryTree type="DecisionTree" boostWeight="1.0000000000000000e+00" itree="878">
      <Node pos="s" depth="0" NCoef="0" IVar="6" Cut="6.4917767333984375e+02" cType="1" res="1.9003298366442323e-03" rms="4.4801974296569824e-01" purity="5.0048094987869263e-01" nType="0">
        <Node pos="l" depth="1" NCoef="0" IVar="2" Cut="1.4859931945800781e+02" cType="1" res="7.0963664911687374e-03" rms="4.4695040583610535e-01" purity="4.8538777232170105e-01" nType="0">
          <Node pos="l" depth="2" NCoef="0" IVar="-1" Cut="0.0000000000000000e+00" cType="1" res="5.4164661560207605e-04" rms="4.4937631487846375e-01" purity="5.0160562992095947e-01" nType="-99"/>
          <Node pos="r" depth="2" NCoef="0" IVar="-1" Cut="0.0000000000000000e+00" cType="1" res="-1.2990804389119148e-03" rms="4.2684385180473328e-01" purity="3.6045292019844055e-01" nType="-99"/>
        </Node>
        <Node pos="r" depth="1" NCoef="0" IVar="4" Cut="2.4474916458129883e+00" cType="1" res="-1.6034632921218872e-02" rms="4.5123186707496643e-01" purity="5.5257737636566162e-01" nType="0">
          <Node pos="l" depth="2" NCoef="0" IVar="-1" Cut="0.0000000000000000e+00" cType="1" res="-1.2157452292740345e-03" rms="4.4908386468887329e-01" purity="6.0045421123504639e-01" nType="-99"/>
          <Node pos="r" depth="2" NCoef="0" IVar="-1" Cut="0.0000000000000000e+00" cType="1" res="9.4068469479680061e-04" rms="4.5672991871833801e-01" purity="3.9530086517333984e-01" nType="-99"/>
        </Node>
      </Node>
    </BinaryTree>
    <BinaryTree type="DecisionTree" boostWeight="1.0000000000000000e+00" itree="879">
      <Node pos="s" depth="0" NCoef="0" IVar="1" Cut="9.8598515987396240e-01" cType="1" res="5.4343049414455891e-03" rms="4.5006355643272400e-01" purity="5.0594669580459595e-01" nType="0">
        <Node pos="l" depth="1" NCoef="0" IVar="8" Cut="5.2965032958984375e+02" cType="1" res="2.5844711344689131e-03" rms="4.5322641730308533e-01" purity="4.7929787635803223e-01" nType="0">
          <Node pos="l" depth="2" NCoef="0" IVar="-1" Cut="0.0000000000000000e+00" cType="1" res="2.4062783631961793e-04" rms="4.5573070645332336e-01" purity="4.9098348617553711e-01" nType="-99"/>
          <Node pos="r" depth="2" NCoef="0" IVar="-1" Cut="0.0000000000000000e+00" cType="1" res="-1.7753718420863152e-03" rms="4.1800361871719360e-01" purity="3.2587480545043945e-01" nType="-99"/>
        </Node>
        <Node pos="r" depth="1" NCoef="0" IVar="-1" Cut="0.0000000000000000e+00" cType="1" res="1.2569722020998597e-03" rms="4.2364501953125000e-01" purity="7.1594482660293579e-01" nType="-99"/>
      </Node>
    </BinaryTree>
    <BinaryTree type="DecisionTree" boostWeight="1.0000000000000000e+00" itree="880">
      <Node pos="s" depth="0" NCoef="0" IVar="0" Cut="1.9626868963241577e+00" cType="1" res="-6.5640169195830822e-03" rms="4.5113992691040039e-01" purity="4.9152272939682007e-01" nType="0">
        <Node pos="l" depth="1" NCoef="0" IVar="3" Cut="1.3519772338867188e+02" cType="1" res="-1.1014988645911217e-02" rms="4.5410028100013733e-01" purity="5.2389371395111084e-01" nType="0">
          <Node pos="l" depth="2" NCoef="0" IVar="-1" Cut="0.0000000000000000e+00" cType="1" res="-3.2547060982324183e-04" rms="4.5520985126495361e-01" purity="5.4332929849624634e-01" nType="-99"/>
          <Node pos="r" depth="2" NCoef="0" IVar="-1" Cut="0.0000000000000000e+00" cType="1" res="-2.4827627930790186e-03" rms="4.4522655010223389e-01" purity="3.9027151465415955e-01" nType="-99"/>
        </Node>
        <Node pos="r" depth="1" NCoef="0" IVar="0" Cut="2.3935432434082031e+00" cType="1" res="1.5029645524919033e-02" rms="4.3584838509559631e-01" purity="3.3447659015655518e-01" nType="0">
          <Node pos="l" depth="2" NCoef="0" IVar="-1" Cut="0.0000000000000000e+00" cType="1" res="1.6705918824300170e-03" rms="4.5288351178169250e-01" purity="3.8615274429321289e-01" nType="-99"/>
          <Node pos="r" depth="2" NCoef="0" IVar="-1" Cut="0.0000000000000000e+00" cType="1" res="-9.5586804673075676e-04" rms="3.9736905694007874e-01" purity="2.2811377048492432e-01" nType="-99"/>
        </Node>
      </Node>
    </BinaryTree>
    <BinaryTree type="DecisionTree" boostWeight="1.0000000000000000e+00" itree="881">
      <Node pos="s" depth="0" NCoef="0" IVar="2" Cut="5.9655662536621094e+01" cType="1" res="3.6580907180905342e-03" rms="4.5201909542083740e-01" purity="5.0145018100738525e-01" nType="0">
        <Node pos="l" depth="1" NCoef="0" IVar="8" Cut="1.3516380310058594e+02" cType="1" res="1.9042419269680977e-02" rms="4.6358931064605713e-01" purity="4.4606447219848633e-01" nType="0">
          <Node pos="l" depth="2" NCoef="0" IVar="-1" Cut="0.0000000000000000e+00" cType="1" res="2.3409740533679724e-03" rms="4.8097881674766541e-01" purity="4.6381741762161255e-01" nType="-99"/>
          <Node pos="r" depth="2" NCoef="0" IVar="-1" Cut="0.0000000000000000e+00" cType="1" res="2.2297460236586630e-04" rms="4.5294693112373352e-01" purity="4.3619346618652344e-01" nType="-99"/>
        </Node>
        <Node pos="r" depth="1" NCoef="0" IVar="8" Cut="1.6186145019531250e+02" cType="1" res="-2.2042589262127876e-03" rms="4.4739225506782532e-01" purity="5.2255541086196899e-01" nType="0">
          <Node pos="l" depth="2" NCoef="0" IVar="-1" Cut="0.0000000000000000e+00" cType="1" res="-1.2798581738024950e-03" rms="4.5964139699935913e-01" purity="5.3725397586822510e-01" nType="-99"/>
          <Node pos="r" depth="2" NCoef="0" IVar="-1" Cut="0.0000000000000000e+00" cType="1" res="2.2891018306836486e-04" rms="4.4370040297508240e-01" purity="5.1846927404403687e-01" nType="-99"/>
        </Node>
      </Node>
    </BinaryTree>
    <BinaryTree type="DecisionTree" boostWeight="1.0000000000000000e+00" itree="882">
      <Node pos="s" depth="0" NCoef="0" IVar="4" Cut="1.8670389652252197e+00" cType="1" res="1.7813233425840735e-03" rms="4.5069152116775513e-01" purity="5.0044053792953491e-01" nType="0">
        <Node pos="l" depth="1" NCoef="0" IVar="-1" Cut="0.0000000000000000e+00" cType="1" res="1.1467539006844163e-03" rms="4.4803228974342346e-01" purity="6.1009389162063599e-01" nType="-99"/>
        <Node pos="r" depth="1" NCoef="0" IVar="4" Cut="2.3329265117645264e+00" cType="1" res="-1.1592601658776402e-03" rms="4.5094382762908936e-01" purity="4.8648807406425476e-01" nType="0">
          <Node pos="l" depth="2" NCoef="0" IVar="-1" Cut="0.0000000000000000e+00" cType="1" res="-5.2955176215618849e-04" rms="4.5891827344894409e-01" purity="5.6694030761718750e-01" nType="-99"/>
          <Node pos="r" depth="2" NCoef="0" IVar="-1" Cut="0.0000000000000000e+00" cType="1" res="7.9026649473235011e-04" rms="4.3947982788085938e-01" purity="3.7688404321670532e-01" nType="-99"/>
        </Node>
      </Node>
    </BinaryTree>
    <BinaryTree type="DecisionTree" boostWeight="1.0000000000000000e+00" itree="883">
      <Node pos="s" depth="0" NCoef="0" IVar="1" Cut="9.8571515083312988e-01" cType="1" res="3.9249737747013569e-03" rms="4.4782650470733643e-01" purity="5.0563496351242065e-01" nType="0">
        <Node pos="l" depth="1" NCoef="0" IVar="7" Cut="7.1398830413818359e-01" cType="1" res="2.7407958987168968e-04" rms="4.5042088627815247e-01" purity="4.7797477245330811e-01" nType="0">
          <Node pos="l" depth="2" NCoef="0" IVar="-1" Cut="0.0000000000000000e+00" cType="1" res="-4.3780900887213647e-04" rms="4.4708412885665894e-01" purity="4.3877980113029480e-01" nType="-99"/>
          <Node pos="r" depth="2" NCoef="0" IVar="-1" Cut="0.0000000000000000e+00" cType="1" res="6.0939951799809933e-04" rms="4.5517262816429138e-01" purity="5.3759318590164185e-01" nType="-99"/>
        </Node>
        <Node pos="r" depth="1" NCoef="0" IVar="-1" Cut="0.0000000000000000e+00" cType="1" res="1.4219540171325207e-03" rms="4.2658501863479614e-01" purity="7.1576100587844849e-01" nType="-99"/>
      </Node>
    </BinaryTree>
    <BinaryTree type="DecisionTree" boostWeight="1.0000000000000000e+00" itree="884">
      <Node pos="s" depth="0" NCoef="0" IVar="1" Cut="9.7928941249847412e-01" cType="1" res="6.6318949393462390e-05" rms="4.4851589202880859e-01" purity="5.0040835142135620e-01" nType="0">
        <Node pos="l" depth="1" NCoef="0" IVar="2" Cut="1.5703190612792969e+02" cType="1" res="-5.5183512158691883e-03" rms="4.5357823371887207e-01" purity="4.5271775126457214e-01" nType="0">
          <Node pos="l" depth="2" NCoef="0" IVar="-1" Cut="0.0000000000000000e+00" cType="1" res="-1.1924250429729000e-04" rms="4.5628911256790161e-01" purity="4.7086179256439209e-01" nType="-99"/>
          <Node pos="r" depth="2" NCoef="0" IVar="-1" Cut="0.0000000000000000e+00" cType="1" res="-1.8388212192803621e-03" rms="4.3493482470512390e-01" purity="3.3461871743202209e-01" nType="-99"/>
        </Node>
        <Node pos="r" depth="1" NCoef="0" IVar="6" Cut="5.1017025756835938e+02" cType="1" res="2.3318005725741386e-02" rms="4.2600780725479126e-01" purity="6.9896721839904785e-01" nType="0">
          <Node pos="l" depth="2" NCoef="0" IVar="-1" Cut="0.0000000000000000e+00" cType="1" res="5.3374399431049824e-04" rms="4.4448348879814148e-01" purity="6.4853286743164062e-01" nType="-99"/>
          <Node pos="r" depth="2" NCoef="0" IVar="-1" Cut="0.0000000000000000e+00" cType="1" res="1.7038355581462383e-03" rms="4.0118771791458130e-01" purity="7.6217669248580933e-01" nType="-99"/>
        </Node>
      </Node>
    </BinaryTree>
    <BinaryTree type="DecisionTree" boostWeight="1.0000000000000000e+00" itree="885">
      <Node pos="s" depth="0" NCoef="0" IVar="7" Cut="-9.9957990646362305e-01" cType="1" res="2.2010519169270992e-03" rms="4.5124226808547974e-01" purity="5.0302982330322266e-01" nType="0">
        <Node pos="l" depth="1" NCoef="0" IVar="3" Cut="1.1730065917968750e+02" cType="1" res="1.8531864508986473e-02" rms="4.5954802632331848e-01" purity="5.9975594282150269e-01" nType="0">
          <Node pos="l" depth="2" NCoef="0" IVar="-1" Cut="0.0000000000000000e+00" cType="1" res="2.1312208846211433e-03" rms="4.6917840838432312e-01" purity="5.8181935548782349e-01" nType="-99"/>
          <Node pos="r" depth="2" NCoef="0" IVar="-1" Cut="0.0000000000000000e+00" cType="1" res="3.4366236650384963e-04" rms="4.5526280999183655e-01" purity="6.0675072669982910e-01" nType="-99"/>
        </Node>
        <Node pos="r" depth="1" NCoef="0" IVar="3" Cut="1.2187563323974609e+02" cType="1" res="-4.3792072683572769e-03" rms="4.4768372178077698e-01" purity="4.6405550837516785e-01" nType="0">
          <Node pos="l" depth="2" NCoef="0" IVar="-1" Cut="0.0000000000000000e+00" cType="1" res="-9.8421610891819000e-04" rms="4.4780674576759338e-01" purity="4.4179281592369080e-01" nType="-99"/>
          <Node pos="r" depth="2" NCoef="0" IVar="-1" Cut="0.0000000000000000e+00" cType="1" res="2.3574804072268307e-04" rms="4.4738718867301941e-01" purity="4.7912085056304932e-01" nType="-99"/>
        </Node>
      </Node>
    </BinaryTree>
    <BinaryTree type="DecisionTree" boostWeight="1.0000000000000000e+00" itree="886">
      <Node pos="s" depth="0" NCoef="0" IVar="6" Cut="4.8863708496093750e+02" cType="1" res="-9.9226168822497129e-04" rms="4.4622954726219177e-01" purity="5.0140237808227539e-01" nType="0">
        <Node pos="l" depth="1" NCoef="0" IVar="0" Cut="6.9052064418792725e-01" cType="1" res="-1.7013490200042725e-02" rms="4.4644296169281006e-01" purity="4.1884323954582214e-01" nType="0">
          <Node pos="l" depth="2" NCoef="0" IVar="-1" Cut="0.0000000000000000e+00" cType="1" res="-3.3027115277945995e-03" rms="4.3407243490219116e-01" purity="3.4300810098648071e-01" nType="-99"/>
          <Node pos="r" depth="2" NCoef="0" IVar="-1" Cut="0.0000000000000000e+00" cType="1" res="-7.0216890890151262e-04" rms="4.4785609841346741e-01" purity="4.2897152900695801e-01" nType="-99"/>
        </Node>
        <Node pos="r" depth="1" NCoef="0" IVar="8" Cut="5.1872729492187500e+02" cType="1" res="1.4952911064028740e-02" rms="4.4544523954391479e-01" purity="5.8356964588165283e-01" nType="0">
          <Node pos="l" depth="2" NCoef="0" IVar="-1" Cut="0.0000000000000000e+00" cType="1" res="8.9890719391405582e-04" rms="4.4625499844551086e-01" purity="6.1409366130828857e-01" nType="-99"/>
          <Node pos="r" depth="2" NCoef="0" IVar="-1" Cut="0.0000000000000000e+00" cType="1" res="-1.1096796952188015e-03" rms="4.3858820199966431e-01" purity="3.7944227457046509e-01" nType="-99"/>
        </Node>
      </Node>
    </BinaryTree>
    <BinaryTree type="DecisionTree" boostWeight="1.0000000000000000e+00" itree="887">
      <Node pos="s" depth="0" NCoef="0" IVar="0" Cut="1.1323347091674805e+00" cType="1" res="6.0328822582960129e-03" rms="4.4912403821945190e-01" purity="5.0841772556304932e-01" nType="0">
        <Node pos="l" depth="1" NCoef="0" IVar="0" Cut="5.5335497856140137e-01" cType="1" res="1.7886618152260780e-02" rms="4.4884425401687622e-01" purity="5.6078982353210449e-01" nType="0">
          <Node pos="l" depth="2" NCoef="0" IVar="-1" Cut="0.0000000000000000e+00" cType="1" res="-5.4419384105131030e-04" rms="4.4939535856246948e-01" purity="4.5373058319091797e-01" nType="-99"/>
          <Node pos="r" depth="2" NCoef="0" IVar="-1" Cut="0.0000000000000000e+00" cType="1" res="1.0831455001607537e-03" rms="4.4857111573219299e-01" purity="5.7887923717498779e-01" nType="-99"/>
        </Node>
        <Node pos="r" depth="1" NCoef="0" IVar="2" Cut="7.8608612060546875e+01" cType="1" res="-1.4383170055225492e-03" rms="4.4913959503173828e-01" purity="4.7540852427482605e-01" nType="0">
          <Node pos="l" depth="2" NCoef="0" IVar="-1" Cut="0.0000000000000000e+00" cType="1" res="-1.1416409397497773e-03" rms="4.4818657636642456e-01" purity="4.0877217054367065e-01" nType="-99"/>
          <Node pos="r" depth="2" NCoef="0" IVar="-1" Cut="0.0000000000000000e+00" cType="1" res="2.2446231741923839e-04" rms="4.4927844405174255e-01" purity="4.9590519070625305e-01" nType="-99"/>
        </Node>
      </Node>
    </BinaryTree>
    <BinaryTree type="DecisionTree" boostWeight="1.0000000000000000e+00" itree="888">
      <Node pos="s" depth="0" NCoef="0" IVar="7" Cut="-4.2839050292968750e-01" cType="1" res="-1.2986779911443591e-03" rms="4.4859394431114197e-01" purity="4.9814113974571228e-01" nType="0">
        <Node pos="l" depth="1" NCoef="0" IVar="0" Cut="1.6990523338317871e+00" cType="1" res="1.1258244514465332e-02" rms="4.5499256253242493e-01" purity="5.2319848537445068e-01" nType="0">
          <Node pos="l" depth="2" NCoef="0" IVar="-1" Cut="0.0000000000000000e+00" cType="1" res="2.4395086802542210e-04" rms="4.5311704277992249e-01" purity="5.5760055780410767e-01" nType="-99"/>
          <Node pos="r" depth="2" NCoef="0" IVar="-1" Cut="0.0000000000000000e+00" cType="1" res="1.5524663031101227e-03" rms="4.5951753854751587e-01" purity="4.3235856294631958e-01" nType="-99"/>
        </Node>
        <Node pos="r" depth="1" NCoef="0" IVar="7" Cut="8.4391254186630249e-01" cType="1" res="-1.1995683424174786e-02" rms="4.4278937578201294e-01" purity="4.7679528594017029e-01" nType="0">
          <Node pos="l" depth="2" NCoef="0" IVar="-1" Cut="0.0000000000000000e+00" cType="1" res="-2.2123532835394144e-03" rms="4.2056536674499512e-01" purity="3.1730058789253235e-01" nType="-99"/>
          <Node pos="r" depth="2" NCoef="0" IVar="-1" Cut="0.0000000000000000e+00" cType="1" res="-1.1508024181239307e-04" rms="4.5377027988433838e-01" purity="5.6085735559463501e-01" nType="-99"/>
        </Node>
      </Node>
    </BinaryTree>
    <BinaryTree type="DecisionTree" boostWeight="1.0000000000000000e+00" itree="889">
      <Node pos="s" depth="0" NCoef="0" IVar="0" Cut="6.8278259038925171e-01" cType="1" res="-6.5287807956337929e-03" rms="4.4748362898826599e-01" purity="4.9560159444808960e-01" nType="0">
        <Node pos="l" depth="1" NCoef="0" IVar="2" Cut="4.0263248443603516e+01" cType="1" res="-3.1377200037240982e-02" rms="4.4290867447853088e-01" purity="4.4225430488586426e-01" nType="0">
          <Node pos="l" depth="2" NCoef="0" IVar="-1" Cut="0.0000000000000000e+00" cType="1" res="-3.6677597090601921e-03" rms="4.2921391129493713e-01" purity="3.1441462039947510e-01" nType="-99"/>
          <Node pos="r" depth="2" NCoef="0" IVar="-1" Cut="0.0000000000000000e+00" cType="1" res="-3.6223829374648631e-04" rms="4.5434373617172241e-01" purity="5.6419992446899414e-01" nType="-99"/>
        </Node>
        <Node pos="r" depth="1" NCoef="0" IVar="5" Cut="1.0549640655517578e+00" cType="1" res="-3.1421761959791183e-03" rms="4.4799682497978210e-01" purity="5.0287234783172607e-01" nType="0">
          <Node pos="l" depth="2" NCoef="0" IVar="-1" Cut="0.0000000000000000e+00" cType="1" res="-1.1251185787841678e-03" rms="4.5126724243164062e-01" purity="5.4928272962570190e-01" nType="-99"/>
          <Node pos="r" depth="2" NCoef="0" IVar="-1" Cut="0.0000000000000000e+00" cType="1" res="1.6974091704469174e-04" rms="4.4675114750862122e-01" purity="4.8788610100746155e-01" nType="-99"/>
        </Node>
      </Node>
    </BinaryTree>
    <BinaryTree type="DecisionTree" boostWeight="1.0000000000000000e+00" itree="890">
      <Node pos="s" depth="0" NCoef="0" IVar="5" Cut="1.0537481307983398e+00" cType="1" res="9.1378772631287575e-03" rms="4.5093253254890442e-01" purity="5.0825673341751099e-01" nType="0">
        <Node pos="l" depth="1" NCoef="0" IVar="5" Cut="9.1837310791015625e-01" cType="1" res="-3.6677245516330004e-03" rms="4.4965070486068726e-01" purity="5.6672531366348267e-01" nType="0">
          <Node pos="l" depth="2" NCoef="0" IVar="-1" Cut="0.0000000000000000e+00" cType="1" res="1.4903245028108358e-03" rms="4.4406747817993164e-01" purity="6.2592488527297974e-01" nType="-99"/>
          <Node pos="r" depth="2" NCoef="0" IVar="-1" Cut="0.0000000000000000e+00" cType="1" res="-8.9680514065548778e-04" rms="4.5099243521690369e-01" purity="5.4362916946411133e-01" nType="-99"/>
        </Node>
        <Node pos="r" depth="1" NCoef="0" IVar="2" Cut="1.0035180664062500e+02" cType="1" res="1.2783786281943321e-02" rms="4.5123034715652466e-01" purity="4.9161008000373840e-01" nType="0">
          <Node pos="l" depth="2" NCoef="0" IVar="-1" Cut="0.0000000000000000e+00" cType="1" res="1.9555445760488510e-04" rms="4.5628643035888672e-01" purity="4.6686840057373047e-01" nType="-99"/>
          <Node pos="r" depth="2" NCoef="0" IVar="-1" Cut="0.0000000000000000e+00" cType="1" res="1.4099763939157128e-03" rms="4.4298550486564636e-01" purity="5.2964341640472412e-01" nType="-99"/>
        </Node>
      </Node>
    </BinaryTree>
    <BinaryTree type="DecisionTree" boostWeight="1.0000000000000000e+00" itree="891">
      <Node pos="s" depth="0" NCoef="0" IVar="2" Cut="2.0572003173828125e+02" cType="1" res="-8.7525963317602873e-04" rms="4.4890990853309631e-01" purity="4.9753281474113464e-01" nType="0">
        <Node pos="l" depth="1" NCoef="0" IVar="2" Cut="3.7523300170898438e+01" cType="1" res="-3.0293557792901993e-03" rms="4.4908955693244934e-01" purity="5.0509727001190186e-01" nType="0">
          <Node pos="l" depth="2" NCoef="0" IVar="-1" Cut="0.0000000000000000e+00" cType="1" res="-2.3437759373337030e-03" rms="4.4161784648895264e-01" purity="3.1556668877601624e-01" nType="-99"/>
          <Node pos="r" depth="2" NCoef="0" IVar="-1" Cut="0.0000000000000000e+00" cType="1" res="6.1179457588877995e-06" rms="4.4969558715820312e-01" purity="5.2376246452331543e-01" nType="-99"/>
        </Node>
        <Node pos="r" depth="1" NCoef="0" IVar="-1" Cut="0.0000000000000000e+00" cType="1" res="1.8640025518834591e-03" rms="4.4527065753936768e-01" purity="3.9109325408935547e-01" nType="-99"/>
      </Node>
    </BinaryTree>
    <BinaryTree type="DecisionTree" boostWeight="1.0000000000000000e+00" itree="892">
      <Node pos="s" depth="0" NCoef="0" IVar="4" Cut="1.9145334959030151e+00" cType="1" res="-2.6783649809658527e-03" rms="4.4949463009834290e-01" purity="4.9853381514549255e-01" nType="0">
        <Node pos="l" depth="1" NCoef="0" IVar="7" Cut="-5.7049697637557983e-01" cType="1" res="-2.0244533196091652e-02" rms="4.4920858740806580e-01" purity="5.7496780157089233e-01" nType="0">
          <Node pos="l" depth="2" NCoef="0" IVar="-1" Cut="0.0000000000000000e+00" cType="1" res="-2.3853180464357138e-03" rms="4.5149815082550049e-01" purity="5.5515891313552856e-01" nType="-99"/>
          <Node pos="r" depth="2" NCoef="0" IVar="-1" Cut="0.0000000000000000e+00" cType="1" res="5.1344060921110213e-05" rms="4.4627356529235840e-01" purity="5.9016966819763184e-01" nType="-99"/>
        </Node>
        <Node pos="r" depth="1" NCoef="0" IVar="7" Cut="6.0498714447021484e-05" cType="1" res="3.1452550319954753e-04" rms="4.4947490096092224e-01" purity="4.8551109433174133e-01" nType="0">
          <Node pos="l" depth="2" NCoef="0" IVar="-1" Cut="0.0000000000000000e+00" cType="1" res="5.7150871725752950e-04" rms="4.5335397124290466e-01" purity="4.9428895115852356e-01" nType="-99"/>
          <Node pos="r" depth="2" NCoef="0" IVar="-1" Cut="0.0000000000000000e+00" cType="1" res="-5.6316069094464183e-04" rms="4.4526499509811401e-01" purity="4.7664916515350342e-01" nType="-99"/>
        </Node>
      </Node>
    </BinaryTree>
    <BinaryTree type="DecisionTree" boostWeight="1.0000000000000000e+00" itree="893">
      <Node pos="s" depth="0" NCoef="0" IVar="6" Cut="8.0269757080078125e+02" cType="1" res="2.2737651597708464e-03" rms="4.5143875479698181e-01" purity="5.0171846151351929e-01" nType="0">
        <Node pos="l" depth="1" NCoef="0" IVar="7" Cut="1.4278385639190674e+00" cType="1" res="-1.1303382925689220e-03" rms="4.5173808932304382e-01" purity="4.8710414767265320e-01" nType="0">
          <Node pos="l" depth="2" NCoef="0" IVar="-1" Cut="0.0000000000000000e+00" cType="1" res="-2.3853125458117574e-04" rms="4.5211061835289001e-01" purity="4.7199001908302307e-01" nType="-99"/>
          <Node pos="r" depth="2" NCoef="0" IVar="-1" Cut="0.0000000000000000e+00" cType="1" res="1.5955609269440174e-03" rms="4.4580402970314026e-01" purity="6.5816551446914673e-01" nType="-99"/>
        </Node>
        <Node pos="r" depth="1" NCoef="0" IVar="4" Cut="2.2565791606903076e+00" cType="1" res="2.6804780587553978e-02" rms="4.4851237535476685e-01" purity="6.0703325271606445e-01" nType="0">
          <Node pos="l" depth="2" NCoef="0" IVar="-1" Cut="0.0000000000000000e+00" cType="1" res="4.3622546945698559e-04" rms="4.3670907616615295e-01" purity="6.8393391370773315e-01" nType="-99"/>
          <Node pos="r" depth="2" NCoef="0" IVar="-1" Cut="0.0000000000000000e+00" cType="1" res="2.4304070975631475e-03" rms="4.6298551559448242e-01" purity="5.0339508056640625e-01" nType="-99"/>
        </Node>
      </Node>
    </BinaryTree>
    <BinaryTree type="DecisionTree" boostWeight="1.0000000000000000e+00" itree="894">
      <Node pos="s" depth="0" NCoef="0" IVar="6" Cut="7.4172094726562500e+02" cType="1" res="1.3469552504830062e-04" rms="4.4706863164901733e-01" purity="5.0116783380508423e-01" nType="0">
        <Node pos="l" depth="1" NCoef="0" IVar="3" Cut="1.3081838989257812e+02" cType="1" res="-4.4943825341761112e-03" rms="4.4723281264305115e-01" purity="4.8354783654212952e-01" nType="0">
          <Node pos="l" depth="2" NCoef="0" IVar="-1" Cut="0.0000000000000000e+00" cType="1" res="8.2067053881473839e-05" rms="4.4993415474891663e-01" purity="5.0819003582000732e-01" nType="-99"/>
          <Node pos="r" depth="2" NCoef="0" IVar="-1" Cut="0.0000000000000000e+00" cType="1" res="-1.6613479238003492e-03" rms="4.3641728162765503e-01" purity="3.9287781715393066e-01" nType="-99"/>
        </Node>
        <Node pos="r" depth="1" NCoef="0" IVar="7" Cut="-2.8578510880470276e-01" cType="1" res="2.5776818394660950e-02" rms="4.4528722763061523e-01" purity="5.9877145290374756e-01" nType="0">
          <Node pos="l" depth="2" NCoef="0" IVar="-1" Cut="0.0000000000000000e+00" cType="1" res="2.0163161025266163e-05" rms="4.5903131365776062e-01" purity="5.6502348184585571e-01" nType="-99"/>
          <Node pos="r" depth="2" NCoef="0" IVar="-1" Cut="0.0000000000000000e+00" cType="1" res="2.1361096296459436e-03" rms="4.3286147713661194e-01" purity="6.2587243318557739e-01" nType="-99"/>
        </Node>
      </Node>
    </BinaryTree>
    <BinaryTree type="DecisionTree" boostWeight="1.0000000000000000e+00" itree="895">
      <Node pos="s" depth="0" NCoef="0" IVar="8" Cut="4.0774218750000000e+02" cType="1" res="-1.1305283987894654e-03" rms="4.5002704858779907e-01" purity="4.9689480662345886e-01" nType="0">
        <Node pos="l" depth="1" NCoef="0" IVar="8" Cut="1.0340218353271484e+02" cType="1" res="3.0903061851859093e-03" rms="4.5276537537574768e-01" purity="5.1656371355056763e-01" nType="0">
          <Node pos="l" depth="2" NCoef="0" IVar="-1" Cut="0.0000000000000000e+00" cType="1" res="-1.5744335250928998e-03" rms="4.5789608359336853e-01" purity="4.1691097617149353e-01" nType="-99"/>
          <Node pos="r" depth="2" NCoef="0" IVar="-1" Cut="0.0000000000000000e+00" cType="1" res="3.0466177850030363e-04" rms="4.5214849710464478e-01" purity="5.2637141942977905e-01" nType="-99"/>
        </Node>
        <Node pos="r" depth="1" NCoef="0" IVar="7" Cut="4.2855688929557800e-01" cType="1" res="-2.8319012373685837e-02" rms="4.3098270893096924e-01" purity="3.7019729614257812e-01" nType="0">
          <Node pos="l" depth="2" NCoef="0" IVar="-1" Cut="0.0000000000000000e+00" cType="1" res="-2.8989647980779409e-03" rms="4.2118352651596069e-01" purity="3.3030939102172852e-01" nType="-99"/>
          <Node pos="r" depth="2" NCoef="0" IVar="-1" Cut="0.0000000000000000e+00" cType="1" res="-6.1749055748805404e-04" rms="4.4322541356086731e-01" purity="4.2399212718009949e-01" nType="-99"/>
        </Node>
      </Node>
    </BinaryTree>
    <BinaryTree type="DecisionTree" boostWeight="1.0000000000000000e+00" itree="896">
      <Node pos="s" depth="0" NCoef="0" IVar="4" Cut="2.6296036243438721e+00" cType="1" res="-1.0626659495756030e-03" rms="4.4851934909820557e-01" purity="5.0178891420364380e-01" nType="0">
        <Node pos="l" depth="1" NCoef="0" IVar="3" Cut="1.1939123535156250e+02" cType="1" res="3.0692785512655973e-03" rms="4.5586585998535156e-01" purity="5.4093980789184570e-01" nType="0">
          <Node pos="l" depth="2" NCoef="0" IVar="-1" Cut="0.0000000000000000e+00" cType="1" res="-5.9533363673835993e-04" rms="4.6069276332855225e-01" purity="4.9263182282447815e-01" nType="-99"/>
          <Node pos="r" depth="2" NCoef="0" IVar="-1" Cut="0.0000000000000000e+00" cType="1" res="4.7230964992195368e-04" rms="4.5343625545501709e-01" purity="5.6344938278198242e-01" nType="-99"/>
        </Node>
        <Node pos="r" depth="1" NCoef="0" IVar="5" Cut="1.3393384218215942e+00" cType="1" res="-3.0226672068238258e-02" rms="3.9153999090194702e-01" purity="2.2545491158962250e-01" nType="0">
          <Node pos="l" depth="2" NCoef="0" IVar="-1" Cut="0.0000000000000000e+00" cType="1" res="-5.0553637556731701e-03" rms="4.0489414334297180e-01" purity="2.3480187356472015e-01" nType="-99"/>
          <Node pos="r" depth="2" NCoef="0" IVar="-1" Cut="0.0000000000000000e+00" cType="1" res="-9.0565573191270232e-04" rms="3.7926879525184631e-01" purity="2.1805500984191895e-01" nType="-99"/>
        </Node>
      </Node>
    </BinaryTree>
    <BinaryTree type="DecisionTree" boostWeight="1.0000000000000000e+00" itree="897">
      <Node pos="s" depth="0" NCoef="0" IVar="3" Cut="1.2807376098632812e+02" cType="1" res="-6.4240405336022377e-03" rms="4.4859722256660461e-01" purity="4.9506375193595886e-01" nType="0">
        <Node pos="l" depth="1" NCoef="0" IVar="8" Cut="4.8242190551757812e+02" cType="1" res="-3.7917704321444035e-04" rms="4.5092213153839111e-01" purity="5.1730173826217651e-01" nType="0">
          <Node pos="l" depth="2" NCoef="0" IVar="-1" Cut="0.0000000000000000e+00" cType="1" res="-1.5862664440646768e-04" rms="4.5034518837928772e-01" purity="5.2478539943695068e-01" nType="-99"/>
          <Node pos="r" depth="2" NCoef="0" IVar="-1" Cut="0.0000000000000000e+00" cType="1" res="1.7716416623443365e-03" rms="4.5624384284019470e-01" purity="4.3255308270454407e-01" nType="-99"/>
        </Node>
        <Node pos="r" depth="1" NCoef="0" IVar="1" Cut="9.5903331041336060e-01" cType="1" res="-2.1009234711527824e-02" rms="4.4259756803512573e-01" purity="4.4140738248825073e-01" nType="0">
          <Node pos="l" depth="2" NCoef="0" IVar="-1" Cut="0.0000000000000000e+00" cType="1" res="-6.3072756165638566e-04" rms="4.3877938389778137e-01" purity="3.7010663747787476e-01" nType="-99"/>
          <Node pos="r" depth="2" NCoef="0" IVar="-1" Cut="0.0000000000000000e+00" cType="1" res="-1.8514905823394656e-03" rms="4.4738480448722839e-01" purity="5.3969013690948486e-01" nType="-99"/>
        </Node>
      </Node>
    </BinaryTree>
    <BinaryTree type="DecisionTree" boostWeight="1.0000000000000000e+00" itree="898">
      <Node pos="s" depth="0" NCoef="0" IVar="7" Cut="-4.2831549048423767e-01" cType="1" res="6.6571761853992939e-03" rms="4.4933509826660156e-01" purity="5.0669687986373901e-01" nType="0">
        <Node pos="l" depth="1" NCoef="0" IVar="5" Cut="1.6880733966827393e+00" cType="1" res="1.4259877614676952e-02" rms="4.5398682355880737e-01" purity="5.2696657180786133e-01" nType="0">
          <Node pos="l" depth="2" NCoef="0" IVar="-1" Cut="0.0000000000000000e+00" cType="1" res="4.8452889313921332e-04" rms="4.5450541377067566e-01" purity="5.4056841135025024e-01" nType="-99"/>
          <Node pos="r" depth="2" NCoef="0" IVar="-1" Cut="0.0000000000000000e+00" cType="1" res="2.6870290748775005e-03" rms="4.4854509830474854e-01" purity="4.2300459742546082e-01" nType="-99"/>
        </Node>
        <Node pos="r" depth="1" NCoef="0" IVar="4" Cut="2.1346487998962402e+00" cType="1" res="2.1779711823910475e-04" rms="4.4525563716888428e-01" purity="4.8952877521514893e-01" nType="0">
          <Node pos="l" depth="2" NCoef="0" IVar="-1" Cut="0.0000000000000000e+00" cType="1" res="9.4202661421149969e-04" rms="4.4982323050498962e-01" purity="6.1661446094512939e-01" nType="-99"/>
          <Node pos="r" depth="2" NCoef="0" IVar="-1" Cut="0.0000000000000000e+00" cType="1" res="-7.4914004653692245e-04" rms="4.4188758730888367e-01" purity="4.0971195697784424e-01" nType="-99"/>
        </Node>
      </Node>
    </BinaryTree>
    <BinaryTree type="DecisionTree" boostWeight="1.0000000000000000e+00" itree="899">
      <Node pos="s" depth="0" NCoef="0" IVar="1" Cut="9.5252561569213867e-01" cType="1" res="3.1955987215042114e-03" rms="4.4952994585037231e-01" purity="5.0041556358337402e-01" nType="0">
        <Node pos="l" depth="1" NCoef="0" IVar="8" Cut="2.5898052978515625e+02" cType="1" res="-4.9426611512899399e-03" rms="4.4685363769531250e-01" purity="3.8711282610893250e-01" nType="0">
          <Node pos="l" depth="2" NCoef="0" IVar="-1" Cut="0.0000000000000000e+00" cType="1" res="2.2576694027520716e-04" rms="4.5765256881713867e-01" purity="4.2372184991836548e-01" nType="-99"/>
          <Node pos="r" depth="2" NCoef="0" IVar="-1" Cut="0.0000000000000000e+00" cType="1" res="-1.4260265743359923e-03" rms="4.2726147174835205e-01" purity="3.2436978816986084e-01" nType="-99"/>
        </Node>
        <Node pos="r" depth="1" NCoef="0" IVar="1" Cut="9.5885097980499268e-01" cType="1" res="1.0324323549866676e-02" rms="4.5174077153205872e-01" purity="5.9966331720352173e-01" nType="0">
          <Node pos="l" depth="2" NCoef="0" IVar="-1" Cut="0.0000000000000000e+00" cType="1" res="1.6071069985628128e-03" rms="4.6632850170135498e-01" purity="5.4859125614166260e-01" nType="-99"/>
          <Node pos="r" depth="2" NCoef="0" IVar="-1" Cut="0.0000000000000000e+00" cType="1" res="2.1586840739473701e-04" rms="4.4800749421119690e-01" purity="6.1181795597076416e-01" nType="-99"/>
        </Node>
      </Node>
    </BinaryTree>
    <BinaryTree type="DecisionTree" boostWeight="1.0000000000000000e+00" itree="900">
      <Node pos="s" depth="0" NCoef="0" IVar="8" Cut="1.5782522583007812e+02" cType="1" res="2.3398692719638348e-03" rms="4.4876110553741455e-01" purity="5.0227648019790649e-01" nType="0">
        <Node pos="l" depth="1" NCoef="0" IVar="6" Cut="3.4586584472656250e+02" cType="1" res="1.5215500257909298e-02" rms="4.6390306949615479e-01" purity="5.1751685142517090e-01" nType="0">
          <Node pos="l" depth="2" NCoef="0" IVar="-1" Cut="0.0000000000000000e+00" cType="1" res="2.0417650230228901e-03" rms="4.5773404836654663e-01" purity="4.2033359408378601e-01" nType="-99"/>
          <Node pos="r" depth="2" NCoef="0" IVar="-1" Cut="0.0000000000000000e+00" cType="1" res="1.6767396300565451e-04" rms="4.6700185537338257e-01" purity="5.7305175065994263e-01" nType="-99"/>
        </Node>
        <Node pos="r" depth="1" NCoef="0" IVar="7" Cut="8.5678565502166748e-01" cType="1" res="-2.7551976963877678e-03" rms="4.4252273440361023e-01" purity="4.9624556303024292e-01" nType="0">
          <Node pos="l" depth="2" NCoef="0" IVar="-1" Cut="0.0000000000000000e+00" cType="1" res="-6.6210323711857200e-04" rms="4.3783146142959595e-01" purity="4.4689026474952698e-01" nType="-99"/>
          <Node pos="r" depth="2" NCoef="0" IVar="-1" Cut="0.0000000000000000e+00" cType="1" res="6.8685947917401791e-04" rms="4.5101442933082581e-01" purity="5.9237599372863770e-01" nType="-99"/>
        </Node>
      </Node>
    </BinaryTree>
    <BinaryTree type="DecisionTree" boostWeight="1.0000000000000000e+00" itree="901">
      <Node pos="s" depth="0" NCoef="0" IVar="6" Cut="8.0971826171875000e+02" cType="1" res="4.3995669111609459e-03" rms="4.5197004079818726e-01" purity="5.0271075963973999e-01" nType="0">
        <Node pos="l" depth="1" NCoef="0" IVar="4" Cut="1.7746381759643555e+00" cType="1" res="1.0404692729935050e-03" rms="4.5160394906997681e-01" purity="4.9040076136589050e-01" nType="0">
          <Node pos="l" depth="2" NCoef="0" IVar="-1" Cut="0.0000000000000000e+00" cType="1" res="-1.6822788165882230e-03" rms="4.3843838572502136e-01" purity="5.2918392419815063e-01" nType="-99"/>
          <Node pos="r" depth="2" NCoef="0" IVar="-1" Cut="0.0000000000000000e+00" cType="1" res="1.7501103866379708e-04" rms="4.5238152146339417e-01" purity="4.8779788613319397e-01" nType="-99"/>
        </Node>
        <Node pos="r" depth="1" NCoef="0" IVar="-1" Cut="0.0000000000000000e+00" cType="1" res="1.3423942727968097e-03" rms="4.5392331480979919e-01" purity="5.9567564725875854e-01" nType="-99"/>
      </Node>
    </BinaryTree>
    <BinaryTree type="DecisionTree" boostWeight="1.0000000000000000e+00" itree="902">
      <Node pos="s" depth="0" NCoef="0" IVar="1" Cut="9.1366451978683472e-01" cType="1" res="-3.4481037873774767e-03" rms="4.4793078303337097e-01" purity="4.9759140610694885e-01" nType="0">
        <Node pos="l" depth="1" NCoef="0" IVar="-1" Cut="0.0000000000000000e+00" cType="1" res="-2.2601548116654158e-03" rms="4.0999925136566162e-01" purity="2.7265846729278564e-01" nType="-99"/>
        <Node pos="r" depth="1" NCoef="0" IVar="8" Cut="1.4552781677246094e+02" cType="1" res="-1.2696058256551623e-03" rms="4.5079076290130615e-01" purity="5.1579552888870239e-01" nType="0">
          <Node pos="l" depth="2" NCoef="0" IVar="-1" Cut="0.0000000000000000e+00" cType="1" res="-1.0894425213336945e-03" rms="4.6435591578483582e-01" purity="4.8414930701255798e-01" nType="-99"/>
          <Node pos="r" depth="2" NCoef="0" IVar="-1" Cut="0.0000000000000000e+00" cType="1" res="2.1484252647496760e-04" rms="4.4679564237594604e-01" purity="5.2458220720291138e-01" nType="-99"/>
        </Node>
      </Node>
    </BinaryTree>
    <BinaryTree type="DecisionTree" boostWeight="1.0000000000000000e+00" itree="903">
      <Node pos="s" depth="0" NCoef="0" IVar="0" Cut="1.8285938501358032e+00" cType="1" res="2.6261648163199425e-03" rms="4.5077204704284668e-01" purity="5.0138431787490845e-01" nType="0">
        <Node pos="l" depth="1" NCoef="0" IVar="0" Cut="1.1714481115341187e+00" cType="1" res="-1.8000226700678468e-03" rms="4.5276433229446411e-01" purity="5.3886431455612183e-01" nType="0">
          <Node pos="l" depth="2" NCoef="0" IVar="-1" Cut="0.0000000000000000e+00" cType="1" res="4.3730949983000755e-04" rms="4.4725009799003601e-01" purity="5.5101239681243896e-01" nType="-99"/>
          <Node pos="r" depth="2" NCoef="0" IVar="-1" Cut="0.0000000000000000e+00" cType="1" res="-6.8441213807091117e-04" rms="4.5851966738700867e-01" purity="5.2535706758499146e-01" nType="-99"/>
        </Node>
        <Node pos="r" depth="1" NCoef="0" IVar="6" Cut="3.9778741455078125e+02" cType="1" res="1.7733374610543251e-02" rms="4.4357231259346008e-01" purity="3.7345960736274719e-01" nType="0">
          <Node pos="l" depth="2" NCoef="0" IVar="-1" Cut="0.0000000000000000e+00" cType="1" res="2.9530350584536791e-03" rms="4.3688154220581055e-01" purity="3.5242426395416260e-01" nType="-99"/>
          <Node pos="r" depth="2" NCoef="0" IVar="-1" Cut="0.0000000000000000e+00" cType="1" res="3.3976999111473560e-04" rms="4.4633841514587402e-01" purity="3.8386291265487671e-01" nType="-99"/>
        </Node>
      </Node>
    </BinaryTree>
    <BinaryTree type="DecisionTree" boostWeight="1.0000000000000000e+00" itree="904">
      <Node pos="s" depth="0" NCoef="0" IVar="7" Cut="-9.9957990646362305e-01" cType="1" res="-3.0650377739220858e-03" rms="4.4745042920112610e-01" purity="4.9895849823951721e-01" nType="0">
        <Node pos="l" depth="1" NCoef="0" IVar="0" Cut="1.5624688863754272e+00" cType="1" res="1.1450151912868023e-02" rms="4.5330661535263062e-01" purity="5.9460771083831787e-01" nType="0">
          <Node pos="l" depth="2" NCoef="0" IVar="-1" Cut="0.0000000000000000e+00" cType="1" res="1.0433015413582325e-03" rms="4.4839048385620117e-01" purity="6.2670594453811646e-01" nType="-99"/>
          <Node pos="r" depth="2" NCoef="0" IVar="-1" Cut="0.0000000000000000e+00" cType="1" res="-1.1689815437421203e-03" rms="4.6567332744598389e-01" purity="5.0073176622390747e-01" nType="-99"/>
        </Node>
        <Node pos="r" depth="1" NCoef="0" IVar="7" Cut="7.5293904542922974e-01" cType="1" res="-8.9535294100642204e-03" rms="4.4491770863533020e-01" purity="4.6015572547912598e-01" nType="0">
          <Node pos="l" depth="2" NCoef="0" IVar="-1" Cut="0.0000000000000000e+00" cType="1" res="-1.3800944434478879e-03" rms="4.3310326337814331e-01" purity="3.4950324892997742e-01" nType="-99"/>
          <Node pos="r" depth="2" NCoef="0" IVar="-1" Cut="0.0000000000000000e+00" cType="1" res="6.5958724007941782e-05" rms="4.5458912849426270e-01" purity="5.5540919303894043e-01" nType="-99"/>
        </Node>
      </Node>
    </BinaryTree>
    <BinaryTree type="DecisionTree" boostWeight="1.0000000000000000e+00" itree="905">
      <Node pos="s" depth="0" NCoef="0" IVar="7" Cut="-5.7118785381317139e-01" cType="1" res="3.6551170051097870e-03" rms="4.4819205999374390e-01" purity="5.0285416841506958e-01" nType="0">
        <Node pos="l" depth="1" NCoef="0" IVar="0" Cut="6.7373979091644287e-01" cType="1" res="-7.4848425574600697e-03" rms="4.5338326692581177e-01" purity="5.1448953151702881e-01" nType="0">
          <Node pos="l" depth="2" NCoef="0" IVar="-1" Cut="0.0000000000000000e+00" cType="1" res="-2.7894654776901007e-03" rms="4.4865894317626953e-01" purity="4.4711121916770935e-01" nType="-99"/>
          <Node pos="r" depth="2" NCoef="0" IVar="-1" Cut="0.0000000000000000e+00" cType="1" res="-7.9355209891218692e-05" rms="4.5369303226470947e-01" purity="5.2357095479965210e-01" nType="-99"/>
        </Node>
        <Node pos="r" depth="1" NCoef="0" IVar="4" Cut="1.8887741565704346e+00" cType="1" res="1.1714529246091843e-02" rms="4.4422444701194763e-01" purity="4.9443632364273071e-01" nType="0">
          <Node pos="l" depth="2" NCoef="0" IVar="-1" Cut="0.0000000000000000e+00" cType="1" res="2.4068655911833048e-03" rms="4.3970936536788940e-01" purity="6.3525313138961792e-01" nType="-99"/>
          <Node pos="r" depth="2" NCoef="0" IVar="-1" Cut="0.0000000000000000e+00" cType="1" res="2.8122321236878633e-04" rms="4.4452548027038574e-01" purity="4.7347357869148254e-01" nType="-99"/>
        </Node>
      </Node>
    </BinaryTree>
    <BinaryTree type="DecisionTree" boostWeight="1.0000000000000000e+00" itree="906">
      <Node pos="s" depth="0" NCoef="0" IVar="3" Cut="1.0671610260009766e+02" cType="1" res="2.6253752876073122e-03" rms="4.4902402162551880e-01" purity="5.0480836629867554e-01" nType="0">
        <Node pos="l" depth="1" NCoef="0" IVar="3" Cut="9.9209938049316406e+01" cType="1" res="2.7991071343421936e-02" rms="4.5223677158355713e-01" purity="4.1747385263442993e-01" nType="0">
          <Node pos="l" depth="2" NCoef="0" IVar="-1" Cut="0.0000000000000000e+00" cType="1" res="5.4333859588950872e-04" rms="4.5295122265815735e-01" purity="3.4946209192276001e-01" nType="-99"/>
          <Node pos="r" depth="2" NCoef="0" IVar="-1" Cut="0.0000000000000000e+00" cType="1" res="2.5267868768423796e-03" rms="4.5058959722518921e-01" purity="4.8631539940834045e-01" nType="-99"/>
        </Node>
        <Node pos="r" depth="1" NCoef="0" IVar="0" Cut="6.7028224468231201e-01" cType="1" res="-2.9323637136258185e-04" rms="4.4856086373329163e-01" purity="5.1485723257064819e-01" nType="0">
          <Node pos="l" depth="2" NCoef="0" IVar="-1" Cut="0.0000000000000000e+00" cType="1" res="-2.0427724812179804e-03" rms="4.5108437538146973e-01" purity="4.4817915558815002e-01" nType="-99"/>
          <Node pos="r" depth="2" NCoef="0" IVar="-1" Cut="0.0000000000000000e+00" cType="1" res="2.0573489018715918e-04" rms="4.4806101918220520e-01" purity="5.2272534370422363e-01" nType="-99"/>
        </Node>
      </Node>
    </BinaryTree>
    <BinaryTree type="DecisionTree" boostWeight="1.0000000000000000e+00" itree="907">
      <Node pos="s" depth="0" NCoef="0" IVar="4" Cut="1.8004169464111328e+00" cType="1" res="7.9989928053691983e-04" rms="4.5006051659584045e-01" purity="5.0065511465072632e-01" nType="0">
        <Node pos="l" depth="1" NCoef="0" IVar="-1" Cut="0.0000000000000000e+00" cType="1" res="1.4935813378542662e-03" rms="4.5251271128654480e-01" purity="6.0068315267562866e-01" nType="-99"/>
        <Node pos="r" depth="1" NCoef="0" IVar="7" Cut="-4.2835536599159241e-01" cType="1" res="-1.8389002652838826e-03" rms="4.4975513219833374e-01" purity="4.9233400821685791e-01" nType="0">
          <Node pos="l" depth="2" NCoef="0" IVar="-1" Cut="0.0000000000000000e+00" cType="1" res="3.6849034950137138e-04" rms="4.5783960819244385e-01" purity="5.1229065656661987e-01" nType="-99"/>
          <Node pos="r" depth="2" NCoef="0" IVar="-1" Cut="0.0000000000000000e+00" cType="1" res="-5.2054034313187003e-04" rms="4.4267591834068298e-01" purity="4.7550147771835327e-01" nType="-99"/>
        </Node>
      </Node>
    </BinaryTree>
    <BinaryTree type="DecisionTree" boostWeight="1.0000000000000000e+00" itree="908">
      <Node pos="s" depth="0" NCoef="0" IVar="8" Cut="1.3565409851074219e+02" cType="1" res="5.8123380877077579e-03" rms="4.4808512926101685e-01" purity="5.0729739665985107e-01" nType="0">
        <Node pos="l" depth="1" NCoef="0" IVar="0" Cut="1.0520693063735962e+00" cType="1" res="-1.1553335003554821e-02" rms="4.6570411324501038e-01" purity="4.6721866726875305e-01" nType="0">
          <Node pos="l" depth="2" NCoef="0" IVar="-1" Cut="0.0000000000000000e+00" cType="1" res="-2.1314278710633516e-03" rms="4.5232349634170532e-01" purity="4.4064885377883911e-01" nType="-99"/>
          <Node pos="r" depth="2" NCoef="0" IVar="-1" Cut="0.0000000000000000e+00" cType="1" res="6.6572893410921097e-04" rms="4.7601407766342163e-01" purity="4.9097034335136414e-01" nType="-99"/>
        </Node>
        <Node pos="r" depth="1" NCoef="0" IVar="4" Cut="2.4136233329772949e+00" cType="1" res="9.5325317233800888e-03" rms="4.4413149356842041e-01" purity="5.1588332653045654e-01" nType="0">
          <Node pos="l" depth="2" NCoef="0" IVar="-1" Cut="0.0000000000000000e+00" cType="1" res="6.9877417990937829e-04" rms="4.5200687646865845e-01" purity="6.0413813591003418e-01" nType="-99"/>
          <Node pos="r" depth="2" NCoef="0" IVar="-1" Cut="0.0000000000000000e+00" cType="1" res="-1.9499020709190518e-04" rms="4.2690473794937134e-01" purity="3.3103018999099731e-01" nType="-99"/>
        </Node>
      </Node>
    </BinaryTree>
    <BinaryTree type="DecisionTree" boostWeight="1.0000000000000000e+00" itree="909">
      <Node pos="s" depth="0" NCoef="0" IVar="0" Cut="2.3089823722839355e+00" cType="1" res="-5.8043114840984344e-03" rms="4.4907024502754211e-01" purity="4.9392941594123840e-01" nType="0">
        <Node pos="l" depth="1" NCoef="0" IVar="0" Cut="5.5814379453659058e-01" cType="1" res="-3.5312734544277191e-03" rms="4.5317199826240540e-01" purity="5.1487678289413452e-01" nType="0">
          <Node pos="l" depth="2" NCoef="0" IVar="-1" Cut="0.0000000000000000e+00" cType="1" res="-1.6552121378481388e-03" rms="4.4656521081924438e-01" purity="4.2689037322998047e-01" nType="-99"/>
          <Node pos="r" depth="2" NCoef="0" IVar="-1" Cut="0.0000000000000000e+00" cType="1" res="-8.8112850789912045e-05" rms="4.5353281497955322e-01" purity="5.2050989866256714e-01" nType="-99"/>
        </Node>
        <Node pos="r" depth="1" NCoef="0" IVar="-1" Cut="0.0000000000000000e+00" cType="1" res="-3.6009643226861954e-03" rms="3.9023277163505554e-01" purity="2.1980378031730652e-01" nType="-99"/>
      </Node>
    </BinaryTree>
    <BinaryTree type="DecisionTree" boostWeight="1.0000000000000000e+00" itree="910">
      <Node pos="s" depth="0" NCoef="0" IVar="5" Cut="1.0504372119903564e+00" cType="1" res="5.4087610915303230e-03" rms="4.5127612352371216e-01" purity="5.0318056344985962e-01" nType="0">
        <Node pos="l" depth="1" NCoef="0" IVar="4" Cut="2.2106232643127441e+00" cType="1" res="2.1191481500864029e-02" rms="4.5666432380676270e-01" purity="5.8633619546890259e-01" nType="0">
          <Node pos="l" depth="2" NCoef="0" IVar="-1" Cut="0.0000000000000000e+00" cType="1" res="1.8996979633811861e-04" rms="4.5174756646156311e-01" purity="6.3726466894149780e-01" nType="-99"/>
          <Node pos="r" depth="2" NCoef="0" IVar="-1" Cut="0.0000000000000000e+00" cType="1" res="1.9866193179041147e-03" rms="4.6143111586570740e-01" purity="5.2842175960540771e-01" nType="-99"/>
        </Node>
        <Node pos="r" depth="1" NCoef="0" IVar="0" Cut="1.7317374944686890e+00" cType="1" res="8.4183004219084978e-04" rms="4.4960162043571472e-01" purity="4.7911843657493591e-01" nType="0">
          <Node pos="l" depth="2" NCoef="0" IVar="-1" Cut="0.0000000000000000e+00" cType="1" res="-2.0550563931465149e-04" rms="4.5373934507369995e-01" purity="5.2161538600921631e-01" nType="-99"/>
          <Node pos="r" depth="2" NCoef="0" IVar="-1" Cut="0.0000000000000000e+00" cType="1" res="9.8191772121936083e-04" rms="4.3733534216880798e-01" purity="3.5842856764793396e-01" nType="-99"/>
        </Node>
      </Node>
    </BinaryTree>
    <BinaryTree type="DecisionTree" boostWeight="1.0000000000000000e+00" itree="911">
      <Node pos="s" depth="0" NCoef="0" IVar="8" Cut="4.0664215087890625e+02" cType="1" res="-9.5254258485510945e-04" rms="4.4942662119865417e-01" purity="4.9808692932128906e-01" nType="0">
        <Node pos="l" depth="1" NCoef="0" IVar="2" Cut="7.5583618164062500e+01" cType="1" res="3.8813774008303881e-03" rms="4.5194211602210999e-01" purity="5.1776313781738281e-01" nType="0">
          <Node pos="l" depth="2" NCoef="0" IVar="-1" Cut="0.0000000000000000e+00" cType="1" res="-4.0339864790439606e-04" rms="4.5993494987487793e-01" purity="4.5445472002029419e-01" nType="-99"/>
          <Node pos="r" depth="2" NCoef="0" IVar="-1" Cut="0.0000000000000000e+00" cType="1" res="6.2569207511842251e-04" rms="4.4549405574798584e-01" purity="5.6646597385406494e-01" nType="-99"/>
        </Node>
        <Node pos="r" depth="1" NCoef="0" IVar="5" Cut="1.2477303743362427e+00" cType="1" res="-3.2553706318140030e-02" rms="4.3128877878189087e-01" purity="3.6945605278015137e-01" nType="0">
          <Node pos="l" depth="2" NCoef="0" IVar="-1" Cut="0.0000000000000000e+00" cType="1" res="-9.4989161880221218e-05" rms="4.6174612641334534e-01" purity="4.6784293651580811e-01" nType="-99"/>
          <Node pos="r" depth="2" NCoef="0" IVar="-1" Cut="0.0000000000000000e+00" cType="1" res="-3.8438164629042149e-03" rms="4.1040107607841492e-01" purity="3.0925026535987854e-01" nType="-99"/>
        </Node>
      </Node>
    </BinaryTree>
    <BinaryTree type="DecisionTree" boostWeight="1.0000000000000000e+00" itree="912">
      <Node pos="s" depth="0" NCoef="0" IVar="6" Cut="2.8238894653320312e+02" cType="1" res="6.8012112751603127e-03" rms="4.4909358024597168e-01" purity="5.0502955913543701e-01" nType="0">
        <Node pos="l" depth="1" NCoef="0" IVar="-1" Cut="0.0000000000000000e+00" cType="1" res="-4.9960236065089703e-03" rms="3.8858234882354736e-01" purity="2.2096453607082367e-01" nType="-99"/>
        <Node pos="r" depth="1" NCoef="0" IVar="1" Cut="9.3361264467239380e-01" cType="1" res="1.0170754976570606e-02" rms="4.5204576849937439e-01" purity="5.2112483978271484e-01" nType="0">
          <Node pos="l" depth="2" NCoef="0" IVar="-1" Cut="0.0000000000000000e+00" cType="1" res="1.4523444697260857e-03" rms="4.5426484942436218e-01" purity="3.8505145907402039e-01" nType="-99"/>
          <Node pos="r" depth="2" NCoef="0" IVar="-1" Cut="0.0000000000000000e+00" cType="1" res="2.8625625418499112e-04" rms="4.5130068063735962e-01" purity="5.6125801801681519e-01" nType="-99"/>
        </Node>
      </Node>
    </BinaryTree>
    <BinaryTree type="DecisionTree" boostWeight="1.0000000000000000e+00" itree="913">
      <Node pos="s" depth="0" NCoef="0" IVar="3" Cut="1.1153086090087891e+02" cType="1" res="3.2653666567057371e-03" rms="4.4948780536651611e-01" purity="5.0305473804473877e-01" nType="0">
        <Node pos="l" depth="1" NCoef="0" IVar="7" Cut="2.8569394350051880e-01" cType="1" res="2.5139288976788521e-02" rms="4.5612305402755737e-01" purity="4.4366306066513062e-01" nType="0">
          <Node pos="l" depth="2" NCoef="0" IVar="-1" Cut="0.0000000000000000e+00" cType="1" res="-2.3941101972013712e-04" rms="4.5005440711975098e-01" purity="4.0464025735855103e-01" nType="-99"/>
          <Node pos="r" depth="2" NCoef="0" IVar="-1" Cut="0.0000000000000000e+00" cType="1" res="3.0160329770296812e-03" rms="4.6051836013793945e-01" purity="4.8577970266342163e-01" nType="-99"/>
        </Node>
        <Node pos="r" depth="1" NCoef="0" IVar="6" Cut="6.7621759033203125e+02" cType="1" res="-9.0959412045776844e-04" rms="4.4808885455131531e-01" purity="5.1439052820205688e-01" nType="0">
          <Node pos="l" depth="2" NCoef="0" IVar="-1" Cut="0.0000000000000000e+00" cType="1" res="-4.5888390741311014e-04" rms="4.4891828298568726e-01" purity="4.8620957136154175e-01" nType="-99"/>
          <Node pos="r" depth="2" NCoef="0" IVar="-1" Cut="0.0000000000000000e+00" cType="1" res="1.1612116359174252e-03" rms="4.4423291087150574e-01" purity="6.1047405004501343e-01" nType="-99"/>
        </Node>
      </Node>
    </BinaryTree>
    <BinaryTree type="DecisionTree" boostWeight="1.0000000000000000e+00" itree="914">
      <Node pos="s" depth="0" NCoef="0" IVar="0" Cut="1.7208691835403442e+00" cType="1" res="-1.9868146628141403e-03" rms="4.4798326492309570e-01" purity="4.9974122643470764e-01" nType="0">
        <Node pos="l" depth="1" NCoef="0" IVar="1" Cut="9.6603572368621826e-01" cType="1" res="5.2945972420275211e-03" rms="4.5226645469665527e-01" purity="5.5056709051132202e-01" nType="0">
          <Node pos="l" depth="2" NCoef="0" IVar="-1" Cut="0.0000000000000000e+00" cType="1" res="6.0272467089816928e-04" rms="4.5944395661354065e-01" purity="4.9554067850112915e-01" nType="-99"/>
          <Node pos="r" depth="2" NCoef="0" IVar="-1" Cut="0.0000000000000000e+00" cType="1" res="-3.8191355997696519e-04" rms="4.3769609928131104e-01" purity="6.5734750032424927e-01" nType="-99"/>
        </Node>
        <Node pos="r" depth="1" NCoef="0" IVar="6" Cut="3.5824020385742188e+02" cType="1" res="-2.1794198080897331e-02" rms="4.3550348281860352e-01" purity="3.6148139834403992e-01" nType="0">
          <Node pos="l" depth="2" NCoef="0" IVar="-1" Cut="0.0000000000000000e+00" cType="1" res="1.2629526900127530e-03" rms="4.2794880270957947e-01" purity="3.2879209518432617e-01" nType="-99"/>
          <Node pos="r" depth="2" NCoef="0" IVar="-1" Cut="0.0000000000000000e+00" cType="1" res="-2.1738919895142317e-03" rms="4.3717947602272034e-01" purity="3.7203750014305115e-01" nType="-99"/>
        </Node>
      </Node>
    </BinaryTree>
    <BinaryTree type="DecisionTree" boostWeight="1.0000000000000000e+00" itree="915">
      <Node pos="s" depth="0" NCoef="0" IVar="3" Cut="1.1489996337890625e+02" cType="1" res="4.5577250421047211e-03" rms="4.5052370429039001e-01" purity="5.0433868169784546e-01" nType="0">
        <Node pos="l" depth="1" NCoef="0" IVar="6" Cut="3.9746575927734375e+02" cType="1" res="-9.5360632985830307e-03" rms="4.5481598377227783e-01" purity="4.3380448222160339e-01" nType="0">
          <Node pos="l" depth="2" NCoef="0" IVar="-1" Cut="0.0000000000000000e+00" cType="1" res="1.3484529918059707e-03" rms="4.5224273204803467e-01" purity="3.8833579421043396e-01" nType="-99"/>
          <Node pos="r" depth="2" NCoef="0" IVar="-1" Cut="0.0000000000000000e+00" cType="1" res="-1.8866173923015594e-03" rms="4.5529997348785400e-01" purity="4.7039657831192017e-01" nType="-99"/>
        </Node>
        <Node pos="r" depth="1" NCoef="0" IVar="4" Cut="1.8670389652252197e+00" cType="1" res="8.2747191190719604e-03" rms="4.4931119680404663e-01" purity="5.2294087409973145e-01" nType="0">
          <Node pos="l" depth="2" NCoef="0" IVar="-1" Cut="0.0000000000000000e+00" cType="1" res="1.9140464719384909e-03" rms="4.4135123491287231e-01" purity="6.6496056318283081e-01" nType="-99"/>
          <Node pos="r" depth="2" NCoef="0" IVar="-1" Cut="0.0000000000000000e+00" cType="1" res="2.2085559612605721e-04" rms="4.5001474022865295e-01" purity="5.0711047649383545e-01" nType="-99"/>
        </Node>
      </Node>
    </BinaryTree>
    <BinaryTree type="DecisionTree" boostWeight="1.0000000000000000e+00" itree="916">
      <Node pos="s" depth="0" NCoef="0" IVar="5" Cut="1.7074896097183228e+00" cType="1" res="-4.8451856710016727e-03" rms="4.4763037562370300e-01" purity="4.9788016080856323e-01" nType="0">
        <Node pos="l" depth="1" NCoef="0" IVar="6" Cut="5.1205493164062500e+02" cType="1" res="-8.4121422842144966e-03" rms="4.4713085889816284e-01" purity="5.1072859764099121e-01" nType="0">
          <Node pos="l" depth="2" NCoef="0" IVar="-1" Cut="0.0000000000000000e+00" cType="1" res="-9.4738876214250922e-04" rms="4.4718867540359497e-01" purity="4.4796276092529297e-01" nType="-99"/>
          <Node pos="r" depth="2" NCoef="0" IVar="-1" Cut="0.0000000000000000e+00" cType="1" res="1.7366540851071477e-04" rms="4.4676810503005981e-01" purity="5.9608286619186401e-01" nType="-99"/>
        </Node>
        <Node pos="r" depth="1" NCoef="0" IVar="7" Cut="2.8319919109344482e-01" cType="1" res="2.4919496849179268e-02" rms="4.5067763328552246e-01" purity="3.9066562056541443e-01" nType="0">
          <Node pos="l" depth="2" NCoef="0" IVar="-1" Cut="0.0000000000000000e+00" cType="1" res="2.1348528098315001e-03" rms="4.5263114571571350e-01" purity="3.8810026645660400e-01" nType="-99"/>
          <Node pos="r" depth="2" NCoef="0" IVar="-1" Cut="0.0000000000000000e+00" cType="1" res="9.0208952315151691e-04" rms="4.4832214713096619e-01" purity="3.9343059062957764e-01" nType="-99"/>
        </Node>
      </Node>
    </BinaryTree>
    <BinaryTree type="DecisionTree" boostWeight="1.0000000000000000e+00" itree="917">
      <Node pos="s" depth="0" NCoef="0" IVar="4" Cut="2.4463772773742676e+00" cType="1" res="-6.9064245326444507e-04" rms="4.5102199912071228e-01" purity="4.9991181492805481e-01" nType="0">
        <Node pos="l" depth="1" NCoef="0" IVar="6" Cut="6.4917767333984375e+02" cType="1" res="-5.9233945794403553e-03" rms="4.5760160684585571e-01" purity="5.5864524841308594e-01" nType="0">
          <Node pos="l" depth="2" NCoef="0" IVar="-1" Cut="0.0000000000000000e+00" cType="1" res="-3.1969146220944822e-05" rms="4.5887494087219238e-01" purity="5.4394173622131348e-01" nType="-99"/>
          <Node pos="r" depth="2" NCoef="0" IVar="-1" Cut="0.0000000000000000e+00" cType="1" res="-1.0900822235271335e-03" rms="4.5305502414703369e-01" purity="6.0606169700622559e-01" nType="-99"/>
        </Node>
        <Node pos="r" depth="1" NCoef="0" IVar="7" Cut="5.7103812694549561e-01" cType="1" res="1.4168223366141319e-02" rms="4.3144649267196655e-01" purity="3.3313307166099548e-01" nType="0">
          <Node pos="l" depth="2" NCoef="0" IVar="-1" Cut="0.0000000000000000e+00" cType="1" res="1.9115347822662443e-04" rms="4.2488488554954529e-01" purity="2.9839941859245300e-01" nType="-99"/>
          <Node pos="r" depth="2" NCoef="0" IVar="-1" Cut="0.0000000000000000e+00" cType="1" res="2.0580221898853779e-03" rms="4.4136247038841248e-01" purity="3.9032265543937683e-01" nType="-99"/>
        </Node>
      </Node>
    </BinaryTree>
    <BinaryTree type="DecisionTree" boostWeight="1.0000000000000000e+00" itree="918">
      <Node pos="s" depth="0" NCoef="0" IVar="0" Cut="1.7362091541290283e+00" cType="1" res="-3.0250328127294779e-03" rms="4.4948574900627136e-01" purity="4.9616852402687073e-01" nType="0">
        <Node pos="l" depth="1" NCoef="0" IVar="2" Cut="9.6895195007324219e+01" cType="1" res="-8.8811526075005531e-03" rms="4.5222234725952148e-01" purity="5.3626841306686401e-01" nType="0">
          <Node pos="l" depth="2" NCoef="0" IVar="-1" Cut="0.0000000000000000e+00" cType="1" res="-8.6326373275369406e-04" rms="4.5712211728096008e-01" purity="4.8019549250602722e-01" nType="-99"/>
          <Node pos="r" depth="2" NCoef="0" IVar="-1" Cut="0.0000000000000000e+00" cType="1" res="4.0195148903876543e-04" rms="4.4043913483619690e-01" purity="6.6295397281646729e-01" nType="-99"/>
        </Node>
        <Node pos="r" depth="1" NCoef="0" IVar="4" Cut="2.5454709529876709e+00" cType="1" res="1.2194762006402016e-02" rms="4.4193148612976074e-01" purity="3.9195075631141663e-01" nType="0">
          <Node pos="l" depth="2" NCoef="0" IVar="-1" Cut="0.0000000000000000e+00" cType="1" res="1.2724826810881495e-03" rms="4.6721279621124268e-01" purity="4.8133069276809692e-01" nType="-99"/>
          <Node pos="r" depth="2" NCoef="0" IVar="-1" Cut="0.0000000000000000e+00" cType="1" res="-1.7055812058970332e-03" rms="3.8112398982048035e-01" purity="2.0164430141448975e-01" nType="-99"/>
        </Node>
      </Node>
    </BinaryTree>
    <BinaryTree type="DecisionTree" boostWeight="1.0000000000000000e+00" itree="919">
      <Node pos="s" depth="0" NCoef="0" IVar="1" Cut="9.4014865159988403e-01" cType="1" res="-8.3791688084602356e-03" rms="4.4603341817855835e-01" purity="4.9272075295448303e-01" nType="0">
        <Node pos="l" depth="1" NCoef="0" IVar="7" Cut="8.5678023099899292e-01" cType="1" res="-2.2342864423990250e-02" rms="4.3653887510299683e-01" purity="3.3873647451400757e-01" nType="0">
          <Node pos="l" depth="2" NCoef="0" IVar="-1" Cut="0.0000000000000000e+00" cType="1" res="-6.7254790337756276e-04" rms="4.2668083310127258e-01" purity="3.2046186923980713e-01" nType="-99"/>
          <Node pos="r" depth="2" NCoef="0" IVar="-1" Cut="0.0000000000000000e+00" cType="1" res="-2.9029282741248608e-03" rms="4.5647135376930237e-01" purity="3.7931388616561890e-01" nType="-99"/>
        </Node>
        <Node pos="r" depth="1" NCoef="0" IVar="3" Cut="1.3411271667480469e+02" cType="1" res="-2.6364733930677176e-03" rms="4.4975420832633972e-01" purity="5.5604827404022217e-01" nType="0">
          <Node pos="l" depth="2" NCoef="0" IVar="-1" Cut="0.0000000000000000e+00" cType="1" res="1.0435569129185751e-04" rms="4.4952511787414551e-01" purity="5.7858210802078247e-01" nType="-99"/>
          <Node pos="r" depth="2" NCoef="0" IVar="-1" Cut="0.0000000000000000e+00" cType="1" res="-1.8984159687533975e-03" rms="4.5002567768096924e-01" purity="4.1592460870742798e-01" nType="-99"/>
        </Node>
      </Node>
    </BinaryTree>
    <BinaryTree type="DecisionTree" boostWeight="1.0000000000000000e+00" itree="920">
      <Node pos="s" depth="0" NCoef="0" IVar="4" Cut="2.7210600376129150e+00" cType="1" res="-2.5592767633497715e-03" rms="4.4793227314949036e-01" purity="4.9963074922561646e-01" nType="0">
        <Node pos="l" depth="1" NCoef="0" IVar="0" Cut="1.6301569938659668e+00" cType="1" res="-6.0800437495345250e-05" rms="4.5425835251808167e-01" purity="5.2711939811706543e-01" nType="0">
          <Node pos="l" depth="2" NCoef="0" IVar="-1" Cut="0.0000000000000000e+00" cType="1" res="2.5838243891485035e-04" rms="4.5226025581359863e-01" purity="5.6804585456848145e-01" nType="-99"/>
          <Node pos="r" depth="2" NCoef="0" IVar="-1" Cut="0.0000000000000000e+00" cType="1" res="-7.3870300548151135e-04" rms="4.5872104167938232e-01" purity="4.2952558398246765e-01" nType="-99"/>
        </Node>
        <Node pos="r" depth="1" NCoef="0" IVar="-1" Cut="0.0000000000000000e+00" cType="1" res="-3.2125061843544245e-03" rms="3.7097808718681335e-01" purity="2.0000877976417542e-01" nType="-99"/>
      </Node>
    </BinaryTree>
    <BinaryTree type="DecisionTree" boostWeight="1.0000000000000000e+00" itree="921">
      <Node pos="s" depth="0" NCoef="0" IVar="7" Cut="-2.8556340932846069e-01" cType="1" res="4.5680515468120575e-03" rms="4.4974860548973083e-01" purity="5.0366222858428955e-01" nType="0">
        <Node pos="l" depth="1" NCoef="0" IVar="1" Cut="9.6614176034927368e-01" cType="1" res="-6.7675304599106312e-03" rms="4.4970521330833435e-01" purity="5.0400751829147339e-01" nType="0">
          <Node pos="l" depth="2" NCoef="0" IVar="-1" Cut="0.0000000000000000e+00" cType="1" res="-9.2365214368328452e-04" rms="4.5497950911521912e-01" purity="4.2426517605781555e-01" nType="-99"/>
          <Node pos="r" depth="2" NCoef="0" IVar="-1" Cut="0.0000000000000000e+00" cType="1" res="5.2751833572983742e-04" rms="4.3918472528457642e-01" purity="6.5163522958755493e-01" nType="-99"/>
        </Node>
        <Node pos="r" depth="1" NCoef="0" IVar="7" Cut="1.0645929574966431e+00" cType="1" res="1.4651632867753506e-02" rms="4.4954705238342285e-01" purity="5.0335514545440674e-01" nType="0">
          <Node pos="l" depth="2" NCoef="0" IVar="-1" Cut="0.0000000000000000e+00" cType="1" res="1.7126017482951283e-03" rms="4.4915968179702759e-01" purity="4.2276594042778015e-01" nType="-99"/>
          <Node pos="r" depth="2" NCoef="0" IVar="-1" Cut="0.0000000000000000e+00" cType="1" res="-9.2648355348501354e-05" rms="4.4940105080604553e-01" purity="5.9378546476364136e-01" nType="-99"/>
        </Node>
      </Node>
    </BinaryTree>
  </Weights>
</MethodSetup>
