<?xml version="1.0"?>
<MethodSetup Method="BDT::BDTG">
  <GeneralInfo>
    <Info name="TMVA Release" value="4.2.1 [262657]"/>
    <Info name="ROOT Release" value="6.06/01 [394753]"/>
    <Info name="Creator" value="kelmorab"/>
    <Info name="Date" value="Tue Feb 28 15:16:08 2017"/>
    <Info name="Host" value="Linux vocms0315.cern.ch 2.6.32-573.26.1.el6.x86_64 #1 SMP Wed May 4 09:23:05 CEST 2016 x86_64 x86_64 x86_64 GNU/Linux"/>
    <Info name="Dir" value="/nfs/dust/cms/user/kelmorab/Spring17Training/3makeHistosAndCards"/>
    <Info name="Training events" value="48199"/>
    <Info name="TrainingTime" value="5.48921549e+01"/>
    <Info name="AnalysisType" value="Classification"/>
  </GeneralInfo>
  <Options>
    <Option name="V" modified="Yes">False</Option>
    <Option name="VerbosityLevel" modified="No">Default</Option>
    <Option name="VarTransform" modified="No">None</Option>
    <Option name="H" modified="Yes">False</Option>
    <Option name="CreateMVAPdfs" modified="No">False</Option>
    <Option name="IgnoreNegWeightsInTraining" modified="No">False</Option>
    <Option name="NTrees" modified="Yes">1312</Option>
    <Option name="MaxDepth" modified="Yes">2</Option>
    <Option name="MinNodeSize" modified="No">5%</Option>
    <Option name="nCuts" modified="Yes">36</Option>
    <Option name="BoostType" modified="Yes">Grad</Option>
    <Option name="AdaBoostR2Loss" modified="No">quadratic</Option>
    <Option name="UseBaggedBoost" modified="Yes">True</Option>
    <Option name="Shrinkage" modified="Yes">2.860000e-02</Option>
    <Option name="AdaBoostBeta" modified="No">5.000000e-01</Option>
    <Option name="UseRandomisedTrees" modified="No">False</Option>
    <Option name="UseNvars" modified="No">3</Option>
    <Option name="UsePoissonNvars" modified="No">True</Option>
    <Option name="BaggedSampleFraction" modified="No">4.000000e-01</Option>
    <Option name="UseYesNoLeaf" modified="No">True</Option>
    <Option name="NegWeightTreatment" modified="Yes">ignorenegweightsintraining</Option>
    <Option name="Css" modified="No">1.000000e+00</Option>
    <Option name="Cts_sb" modified="No">1.000000e+00</Option>
    <Option name="Ctb_ss" modified="No">1.000000e+00</Option>
    <Option name="Cbb" modified="No">1.000000e+00</Option>
    <Option name="NodePurityLimit" modified="No">5.000000e-01</Option>
    <Option name="SeparationType" modified="No">giniindex</Option>
    <Option name="DoBoostMonitor" modified="No">False</Option>
    <Option name="UseFisherCuts" modified="No">False</Option>
    <Option name="MinLinCorrForFisher" modified="No">8.000000e-01</Option>
    <Option name="UseExclusiveVars" modified="No">False</Option>
    <Option name="DoPreselection" modified="No">False</Option>
    <Option name="SigToBkgFraction" modified="No">1.000000e+00</Option>
    <Option name="PruneMethod" modified="No">nopruning</Option>
    <Option name="PruneStrength" modified="No">0.000000e+00</Option>
    <Option name="PruningValFraction" modified="No">5.000000e-01</Option>
    <Option name="nEventsMin" modified="No">0</Option>
    <Option name="UseBaggedGrad" modified="No">False</Option>
    <Option name="GradBaggingFraction" modified="Yes">4.000000e-01</Option>
    <Option name="UseNTrainEvents" modified="No">0</Option>
    <Option name="NNodesMax" modified="No">0</Option>
  </Options>
  <Variables NVar="10">
    <Variable VarIndex="0" Expression="blr_transformed" Label="blr_transformed" Title="blr_transformed" Unit="" Internal="blr_transformed" Type="F" Min="-9.68884528e-01" Max="8.32929325e+00"/>
    <Variable VarIndex="1" Expression="all_sum_pt_with_met" Label="all_sum_pt_with_met" Title="all_sum_pt_with_met" Unit="" Internal="all_sum_pt_with_met" Type="F" Min="2.30186478e+02" Max="3.41904370e+03"/>
    <Variable VarIndex="2" Expression="closest_tagged_dijet_mass" Label="closest_tagged_dijet_mass" Title="closest_tagged_dijet_mass" Unit="" Internal="closest_tagged_dijet_mass" Type="F" Min="1.60592365e+01" Max="1.62611401e+03"/>
    <Variable VarIndex="3" Expression="h2" Label="h2" Title="h2" Unit="" Internal="h2" Type="F" Min="-1.26458824e-01" Max="3.43571663e-01"/>
    <Variable VarIndex="4" Expression="sphericity" Label="sphericity" Title="sphericity" Unit="" Internal="sphericity" Type="F" Min="7.17209699e-03" Max="9.46708739e-01"/>
    <Variable VarIndex="5" Expression="avg_btag_disc_btags" Label="avg_btag_disc_btags" Title="avg_btag_disc_btags" Unit="" Internal="avg_btag_disc_btags" Type="F" Min="8.55492949e-01" Max="9.99140024e-01"/>
    <Variable VarIndex="6" Expression="avg_dr_tagged_jets" Label="avg_dr_tagged_jets" Title="avg_dr_tagged_jets" Unit="" Internal="avg_dr_tagged_jets" Type="F" Min="5.12523711e-01" Max="4.07082129e+00"/>
    <Variable VarIndex="7" Expression="third_jet_pt" Label="third_jet_pt" Title="third_jet_pt" Unit="" Internal="third_jet_pt" Type="F" Min="3.04303722e+01" Max="4.44874176e+02"/>
    <Variable VarIndex="8" Expression="dr_between_lep_and_closest_jet" Label="dr_between_lep_and_closest_jet" Title="dr_between_lep_and_closest_jet" Unit="" Internal="dr_between_lep_and_closest_jet" Type="F" Min="4.00412679e-01" Max="3.37494707e+00"/>
    <Variable VarIndex="9" Expression="maxeta_tag_tag" Label="maxeta_tag_tag" Title="maxeta_tag_tag" Unit="" Internal="maxeta_tag_tag" Type="F" Min="4.09861421e-03" Max="1.58181512e+00"/>
  </Variables>
  <Spectators NSpec="0"/>
  <Classes NClass="2">
    <Class Name="Signal" Index="0"/>
    <Class Name="Background" Index="1"/>
  </Classes>
  <Transformations NTransformations="0"/>
  <MVAPdfs/>
  <Weights NTrees="1312" AnalysisType="1">
    <BinaryTree type="DecisionTree" boostWeight="1.0000000000000000e+00" itree="0">
      <Node pos="s" depth="0" NCoef="0" IVar="0" Cut="3.4213206768035889e+00" cType="1" res="3.9702150388620794e-04" rms="4.9999985098838806e-01" purity="5.0039702653884888e-01" nType="0">
        <Node pos="l" depth="1" NCoef="0" IVar="5" Cut="9.5263731479644775e-01" cType="1" res="-9.5256164669990540e-02" rms="4.9084240198135376e-01" purity="4.0474385023117065e-01" nType="0">
          <Node pos="l" depth="2" NCoef="0" IVar="-1" Cut="0.0000000000000000e+00" cType="1" res="-8.3136921748518944e-03" rms="4.7423398494720459e-01" purity="3.4156352281570435e-01" nType="-99"/>
          <Node pos="r" depth="2" NCoef="0" IVar="-1" Cut="0.0000000000000000e+00" cType="1" res="5.8823276776820421e-04" rms="4.9988204240798950e-01" purity="5.1086026430130005e-01" nType="-99"/>
        </Node>
        <Node pos="r" depth="1" NCoef="0" IVar="6" Cut="2.5560064315795898e+00" cType="1" res="1.8197527527809143e-01" rms="4.6570914983749390e-01" purity="6.8197524547576904e-01" nType="0">
          <Node pos="l" depth="2" NCoef="0" IVar="-1" Cut="0.0000000000000000e+00" cType="1" res="1.0872905142605305e-02" rms="4.5109754800796509e-01" purity="7.1566414833068848e-01" nType="-99"/>
          <Node pos="r" depth="2" NCoef="0" IVar="-1" Cut="0.0000000000000000e+00" cType="1" res="-2.8807279886677861e-04" rms="4.9996936321258545e-01" purity="4.9446544051170349e-01" nType="-99"/>
        </Node>
      </Node>
    </BinaryTree>
    <BinaryTree type="DecisionTree" boostWeight="1.0000000000000000e+00" itree="1">
      <Node pos="s" depth="0" NCoef="0" IVar="0" Cut="3.0450258255004883e+00" cType="1" res="-1.0419248137623072e-03" rms="4.9881109595298767e-01" purity="4.9894854426383972e-01" nType="0">
        <Node pos="l" depth="1" NCoef="0" IVar="5" Cut="9.5266968011856079e-01" cType="1" res="-1.0872630774974823e-01" rms="4.8708534240722656e-01" purity="3.8868004083633423e-01" nType="0">
          <Node pos="l" depth="2" NCoef="0" IVar="-1" Cut="0.0000000000000000e+00" cType="1" res="-8.9255571365356445e-03" rms="4.6889352798461914e-01" purity="3.2639691233634949e-01" nType="-99"/>
          <Node pos="r" depth="2" NCoef="0" IVar="-1" Cut="0.0000000000000000e+00" cType="1" res="1.9186109420843422e-04" rms="4.9998560547828674e-01" purity="5.0379055738449097e-01" nType="-99"/>
        </Node>
        <Node pos="r" depth="1" NCoef="0" IVar="5" Cut="9.8135352134704590e-01" cType="1" res="1.4356556534767151e-01" rms="4.7734001278877258e-01" purity="6.4702612161636353e-01" nType="0">
          <Node pos="l" depth="2" NCoef="0" IVar="-1" Cut="0.0000000000000000e+00" cType="1" res="4.7620744444429874e-03" rms="4.8996412754058838e-01" purity="5.9718817472457886e-01" nType="-99"/>
          <Node pos="r" depth="2" NCoef="0" IVar="-1" Cut="0.0000000000000000e+00" cType="1" res="1.3985134661197662e-02" rms="4.1486519575119019e-01" purity="7.7844494581222534e-01" nType="-99"/>
        </Node>
      </Node>
    </BinaryTree>
    <BinaryTree type="DecisionTree" boostWeight="1.0000000000000000e+00" itree="2">
      <Node pos="s" depth="0" NCoef="0" IVar="0" Cut="2.7685389518737793e+00" cType="1" res="-3.3579352311789989e-03" rms="4.9772733449935913e-01" purity="4.9643573164939880e-01" nType="0">
        <Node pos="l" depth="1" NCoef="0" IVar="1" Cut="4.7197885131835938e+02" cType="1" res="-1.2406991422176361e-01" rms="4.8225000500679016e-01" purity="3.7003955245018005e-01" nType="0">
          <Node pos="l" depth="2" NCoef="0" IVar="-1" Cut="0.0000000000000000e+00" cType="1" res="-1.1859962716698647e-02" rms="4.4487711787223816e-01" purity="2.7287623286247253e-01" nType="-99"/>
          <Node pos="r" depth="2" NCoef="0" IVar="-1" Cut="0.0000000000000000e+00" cType="1" res="-3.3375988714396954e-03" rms="4.9484515190124512e-01" purity="4.3233776092529297e-01" nType="-99"/>
        </Node>
        <Node pos="r" depth="1" NCoef="0" IVar="6" Cut="2.6089301109313965e+00" cType="1" res="1.1913071572780609e-01" rms="4.8304641246795654e-01" purity="6.2469226121902466e-01" nType="0">
          <Node pos="l" depth="2" NCoef="0" IVar="-1" Cut="0.0000000000000000e+00" cType="1" res="7.8780921176075935e-03" rms="4.7270748019218445e-01" purity="6.6002887487411499e-01" nType="-99"/>
          <Node pos="r" depth="2" NCoef="0" IVar="-1" Cut="0.0000000000000000e+00" cType="1" res="-5.5677979253232479e-03" rms="4.8835715651512146e-01" purity="3.9484375715255737e-01" nType="-99"/>
        </Node>
      </Node>
    </BinaryTree>
    <BinaryTree type="DecisionTree" boostWeight="1.0000000000000000e+00" itree="3">
      <Node pos="s" depth="0" NCoef="0" IVar="0" Cut="2.8117749691009521e+00" cType="1" res="5.0259451381862164e-03" rms="4.9664139747619629e-01" purity="5.0483971834182739e-01" nType="0">
        <Node pos="l" depth="1" NCoef="0" IVar="5" Cut="9.4504976272583008e-01" cType="1" res="-1.1158886551856995e-01" rms="4.8429635167121887e-01" purity="3.7948796153068542e-01" nType="0">
          <Node pos="l" depth="2" NCoef="0" IVar="-1" Cut="0.0000000000000000e+00" cType="1" res="-9.5793157815933228e-03" rms="4.6092182397842407e-01" purity="3.0694887042045593e-01" nType="-99"/>
          <Node pos="r" depth="2" NCoef="0" IVar="-1" Cut="0.0000000000000000e+00" cType="1" res="-1.7420289805158973e-03" rms="4.9797788262367249e-01" purity="4.6268311142921448e-01" nType="-99"/>
        </Node>
        <Node pos="r" depth="1" NCoef="0" IVar="6" Cut="2.6378219127655029e+00" cType="1" res="1.2608160078525543e-01" rms="4.8005434870719910e-01" purity="6.3496500253677368e-01" nType="0">
          <Node pos="l" depth="2" NCoef="0" IVar="-1" Cut="0.0000000000000000e+00" cType="1" res="7.8421393409371376e-03" rms="4.7132903337478638e-01" purity="6.6435480117797852e-01" nType="-99"/>
          <Node pos="r" depth="2" NCoef="0" IVar="-1" Cut="0.0000000000000000e+00" cType="1" res="-4.3751695193350315e-03" rms="4.9242129921913147e-01" purity="4.1542810201644897e-01" nType="-99"/>
        </Node>
      </Node>
    </BinaryTree>
    <BinaryTree type="DecisionTree" boostWeight="1.0000000000000000e+00" itree="4">
      <Node pos="s" depth="0" NCoef="0" IVar="0" Cut="3.0656816959381104e+00" cType="1" res="3.8419598713517189e-03" rms="4.9548563361167908e-01" purity="5.0383394956588745e-01" nType="0">
        <Node pos="l" depth="1" NCoef="0" IVar="6" Cut="2.2233483791351318e+00" cType="1" res="-1.0354212671518326e-01" rms="4.8537060618400574e-01" purity="3.8634306192398071e-01" nType="0">
          <Node pos="l" depth="2" NCoef="0" IVar="-1" Cut="0.0000000000000000e+00" cType="1" res="-1.4202810125425458e-03" rms="4.9706682562828064e-01" purity="4.6377912163734436e-01" nType="-99"/>
          <Node pos="r" depth="2" NCoef="0" IVar="-1" Cut="0.0000000000000000e+00" cType="1" res="-9.8289893940091133e-03" rms="4.5990964770317078e-01" purity="3.0693814158439636e-01" nType="-99"/>
        </Node>
        <Node pos="r" depth="1" NCoef="0" IVar="0" Cut="4.3952016830444336e+00" cType="1" res="1.4728446304798126e-01" rms="4.7199541330337524e-01" purity="6.6077697277069092e-01" nType="0">
          <Node pos="l" depth="2" NCoef="0" IVar="-1" Cut="0.0000000000000000e+00" cType="1" res="4.2261029593646526e-03" rms="4.8960590362548828e-01" purity="5.9512770175933838e-01" nType="-99"/>
          <Node pos="r" depth="2" NCoef="0" IVar="-1" Cut="0.0000000000000000e+00" cType="1" res="1.2378216721117496e-02" rms="4.2598831653594971e-01" purity="7.5982099771499634e-01" nType="-99"/>
        </Node>
      </Node>
    </BinaryTree>
    <BinaryTree type="DecisionTree" boostWeight="1.0000000000000000e+00" itree="5">
      <Node pos="s" depth="0" NCoef="0" IVar="0" Cut="3.0625712871551514e+00" cType="1" res="-1.5410365303978324e-03" rms="4.9471467733383179e-01" purity="4.9822929501533508e-01" nType="0">
        <Node pos="l" depth="1" NCoef="0" IVar="1" Cut="4.6005279541015625e+02" cType="1" res="-9.6793867647647858e-02" rms="4.8593765497207642e-01" purity="3.9002910256385803e-01" nType="0">
          <Node pos="l" depth="2" NCoef="0" IVar="-1" Cut="0.0000000000000000e+00" cType="1" res="-1.0962087661027908e-02" rms="4.4695192575454712e-01" purity="2.7881878614425659e-01" nType="-99"/>
          <Node pos="r" depth="2" NCoef="0" IVar="-1" Cut="0.0000000000000000e+00" cType="1" res="-2.1072076633572578e-03" rms="4.9584698677062988e-01" purity="4.4900158047676086e-01" nType="-99"/>
        </Node>
        <Node pos="r" depth="1" NCoef="0" IVar="6" Cut="2.5263772010803223e+00" cType="1" res="1.2630122900009155e-01" rms="4.7725638747215271e-01" purity="6.4344865083694458e-01" nType="0">
          <Node pos="l" depth="2" NCoef="0" IVar="-1" Cut="0.0000000000000000e+00" cType="1" res="8.1308968365192413e-03" rms="4.6561047434806824e-01" purity="6.8005567789077759e-01" nType="-99"/>
          <Node pos="r" depth="2" NCoef="0" IVar="-1" Cut="0.0000000000000000e+00" cType="1" res="-2.1970910020172596e-03" rms="4.9752107262611389e-01" purity="4.6322572231292725e-01" nType="-99"/>
        </Node>
      </Node>
    </BinaryTree>
    <BinaryTree type="DecisionTree" boostWeight="1.0000000000000000e+00" itree="6">
      <Node pos="s" depth="0" NCoef="0" IVar="0" Cut="2.8926250934600830e+00" cType="1" res="4.2471191845834255e-03" rms="4.9364531040191650e-01" purity="5.0418829917907715e-01" nType="0">
        <Node pos="l" depth="1" NCoef="0" IVar="1" Cut="5.1294268798828125e+02" cType="1" res="-1.0160233080387115e-01" rms="4.8391565680503845e-01" purity="3.8179925084114075e-01" nType="0">
          <Node pos="l" depth="2" NCoef="0" IVar="-1" Cut="0.0000000000000000e+00" cType="1" res="-9.4808544963598251e-03" rms="4.5818725228309631e-01" purity="3.0343323945999146e-01" nType="-99"/>
          <Node pos="r" depth="2" NCoef="0" IVar="-1" Cut="0.0000000000000000e+00" cType="1" res="-1.5680008800700307e-03" rms="4.9689126014709473e-01" purity="4.5752826333045959e-01" nType="-99"/>
        </Node>
        <Node pos="r" depth="1" NCoef="0" IVar="0" Cut="4.2558083534240723e+00" cType="1" res="1.2308468669652939e-01" rms="4.7714024782180786e-01" purity="6.4159500598907471e-01" nType="0">
          <Node pos="l" depth="2" NCoef="0" IVar="-1" Cut="0.0000000000000000e+00" cType="1" res="3.0920773278921843e-03" rms="4.9250948429107666e-01" purity="5.7515215873718262e-01" nType="-99"/>
          <Node pos="r" depth="2" NCoef="0" IVar="-1" Cut="0.0000000000000000e+00" cType="1" res="1.0911784134805202e-02" rms="4.3844619393348694e-01" purity="7.3777365684509277e-01" nType="-99"/>
        </Node>
      </Node>
    </BinaryTree>
    <BinaryTree type="DecisionTree" boostWeight="1.0000000000000000e+00" itree="7">
      <Node pos="s" depth="0" NCoef="0" IVar="0" Cut="2.4866282939910889e+00" cType="1" res="5.5236509069800377e-03" rms="4.9277091026306152e-01" purity="5.0574398040771484e-01" nType="0">
        <Node pos="l" depth="1" NCoef="0" IVar="1" Cut="5.0785638427734375e+02" cType="1" res="-1.1984341591596603e-01" rms="4.7787958383560181e-01" purity="3.5929900407791138e-01" nType="0">
          <Node pos="l" depth="2" NCoef="0" IVar="-1" Cut="0.0000000000000000e+00" cType="1" res="-1.0253575630486012e-02" rms="4.4957980513572693e-01" purity="2.8400224447250366e-01" nType="-99"/>
          <Node pos="r" depth="2" NCoef="0" IVar="-1" Cut="0.0000000000000000e+00" cType="1" res="-2.7442737482488155e-03" rms="4.9464365839958191e-01" purity="4.3375146389007568e-01" nType="-99"/>
        </Node>
        <Node pos="r" depth="1" NCoef="0" IVar="6" Cut="2.6442267894744873e+00" cType="1" res="9.5774985849857330e-02" rms="4.8349657654762268e-01" purity="6.1116927862167358e-01" nType="0">
          <Node pos="l" depth="2" NCoef="0" IVar="-1" Cut="0.0000000000000000e+00" cType="1" res="6.3347248360514641e-03" rms="4.7627210617065430e-01" purity="6.4170747995376587e-01" nType="-99"/>
          <Node pos="r" depth="2" NCoef="0" IVar="-1" Cut="0.0000000000000000e+00" cType="1" res="-6.2458324246108532e-03" rms="4.8374813795089722e-01" purity="3.7761464715003967e-01" nType="-99"/>
        </Node>
      </Node>
    </BinaryTree>
    <BinaryTree type="DecisionTree" boostWeight="1.0000000000000000e+00" itree="8">
      <Node pos="s" depth="0" NCoef="0" IVar="0" Cut="3.3110806941986084e+00" cType="1" res="8.6340599227696657e-04" rms="4.9205172061920166e-01" purity="5.0065165758132935e-01" nType="0">
        <Node pos="l" depth="1" NCoef="0" IVar="5" Cut="9.4831538200378418e-01" cType="1" res="-7.9689092934131622e-02" rms="4.8722356557846069e-01" purity="4.0374445915222168e-01" nType="0">
          <Node pos="l" depth="2" NCoef="0" IVar="-1" Cut="0.0000000000000000e+00" cType="1" res="-7.9372171312570572e-03" rms="4.6673497557640076e-01" purity="3.2602578401565552e-01" nType="-99"/>
          <Node pos="r" depth="2" NCoef="0" IVar="-1" Cut="0.0000000000000000e+00" cType="1" res="4.3238248326815665e-04" rms="4.9777385592460632e-01" purity="5.0018638372421265e-01" nType="-99"/>
        </Node>
        <Node pos="r" depth="1" NCoef="0" IVar="0" Cut="4.8984436988830566e+00" cType="1" res="1.3737526535987854e-01" rms="4.6956971287727356e-01" purity="6.6487967967987061e-01" nType="0">
          <Node pos="l" depth="2" NCoef="0" IVar="-1" Cut="0.0000000000000000e+00" cType="1" res="4.5498674735426903e-03" rms="4.8482489585876465e-01" purity="6.1465805768966675e-01" nType="-99"/>
          <Node pos="r" depth="2" NCoef="0" IVar="-1" Cut="0.0000000000000000e+00" cType="1" res="1.3480047695338726e-02" rms="4.0025117993354797e-01" purity="7.9687565565109253e-01" nType="-99"/>
        </Node>
      </Node>
    </BinaryTree>
    <BinaryTree type="DecisionTree" boostWeight="1.0000000000000000e+00" itree="9">
      <Node pos="s" depth="0" NCoef="0" IVar="0" Cut="2.5972647666931152e+00" cType="1" res="2.5701608974486589e-03" rms="4.9121695756912231e-01" purity="5.0265336036682129e-01" nType="0">
        <Node pos="l" depth="1" NCoef="0" IVar="1" Cut="4.7401522827148438e+02" cType="1" res="-1.0736687481403351e-01" rms="4.7920429706573486e-01" purity="3.6688169836997986e-01" nType="0">
          <Node pos="l" depth="2" NCoef="0" IVar="-1" Cut="0.0000000000000000e+00" cType="1" res="-1.0779926553368568e-02" rms="4.3987742066383362e-01" purity="2.6484096050262451e-01" nType="-99"/>
          <Node pos="r" depth="2" NCoef="0" IVar="-1" Cut="0.0000000000000000e+00" cType="1" res="-2.5363299064338207e-03" rms="4.9380263686180115e-01" purity="4.3325310945510864e-01" nType="-99"/>
        </Node>
        <Node pos="r" depth="1" NCoef="0" IVar="6" Cut="2.3934845924377441e+00" cType="1" res="9.2427894473075867e-02" rms="4.8256525397300720e-01" purity="6.1362725496292114e-01" nType="0">
          <Node pos="l" depth="2" NCoef="0" IVar="-1" Cut="0.0000000000000000e+00" cType="1" res="7.0943972095847130e-03" rms="4.6969380974769592e-01" purity="6.6339188814163208e-01" nType="-99"/>
          <Node pos="r" depth="2" NCoef="0" IVar="-1" Cut="0.0000000000000000e+00" cType="1" res="-1.8344892887398601e-03" rms="4.9486917257308960e-01" purity="4.7469300031661987e-01" nType="-99"/>
        </Node>
      </Node>
    </BinaryTree>
    <BinaryTree type="DecisionTree" boostWeight="1.0000000000000000e+00" itree="10">
      <Node pos="s" depth="0" NCoef="0" IVar="0" Cut="3.4607067108154297e+00" cType="1" res="3.3473523799329996e-03" rms="4.9042946100234985e-01" purity="5.0332170724868774e-01" nType="0">
        <Node pos="l" depth="1" NCoef="0" IVar="5" Cut="9.4916135072708130e-01" cType="1" res="-6.8101704120635986e-02" rms="4.8791387677192688e-01" purity="4.1422915458679199e-01" nType="0">
          <Node pos="l" depth="2" NCoef="0" IVar="-1" Cut="0.0000000000000000e+00" cType="1" res="-7.2902087122201920e-03" rms="4.6899017691612244e-01" purity="3.3390307426452637e-01" nType="-99"/>
          <Node pos="r" depth="2" NCoef="0" IVar="-1" Cut="0.0000000000000000e+00" cType="1" res="8.3566393004730344e-04" rms="4.9678498506546021e-01" purity="5.0992554426193237e-01" nType="-99"/>
        </Node>
        <Node pos="r" depth="1" NCoef="0" IVar="6" Cut="2.5593702793121338e+00" cType="1" res="1.4171481132507324e-01" rms="4.6503266692161560e-01" purity="6.7585718631744385e-01" nType="0">
          <Node pos="l" depth="2" NCoef="0" IVar="-1" Cut="0.0000000000000000e+00" cType="1" res="8.7374644353985786e-03" rms="4.5261746644973755e-01" purity="7.1002811193466187e-01" nType="-99"/>
          <Node pos="r" depth="2" NCoef="0" IVar="-1" Cut="0.0000000000000000e+00" cType="1" res="-1.5465245814993978e-03" rms="4.9750551581382751e-01" purity="4.7867935895919800e-01" nType="-99"/>
        </Node>
      </Node>
    </BinaryTree>
    <BinaryTree type="DecisionTree" boostWeight="1.0000000000000000e+00" itree="11">
      <Node pos="s" depth="0" NCoef="0" IVar="0" Cut="2.2980427742004395e+00" cType="1" res="-6.2550359871238470e-04" rms="4.8982524871826172e-01" purity="4.9893045425415039e-01" nType="0">
        <Node pos="l" depth="1" NCoef="0" IVar="6" Cut="2.6442825794219971e+00" cType="1" res="-1.3229404389858246e-01" rms="4.6933877468109131e-01" purity="3.3533316850662231e-01" nType="0">
          <Node pos="l" depth="2" NCoef="0" IVar="-1" Cut="0.0000000000000000e+00" cType="1" res="-5.6889546103775501e-03" rms="4.7838649153709412e-01" purity="3.6397445201873779e-01" nType="-99"/>
          <Node pos="r" depth="2" NCoef="0" IVar="-1" Cut="0.0000000000000000e+00" cType="1" res="-1.5858778730034828e-02" rms="3.7597748637199402e-01" purity="1.7150701582431793e-01" nType="-99"/>
        </Node>
        <Node pos="r" depth="1" NCoef="0" IVar="6" Cut="2.7174906730651855e+00" cType="1" res="7.8612729907035828e-02" rms="4.8481151461601257e-01" purity="5.9738337993621826e-01" nType="0">
          <Node pos="l" depth="2" NCoef="0" IVar="-1" Cut="0.0000000000000000e+00" cType="1" res="5.2388897165656090e-03" rms="4.8004457354545593e-01" purity="6.2335902452468872e-01" nType="-99"/>
          <Node pos="r" depth="2" NCoef="0" IVar="-1" Cut="0.0000000000000000e+00" cType="1" res="-8.2539683207869530e-03" rms="4.6949738264083862e-01" purity="3.3431598544120789e-01" nType="-99"/>
        </Node>
      </Node>
    </BinaryTree>
    <BinaryTree type="DecisionTree" boostWeight="1.0000000000000000e+00" itree="12">
      <Node pos="s" depth="0" NCoef="0" IVar="0" Cut="2.2980427742004395e+00" cType="1" res="3.5581102129071951e-03" rms="4.8895803093910217e-01" purity="5.0341624021530151e-01" nType="0">
        <Node pos="l" depth="1" NCoef="0" IVar="1" Cut="5.1219165039062500e+02" cType="1" res="-1.2015102058649063e-01" rms="4.7176232933998108e-01" purity="3.4356883168220520e-01" nType="0">
          <Node pos="l" depth="2" NCoef="0" IVar="-1" Cut="0.0000000000000000e+00" cType="1" res="-1.0476538911461830e-02" rms="4.3812632560729980e-01" purity="2.6288843154907227e-01" nType="-99"/>
          <Node pos="r" depth="2" NCoef="0" IVar="-1" Cut="0.0000000000000000e+00" cType="1" res="-2.3715756833553314e-03" rms="4.9371045827865601e-01" purity="4.2956867814064026e-01" nType="-99"/>
        </Node>
        <Node pos="r" depth="1" NCoef="0" IVar="0" Cut="4.4171795845031738e+00" cType="1" res="7.5930267572402954e-02" rms="4.8430752754211426e-01" purity="5.9693008661270142e-01" nType="0">
          <Node pos="l" depth="2" NCoef="0" IVar="-1" Cut="0.0000000000000000e+00" cType="1" res="1.7785859527066350e-03" rms="4.9350577592849731e-01" purity="5.4668796062469482e-01" nType="-99"/>
          <Node pos="r" depth="2" NCoef="0" IVar="-1" Cut="0.0000000000000000e+00" cType="1" res="9.8230326548218727e-03" rms="4.3715050816535950e-01" purity="7.3744511604309082e-01" nType="-99"/>
        </Node>
      </Node>
    </BinaryTree>
    <BinaryTree type="DecisionTree" boostWeight="1.0000000000000000e+00" itree="13">
      <Node pos="s" depth="0" NCoef="0" IVar="5" Cut="9.6838390827178955e-01" cType="1" res="-3.9681280031800270e-03" rms="4.8800492286682129e-01" purity="4.9560409784317017e-01" nType="0">
        <Node pos="l" depth="1" NCoef="0" IVar="6" Cut="2.4785237312316895e+00" cType="1" res="-6.2458891421556473e-02" rms="4.8543122410774231e-01" purity="4.2528501152992249e-01" nType="0">
          <Node pos="l" depth="2" NCoef="0" IVar="-1" Cut="0.0000000000000000e+00" cType="1" res="-1.2310537276789546e-03" rms="4.9056118726730347e-01" purity="4.6861541271209717e-01" nType="-99"/>
          <Node pos="r" depth="2" NCoef="0" IVar="-1" Cut="0.0000000000000000e+00" cType="1" res="-1.0455332696437836e-02" rms="4.4234827160835266e-01" purity="2.7736189961433411e-01" nType="-99"/>
        </Node>
        <Node pos="r" depth="1" NCoef="0" IVar="5" Cut="9.8501527309417725e-01" cType="1" res="1.4506481587886810e-01" rms="4.6217361092567444e-01" purity="6.7477542161941528e-01" nType="0">
          <Node pos="l" depth="2" NCoef="0" IVar="-1" Cut="0.0000000000000000e+00" cType="1" res="4.8097022809088230e-03" rms="4.8180499672889709e-01" purity="6.1298614740371704e-01" nType="-99"/>
          <Node pos="r" depth="2" NCoef="0" IVar="-1" Cut="0.0000000000000000e+00" cType="1" res="1.2667239643633366e-02" rms="4.0802201628684998e-01" purity="7.8312647342681885e-01" nType="-99"/>
        </Node>
      </Node>
    </BinaryTree>
    <BinaryTree type="DecisionTree" boostWeight="1.0000000000000000e+00" itree="14">
      <Node pos="s" depth="0" NCoef="0" IVar="5" Cut="9.5643115043640137e-01" cType="1" res="4.5304819941520691e-03" rms="4.8751825094223022e-01" purity="5.0415825843811035e-01" nType="0">
        <Node pos="l" depth="1" NCoef="0" IVar="0" Cut="2.0703198909759521e+00" cType="1" res="-7.9338163137435913e-02" rms="4.8175635933876038e-01" purity="4.0054431557655334e-01" nType="0">
          <Node pos="l" depth="2" NCoef="0" IVar="-1" Cut="0.0000000000000000e+00" cType="1" res="-8.1425588577985764e-03" rms="4.5831671357154846e-01" purity="3.0611988902091980e-01" nType="-99"/>
          <Node pos="r" depth="2" NCoef="0" IVar="-1" Cut="0.0000000000000000e+00" cType="1" res="-7.4564211536198854e-04" rms="4.9373319745063782e-01" purity="4.8791608214378357e-01" nType="-99"/>
        </Node>
        <Node pos="r" depth="1" NCoef="0" IVar="0" Cut="3.9182438850402832e+00" cType="1" res="1.0958998650312424e-01" rms="4.7415328025817871e-01" purity="6.3395202159881592e-01" nType="0">
          <Node pos="l" depth="2" NCoef="0" IVar="-1" Cut="0.0000000000000000e+00" cType="1" res="2.7804283890873194e-03" rms="4.9234160780906677e-01" purity="5.5819958448410034e-01" nType="-99"/>
          <Node pos="r" depth="2" NCoef="0" IVar="-1" Cut="0.0000000000000000e+00" cType="1" res="1.0092576965689659e-02" rms="4.3218198418617249e-01" purity="7.4503254890441895e-01" nType="-99"/>
        </Node>
      </Node>
    </BinaryTree>
    <BinaryTree type="DecisionTree" boostWeight="1.0000000000000000e+00" itree="15">
      <Node pos="s" depth="0" NCoef="0" IVar="5" Cut="9.6030580997467041e-01" cType="1" res="-1.2498950818553567e-03" rms="4.8723727464675903e-01" purity="4.9792346358299255e-01" nType="0">
        <Node pos="l" depth="1" NCoef="0" IVar="0" Cut="4.1162800788879395e+00" cType="1" res="-7.5131356716156006e-02" rms="4.8282694816589355e-01" purity="4.0516787767410278e-01" nType="0">
          <Node pos="l" depth="2" NCoef="0" IVar="-1" Cut="0.0000000000000000e+00" cType="1" res="-5.0536277703940868e-03" rms="4.7921800613403320e-01" purity="3.7684917449951172e-01" nType="-99"/>
          <Node pos="r" depth="2" NCoef="0" IVar="-1" Cut="0.0000000000000000e+00" cType="1" res="5.0348029471933842e-03" rms="4.7796219587326050e-01" purity="6.4058071374893188e-01" nType="-99"/>
        </Node>
        <Node pos="r" depth="1" NCoef="0" IVar="6" Cut="2.5837895870208740e+00" cType="1" res="1.1703922599554062e-01" rms="4.7065737843513489e-01" purity="6.4643132686614990e-01" nType="0">
          <Node pos="l" depth="2" NCoef="0" IVar="-1" Cut="0.0000000000000000e+00" cType="1" res="7.8462194651365280e-03" rms="4.5978108048439026e-01" purity="6.8221348524093628e-01" nType="-99"/>
          <Node pos="r" depth="2" NCoef="0" IVar="-1" Cut="0.0000000000000000e+00" cType="1" res="-3.2161159906536341e-03" rms="4.9229076504707336e-01" purity="4.4244721531867981e-01" nType="-99"/>
        </Node>
      </Node>
    </BinaryTree>
    <BinaryTree type="DecisionTree" boostWeight="1.0000000000000000e+00" itree="16">
      <Node pos="s" depth="0" NCoef="0" IVar="0" Cut="3.3917775154113770e+00" cType="1" res="5.5484240874648094e-04" rms="4.8575925827026367e-01" purity="5.0014197826385498e-01" nType="0">
        <Node pos="l" depth="1" NCoef="0" IVar="6" Cut="2.3884174823760986e+00" cType="1" res="-6.6137112677097321e-02" rms="4.8397904634475708e-01" purity="4.0670299530029297e-01" nType="0">
          <Node pos="l" depth="2" NCoef="0" IVar="-1" Cut="0.0000000000000000e+00" cType="1" res="-1.1010139714926481e-03" rms="4.9185082316398621e-01" purity="4.5745936036109924e-01" nType="-99"/>
          <Node pos="r" depth="2" NCoef="0" IVar="-1" Cut="0.0000000000000000e+00" cType="1" res="-9.4713298603892326e-03" rms="4.4689103960990906e-01" purity="2.8698909282684326e-01" nType="-99"/>
        </Node>
        <Node pos="r" depth="1" NCoef="0" IVar="6" Cut="2.5142068862915039e+00" cType="1" res="1.2105178087949753e-01" rms="4.6532300114631653e-01" purity="6.6896444559097290e-01" nType="0">
          <Node pos="l" depth="2" NCoef="0" IVar="-1" Cut="0.0000000000000000e+00" cType="1" res="7.7363611198961735e-03" rms="4.5334881544113159e-01" purity="7.0543980598449707e-01" nType="-99"/>
          <Node pos="r" depth="2" NCoef="0" IVar="-1" Cut="0.0000000000000000e+00" cType="1" res="-1.0714271338656545e-03" rms="4.9474221467971802e-01" purity="4.9479016661643982e-01" nType="-99"/>
        </Node>
      </Node>
    </BinaryTree>
    <BinaryTree type="DecisionTree" boostWeight="1.0000000000000000e+00" itree="17">
      <Node pos="s" depth="0" NCoef="0" IVar="0" Cut="3.7642924785614014e+00" cType="1" res="-2.1162813063710928e-03" rms="4.8485684394836426e-01" purity="4.9749287962913513e-01" nType="0">
        <Node pos="l" depth="1" NCoef="0" IVar="0" Cut="2.0107526779174805e+00" cType="1" res="-5.9091355651617050e-02" rms="4.8487865924835205e-01" purity="4.1941416263580322e-01" nType="0">
          <Node pos="l" depth="2" NCoef="0" IVar="-1" Cut="0.0000000000000000e+00" cType="1" res="-7.7306278981268406e-03" rms="4.5899003744125366e-01" purity="3.1076624989509583e-01" nType="-99"/>
          <Node pos="r" depth="2" NCoef="0" IVar="-1" Cut="0.0000000000000000e+00" cType="1" res="-2.0882855096715502e-05" rms="4.9454119801521301e-01" purity="4.9798756837844849e-01" nType="-99"/>
        </Node>
        <Node pos="r" depth="1" NCoef="0" IVar="6" Cut="2.3987019062042236e+00" cType="1" res="1.4634396135807037e-01" rms="4.5225223898887634e-01" purity="7.0094293355941772e-01" nType="0">
          <Node pos="l" depth="2" NCoef="0" IVar="-1" Cut="0.0000000000000000e+00" cType="1" res="9.8702721297740936e-03" rms="4.2777130007743835e-01" purity="7.5527900457382202e-01" nType="-99"/>
          <Node pos="r" depth="2" NCoef="0" IVar="-1" Cut="0.0000000000000000e+00" cType="1" res="6.1431556241586804e-04" rms="4.9307250976562500e-01" purity="5.4230028390884399e-01" nType="-99"/>
        </Node>
      </Node>
    </BinaryTree>
    <BinaryTree type="DecisionTree" boostWeight="1.0000000000000000e+00" itree="18">
      <Node pos="s" depth="0" NCoef="0" IVar="0" Cut="3.3032512664794922e+00" cType="1" res="3.0272156000137329e-03" rms="4.8439863324165344e-01" purity="5.0234478712081909e-01" nType="0">
        <Node pos="l" depth="1" NCoef="0" IVar="1" Cut="5.9934552001953125e+02" cType="1" res="-6.4408130943775177e-02" rms="4.8309484124183655e-01" purity="4.0332654118537903e-01" nType="0">
          <Node pos="l" depth="2" NCoef="0" IVar="-1" Cut="0.0000000000000000e+00" cType="1" res="-6.1932029202580452e-03" rms="4.6907344460487366e-01" purity="3.4817749261856079e-01" nType="-99"/>
          <Node pos="r" depth="2" NCoef="0" IVar="-1" Cut="0.0000000000000000e+00" cType="1" res="2.2079939953982830e-03" rms="4.9465593695640564e-01" purity="5.1798808574676514e-01" nType="-99"/>
        </Node>
        <Node pos="r" depth="1" NCoef="0" IVar="7" Cut="6.0913909912109375e+01" cType="1" res="1.1566039919853210e-01" rms="4.6526032686233521e-01" purity="6.6772902011871338e-01" nType="0">
          <Node pos="l" depth="2" NCoef="0" IVar="-1" Cut="0.0000000000000000e+00" cType="1" res="1.4755886513739824e-03" rms="4.8792871832847595e-01" purity="5.7687813043594360e-01" nType="-99"/>
          <Node pos="r" depth="2" NCoef="0" IVar="-1" Cut="0.0000000000000000e+00" cType="1" res="8.2380771636962891e-03" rms="4.4619214534759521e-01" purity="7.1535241603851318e-01" nType="-99"/>
        </Node>
      </Node>
    </BinaryTree>
    <BinaryTree type="DecisionTree" boostWeight="1.0000000000000000e+00" itree="19">
      <Node pos="s" depth="0" NCoef="0" IVar="0" Cut="2.5997898578643799e+00" cType="1" res="1.4287358499132097e-04" rms="4.8344799876213074e-01" purity="4.9992051720619202e-01" nType="0">
        <Node pos="l" depth="1" NCoef="0" IVar="1" Cut="5.4944628906250000e+02" cType="1" res="-9.5221452414989471e-02" rms="4.7380033135414124e-01" purity="3.5801392793655396e-01" nType="0">
          <Node pos="l" depth="2" NCoef="0" IVar="-1" Cut="0.0000000000000000e+00" cType="1" res="-8.3830095827579498e-03" rms="4.4943583011627197e-01" purity="2.9099079966545105e-01" nType="-99"/>
          <Node pos="r" depth="2" NCoef="0" IVar="-1" Cut="0.0000000000000000e+00" cType="1" res="-6.8744196323677897e-04" rms="4.9459144473075867e-01" purity="4.5266014337539673e-01" nType="-99"/>
        </Node>
        <Node pos="r" depth="1" NCoef="0" IVar="6" Cut="2.5924320220947266e+00" cType="1" res="7.9144299030303955e-02" rms="4.7707170248031616e-01" purity="6.1747837066650391e-01" nType="0">
          <Node pos="l" depth="2" NCoef="0" IVar="-1" Cut="0.0000000000000000e+00" cType="1" res="5.4879053495824337e-03" rms="4.6995249390602112e-01" purity="6.5146774053573608e-01" nType="-99"/>
          <Node pos="r" depth="2" NCoef="0" IVar="-1" Cut="0.0000000000000000e+00" cType="1" res="-4.9901520833373070e-03" rms="4.8500305414199829e-01" purity="4.0104162693023682e-01" nType="-99"/>
        </Node>
      </Node>
    </BinaryTree>
    <BinaryTree type="DecisionTree" boostWeight="1.0000000000000000e+00" itree="20">
      <Node pos="s" depth="0" NCoef="0" IVar="0" Cut="3.6040441989898682e+00" cType="1" res="-9.1169995721429586e-04" rms="4.8360764980316162e-01" purity="4.9759164452552795e-01" nType="0">
        <Node pos="l" depth="1" NCoef="0" IVar="1" Cut="4.9856338500976562e+02" cType="1" res="-5.4738909006118774e-02" rms="4.8419943451881409e-01" purity="4.1614693403244019e-01" nType="0">
          <Node pos="l" depth="2" NCoef="0" IVar="-1" Cut="0.0000000000000000e+00" cType="1" res="-6.9792312569916248e-03" rms="4.6146261692047119e-01" purity="3.2815182209014893e-01" nType="-99"/>
          <Node pos="r" depth="2" NCoef="0" IVar="-1" Cut="0.0000000000000000e+00" cType="1" res="3.3913407241925597e-04" rms="4.9367126822471619e-01" purity="4.8801213502883911e-01" nType="-99"/>
        </Node>
        <Node pos="r" depth="1" NCoef="0" IVar="6" Cut="2.5142068862915039e+00" cType="1" res="1.2058153003454208e-01" rms="4.5965570211410522e-01" purity="6.8142032623291016e-01" nType="0">
          <Node pos="l" depth="2" NCoef="0" IVar="-1" Cut="0.0000000000000000e+00" cType="1" res="7.7760363928973675e-03" rms="4.4604104757308960e-01" purity="7.2031658887863159e-01" nType="-99"/>
          <Node pos="r" depth="2" NCoef="0" IVar="-1" Cut="0.0000000000000000e+00" cType="1" res="-1.2317459331825376e-03" rms="4.9552798271179199e-01" purity="4.9391320347785950e-01" nType="-99"/>
        </Node>
      </Node>
    </BinaryTree>
    <BinaryTree type="DecisionTree" boostWeight="1.0000000000000000e+00" itree="21">
      <Node pos="s" depth="0" NCoef="0" IVar="5" Cut="9.6031647920608521e-01" cType="1" res="5.0855287554441020e-05" rms="4.8244816064834595e-01" purity="4.9991768598556519e-01" nType="0">
        <Node pos="l" depth="1" NCoef="0" IVar="1" Cut="4.6400256347656250e+02" cType="1" res="-6.9924570620059967e-02" rms="4.7912955284118652e-01" purity="4.0484318137168884e-01" nType="0">
          <Node pos="l" depth="2" NCoef="0" IVar="-1" Cut="0.0000000000000000e+00" cType="1" res="-8.7733846157789230e-03" rms="4.4406431913375854e-01" purity="2.9079964756965637e-01" nType="-99"/>
          <Node pos="r" depth="2" NCoef="0" IVar="-1" Cut="0.0000000000000000e+00" cType="1" res="-1.1390377767384052e-03" rms="4.8907113075256348e-01" purity="4.6309375762939453e-01" nType="-99"/>
        </Node>
        <Node pos="r" depth="1" NCoef="0" IVar="1" Cut="4.6265527343750000e+02" cType="1" res="1.0981522500514984e-01" rms="4.6693983674049377e-01" purity="6.4905291795730591e-01" nType="0">
          <Node pos="l" depth="2" NCoef="0" IVar="-1" Cut="0.0000000000000000e+00" cType="1" res="6.1204942176118493e-04" rms="4.8746716976165771e-01" purity="5.3923475742340088e-01" nType="-99"/>
          <Node pos="r" depth="2" NCoef="0" IVar="-1" Cut="0.0000000000000000e+00" cType="1" res="7.9517215490341187e-03" rms="4.5203560590744019e-01" purity="6.9421315193176270e-01" nType="-99"/>
        </Node>
      </Node>
    </BinaryTree>
    <BinaryTree type="DecisionTree" boostWeight="1.0000000000000000e+00" itree="22">
      <Node pos="s" depth="0" NCoef="0" IVar="5" Cut="9.4933050870895386e-01" cType="1" res="3.8005055394023657e-03" rms="4.8213061690330505e-01" purity="5.0354087352752686e-01" nType="0">
        <Node pos="l" depth="1" NCoef="0" IVar="0" Cut="3.6531748771667480e+00" cType="1" res="-8.9396983385086060e-02" rms="4.7318100929260254e-01" purity="3.7496918439865112e-01" nType="0">
          <Node pos="l" depth="2" NCoef="0" IVar="-1" Cut="0.0000000000000000e+00" cType="1" res="-5.9838825836777687e-03" rms="4.6678525209426880e-01" purity="3.3672785758972168e-01" nType="-99"/>
          <Node pos="r" depth="2" NCoef="0" IVar="-1" Cut="0.0000000000000000e+00" cType="1" res="2.2894605062901974e-03" rms="4.8704728484153748e-01" purity="5.9449297189712524e-01" nType="-99"/>
        </Node>
        <Node pos="r" depth="1" NCoef="0" IVar="6" Cut="2.4546518325805664e+00" cType="1" res="8.0235496163368225e-02" rms="4.7591596841812134e-01" purity="6.0898762941360474e-01" nType="0">
          <Node pos="l" depth="2" NCoef="0" IVar="-1" Cut="0.0000000000000000e+00" cType="1" res="6.1601633206009865e-03" rms="4.6657535433769226e-01" purity="6.5301311016082764e-01" nType="-99"/>
          <Node pos="r" depth="2" NCoef="0" IVar="-1" Cut="0.0000000000000000e+00" cType="1" res="-2.9008295387029648e-03" rms="4.8625165224075317e-01" purity="4.4505783915519714e-01" nType="-99"/>
        </Node>
      </Node>
    </BinaryTree>
    <BinaryTree type="DecisionTree" boostWeight="1.0000000000000000e+00" itree="23">
      <Node pos="s" depth="0" NCoef="0" IVar="5" Cut="9.7236251831054688e-01" cType="1" res="4.6942215412855148e-03" rms="4.8155760765075684e-01" purity="5.0383222103118896e-01" nType="0">
        <Node pos="l" depth="1" NCoef="0" IVar="6" Cut="2.5753512382507324e+00" cType="1" res="-4.0397796779870987e-02" rms="4.8296296596527100e-01" purity="4.4119453430175781e-01" nType="0">
          <Node pos="l" depth="2" NCoef="0" IVar="-1" Cut="0.0000000000000000e+00" cType="1" res="-6.5112358424812555e-04" rms="4.8681938648223877e-01" purity="4.7544759511947632e-01" nType="-99"/>
          <Node pos="r" depth="2" NCoef="0" IVar="-1" Cut="0.0000000000000000e+00" cType="1" res="-9.9064223468303680e-03" rms="4.3581256270408630e-01" purity="2.6724302768707275e-01" nType="-99"/>
        </Node>
        <Node pos="r" depth="1" NCoef="0" IVar="6" Cut="2.3860638141632080e+00" cType="1" res="1.5187528729438782e-01" rms="4.4628968834877014e-01" purity="7.0828270912170410e-01" nType="0">
          <Node pos="l" depth="2" NCoef="0" IVar="-1" Cut="0.0000000000000000e+00" cType="1" res="1.0417402721941471e-02" rms="4.2248320579528809e-01" purity="7.6039153337478638e-01" nType="-99"/>
          <Node pos="r" depth="2" NCoef="0" IVar="-1" Cut="0.0000000000000000e+00" cType="1" res="1.7415116308256984e-03" rms="4.8761719465255737e-01" purity="5.6227684020996094e-01" nType="-99"/>
        </Node>
      </Node>
    </BinaryTree>
    <BinaryTree type="DecisionTree" boostWeight="1.0000000000000000e+00" itree="24">
      <Node pos="s" depth="0" NCoef="0" IVar="0" Cut="2.4227414131164551e+00" cType="1" res="-7.5138281099498272e-03" rms="4.8086181282997131e-01" purity="4.9156650900840759e-01" nType="0">
        <Node pos="l" depth="1" NCoef="0" IVar="6" Cut="2.4148447513580322e+00" cType="1" res="-1.0102432966232300e-01" rms="4.6715959906578064e-01" purity="3.4112542867660522e-01" nType="0">
          <Node pos="l" depth="2" NCoef="0" IVar="-1" Cut="0.0000000000000000e+00" cType="1" res="-3.2053941395133734e-03" rms="4.8173436522483826e-01" purity="3.8878017663955688e-01" nType="-99"/>
          <Node pos="r" depth="2" NCoef="0" IVar="-1" Cut="0.0000000000000000e+00" cType="1" res="-1.1580095626413822e-02" rms="4.0924879908561707e-01" purity="2.2073234617710114e-01" nType="-99"/>
        </Node>
        <Node pos="r" depth="1" NCoef="0" IVar="6" Cut="2.5653564929962158e+00" cType="1" res="5.8066047728061676e-02" rms="4.7948408126831055e-01" purity="5.9707242250442505e-01" nType="0">
          <Node pos="l" depth="2" NCoef="0" IVar="-1" Cut="0.0000000000000000e+00" cType="1" res="4.3862978927791119e-03" rms="4.7416794300079346e-01" purity="6.3248974084854126e-01" nType="-99"/>
          <Node pos="r" depth="2" NCoef="0" IVar="-1" Cut="0.0000000000000000e+00" cType="1" res="-4.8856995999813080e-03" rms="4.8167979717254639e-01" purity="3.9449590444564819e-01" nType="-99"/>
        </Node>
      </Node>
    </BinaryTree>
    <BinaryTree type="DecisionTree" boostWeight="1.0000000000000000e+00" itree="25">
      <Node pos="s" depth="0" NCoef="0" IVar="5" Cut="9.6069490909576416e-01" cType="1" res="9.8508009687066078e-03" rms="4.8125115036964417e-01" purity="5.1002883911132812e-01" nType="0">
        <Node pos="l" depth="1" NCoef="0" IVar="1" Cut="4.3244073486328125e+02" cType="1" res="-4.8873677849769592e-02" rms="4.8129752278327942e-01" purity="4.2167732119560242e-01" nType="0">
          <Node pos="l" depth="2" NCoef="0" IVar="-1" Cut="0.0000000000000000e+00" cType="1" res="-8.6904242634773254e-03" rms="4.4157874584197998e-01" purity="2.8362438082695007e-01" nType="-99"/>
          <Node pos="r" depth="2" NCoef="0" IVar="-1" Cut="0.0000000000000000e+00" cType="1" res="-6.1295542400330305e-04" rms="4.8788326978683472e-01" purity="4.6688243746757507e-01" nType="-99"/>
        </Node>
        <Node pos="r" depth="1" NCoef="0" IVar="6" Cut="2.3900778293609619e+00" cType="1" res="1.0327859967947006e-01" rms="4.6617203950881958e-01" purity="6.5059185028076172e-01" nType="0">
          <Node pos="l" depth="2" NCoef="0" IVar="-1" Cut="0.0000000000000000e+00" cType="1" res="7.3208557441830635e-03" rms="4.5257869362831116e-01" purity="6.9600015878677368e-01" nType="-99"/>
          <Node pos="r" depth="2" NCoef="0" IVar="-1" Cut="0.0000000000000000e+00" cType="1" res="6.3997472170740366e-04" rms="4.8958376049995422e-01" purity="5.2761095762252808e-01" nType="-99"/>
        </Node>
      </Node>
    </BinaryTree>
    <BinaryTree type="DecisionTree" boostWeight="1.0000000000000000e+00" itree="26">
      <Node pos="s" depth="0" NCoef="0" IVar="0" Cut="2.6501269340515137e+00" cType="1" res="-1.2042770395055413e-03" rms="4.7947111725807190e-01" purity="4.9758970737457275e-01" nType="0">
        <Node pos="l" depth="1" NCoef="0" IVar="6" Cut="2.4136490821838379e+00" cType="1" res="-8.4110729396343231e-02" rms="4.7161421179771423e-01" purity="3.5973399877548218e-01" nType="0">
          <Node pos="l" depth="2" NCoef="0" IVar="-1" Cut="0.0000000000000000e+00" cType="1" res="-2.3275685962289572e-03" rms="4.8465958237648010e-01" purity="4.0873315930366516e-01" nType="-99"/>
          <Node pos="r" depth="2" NCoef="0" IVar="-1" Cut="0.0000000000000000e+00" cType="1" res="-1.0761605575680733e-02" rms="4.1706186532974243e-01" purity="2.3234893381595612e-01" nType="-99"/>
        </Node>
        <Node pos="r" depth="1" NCoef="0" IVar="6" Cut="2.6823623180389404e+00" cType="1" res="7.3466852307319641e-02" rms="4.7419023513793945e-01" purity="6.2175178527832031e-01" nType="0">
          <Node pos="l" depth="2" NCoef="0" IVar="-1" Cut="0.0000000000000000e+00" cType="1" res="4.9442420713603497e-03" rms="4.6888875961303711e-01" purity="6.5081620216369629e-01" nType="-99"/>
          <Node pos="r" depth="2" NCoef="0" IVar="-1" Cut="0.0000000000000000e+00" cType="1" res="-6.0212225653231144e-03" rms="4.7878265380859375e-01" purity="3.6746159195899963e-01" nType="-99"/>
        </Node>
      </Node>
    </BinaryTree>
    <BinaryTree type="DecisionTree" boostWeight="1.0000000000000000e+00" itree="27">
      <Node pos="s" depth="0" NCoef="0" IVar="0" Cut="3.9455893039703369e+00" cType="1" res="3.8575816433876753e-03" rms="4.7975564002990723e-01" purity="5.0337481498718262e-01" nType="0">
        <Node pos="l" depth="1" NCoef="0" IVar="1" Cut="4.7301782226562500e+02" cType="1" res="-4.0810711681842804e-02" rms="4.8291325569152832e-01" purity="4.3289649486541748e-01" nType="0">
          <Node pos="l" depth="2" NCoef="0" IVar="-1" Cut="0.0000000000000000e+00" cType="1" res="-6.8814018741250038e-03" rms="4.5763614773750305e-01" purity="3.2531720399856567e-01" nType="-99"/>
          <Node pos="r" depth="2" NCoef="0" IVar="-1" Cut="0.0000000000000000e+00" cType="1" res="5.9319729916751385e-04" rms="4.9023056030273438e-01" purity="4.9757727980613708e-01" nType="-99"/>
        </Node>
        <Node pos="r" depth="1" NCoef="0" IVar="7" Cut="6.1750278472900391e+01" cType="1" res="1.3974650204181671e-01" rms="4.4315046072006226e-01" purity="7.1778249740600586e-01" nType="0">
          <Node pos="l" depth="2" NCoef="0" IVar="-1" Cut="0.0000000000000000e+00" cType="1" res="3.4722890704870224e-03" rms="4.7352531552314758e-01" purity="6.3669621944427490e-01" nType="-99"/>
          <Node pos="r" depth="2" NCoef="0" IVar="-1" Cut="0.0000000000000000e+00" cType="1" res="9.1758016496896744e-03" rms="4.2223292589187622e-01" purity="7.5849354267120361e-01" nType="-99"/>
        </Node>
      </Node>
    </BinaryTree>
    <BinaryTree type="DecisionTree" boostWeight="1.0000000000000000e+00" itree="28">
      <Node pos="s" depth="0" NCoef="0" IVar="0" Cut="3.6376781463623047e+00" cType="1" res="1.8479719292372465e-03" rms="4.7978276014328003e-01" purity="5.0141173601150513e-01" nType="0">
        <Node pos="l" depth="1" NCoef="0" IVar="1" Cut="4.1266690063476562e+02" cType="1" res="-4.3222993612289429e-02" rms="4.8234584927558899e-01" purity="4.2287045717239380e-01" nType="0">
          <Node pos="l" depth="2" NCoef="0" IVar="-1" Cut="0.0000000000000000e+00" cType="1" res="-9.0584168210625648e-03" rms="4.3595340847969055e-01" purity="2.7140191197395325e-01" nType="-99"/>
          <Node pos="r" depth="2" NCoef="0" IVar="-1" Cut="0.0000000000000000e+00" cType="1" res="-7.1818561991676688e-04" rms="4.8837965726852417e-01" purity="4.5987749099731445e-01" nType="-99"/>
        </Node>
        <Node pos="r" depth="1" NCoef="0" IVar="0" Cut="4.9298920631408691e+00" cType="1" res="1.0667250305414200e-01" rms="4.5688441395759583e-01" purity="6.8408036231994629e-01" nType="0">
          <Node pos="l" depth="2" NCoef="0" IVar="-1" Cut="0.0000000000000000e+00" cType="1" res="3.4310040064156055e-03" rms="4.7453907132148743e-01" purity="6.3465380668640137e-01" nType="-99"/>
          <Node pos="r" depth="2" NCoef="0" IVar="-1" Cut="0.0000000000000000e+00" cType="1" res="1.0046290233731270e-02" rms="4.0579417347908020e-01" purity="7.8545618057250977e-01" nType="-99"/>
        </Node>
      </Node>
    </BinaryTree>
    <BinaryTree type="DecisionTree" boostWeight="1.0000000000000000e+00" itree="29">
      <Node pos="s" depth="0" NCoef="0" IVar="0" Cut="3.0625712871551514e+00" cType="1" res="9.0023903176188469e-03" rms="4.7870039939880371e-01" purity="5.0918132066726685e-01" nType="0">
        <Node pos="l" depth="1" NCoef="0" IVar="6" Cut="2.4604868888854980e+00" cType="1" res="-5.5549018085002899e-02" rms="4.7967389225959778e-01" purity="3.9459019899368286e-01" nType="0">
          <Node pos="l" depth="2" NCoef="0" IVar="-1" Cut="0.0000000000000000e+00" cType="1" res="-1.3476768508553505e-03" rms="4.8767042160034180e-01" purity="4.3355363607406616e-01" nType="-99"/>
          <Node pos="r" depth="2" NCoef="0" IVar="-1" Cut="0.0000000000000000e+00" cType="1" res="-8.5191465914249420e-03" rms="4.3959140777587891e-01" purity="2.7122673392295837e-01" nType="-99"/>
        </Node>
        <Node pos="r" depth="1" NCoef="0" IVar="7" Cut="5.4292037963867188e+01" cType="1" res="9.3401134014129639e-02" rms="4.6407222747802734e-01" purity="6.5900528430938721e-01" nType="0">
          <Node pos="l" depth="2" NCoef="0" IVar="-1" Cut="0.0000000000000000e+00" cType="1" res="-6.4040691358968616e-04" rms="4.8750978708267212e-01" purity="5.4169565439224243e-01" nType="-99"/>
          <Node pos="r" depth="2" NCoef="0" IVar="-1" Cut="0.0000000000000000e+00" cType="1" res="6.4288615249097347e-03" rms="4.5247370004653931e-01" purity="6.9299381971359253e-01" nType="-99"/>
        </Node>
      </Node>
    </BinaryTree>
    <BinaryTree type="DecisionTree" boostWeight="1.0000000000000000e+00" itree="30">
      <Node pos="s" depth="0" NCoef="0" IVar="0" Cut="2.8117749691009521e+00" cType="1" res="-1.8271440640091896e-03" rms="4.7896203398704529e-01" purity="4.9771425127983093e-01" nType="0">
        <Node pos="l" depth="1" NCoef="0" IVar="7" Cut="6.0827785491943359e+01" cType="1" res="-6.9932460784912109e-02" rms="4.7483262419700623e-01" purity="3.7124958634376526e-01" nType="0">
          <Node pos="l" depth="2" NCoef="0" IVar="-1" Cut="0.0000000000000000e+00" cType="1" res="-7.6302662491798401e-03" rms="4.4638335704803467e-01" purity="2.8810507059097290e-01" nType="-99"/>
          <Node pos="r" depth="2" NCoef="0" IVar="-1" Cut="0.0000000000000000e+00" cType="1" res="-1.2078781146556139e-03" rms="4.8825681209564209e-01" purity="4.2976874113082886e-01" nType="-99"/>
        </Node>
        <Node pos="r" depth="1" NCoef="0" IVar="7" Cut="6.1310733795166016e+01" cType="1" res="6.8674713373184204e-02" rms="4.7297966480255127e-01" purity="6.2862896919250488e-01" nType="0">
          <Node pos="l" depth="2" NCoef="0" IVar="-1" Cut="0.0000000000000000e+00" cType="1" res="-9.6986704738810658e-04" rms="4.8927295207977295e-01" purity="5.2877557277679443e-01" nType="-99"/>
          <Node pos="r" depth="2" NCoef="0" IVar="-1" Cut="0.0000000000000000e+00" cType="1" res="5.8983690105378628e-03" rms="4.5801702141761780e-01" purity="6.7988115549087524e-01" nType="-99"/>
        </Node>
      </Node>
    </BinaryTree>
    <BinaryTree type="DecisionTree" boostWeight="1.0000000000000000e+00" itree="31">
      <Node pos="s" depth="0" NCoef="0" IVar="0" Cut="3.1120402812957764e+00" cType="1" res="9.8711089231073856e-04" rms="4.7757893800735474e-01" purity="5.0061619281768799e-01" nType="0">
        <Node pos="l" depth="1" NCoef="0" IVar="1" Cut="5.3189855957031250e+02" cType="1" res="-6.2670379877090454e-02" rms="4.7707787156105042e-01" purity="3.8539117574691772e-01" nType="0">
          <Node pos="l" depth="2" NCoef="0" IVar="-1" Cut="0.0000000000000000e+00" cType="1" res="-6.1893397942185402e-03" rms="4.5829302072525024e-01" purity="3.1828403472900391e-01" nType="-99"/>
          <Node pos="r" depth="2" NCoef="0" IVar="-1" Cut="0.0000000000000000e+00" cType="1" res="-1.2781049008481205e-04" rms="4.9182918667793274e-01" purity="4.6551057696342468e-01" nType="-99"/>
        </Node>
        <Node pos="r" depth="1" NCoef="0" IVar="7" Cut="5.3277065277099609e+01" cType="1" res="9.0809509158134460e-02" rms="4.6364927291870117e-01" purity="6.6320180892944336e-01" nType="0">
          <Node pos="l" depth="2" NCoef="0" IVar="-1" Cut="0.0000000000000000e+00" cType="1" res="-1.3341682497411966e-03" rms="4.9037608504295349e-01" purity="5.3008633852005005e-01" nType="-99"/>
          <Node pos="r" depth="2" NCoef="0" IVar="-1" Cut="0.0000000000000000e+00" cType="1" res="6.2339212745428085e-03" rms="4.5240706205368042e-01" purity="6.9565474987030029e-01" nType="-99"/>
        </Node>
      </Node>
    </BinaryTree>
    <BinaryTree type="DecisionTree" boostWeight="1.0000000000000000e+00" itree="32">
      <Node pos="s" depth="0" NCoef="0" IVar="0" Cut="3.8705449104309082e+00" cType="1" res="9.8506989888846874e-04" rms="4.7718429565429688e-01" purity="4.9971178174018860e-01" nType="0">
        <Node pos="l" depth="1" NCoef="0" IVar="1" Cut="5.3567999267578125e+02" cType="1" res="-4.0511779487133026e-02" rms="4.8069959878921509e-01" purity="4.2732429504394531e-01" nType="0">
          <Node pos="l" depth="2" NCoef="0" IVar="-1" Cut="0.0000000000000000e+00" cType="1" res="-5.1429434679448605e-03" rms="4.6558722853660583e-01" purity="3.5421177744865417e-01" nType="-99"/>
          <Node pos="r" depth="2" NCoef="0" IVar="-1" Cut="0.0000000000000000e+00" cType="1" res="1.2854719534516335e-03" rms="4.9016144871711731e-01" purity="5.1354092359542847e-01" nType="-99"/>
        </Node>
        <Node pos="r" depth="1" NCoef="0" IVar="0" Cut="5.4270758628845215e+00" cType="1" res="1.2227051705121994e-01" rms="4.4510674476623535e-01" purity="7.1128338575363159e-01" nType="0">
          <Node pos="l" depth="2" NCoef="0" IVar="-1" Cut="0.0000000000000000e+00" cType="1" res="4.9544484354555607e-03" rms="4.5999085903167725e-01" purity="6.7789429426193237e-01" nType="-99"/>
          <Node pos="r" depth="2" NCoef="0" IVar="-1" Cut="0.0000000000000000e+00" cType="1" res="1.1974315159022808e-02" rms="3.6890363693237305e-01" purity="8.3235698938369751e-01" nType="-99"/>
        </Node>
      </Node>
    </BinaryTree>
    <BinaryTree type="DecisionTree" boostWeight="1.0000000000000000e+00" itree="33">
      <Node pos="s" depth="0" NCoef="0" IVar="5" Cut="9.6815413236618042e-01" cType="1" res="-4.0978388860821724e-03" rms="4.7619795799255371e-01" purity="4.9623948335647583e-01" nType="0">
        <Node pos="l" depth="1" NCoef="0" IVar="0" Cut="2.0325822830200195e+00" cType="1" res="-5.0343733280897141e-02" rms="4.7681134939193726e-01" purity="4.2252415418624878e-01" nType="0">
          <Node pos="l" depth="2" NCoef="0" IVar="-1" Cut="0.0000000000000000e+00" cType="1" res="-6.7759430967271328e-03" rms="4.5187449455261230e-01" purity="3.0050808191299438e-01" nType="-99"/>
          <Node pos="r" depth="2" NCoef="0" IVar="-1" Cut="0.0000000000000000e+00" cType="1" res="-4.7270961658796296e-05" rms="4.8742038011550903e-01" purity="5.0772726535797119e-01" nType="-99"/>
        </Node>
        <Node pos="r" depth="1" NCoef="0" IVar="6" Cut="2.3486549854278564e+00" cType="1" res="1.0966422408819199e-01" rms="4.5510837435722351e-01" purity="6.7757463455200195e-01" nType="0">
          <Node pos="l" depth="2" NCoef="0" IVar="-1" Cut="0.0000000000000000e+00" cType="1" res="7.9991128295660019e-03" rms="4.3700483441352844e-01" purity="7.2728717327117920e-01" nType="-99"/>
          <Node pos="r" depth="2" NCoef="0" IVar="-1" Cut="0.0000000000000000e+00" cType="1" res="1.1519268155097961e-03" rms="4.8422351479530334e-01" purity="5.5919384956359863e-01" nType="-99"/>
        </Node>
      </Node>
    </BinaryTree>
    <BinaryTree type="DecisionTree" boostWeight="1.0000000000000000e+00" itree="34">
      <Node pos="s" depth="0" NCoef="0" IVar="5" Cut="9.4866943359375000e-01" cType="1" res="-6.2831984832882881e-03" rms="4.7617486119270325e-01" purity="4.9270784854888916e-01" nType="0">
        <Node pos="l" depth="1" NCoef="0" IVar="1" Cut="5.3774639892578125e+02" cType="1" res="-8.9824095368385315e-02" rms="4.6662893891334534e-01" purity="3.6104828119277954e-01" nType="0">
          <Node pos="l" depth="2" NCoef="0" IVar="-1" Cut="0.0000000000000000e+00" cType="1" res="-7.8584160655736923e-03" rms="4.3987014889717102e-01" purity="2.8351378440856934e-01" nType="-99"/>
          <Node pos="r" depth="2" NCoef="0" IVar="-1" Cut="0.0000000000000000e+00" cType="1" res="-1.2114662677049637e-03" rms="4.8811593651771545e-01" purity="4.5306435227394104e-01" nType="-99"/>
        </Node>
        <Node pos="r" depth="1" NCoef="0" IVar="0" Cut="4.0639648437500000e+00" cType="1" res="5.8814715594053268e-02" rms="4.7337034344673157e-01" purity="5.9530144929885864e-01" nType="0">
          <Node pos="l" depth="2" NCoef="0" IVar="-1" Cut="0.0000000000000000e+00" cType="1" res="1.0023311479017138e-03" rms="4.8793566226959229e-01" purity="5.2260857820510864e-01" nType="-99"/>
          <Node pos="r" depth="2" NCoef="0" IVar="-1" Cut="0.0000000000000000e+00" cType="1" res="7.5522991828620434e-03" rms="4.3042683601379395e-01" purity="7.4408727884292603e-01" nType="-99"/>
        </Node>
      </Node>
    </BinaryTree>
    <BinaryTree type="DecisionTree" boostWeight="1.0000000000000000e+00" itree="35">
      <Node pos="s" depth="0" NCoef="0" IVar="0" Cut="3.2998902797698975e+00" cType="1" res="1.3748953351750970e-03" rms="4.7489532828330994e-01" purity="5.0016701221466064e-01" nType="0">
        <Node pos="l" depth="1" NCoef="0" IVar="6" Cut="2.5845072269439697e+00" cType="1" res="-5.4743781685829163e-02" rms="4.7607851028442383e-01" purity="3.9350795745849609e-01" nType="0">
          <Node pos="l" depth="2" NCoef="0" IVar="-1" Cut="0.0000000000000000e+00" cType="1" res="-1.5599078033119440e-03" rms="4.8414102196693420e-01" purity="4.2742475867271423e-01" nType="-99"/>
          <Node pos="r" depth="2" NCoef="0" IVar="-1" Cut="0.0000000000000000e+00" cType="1" res="-1.0247338563203812e-02" rms="4.1097110509872437e-01" purity="2.2676692903041840e-01" nType="-99"/>
        </Node>
        <Node pos="r" depth="1" NCoef="0" IVar="5" Cut="9.8097199201583862e-01" cType="1" res="9.3493647873401642e-02" rms="4.5828285813331604e-01" purity="6.7524766921997070e-01" nType="0">
          <Node pos="l" depth="2" NCoef="0" IVar="-1" Cut="0.0000000000000000e+00" cType="1" res="3.0129526276141405e-03" rms="4.7519519925117493e-01" purity="6.2860065698623657e-01" nType="-99"/>
          <Node pos="r" depth="2" NCoef="0" IVar="-1" Cut="0.0000000000000000e+00" cType="1" res="9.5592010766267776e-03" rms="4.0309342741966248e-01" purity="7.8563767671585083e-01" nType="-99"/>
        </Node>
      </Node>
    </BinaryTree>
    <BinaryTree type="DecisionTree" boostWeight="1.0000000000000000e+00" itree="36">
      <Node pos="s" depth="0" NCoef="0" IVar="5" Cut="9.6807557344436646e-01" cType="1" res="2.2244083229452372e-03" rms="4.7575104236602783e-01" purity="5.0200128555297852e-01" nType="0">
        <Node pos="l" depth="1" NCoef="0" IVar="1" Cut="4.6431051635742188e+02" cType="1" res="-3.9600674062967300e-02" rms="4.7764864563941956e-01" purity="4.3015640974044800e-01" nType="0">
          <Node pos="l" depth="2" NCoef="0" IVar="-1" Cut="0.0000000000000000e+00" cType="1" res="-6.4109391532838345e-03" rms="4.4918513298034668e-01" purity="3.1594705581665039e-01" nType="-99"/>
          <Node pos="r" depth="2" NCoef="0" IVar="-1" Cut="0.0000000000000000e+00" cType="1" res="1.0023965842265170e-05" rms="4.8661860823631287e-01" purity="4.8799026012420654e-01" nType="-99"/>
        </Node>
        <Node pos="r" depth="1" NCoef="0" IVar="6" Cut="2.3231513500213623e+00" cType="1" res="1.0538640618324280e-01" rms="4.5488411188125610e-01" purity="6.7920708656311035e-01" nType="0">
          <Node pos="l" depth="2" NCoef="0" IVar="-1" Cut="0.0000000000000000e+00" cType="1" res="7.7387313358485699e-03" rms="4.3691426515579224e-01" purity="7.2989559173583984e-01" nType="-99"/>
          <Node pos="r" depth="2" NCoef="0" IVar="-1" Cut="0.0000000000000000e+00" cType="1" res="1.4985486632212996e-03" rms="4.8190811276435852e-01" purity="5.7094359397888184e-01" nType="-99"/>
        </Node>
      </Node>
    </BinaryTree>
    <BinaryTree type="DecisionTree" boostWeight="1.0000000000000000e+00" itree="37">
      <Node pos="s" depth="0" NCoef="0" IVar="5" Cut="9.4879436492919922e-01" cType="1" res="-7.0814462378621101e-04" rms="4.7471529245376587e-01" purity="4.9888643622398376e-01" nType="0">
        <Node pos="l" depth="1" NCoef="0" IVar="6" Cut="2.4359278678894043e+00" cType="1" res="-7.2558283805847168e-02" rms="4.6838715672492981e-01" purity="3.7551587820053101e-01" nType="0">
          <Node pos="l" depth="2" NCoef="0" IVar="-1" Cut="0.0000000000000000e+00" cType="1" res="-2.1704949904233217e-03" rms="4.7934523224830627e-01" purity="4.1906791925430298e-01" nType="-99"/>
          <Node pos="r" depth="2" NCoef="0" IVar="-1" Cut="0.0000000000000000e+00" cType="1" res="-8.6443414911627769e-03" rms="4.2597731947898865e-01" purity="2.5801184773445129e-01" nType="-99"/>
        </Node>
        <Node pos="r" depth="1" NCoef="0" IVar="6" Cut="2.6439464092254639e+00" cType="1" res="5.5948603898286819e-02" rms="4.7199568152427673e-01" purity="5.9616905450820923e-01" nType="0">
          <Node pos="l" depth="2" NCoef="0" IVar="-1" Cut="0.0000000000000000e+00" cType="1" res="4.2606312781572342e-03" rms="4.6773216128349304e-01" purity="6.2789064645767212e-01" nType="-99"/>
          <Node pos="r" depth="2" NCoef="0" IVar="-1" Cut="0.0000000000000000e+00" cType="1" res="-6.2344106845557690e-03" rms="4.6894752979278564e-01" purity="3.5798639059066772e-01" nType="-99"/>
        </Node>
      </Node>
    </BinaryTree>
    <BinaryTree type="DecisionTree" boostWeight="1.0000000000000000e+00" itree="38">
      <Node pos="s" depth="0" NCoef="0" IVar="5" Cut="9.7231954336166382e-01" cType="1" res="1.4863917604088783e-03" rms="4.7530815005302429e-01" purity="4.9980118870735168e-01" nType="0">
        <Node pos="l" depth="1" NCoef="0" IVar="7" Cut="4.8648033142089844e+01" cType="1" res="-3.2125379890203476e-02" rms="4.7815307974815369e-01" purity="4.4076284766197205e-01" nType="0">
          <Node pos="l" depth="2" NCoef="0" IVar="-1" Cut="0.0000000000000000e+00" cType="1" res="-8.1816585734486580e-03" rms="4.4099366664886475e-01" purity="2.9003286361694336e-01" nType="-99"/>
          <Node pos="r" depth="2" NCoef="0" IVar="-1" Cut="0.0000000000000000e+00" cType="1" res="-4.8075558152049780e-04" rms="4.8170220851898193e-01" purity="4.7024437785148621e-01" nType="-99"/>
        </Node>
        <Node pos="r" depth="1" NCoef="0" IVar="7" Cut="7.1032585144042969e+01" cType="1" res="1.1335951834917068e-01" rms="4.4789904356002808e-01" purity="6.9630414247512817e-01" nType="0">
          <Node pos="l" depth="2" NCoef="0" IVar="-1" Cut="0.0000000000000000e+00" cType="1" res="3.7289257161319256e-03" rms="4.6824690699577332e-01" purity="6.3734298944473267e-01" nType="-99"/>
          <Node pos="r" depth="2" NCoef="0" IVar="-1" Cut="0.0000000000000000e+00" cType="1" res="8.9784273877739906e-03" rms="4.1883105039596558e-01" purity="7.6071196794509888e-01" nType="-99"/>
        </Node>
      </Node>
    </BinaryTree>
    <BinaryTree type="DecisionTree" boostWeight="1.0000000000000000e+00" itree="39">
      <Node pos="s" depth="0" NCoef="0" IVar="0" Cut="2.4187159538269043e+00" cType="1" res="6.1359675601124763e-03" rms="4.7513857483863831e-01" purity="5.0452351570129395e-01" nType="0">
        <Node pos="l" depth="1" NCoef="0" IVar="7" Cut="6.2081466674804688e+01" cType="1" res="-6.9891318678855896e-02" rms="4.6820577979087830e-01" purity="3.5141173005104065e-01" nType="0">
          <Node pos="l" depth="2" NCoef="0" IVar="-1" Cut="0.0000000000000000e+00" cType="1" res="-7.5001027435064316e-03" rms="4.3513539433479309e-01" purity="2.6831719279289246e-01" nType="-99"/>
          <Node pos="r" depth="2" NCoef="0" IVar="-1" Cut="0.0000000000000000e+00" cType="1" res="-1.1333434376865625e-03" rms="4.8705542087554932e-01" purity="4.1688477993011475e-01" nType="-99"/>
        </Node>
        <Node pos="r" depth="1" NCoef="0" IVar="6" Cut="2.7174906730651855e+00" cType="1" res="6.0285091400146484e-02" rms="4.7261583805084229e-01" purity="6.1357468366622925e-01" nType="0">
          <Node pos="l" depth="2" NCoef="0" IVar="-1" Cut="0.0000000000000000e+00" cType="1" res="4.0042758919298649e-03" rms="4.6890228986740112e-01" purity="6.3720691204071045e-01" nType="-99"/>
          <Node pos="r" depth="2" NCoef="0" IVar="-1" Cut="0.0000000000000000e+00" cType="1" res="-5.4766475223004818e-03" rms="4.7944369912147522e-01" purity="3.6980113387107849e-01" nType="-99"/>
        </Node>
      </Node>
    </BinaryTree>
    <BinaryTree type="DecisionTree" boostWeight="1.0000000000000000e+00" itree="40">
      <Node pos="s" depth="0" NCoef="0" IVar="0" Cut="2.4891533851623535e+00" cType="1" res="-3.5218051634728909e-03" rms="4.7257256507873535e-01" purity="4.9553292989730835e-01" nType="0">
        <Node pos="l" depth="1" NCoef="0" IVar="6" Cut="2.2692692279815674e+00" cType="1" res="-8.0429233610630035e-02" rms="4.6386480331420898e-01" purity="3.3981588482856750e-01" nType="0">
          <Node pos="l" depth="2" NCoef="0" IVar="-1" Cut="0.0000000000000000e+00" cType="1" res="-1.8003045115619898e-03" rms="4.8190933465957642e-01" purity="4.0001630783081055e-01" nType="-99"/>
          <Node pos="r" depth="2" NCoef="0" IVar="-1" Cut="0.0000000000000000e+00" cType="1" res="-8.0082537606358528e-03" rms="4.3245053291320801e-01" purity="2.6353377103805542e-01" nType="-99"/>
        </Node>
        <Node pos="r" depth="1" NCoef="0" IVar="6" Cut="2.6614310741424561e+00" cType="1" res="5.4277468472719193e-02" rms="4.7081542015075684e-01" purity="6.1256110668182373e-01" nType="0">
          <Node pos="l" depth="2" NCoef="0" IVar="-1" Cut="0.0000000000000000e+00" cType="1" res="4.0661427192389965e-03" rms="4.6632921695709229e-01" purity="6.4503818750381470e-01" nType="-99"/>
          <Node pos="r" depth="2" NCoef="0" IVar="-1" Cut="0.0000000000000000e+00" cType="1" res="-6.7742476239800453e-03" rms="4.6745097637176514e-01" purity="3.4910091757774353e-01" nType="-99"/>
        </Node>
      </Node>
    </BinaryTree>
    <BinaryTree type="DecisionTree" boostWeight="1.0000000000000000e+00" itree="41">
      <Node pos="s" depth="0" NCoef="0" IVar="0" Cut="4.1909947395324707e+00" cType="1" res="-1.6389735974371433e-03" rms="4.7368314862251282e-01" purity="4.9802342057228088e-01" nType="0">
        <Node pos="l" depth="1" NCoef="0" IVar="6" Cut="2.3640878200531006e+00" cType="1" res="-3.2042201608419418e-02" rms="4.7822460532188416e-01" purity="4.3923664093017578e-01" nType="0">
          <Node pos="l" depth="2" NCoef="0" IVar="-1" Cut="0.0000000000000000e+00" cType="1" res="3.2439047936350107e-04" rms="4.8475825786590576e-01" purity="4.9412161111831665e-01" nType="-99"/>
          <Node pos="r" depth="2" NCoef="0" IVar="-1" Cut="0.0000000000000000e+00" cType="1" res="-6.0562458820641041e-03" rms="4.5510599017143250e-01" purity="3.2825970649719238e-01" nType="-99"/>
        </Node>
        <Node pos="r" depth="1" NCoef="0" IVar="4" Cut="3.5618689656257629e-01" cType="1" res="1.1780977249145508e-01" rms="4.3530625104904175e-01" purity="7.2898614406585693e-01" nType="0">
          <Node pos="l" depth="2" NCoef="0" IVar="-1" Cut="0.0000000000000000e+00" cType="1" res="3.1511578708887100e-03" rms="4.6419310569763184e-01" purity="6.6242307424545288e-01" nType="-99"/>
          <Node pos="r" depth="2" NCoef="0" IVar="-1" Cut="0.0000000000000000e+00" cType="1" res="8.5808774456381798e-03" rms="4.0830701589584351e-01" purity="7.7629077434539795e-01" nType="-99"/>
        </Node>
      </Node>
    </BinaryTree>
    <BinaryTree type="DecisionTree" boostWeight="1.0000000000000000e+00" itree="42">
      <Node pos="s" depth="0" NCoef="0" IVar="5" Cut="9.6838390827178955e-01" cType="1" res="2.4015342351049185e-03" rms="4.7348028421401978e-01" purity="5.0227087736129761e-01" nType="0">
        <Node pos="l" depth="1" NCoef="0" IVar="1" Cut="4.6624725341796875e+02" cType="1" res="-3.6688752472400665e-02" rms="4.7614011168479919e-01" purity="4.2967057228088379e-01" nType="0">
          <Node pos="l" depth="2" NCoef="0" IVar="-1" Cut="0.0000000000000000e+00" cType="1" res="-5.9306868351995945e-03" rms="4.5088091492652893e-01" purity="3.2122892141342163e-01" nType="-99"/>
          <Node pos="r" depth="2" NCoef="0" IVar="-1" Cut="0.0000000000000000e+00" cType="1" res="1.0476065654074773e-04" rms="4.8473444581031799e-01" purity="4.8775309324264526e-01" nType="-99"/>
        </Node>
        <Node pos="r" depth="1" NCoef="0" IVar="1" Cut="4.3879510498046875e+02" cType="1" res="9.9572569131851196e-02" rms="4.5239824056625366e-01" purity="6.8274134397506714e-01" nType="0">
          <Node pos="l" depth="2" NCoef="0" IVar="-1" Cut="0.0000000000000000e+00" cType="1" res="2.2315702517516911e-04" rms="4.8424533009529114e-01" purity="5.5718433856964111e-01" nType="-99"/>
          <Node pos="r" depth="2" NCoef="0" IVar="-1" Cut="0.0000000000000000e+00" cType="1" res="6.9308979436755180e-03" rms="4.3940380215644836e-01" purity="7.1779048442840576e-01" nType="-99"/>
        </Node>
      </Node>
    </BinaryTree>
    <BinaryTree type="DecisionTree" boostWeight="1.0000000000000000e+00" itree="43">
      <Node pos="s" depth="0" NCoef="0" IVar="5" Cut="9.7255647182464600e-01" cType="1" res="2.0590408239513636e-03" rms="4.7407206892967224e-01" purity="5.0038796663284302e-01" nType="0">
        <Node pos="l" depth="1" NCoef="0" IVar="7" Cut="5.3836959838867188e+01" cType="1" res="-2.9957760125398636e-02" rms="4.7753053903579712e-01" purity="4.4009590148925781e-01" nType="0">
          <Node pos="l" depth="2" NCoef="0" IVar="-1" Cut="0.0000000000000000e+00" cType="1" res="-6.3777263276278973e-03" rms="4.5086684823036194e-01" purity="3.2088080048561096e-01" nType="-99"/>
          <Node pos="r" depth="2" NCoef="0" IVar="-1" Cut="0.0000000000000000e+00" cType="1" res="3.7220968806650490e-05" rms="4.8292246460914612e-01" purity="4.8233160376548767e-01" nType="-99"/>
        </Node>
        <Node pos="r" depth="1" NCoef="0" IVar="6" Cut="2.2428662776947021e+00" cType="1" res="1.0772525519132614e-01" rms="4.4646847248077393e-01" purity="6.9937223196029663e-01" nType="0">
          <Node pos="l" depth="2" NCoef="0" IVar="-1" Cut="0.0000000000000000e+00" cType="1" res="8.7649421766400337e-03" rms="4.1625022888183594e-01" purity="7.6672041416168213e-01" nType="-99"/>
          <Node pos="r" depth="2" NCoef="0" IVar="-1" Cut="0.0000000000000000e+00" cType="1" res="2.0666457712650299e-03" rms="4.7697940468788147e-01" purity="6.0473889112472534e-01" nType="-99"/>
        </Node>
      </Node>
    </BinaryTree>
    <BinaryTree type="DecisionTree" boostWeight="1.0000000000000000e+00" itree="44">
      <Node pos="s" depth="0" NCoef="0" IVar="5" Cut="9.5255178213119507e-01" cType="1" res="-1.6851474065333605e-03" rms="4.7239273786544800e-01" purity="4.9738290905952454e-01" nType="0">
        <Node pos="l" depth="1" NCoef="0" IVar="6" Cut="2.3902854919433594e+00" cType="1" res="-5.9490047395229340e-02" rms="4.6908444166183472e-01" purity="3.8572773337364197e-01" nType="0">
          <Node pos="l" depth="2" NCoef="0" IVar="-1" Cut="0.0000000000000000e+00" cType="1" res="-1.2833750806748867e-03" rms="4.8082035779953003e-01" purity="4.3738281726837158e-01" nType="-99"/>
          <Node pos="r" depth="2" NCoef="0" IVar="-1" Cut="0.0000000000000000e+00" cType="1" res="-7.6634031720459461e-03" rms="4.3145895004272461e-01" purity="2.7048426866531372e-01" nType="-99"/>
        </Node>
        <Node pos="r" depth="1" NCoef="0" IVar="6" Cut="2.3860638141632080e+00" cType="1" res="5.8159258216619492e-02" rms="4.6833622455596924e-01" purity="6.1297768354415894e-01" nType="0">
          <Node pos="l" depth="2" NCoef="0" IVar="-1" Cut="0.0000000000000000e+00" cType="1" res="5.1303738728165627e-03" rms="4.5851463079452515e-01" purity="6.6627222299575806e-01" nType="-99"/>
          <Node pos="r" depth="2" NCoef="0" IVar="-1" Cut="0.0000000000000000e+00" cType="1" res="-1.9813601393252611e-03" rms="4.8087349534034729e-01" purity="4.7158193588256836e-01" nType="-99"/>
        </Node>
      </Node>
    </BinaryTree>
    <BinaryTree type="DecisionTree" boostWeight="1.0000000000000000e+00" itree="45">
      <Node pos="s" depth="0" NCoef="0" IVar="5" Cut="9.3301409482955933e-01" cType="1" res="-4.1563152335584164e-03" rms="4.7321364283561707e-01" purity="4.9511674046516418e-01" nType="0">
        <Node pos="l" depth="1" NCoef="0" IVar="6" Cut="2.3254683017730713e+00" cType="1" res="-1.0689160972833633e-01" rms="4.5479673147201538e-01" purity="3.2505577802658081e-01" nType="0">
          <Node pos="l" depth="2" NCoef="0" IVar="-1" Cut="0.0000000000000000e+00" cType="1" res="-3.6781940143555403e-03" rms="4.7532489895820618e-01" purity="3.7960717082023621e-01" nType="-99"/>
          <Node pos="r" depth="2" NCoef="0" IVar="-1" Cut="0.0000000000000000e+00" cType="1" res="-9.4363698735833168e-03" rms="4.0918749570846558e-01" purity="2.3119749128818512e-01" nType="-99"/>
        </Node>
        <Node pos="r" depth="1" NCoef="0" IVar="6" Cut="2.6240074634552002e+00" cType="1" res="2.7906920760869980e-02" rms="4.7428166866302490e-01" purity="5.4819202423095703e-01" nType="0">
          <Node pos="l" depth="2" NCoef="0" IVar="-1" Cut="0.0000000000000000e+00" cType="1" res="2.6247871574014425e-03" rms="4.7324216365814209e-01" purity="5.7985591888427734e-01" nType="-99"/>
          <Node pos="r" depth="2" NCoef="0" IVar="-1" Cut="0.0000000000000000e+00" cType="1" res="-6.1120968312025070e-03" rms="4.5803818106651306e-01" purity="3.3273145556449890e-01" nType="-99"/>
        </Node>
      </Node>
    </BinaryTree>
    <BinaryTree type="DecisionTree" boostWeight="1.0000000000000000e+00" itree="46">
      <Node pos="s" depth="0" NCoef="0" IVar="0" Cut="3.3133676052093506e+00" cType="1" res="6.5515004098415375e-04" rms="4.7239729762077332e-01" purity="5.0149583816528320e-01" nType="0">
        <Node pos="l" depth="1" NCoef="0" IVar="6" Cut="2.3506431579589844e+00" cType="1" res="-4.2329352349042892e-02" rms="4.7545757889747620e-01" purity="4.0167599916458130e-01" nType="0">
          <Node pos="l" depth="2" NCoef="0" IVar="-1" Cut="0.0000000000000000e+00" cType="1" res="-3.7262341356836259e-04" rms="4.8564466834068298e-01" purity="4.5438194274902344e-01" nType="-99"/>
          <Node pos="r" depth="2" NCoef="0" IVar="-1" Cut="0.0000000000000000e+00" cType="1" res="-6.3815340399742126e-03" rms="4.4635286927223206e-01" purity="2.9723325371742249e-01" nType="-99"/>
        </Node>
        <Node pos="r" depth="1" NCoef="0" IVar="0" Cut="4.9401779174804688e+00" cType="1" res="7.2383776307106018e-02" rms="4.5835638046264648e-01" purity="6.6806620359420776e-01" nType="0">
          <Node pos="l" depth="2" NCoef="0" IVar="-1" Cut="0.0000000000000000e+00" cType="1" res="2.2932360880076885e-03" rms="4.7429141402244568e-01" purity="6.2506192922592163e-01" nType="-99"/>
          <Node pos="r" depth="2" NCoef="0" IVar="-1" Cut="0.0000000000000000e+00" cType="1" res="8.5281468927860260e-03" rms="3.9954891800880432e-01" purity="7.8838533163070679e-01" nType="-99"/>
        </Node>
      </Node>
    </BinaryTree>
    <BinaryTree type="DecisionTree" boostWeight="1.0000000000000000e+00" itree="47">
      <Node pos="s" depth="0" NCoef="0" IVar="5" Cut="9.4866943359375000e-01" cType="1" res="4.1251827497035265e-04" rms="4.7221967577934265e-01" purity="4.9876013398170471e-01" nType="0">
        <Node pos="l" depth="1" NCoef="0" IVar="1" Cut="5.7978527832031250e+02" cType="1" res="-6.5650396049022675e-02" rms="4.6639606356620789e-01" purity="3.7018895149230957e-01" nType="0">
          <Node pos="l" depth="2" NCoef="0" IVar="-1" Cut="0.0000000000000000e+00" cType="1" res="-6.1229532584547997e-03" rms="4.4614630937576294e-01" purity="3.0440446734428406e-01" nType="-99"/>
          <Node pos="r" depth="2" NCoef="0" IVar="-1" Cut="0.0000000000000000e+00" cType="1" res="7.9255411401391029e-04" rms="4.8918753862380981e-01" purity="4.8405694961547852e-01" nType="-99"/>
        </Node>
        <Node pos="r" depth="1" NCoef="0" IVar="7" Cut="6.1437313079833984e+01" cType="1" res="5.1186811178922653e-02" rms="4.7038304805755615e-01" purity="5.9757673740386963e-01" nType="0">
          <Node pos="l" depth="2" NCoef="0" IVar="-1" Cut="0.0000000000000000e+00" cType="1" res="-7.3071458609774709e-04" rms="4.7975555062294006e-01" purity="5.0876808166503906e-01" nType="-99"/>
          <Node pos="r" depth="2" NCoef="0" IVar="-1" Cut="0.0000000000000000e+00" cType="1" res="4.8947767354547977e-03" rms="4.6026381850242615e-01" purity="6.5135902166366577e-01" nType="-99"/>
        </Node>
      </Node>
    </BinaryTree>
    <BinaryTree type="DecisionTree" boostWeight="1.0000000000000000e+00" itree="48">
      <Node pos="s" depth="0" NCoef="0" IVar="5" Cut="9.4102358818054199e-01" cType="1" res="-1.4706407673656940e-03" rms="4.7255674004554749e-01" purity="4.9866807460784912e-01" nType="0">
        <Node pos="l" depth="1" NCoef="0" IVar="1" Cut="5.6409515380859375e+02" cType="1" res="-8.1180892884731293e-02" rms="4.6024468541145325e-01" purity="3.5028934478759766e-01" nType="0">
          <Node pos="l" depth="2" NCoef="0" IVar="-1" Cut="0.0000000000000000e+00" cType="1" res="-6.8828514777123928e-03" rms="4.3652474880218506e-01" purity="2.8231137990951538e-01" nType="-99"/>
          <Node pos="r" depth="2" NCoef="0" IVar="-1" Cut="0.0000000000000000e+00" cType="1" res="-7.5826159445568919e-04" rms="4.8556563258171082e-01" purity="4.5081827044487000e-01" nType="-99"/>
        </Node>
        <Node pos="r" depth="1" NCoef="0" IVar="6" Cut="2.4841737747192383e+00" cType="1" res="3.6341648548841476e-02" rms="4.7361809015274048e-01" purity="5.6905478239059448e-01" nType="0">
          <Node pos="l" depth="2" NCoef="0" IVar="-1" Cut="0.0000000000000000e+00" cType="1" res="3.3097122795879841e-03" rms="4.7125589847564697e-01" purity="6.0972404479980469e-01" nType="-99"/>
          <Node pos="r" depth="2" NCoef="0" IVar="-1" Cut="0.0000000000000000e+00" cType="1" res="-3.5975140053778887e-03" rms="4.6981856226921082e-01" purity="3.9915668964385986e-01" nType="-99"/>
        </Node>
      </Node>
    </BinaryTree>
    <BinaryTree type="DecisionTree" boostWeight="1.0000000000000000e+00" itree="49">
      <Node pos="s" depth="0" NCoef="0" IVar="5" Cut="9.7586470842361450e-01" cType="1" res="6.6037895157933235e-03" rms="4.7251629829406738e-01" purity="5.0309711694717407e-01" nType="0">
        <Node pos="l" depth="1" NCoef="0" IVar="1" Cut="4.9805792236328125e+02" cType="1" res="-1.8320649862289429e-02" rms="4.7735670208930969e-01" purity="4.5265230536460876e-01" nType="0">
          <Node pos="l" depth="2" NCoef="0" IVar="-1" Cut="0.0000000000000000e+00" cType="1" res="-4.2304489761590958e-03" rms="4.6120032668113708e-01" purity="3.5955899953842163e-01" nType="-99"/>
          <Node pos="r" depth="2" NCoef="0" IVar="-1" Cut="0.0000000000000000e+00" cType="1" res="1.3771459925919771e-03" rms="4.8450267314910889e-01" purity="5.2254271507263184e-01" nType="-99"/>
        </Node>
        <Node pos="r" depth="1" NCoef="0" IVar="5" Cut="9.8340386152267456e-01" cType="1" res="1.1241675913333893e-01" rms="4.3579667806625366e-01" purity="7.1725296974182129e-01" nType="0">
          <Node pos="l" depth="2" NCoef="0" IVar="-1" Cut="0.0000000000000000e+00" cType="1" res="3.0681013595312834e-03" rms="4.6624985337257385e-01" purity="6.3846164941787720e-01" nType="-99"/>
          <Node pos="r" depth="2" NCoef="0" IVar="-1" Cut="0.0000000000000000e+00" cType="1" res="8.4243025630712509e-03" rms="4.1071331501007080e-01" purity="7.6805210113525391e-01" nType="-99"/>
        </Node>
      </Node>
    </BinaryTree>
    <BinaryTree type="DecisionTree" boostWeight="1.0000000000000000e+00" itree="50">
      <Node pos="s" depth="0" NCoef="0" IVar="0" Cut="4.2277574539184570e+00" cType="1" res="-1.8195292213931680e-03" rms="4.7054719924926758e-01" purity="4.9666184186935425e-01" nType="0">
        <Node pos="l" depth="1" NCoef="0" IVar="6" Cut="2.4120881557464600e+00" cType="1" res="-2.7913819998502731e-02" rms="4.7532099485397339e-01" purity="4.4083353877067566e-01" nType="0">
          <Node pos="l" depth="2" NCoef="0" IVar="-1" Cut="0.0000000000000000e+00" cType="1" res="3.0607028747908771e-04" rms="4.8229455947875977e-01" purity="4.9412107467651367e-01" nType="-99"/>
          <Node pos="r" depth="2" NCoef="0" IVar="-1" Cut="0.0000000000000000e+00" cType="1" res="-6.3867643475532532e-03" rms="4.4547921419143677e-01" purity="3.0400848388671875e-01" nType="-99"/>
        </Node>
        <Node pos="r" depth="1" NCoef="0" IVar="1" Cut="4.9188470458984375e+02" cType="1" res="1.0792775452136993e-01" rms="4.3303066492080688e-01" purity="7.3146450519561768e-01" nType="0">
          <Node pos="l" depth="2" NCoef="0" IVar="-1" Cut="0.0000000000000000e+00" cType="1" res="1.8081224989145994e-03" rms="4.6853181719779968e-01" purity="6.4267563819885254e-01" nType="-99"/>
          <Node pos="r" depth="2" NCoef="0" IVar="-1" Cut="0.0000000000000000e+00" cType="1" res="7.9467147588729858e-03" rms="4.0914067625999451e-01" purity="7.7574723958969116e-01" nType="-99"/>
        </Node>
      </Node>
    </BinaryTree>
    <BinaryTree type="DecisionTree" boostWeight="1.0000000000000000e+00" itree="51">
      <Node pos="s" depth="0" NCoef="0" IVar="0" Cut="1.9508688449859619e+00" cType="1" res="4.7739497385919094e-03" rms="4.7086542844772339e-01" purity="5.0363850593566895e-01" nType="0">
        <Node pos="l" depth="1" NCoef="0" IVar="5" Cut="9.2298734188079834e-01" cType="1" res="-7.9189389944076538e-02" rms="4.5647725462913513e-01" purity="3.2178390026092529e-01" nType="0">
          <Node pos="l" depth="2" NCoef="0" IVar="-1" Cut="0.0000000000000000e+00" cType="1" res="-8.8249463587999344e-03" rms="4.1252404451370239e-01" purity="2.2739730775356293e-01" nType="-99"/>
          <Node pos="r" depth="2" NCoef="0" IVar="-1" Cut="0.0000000000000000e+00" cType="1" res="-2.5638546794652939e-03" rms="4.7084063291549683e-01" purity="3.6438512802124023e-01" nType="-99"/>
        </Node>
        <Node pos="r" depth="1" NCoef="0" IVar="6" Cut="2.6710007190704346e+00" cType="1" res="3.7722855806350708e-02" rms="4.7233262658119202e-01" purity="5.7500189542770386e-01" nType="0">
          <Node pos="l" depth="2" NCoef="0" IVar="-1" Cut="0.0000000000000000e+00" cType="1" res="2.9607545584440231e-03" rms="4.7070851922035217e-01" purity="6.0473495721817017e-01" nType="-99"/>
          <Node pos="r" depth="2" NCoef="0" IVar="-1" Cut="0.0000000000000000e+00" cType="1" res="-5.2711106836795807e-03" rms="4.6285638213157654e-01" purity="3.4524294734001160e-01" nType="-99"/>
        </Node>
      </Node>
    </BinaryTree>
    <BinaryTree type="DecisionTree" boostWeight="1.0000000000000000e+00" itree="52">
      <Node pos="s" depth="0" NCoef="0" IVar="5" Cut="9.4866472482681274e-01" cType="1" res="5.2579282782971859e-04" rms="4.7122380137443542e-01" purity="4.9942904710769653e-01" nType="0">
        <Node pos="l" depth="1" NCoef="0" IVar="0" Cut="2.4773602485656738e+00" cType="1" res="-6.0178942978382111e-02" rms="4.6461728215217590e-01" purity="3.7087225914001465e-01" nType="0">
          <Node pos="l" depth="2" NCoef="0" IVar="-1" Cut="0.0000000000000000e+00" cType="1" res="-5.3830794058740139e-03" rms="4.4848886132240295e-01" purity="2.9420426487922668e-01" nType="-99"/>
          <Node pos="r" depth="2" NCoef="0" IVar="-1" Cut="0.0000000000000000e+00" cType="1" res="1.0585974087007344e-04" rms="4.8576688766479492e-01" purity="5.0705748796463013e-01" nType="-99"/>
        </Node>
        <Node pos="r" depth="1" NCoef="0" IVar="6" Cut="2.1707100868225098e+00" cType="1" res="4.7403693199157715e-02" rms="4.7093844413757324e-01" purity="5.9870421886444092e-01" nType="0">
          <Node pos="l" depth="2" NCoef="0" IVar="-1" Cut="0.0000000000000000e+00" cType="1" res="5.4257381707429886e-03" rms="4.5533919334411621e-01" purity="6.7282652854919434e-01" nType="-99"/>
          <Node pos="r" depth="2" NCoef="0" IVar="-1" Cut="0.0000000000000000e+00" cType="1" res="6.5632993937470019e-05" rms="4.7976645827293396e-01" purity="5.3243839740753174e-01" nType="-99"/>
        </Node>
      </Node>
    </BinaryTree>
    <BinaryTree type="DecisionTree" boostWeight="1.0000000000000000e+00" itree="53">
      <Node pos="s" depth="0" NCoef="0" IVar="0" Cut="3.8292856216430664e+00" cType="1" res="-8.8380714878439903e-03" rms="4.7114515304565430e-01" purity="4.9073159694671631e-01" nType="0">
        <Node pos="l" depth="1" NCoef="0" IVar="1" Cut="4.9723596191406250e+02" cType="1" res="-3.9778091013431549e-02" rms="4.7515660524368286e-01" purity="4.1765940189361572e-01" nType="0">
          <Node pos="l" depth="2" NCoef="0" IVar="-1" Cut="0.0000000000000000e+00" cType="1" res="-5.1727010868489742e-03" rms="4.5442393422126770e-01" purity="3.3030751347541809e-01" nType="-99"/>
          <Node pos="r" depth="2" NCoef="0" IVar="-1" Cut="0.0000000000000000e+00" cType="1" res="7.8700613812543452e-05" rms="4.8668187856674194e-01" purity="4.8552230000495911e-01" nType="-99"/>
        </Node>
        <Node pos="r" depth="1" NCoef="0" IVar="4" Cut="3.6580818891525269e-01" cType="1" res="7.6586611568927765e-02" rms="4.4895043969154358e-01" purity="6.9248235225677490e-01" nType="0">
          <Node pos="l" depth="2" NCoef="0" IVar="-1" Cut="0.0000000000000000e+00" cType="1" res="1.1226080823689699e-03" rms="4.6876767277717590e-01" purity="6.2839555740356445e-01" nType="-99"/>
          <Node pos="r" depth="2" NCoef="0" IVar="-1" Cut="0.0000000000000000e+00" cType="1" res="6.7626405507326126e-03" rms="4.2542517185211182e-01" purity="7.4739032983779907e-01" nType="-99"/>
        </Node>
      </Node>
    </BinaryTree>
    <BinaryTree type="DecisionTree" boostWeight="1.0000000000000000e+00" itree="54">
      <Node pos="s" depth="0" NCoef="0" IVar="5" Cut="9.7231954336166382e-01" cType="1" res="-4.2757587507367134e-03" rms="4.6986404061317444e-01" purity="4.9360677599906921e-01" nType="0">
        <Node pos="l" depth="1" NCoef="0" IVar="1" Cut="5.8317150878906250e+02" cType="1" res="-3.3588107675313950e-02" rms="4.7359287738800049e-01" purity="4.3157419562339783e-01" nType="0">
          <Node pos="l" depth="2" NCoef="0" IVar="-1" Cut="0.0000000000000000e+00" cType="1" res="-3.9235195145010948e-03" rms="4.6352046728134155e-01" purity="3.7171283364295959e-01" nType="-99"/>
          <Node pos="r" depth="2" NCoef="0" IVar="-1" Cut="0.0000000000000000e+00" cType="1" res="1.5967159997671843e-03" rms="4.8326945304870605e-01" purity="5.3091609477996826e-01" nType="-99"/>
        </Node>
        <Node pos="r" depth="1" NCoef="0" IVar="6" Cut="2.3832066059112549e+00" cType="1" res="9.3181975185871124e-02" rms="4.4353234767913818e-01" purity="6.9985294342041016e-01" nType="0">
          <Node pos="l" depth="2" NCoef="0" IVar="-1" Cut="0.0000000000000000e+00" cType="1" res="6.9294329732656479e-03" rms="4.2568665742874146e-01" purity="7.5049751996994019e-01" nType="-99"/>
          <Node pos="r" depth="2" NCoef="0" IVar="-1" Cut="0.0000000000000000e+00" cType="1" res="8.7607820751145482e-04" rms="4.7946432232856750e-01" purity="5.6475126743316650e-01" nType="-99"/>
        </Node>
      </Node>
    </BinaryTree>
    <BinaryTree type="DecisionTree" boostWeight="1.0000000000000000e+00" itree="55">
      <Node pos="s" depth="0" NCoef="0" IVar="5" Cut="9.2925548553466797e-01" cType="1" res="6.7493332608137280e-05" rms="4.7001069784164429e-01" purity="4.9865466356277466e-01" nType="0">
        <Node pos="l" depth="1" NCoef="0" IVar="7" Cut="5.5858798980712891e+01" cType="1" res="-9.9241636693477631e-02" rms="4.4999927282333374e-01" purity="3.1523382663726807e-01" nType="0">
          <Node pos="l" depth="2" NCoef="0" IVar="-1" Cut="0.0000000000000000e+00" cType="1" res="-9.1903032734990120e-03" rms="4.0154719352722168e-01" purity="2.1123376488685608e-01" nType="-99"/>
          <Node pos="r" depth="2" NCoef="0" IVar="-1" Cut="0.0000000000000000e+00" cType="1" res="-3.7028798833489418e-03" rms="4.6740239858627319e-01" purity="3.6296129226684570e-01" nType="-99"/>
        </Node>
        <Node pos="r" depth="1" NCoef="0" IVar="1" Cut="4.6772235107421875e+02" cType="1" res="2.5343185290694237e-02" rms="4.7164276242256165e-01" purity="5.4533803462982178e-01" nType="0">
          <Node pos="l" depth="2" NCoef="0" IVar="-1" Cut="0.0000000000000000e+00" cType="1" res="-2.7230018749833107e-03" rms="4.6890127658843994e-01" purity="4.2759066820144653e-01" nType="-99"/>
          <Node pos="r" depth="2" NCoef="0" IVar="-1" Cut="0.0000000000000000e+00" cType="1" res="3.3223992213606834e-03" rms="4.6883347630500793e-01" purity="6.0153824090957642e-01" nType="-99"/>
        </Node>
      </Node>
    </BinaryTree>
    <BinaryTree type="DecisionTree" boostWeight="1.0000000000000000e+00" itree="56">
      <Node pos="s" depth="0" NCoef="0" IVar="6" Cut="2.7430481910705566e+00" cType="1" res="-9.8135566804558039e-04" rms="4.7116893529891968e-01" purity="4.9670028686523438e-01" nType="0">
        <Node pos="l" depth="1" NCoef="0" IVar="1" Cut="4.1960653686523438e+02" cType="1" res="1.3587023131549358e-02" rms="4.7310051321983337e-01" purity="5.1994651556015015e-01" nType="0">
          <Node pos="l" depth="2" NCoef="0" IVar="-1" Cut="0.0000000000000000e+00" cType="1" res="-4.3745241127908230e-03" rms="4.5916396379470825e-01" purity="3.7179157137870789e-01" nType="-99"/>
          <Node pos="r" depth="2" NCoef="0" IVar="-1" Cut="0.0000000000000000e+00" cType="1" res="1.9888305105268955e-03" rms="4.7376045584678650e-01" purity="5.5713677406311035e-01" nType="-99"/>
        </Node>
        <Node pos="r" depth="1" NCoef="0" IVar="-1" Cut="0.0000000000000000e+00" cType="1" res="-8.6072226986289024e-03" rms="4.2243695259094238e-01" purity="2.5705289840698242e-01" nType="-99"/>
      </Node>
    </BinaryTree>
    <BinaryTree type="DecisionTree" boostWeight="1.0000000000000000e+00" itree="57">
      <Node pos="s" depth="0" NCoef="0" IVar="5" Cut="9.3701994419097900e-01" cType="1" res="1.5224380185827613e-03" rms="4.6876382827758789e-01" purity="4.9973723292350769e-01" nType="0">
        <Node pos="l" depth="1" NCoef="0" IVar="7" Cut="7.8242263793945312e+01" cType="1" res="-8.6465962231159210e-02" rms="4.5322534441947937e-01" purity="3.3069866895675659e-01" nType="0">
          <Node pos="l" depth="2" NCoef="0" IVar="-1" Cut="0.0000000000000000e+00" cType="1" res="-6.3061909750103951e-03" rms="4.3629723787307739e-01" purity="2.8486251831054688e-01" nType="-99"/>
          <Node pos="r" depth="2" NCoef="0" IVar="-1" Cut="0.0000000000000000e+00" cType="1" res="-1.2424500891938806e-03" rms="4.8264271020889282e-01" purity="4.3223413825035095e-01" nType="-99"/>
        </Node>
        <Node pos="r" depth="1" NCoef="0" IVar="4" Cut="3.8370752334594727e-01" cType="1" res="3.5516131669282913e-02" rms="4.7024223208427429e-01" purity="5.6504404544830322e-01" nType="0">
          <Node pos="l" depth="2" NCoef="0" IVar="-1" Cut="0.0000000000000000e+00" cType="1" res="-7.6744210673496127e-04" rms="4.7508141398429871e-01" purity="5.0969713926315308e-01" nType="-99"/>
          <Node pos="r" depth="2" NCoef="0" IVar="-1" Cut="0.0000000000000000e+00" cType="1" res="4.4615962542593479e-03" rms="4.6105390787124634e-01" purity="6.1615359783172607e-01" nType="-99"/>
        </Node>
      </Node>
    </BinaryTree>
    <BinaryTree type="DecisionTree" boostWeight="1.0000000000000000e+00" itree="58">
      <Node pos="s" depth="0" NCoef="0" IVar="0" Cut="4.0325012207031250e+00" cType="1" res="4.2089747148565948e-04" rms="4.7049695253372192e-01" purity="4.9945047497749329e-01" nType="0">
        <Node pos="l" depth="1" NCoef="0" IVar="6" Cut="2.2233483791351318e+00" cType="1" res="-2.6383753865957260e-02" rms="4.7606280446052551e-01" purity="4.3498870730400085e-01" nType="0">
          <Node pos="l" depth="2" NCoef="0" IVar="-1" Cut="0.0000000000000000e+00" cType="1" res="9.3651737552136183e-04" rms="4.8281905055046082e-01" purity="5.0273853540420532e-01" nType="-99"/>
          <Node pos="r" depth="2" NCoef="0" IVar="-1" Cut="0.0000000000000000e+00" cType="1" res="-4.1511007584631443e-03" rms="4.6384716033935547e-01" purity="3.6068147420883179e-01" nType="-99"/>
        </Node>
        <Node pos="r" depth="1" NCoef="0" IVar="1" Cut="4.8268267822265625e+02" cType="1" res="9.1155596077442169e-02" rms="4.3916824460029602e-01" purity="7.1765577793121338e-01" nType="0">
          <Node pos="l" depth="2" NCoef="0" IVar="-1" Cut="0.0000000000000000e+00" cType="1" res="1.2664055684581399e-03" rms="4.7010138630867004e-01" purity="6.2730741500854492e-01" nType="-99"/>
          <Node pos="r" depth="2" NCoef="0" IVar="-1" Cut="0.0000000000000000e+00" cType="1" res="6.6694854758679867e-03" rms="4.2162671685218811e-01" purity="7.5696969032287598e-01" nType="-99"/>
        </Node>
      </Node>
    </BinaryTree>
    <BinaryTree type="DecisionTree" boostWeight="1.0000000000000000e+00" itree="59">
      <Node pos="s" depth="0" NCoef="0" IVar="0" Cut="2.0467407703399658e+00" cType="1" res="3.4698511008173227e-03" rms="4.6858066320419312e-01" purity="5.0168359279632568e-01" nType="0">
        <Node pos="l" depth="1" NCoef="0" IVar="1" Cut="4.6299938964843750e+02" cType="1" res="-6.8537622690200806e-02" rms="4.5670101046562195e-01" purity="3.2502451539039612e-01" nType="0">
          <Node pos="l" depth="2" NCoef="0" IVar="-1" Cut="0.0000000000000000e+00" cType="1" res="-8.0818561837077141e-03" rms="4.0516224503517151e-01" purity="2.1346013247966766e-01" nType="-99"/>
          <Node pos="r" depth="2" NCoef="0" IVar="-1" Cut="0.0000000000000000e+00" cType="1" res="-1.6822821926325560e-03" rms="4.8028561472892761e-01" purity="3.9072161912918091e-01" nType="-99"/>
        </Node>
        <Node pos="r" depth="1" NCoef="0" IVar="0" Cut="4.9335527420043945e+00" cType="1" res="3.6352023482322693e-02" rms="4.7025349736213684e-01" purity="5.8235496282577515e-01" nType="0">
          <Node pos="l" depth="2" NCoef="0" IVar="-1" Cut="0.0000000000000000e+00" cType="1" res="9.9387974478304386e-04" rms="4.7965773940086365e-01" purity="5.4603743553161621e-01" nType="-99"/>
          <Node pos="r" depth="2" NCoef="0" IVar="-1" Cut="0.0000000000000000e+00" cType="1" res="7.9867662861943245e-03" rms="3.9523282647132874e-01" purity="7.9474383592605591e-01" nType="-99"/>
        </Node>
      </Node>
    </BinaryTree>
    <BinaryTree type="DecisionTree" boostWeight="1.0000000000000000e+00" itree="60">
      <Node pos="s" depth="0" NCoef="0" IVar="0" Cut="3.8349463939666748e+00" cType="1" res="-2.0574138034135103e-03" rms="4.6761772036552429e-01" purity="4.9659791588783264e-01" nType="0">
        <Node pos="l" depth="1" NCoef="0" IVar="1" Cut="6.6292993164062500e+02" cType="1" res="-3.3229507505893707e-02" rms="4.7320106625556946e-01" purity="4.1982373595237732e-01" nType="0">
          <Node pos="l" depth="2" NCoef="0" IVar="-1" Cut="0.0000000000000000e+00" cType="1" res="-3.2106027938425541e-03" rms="4.6681645512580872e-01" purity="3.8275727629661560e-01" nType="-99"/>
          <Node pos="r" depth="2" NCoef="0" IVar="-1" Cut="0.0000000000000000e+00" cType="1" res="2.7233469299972057e-03" rms="4.8472642898559570e-01" purity="5.4389780759811401e-01" nType="-99"/>
        </Node>
        <Node pos="r" depth="1" NCoef="0" IVar="6" Cut="2.3606090545654297e+00" cType="1" res="8.4160573780536652e-02" rms="4.4047278165817261e-01" purity="7.0894539356231689e-01" nType="0">
          <Node pos="l" depth="2" NCoef="0" IVar="-1" Cut="0.0000000000000000e+00" cType="1" res="6.2086987309157848e-03" rms="4.2096987366676331e-01" purity="7.5858026742935181e-01" nType="-99"/>
          <Node pos="r" depth="2" NCoef="0" IVar="-1" Cut="0.0000000000000000e+00" cType="1" res="6.8556936457753181e-04" rms="4.7955542802810669e-01" purity="5.8180755376815796e-01" nType="-99"/>
        </Node>
      </Node>
    </BinaryTree>
    <BinaryTree type="DecisionTree" boostWeight="1.0000000000000000e+00" itree="61">
      <Node pos="s" depth="0" NCoef="0" IVar="5" Cut="9.8015421628952026e-01" cType="1" res="-2.5102004874497652e-03" rms="4.6857315301895142e-01" purity="4.9624308943748474e-01" nType="0">
        <Node pos="l" depth="1" NCoef="0" IVar="6" Cut="2.6499381065368652e+00" cType="1" res="-2.3359159007668495e-02" rms="4.7333431243896484e-01" purity="4.5202633738517761e-01" nType="0">
          <Node pos="l" depth="2" NCoef="0" IVar="-1" Cut="0.0000000000000000e+00" cType="1" res="-2.6479861116968095e-04" rms="4.7876077890396118e-01" purity="4.8396828770637512e-01" nType="-99"/>
          <Node pos="r" depth="2" NCoef="0" IVar="-1" Cut="0.0000000000000000e+00" cType="1" res="-8.0222766846418381e-03" rms="4.1859513521194458e-01" purity="2.4909397959709167e-01" nType="-99"/>
        </Node>
        <Node pos="r" depth="1" NCoef="0" IVar="9" Cut="5.8742022514343262e-01" cType="1" res="1.1360742896795273e-01" rms="4.2270529270172119e-01" purity="7.4250704050064087e-01" nType="0">
          <Node pos="l" depth="2" NCoef="0" IVar="-1" Cut="0.0000000000000000e+00" cType="1" res="9.0285148471593857e-03" rms="3.8990837335586548e-01" purity="7.9652357101440430e-01" nType="-99"/>
          <Node pos="r" depth="2" NCoef="0" IVar="-1" Cut="0.0000000000000000e+00" cType="1" res="2.2892390843480825e-03" rms="4.6303850412368774e-01" purity="6.5261000394821167e-01" nType="-99"/>
        </Node>
      </Node>
    </BinaryTree>
    <BinaryTree type="DecisionTree" boostWeight="1.0000000000000000e+00" itree="62">
      <Node pos="s" depth="0" NCoef="0" IVar="5" Cut="9.6902143955230713e-01" cType="1" res="3.3167300280183554e-03" rms="4.6904185414314270e-01" purity="5.0067102909088135e-01" nType="0">
        <Node pos="l" depth="1" NCoef="0" IVar="6" Cut="2.4578688144683838e+00" cType="1" res="-2.5522038340568542e-02" rms="4.7382393479347229e-01" purity="4.3153688311576843e-01" nType="0">
          <Node pos="l" depth="2" NCoef="0" IVar="-1" Cut="0.0000000000000000e+00" cType="1" res="-4.9119214963866398e-05" rms="4.8164182901382446e-01" purity="4.7654736042022705e-01" nType="-99"/>
          <Node pos="r" depth="2" NCoef="0" IVar="-1" Cut="0.0000000000000000e+00" cType="1" res="-5.7809581048786640e-03" rms="4.3988862633705139e-01" purity="2.9142317175865173e-01" nType="-99"/>
        </Node>
        <Node pos="r" depth="1" NCoef="0" IVar="7" Cut="6.1031150817871094e+01" cType="1" res="8.1632606685161591e-02" rms="4.4650185108184814e-01" purity="6.8841469287872314e-01" nType="0">
          <Node pos="l" depth="2" NCoef="0" IVar="-1" Cut="0.0000000000000000e+00" cType="1" res="1.1505419388413429e-03" rms="4.7235822677612305e-01" purity="5.9898334741592407e-01" nType="-99"/>
          <Node pos="r" depth="2" NCoef="0" IVar="-1" Cut="0.0000000000000000e+00" cType="1" res="6.4940382726490498e-03" rms="4.2839246988296509e-01" purity="7.3639398813247681e-01" nType="-99"/>
        </Node>
      </Node>
    </BinaryTree>
    <BinaryTree type="DecisionTree" boostWeight="1.0000000000000000e+00" itree="63">
      <Node pos="s" depth="0" NCoef="0" IVar="5" Cut="9.7236591577529907e-01" cType="1" res="-8.0940462648868561e-03" rms="4.6819347143173218e-01" purity="4.8986214399337769e-01" nType="0">
        <Node pos="l" depth="1" NCoef="0" IVar="1" Cut="4.5983178710937500e+02" cType="1" res="-3.3653475344181061e-02" rms="4.7190099954605103e-01" purity="4.2672824859619141e-01" nType="0">
          <Node pos="l" depth="2" NCoef="0" IVar="-1" Cut="0.0000000000000000e+00" cType="1" res="-5.3495243191719055e-03" rms="4.4665247201919556e-01" purity="3.0989590287208557e-01" nType="-99"/>
          <Node pos="r" depth="2" NCoef="0" IVar="-1" Cut="0.0000000000000000e+00" cType="1" res="-1.6818710719235241e-04" rms="4.8105990886688232e-01" purity="4.8484578728675842e-01" nType="-99"/>
        </Node>
        <Node pos="r" depth="1" NCoef="0" IVar="6" Cut="2.4335536956787109e+00" cType="1" res="7.4130237102508545e-02" rms="4.4623994827270508e-01" purity="6.9296288490295410e-01" nType="0">
          <Node pos="l" depth="2" NCoef="0" IVar="-1" Cut="0.0000000000000000e+00" cType="1" res="5.6354468688368797e-03" rms="4.3320834636688232e-01" purity="7.3671638965606689e-01" nType="-99"/>
          <Node pos="r" depth="2" NCoef="0" IVar="-1" Cut="0.0000000000000000e+00" cType="1" res="-4.4118924415670335e-04" rms="4.8015615344047546e-01" purity="5.3987264633178711e-01" nType="-99"/>
        </Node>
      </Node>
    </BinaryTree>
    <BinaryTree type="DecisionTree" boostWeight="1.0000000000000000e+00" itree="64">
      <Node pos="s" depth="0" NCoef="0" IVar="6" Cut="2.7199840545654297e+00" cType="1" res="2.3705104831606150e-03" rms="4.6925604343414307e-01" purity="5.0074720382690430e-01" nType="0">
        <Node pos="l" depth="1" NCoef="0" IVar="1" Cut="5.2865069580078125e+02" cType="1" res="1.6830345615744591e-02" rms="4.7133013606071472e-01" purity="5.2672308683395386e-01" nType="0">
          <Node pos="l" depth="2" NCoef="0" IVar="-1" Cut="0.0000000000000000e+00" cType="1" res="-1.5308235306292772e-03" rms="4.6938589215278625e-01" purity="4.4905534386634827e-01" nType="-99"/>
          <Node pos="r" depth="2" NCoef="0" IVar="-1" Cut="0.0000000000000000e+00" cType="1" res="3.2677468843758106e-03" rms="4.6923312544822693e-01" purity="6.0171419382095337e-01" nType="-99"/>
        </Node>
        <Node pos="r" depth="1" NCoef="0" IVar="-1" Cut="0.0000000000000000e+00" cType="1" res="-7.2933677583932877e-03" rms="4.2855161428451538e-01" purity="2.6622200012207031e-01" nType="-99"/>
      </Node>
    </BinaryTree>
    <BinaryTree type="DecisionTree" boostWeight="1.0000000000000000e+00" itree="65">
      <Node pos="s" depth="0" NCoef="0" IVar="5" Cut="9.5263731479644775e-01" cType="1" res="3.2004495151340961e-03" rms="4.6949565410614014e-01" purity="5.0180101394653320e-01" nType="0">
        <Node pos="l" depth="1" NCoef="0" IVar="7" Cut="8.7228408813476562e+01" cType="1" res="-3.9498552680015564e-02" rms="4.7006025910377502e-01" purity="3.9092329144477844e-01" nType="0">
          <Node pos="l" depth="2" NCoef="0" IVar="-1" Cut="0.0000000000000000e+00" cType="1" res="-3.4780399873852730e-03" rms="4.6228277683258057e-01" purity="3.5327738523483276e-01" nType="-99"/>
          <Node pos="r" depth="2" NCoef="0" IVar="-1" Cut="0.0000000000000000e+00" cType="1" res="1.9427480874583125e-03" rms="4.8648944497108459e-01" purity="5.1165288686752319e-01" nType="-99"/>
        </Node>
        <Node pos="r" depth="1" NCoef="0" IVar="1" Cut="5.6252929687500000e+02" cType="1" res="4.6329766511917114e-02" rms="4.6496087312698364e-01" purity="6.1379605531692505e-01" nType="0">
          <Node pos="l" depth="2" NCoef="0" IVar="-1" Cut="0.0000000000000000e+00" cType="1" res="4.5225681969895959e-04" rms="4.7458049654960632e-01" purity="5.5330896377563477e-01" nType="-99"/>
          <Node pos="r" depth="2" NCoef="0" IVar="-1" Cut="0.0000000000000000e+00" cType="1" res="5.4187257774174213e-03" rms="4.4684159755706787e-01" purity="6.9409102201461792e-01" nType="-99"/>
        </Node>
      </Node>
    </BinaryTree>
    <BinaryTree type="DecisionTree" boostWeight="1.0000000000000000e+00" itree="66">
      <Node pos="s" depth="0" NCoef="0" IVar="6" Cut="2.4658038616180420e+00" cType="1" res="1.6878023743629456e-03" rms="4.6820375323295593e-01" purity="5.0077331066131592e-01" nType="0">
        <Node pos="l" depth="1" NCoef="0" IVar="7" Cut="6.0960243225097656e+01" cType="1" res="2.5040304288268089e-02" rms="4.6994161605834961e-01" purity="5.4647910594940186e-01" nType="0">
          <Node pos="l" depth="2" NCoef="0" IVar="-1" Cut="0.0000000000000000e+00" cType="1" res="-1.9363162573426962e-03" rms="4.6914187073707581e-01" purity="4.4402951002120972e-01" nType="-99"/>
          <Node pos="r" depth="2" NCoef="0" IVar="-1" Cut="0.0000000000000000e+00" cType="1" res="3.2958004157990217e-03" rms="4.6683865785598755e-01" purity="6.0660618543624878e-01" nType="-99"/>
        </Node>
        <Node pos="r" depth="1" NCoef="0" IVar="6" Cut="2.8545405864715576e+00" cType="1" res="-7.7840022742748260e-02" rms="4.5329970121383667e-01" purity="3.4512034058570862e-01" nType="0">
          <Node pos="l" depth="2" NCoef="0" IVar="-1" Cut="0.0000000000000000e+00" cType="1" res="-2.5286138989031315e-03" rms="4.6544352173805237e-01" purity="3.8952794671058655e-01" nType="-99"/>
          <Node pos="r" depth="2" NCoef="0" IVar="-1" Cut="0.0000000000000000e+00" cType="1" res="-9.7540905699133873e-03" rms="4.0443208813667297e-01" purity="2.2296307981014252e-01" nType="-99"/>
        </Node>
      </Node>
    </BinaryTree>
    <BinaryTree type="DecisionTree" boostWeight="1.0000000000000000e+00" itree="67">
      <Node pos="s" depth="0" NCoef="0" IVar="0" Cut="3.8879771232604980e+00" cType="1" res="-1.6887408855836838e-04" rms="4.6728733181953430e-01" purity="4.9958482384681702e-01" nType="0">
        <Node pos="l" depth="1" NCoef="0" IVar="1" Cut="4.0255712890625000e+02" cType="1" res="-3.0590016394853592e-02" rms="4.7348123788833618e-01" purity="4.2321911454200745e-01" nType="0">
          <Node pos="l" depth="2" NCoef="0" IVar="-1" Cut="0.0000000000000000e+00" cType="1" res="-7.1159587241709232e-03" rms="4.2639926075935364e-01" purity="2.6514533162117004e-01" nType="-99"/>
          <Node pos="r" depth="2" NCoef="0" IVar="-1" Cut="0.0000000000000000e+00" cType="1" res="-6.1896000988781452e-04" rms="4.8041594028472900e-01" purity="4.5601558685302734e-01" nType="-99"/>
        </Node>
        <Node pos="r" depth="1" NCoef="0" IVar="7" Cut="5.9253097534179688e+01" cType="1" res="8.7237574160099030e-02" rms="4.3739718198776245e-01" purity="7.1899986267089844e-01" nType="0">
          <Node pos="l" depth="2" NCoef="0" IVar="-1" Cut="0.0000000000000000e+00" cType="1" res="1.5889881178736687e-03" rms="4.6858102083206177e-01" purity="6.2994521856307983e-01" nType="-99"/>
          <Node pos="r" depth="2" NCoef="0" IVar="-1" Cut="0.0000000000000000e+00" cType="1" res="6.2210597097873688e-03" rms="4.2172735929489136e-01" purity="7.5535386800765991e-01" nType="-99"/>
        </Node>
      </Node>
    </BinaryTree>
    <BinaryTree type="DecisionTree" boostWeight="1.0000000000000000e+00" itree="68">
      <Node pos="s" depth="0" NCoef="0" IVar="0" Cut="3.5636909008026123e+00" cType="1" res="2.7486474718898535e-03" rms="4.6687123179435730e-01" purity="5.0316816568374634e-01" nType="0">
        <Node pos="l" depth="1" NCoef="0" IVar="1" Cut="4.2381866455078125e+02" cType="1" res="-2.9177471995353699e-02" rms="4.7281429171562195e-01" purity="4.1348513960838318e-01" nType="0">
          <Node pos="l" depth="2" NCoef="0" IVar="-1" Cut="0.0000000000000000e+00" cType="1" res="-6.1359647661447525e-03" rms="4.3291753530502319e-01" purity="2.7533960342407227e-01" nType="-99"/>
          <Node pos="r" depth="2" NCoef="0" IVar="-1" Cut="0.0000000000000000e+00" cType="1" res="-3.9932070649228990e-04" rms="4.8149570822715759e-01" purity="4.5335018634796143e-01" nType="-99"/>
        </Node>
        <Node pos="r" depth="1" NCoef="0" IVar="4" Cut="2.3193666338920593e-01" cType="1" res="7.0028126239776611e-02" rms="4.4668278098106384e-01" purity="6.9216173887252808e-01" nType="0">
          <Node pos="l" depth="2" NCoef="0" IVar="-1" Cut="0.0000000000000000e+00" cType="1" res="-1.0075124446302652e-03" rms="4.7244644165039062e-01" purity="5.8641535043716431e-01" nType="-99"/>
          <Node pos="r" depth="2" NCoef="0" IVar="-1" Cut="0.0000000000000000e+00" cType="1" res="5.2580693736672401e-03" rms="4.3585878610610962e-01" purity="7.2212809324264526e-01" nType="-99"/>
        </Node>
      </Node>
    </BinaryTree>
    <BinaryTree type="DecisionTree" boostWeight="1.0000000000000000e+00" itree="69">
      <Node pos="s" depth="0" NCoef="0" IVar="6" Cut="2.7244384288787842e+00" cType="1" res="5.0209397450089455e-03" rms="4.6788680553436279e-01" purity="5.0483959913253784e-01" nType="0">
        <Node pos="l" depth="1" NCoef="0" IVar="5" Cut="9.3029022216796875e-01" cType="1" res="1.8909875303506851e-02" rms="4.7018045186996460e-01" purity="5.3125500679016113e-01" nType="0">
          <Node pos="l" depth="2" NCoef="0" IVar="-1" Cut="0.0000000000000000e+00" cType="1" res="-3.3202536869794130e-03" rms="4.6282386779785156e-01" purity="3.5496294498443604e-01" nType="-99"/>
          <Node pos="r" depth="2" NCoef="0" IVar="-1" Cut="0.0000000000000000e+00" cType="1" res="2.2212176118046045e-03" rms="4.6984156966209412e-01" purity="5.7733714580535889e-01" nType="-99"/>
        </Node>
        <Node pos="r" depth="1" NCoef="0" IVar="-1" Cut="0.0000000000000000e+00" cType="1" res="-7.0735379122197628e-03" rms="4.2579016089439392e-01" purity="2.6305487751960754e-01" nType="-99"/>
      </Node>
    </BinaryTree>
    <BinaryTree type="DecisionTree" boostWeight="1.0000000000000000e+00" itree="70">
      <Node pos="s" depth="0" NCoef="0" IVar="1" Cut="5.5129882812500000e+02" cType="1" res="1.1831743177026510e-03" rms="4.6664655208587646e-01" purity="5.0241070985794067e-01" nType="0">
        <Node pos="l" depth="1" NCoef="0" IVar="5" Cut="9.8372048139572144e-01" cType="1" res="-3.7495844066143036e-02" rms="4.6265125274658203e-01" purity="4.3022125959396362e-01" nType="0">
          <Node pos="l" depth="2" NCoef="0" IVar="-1" Cut="0.0000000000000000e+00" cType="1" res="-3.0372729524970055e-03" rms="4.6372267603874207e-01" purity="3.9241218566894531e-01" nType="-99"/>
          <Node pos="r" depth="2" NCoef="0" IVar="-1" Cut="0.0000000000000000e+00" cType="1" res="5.4117795079946518e-03" rms="4.3269515037536621e-01" purity="7.1997940540313721e-01" nType="-99"/>
        </Node>
        <Node pos="r" depth="1" NCoef="0" IVar="4" Cut="2.4450242519378662e-01" cType="1" res="4.8800621181726456e-02" rms="4.6714091300964355e-01" purity="5.9128260612487793e-01" nType="0">
          <Node pos="l" depth="2" NCoef="0" IVar="-1" Cut="0.0000000000000000e+00" cType="1" res="-1.5268597053363919e-03" rms="4.7593244910240173e-01" purity="4.9638050794601440e-01" nType="-99"/>
          <Node pos="r" depth="2" NCoef="0" IVar="-1" Cut="0.0000000000000000e+00" cType="1" res="4.4652051292359829e-03" rms="4.5957949757575989e-01" purity="6.3131564855575562e-01" nType="-99"/>
        </Node>
      </Node>
    </BinaryTree>
    <BinaryTree type="DecisionTree" boostWeight="1.0000000000000000e+00" itree="71">
      <Node pos="s" depth="0" NCoef="0" IVar="7" Cut="5.3080059051513672e+01" cType="1" res="-5.1566888578236103e-03" rms="4.6824887394905090e-01" purity="4.9438497424125671e-01" nType="0">
        <Node pos="l" depth="1" NCoef="0" IVar="4" Cut="4.6306374669075012e-01" cType="1" res="-7.9170212149620056e-02" rms="4.5839586853981018e-01" purity="3.6727678775787354e-01" nType="0">
          <Node pos="l" depth="2" NCoef="0" IVar="-1" Cut="0.0000000000000000e+00" cType="1" res="-6.2291342765092850e-03" rms="4.4658440351486206e-01" purity="3.3279678225517273e-01" nType="-99"/>
          <Node pos="r" depth="2" NCoef="0" IVar="-1" Cut="0.0000000000000000e+00" cType="1" res="-1.8226123647764325e-03" rms="4.7176736593246460e-01" purity="4.1919109225273132e-01" nType="-99"/>
        </Node>
        <Node pos="r" depth="1" NCoef="0" IVar="0" Cut="2.1888842582702637e+00" cType="1" res="1.8562067300081253e-02" rms="4.6889749169349670e-01" purity="5.3511869907379150e-01" nType="0">
          <Node pos="l" depth="2" NCoef="0" IVar="-1" Cut="0.0000000000000000e+00" cType="1" res="-2.1663974039256573e-03" rms="4.7118121385574341e-01" purity="3.6832773685455322e-01" nType="-99"/>
          <Node pos="r" depth="2" NCoef="0" IVar="-1" Cut="0.0000000000000000e+00" cType="1" res="2.5498946197330952e-03" rms="4.6518900990486145e-01" purity="6.1869251728057861e-01" nType="-99"/>
        </Node>
      </Node>
    </BinaryTree>
    <BinaryTree type="DecisionTree" boostWeight="1.0000000000000000e+00" itree="72">
      <Node pos="s" depth="0" NCoef="0" IVar="5" Cut="9.7626101970672607e-01" cType="1" res="1.5599895050399937e-05" rms="4.6697750687599182e-01" purity="4.9810120463371277e-01" nType="0">
        <Node pos="l" depth="1" NCoef="0" IVar="6" Cut="2.1897189617156982e+00" cType="1" res="-2.1388577297329903e-02" rms="4.7240236401557922e-01" purity="4.4612136483192444e-01" nType="0">
          <Node pos="l" depth="2" NCoef="0" IVar="-1" Cut="0.0000000000000000e+00" cType="1" res="1.1523403227329254e-03" rms="4.7880783677101135e-01" purity="5.1623600721359253e-01" nType="-99"/>
          <Node pos="r" depth="2" NCoef="0" IVar="-1" Cut="0.0000000000000000e+00" cType="1" res="-3.2990202307701111e-03" rms="4.6342995762825012e-01" purity="3.8436168432235718e-01" nType="-99"/>
        </Node>
        <Node pos="r" depth="1" NCoef="0" IVar="5" Cut="9.8675101995468140e-01" cType="1" res="9.3098305165767670e-02" rms="4.3040636181831360e-01" purity="7.2415155172348022e-01" nType="0">
          <Node pos="l" depth="2" NCoef="0" IVar="-1" Cut="0.0000000000000000e+00" cType="1" res="2.8047868981957436e-03" rms="4.5696166157722473e-01" purity="6.6027712821960449e-01" nType="-99"/>
          <Node pos="r" depth="2" NCoef="0" IVar="-1" Cut="0.0000000000000000e+00" cType="1" res="8.4349075332283974e-03" rms="3.9248862862586975e-01" purity="7.9584741592407227e-01" nType="-99"/>
        </Node>
      </Node>
    </BinaryTree>
    <BinaryTree type="DecisionTree" boostWeight="1.0000000000000000e+00" itree="73">
      <Node pos="s" depth="0" NCoef="0" IVar="5" Cut="9.6418774127960205e-01" cType="1" res="2.4815045762807131e-03" rms="4.6485373377799988e-01" purity="5.0195622444152832e-01" nType="0">
        <Node pos="l" depth="1" NCoef="0" IVar="1" Cut="5.8396923828125000e+02" cType="1" res="-3.1211551278829575e-02" rms="4.6864137053489685e-01" purity="4.1597345471382141e-01" nType="0">
          <Node pos="l" depth="2" NCoef="0" IVar="-1" Cut="0.0000000000000000e+00" cType="1" res="-3.8238714914768934e-03" rms="4.5651134848594666e-01" purity="3.4920808672904968e-01" nType="-99"/>
          <Node pos="r" depth="2" NCoef="0" IVar="-1" Cut="0.0000000000000000e+00" cType="1" res="1.7325262306258082e-03" rms="4.8195046186447144e-01" purity="5.2929043769836426e-01" nType="-99"/>
        </Node>
        <Node pos="r" depth="1" NCoef="0" IVar="6" Cut="2.2052710056304932e+00" cType="1" res="7.0359803736209869e-02" rms="4.4952344894409180e-01" purity="6.7517781257629395e-01" nType="0">
          <Node pos="l" depth="2" NCoef="0" IVar="-1" Cut="0.0000000000000000e+00" cType="1" res="6.4949803054332733e-03" rms="4.2473912239074707e-01" purity="7.4526202678680420e-01" nType="-99"/>
          <Node pos="r" depth="2" NCoef="0" IVar="-1" Cut="0.0000000000000000e+00" cType="1" res="1.3313230592757463e-03" rms="4.7128230333328247e-01" purity="5.9699702262878418e-01" nType="-99"/>
        </Node>
      </Node>
    </BinaryTree>
    <BinaryTree type="DecisionTree" boostWeight="1.0000000000000000e+00" itree="74">
      <Node pos="s" depth="0" NCoef="0" IVar="1" Cut="5.3380639648437500e+02" cType="1" res="4.0127644315361977e-03" rms="4.6790656447410583e-01" purity="5.0441867113113403e-01" nType="0">
        <Node pos="l" depth="1" NCoef="0" IVar="4" Cut="4.2077198624610901e-01" cType="1" res="-3.7162322551012039e-02" rms="4.6303641796112061e-01" purity="4.2516919970512390e-01" nType="0">
          <Node pos="l" depth="2" NCoef="0" IVar="-1" Cut="0.0000000000000000e+00" cType="1" res="-4.7346572391688824e-03" rms="4.5303103327751160e-01" purity="3.6443707346916199e-01" nType="-99"/>
          <Node pos="r" depth="2" NCoef="0" IVar="-1" Cut="0.0000000000000000e+00" cType="1" res="5.4096680833026767e-04" rms="4.6838256716728210e-01" purity="4.8694592714309692e-01" nType="-99"/>
        </Node>
        <Node pos="r" depth="1" NCoef="0" IVar="4" Cut="3.0580005049705505e-01" cType="1" res="4.7486692667007446e-02" rms="4.6908795833587646e-01" purity="5.8809268474578857e-01" nType="0">
          <Node pos="l" depth="2" NCoef="0" IVar="-1" Cut="0.0000000000000000e+00" cType="1" res="-2.2806975175626576e-04" rms="4.7594481706619263e-01" purity="5.2339637279510498e-01" nType="-99"/>
          <Node pos="r" depth="2" NCoef="0" IVar="-1" Cut="0.0000000000000000e+00" cType="1" res="4.5653684064745903e-03" rms="4.6110054850578308e-01" purity="6.3199287652969360e-01" nType="-99"/>
        </Node>
      </Node>
    </BinaryTree>
    <BinaryTree type="DecisionTree" boostWeight="1.0000000000000000e+00" itree="75">
      <Node pos="s" depth="0" NCoef="0" IVar="5" Cut="9.3701404333114624e-01" cType="1" res="6.7260558716952801e-03" rms="4.6587371826171875e-01" purity="5.0716555118560791e-01" nType="0">
        <Node pos="l" depth="1" NCoef="0" IVar="4" Cut="5.0794571638107300e-01" cType="1" res="-6.2171604484319687e-02" rms="4.5602366328239441e-01" purity="3.4412613511085510e-01" nType="0">
          <Node pos="l" depth="2" NCoef="0" IVar="-1" Cut="0.0000000000000000e+00" cType="1" res="-5.1106098107993603e-03" rms="4.4488808512687683e-01" purity="3.1416901946067810e-01" nType="-99"/>
          <Node pos="r" depth="2" NCoef="0" IVar="-1" Cut="0.0000000000000000e+00" cType="1" res="1.0432234266772866e-03" rms="4.7557264566421509e-01" purity="4.2536354064941406e-01" nType="-99"/>
        </Node>
        <Node pos="r" depth="1" NCoef="0" IVar="6" Cut="2.3207275867462158e+00" cType="1" res="3.3281818032264709e-02" rms="4.6690848469734192e-01" purity="5.7000714540481567e-01" nType="0">
          <Node pos="l" depth="2" NCoef="0" IVar="-1" Cut="0.0000000000000000e+00" cType="1" res="3.3512285444885492e-03" rms="4.6157631278038025e-01" purity="6.2587535381317139e-01" nType="-99"/>
          <Node pos="r" depth="2" NCoef="0" IVar="-1" Cut="0.0000000000000000e+00" cType="1" res="-9.6407538512721658e-04" rms="4.7283038496971130e-01" purity="4.6333524584770203e-01" nType="-99"/>
        </Node>
      </Node>
    </BinaryTree>
    <BinaryTree type="DecisionTree" boostWeight="1.0000000000000000e+00" itree="76">
      <Node pos="s" depth="0" NCoef="0" IVar="0" Cut="3.6040441989898682e+00" cType="1" res="-1.7671581008471549e-04" rms="4.6548578143119812e-01" purity="4.9756205081939697e-01" nType="0">
        <Node pos="l" depth="1" NCoef="0" IVar="4" Cut="5.0823658704757690e-01" cType="1" res="-2.7586944401264191e-02" rms="4.7126942873001099e-01" purity="4.1186371445655823e-01" nType="0">
          <Node pos="l" depth="2" NCoef="0" IVar="-1" Cut="0.0000000000000000e+00" cType="1" res="-3.0402939300984144e-03" rms="4.6572992205619812e-01" purity="3.8170295953750610e-01" nType="-99"/>
          <Node pos="r" depth="2" NCoef="0" IVar="-1" Cut="0.0000000000000000e+00" cType="1" res="1.8768947338685393e-03" rms="4.7834655642509460e-01" purity="4.8222860693931580e-01" nType="-99"/>
        </Node>
        <Node pos="r" depth="1" NCoef="0" IVar="5" Cut="9.8434227705001831e-01" cType="1" res="6.1449363827705383e-02" rms="4.4610446691513062e-01" purity="6.9023644924163818e-01" nType="0">
          <Node pos="l" depth="2" NCoef="0" IVar="-1" Cut="0.0000000000000000e+00" cType="1" res="2.1960076410323381e-03" rms="4.6290996670722961e-01" purity="6.4936470985412598e-01" nType="-99"/>
          <Node pos="r" depth="2" NCoef="0" IVar="-1" Cut="0.0000000000000000e+00" cType="1" res="7.2663025930523872e-03" rms="3.8731855154037476e-01" purity="8.0772322416305542e-01" nType="-99"/>
        </Node>
      </Node>
    </BinaryTree>
    <BinaryTree type="DecisionTree" boostWeight="1.0000000000000000e+00" itree="77">
      <Node pos="s" depth="0" NCoef="0" IVar="5" Cut="9.4879710674285889e-01" cType="1" res="8.1349993124604225e-03" rms="4.6566596627235413e-01" purity="5.0749653577804565e-01" nType="0">
        <Node pos="l" depth="1" NCoef="0" IVar="1" Cut="3.9644131469726562e+02" cType="1" res="-3.7124734371900558e-02" rms="4.6500864624977112e-01" purity="3.8049584627151489e-01" nType="0">
          <Node pos="l" depth="2" NCoef="0" IVar="-1" Cut="0.0000000000000000e+00" cType="1" res="-7.4622919782996178e-03" rms="3.9723905920982361e-01" purity="2.1298867464065552e-01" nType="-99"/>
          <Node pos="r" depth="2" NCoef="0" IVar="-1" Cut="0.0000000000000000e+00" cType="1" res="-1.2101683532819152e-03" rms="4.7393417358398438e-01" purity="4.0895399451255798e-01" nType="-99"/>
        </Node>
        <Node pos="r" depth="1" NCoef="0" IVar="6" Cut="2.6251382827758789e+00" cType="1" res="4.4092062860727310e-02" rms="4.6304479241371155e-01" purity="6.0839360952377319e-01" nType="0">
          <Node pos="l" depth="2" NCoef="0" IVar="-1" Cut="0.0000000000000000e+00" cType="1" res="3.3388917800039053e-03" rms="4.5996624231338501e-01" purity="6.3974994421005249e-01" nType="-99"/>
          <Node pos="r" depth="2" NCoef="0" IVar="-1" Cut="0.0000000000000000e+00" cType="1" res="-3.9044036529958248e-03" rms="4.6990895271301270e-01" purity="3.7743949890136719e-01" nType="-99"/>
        </Node>
      </Node>
    </BinaryTree>
    <BinaryTree type="DecisionTree" boostWeight="1.0000000000000000e+00" itree="78">
      <Node pos="s" depth="0" NCoef="0" IVar="5" Cut="9.2943227291107178e-01" cType="1" res="-1.0309619829058647e-03" rms="4.6497079730033875e-01" purity="4.9870577454566956e-01" nType="0">
        <Node pos="l" depth="1" NCoef="0" IVar="6" Cut="2.3619322776794434e+00" cType="1" res="-8.8927552103996277e-02" rms="4.4351661205291748e-01" purity="3.0912226438522339e-01" nType="0">
          <Node pos="l" depth="2" NCoef="0" IVar="-1" Cut="0.0000000000000000e+00" cType="1" res="-3.2302574254572392e-03" rms="4.6294513344764709e-01" purity="3.6243173480033875e-01" nType="-99"/>
          <Node pos="r" depth="2" NCoef="0" IVar="-1" Cut="0.0000000000000000e+00" cType="1" res="-8.4862746298313141e-03" rms="3.9694547653198242e-01" purity="2.0498079061508179e-01" nType="-99"/>
        </Node>
        <Node pos="r" depth="1" NCoef="0" IVar="1" Cut="6.1828204345703125e+02" cType="1" res="2.1400867030024529e-02" rms="4.6765071153640747e-01" purity="5.4708874225616455e-01" nType="0">
          <Node pos="l" depth="2" NCoef="0" IVar="-1" Cut="0.0000000000000000e+00" cType="1" res="-2.2558533237315714e-04" rms="4.6936362981796265e-01" purity="5.0108540058135986e-01" nType="-99"/>
          <Node pos="r" depth="2" NCoef="0" IVar="-1" Cut="0.0000000000000000e+00" cType="1" res="4.2119324207305908e-03" rms="4.5934337377548218e-01" purity="6.4483308792114258e-01" nType="-99"/>
        </Node>
      </Node>
    </BinaryTree>
    <BinaryTree type="DecisionTree" boostWeight="1.0000000000000000e+00" itree="79">
      <Node pos="s" depth="0" NCoef="0" IVar="0" Cut="4.3084597587585449e+00" cType="1" res="3.3803759142756462e-03" rms="4.6526533365249634e-01" purity="5.0282508134841919e-01" nType="0">
        <Node pos="l" depth="1" NCoef="0" IVar="6" Cut="2.1763103008270264e+00" cType="1" res="-1.5611588954925537e-02" rms="4.7178804874420166e-01" purity="4.4950860738754272e-01" nType="0">
          <Node pos="l" depth="2" NCoef="0" IVar="-1" Cut="0.0000000000000000e+00" cType="1" res="1.5547112561762333e-03" rms="4.7676655650138855e-01" purity="5.2626425027847290e-01" nType="-99"/>
          <Node pos="r" depth="2" NCoef="0" IVar="-1" Cut="0.0000000000000000e+00" cType="1" res="-2.9053145553916693e-03" rms="4.6463903784751892e-01" purity="3.8710570335388184e-01" nType="-99"/>
        </Node>
        <Node pos="r" depth="1" NCoef="0" IVar="6" Cut="2.2382495403289795e+00" cType="1" res="8.9586719870567322e-02" rms="4.2386251688003540e-01" purity="7.4483358860015869e-01" nType="0">
          <Node pos="l" depth="2" NCoef="0" IVar="-1" Cut="0.0000000000000000e+00" cType="1" res="7.4367807246744633e-03" rms="3.8990920782089233e-01" purity="8.0803996324539185e-01" nType="-99"/>
          <Node pos="r" depth="2" NCoef="0" IVar="-1" Cut="0.0000000000000000e+00" cType="1" res="2.3131500929594040e-03" rms="4.6082428097724915e-01" purity="6.6078680753707886e-01" nType="-99"/>
        </Node>
      </Node>
    </BinaryTree>
    <BinaryTree type="DecisionTree" boostWeight="1.0000000000000000e+00" itree="80">
      <Node pos="s" depth="0" NCoef="0" IVar="5" Cut="9.6031337976455688e-01" cType="1" res="3.7078170862514526e-05" rms="4.6448963880538940e-01" purity="4.9641531705856323e-01" nType="0">
        <Node pos="l" depth="1" NCoef="0" IVar="1" Cut="5.8970086669921875e+02" cType="1" res="-3.1625047326087952e-02" rms="4.6696153283119202e-01" purity="4.0252238512039185e-01" nType="0">
          <Node pos="l" depth="2" NCoef="0" IVar="-1" Cut="0.0000000000000000e+00" cType="1" res="-3.3103700261563063e-03" rms="4.5421433448791504e-01" purity="3.4592178463935852e-01" nType="-99"/>
          <Node pos="r" depth="2" NCoef="0" IVar="-1" Cut="0.0000000000000000e+00" cType="1" res="1.0335616534575820e-03" rms="4.8569807410240173e-01" purity="5.0767701864242554e-01" nType="-99"/>
        </Node>
        <Node pos="r" depth="1" NCoef="0" IVar="6" Cut="2.2570633888244629e+00" cType="1" res="5.1074098795652390e-02" rms="4.5587122440338135e-01" purity="6.4776384830474854e-01" nType="0">
          <Node pos="l" depth="2" NCoef="0" IVar="-1" Cut="0.0000000000000000e+00" cType="1" res="5.1427329890429974e-03" rms="4.3582636117935181e-01" purity="7.1719712018966675e-01" nType="-99"/>
          <Node pos="r" depth="2" NCoef="0" IVar="-1" Cut="0.0000000000000000e+00" cType="1" res="-1.4348687545862049e-04" rms="4.7788372635841370e-01" purity="5.4890465736389160e-01" nType="-99"/>
        </Node>
      </Node>
    </BinaryTree>
    <BinaryTree type="DecisionTree" boostWeight="1.0000000000000000e+00" itree="81">
      <Node pos="s" depth="0" NCoef="0" IVar="5" Cut="9.5254892110824585e-01" cType="1" res="2.3033176548779011e-03" rms="4.6277347207069397e-01" purity="5.0107228755950928e-01" nType="0">
        <Node pos="l" depth="1" NCoef="0" IVar="4" Cut="3.3620363473892212e-01" cType="1" res="-4.2129188776016235e-02" rms="4.6247932314872742e-01" purity="3.7986207008361816e-01" nType="0">
          <Node pos="l" depth="2" NCoef="0" IVar="-1" Cut="0.0000000000000000e+00" cType="1" res="-4.9983691424131393e-03" rms="4.4789075851440430e-01" purity="3.2761099934577942e-01" nType="-99"/>
          <Node pos="r" depth="2" NCoef="0" IVar="-1" Cut="0.0000000000000000e+00" cType="1" res="-2.9890812584199011e-04" rms="4.7022441029548645e-01" purity="4.2040449380874634e-01" nType="-99"/>
        </Node>
        <Node pos="r" depth="1" NCoef="0" IVar="8" Cut="8.8276958465576172e-01" cType="1" res="4.7896202653646469e-02" rms="4.5862188935279846e-01" purity="6.2544792890548706e-01" nType="0">
          <Node pos="l" depth="2" NCoef="0" IVar="-1" Cut="0.0000000000000000e+00" cType="1" res="5.6830844841897488e-03" rms="4.3961584568023682e-01" purity="6.9101256132125854e-01" nType="-99"/>
          <Node pos="r" depth="2" NCoef="0" IVar="-1" Cut="0.0000000000000000e+00" cType="1" res="1.1928025633096695e-03" rms="4.6570041775703430e-01" purity="5.9208047389984131e-01" nType="-99"/>
        </Node>
      </Node>
    </BinaryTree>
    <BinaryTree type="DecisionTree" boostWeight="1.0000000000000000e+00" itree="82">
      <Node pos="s" depth="0" NCoef="0" IVar="1" Cut="5.8317150878906250e+02" cType="1" res="3.8361013866961002e-03" rms="4.6654120087623596e-01" purity="5.0348412990570068e-01" nType="0">
        <Node pos="l" depth="1" NCoef="0" IVar="4" Cut="3.6886617541313171e-01" cType="1" res="-2.4511935189366341e-02" rms="4.6422603726387024e-01" purity="4.4615533947944641e-01" nType="0">
          <Node pos="l" depth="2" NCoef="0" IVar="-1" Cut="0.0000000000000000e+00" cType="1" res="-4.1040717624127865e-03" rms="4.5678579807281494e-01" purity="3.8080006837844849e-01" nType="-99"/>
          <Node pos="r" depth="2" NCoef="0" IVar="-1" Cut="0.0000000000000000e+00" cType="1" res="5.8345380239188671e-04" rms="4.6658092737197876e-01" purity="4.9439027905464172e-01" nType="-99"/>
        </Node>
        <Node pos="r" depth="1" NCoef="0" IVar="4" Cut="3.2277464866638184e-01" cType="1" res="5.1069799810647964e-02" rms="4.6656310558319092e-01" purity="5.9900587797164917e-01" nType="0">
          <Node pos="l" depth="2" NCoef="0" IVar="-1" Cut="0.0000000000000000e+00" cType="1" res="5.9427536325529218e-04" rms="4.7466024756431580e-01" purity="5.3967916965484619e-01" nType="-99"/>
          <Node pos="r" depth="2" NCoef="0" IVar="-1" Cut="0.0000000000000000e+00" cType="1" res="4.7184475697577000e-03" rms="4.5695969462394714e-01" purity="6.4855164289474487e-01" nType="-99"/>
        </Node>
      </Node>
    </BinaryTree>
    <BinaryTree type="DecisionTree" boostWeight="1.0000000000000000e+00" itree="83">
      <Node pos="s" depth="0" NCoef="0" IVar="5" Cut="9.4492197036743164e-01" cType="1" res="4.3946597725152969e-03" rms="4.6509602665901184e-01" purity="5.0432795286178589e-01" nType="0">
        <Node pos="l" depth="1" NCoef="0" IVar="4" Cut="3.9381802082061768e-01" cType="1" res="-4.4626589864492416e-02" rms="4.5990502834320068e-01" purity="3.6495444178581238e-01" nType="0">
          <Node pos="l" depth="2" NCoef="0" IVar="-1" Cut="0.0000000000000000e+00" cType="1" res="-4.4452776201069355e-03" rms="4.4865810871124268e-01" purity="3.2591494917869568e-01" nType="-99"/>
          <Node pos="r" depth="2" NCoef="0" IVar="-1" Cut="0.0000000000000000e+00" cType="1" res="-2.2190381423570216e-04" rms="4.6958607435226440e-01" purity="4.1098204255104065e-01" nType="-99"/>
        </Node>
        <Node pos="r" depth="1" NCoef="0" IVar="1" Cut="5.4333850097656250e+02" cType="1" res="3.4211985766887665e-02" rms="4.6570828557014465e-01" purity="5.8910220861434937e-01" nType="0">
          <Node pos="l" depth="2" NCoef="0" IVar="-1" Cut="0.0000000000000000e+00" cType="1" res="1.1079804244218394e-04" rms="4.7327372431755066e-01" purity="5.2133935689926147e-01" nType="-99"/>
          <Node pos="r" depth="2" NCoef="0" IVar="-1" Cut="0.0000000000000000e+00" cType="1" res="3.8750257808715105e-03" rms="4.5492839813232422e-01" purity="6.6174113750457764e-01" nType="-99"/>
        </Node>
      </Node>
    </BinaryTree>
    <BinaryTree type="DecisionTree" boostWeight="1.0000000000000000e+00" itree="84">
      <Node pos="s" depth="0" NCoef="0" IVar="6" Cut="2.8096632957458496e+00" cType="1" res="4.8185396008193493e-03" rms="4.6500429511070251e-01" purity="5.0360685586929321e-01" nType="0">
        <Node pos="l" depth="1" NCoef="0" IVar="5" Cut="9.7258991003036499e-01" cType="1" res="1.6230162233114243e-02" rms="4.6757182478904724e-01" purity="5.2498704195022583e-01" nType="0">
          <Node pos="l" depth="2" NCoef="0" IVar="-1" Cut="0.0000000000000000e+00" cType="1" res="-2.8213785844855011e-04" rms="4.7572231292724609e-01" purity="4.6203166246414185e-01" nType="-99"/>
          <Node pos="r" depth="2" NCoef="0" IVar="-1" Cut="0.0000000000000000e+00" cType="1" res="5.0932955928146839e-03" rms="4.3254649639129639e-01" purity="7.3097509145736694e-01" nType="-99"/>
        </Node>
        <Node pos="r" depth="1" NCoef="0" IVar="-1" Cut="0.0000000000000000e+00" cType="1" res="-8.5409460589289665e-03" rms="4.0185269713401794e-01" purity="2.2597193717956543e-01" nType="-99"/>
      </Node>
    </BinaryTree>
    <BinaryTree type="DecisionTree" boostWeight="1.0000000000000000e+00" itree="85">
      <Node pos="s" depth="0" NCoef="0" IVar="5" Cut="9.2634153366088867e-01" cType="1" res="5.9554888866841793e-04" rms="4.6400260925292969e-01" purity="4.9927830696105957e-01" nType="0">
        <Node pos="l" depth="1" NCoef="0" IVar="4" Cut="2.5384262204170227e-01" cType="1" res="-8.0302119255065918e-02" rms="4.4419237971305847e-01" purity="3.0584847927093506e-01" nType="0">
          <Node pos="l" depth="2" NCoef="0" IVar="-1" Cut="0.0000000000000000e+00" cType="1" res="-7.9555530101060867e-03" rms="4.0815410017967224e-01" purity="2.3968672752380371e-01" nType="-99"/>
          <Node pos="r" depth="2" NCoef="0" IVar="-1" Cut="0.0000000000000000e+00" cType="1" res="-2.9928702861070633e-03" rms="4.5645055174827576e-01" purity="3.3442100882530212e-01" nType="-99"/>
        </Node>
        <Node pos="r" depth="1" NCoef="0" IVar="6" Cut="2.4128830432891846e+00" cType="1" res="1.8377626314759254e-02" rms="4.6636724472045898e-01" purity="5.4179602861404419e-01" nType="0">
          <Node pos="l" depth="2" NCoef="0" IVar="-1" Cut="0.0000000000000000e+00" cType="1" res="2.2946407552808523e-03" rms="4.6578586101531982e-01" purity="5.9253191947937012e-01" nType="-99"/>
          <Node pos="r" depth="2" NCoef="0" IVar="-1" Cut="0.0000000000000000e+00" cType="1" res="-2.4479932617396116e-03" rms="4.6245181560516357e-01" purity="4.0259391069412231e-01" nType="-99"/>
        </Node>
      </Node>
    </BinaryTree>
    <BinaryTree type="DecisionTree" boostWeight="1.0000000000000000e+00" itree="86">
      <Node pos="s" depth="0" NCoef="0" IVar="7" Cut="7.0918518066406250e+01" cType="1" res="3.8697456475347281e-03" rms="4.6545708179473877e-01" purity="5.0413239002227783e-01" nType="0">
        <Node pos="l" depth="1" NCoef="0" IVar="0" Cut="1.7048158645629883e+00" cType="1" res="-2.8591448441147804e-02" rms="4.6200889348983765e-01" purity="4.3639457225799561e-01" nType="0">
          <Node pos="l" depth="2" NCoef="0" IVar="-1" Cut="0.0000000000000000e+00" cType="1" res="-5.8887898921966553e-03" rms="4.1982179880142212e-01" purity="2.4600084125995636e-01" nType="-99"/>
          <Node pos="r" depth="2" NCoef="0" IVar="-1" Cut="0.0000000000000000e+00" cType="1" res="-3.6516756517812610e-04" rms="4.7300493717193604e-01" purity="4.9900969862937927e-01" nType="-99"/>
        </Node>
        <Node pos="r" depth="1" NCoef="0" IVar="4" Cut="2.8736254572868347e-01" cType="1" res="4.4808752834796906e-02" rms="4.6656045317649841e-01" purity="5.8956116437911987e-01" nType="0">
          <Node pos="l" depth="2" NCoef="0" IVar="-1" Cut="0.0000000000000000e+00" cType="1" res="-1.2212269939482212e-04" rms="4.7083818912506104e-01" purity="5.2191597223281860e-01" nType="-99"/>
          <Node pos="r" depth="2" NCoef="0" IVar="-1" Cut="0.0000000000000000e+00" cType="1" res="3.8913865573704243e-03" rms="4.6230536699295044e-01" purity="6.2569493055343628e-01" nType="-99"/>
        </Node>
      </Node>
    </BinaryTree>
    <BinaryTree type="DecisionTree" boostWeight="1.0000000000000000e+00" itree="87">
      <Node pos="s" depth="0" NCoef="0" IVar="5" Cut="9.2993128299713135e-01" cType="1" res="1.0411040857434273e-03" rms="4.6562579274177551e-01" purity="5.0252515077590942e-01" nType="0">
        <Node pos="l" depth="1" NCoef="0" IVar="4" Cut="2.7704828977584839e-01" cType="1" res="-7.1015484631061554e-02" rms="4.5036774873733521e-01" purity="3.1912460923194885e-01" nType="0">
          <Node pos="l" depth="2" NCoef="0" IVar="-1" Cut="0.0000000000000000e+00" cType="1" res="-6.7804111167788506e-03" rms="4.2344313859939575e-01" purity="2.5896096229553223e-01" nType="-99"/>
          <Node pos="r" depth="2" NCoef="0" IVar="-1" Cut="0.0000000000000000e+00" cType="1" res="-2.5856045540422201e-03" rms="4.6164339780807495e-01" purity="3.4987017512321472e-01" nType="-99"/>
        </Node>
        <Node pos="r" depth="1" NCoef="0" IVar="1" Cut="3.9210620117187500e+02" cType="1" res="1.9472440704703331e-02" rms="4.6766927838325500e-01" purity="5.4943710565567017e-01" nType="0">
          <Node pos="l" depth="2" NCoef="0" IVar="-1" Cut="0.0000000000000000e+00" cType="1" res="-4.6550836414098740e-03" rms="4.5660251379013062e-01" purity="3.6593112349510193e-01" nType="-99"/>
          <Node pos="r" depth="2" NCoef="0" IVar="-1" Cut="0.0000000000000000e+00" cType="1" res="1.8379846587777138e-03" rms="4.6752202510833740e-01" purity="5.7372206449508667e-01" nType="-99"/>
        </Node>
      </Node>
    </BinaryTree>
    <BinaryTree type="DecisionTree" boostWeight="1.0000000000000000e+00" itree="88">
      <Node pos="s" depth="0" NCoef="0" IVar="0" Cut="4.2872509956359863e+00" cType="1" res="-3.2183298026211560e-04" rms="4.6287116408348083e-01" purity="4.9822384119033813e-01" nType="0">
        <Node pos="l" depth="1" NCoef="0" IVar="6" Cut="2.4808998107910156e+00" cType="1" res="-2.0873092114925385e-02" rms="4.6980243921279907e-01" purity="4.4064337015151978e-01" nType="0">
          <Node pos="l" depth="2" NCoef="0" IVar="-1" Cut="0.0000000000000000e+00" cType="1" res="-6.6962493292521685e-05" rms="4.7755673527717590e-01" purity="4.8417982459068298e-01" nType="-99"/>
          <Node pos="r" depth="2" NCoef="0" IVar="-1" Cut="0.0000000000000000e+00" cType="1" res="-5.3049563430249691e-03" rms="4.3457606434822083e-01" purity="2.8801488876342773e-01" nType="-99"/>
        </Node>
        <Node pos="r" depth="1" NCoef="0" IVar="4" Cut="3.0342799425125122e-01" cType="1" res="9.2204988002777100e-02" rms="4.1794949769973755e-01" purity="7.5746536254882812e-01" nType="0">
          <Node pos="l" depth="2" NCoef="0" IVar="-1" Cut="0.0000000000000000e+00" cType="1" res="2.6541010010987520e-03" rms="4.4988873600959778e-01" purity="6.9373798370361328e-01" nType="-99"/>
          <Node pos="r" depth="2" NCoef="0" IVar="-1" Cut="0.0000000000000000e+00" cType="1" res="6.7244814708828926e-03" rms="3.9908167719841003e-01" purity="7.8932261466979980e-01" nType="-99"/>
        </Node>
      </Node>
    </BinaryTree>
    <BinaryTree type="DecisionTree" boostWeight="1.0000000000000000e+00" itree="89">
      <Node pos="s" depth="0" NCoef="0" IVar="1" Cut="4.9067282104492188e+02" cType="1" res="5.2724909037351608e-03" rms="4.6450132131576538e-01" purity="5.0565969944000244e-01" nType="0">
        <Node pos="l" depth="1" NCoef="0" IVar="5" Cut="9.3303173780441284e-01" cType="1" res="-3.9778068661689758e-02" rms="4.5790705084800720e-01" purity="4.0447124838829041e-01" nType="0">
          <Node pos="l" depth="2" NCoef="0" IVar="-1" Cut="0.0000000000000000e+00" cType="1" res="-6.4252503216266632e-03" rms="4.0678533911705017e-01" purity="2.2777427732944489e-01" nType="-99"/>
          <Node pos="r" depth="2" NCoef="0" IVar="-1" Cut="0.0000000000000000e+00" cType="1" res="-9.4048446044325829e-04" rms="4.7148799896240234e-01" purity="4.6349868178367615e-01" nType="-99"/>
        </Node>
        <Node pos="r" depth="1" NCoef="0" IVar="4" Cut="1.5550352632999420e-01" cType="1" res="3.5925786942243576e-02" rms="4.6645435690879822e-01" purity="5.7451033592224121e-01" nType="0">
          <Node pos="l" depth="2" NCoef="0" IVar="-1" Cut="0.0000000000000000e+00" cType="1" res="-4.5116916298866272e-03" rms="4.6328485012054443e-01" purity="4.2974087595939636e-01" nType="-99"/>
          <Node pos="r" depth="2" NCoef="0" IVar="-1" Cut="0.0000000000000000e+00" cType="1" res="2.9320595785975456e-03" rms="4.6452262997627258e-01" purity="5.9519124031066895e-01" nType="-99"/>
        </Node>
      </Node>
    </BinaryTree>
    <BinaryTree type="DecisionTree" boostWeight="1.0000000000000000e+00" itree="90">
      <Node pos="s" depth="0" NCoef="0" IVar="1" Cut="4.1130044555664062e+02" cType="1" res="-3.5782062332145870e-04" rms="4.6570542454719543e-01" purity="4.9998423457145691e-01" nType="0">
        <Node pos="l" depth="1" NCoef="0" IVar="4" Cut="5.1190817356109619e-01" cType="1" res="-7.3097951710224152e-02" rms="4.4679170846939087e-01" purity="3.4431311488151550e-01" nType="0">
          <Node pos="l" depth="2" NCoef="0" IVar="-1" Cut="0.0000000000000000e+00" cType="1" res="-5.8498880825936794e-03" rms="4.3581816554069519e-01" purity="3.0620032548904419e-01" nType="-99"/>
          <Node pos="r" depth="2" NCoef="0" IVar="-1" Cut="0.0000000000000000e+00" cType="1" res="-1.5890699578449130e-03" rms="4.6207869052886963e-01" purity="4.1157925128936768e-01" nType="-99"/>
        </Node>
        <Node pos="r" depth="1" NCoef="0" IVar="4" Cut="1.5792839229106903e-01" cType="1" res="1.5107603743672371e-02" rms="4.6817389130592346e-01" purity="5.3308182954788208e-01" nType="0">
          <Node pos="l" depth="2" NCoef="0" IVar="-1" Cut="0.0000000000000000e+00" cType="1" res="-4.6213143505156040e-03" rms="4.6353673934936523e-01" purity="4.0313887596130371e-01" nType="-99"/>
          <Node pos="r" depth="2" NCoef="0" IVar="-1" Cut="0.0000000000000000e+00" cType="1" res="1.5510122757405043e-03" rms="4.6730190515518188e-01" purity="5.4993081092834473e-01" nType="-99"/>
        </Node>
      </Node>
    </BinaryTree>
    <BinaryTree type="DecisionTree" boostWeight="1.0000000000000000e+00" itree="91">
      <Node pos="s" depth="0" NCoef="0" IVar="7" Cut="4.6614990234375000e+01" cType="1" res="3.3422338310629129e-03" rms="4.6590918302536011e-01" purity="5.0363934040069580e-01" nType="0">
        <Node pos="l" depth="1" NCoef="0" IVar="1" Cut="4.2000256347656250e+02" cType="1" res="-8.8158838450908661e-02" rms="4.4750431180000305e-01" purity="3.4130316972732544e-01" nType="0">
          <Node pos="l" depth="2" NCoef="0" IVar="-1" Cut="0.0000000000000000e+00" cType="1" res="-7.3000439442694187e-03" rms="4.2596098780632019e-01" purity="2.8841817378997803e-01" nType="-99"/>
          <Node pos="r" depth="2" NCoef="0" IVar="-1" Cut="0.0000000000000000e+00" cType="1" res="-2.0772255957126617e-03" rms="4.7231233119964600e-01" purity="4.1781482100486755e-01" nType="-99"/>
        </Node>
        <Node pos="r" depth="1" NCoef="0" IVar="4" Cut="2.8903433680534363e-01" cType="1" res="1.6437312588095665e-02" rms="4.6701988577842712e-01" purity="5.2687191963195801e-01" nType="0">
          <Node pos="l" depth="2" NCoef="0" IVar="-1" Cut="0.0000000000000000e+00" cType="1" res="-1.8219235353171825e-03" rms="4.6647435426712036e-01" purity="4.5522260665893555e-01" nType="-99"/>
          <Node pos="r" depth="2" NCoef="0" IVar="-1" Cut="0.0000000000000000e+00" cType="1" res="2.2874211426824331e-03" rms="4.6539032459259033e-01" purity="5.6242889165878296e-01" nType="-99"/>
        </Node>
      </Node>
    </BinaryTree>
    <BinaryTree type="DecisionTree" boostWeight="1.0000000000000000e+00" itree="92">
      <Node pos="s" depth="0" NCoef="0" IVar="5" Cut="9.3083852529525757e-01" cType="1" res="-2.6740515604615211e-03" rms="4.6381074190139771e-01" purity="4.9712967872619629e-01" nType="0">
        <Node pos="l" depth="1" NCoef="0" IVar="1" Cut="6.1852606201171875e+02" cType="1" res="-7.1618489921092987e-02" rms="4.4511795043945312e-01" purity="3.1571897864341736e-01" nType="0">
          <Node pos="l" depth="2" NCoef="0" IVar="-1" Cut="0.0000000000000000e+00" cType="1" res="-5.8787665329873562e-03" rms="4.2162576317787170e-01" purity="2.5987911224365234e-01" nType="-99"/>
          <Node pos="r" depth="2" NCoef="0" IVar="-1" Cut="0.0000000000000000e+00" cType="1" res="-1.9844633061438799e-04" rms="4.8741537332534790e-01" purity="4.4210654497146606e-01" nType="-99"/>
        </Node>
        <Node pos="r" depth="1" NCoef="0" IVar="6" Cut="2.1544764041900635e+00" cType="1" res="1.5449361875653267e-02" rms="4.6691402792930603e-01" purity="5.4481703042984009e-01" nType="0">
          <Node pos="l" depth="2" NCoef="0" IVar="-1" Cut="0.0000000000000000e+00" cType="1" res="3.1641202513128519e-03" rms="4.5917433500289917e-01" purity="6.2113511562347412e-01" nType="-99"/>
          <Node pos="r" depth="2" NCoef="0" IVar="-1" Cut="0.0000000000000000e+00" cType="1" res="-8.4405828965827823e-04" rms="4.7032335400581360e-01" purity="4.8788231611251831e-01" nType="-99"/>
        </Node>
      </Node>
    </BinaryTree>
    <BinaryTree type="DecisionTree" boostWeight="1.0000000000000000e+00" itree="93">
      <Node pos="s" depth="0" NCoef="0" IVar="5" Cut="9.3701827526092529e-01" cType="1" res="-4.0632579475641251e-04" rms="4.6383205056190491e-01" purity="4.9987137317657471e-01" nType="0">
        <Node pos="l" depth="1" NCoef="0" IVar="7" Cut="5.3080059051513672e+01" cType="1" res="-6.5165124833583832e-02" rms="4.4899418950080872e-01" purity="3.2696059346199036e-01" nType="0">
          <Node pos="l" depth="2" NCoef="0" IVar="-1" Cut="0.0000000000000000e+00" cType="1" res="-7.3852287605404854e-03" rms="3.8836780190467834e-01" purity="2.0865979790687561e-01" nType="-99"/>
          <Node pos="r" depth="2" NCoef="0" IVar="-1" Cut="0.0000000000000000e+00" cType="1" res="-2.4589009117335081e-03" rms="4.6655511856079102e-01" purity="3.6827841401100159e-01" nType="-99"/>
        </Node>
        <Node pos="r" depth="1" NCoef="0" IVar="1" Cut="6.4893737792968750e+02" cType="1" res="2.4412292987108231e-02" rms="4.6702012419700623e-01" purity="5.6613898277282715e-01" nType="0">
          <Node pos="l" depth="2" NCoef="0" IVar="-1" Cut="0.0000000000000000e+00" cType="1" res="1.5394654474221170e-04" rms="4.7164234519004822e-01" purity="5.2576893568038940e-01" nType="-99"/>
          <Node pos="r" depth="2" NCoef="0" IVar="-1" Cut="0.0000000000000000e+00" cType="1" res="4.7180321998894215e-03" rms="4.4911515712738037e-01" purity="6.7507487535476685e-01" nType="-99"/>
        </Node>
      </Node>
    </BinaryTree>
    <BinaryTree type="DecisionTree" boostWeight="1.0000000000000000e+00" itree="94">
      <Node pos="s" depth="0" NCoef="0" IVar="0" Cut="1.7567014694213867e+00" cType="1" res="-7.0165293291211128e-03" rms="4.6541595458984375e-01" purity="4.9412077665328979e-01" nType="0">
        <Node pos="l" depth="1" NCoef="0" IVar="3" Cut="9.1709293425083160e-02" cType="1" res="-6.9853842258453369e-02" rms="4.4337454438209534e-01" purity="3.0087795853614807e-01" nType="0">
          <Node pos="l" depth="2" NCoef="0" IVar="-1" Cut="0.0000000000000000e+00" cType="1" res="-3.0442604329437017e-03" rms="4.5388868451118469e-01" purity="3.2425406575202942e-01" nType="-99"/>
          <Node pos="r" depth="2" NCoef="0" IVar="-1" Cut="0.0000000000000000e+00" cType="1" res="-8.2866447046399117e-03" rms="3.9897850155830383e-01" purity="2.2148127853870392e-01" nType="-99"/>
        </Node>
        <Node pos="r" depth="1" NCoef="0" IVar="4" Cut="2.8358349204063416e-01" cType="1" res="1.1576810851693153e-02" rms="4.7013303637504578e-01" purity="5.5130064487457275e-01" nType="0">
          <Node pos="l" depth="2" NCoef="0" IVar="-1" Cut="0.0000000000000000e+00" cType="1" res="-2.1706500556319952e-03" rms="4.7444382309913635e-01" purity="4.7831186652183533e-01" nType="-99"/>
          <Node pos="r" depth="2" NCoef="0" IVar="-1" Cut="0.0000000000000000e+00" cType="1" res="1.9613478798419237e-03" rms="4.6622416377067566e-01" purity="5.8535003662109375e-01" nType="-99"/>
        </Node>
      </Node>
    </BinaryTree>
    <BinaryTree type="DecisionTree" boostWeight="1.0000000000000000e+00" itree="95">
      <Node pos="s" depth="0" NCoef="0" IVar="6" Cut="2.8759460449218750e+00" cType="1" res="-4.9024135805666447e-03" rms="4.6338981389999390e-01" purity="4.9519991874694824e-01" nType="0">
        <Node pos="l" depth="1" NCoef="0" IVar="1" Cut="4.6639492797851562e+02" cType="1" res="4.0444904007017612e-03" rms="4.6566858887672424e-01" purity="5.1283627748489380e-01" nType="0">
          <Node pos="l" depth="2" NCoef="0" IVar="-1" Cut="0.0000000000000000e+00" cType="1" res="-2.4924671743065119e-03" rms="4.5738643407821655e-01" purity="3.9562946557998657e-01" nType="-99"/>
          <Node pos="r" depth="2" NCoef="0" IVar="-1" Cut="0.0000000000000000e+00" cType="1" res="1.5198496403172612e-03" rms="4.6790438890457153e-01" purity="5.6982350349426270e-01" nType="-99"/>
        </Node>
        <Node pos="r" depth="1" NCoef="0" IVar="-1" Cut="0.0000000000000000e+00" cType="1" res="-8.9385109022259712e-03" rms="3.9803859591484070e-01" purity="2.1061971783638000e-01" nType="-99"/>
      </Node>
    </BinaryTree>
    <BinaryTree type="DecisionTree" boostWeight="1.0000000000000000e+00" itree="96">
      <Node pos="s" depth="0" NCoef="0" IVar="1" Cut="5.8740771484375000e+02" cType="1" res="-6.5108728595077991e-03" rms="4.6431022882461548e-01" purity="4.9142661690711975e-01" nType="0">
        <Node pos="l" depth="1" NCoef="0" IVar="4" Cut="5.1894897222518921e-01" cType="1" res="-3.4857783466577530e-02" rms="4.5997053384780884e-01" purity="4.3104434013366699e-01" nType="0">
          <Node pos="l" depth="2" NCoef="0" IVar="-1" Cut="0.0000000000000000e+00" cType="1" res="-3.3736578188836575e-03" rms="4.5551905035972595e-01" purity="3.9311951398849487e-01" nType="-99"/>
          <Node pos="r" depth="2" NCoef="0" IVar="-1" Cut="0.0000000000000000e+00" cType="1" res="9.1034796787425876e-04" rms="4.6520456671714783e-01" purity="5.1174712181091309e-01" nType="-99"/>
        </Node>
        <Node pos="r" depth="1" NCoef="0" IVar="5" Cut="9.2385804653167725e-01" cType="1" res="4.1833747178316116e-02" rms="4.6767202019691467e-01" purity="5.9440636634826660e-01" nType="0">
          <Node pos="l" depth="2" NCoef="0" IVar="-1" Cut="0.0000000000000000e+00" cType="1" res="-2.4941870942711830e-03" rms="4.7685179114341736e-01" purity="3.9485061168670654e-01" nType="-99"/>
          <Node pos="r" depth="2" NCoef="0" IVar="-1" Cut="0.0000000000000000e+00" cType="1" res="3.1759380362927914e-03" rms="4.6448835730552673e-01" purity="6.2799143791198730e-01" nType="-99"/>
        </Node>
      </Node>
    </BinaryTree>
    <BinaryTree type="DecisionTree" boostWeight="1.0000000000000000e+00" itree="97">
      <Node pos="s" depth="0" NCoef="0" IVar="6" Cut="2.4585251808166504e+00" cType="1" res="-1.6773481620475650e-03" rms="4.6444973349571228e-01" purity="4.9748995900154114e-01" nType="0">
        <Node pos="l" depth="1" NCoef="0" IVar="7" Cut="5.3277065277099609e+01" cType="1" res="1.7185853794217110e-02" rms="4.6769618988037109e-01" purity="5.4381871223449707e-01" nType="0">
          <Node pos="l" depth="2" NCoef="0" IVar="-1" Cut="0.0000000000000000e+00" cType="1" res="-2.7872771024703979e-03" rms="4.6194162964820862e-01" purity="4.1110527515411377e-01" nType="-99"/>
          <Node pos="r" depth="2" NCoef="0" IVar="-1" Cut="0.0000000000000000e+00" cType="1" res="2.0854691974818707e-03" rms="4.6757408976554871e-01" purity="5.8386170864105225e-01" nType="-99"/>
        </Node>
        <Node pos="r" depth="1" NCoef="0" IVar="4" Cut="3.5707172751426697e-01" cType="1" res="-6.4918793737888336e-02" rms="4.4763320684432983e-01" purity="3.4216672182083130e-01" nType="0">
          <Node pos="l" depth="2" NCoef="0" IVar="-1" Cut="0.0000000000000000e+00" cType="1" res="-6.2325797043740749e-03" rms="4.2907053232192993e-01" purity="2.9155817627906799e-01" nType="-99"/>
          <Node pos="r" depth="2" NCoef="0" IVar="-1" Cut="0.0000000000000000e+00" cType="1" res="-5.0146132707595825e-04" rms="4.6632808446884155e-01" purity="4.1221949458122253e-01" nType="-99"/>
        </Node>
      </Node>
    </BinaryTree>
    <BinaryTree type="DecisionTree" boostWeight="1.0000000000000000e+00" itree="98">
      <Node pos="s" depth="0" NCoef="0" IVar="7" Cut="6.4465553283691406e+01" cType="1" res="9.9673704244196415e-04" rms="4.6341666579246521e-01" purity="5.0072950124740601e-01" nType="0">
        <Node pos="l" depth="1" NCoef="0" IVar="5" Cut="9.6488171815872192e-01" cType="1" res="-3.4723415970802307e-02" rms="4.5931679010391235e-01" purity="4.1632071137428284e-01" nType="0">
          <Node pos="l" depth="2" NCoef="0" IVar="-1" Cut="0.0000000000000000e+00" cType="1" res="-3.3229032997041941e-03" rms="4.5270735025405884e-01" purity="3.3927521109580994e-01" nType="-99"/>
          <Node pos="r" depth="2" NCoef="0" IVar="-1" Cut="0.0000000000000000e+00" cType="1" res="1.1503306450322270e-03" rms="4.7009924054145813e-01" purity="5.9903573989868164e-01" nType="-99"/>
        </Node>
        <Node pos="r" depth="1" NCoef="0" IVar="6" Cut="2.6482071876525879e+00" cType="1" res="2.9763294383883476e-02" rms="4.6470052003860474e-01" purity="5.6870651245117188e-01" nType="0">
          <Node pos="l" depth="2" NCoef="0" IVar="-1" Cut="0.0000000000000000e+00" cType="1" res="2.3397486656904221e-03" rms="4.6414050459861755e-01" purity="5.9713107347488403e-01" nType="-99"/>
          <Node pos="r" depth="2" NCoef="0" IVar="-1" Cut="0.0000000000000000e+00" cType="1" res="-3.7543373182415962e-03" rms="4.5814880728721619e-01" purity="3.3905202150344849e-01" nType="-99"/>
        </Node>
      </Node>
    </BinaryTree>
    <BinaryTree type="DecisionTree" boostWeight="1.0000000000000000e+00" itree="99">
      <Node pos="s" depth="0" NCoef="0" IVar="6" Cut="2.8549990653991699e+00" cType="1" res="-1.6412414843216538e-03" rms="4.6529081463813782e-01" purity="4.9698829650878906e-01" nType="0">
        <Node pos="l" depth="1" NCoef="0" IVar="5" Cut="9.7972202301025391e-01" cType="1" res="7.5599905103445053e-03" rms="4.6793749928474426e-01" purity="5.1605099439620972e-01" nType="0">
          <Node pos="l" depth="2" NCoef="0" IVar="-1" Cut="0.0000000000000000e+00" cType="1" res="-3.6394581547938287e-04" rms="4.7431635856628418e-01" purity="4.7267940640449524e-01" nType="-99"/>
          <Node pos="r" depth="2" NCoef="0" IVar="-1" Cut="0.0000000000000000e+00" cType="1" res="5.0792768597602844e-03" rms="4.2386692762374878e-01" purity="7.5013828277587891e-01" nType="-99"/>
        </Node>
        <Node pos="r" depth="1" NCoef="0" IVar="-1" Cut="0.0000000000000000e+00" cType="1" res="-8.0989366397261620e-03" rms="4.0245610475540161e-01" purity="2.2178827226161957e-01" nType="-99"/>
      </Node>
    </BinaryTree>
    <BinaryTree type="DecisionTree" boostWeight="1.0000000000000000e+00" itree="100">
      <Node pos="s" depth="0" NCoef="0" IVar="1" Cut="4.6639492797851562e+02" cType="1" res="6.5555312903597951e-04" rms="4.6443957090377808e-01" purity="5.0176227092742920e-01" nType="0">
        <Node pos="l" depth="1" NCoef="0" IVar="7" Cut="4.8690349578857422e+01" cType="1" res="-4.3792303651571274e-02" rms="4.5345428586006165e-01" purity="3.8553211092948914e-01" nType="0">
          <Node pos="l" depth="2" NCoef="0" IVar="-1" Cut="0.0000000000000000e+00" cType="1" res="-6.0611553490161896e-03" rms="4.3616643548011780e-01" purity="3.0161798000335693e-01" nType="-99"/>
          <Node pos="r" depth="2" NCoef="0" IVar="-1" Cut="0.0000000000000000e+00" cType="1" res="-7.1734684752300382e-04" rms="4.5960187911987305e-01" purity="4.3132397532463074e-01" nType="-99"/>
        </Node>
        <Node pos="r" depth="1" NCoef="0" IVar="4" Cut="1.2748496234416962e-01" cType="1" res="2.2718016058206558e-02" rms="4.6823257207870483e-01" purity="5.5945515632629395e-01" nType="0">
          <Node pos="l" depth="2" NCoef="0" IVar="-1" Cut="0.0000000000000000e+00" cType="1" res="-6.0815373435616493e-03" rms="4.5994168519973755e-01" purity="3.8353919982910156e-01" nType="-99"/>
          <Node pos="r" depth="2" NCoef="0" IVar="-1" Cut="0.0000000000000000e+00" cType="1" res="1.9040423212572932e-03" rms="4.6725177764892578e-01" purity="5.7476449012756348e-01" nType="-99"/>
        </Node>
      </Node>
    </BinaryTree>
    <BinaryTree type="DecisionTree" boostWeight="1.0000000000000000e+00" itree="101">
      <Node pos="s" depth="0" NCoef="0" IVar="0" Cut="3.1019239425659180e+00" cType="1" res="-5.2726909052580595e-04" rms="4.6322381496429443e-01" purity="4.9926432967185974e-01" nType="0">
        <Node pos="l" depth="1" NCoef="0" IVar="7" Cut="6.1464290618896484e+01" cType="1" res="-2.7581252157688141e-02" rms="4.6725496649742126e-01" purity="3.8865086436271667e-01" nType="0">
          <Node pos="l" depth="2" NCoef="0" IVar="-1" Cut="0.0000000000000000e+00" cType="1" res="-3.8124939892441034e-03" rms="4.4400578737258911e-01" purity="3.0541187524795532e-01" nType="-99"/>
          <Node pos="r" depth="2" NCoef="0" IVar="-1" Cut="0.0000000000000000e+00" cType="1" res="-8.5524516180157661e-05" rms="4.8168337345123291e-01" purity="4.4879961013793945e-01" nType="-99"/>
        </Node>
        <Node pos="r" depth="1" NCoef="0" IVar="0" Cut="4.9141440391540527e+00" cType="1" res="3.7321414798498154e-02" rms="4.5483213663101196e-01" purity="6.5401321649551392e-01" nType="0">
          <Node pos="l" depth="2" NCoef="0" IVar="-1" Cut="0.0000000000000000e+00" cType="1" res="1.0262466967105865e-03" rms="4.7100338339805603e-01" purity="6.0977280139923096e-01" nType="-99"/>
          <Node pos="r" depth="2" NCoef="0" IVar="-1" Cut="0.0000000000000000e+00" cType="1" res="5.7171750813722610e-03" rms="3.9684394001960754e-01" purity="7.8760373592376709e-01" nType="-99"/>
        </Node>
      </Node>
    </BinaryTree>
    <BinaryTree type="DecisionTree" boostWeight="1.0000000000000000e+00" itree="102">
      <Node pos="s" depth="0" NCoef="0" IVar="0" Cut="1.9508688449859619e+00" cType="1" res="-4.4463616795837879e-03" rms="4.6210601925849915e-01" purity="4.9469611048698425e-01" nType="0">
        <Node pos="l" depth="1" NCoef="0" IVar="7" Cut="7.2001846313476562e+01" cType="1" res="-6.1853591352701187e-02" rms="4.4596537947654724e-01" purity="3.0948546528816223e-01" nType="0">
          <Node pos="l" depth="2" NCoef="0" IVar="-1" Cut="0.0000000000000000e+00" cType="1" res="-5.3091389127075672e-03" rms="4.2113399505615234e-01" purity="2.5221756100654602e-01" nType="-99"/>
          <Node pos="r" depth="2" NCoef="0" IVar="-1" Cut="0.0000000000000000e+00" cType="1" res="-1.4819842763245106e-03" rms="4.7979295253753662e-01" purity="3.9846277236938477e-01" nType="-99"/>
        </Node>
        <Node pos="r" depth="1" NCoef="0" IVar="8" Cut="1.0435552597045898e+00" cType="1" res="1.8396249040961266e-02" rms="4.6641278266906738e-01" purity="5.6839227676391602e-01" nType="0">
          <Node pos="l" depth="2" NCoef="0" IVar="-1" Cut="0.0000000000000000e+00" cType="1" res="3.0643721111118793e-03" rms="4.5847132802009583e-01" purity="6.1749172210693359e-01" nType="-99"/>
          <Node pos="r" depth="2" NCoef="0" IVar="-1" Cut="0.0000000000000000e+00" cType="1" res="-9.8269619047641754e-04" rms="4.7131237387657166e-01" purity="5.2013641595840454e-01" nType="-99"/>
        </Node>
      </Node>
    </BinaryTree>
    <BinaryTree type="DecisionTree" boostWeight="1.0000000000000000e+00" itree="103">
      <Node pos="s" depth="0" NCoef="0" IVar="6" Cut="2.8849899768829346e+00" cType="1" res="-5.4224312771111727e-04" rms="4.6202611923217773e-01" purity="4.9737986922264099e-01" nType="0">
        <Node pos="l" depth="1" NCoef="0" IVar="7" Cut="5.2832740783691406e+01" cType="1" res="7.0200362242758274e-03" rms="4.6424090862274170e-01" purity="5.1355916261672974e-01" nType="0">
          <Node pos="l" depth="2" NCoef="0" IVar="-1" Cut="0.0000000000000000e+00" cType="1" res="-3.1116753816604614e-03" rms="4.5669904351234436e-01" purity="3.8221079111099243e-01" nType="-99"/>
          <Node pos="r" depth="2" NCoef="0" IVar="-1" Cut="0.0000000000000000e+00" cType="1" res="1.4183231396600604e-03" rms="4.6493506431579590e-01" purity="5.5278122425079346e-01" nType="-99"/>
        </Node>
        <Node pos="r" depth="1" NCoef="0" IVar="-1" Cut="0.0000000000000000e+00" cType="1" res="-8.2925669848918915e-03" rms="3.9714458584785461e-01" purity="2.0903414487838745e-01" nType="-99"/>
      </Node>
    </BinaryTree>
    <BinaryTree type="DecisionTree" boostWeight="1.0000000000000000e+00" itree="104">
      <Node pos="s" depth="0" NCoef="0" IVar="5" Cut="9.4478708505630493e-01" cType="1" res="5.4230322130024433e-03" rms="4.6301874518394470e-01" purity="5.0258105993270874e-01" nType="0">
        <Node pos="l" depth="1" NCoef="0" IVar="0" Cut="1.1613360643386841e+00" cType="1" res="-3.6610696464776993e-02" rms="4.5791965723037720e-01" purity="3.6183929443359375e-01" nType="0">
          <Node pos="l" depth="2" NCoef="0" IVar="-1" Cut="0.0000000000000000e+00" cType="1" res="-6.1211730353534222e-03" rms="4.1476613283157349e-01" purity="2.4269655346870422e-01" nType="-99"/>
          <Node pos="r" depth="2" NCoef="0" IVar="-1" Cut="0.0000000000000000e+00" cType="1" res="-1.0414416901767254e-03" rms="4.6830448508262634e-01" purity="3.9663106203079224e-01" nType="-99"/>
        </Node>
        <Node pos="r" depth="1" NCoef="0" IVar="4" Cut="3.3514893054962158e-01" cType="1" res="3.1974505633115768e-02" rms="4.6425384283065796e-01" purity="5.9148359298706055e-01" nType="0">
          <Node pos="l" depth="2" NCoef="0" IVar="-1" Cut="0.0000000000000000e+00" cType="1" res="-3.5023162490688264e-04" rms="4.7146144509315491e-01" purity="5.3599160909652710e-01" nType="-99"/>
          <Node pos="r" depth="2" NCoef="0" IVar="-1" Cut="0.0000000000000000e+00" cType="1" res="3.2583274878561497e-03" rms="4.5773568749427795e-01" purity="6.2791848182678223e-01" nType="-99"/>
        </Node>
      </Node>
    </BinaryTree>
    <BinaryTree type="DecisionTree" boostWeight="1.0000000000000000e+00" itree="105">
      <Node pos="s" depth="0" NCoef="0" IVar="1" Cut="4.0263320922851562e+02" cType="1" res="3.4622084349393845e-03" rms="4.6352186799049377e-01" purity="5.0282841920852661e-01" nType="0">
        <Node pos="l" depth="1" NCoef="0" IVar="7" Cut="4.6219928741455078e+01" cType="1" res="-6.5876841545104980e-02" rms="4.4375512003898621e-01" purity="3.3371752500534058e-01" nType="0">
          <Node pos="l" depth="2" NCoef="0" IVar="-1" Cut="0.0000000000000000e+00" cType="1" res="-6.4335931092500687e-03" rms="4.2407658696174622e-01" purity="2.7428036928176880e-01" nType="-99"/>
          <Node pos="r" depth="2" NCoef="0" IVar="-1" Cut="0.0000000000000000e+00" cType="1" res="-2.2369674406945705e-03" rms="4.5461145043373108e-01" purity="3.7427988648414612e-01" nType="-99"/>
        </Node>
        <Node pos="r" depth="1" NCoef="0" IVar="4" Cut="2.8622034192085266e-01" cType="1" res="1.5675349161028862e-02" rms="4.6584907174110413e-01" purity="5.3261500597000122e-01" nType="0">
          <Node pos="l" depth="2" NCoef="0" IVar="-1" Cut="0.0000000000000000e+00" cType="1" res="-1.7474205233156681e-03" rms="4.6428218483924866e-01" purity="4.5829126238822937e-01" nType="-99"/>
          <Node pos="r" depth="2" NCoef="0" IVar="-1" Cut="0.0000000000000000e+00" cType="1" res="2.1242755465209484e-03" rms="4.6497508883476257e-01" purity="5.6755441427230835e-01" nType="-99"/>
        </Node>
      </Node>
    </BinaryTree>
    <BinaryTree type="DecisionTree" boostWeight="1.0000000000000000e+00" itree="106">
      <Node pos="s" depth="0" NCoef="0" IVar="5" Cut="9.3078899383544922e-01" cType="1" res="2.4700700305402279e-04" rms="4.6408918499946594e-01" purity="4.9924537539482117e-01" nType="0">
        <Node pos="l" depth="1" NCoef="0" IVar="1" Cut="4.6903417968750000e+02" cType="1" res="-5.7707428932189941e-02" rms="4.4574356079101562e-01" purity="3.2048907876014709e-01" nType="0">
          <Node pos="l" depth="2" NCoef="0" IVar="-1" Cut="0.0000000000000000e+00" cType="1" res="-6.2447129748761654e-03" rms="3.9394220709800720e-01" purity="2.0358897745609283e-01" nType="-99"/>
          <Node pos="r" depth="2" NCoef="0" IVar="-1" Cut="0.0000000000000000e+00" cType="1" res="-1.7087326850742102e-03" rms="4.7232824563980103e-01" purity="3.9097657799720764e-01" nType="-99"/>
        </Node>
        <Node pos="r" depth="1" NCoef="0" IVar="8" Cut="9.6429157257080078e-01" cType="1" res="1.6308644786477089e-02" rms="4.6777758002281189e-01" purity="5.4878634214401245e-01" nType="0">
          <Node pos="l" depth="2" NCoef="0" IVar="-1" Cut="0.0000000000000000e+00" cType="1" res="2.7017656248062849e-03" rms="4.6425884962081909e-01" purity="5.9430056810379028e-01" nType="-99"/>
          <Node pos="r" depth="2" NCoef="0" IVar="-1" Cut="0.0000000000000000e+00" cType="1" res="-3.2718988950364292e-04" rms="4.6897959709167480e-01" purity="5.1682192087173462e-01" nType="-99"/>
        </Node>
      </Node>
    </BinaryTree>
    <BinaryTree type="DecisionTree" boostWeight="1.0000000000000000e+00" itree="107">
      <Node pos="s" depth="0" NCoef="0" IVar="5" Cut="9.8346573114395142e-01" cType="1" res="2.3879820946604013e-03" rms="4.6272858977317810e-01" purity="5.0106889009475708e-01" nType="0">
        <Node pos="l" depth="1" NCoef="0" IVar="1" Cut="3.9073977661132812e+02" cType="1" res="-9.3634529039263725e-03" rms="4.6842625737190247e-01" purity="4.6595138311386108e-01" nType="0">
          <Node pos="l" depth="2" NCoef="0" IVar="-1" Cut="0.0000000000000000e+00" cType="1" res="-5.8674500323832035e-03" rms="4.2485657334327698e-01" purity="2.7275842428207397e-01" nType="-99"/>
          <Node pos="r" depth="2" NCoef="0" IVar="-1" Cut="0.0000000000000000e+00" cType="1" res="1.7663871403783560e-04" rms="4.7302219271659851e-01" purity="4.9363458156585693e-01" nType="-99"/>
        </Node>
        <Node pos="r" depth="1" NCoef="0" IVar="6" Cut="2.2134635448455811e+00" cType="1" res="9.0428441762924194e-02" rms="4.0692079067230225e-01" purity="7.6416569948196411e-01" nType="0">
          <Node pos="l" depth="2" NCoef="0" IVar="-1" Cut="0.0000000000000000e+00" cType="1" res="8.4595074877142906e-03" rms="3.5883826017379761e-01" purity="8.4144532680511475e-01" nType="-99"/>
          <Node pos="r" depth="2" NCoef="0" IVar="-1" Cut="0.0000000000000000e+00" cType="1" res="2.3442895617336035e-03" rms="4.5332404971122742e-01" purity="6.7043167352676392e-01" nType="-99"/>
        </Node>
      </Node>
    </BinaryTree>
    <BinaryTree type="DecisionTree" boostWeight="1.0000000000000000e+00" itree="108">
      <Node pos="s" depth="0" NCoef="0" IVar="6" Cut="2.3871300220489502e+00" cType="1" res="-2.7564205229282379e-03" rms="4.6290889382362366e-01" purity="4.9691361188888550e-01" nType="0">
        <Node pos="l" depth="1" NCoef="0" IVar="2" Cut="9.9221015930175781e+01" cType="1" res="1.7640734091401100e-02" rms="4.6620243787765503e-01" purity="5.4999864101409912e-01" nType="0">
          <Node pos="l" depth="2" NCoef="0" IVar="-1" Cut="0.0000000000000000e+00" cType="1" res="-5.5461178999394178e-04" rms="4.6943542361259460e-01" purity="5.0327670574188232e-01" nType="-99"/>
          <Node pos="r" depth="2" NCoef="0" IVar="-1" Cut="0.0000000000000000e+00" cType="1" res="3.3292251173406839e-03" rms="4.5830631256103516e-01" purity="6.1958092451095581e-01" nType="-99"/>
        </Node>
        <Node pos="r" depth="1" NCoef="0" IVar="3" Cut="1.4281740412116051e-02" cType="1" res="-5.1918361335992813e-02" rms="4.5109808444976807e-01" purity="3.6896622180938721e-01" nType="0">
          <Node pos="l" depth="2" NCoef="0" IVar="-1" Cut="0.0000000000000000e+00" cType="1" res="2.6708192308433354e-04" rms="4.6367746591567993e-01" purity="4.4153147935867310e-01" nType="-99"/>
          <Node pos="r" depth="2" NCoef="0" IVar="-1" Cut="0.0000000000000000e+00" cType="1" res="-4.8248060047626495e-03" rms="4.4113841652870178e-01" purity="3.2972443103790283e-01" nType="-99"/>
        </Node>
      </Node>
    </BinaryTree>
    <BinaryTree type="DecisionTree" boostWeight="1.0000000000000000e+00" itree="109">
      <Node pos="s" depth="0" NCoef="0" IVar="0" Cut="4.3260855674743652e+00" cType="1" res="2.1557942964136600e-03" rms="4.6286216378211975e-01" purity="5.0165992975234985e-01" nType="0">
        <Node pos="l" depth="1" NCoef="0" IVar="4" Cut="2.8358790278434753e-01" cType="1" res="-1.1611212976276875e-02" rms="4.6944308280944824e-01" purity="4.5002639293670654e-01" nType="0">
          <Node pos="l" depth="2" NCoef="0" IVar="-1" Cut="0.0000000000000000e+00" cType="1" res="-3.1802246812731028e-03" rms="4.6126365661621094e-01" purity="3.7949767708778381e-01" nType="-99"/>
          <Node pos="r" depth="2" NCoef="0" IVar="-1" Cut="0.0000000000000000e+00" cType="1" res="5.2172277355566621e-04" rms="4.7186246514320374e-01" purity="4.8361784219741821e-01" nType="-99"/>
        </Node>
        <Node pos="r" depth="1" NCoef="0" IVar="7" Cut="8.8680648803710938e+01" cType="1" res="6.5338954329490662e-02" rms="4.2570060491561890e-01" purity="7.3862999677658081e-01" nType="0">
          <Node pos="l" depth="2" NCoef="0" IVar="-1" Cut="0.0000000000000000e+00" cType="1" res="2.6507198344916105e-03" rms="4.4042038917541504e-01" purity="7.0751237869262695e-01" nType="-99"/>
          <Node pos="r" depth="2" NCoef="0" IVar="-1" Cut="0.0000000000000000e+00" cType="1" res="6.9912485778331757e-03" rms="3.8403996825218201e-01" purity="8.1284272670745850e-01" nType="-99"/>
        </Node>
      </Node>
    </BinaryTree>
    <BinaryTree type="DecisionTree" boostWeight="1.0000000000000000e+00" itree="110">
      <Node pos="s" depth="0" NCoef="0" IVar="0" Cut="3.9956388473510742e+00" cType="1" res="-1.2942749308422208e-03" rms="4.6252769231796265e-01" purity="4.9966868758201599e-01" nType="0">
        <Node pos="l" depth="1" NCoef="0" IVar="6" Cut="1.9958475828170776e+00" cType="1" res="-1.9425468519330025e-02" rms="4.6993494033813477e-01" purity="4.3059557676315308e-01" nType="0">
          <Node pos="l" depth="2" NCoef="0" IVar="-1" Cut="0.0000000000000000e+00" cType="1" res="1.7141458811238408e-03" rms="4.7911959886550903e-01" purity="5.1979798078536987e-01" nType="-99"/>
          <Node pos="r" depth="2" NCoef="0" IVar="-1" Cut="0.0000000000000000e+00" cType="1" res="-2.0986194722354412e-03" rms="4.6553069353103638e-01" purity="4.0034005045890808e-01" nType="-99"/>
        </Node>
        <Node pos="r" depth="1" NCoef="0" IVar="7" Cut="6.5354919433593750e+01" cType="1" res="5.5942665785551071e-02" rms="4.3337494134902954e-01" purity="7.1772021055221558e-01" nType="0">
          <Node pos="l" depth="2" NCoef="0" IVar="-1" Cut="0.0000000000000000e+00" cType="1" res="5.7938991812989116e-04" rms="4.6688386797904968e-01" purity="6.3537079095840454e-01" nType="-99"/>
          <Node pos="r" depth="2" NCoef="0" IVar="-1" Cut="0.0000000000000000e+00" cType="1" res="5.1216036081314087e-03" rms="4.0791285037994385e-01" purity="7.7024739980697632e-01" nType="-99"/>
        </Node>
      </Node>
    </BinaryTree>
    <BinaryTree type="DecisionTree" boostWeight="1.0000000000000000e+00" itree="111">
      <Node pos="s" depth="0" NCoef="0" IVar="0" Cut="3.6040441989898682e+00" cType="1" res="4.8333201557397842e-03" rms="4.6282610297203064e-01" purity="5.0419044494628906e-01" nType="0">
        <Node pos="l" depth="1" NCoef="0" IVar="2" Cut="1.1053611755371094e+02" cType="1" res="-1.5794435515999794e-02" rms="4.6988093852996826e-01" purity="4.1909831762313843e-01" nType="0">
          <Node pos="l" depth="2" NCoef="0" IVar="-1" Cut="0.0000000000000000e+00" cType="1" res="-2.2934339940547943e-03" rms="4.6819332242012024e-01" purity="3.9085128903388977e-01" nType="-99"/>
          <Node pos="r" depth="2" NCoef="0" IVar="-1" Cut="0.0000000000000000e+00" cType="1" res="1.2668060371652246e-03" rms="4.6997109055519104e-01" purity="4.6273219585418701e-01" nType="-99"/>
        </Node>
        <Node pos="r" depth="1" NCoef="0" IVar="4" Cut="3.2015520334243774e-01" cType="1" res="5.1231577992439270e-02" rms="4.4305467605590820e-01" purity="6.9558906555175781e-01" nType="0">
          <Node pos="l" depth="2" NCoef="0" IVar="-1" Cut="0.0000000000000000e+00" cType="1" res="6.6803512163460255e-04" rms="4.6346631646156311e-01" purity="6.3071656227111816e-01" nType="-99"/>
          <Node pos="r" depth="2" NCoef="0" IVar="-1" Cut="0.0000000000000000e+00" cType="1" res="4.3678730726242065e-03" rms="4.2846274375915527e-01" purity="7.3488062620162964e-01" nType="-99"/>
        </Node>
      </Node>
    </BinaryTree>
    <BinaryTree type="DecisionTree" boostWeight="1.0000000000000000e+00" itree="112">
      <Node pos="s" depth="0" NCoef="0" IVar="1" Cut="6.2210406494140625e+02" cType="1" res="-1.5714970650151372e-03" rms="4.6045619249343872e-01" purity="4.9949100613594055e-01" nType="0">
        <Node pos="l" depth="1" NCoef="0" IVar="4" Cut="5.1894897222518921e-01" cType="1" res="-2.2831477224826813e-02" rms="4.5920711755752563e-01" purity="4.5064851641654968e-01" nType="0">
          <Node pos="l" depth="2" NCoef="0" IVar="-1" Cut="0.0000000000000000e+00" cType="1" res="-2.7528305072337389e-03" rms="4.5487624406814575e-01" purity="4.1373643279075623e-01" nType="-99"/>
          <Node pos="r" depth="2" NCoef="0" IVar="-1" Cut="0.0000000000000000e+00" cType="1" res="1.8034413224086165e-03" rms="4.6390908956527710e-01" purity="5.3147840499877930e-01" nType="-99"/>
        </Node>
        <Node pos="r" depth="1" NCoef="0" IVar="4" Cut="2.7193838357925415e-01" cType="1" res="4.7371331602334976e-02" rms="4.5959597826004028e-01" purity="6.1193180084228516e-01" nType="0">
          <Node pos="l" depth="2" NCoef="0" IVar="-1" Cut="0.0000000000000000e+00" cType="1" res="-2.0169006893411279e-04" rms="4.7244447469711304e-01" purity="5.2604132890701294e-01" nType="-99"/>
          <Node pos="r" depth="2" NCoef="0" IVar="-1" Cut="0.0000000000000000e+00" cType="1" res="4.3812906369566917e-03" rms="4.4937410950660706e-01" purity="6.6159075498580933e-01" nType="-99"/>
        </Node>
      </Node>
    </BinaryTree>
    <BinaryTree type="DecisionTree" boostWeight="1.0000000000000000e+00" itree="113">
      <Node pos="s" depth="0" NCoef="0" IVar="7" Cut="4.9947582244873047e+01" cType="1" res="-4.2590536177158356e-03" rms="4.6220928430557251e-01" purity="4.9496334791183472e-01" nType="0">
        <Node pos="l" depth="1" NCoef="0" IVar="7" Cut="4.6303256988525391e+01" cType="1" res="-7.1344234049320221e-02" rms="4.4775789976119995e-01" purity="3.3877596259117126e-01" nType="0">
          <Node pos="l" depth="2" NCoef="0" IVar="-1" Cut="0.0000000000000000e+00" cType="1" res="-6.1928108334541321e-03" rms="4.3304473161697388e-01" purity="2.9909819364547729e-01" nType="-99"/>
          <Node pos="r" depth="2" NCoef="0" IVar="-1" Cut="0.0000000000000000e+00" cType="1" res="-6.0023937840014696e-04" rms="4.6801370382308960e-01" purity="4.1312411427497864e-01" nType="-99"/>
        </Node>
        <Node pos="r" depth="1" NCoef="0" IVar="4" Cut="3.0304345488548279e-01" cType="1" res="1.0457687079906464e-02" rms="4.6402412652969360e-01" purity="5.2922677993774414e-01" nType="0">
          <Node pos="l" depth="2" NCoef="0" IVar="-1" Cut="0.0000000000000000e+00" cType="1" res="-1.9845415372401476e-03" rms="4.6377187967300415e-01" purity="4.5354565978050232e-01" nType="-99"/>
          <Node pos="r" depth="2" NCoef="0" IVar="-1" Cut="0.0000000000000000e+00" cType="1" res="2.0542752463370562e-03" rms="4.6219450235366821e-01" purity="5.7212370634078979e-01" nType="-99"/>
        </Node>
      </Node>
    </BinaryTree>
    <BinaryTree type="DecisionTree" boostWeight="1.0000000000000000e+00" itree="114">
      <Node pos="s" depth="0" NCoef="0" IVar="5" Cut="9.7590130567550659e-01" cType="1" res="-2.7679044287651777e-03" rms="4.6234983205795288e-01" purity="4.9719071388244629e-01" nType="0">
        <Node pos="l" depth="1" NCoef="0" IVar="1" Cut="6.1079071044921875e+02" cType="1" res="-1.7350682988762856e-02" rms="4.6817737817764282e-01" purity="4.4428294897079468e-01" nType="0">
          <Node pos="l" depth="2" NCoef="0" IVar="-1" Cut="0.0000000000000000e+00" cType="1" res="-2.1022944711148739e-03" rms="4.6281835436820984e-01" purity="3.9218363165855408e-01" nType="-99"/>
          <Node pos="r" depth="2" NCoef="0" IVar="-1" Cut="0.0000000000000000e+00" cType="1" res="1.2512874091044068e-03" rms="4.7657236456871033e-01" purity="5.5194836854934692e-01" nType="-99"/>
        </Node>
        <Node pos="r" depth="1" NCoef="0" IVar="6" Cut="2.3430483341217041e+00" cType="1" res="5.7658288627862930e-02" rms="4.3216317892074585e-01" purity="7.1642285585403442e-01" nType="0">
          <Node pos="l" depth="2" NCoef="0" IVar="-1" Cut="0.0000000000000000e+00" cType="1" res="4.9502286128699780e-03" rms="4.1156435012817383e-01" purity="7.7029544115066528e-01" nType="-99"/>
          <Node pos="r" depth="2" NCoef="0" IVar="-1" Cut="0.0000000000000000e+00" cType="1" res="5.4248672677204013e-04" rms="4.7241845726966858e-01" purity="5.9321129322052002e-01" nType="-99"/>
        </Node>
      </Node>
    </BinaryTree>
    <BinaryTree type="DecisionTree" boostWeight="1.0000000000000000e+00" itree="115">
      <Node pos="s" depth="0" NCoef="0" IVar="6" Cut="2.6666402816772461e+00" cType="1" res="-3.8549676537513733e-03" rms="4.6155121922492981e-01" purity="4.9458569288253784e-01" nType="0">
        <Node pos="l" depth="1" NCoef="0" IVar="5" Cut="9.3314003944396973e-01" cType="1" res="8.2860048860311508e-03" rms="4.6518117189407349e-01" purity="5.2568888664245605e-01" nType="0">
          <Node pos="l" depth="2" NCoef="0" IVar="-1" Cut="0.0000000000000000e+00" cType="1" res="-2.7698697522282600e-03" rms="4.6063807606697083e-01" purity="3.4329590201377869e-01" nType="-99"/>
          <Node pos="r" depth="2" NCoef="0" IVar="-1" Cut="0.0000000000000000e+00" cType="1" res="1.4651973033323884e-03" rms="4.6515071392059326e-01" purity="5.8060377836227417e-01" nType="-99"/>
        </Node>
        <Node pos="r" depth="1" NCoef="0" IVar="3" Cut="6.3529990613460541e-02" cType="1" res="-9.5716089010238647e-02" rms="4.2192769050598145e-01" purity="2.5925257802009583e-01" nType="0">
          <Node pos="l" depth="2" NCoef="0" IVar="-1" Cut="0.0000000000000000e+00" cType="1" res="-3.5391121637076139e-03" rms="4.4502508640289307e-01" purity="3.0492013692855835e-01" nType="-99"/>
          <Node pos="r" depth="2" NCoef="0" IVar="-1" Cut="0.0000000000000000e+00" cType="1" res="-7.6851597987115383e-03" rms="4.0065473318099976e-01" purity="2.2361542284488678e-01" nType="-99"/>
        </Node>
      </Node>
    </BinaryTree>
    <BinaryTree type="DecisionTree" boostWeight="1.0000000000000000e+00" itree="116">
      <Node pos="s" depth="0" NCoef="0" IVar="5" Cut="9.7987604141235352e-01" cType="1" res="2.9513873159885406e-03" rms="4.6055814623832703e-01" purity="5.0330322980880737e-01" nType="0">
        <Node pos="l" depth="1" NCoef="0" IVar="1" Cut="7.6974090576171875e+02" cType="1" res="-1.1289674788713455e-02" rms="4.6677398681640625e-01" purity="4.5630279183387756e-01" nType="0">
          <Node pos="l" depth="2" NCoef="0" IVar="-1" Cut="0.0000000000000000e+00" cType="1" res="-1.4032252365723252e-03" rms="4.6572834253311157e-01" purity="4.3137964606285095e-01" nType="-99"/>
          <Node pos="r" depth="2" NCoef="0" IVar="-1" Cut="0.0000000000000000e+00" cType="1" res="4.0649604052305222e-03" rms="4.6446132659912109e-01" purity="6.1112326383590698e-01" nType="-99"/>
        </Node>
        <Node pos="r" depth="1" NCoef="0" IVar="9" Cut="5.9751027822494507e-01" cType="1" res="7.7836252748966217e-02" rms="4.1848477721214294e-01" purity="7.5044918060302734e-01" nType="0">
          <Node pos="l" depth="2" NCoef="0" IVar="-1" Cut="0.0000000000000000e+00" cType="1" res="6.6705453209578991e-03" rms="3.9250963926315308e-01" purity="7.9503238201141357e-01" nType="-99"/>
          <Node pos="r" depth="2" NCoef="0" IVar="-1" Cut="0.0000000000000000e+00" cType="1" res="1.8423196161165833e-03" rms="4.5551306009292603e-01" purity="6.7438483238220215e-01" nType="-99"/>
        </Node>
      </Node>
    </BinaryTree>
    <BinaryTree type="DecisionTree" boostWeight="1.0000000000000000e+00" itree="117">
      <Node pos="s" depth="0" NCoef="0" IVar="6" Cut="2.8529999256134033e+00" cType="1" res="6.1609800904989243e-03" rms="4.5978906750679016e-01" purity="5.0583106279373169e-01" nType="0">
        <Node pos="l" depth="1" NCoef="0" IVar="5" Cut="9.4090044498443604e-01" cType="1" res="1.3949242420494556e-02" rms="4.6214106678962708e-01" purity="5.2396142482757568e-01" nType="0">
          <Node pos="l" depth="2" NCoef="0" IVar="-1" Cut="0.0000000000000000e+00" cType="1" res="-1.7105222214013338e-03" rms="4.6011245250701904e-01" purity="3.6521169543266296e-01" nType="-99"/>
          <Node pos="r" depth="2" NCoef="0" IVar="-1" Cut="0.0000000000000000e+00" cType="1" res="2.0123717840760946e-03" rms="4.6161457896232605e-01" purity="5.9983479976654053e-01" nType="-99"/>
        </Node>
        <Node pos="r" depth="1" NCoef="0" IVar="-1" Cut="0.0000000000000000e+00" cType="1" res="-7.1524623781442642e-03" rms="4.0244841575622559e-01" purity="2.2340704500675201e-01" nType="-99"/>
      </Node>
    </BinaryTree>
    <BinaryTree type="DecisionTree" boostWeight="1.0000000000000000e+00" itree="118">
      <Node pos="s" depth="0" NCoef="0" IVar="1" Cut="5.3139422607421875e+02" cType="1" res="2.4247630499303341e-03" rms="4.6100440621376038e-01" purity="5.0140547752380371e-01" nType="0">
        <Node pos="l" depth="1" NCoef="0" IVar="4" Cut="4.5407024025917053e-01" cType="1" res="-2.7809537947177887e-02" rms="4.5705753564834595e-01" purity="4.1665950417518616e-01" nType="0">
          <Node pos="l" depth="2" NCoef="0" IVar="-1" Cut="0.0000000000000000e+00" cType="1" res="-3.3758659847080708e-03" rms="4.4673246145248413e-01" purity="3.6430653929710388e-01" nType="-99"/>
          <Node pos="r" depth="2" NCoef="0" IVar="-1" Cut="0.0000000000000000e+00" cType="1" res="5.8581930352374911e-04" rms="4.6736350655555725e-01" purity="4.8448204994201660e-01" nType="-99"/>
        </Node>
        <Node pos="r" depth="1" NCoef="0" IVar="6" Cut="2.1192059516906738e+00" cType="1" res="3.3624272793531418e-02" rms="4.6297678351402283e-01" purity="5.8885687589645386e-01" nType="0">
          <Node pos="l" depth="2" NCoef="0" IVar="-1" Cut="0.0000000000000000e+00" cType="1" res="4.1683181189000607e-03" rms="4.5117190480232239e-01" purity="6.6524738073348999e-01" nType="-99"/>
          <Node pos="r" depth="2" NCoef="0" IVar="-1" Cut="0.0000000000000000e+00" cType="1" res="5.7383725652471185e-04" rms="4.6817955374717712e-01" purity="5.4401081800460815e-01" nType="-99"/>
        </Node>
      </Node>
    </BinaryTree>
    <BinaryTree type="DecisionTree" boostWeight="1.0000000000000000e+00" itree="119">
      <Node pos="s" depth="0" NCoef="0" IVar="5" Cut="9.7972458600997925e-01" cType="1" res="2.4262377992272377e-03" rms="4.6076411008834839e-01" purity="5.0171065330505371e-01" nType="0">
        <Node pos="l" depth="1" NCoef="0" IVar="4" Cut="2.1444670855998993e-01" cType="1" res="-9.9097806960344315e-03" rms="4.6720820665359497e-01" purity="4.5713526010513306e-01" nType="0">
          <Node pos="l" depth="2" NCoef="0" IVar="-1" Cut="0.0000000000000000e+00" cType="1" res="-3.7470294628292322e-03" rms="4.5506632328033447e-01" purity="3.7002298235893250e-01" nType="-99"/>
          <Node pos="r" depth="2" NCoef="0" IVar="-1" Cut="0.0000000000000000e+00" cType="1" res="1.9974894530605525e-04" rms="4.6916735172271729e-01" purity="4.7853836417198181e-01" nType="-99"/>
        </Node>
        <Node pos="r" depth="1" NCoef="0" IVar="8" Cut="8.8561540842056274e-01" cType="1" res="6.9408468902111053e-02" rms="4.1775658726692200e-01" purity="7.4374663829803467e-01" nType="0">
          <Node pos="l" depth="2" NCoef="0" IVar="-1" Cut="0.0000000000000000e+00" cType="1" res="7.5120651163160801e-03" rms="3.7541088461875916e-01" purity="8.0670779943466187e-01" nType="-99"/>
          <Node pos="r" depth="2" NCoef="0" IVar="-1" Cut="0.0000000000000000e+00" cType="1" res="2.7886866591870785e-03" rms="4.3518412113189697e-01" purity="7.1249812841415405e-01" nType="-99"/>
        </Node>
      </Node>
    </BinaryTree>
    <BinaryTree type="DecisionTree" boostWeight="1.0000000000000000e+00" itree="120">
      <Node pos="s" depth="0" NCoef="0" IVar="4" Cut="1.5803685784339905e-01" cType="1" res="3.7952230777591467e-03" rms="4.6201136708259583e-01" purity="5.0265133380889893e-01" nType="0">
        <Node pos="l" depth="1" NCoef="0" IVar="8" Cut="1.0699074268341064e+00" cType="1" res="-7.6092921197414398e-02" rms="4.5335060358047485e-01" purity="3.7966781854629517e-01" nType="0">
          <Node pos="l" depth="2" NCoef="0" IVar="-1" Cut="0.0000000000000000e+00" cType="1" res="-2.3596812970936298e-03" rms="4.6354204416275024e-01" purity="4.2481362819671631e-01" nType="-99"/>
          <Node pos="r" depth="2" NCoef="0" IVar="-1" Cut="0.0000000000000000e+00" cType="1" res="-6.9484878331422806e-03" rms="4.3708851933479309e-01" purity="3.2525169849395752e-01" nType="-99"/>
        </Node>
        <Node pos="r" depth="1" NCoef="0" IVar="1" Cut="3.9158587646484375e+02" cType="1" res="1.3911523856222630e-02" rms="4.6211242675781250e-01" purity="5.1822483539581299e-01" nType="0">
          <Node pos="l" depth="2" NCoef="0" IVar="-1" Cut="0.0000000000000000e+00" cType="1" res="-4.1738539002835751e-03" rms="4.3380665779113770e-01" purity="3.1771498918533325e-01" nType="-99"/>
          <Node pos="r" depth="2" NCoef="0" IVar="-1" Cut="0.0000000000000000e+00" cType="1" res="1.4853902393952012e-03" rms="4.6490848064422607e-01" purity="5.4780989885330200e-01" nType="-99"/>
        </Node>
      </Node>
    </BinaryTree>
    <BinaryTree type="DecisionTree" boostWeight="1.0000000000000000e+00" itree="121">
      <Node pos="s" depth="0" NCoef="0" IVar="4" Cut="1.1483661830425262e-01" cType="1" res="-6.2281363643705845e-03" rms="4.6065026521682739e-01" purity="4.9299532175064087e-01" nType="0">
        <Node pos="l" depth="1" NCoef="0" IVar="-1" Cut="0.0000000000000000e+00" cType="1" res="-7.3583358898758888e-03" rms="4.3587613105773926e-01" purity="3.3368864655494690e-01" nType="-99"/>
        <Node pos="r" depth="1" NCoef="0" IVar="0" Cut="1.8844256401062012e+00" cType="1" res="1.2152380077168345e-03" rms="4.6110960841178894e-01" purity="5.0285208225250244e-01" nType="0">
          <Node pos="l" depth="2" NCoef="0" IVar="-1" Cut="0.0000000000000000e+00" cType="1" res="-2.8275442309677601e-03" rms="4.4751557707786560e-01" purity="3.1672903895378113e-01" nType="-99"/>
          <Node pos="r" depth="2" NCoef="0" IVar="-1" Cut="0.0000000000000000e+00" cType="1" res="1.0643167188391089e-03" rms="4.6483299136161804e-01" purity="5.7216882705688477e-01" nType="-99"/>
        </Node>
      </Node>
    </BinaryTree>
    <BinaryTree type="DecisionTree" boostWeight="1.0000000000000000e+00" itree="122">
      <Node pos="s" depth="0" NCoef="0" IVar="0" Cut="4.6035408973693848e+00" cType="1" res="-4.8038950189948082e-03" rms="4.6073287725448608e-01" purity="4.9506190419197083e-01" nType="0">
        <Node pos="l" depth="1" NCoef="0" IVar="1" Cut="4.5798385620117188e+02" cType="1" res="-1.7016533762216568e-02" rms="4.6693205833435059e-01" purity="4.5228487253189087e-01" nType="0">
          <Node pos="l" depth="2" NCoef="0" IVar="-1" Cut="0.0000000000000000e+00" cType="1" res="-3.5084306728094816e-03" rms="4.4529202580451965e-01" purity="3.3257967233657837e-01" nType="-99"/>
          <Node pos="r" depth="2" NCoef="0" IVar="-1" Cut="0.0000000000000000e+00" cType="1" res="1.3286199828144163e-04" rms="4.7534945607185364e-01" purity="5.0760167837142944e-01" nType="-99"/>
        </Node>
        <Node pos="r" depth="1" NCoef="0" IVar="2" Cut="9.3840087890625000e+01" cType="1" res="7.1763813495635986e-02" rms="4.1160967946052551e-01" purity="7.6325482130050659e-01" nType="0">
          <Node pos="l" depth="2" NCoef="0" IVar="-1" Cut="0.0000000000000000e+00" cType="1" res="2.4153031408786774e-03" rms="4.2863965034484863e-01" purity="7.3722136020660400e-01" nType="-99"/>
          <Node pos="r" depth="2" NCoef="0" IVar="-1" Cut="0.0000000000000000e+00" cType="1" res="5.9791519306600094e-03" rms="3.9629697799682617e-01" purity="7.8310829401016235e-01" nType="-99"/>
        </Node>
      </Node>
    </BinaryTree>
    <BinaryTree type="DecisionTree" boostWeight="1.0000000000000000e+00" itree="123">
      <Node pos="s" depth="0" NCoef="0" IVar="0" Cut="4.4842343330383301e+00" cType="1" res="3.2759145833551884e-03" rms="4.6214488148689270e-01" purity="5.0125569105148315e-01" nType="0">
        <Node pos="l" depth="1" NCoef="0" IVar="1" Cut="7.7664849853515625e+02" cType="1" res="-9.6523184329271317e-03" rms="4.6905431151390076e-01" purity="4.5432260632514954e-01" nType="0">
          <Node pos="l" depth="2" NCoef="0" IVar="-1" Cut="0.0000000000000000e+00" cType="1" res="-1.1586607433855534e-03" rms="4.6790736913681030e-01" purity="4.3414339423179626e-01" nType="-99"/>
          <Node pos="r" depth="2" NCoef="0" IVar="-1" Cut="0.0000000000000000e+00" cType="1" res="3.7347315810620785e-03" rms="4.7015348076820374e-01" purity="5.9928983449935913e-01" nType="-99"/>
        </Node>
        <Node pos="r" depth="1" NCoef="0" IVar="8" Cut="1.1890385150909424e+00" cType="1" res="7.3633953928947449e-02" rms="4.1557499766349792e-01" purity="7.5667488574981689e-01" nType="0">
          <Node pos="l" depth="2" NCoef="0" IVar="-1" Cut="0.0000000000000000e+00" cType="1" res="5.6286854669451714e-03" rms="3.9996740221977234e-01" purity="7.8312444686889648e-01" nType="-99"/>
          <Node pos="r" depth="2" NCoef="0" IVar="-1" Cut="0.0000000000000000e+00" cType="1" res="2.4283220991492271e-03" rms="4.4176486134529114e-01" purity="7.0658713579177856e-01" nType="-99"/>
        </Node>
      </Node>
    </BinaryTree>
    <BinaryTree type="DecisionTree" boostWeight="1.0000000000000000e+00" itree="124">
      <Node pos="s" depth="0" NCoef="0" IVar="0" Cut="1.9508688449859619e+00" cType="1" res="-1.4005263801664114e-03" rms="4.6034139394760132e-01" purity="4.9852675199508667e-01" nType="0">
        <Node pos="l" depth="1" NCoef="0" IVar="5" Cut="9.3032574653625488e-01" cType="1" res="-4.8373915255069733e-02" rms="4.4674175977706909e-01" purity="3.1270217895507812e-01" nType="0">
          <Node pos="l" depth="2" NCoef="0" IVar="-1" Cut="0.0000000000000000e+00" cType="1" res="-5.2559943869709969e-03" rms="4.1829246282577515e-01" purity="2.3507192730903625e-01" nType="-99"/>
          <Node pos="r" depth="2" NCoef="0" IVar="-1" Cut="0.0000000000000000e+00" cType="1" res="-1.4402460074052215e-03" rms="4.6412602066993713e-01" purity="3.6725527048110962e-01" nType="-99"/>
        </Node>
        <Node pos="r" depth="1" NCoef="0" IVar="3" Cut="5.8444472961127758e-03" cType="1" res="1.6894767060875893e-02" rms="4.6424642205238342e-01" purity="5.7090204954147339e-01" nType="0">
          <Node pos="l" depth="2" NCoef="0" IVar="-1" Cut="0.0000000000000000e+00" cType="1" res="2.8983936645090580e-03" rms="4.6076461672782898e-01" purity="6.2757176160812378e-01" nType="-99"/>
          <Node pos="r" depth="2" NCoef="0" IVar="-1" Cut="0.0000000000000000e+00" cType="1" res="-3.3755670301616192e-04" rms="4.6517398953437805e-01" purity="5.3280138969421387e-01" nType="-99"/>
        </Node>
      </Node>
    </BinaryTree>
    <BinaryTree type="DecisionTree" boostWeight="1.0000000000000000e+00" itree="125">
      <Node pos="s" depth="0" NCoef="0" IVar="6" Cut="2.2402296066284180e+00" cType="1" res="5.3446698002517223e-03" rms="4.6084937453269958e-01" purity="5.0400352478027344e-01" nType="0">
        <Node pos="l" depth="1" NCoef="0" IVar="7" Cut="5.0909305572509766e+01" cType="1" res="3.0494278296828270e-02" rms="4.6295502781867981e-01" purity="5.6868958473205566e-01" nType="0">
          <Node pos="l" depth="2" NCoef="0" IVar="-1" Cut="0.0000000000000000e+00" cType="1" res="-1.6912079881876707e-03" rms="4.6312680840492249e-01" purity="4.2125880718231201e-01" nType="-99"/>
          <Node pos="r" depth="2" NCoef="0" IVar="-1" Cut="0.0000000000000000e+00" cType="1" res="2.5117089971899986e-03" rms="4.6183744072914124e-01" purity="6.0234844684600830e-01" nType="-99"/>
        </Node>
        <Node pos="r" depth="1" NCoef="0" IVar="0" Cut="2.6631457805633545e+00" cType="1" res="-2.5231599807739258e-02" rms="4.5641356706619263e-01" purity="4.2535978555679321e-01" nType="0">
          <Node pos="l" depth="2" NCoef="0" IVar="-1" Cut="0.0000000000000000e+00" cType="1" res="-3.6351543385535479e-03" rms="4.3793028593063354e-01" purity="2.9010853171348572e-01" nType="-99"/>
          <Node pos="r" depth="2" NCoef="0" IVar="-1" Cut="0.0000000000000000e+00" cType="1" res="3.4407523344270885e-04" rms="4.7104412317276001e-01" purity="5.5303120613098145e-01" nType="-99"/>
        </Node>
      </Node>
    </BinaryTree>
    <BinaryTree type="DecisionTree" boostWeight="1.0000000000000000e+00" itree="126">
      <Node pos="s" depth="0" NCoef="0" IVar="7" Cut="5.9766841888427734e+01" cType="1" res="-2.6081777177751064e-03" rms="4.6022653579711914e-01" purity="4.9718102812767029e-01" nType="0">
        <Node pos="l" depth="1" NCoef="0" IVar="4" Cut="5.2845728397369385e-01" cType="1" res="-4.1208852082490921e-02" rms="4.5193189382553101e-01" purity="3.9458030462265015e-01" nType="0">
          <Node pos="l" depth="2" NCoef="0" IVar="-1" Cut="0.0000000000000000e+00" cType="1" res="-3.6197942681610584e-03" rms="4.4331514835357666e-01" purity="3.6250486969947815e-01" nType="-99"/>
          <Node pos="r" depth="2" NCoef="0" IVar="-1" Cut="0.0000000000000000e+00" cType="1" res="3.8267389754764736e-04" rms="4.6853351593017578e-01" purity="4.7160515189170837e-01" nType="-99"/>
        </Node>
        <Node pos="r" depth="1" NCoef="0" IVar="4" Cut="2.9381760954856873e-01" cType="1" res="2.0115913823246956e-02" rms="4.6353965997695923e-01" purity="5.5758166313171387e-01" nType="0">
          <Node pos="l" depth="2" NCoef="0" IVar="-1" Cut="0.0000000000000000e+00" cType="1" res="-1.7818066990002990e-03" rms="4.6729373931884766e-01" purity="4.6854367852210999e-01" nType="-99"/>
          <Node pos="r" depth="2" NCoef="0" IVar="-1" Cut="0.0000000000000000e+00" cType="1" res="2.7711738366633654e-03" rms="4.5897701382637024e-01" purity="6.0700702667236328e-01" nType="-99"/>
        </Node>
      </Node>
    </BinaryTree>
    <BinaryTree type="DecisionTree" boostWeight="1.0000000000000000e+00" itree="127">
      <Node pos="s" depth="0" NCoef="0" IVar="4" Cut="3.6334806680679321e-01" cType="1" res="6.5642865374684334e-03" rms="4.6222835779190063e-01" purity="5.0740426778793335e-01" nType="0">
        <Node pos="l" depth="1" NCoef="0" IVar="6" Cut="2.3295135498046875e+00" cType="1" res="-2.2996423766016960e-02" rms="4.6234902739524841e-01" purity="4.5706793665885925e-01" nType="0">
          <Node pos="l" depth="2" NCoef="0" IVar="-1" Cut="0.0000000000000000e+00" cType="1" res="3.6646160879172385e-04" rms="4.7239789366722107e-01" purity="5.3393709659576416e-01" nType="-99"/>
          <Node pos="r" depth="2" NCoef="0" IVar="-1" Cut="0.0000000000000000e+00" cType="1" res="-3.9436016231775284e-03" rms="4.4383028149604797e-01" purity="3.4514120221138000e-01" nType="-99"/>
        </Node>
        <Node pos="r" depth="1" NCoef="0" IVar="7" Cut="4.6755813598632812e+01" cType="1" res="3.1802799552679062e-02" rms="4.6062648296356201e-01" purity="5.5038064718246460e-01" nType="0">
          <Node pos="l" depth="2" NCoef="0" IVar="-1" Cut="0.0000000000000000e+00" cType="1" res="-3.2098030205816031e-03" rms="4.5293825864791870e-01" purity="3.6280566453933716e-01" nType="-99"/>
          <Node pos="r" depth="2" NCoef="0" IVar="-1" Cut="0.0000000000000000e+00" cType="1" res="2.6197016704827547e-03" rms="4.6033602952957153e-01" purity="5.8060628175735474e-01" nType="-99"/>
        </Node>
      </Node>
    </BinaryTree>
    <BinaryTree type="DecisionTree" boostWeight="1.0000000000000000e+00" itree="128">
      <Node pos="s" depth="0" NCoef="0" IVar="6" Cut="2.6657619476318359e+00" cType="1" res="6.6918565426021814e-04" rms="4.6037489175796509e-01" purity="4.9969083070755005e-01" nType="0">
        <Node pos="l" depth="1" NCoef="0" IVar="7" Cut="6.1428325653076172e+01" cType="1" res="1.0102925822138786e-02" rms="4.6332457661628723e-01" purity="5.2903211116790771e-01" nType="0">
          <Node pos="l" depth="2" NCoef="0" IVar="-1" Cut="0.0000000000000000e+00" cType="1" res="-1.6512206057086587e-03" rms="4.6201643347740173e-01" purity="4.2712783813476562e-01" nType="-99"/>
          <Node pos="r" depth="2" NCoef="0" IVar="-1" Cut="0.0000000000000000e+00" cType="1" res="1.9606971181929111e-03" rms="4.6249109506607056e-01" purity="5.9332621097564697e-01" nType="-99"/>
        </Node>
        <Node pos="r" depth="1" NCoef="0" IVar="3" Cut="6.8032428622245789e-02" cType="1" res="-7.2112210094928741e-02" rms="4.3004751205444336e-01" purity="2.7332264184951782e-01" nType="0">
          <Node pos="l" depth="2" NCoef="0" IVar="-1" Cut="0.0000000000000000e+00" cType="1" res="-1.9415243295952678e-03" rms="4.5690095424652100e-01" purity="3.2606416940689087e-01" nType="-99"/>
          <Node pos="r" depth="2" NCoef="0" IVar="-1" Cut="0.0000000000000000e+00" cType="1" res="-6.8891202099621296e-03" rms="4.0116038918495178e-01" purity="2.2631931304931641e-01" nType="-99"/>
        </Node>
      </Node>
    </BinaryTree>
    <BinaryTree type="DecisionTree" boostWeight="1.0000000000000000e+00" itree="129">
      <Node pos="s" depth="0" NCoef="0" IVar="1" Cut="7.6152136230468750e+02" cType="1" res="4.5964913442730904e-03" rms="4.6154007315635681e-01" purity="5.0339251756668091e-01" nType="0">
        <Node pos="l" depth="1" NCoef="0" IVar="5" Cut="9.8383677005767822e-01" cType="1" res="-7.7200848609209061e-03" rms="4.6149942278862000e-01" purity="4.8008671402931213e-01" nType="0">
          <Node pos="l" depth="2" NCoef="0" IVar="-1" Cut="0.0000000000000000e+00" cType="1" res="-9.8084064666181803e-04" rms="4.6622726321220398e-01" purity="4.4429066777229309e-01" nType="-99"/>
          <Node pos="r" depth="2" NCoef="0" IVar="-1" Cut="0.0000000000000000e+00" cType="1" res="4.0260809473693371e-03" rms="4.1750916838645935e-01" purity="7.4925148487091064e-01" nType="-99"/>
        </Node>
        <Node pos="r" depth="1" NCoef="0" IVar="6" Cut="2.1375143527984619e+00" cType="1" res="7.7561296522617340e-02" rms="4.5499342679977417e-01" purity="6.4145863056182861e-01" nType="0">
          <Node pos="l" depth="2" NCoef="0" IVar="-1" Cut="0.0000000000000000e+00" cType="1" res="6.7810798063874245e-03" rms="4.3300756812095642e-01" purity="7.1664851903915405e-01" nType="-99"/>
          <Node pos="r" depth="2" NCoef="0" IVar="-1" Cut="0.0000000000000000e+00" cType="1" res="2.8182140085846186e-03" rms="4.6825364232063293e-01" purity="5.8689296245574951e-01" nType="-99"/>
        </Node>
      </Node>
    </BinaryTree>
    <BinaryTree type="DecisionTree" boostWeight="1.0000000000000000e+00" itree="130">
      <Node pos="s" depth="0" NCoef="0" IVar="1" Cut="7.5040216064453125e+02" cType="1" res="-2.0702497567981482e-03" rms="4.6142557263374329e-01" purity="4.9680772423744202e-01" nType="0">
        <Node pos="l" depth="1" NCoef="0" IVar="4" Cut="2.9230195283889771e-01" cType="1" res="-1.3389305211603642e-02" rms="4.6167704463005066e-01" purity="4.7175759077072144e-01" nType="0">
          <Node pos="l" depth="2" NCoef="0" IVar="-1" Cut="0.0000000000000000e+00" cType="1" res="-3.4809627104550600e-03" rms="4.5477113127708435e-01" purity="3.8465589284896851e-01" nType="-99"/>
          <Node pos="r" depth="2" NCoef="0" IVar="-1" Cut="0.0000000000000000e+00" cType="1" res="4.1573881753720343e-04" rms="4.6323296427726746e-01" purity="5.1052695512771606e-01" nType="-99"/>
        </Node>
        <Node pos="r" depth="1" NCoef="0" IVar="5" Cut="9.4196671247482300e-01" cType="1" res="5.8353200554847717e-02" rms="4.5534545183181763e-01" purity="6.3053053617477417e-01" nType="0">
          <Node pos="l" depth="2" NCoef="0" IVar="-1" Cut="0.0000000000000000e+00" cType="1" res="9.8871591035276651e-04" rms="4.7906774282455444e-01" purity="4.8660278320312500e-01" nType="-99"/>
          <Node pos="r" depth="2" NCoef="0" IVar="-1" Cut="0.0000000000000000e+00" cType="1" res="4.6204668469727039e-03" rms="4.4217878580093384e-01" purity="6.9980961084365845e-01" nType="-99"/>
        </Node>
      </Node>
    </BinaryTree>
    <BinaryTree type="DecisionTree" boostWeight="1.0000000000000000e+00" itree="131">
      <Node pos="s" depth="0" NCoef="0" IVar="0" Cut="2.3103289604187012e+00" cType="1" res="8.5638792370446026e-05" rms="4.5961081981658936e-01" purity="4.9951541423797607e-01" nType="0">
        <Node pos="l" depth="1" NCoef="0" IVar="1" Cut="6.9864099121093750e+02" cType="1" res="-3.6619193851947784e-02" rms="4.5301330089569092e-01" purity="3.3517947793006897e-01" nType="0">
          <Node pos="l" depth="2" NCoef="0" IVar="-1" Cut="0.0000000000000000e+00" cType="1" res="-3.1159576028585434e-03" rms="4.4421288371086121e-01" purity="3.0291649699211121e-01" nType="-99"/>
          <Node pos="r" depth="2" NCoef="0" IVar="-1" Cut="0.0000000000000000e+00" cType="1" res="1.4427762944251299e-03" rms="4.8565560579299927e-01" purity="4.7977179288864136e-01" nType="-99"/>
        </Node>
        <Node pos="r" depth="1" NCoef="0" IVar="8" Cut="1.1265678405761719e+00" cType="1" res="2.1771920844912529e-02" rms="4.6209657192230225e-01" purity="5.9660983085632324e-01" nType="0">
          <Node pos="l" depth="2" NCoef="0" IVar="-1" Cut="0.0000000000000000e+00" cType="1" res="2.7860049158334732e-03" rms="4.5604127645492554e-01" purity="6.3730037212371826e-01" nType="-99"/>
          <Node pos="r" depth="2" NCoef="0" IVar="-1" Cut="0.0000000000000000e+00" cType="1" res="-8.4261695155873895e-04" rms="4.6751183271408081e-01" purity="5.4243612289428711e-01" nType="-99"/>
        </Node>
      </Node>
    </BinaryTree>
    <BinaryTree type="DecisionTree" boostWeight="1.0000000000000000e+00" itree="132">
      <Node pos="s" depth="0" NCoef="0" IVar="7" Cut="4.1631557464599609e+01" cType="1" res="2.5790717918425798e-03" rms="4.6036973595619202e-01" purity="5.0211739540100098e-01" nType="0">
        <Node pos="l" depth="1" NCoef="0" IVar="-1" Cut="0.0000000000000000e+00" cType="1" res="-7.0589710958302021e-03" rms="4.2417138814926147e-01" purity="2.7315577864646912e-01" nType="-99"/>
        <Node pos="r" depth="1" NCoef="0" IVar="4" Cut="3.7990921735763550e-01" cType="1" res="9.5308441668748856e-03" rms="4.6148252487182617e-01" purity="5.1564675569534302e-01" nType="0">
          <Node pos="l" depth="2" NCoef="0" IVar="-1" Cut="0.0000000000000000e+00" cType="1" res="-1.0842717019841075e-03" rms="4.6242845058441162e-01" purity="4.6378982067108154e-01" nType="-99"/>
          <Node pos="r" depth="2" NCoef="0" IVar="-1" Cut="0.0000000000000000e+00" cType="1" res="2.1472536027431488e-03" rms="4.5885545015335083e-01" purity="5.6657689809799194e-01" nType="-99"/>
        </Node>
      </Node>
    </BinaryTree>
    <BinaryTree type="DecisionTree" boostWeight="1.0000000000000000e+00" itree="133">
      <Node pos="s" depth="0" NCoef="0" IVar="5" Cut="9.5360285043716431e-01" cType="1" res="1.1557921534404159e-03" rms="4.5857328176498413e-01" purity="5.0122046470642090e-01" nType="0">
        <Node pos="l" depth="1" NCoef="0" IVar="7" Cut="6.1068038940429688e+01" cType="1" res="-2.5576636195182800e-02" rms="4.6013724803924561e-01" purity="3.8475593924522400e-01" nType="0">
          <Node pos="l" depth="2" NCoef="0" IVar="-1" Cut="0.0000000000000000e+00" cType="1" res="-3.2281444873660803e-03" rms="4.3788400292396545e-01" purity="2.9431375861167908e-01" nType="-99"/>
          <Node pos="r" depth="2" NCoef="0" IVar="-1" Cut="0.0000000000000000e+00" cType="1" res="-3.2223566086031497e-04" rms="4.7425213456153870e-01" purity="4.4870036840438843e-01" nType="-99"/>
        </Node>
        <Node pos="r" depth="1" NCoef="0" IVar="6" Cut="2.6339015960693359e+00" cType="1" res="2.9044581577181816e-02" rms="4.5526599884033203e-01" purity="6.2272286415100098e-01" nType="0">
          <Node pos="l" depth="2" NCoef="0" IVar="-1" Cut="0.0000000000000000e+00" cType="1" res="2.4258596822619438e-03" rms="4.5256078243255615e-01" purity="6.5714037418365479e-01" nType="-99"/>
          <Node pos="r" depth="2" NCoef="0" IVar="-1" Cut="0.0000000000000000e+00" cType="1" res="-3.7098187021911144e-03" rms="4.6484544873237610e-01" purity="3.6068481206893921e-01" nType="-99"/>
        </Node>
      </Node>
    </BinaryTree>
    <BinaryTree type="DecisionTree" boostWeight="1.0000000000000000e+00" itree="134">
      <Node pos="s" depth="0" NCoef="0" IVar="6" Cut="2.8381803035736084e+00" cType="1" res="-1.2433552183210850e-03" rms="4.6046972274780273e-01" purity="4.9682044982910156e-01" nType="0">
        <Node pos="l" depth="1" NCoef="0" IVar="2" Cut="1.1290205383300781e+02" cType="1" res="5.6956922635436058e-03" rms="4.6331593394279480e-01" purity="5.1585555076599121e-01" nType="0">
          <Node pos="l" depth="2" NCoef="0" IVar="-1" Cut="0.0000000000000000e+00" cType="1" res="-7.1031664265319705e-04" rms="4.6493715047836304e-01" purity="4.8777008056640625e-01" nType="-99"/>
          <Node pos="r" depth="2" NCoef="0" IVar="-1" Cut="0.0000000000000000e+00" cType="1" res="2.2198886144906282e-03" rms="4.5855468511581421e-01" purity="5.6678068637847900e-01" nType="-99"/>
        </Node>
        <Node pos="r" depth="1" NCoef="0" IVar="-1" Cut="0.0000000000000000e+00" cType="1" res="-6.2228310853242874e-03" rms="4.0662845969200134e-01" purity="2.3144499957561493e-01" nType="-99"/>
      </Node>
    </BinaryTree>
    <BinaryTree type="DecisionTree" boostWeight="1.0000000000000000e+00" itree="135">
      <Node pos="s" depth="0" NCoef="0" IVar="6" Cut="1.6034090518951416e+00" cType="1" res="-2.3240521550178528e-03" rms="4.6025431156158447e-01" purity="4.9811339378356934e-01" nType="0">
        <Node pos="l" depth="1" NCoef="0" IVar="-1" Cut="0.0000000000000000e+00" cType="1" res="5.2981157787144184e-03" rms="4.5107758045196533e-01" purity="6.3729488849639893e-01" nType="-99"/>
        <Node pos="r" depth="1" NCoef="0" IVar="0" Cut="4.1857256889343262e+00" cType="1" res="-1.2879099696874619e-02" rms="4.6005061268806458e-01" purity="4.8266962170600891e-01" nType="0">
          <Node pos="l" depth="2" NCoef="0" IVar="-1" Cut="0.0000000000000000e+00" cType="1" res="-1.5512964455410838e-03" rms="4.6583700180053711e-01" purity="4.2361414432525635e-01" nType="-99"/>
          <Node pos="r" depth="2" NCoef="0" IVar="-1" Cut="0.0000000000000000e+00" cType="1" res="2.5821481831371784e-03" rms="4.3172198534011841e-01" purity="7.1841323375701904e-01" nType="-99"/>
        </Node>
      </Node>
    </BinaryTree>
    <BinaryTree type="DecisionTree" boostWeight="1.0000000000000000e+00" itree="136">
      <Node pos="s" depth="0" NCoef="0" IVar="0" Cut="3.8203020095825195e+00" cType="1" res="8.0828455975279212e-04" rms="4.6066322922706604e-01" purity="5.0098043680191040e-01" nType="0">
        <Node pos="l" depth="1" NCoef="0" IVar="4" Cut="1.3224287331104279e-01" cType="1" res="-1.4148795977234840e-02" rms="4.6856150031089783e-01" purity="4.2541980743408203e-01" nType="0">
          <Node pos="l" depth="2" NCoef="0" IVar="-1" Cut="0.0000000000000000e+00" cType="1" res="-6.1132535338401794e-03" rms="4.4445291161537170e-01" purity="3.0746588110923767e-01" nType="-99"/>
          <Node pos="r" depth="2" NCoef="0" IVar="-1" Cut="0.0000000000000000e+00" cType="1" res="-3.9617001311853528e-04" rms="4.6971318125724792e-01" purity="4.3497025966644287e-01" nType="-99"/>
        </Node>
        <Node pos="r" depth="1" NCoef="0" IVar="7" Cut="5.9174468994140625e+01" cType="1" res="4.0903005748987198e-02" rms="4.3626746535301208e-01" purity="7.0353209972381592e-01" nType="0">
          <Node pos="l" depth="2" NCoef="0" IVar="-1" Cut="0.0000000000000000e+00" cType="1" res="-3.7801789585500956e-04" rms="4.6736219525337219e-01" purity="6.0009932518005371e-01" nType="-99"/>
          <Node pos="r" depth="2" NCoef="0" IVar="-1" Cut="0.0000000000000000e+00" cType="1" res="3.7054875865578651e-03" rms="4.2104953527450562e-01" purity="7.4662292003631592e-01" nType="-99"/>
        </Node>
      </Node>
    </BinaryTree>
    <BinaryTree type="DecisionTree" boostWeight="1.0000000000000000e+00" itree="137">
      <Node pos="s" depth="0" NCoef="0" IVar="8" Cut="9.4320505857467651e-01" cType="1" res="4.3908436782658100e-03" rms="4.6270433068275452e-01" purity="5.0525569915771484e-01" nType="0">
        <Node pos="l" depth="1" NCoef="0" IVar="4" Cut="4.9413767457008362e-01" cType="1" res="3.8650520145893097e-02" rms="4.6259698271751404e-01" purity="5.6006550788879395e-01" nType="0">
          <Node pos="l" depth="2" NCoef="0" IVar="-1" Cut="0.0000000000000000e+00" cType="1" res="9.6765469061210752e-04" rms="4.6442675590515137e-01" purity="5.2971637248992920e-01" nType="-99"/>
          <Node pos="r" depth="2" NCoef="0" IVar="-1" Cut="0.0000000000000000e+00" cType="1" res="4.9625849351286888e-03" rms="4.5480018854141235e-01" purity="6.2733185291290283e-01" nType="-99"/>
        </Node>
        <Node pos="r" depth="1" NCoef="0" IVar="7" Cut="4.7793891906738281e+01" cType="1" res="-1.8323911353945732e-02" rms="4.6137511730194092e-01" purity="4.6891582012176514e-01" nType="0">
          <Node pos="l" depth="2" NCoef="0" IVar="-1" Cut="0.0000000000000000e+00" cType="1" res="-5.7456917129456997e-03" rms="4.3046787381172180e-01" purity="3.0615445971488953e-01" nType="-99"/>
          <Node pos="r" depth="2" NCoef="0" IVar="-1" Cut="0.0000000000000000e+00" cType="1" res="-2.1148621453903615e-04" rms="4.6562936902046204e-01" purity="5.0010502338409424e-01" nType="-99"/>
        </Node>
      </Node>
    </BinaryTree>
    <BinaryTree type="DecisionTree" boostWeight="1.0000000000000000e+00" itree="138">
      <Node pos="s" depth="0" NCoef="0" IVar="6" Cut="2.8548219203948975e+00" cType="1" res="2.9052319005131721e-03" rms="4.6104732155799866e-01" purity="5.0173652172088623e-01" nType="0">
        <Node pos="l" depth="1" NCoef="0" IVar="5" Cut="9.8774856328964233e-01" cType="1" res="9.6623757854104042e-03" rms="4.6387252211570740e-01" purity="5.2001941204071045e-01" nType="0">
          <Node pos="l" depth="2" NCoef="0" IVar="-1" Cut="0.0000000000000000e+00" cType="1" res="1.6284342564176768e-04" rms="4.6900972723960876e-01" purity="4.9604666233062744e-01" nType="-99"/>
          <Node pos="r" depth="2" NCoef="0" IVar="-1" Cut="0.0000000000000000e+00" cType="1" res="5.6674121879041195e-03" rms="3.9150798320770264e-01" purity="7.9614245891571045e-01" nType="-99"/>
        </Node>
        <Node pos="r" depth="1" NCoef="0" IVar="-1" Cut="0.0000000000000000e+00" cType="1" res="-6.6057899966835976e-03" rms="4.0019649267196655e-01" purity="2.1733163297176361e-01" nType="-99"/>
      </Node>
    </BinaryTree>
    <BinaryTree type="DecisionTree" boostWeight="1.0000000000000000e+00" itree="139">
      <Node pos="s" depth="0" NCoef="0" IVar="0" Cut="1.3915357589721680e+00" cType="1" res="-4.1359909810125828e-03" rms="4.5997604727745056e-01" purity="4.9498832225799561e-01" nType="0">
        <Node pos="l" depth="1" NCoef="0" IVar="5" Cut="9.3107116222381592e-01" cType="1" res="-6.6422805190086365e-02" rms="4.3451690673828125e-01" purity="2.7815726399421692e-01" nType="0">
          <Node pos="l" depth="2" NCoef="0" IVar="-1" Cut="0.0000000000000000e+00" cType="1" res="-5.8927307836711407e-03" rms="4.0882509946823120e-01" purity="2.2361582517623901e-01" nType="-99"/>
          <Node pos="r" depth="2" NCoef="0" IVar="-1" Cut="0.0000000000000000e+00" cType="1" res="-2.4830452166497707e-03" rms="4.6063348650932312e-01" purity="3.4037894010543823e-01" nType="-99"/>
        </Node>
        <Node pos="r" depth="1" NCoef="0" IVar="6" Cut="2.6811366081237793e+00" cType="1" res="6.5449941903352737e-03" rms="4.6336135268211365e-01" purity="5.3217065334320068e-01" nType="0">
          <Node pos="l" depth="2" NCoef="0" IVar="-1" Cut="0.0000000000000000e+00" cType="1" res="9.1662828344851732e-04" rms="4.6547102928161621e-01" purity="5.6084936857223511e-01" nType="-99"/>
          <Node pos="r" depth="2" NCoef="0" IVar="-1" Cut="0.0000000000000000e+00" cType="1" res="-4.4124843552708626e-03" rms="4.3724623322486877e-01" purity="2.9207062721252441e-01" nType="-99"/>
        </Node>
      </Node>
    </BinaryTree>
    <BinaryTree type="DecisionTree" boostWeight="1.0000000000000000e+00" itree="140">
      <Node pos="s" depth="0" NCoef="0" IVar="0" Cut="4.3684005737304688e+00" cType="1" res="9.6837291494011879e-03" rms="4.5875170826911926e-01" purity="5.0888955593109131e-01" nType="0">
        <Node pos="l" depth="1" NCoef="0" IVar="1" Cut="5.1396057128906250e+02" cType="1" res="-9.2240591766312718e-04" rms="4.6644264459609985e-01" purity="4.5734202861785889e-01" nType="0">
          <Node pos="l" depth="2" NCoef="0" IVar="-1" Cut="0.0000000000000000e+00" cType="1" res="-1.6704685986042023e-03" rms="4.5349958539009094e-01" purity="3.7081348896026611e-01" nType="-99"/>
          <Node pos="r" depth="2" NCoef="0" IVar="-1" Cut="0.0000000000000000e+00" cType="1" res="1.3726117322221398e-03" rms="4.7682270407676697e-01" purity="5.3829687833786011e-01" nType="-99"/>
        </Node>
        <Node pos="r" depth="1" NCoef="0" IVar="0" Cut="5.3498892784118652e+00" cType="1" res="5.9501651674509048e-02" rms="4.1715744137763977e-01" purity="7.5101286172866821e-01" nType="0">
          <Node pos="l" depth="2" NCoef="0" IVar="-1" Cut="0.0000000000000000e+00" cType="1" res="2.3364189546555281e-03" rms="4.3837112188339233e-01" purity="7.0978945493698120e-01" nType="-99"/>
          <Node pos="r" depth="2" NCoef="0" IVar="-1" Cut="0.0000000000000000e+00" cType="1" res="6.3375271856784821e-03" rms="3.7323254346847534e-01" purity="8.2520836591720581e-01" nType="-99"/>
        </Node>
      </Node>
    </BinaryTree>
    <BinaryTree type="DecisionTree" boostWeight="1.0000000000000000e+00" itree="141">
      <Node pos="s" depth="0" NCoef="0" IVar="1" Cut="3.5643167114257812e+02" cType="1" res="6.9424491375684738e-03" rms="4.6023780107498169e-01" purity="5.0564819574356079e-01" nType="0">
        <Node pos="l" depth="1" NCoef="0" IVar="-1" Cut="0.0000000000000000e+00" cType="1" res="-5.8262106031179428e-03" rms="4.1042816638946533e-01" purity="2.7272537350654602e-01" nType="-99"/>
        <Node pos="r" depth="1" NCoef="0" IVar="6" Cut="2.8562803268432617e+00" cType="1" res="1.2968723662197590e-02" rms="4.6240127086639404e-01" purity="5.1977920532226562e-01" nType="0">
          <Node pos="l" depth="2" NCoef="0" IVar="-1" Cut="0.0000000000000000e+00" cType="1" res="1.1303576175123453e-03" rms="4.6449670195579529e-01" purity="5.3769522905349731e-01" nType="-99"/>
          <Node pos="r" depth="2" NCoef="0" IVar="-1" Cut="0.0000000000000000e+00" cType="1" res="-5.9066377580165863e-03" rms="4.1342252492904663e-01" purity="2.3419575393199921e-01" nType="-99"/>
        </Node>
      </Node>
    </BinaryTree>
    <BinaryTree type="DecisionTree" boostWeight="1.0000000000000000e+00" itree="142">
      <Node pos="s" depth="0" NCoef="0" IVar="6" Cut="1.9208451509475708e+00" cType="1" res="-2.2101418289821595e-04" rms="4.6173119544982910e-01" purity="4.9757981300354004e-01" nType="0">
        <Node pos="l" depth="1" NCoef="0" IVar="2" Cut="9.7176834106445312e+01" cType="1" res="4.5634400099515915e-02" rms="4.6001514792442322e-01" purity="5.8850246667861938e-01" nType="0">
          <Node pos="l" depth="2" NCoef="0" IVar="-1" Cut="0.0000000000000000e+00" cType="1" res="1.2839740375056863e-03" rms="4.6698066592216492e-01" purity="5.4820299148559570e-01" nType="-99"/>
          <Node pos="r" depth="2" NCoef="0" IVar="-1" Cut="0.0000000000000000e+00" cType="1" res="6.7104441113770008e-03" rms="4.2999708652496338e-01" purity="7.1330022811889648e-01" nType="-99"/>
        </Node>
        <Node pos="r" depth="1" NCoef="0" IVar="0" Cut="4.5667662620544434e+00" cType="1" res="-1.3273133896291256e-02" rms="4.6138599514961243e-01" purity="4.7169995307922363e-01" nType="0">
          <Node pos="l" depth="2" NCoef="0" IVar="-1" Cut="0.0000000000000000e+00" cType="1" res="-1.3330514775589108e-03" rms="4.6631574630737305e-01" purity="4.2944198846817017e-01" nType="-99"/>
          <Node pos="r" depth="2" NCoef="0" IVar="-1" Cut="0.0000000000000000e+00" cType="1" res="2.9112964402884245e-03" rms="4.2433896660804749e-01" purity="7.3592728376388550e-01" nType="-99"/>
        </Node>
      </Node>
    </BinaryTree>
    <BinaryTree type="DecisionTree" boostWeight="1.0000000000000000e+00" itree="143">
      <Node pos="s" depth="0" NCoef="0" IVar="1" Cut="6.6910699462890625e+02" cType="1" res="-2.7033714577555656e-03" rms="4.5963335037231445e-01" purity="4.9824428558349609e-01" nType="0">
        <Node pos="l" depth="1" NCoef="0" IVar="1" Cut="3.7875930786132812e+02" cType="1" res="-1.6966696828603745e-02" rms="4.5905146002769470e-01" purity="4.6103739738464355e-01" nType="0">
          <Node pos="l" depth="2" NCoef="0" IVar="-1" Cut="0.0000000000000000e+00" cType="1" res="-5.4494543001055717e-03" rms="4.2525234818458557e-01" purity="2.8888037800788879e-01" nType="-99"/>
          <Node pos="r" depth="2" NCoef="0" IVar="-1" Cut="0.0000000000000000e+00" cType="1" res="-4.0577710024081171e-04" rms="4.6271967887878418e-01" purity="4.8515424132347107e-01" nType="-99"/>
        </Node>
        <Node pos="r" depth="1" NCoef="0" IVar="5" Cut="9.3483889102935791e-01" cType="1" res="4.3915539979934692e-02" rms="4.5844498276710510e-01" purity="6.1985301971435547e-01" nType="0">
          <Node pos="l" depth="2" NCoef="0" IVar="-1" Cut="0.0000000000000000e+00" cType="1" res="-8.4271880041342229e-05" rms="4.8761129379272461e-01" purity="4.5686244964599609e-01" nType="-99"/>
          <Node pos="r" depth="2" NCoef="0" IVar="-1" Cut="0.0000000000000000e+00" cType="1" res="3.4934384748339653e-03" rms="4.4723531603813171e-01" purity="6.7436814308166504e-01" nType="-99"/>
        </Node>
      </Node>
    </BinaryTree>
    <BinaryTree type="DecisionTree" boostWeight="1.0000000000000000e+00" itree="144">
      <Node pos="s" depth="0" NCoef="0" IVar="8" Cut="1.3289781808853149e+00" cType="1" res="3.4517931635491550e-04" rms="4.6069839596748352e-01" purity="4.9988600611686707e-01" nType="0">
        <Node pos="l" depth="1" NCoef="0" IVar="6" Cut="1.6306746006011963e+00" cType="1" res="1.6451416537165642e-02" rms="4.6178668737411499e-01" purity="5.2813261747360229e-01" nType="0">
          <Node pos="l" depth="2" NCoef="0" IVar="-1" Cut="0.0000000000000000e+00" cType="1" res="5.3662117570638657e-03" rms="4.5801040530204773e-01" purity="6.5335118770599365e-01" nType="-99"/>
          <Node pos="r" depth="2" NCoef="0" IVar="-1" Cut="0.0000000000000000e+00" cType="1" res="4.7924357932060957e-04" rms="4.6141415834426880e-01" purity="5.1502799987792969e-01" nType="-99"/>
        </Node>
        <Node pos="r" depth="1" NCoef="0" IVar="1" Cut="4.4240692138671875e+02" cType="1" res="-4.1406299918889999e-02" rms="4.5521962642669678e-01" purity="4.2666357755661011e-01" nType="0">
          <Node pos="l" depth="2" NCoef="0" IVar="-1" Cut="0.0000000000000000e+00" cType="1" res="-5.2483100444078445e-03" rms="4.2589294910430908e-01" purity="2.9941499233245850e-01" nType="-99"/>
          <Node pos="r" depth="2" NCoef="0" IVar="-1" Cut="0.0000000000000000e+00" cType="1" res="-1.0437972377985716e-03" rms="4.6846371889114380e-01" purity="4.9454873800277710e-01" nType="-99"/>
        </Node>
      </Node>
    </BinaryTree>
    <BinaryTree type="DecisionTree" boostWeight="1.0000000000000000e+00" itree="145">
      <Node pos="s" depth="0" NCoef="0" IVar="4" Cut="3.2965084910392761e-01" cType="1" res="-7.7773183584213257e-03" rms="4.5988574624061584e-01" purity="4.9062955379486084e-01" nType="0">
        <Node pos="l" depth="1" NCoef="0" IVar="1" Cut="7.8803002929687500e+02" cType="1" res="-4.0144812315702438e-02" rms="4.5793098211288452e-01" purity="4.3068757653236389e-01" nType="0">
          <Node pos="l" depth="2" NCoef="0" IVar="-1" Cut="0.0000000000000000e+00" cType="1" res="-3.1018222216516733e-03" rms="4.5496755838394165e-01" purity="4.0030574798583984e-01" nType="-99"/>
          <Node pos="r" depth="2" NCoef="0" IVar="-1" Cut="0.0000000000000000e+00" cType="1" res="1.2887732591480017e-03" rms="4.6714588999748230e-01" purity="5.7908219099044800e-01" nType="-99"/>
        </Node>
        <Node pos="r" depth="1" NCoef="0" IVar="0" Cut="1.7059528827667236e+00" cType="1" res="1.3700292445719242e-02" rms="4.5992276072502136e-01" purity="5.3040438890457153e-01" nType="0">
          <Node pos="l" depth="2" NCoef="0" IVar="-1" Cut="0.0000000000000000e+00" cType="1" res="-2.1982195321470499e-03" rms="4.5350903272628784e-01" purity="3.2410255074501038e-01" nType="-99"/>
          <Node pos="r" depth="2" NCoef="0" IVar="-1" Cut="0.0000000000000000e+00" cType="1" res="1.6023520147427917e-03" rms="4.6078380942344666e-01" purity="5.9031063318252563e-01" nType="-99"/>
        </Node>
      </Node>
    </BinaryTree>
    <BinaryTree type="DecisionTree" boostWeight="1.0000000000000000e+00" itree="146">
      <Node pos="s" depth="0" NCoef="0" IVar="5" Cut="9.3080401420593262e-01" cType="1" res="7.9615256981924176e-04" rms="4.5761364698410034e-01" purity="5.0120782852172852e-01" nType="0">
        <Node pos="l" depth="1" NCoef="0" IVar="4" Cut="2.5174733996391296e-01" cType="1" res="-5.2663132548332214e-02" rms="4.4371619820594788e-01" purity="3.1256875395774841e-01" nType="0">
          <Node pos="l" depth="2" NCoef="0" IVar="-1" Cut="0.0000000000000000e+00" cType="1" res="-5.5456906557083130e-03" rms="4.1301518678665161e-01" purity="2.5318107008934021e-01" nType="-99"/>
          <Node pos="r" depth="2" NCoef="0" IVar="-1" Cut="0.0000000000000000e+00" cType="1" res="-2.0781499333679676e-03" rms="4.5531198382377625e-01" purity="3.3822575211524963e-01" nType="-99"/>
        </Node>
        <Node pos="r" depth="1" NCoef="0" IVar="1" Cut="3.8199645996093750e+02" cType="1" res="1.5540736727416515e-02" rms="4.6028193831443787e-01" purity="5.5323630571365356e-01" nType="0">
          <Node pos="l" depth="2" NCoef="0" IVar="-1" Cut="0.0000000000000000e+00" cType="1" res="-3.5410551354289055e-03" rms="4.4786256551742554e-01" purity="3.5387131571769714e-01" nType="-99"/>
          <Node pos="r" depth="2" NCoef="0" IVar="-1" Cut="0.0000000000000000e+00" cType="1" res="1.3570202281698585e-03" rms="4.6088191866874695e-01" purity="5.7420057058334351e-01" nType="-99"/>
        </Node>
      </Node>
    </BinaryTree>
    <BinaryTree type="DecisionTree" boostWeight="1.0000000000000000e+00" itree="147">
      <Node pos="s" depth="0" NCoef="0" IVar="8" Cut="1.0808082818984985e+00" cType="1" res="-3.9375997148454189e-03" rms="4.5953476428985596e-01" purity="4.9523097276687622e-01" nType="0">
        <Node pos="l" depth="1" NCoef="0" IVar="0" Cut="1.6475110054016113e+00" cType="1" res="2.3578386753797531e-02" rms="4.6032139658927917e-01" purity="5.4062390327453613e-01" nType="0">
          <Node pos="l" depth="2" NCoef="0" IVar="-1" Cut="0.0000000000000000e+00" cType="1" res="-2.1574869751930237e-03" rms="4.5630583167076111e-01" purity="3.2564711570739746e-01" nType="-99"/>
          <Node pos="r" depth="2" NCoef="0" IVar="-1" Cut="0.0000000000000000e+00" cType="1" res="2.1533861290663481e-03" rms="4.6018260717391968e-01" purity="5.9214240312576294e-01" nType="-99"/>
        </Node>
        <Node pos="r" depth="1" NCoef="0" IVar="1" Cut="5.3439807128906250e+02" cType="1" res="-3.3648405224084854e-02" rms="4.5682671666145325e-01" purity="4.4621726870536804e-01" nType="0">
          <Node pos="l" depth="2" NCoef="0" IVar="-1" Cut="0.0000000000000000e+00" cType="1" res="-3.6419834941625595e-03" rms="4.5091435313224792e-01" purity="3.7030386924743652e-01" nType="-99"/>
          <Node pos="r" depth="2" NCoef="0" IVar="-1" Cut="0.0000000000000000e+00" cType="1" res="4.0766363963484764e-04" rms="4.6247056126594543e-01" purity="5.5894923210144043e-01" nType="-99"/>
        </Node>
      </Node>
    </BinaryTree>
    <BinaryTree type="DecisionTree" boostWeight="1.0000000000000000e+00" itree="148">
      <Node pos="s" depth="0" NCoef="0" IVar="0" Cut="3.1596348285675049e+00" cType="1" res="-6.7388326860964298e-03" rms="4.5881581306457520e-01" purity="4.9129432439804077e-01" nType="0">
        <Node pos="l" depth="1" NCoef="0" IVar="1" Cut="6.2403680419921875e+02" cType="1" res="-2.6272388175129890e-02" rms="4.6144041419029236e-01" purity="3.8277396559715271e-01" nType="0">
          <Node pos="l" depth="2" NCoef="0" IVar="-1" Cut="0.0000000000000000e+00" cType="1" res="-2.4801883846521378e-03" rms="4.5197978615760803e-01" purity="3.3839401602745056e-01" nType="-99"/>
          <Node pos="r" depth="2" NCoef="0" IVar="-1" Cut="0.0000000000000000e+00" cType="1" res="7.6928612543269992e-04" rms="4.8341032862663269e-01" purity="5.0069439411163330e-01" nType="-99"/>
        </Node>
        <Node pos="r" depth="1" NCoef="0" IVar="8" Cut="1.0497276782989502e+00" cType="1" res="2.2148493677377701e-02" rms="4.5336666703224182e-01" purity="6.5178030729293823e-01" nType="0">
          <Node pos="l" depth="2" NCoef="0" IVar="-1" Cut="0.0000000000000000e+00" cType="1" res="2.9776042792946100e-03" rms="4.4204860925674438e-01" purity="6.9893860816955566e-01" nType="-99"/>
          <Node pos="r" depth="2" NCoef="0" IVar="-1" Cut="0.0000000000000000e+00" cType="1" res="-4.4297514250501990e-04" rms="4.6295040845870972e-01" purity="6.0276359319686890e-01" nType="-99"/>
        </Node>
      </Node>
    </BinaryTree>
    <BinaryTree type="DecisionTree" boostWeight="1.0000000000000000e+00" itree="149">
      <Node pos="s" depth="0" NCoef="0" IVar="6" Cut="2.1441247463226318e+00" cType="1" res="3.5857618786394596e-03" rms="4.5935702323913574e-01" purity="5.0214815139770508e-01" nType="0">
        <Node pos="l" depth="1" NCoef="0" IVar="8" Cut="1.2064157724380493e+00" cType="1" res="3.3315833657979965e-02" rms="4.5904642343521118e-01" purity="5.7717287540435791e-01" nType="0">
          <Node pos="l" depth="2" NCoef="0" IVar="-1" Cut="0.0000000000000000e+00" cType="1" res="3.1970958225429058e-03" rms="4.5467928051948547e-01" purity="6.1382973194122314e-01" nType="-99"/>
          <Node pos="r" depth="2" NCoef="0" IVar="-1" Cut="0.0000000000000000e+00" cType="1" res="-8.0599493230693042e-05" rms="4.6369233727455139e-01" purity="5.1966369152069092e-01" nType="-99"/>
        </Node>
        <Node pos="r" depth="1" NCoef="0" IVar="2" Cut="1.0255861663818359e+02" cType="1" res="-1.6416663303971291e-02" rms="4.5848232507705688e-01" purity="4.5167139172554016e-01" nType="0">
          <Node pos="l" depth="2" NCoef="0" IVar="-1" Cut="0.0000000000000000e+00" cType="1" res="-2.8670663014054298e-03" rms="4.5526090264320374e-01" purity="4.0634658932685852e-01" nType="-99"/>
          <Node pos="r" depth="2" NCoef="0" IVar="-1" Cut="0.0000000000000000e+00" cType="1" res="3.5077065695077181e-04" rms="4.5941463112831116e-01" purity="4.8349547386169434e-01" nType="-99"/>
        </Node>
      </Node>
    </BinaryTree>
    <BinaryTree type="DecisionTree" boostWeight="1.0000000000000000e+00" itree="150">
      <Node pos="s" depth="0" NCoef="0" IVar="1" Cut="3.8184069824218750e+02" cType="1" res="1.4619844732806087e-03" rms="4.5966589450836182e-01" purity="4.9999725818634033e-01" nType="0">
        <Node pos="l" depth="1" NCoef="0" IVar="7" Cut="4.6361465454101562e+01" cType="1" res="-6.3500657677650452e-02" rms="4.2797094583511353e-01" purity="3.0476087331771851e-01" nType="0">
          <Node pos="l" depth="2" NCoef="0" IVar="-1" Cut="0.0000000000000000e+00" cType="1" res="-6.1257844790816307e-03" rms="4.0898501873016357e-01" purity="2.5843453407287598e-01" nType="-99"/>
          <Node pos="r" depth="2" NCoef="0" IVar="-1" Cut="0.0000000000000000e+00" cType="1" res="-1.9067976390942931e-03" rms="4.4326221942901611e-01" purity="3.4995666146278381e-01" nType="-99"/>
        </Node>
        <Node pos="r" depth="1" NCoef="0" IVar="4" Cut="1.6044001281261444e-01" cType="1" res="9.0425554662942886e-03" rms="4.6262919902801514e-01" purity="5.2277964353561401e-01" nType="0">
          <Node pos="l" depth="2" NCoef="0" IVar="-1" Cut="0.0000000000000000e+00" cType="1" res="-3.4726404119282961e-03" rms="4.4984152913093567e-01" purity="3.9947387576103210e-01" nType="-99"/>
          <Node pos="r" depth="2" NCoef="0" IVar="-1" Cut="0.0000000000000000e+00" cType="1" res="1.0535825276747346e-03" rms="4.6355295181274414e-01" purity="5.3923827409744263e-01" nType="-99"/>
        </Node>
      </Node>
    </BinaryTree>
    <BinaryTree type="DecisionTree" boostWeight="1.0000000000000000e+00" itree="151">
      <Node pos="s" depth="0" NCoef="0" IVar="8" Cut="7.8550016880035400e-01" cType="1" res="-4.3246950954198837e-03" rms="4.6010139584541321e-01" purity="4.9686849117279053e-01" nType="0">
        <Node pos="l" depth="1" NCoef="0" IVar="4" Cut="5.2873712778091431e-01" cType="1" res="3.4312110394239426e-02" rms="4.5828804373741150e-01" purity="5.6148499250411987e-01" nType="0">
          <Node pos="l" depth="2" NCoef="0" IVar="-1" Cut="0.0000000000000000e+00" cType="1" res="1.0031962301582098e-03" rms="4.6050536632537842e-01" purity="5.3873717784881592e-01" nType="-99"/>
          <Node pos="r" depth="2" NCoef="0" IVar="-1" Cut="0.0000000000000000e+00" cType="1" res="5.0972346216440201e-03" rms="4.4691798090934753e-01" purity="6.3327091932296753e-01" nType="-99"/>
        </Node>
        <Node pos="r" depth="1" NCoef="0" IVar="6" Cut="2.0564239025115967e+00" cType="1" res="-1.7231749370694160e-02" rms="4.5998299121856689e-01" purity="4.7528266906738281e-01" nType="0">
          <Node pos="l" depth="2" NCoef="0" IVar="-1" Cut="0.0000000000000000e+00" cType="1" res="9.3629606999456882e-04" rms="4.6408507227897644e-01" purity="5.5655217170715332e-01" nType="-99"/>
          <Node pos="r" depth="2" NCoef="0" IVar="-1" Cut="0.0000000000000000e+00" cType="1" res="-1.8998390296474099e-03" rms="4.5734527707099915e-01" purity="4.3895402550697327e-01" nType="-99"/>
        </Node>
      </Node>
    </BinaryTree>
    <BinaryTree type="DecisionTree" boostWeight="1.0000000000000000e+00" itree="152">
      <Node pos="s" depth="0" NCoef="0" IVar="0" Cut="2.7937910556793213e+00" cType="1" res="9.9649594631046057e-04" rms="4.5921355485916138e-01" purity="5.0068706274032593e-01" nType="0">
        <Node pos="l" depth="1" NCoef="0" IVar="6" Cut="2.5496575832366943e+00" cType="1" res="-2.4368016049265862e-02" rms="4.6038624644279480e-01" purity="3.6548495292663574e-01" nType="0">
          <Node pos="l" depth="2" NCoef="0" IVar="-1" Cut="0.0000000000000000e+00" cType="1" res="-7.7364628668874502e-04" rms="4.7220343351364136e-01" purity="3.9978334307670593e-01" nType="-99"/>
          <Node pos="r" depth="2" NCoef="0" IVar="-1" Cut="0.0000000000000000e+00" cType="1" res="-4.9136574380099773e-03" rms="4.0163815021514893e-01" purity="2.1657560765743256e-01" nType="-99"/>
        </Node>
        <Node pos="r" depth="1" NCoef="0" IVar="4" Cut="3.3097562193870544e-01" cType="1" res="2.6510691270232201e-02" rms="4.5661166310310364e-01" purity="6.3668698072433472e-01" nType="0">
          <Node pos="l" depth="2" NCoef="0" IVar="-1" Cut="0.0000000000000000e+00" cType="1" res="-3.4833504469133914e-04" rms="4.7519168257713318e-01" purity="5.6906551122665405e-01" nType="-99"/>
          <Node pos="r" depth="2" NCoef="0" IVar="-1" Cut="0.0000000000000000e+00" cType="1" res="2.8077480383217335e-03" rms="4.4252276420593262e-01" purity="6.8155473470687866e-01" nType="-99"/>
        </Node>
      </Node>
    </BinaryTree>
    <BinaryTree type="DecisionTree" boostWeight="1.0000000000000000e+00" itree="153">
      <Node pos="s" depth="0" NCoef="0" IVar="5" Cut="9.8381400108337402e-01" cType="1" res="-4.2253262363374233e-03" rms="4.5954686403274536e-01" purity="4.9617719650268555e-01" nType="0">
        <Node pos="l" depth="1" NCoef="0" IVar="2" Cut="1.1161043548583984e+02" cType="1" res="-1.3315540738403797e-02" rms="4.6487703919410706e-01" purity="4.6108505129814148e-01" nType="0">
          <Node pos="l" depth="2" NCoef="0" IVar="-1" Cut="0.0000000000000000e+00" cType="1" res="-1.8197876634076238e-03" rms="4.6580168604850769e-01" purity="4.3433275818824768e-01" nType="-99"/>
          <Node pos="r" depth="2" NCoef="0" IVar="-1" Cut="0.0000000000000000e+00" cType="1" res="9.2555774608626962e-04" rms="4.6190613508224487e-01" purity="5.0372618436813354e-01" nType="-99"/>
        </Node>
        <Node pos="r" depth="1" NCoef="0" IVar="5" Cut="9.9085867404937744e-01" cType="1" res="6.5150819718837738e-02" rms="4.1004189848899841e-01" purity="7.6399886608123779e-01" nType="0">
          <Node pos="l" depth="2" NCoef="0" IVar="-1" Cut="0.0000000000000000e+00" cType="1" res="2.7808893937617540e-03" rms="4.2783507704734802e-01" purity="7.3074412345886230e-01" nType="-99"/>
          <Node pos="r" depth="2" NCoef="0" IVar="-1" Cut="0.0000000000000000e+00" cType="1" res="5.7967384345829487e-03" rms="3.8847678899765015e-01" purity="7.9983937740325928e-01" nType="-99"/>
        </Node>
      </Node>
    </BinaryTree>
    <BinaryTree type="DecisionTree" boostWeight="1.0000000000000000e+00" itree="154">
      <Node pos="s" depth="0" NCoef="0" IVar="4" Cut="3.8306125998497009e-01" cType="1" res="5.6822826154530048e-03" rms="4.6002575755119324e-01" purity="5.0381326675415039e-01" nType="0">
        <Node pos="l" depth="1" NCoef="0" IVar="6" Cut="2.3295135498046875e+00" cType="1" res="-2.3007869720458984e-02" rms="4.5704966783523560e-01" purity="4.5073258876800537e-01" nType="0">
          <Node pos="l" depth="2" NCoef="0" IVar="-1" Cut="0.0000000000000000e+00" cType="1" res="-3.2947365980362520e-05" rms="4.6928492188453674e-01" purity="5.2376860380172729e-01" nType="-99"/>
          <Node pos="r" depth="2" NCoef="0" IVar="-1" Cut="0.0000000000000000e+00" cType="1" res="-3.3543340396136045e-03" rms="4.3704760074615479e-01" purity="3.4668824076652527e-01" nType="-99"/>
        </Node>
        <Node pos="r" depth="1" NCoef="0" IVar="3" Cut="-5.6666195392608643e-02" cType="1" res="3.4380409866571426e-02" rms="4.6120151877403259e-01" purity="5.5690872669219971e-01" nType="0">
          <Node pos="l" depth="2" NCoef="0" IVar="-1" Cut="0.0000000000000000e+00" cType="1" res="5.4781795479357243e-03" rms="4.5012035965919495e-01" purity="6.3106876611709595e-01" nType="-99"/>
          <Node pos="r" depth="2" NCoef="0" IVar="-1" Cut="0.0000000000000000e+00" cType="1" res="1.2657609768211842e-03" rms="4.6248009800910950e-01" purity="5.4139775037765503e-01" nType="-99"/>
        </Node>
      </Node>
    </BinaryTree>
    <BinaryTree type="DecisionTree" boostWeight="1.0000000000000000e+00" itree="155">
      <Node pos="s" depth="0" NCoef="0" IVar="6" Cut="2.2401013374328613e+00" cType="1" res="1.8024598248302937e-03" rms="4.6105626225471497e-01" purity="4.9986058473587036e-01" nType="0">
        <Node pos="l" depth="1" NCoef="0" IVar="2" Cut="9.5385200500488281e+01" cType="1" res="2.2484477609395981e-02" rms="4.6205016970634460e-01" purity="5.6429547071456909e-01" nType="0">
          <Node pos="l" depth="2" NCoef="0" IVar="-1" Cut="0.0000000000000000e+00" cType="1" res="-1.9094941671937704e-04" rms="4.6662926673889160e-01" purity="5.1177400350570679e-01" nType="-99"/>
          <Node pos="r" depth="2" NCoef="0" IVar="-1" Cut="0.0000000000000000e+00" cType="1" res="3.7204485852271318e-03" rms="4.5154237747192383e-01" purity="6.4850890636444092e-01" nType="-99"/>
        </Node>
        <Node pos="r" depth="1" NCoef="0" IVar="5" Cut="9.2623454332351685e-01" cType="1" res="-2.3516280576586723e-02" rms="4.5856848359107971e-01" purity="4.2097991704940796e-01" nType="0">
          <Node pos="l" depth="2" NCoef="0" IVar="-1" Cut="0.0000000000000000e+00" cType="1" res="-4.1945506818592548e-03" rms="4.1426116228103638e-01" purity="2.5551515817642212e-01" nType="-99"/>
          <Node pos="r" depth="2" NCoef="0" IVar="-1" Cut="0.0000000000000000e+00" cType="1" res="-7.8035908518359065e-04" rms="4.6771156787872314e-01" purity="4.5957762002944946e-01" nType="-99"/>
        </Node>
      </Node>
    </BinaryTree>
    <BinaryTree type="DecisionTree" boostWeight="1.0000000000000000e+00" itree="156">
      <Node pos="s" depth="0" NCoef="0" IVar="4" Cut="4.6993190050125122e-01" cType="1" res="2.3949572350829840e-03" rms="4.5876342058181763e-01" purity="5.0307947397232056e-01" nType="0">
        <Node pos="l" depth="1" NCoef="0" IVar="1" Cut="5.9056768798828125e+02" cType="1" res="-1.5058222226798534e-02" rms="4.5667076110839844e-01" purity="4.7100675106048584e-01" nType="0">
          <Node pos="l" depth="2" NCoef="0" IVar="-1" Cut="0.0000000000000000e+00" cType="1" res="-2.4025859311223030e-03" rms="4.5094171166419983e-01" purity="3.9622944593429565e-01" nType="-99"/>
          <Node pos="r" depth="2" NCoef="0" IVar="-1" Cut="0.0000000000000000e+00" cType="1" res="1.1855885386466980e-03" rms="4.6233227849006653e-01" purity="5.7713884115219116e-01" nType="-99"/>
        </Node>
        <Node pos="r" depth="1" NCoef="0" IVar="7" Cut="5.3885665893554688e+01" cType="1" res="3.4092184156179428e-02" rms="4.6085256338119507e-01" purity="5.6132757663726807e-01" nType="0">
          <Node pos="l" depth="2" NCoef="0" IVar="-1" Cut="0.0000000000000000e+00" cType="1" res="-2.7369591407477856e-04" rms="4.6364212036132812e-01" purity="4.3306741118431091e-01" nType="-99"/>
          <Node pos="r" depth="2" NCoef="0" IVar="-1" Cut="0.0000000000000000e+00" cType="1" res="2.8285770677030087e-03" rms="4.5892420411109924e-01" purity="6.1026942729949951e-01" nType="-99"/>
        </Node>
      </Node>
    </BinaryTree>
    <BinaryTree type="DecisionTree" boostWeight="1.0000000000000000e+00" itree="157">
      <Node pos="s" depth="0" NCoef="0" IVar="0" Cut="1.3057600259780884e+00" cType="1" res="-1.6703315777704120e-03" rms="4.5915475487709045e-01" purity="4.9671995639801025e-01" nType="0">
        <Node pos="l" depth="1" NCoef="0" IVar="7" Cut="7.1300331115722656e+01" cType="1" res="-6.3344612717628479e-02" rms="4.2925262451171875e-01" purity="2.7436730265617371e-01" nType="0">
          <Node pos="l" depth="2" NCoef="0" IVar="-1" Cut="0.0000000000000000e+00" cType="1" res="-6.1301318928599358e-03" rms="3.9630338549613953e-01" purity="2.0537504553794861e-01" nType="-99"/>
          <Node pos="r" depth="2" NCoef="0" IVar="-1" Cut="0.0000000000000000e+00" cType="1" res="-1.5470475191250443e-03" rms="4.7190526127815247e-01" purity="3.7776291370391846e-01" nType="-99"/>
        </Node>
        <Node pos="r" depth="1" NCoef="0" IVar="6" Cut="1.7137792110443115e+00" cType="1" res="7.4303084984421730e-03" rms="4.6270829439163208e-01" purity="5.2953034639358521e-01" nType="0">
          <Node pos="l" depth="2" NCoef="0" IVar="-1" Cut="0.0000000000000000e+00" cType="1" res="3.8174747023731470e-03" rms="4.4551977515220642e-01" purity="6.4062905311584473e-01" nType="-99"/>
          <Node pos="r" depth="2" NCoef="0" IVar="-1" Cut="0.0000000000000000e+00" cType="1" res="-1.0914753511315212e-04" rms="4.6464329957962036e-01" purity="5.1218682527542114e-01" nType="-99"/>
        </Node>
      </Node>
    </BinaryTree>
    <BinaryTree type="DecisionTree" boostWeight="1.0000000000000000e+00" itree="158">
      <Node pos="s" depth="0" NCoef="0" IVar="1" Cut="6.4893737792968750e+02" cType="1" res="1.3220155378803611e-03" rms="4.5900318026542664e-01" purity="5.0131326913833618e-01" nType="0">
        <Node pos="l" depth="1" NCoef="0" IVar="4" Cut="4.7846332192420959e-01" cType="1" res="-1.1635102331638336e-02" rms="4.5876950025558472e-01" purity="4.6017017960548401e-01" nType="0">
          <Node pos="l" depth="2" NCoef="0" IVar="-1" Cut="0.0000000000000000e+00" cType="1" res="-1.9708173349499702e-03" rms="4.5386010408401489e-01" purity="4.1696301102638245e-01" nType="-99"/>
          <Node pos="r" depth="2" NCoef="0" IVar="-1" Cut="0.0000000000000000e+00" cType="1" res="1.3733988162130117e-03" rms="4.6452146768569946e-01" purity="5.3066593408584595e-01" nType="-99"/>
        </Node>
        <Node pos="r" depth="1" NCoef="0" IVar="5" Cut="9.3380296230316162e-01" cType="1" res="3.7226907908916473e-02" rms="4.5773777365684509e-01" purity="6.1532300710678101e-01" nType="0">
          <Node pos="l" depth="2" NCoef="0" IVar="-1" Cut="0.0000000000000000e+00" cType="1" res="-8.9733913773670793e-04" rms="4.8145970702171326e-01" purity="4.3762150406837463e-01" nType="-99"/>
          <Node pos="r" depth="2" NCoef="0" IVar="-1" Cut="0.0000000000000000e+00" cType="1" res="3.1982799991965294e-03" rms="4.4881683588027954e-01" purity="6.7048007249832153e-01" nType="-99"/>
        </Node>
      </Node>
    </BinaryTree>
    <BinaryTree type="DecisionTree" boostWeight="1.0000000000000000e+00" itree="159">
      <Node pos="s" depth="0" NCoef="0" IVar="4" Cut="1.3507650792598724e-01" cType="1" res="-1.9336030818521976e-03" rms="4.5895189046859741e-01" purity="4.9936613440513611e-01" nType="0">
        <Node pos="l" depth="1" NCoef="0" IVar="-1" Cut="0.0000000000000000e+00" cType="1" res="-5.0763101316988468e-03" rms="4.4879412651062012e-01" purity="3.6087477207183838e-01" nType="-99"/>
        <Node pos="r" depth="1" NCoef="0" IVar="7" Cut="5.0222537994384766e+01" cType="1" res="5.1109306514263153e-03" rms="4.5910871028900146e-01" purity="5.1108348369598389e-01" nType="0">
          <Node pos="l" depth="2" NCoef="0" IVar="-1" Cut="0.0000000000000000e+00" cType="1" res="-2.7543099131435156e-03" rms="4.4597041606903076e-01" purity="3.5634130239486694e-01" nType="-99"/>
          <Node pos="r" depth="2" NCoef="0" IVar="-1" Cut="0.0000000000000000e+00" cType="1" res="9.6084427786991000e-04" rms="4.6127611398696899e-01" purity="5.4618537425994873e-01" nType="-99"/>
        </Node>
      </Node>
    </BinaryTree>
    <BinaryTree type="DecisionTree" boostWeight="1.0000000000000000e+00" itree="160">
      <Node pos="s" depth="0" NCoef="0" IVar="0" Cut="2.1480138301849365e+00" cType="1" res="-1.8392014317214489e-04" rms="4.5851886272430420e-01" purity="4.9929994344711304e-01" nType="0">
        <Node pos="l" depth="1" NCoef="0" IVar="6" Cut="1.7655091285705566e+00" cType="1" res="-3.5549525171518326e-02" rms="4.5244386792182922e-01" purity="3.2578083872795105e-01" nType="0">
          <Node pos="l" depth="2" NCoef="0" IVar="-1" Cut="0.0000000000000000e+00" cType="1" res="1.0428795358166099e-03" rms="4.7779491543769836e-01" purity="4.1996139287948608e-01" nType="-99"/>
          <Node pos="r" depth="2" NCoef="0" IVar="-1" Cut="0.0000000000000000e+00" cType="1" res="-2.8334124945104122e-03" rms="4.4691461324691772e-01" purity="3.0843085050582886e-01" nType="-99"/>
        </Node>
        <Node pos="r" depth="1" NCoef="0" IVar="8" Cut="1.3085477352142334e+00" cType="1" res="1.7877655103802681e-02" rms="4.6054410934448242e-01" purity="5.8791786432266235e-01" nType="0">
          <Node pos="l" depth="2" NCoef="0" IVar="-1" Cut="0.0000000000000000e+00" cType="1" res="2.1093219984322786e-03" rms="4.5758894085884094e-01" purity="6.1917662620544434e-01" nType="-99"/>
          <Node pos="r" depth="2" NCoef="0" IVar="-1" Cut="0.0000000000000000e+00" cType="1" res="-1.5570096438750625e-03" rms="4.6448549628257751e-01" purity="5.1249349117279053e-01" nType="-99"/>
        </Node>
      </Node>
    </BinaryTree>
    <BinaryTree type="DecisionTree" boostWeight="1.0000000000000000e+00" itree="161">
      <Node pos="s" depth="0" NCoef="0" IVar="4" Cut="1.3289274275302887e-01" cType="1" res="4.6818675473332405e-03" rms="4.5933961868286133e-01" purity="5.0369530916213989e-01" nType="0">
        <Node pos="l" depth="1" NCoef="0" IVar="-1" Cut="0.0000000000000000e+00" cType="1" res="-5.1394235342741013e-03" rms="4.4156399369239807e-01" purity="3.4645491838455200e-01" nType="-99"/>
        <Node pos="r" depth="1" NCoef="0" IVar="1" Cut="6.0971142578125000e+02" cType="1" res="1.1932501569390297e-02" rms="4.5996236801147461e-01" purity="5.1628148555755615e-01" nType="0">
          <Node pos="l" depth="2" NCoef="0" IVar="-1" Cut="0.0000000000000000e+00" cType="1" res="-3.3340306254103780e-04" rms="4.5923072099685669e-01" purity="4.6377727389335632e-01" nType="-99"/>
          <Node pos="r" depth="2" NCoef="0" IVar="-1" Cut="0.0000000000000000e+00" cType="1" res="2.9160485137254000e-03" rms="4.5921564102172852e-01" purity="6.3073951005935669e-01" nType="-99"/>
        </Node>
      </Node>
    </BinaryTree>
    <BinaryTree type="DecisionTree" boostWeight="1.0000000000000000e+00" itree="162">
      <Node pos="s" depth="0" NCoef="0" IVar="6" Cut="1.8537634611129761e+00" cType="1" res="-1.8625510856509209e-03" rms="4.5714953541755676e-01" purity="4.9719297885894775e-01" nType="0">
        <Node pos="l" depth="1" NCoef="0" IVar="8" Cut="9.4922602176666260e-01" cType="1" res="5.0639703869819641e-02" rms="4.5409196615219116e-01" purity="6.0035723447799683e-01" nType="0">
          <Node pos="l" depth="2" NCoef="0" IVar="-1" Cut="0.0000000000000000e+00" cType="1" res="6.0956701636314392e-03" rms="4.3808323144912720e-01" purity="6.8005466461181641e-01" nType="-99"/>
          <Node pos="r" depth="2" NCoef="0" IVar="-1" Cut="0.0000000000000000e+00" cType="1" res="1.1891674948856235e-03" rms="4.5994174480438232e-01" purity="5.5638682842254639e-01" nType="-99"/>
        </Node>
        <Node pos="r" depth="1" NCoef="0" IVar="6" Cut="2.8290431499481201e+00" cType="1" res="-1.4298851601779461e-02" rms="4.5698803663253784e-01" purity="4.7275626659393311e-01" nType="0">
          <Node pos="l" depth="2" NCoef="0" IVar="-1" Cut="0.0000000000000000e+00" cType="1" res="-3.8683947059325874e-04" rms="4.6120348572731018e-01" purity="4.9603006243705750e-01" nType="-99"/>
          <Node pos="r" depth="2" NCoef="0" IVar="-1" Cut="0.0000000000000000e+00" cType="1" res="-6.6414396278560162e-03" rms="3.9677879214286804e-01" purity="2.1220079064369202e-01" nType="-99"/>
        </Node>
      </Node>
    </BinaryTree>
    <BinaryTree type="DecisionTree" boostWeight="1.0000000000000000e+00" itree="163">
      <Node pos="s" depth="0" NCoef="0" IVar="6" Cut="1.7305196523666382e+00" cType="1" res="2.2304526064544916e-03" rms="4.5983031392097473e-01" purity="5.0061458349227905e-01" nType="0">
        <Node pos="l" depth="1" NCoef="0" IVar="1" Cut="5.2198687744140625e+02" cType="1" res="6.4270734786987305e-02" rms="4.5344403386116028e-01" purity="6.1864429712295532e-01" nType="0">
          <Node pos="l" depth="2" NCoef="0" IVar="-1" Cut="0.0000000000000000e+00" cType="1" res="2.2470317780971527e-03" rms="4.7240653634071350e-01" purity="5.2492487430572510e-01" nType="-99"/>
          <Node pos="r" depth="2" NCoef="0" IVar="-1" Cut="0.0000000000000000e+00" cType="1" res="4.9829217605292797e-03" rms="4.3559485673904419e-01" purity="6.9794607162475586e-01" nType="-99"/>
        </Node>
        <Node pos="r" depth="1" NCoef="0" IVar="0" Cut="1.0415322780609131e+00" cType="1" res="-7.5733982957899570e-03" rms="4.6006655693054199e-01" purity="4.8196303844451904e-01" nType="0">
          <Node pos="l" depth="2" NCoef="0" IVar="-1" Cut="0.0000000000000000e+00" cType="1" res="-4.9790069460868835e-03" rms="4.1607597470283508e-01" purity="2.4802280962467194e-01" nType="-99"/>
          <Node pos="r" depth="2" NCoef="0" IVar="-1" Cut="0.0000000000000000e+00" cType="1" res="-9.4173323304858059e-05" rms="4.6334627270698547e-01" purity="5.0296378135681152e-01" nType="-99"/>
        </Node>
      </Node>
    </BinaryTree>
    <BinaryTree type="DecisionTree" boostWeight="1.0000000000000000e+00" itree="164">
      <Node pos="s" depth="0" NCoef="0" IVar="7" Cut="5.0942634582519531e+01" cType="1" res="-9.3617702077608556e-05" rms="4.5916193723678589e-01" purity="5.0026303529739380e-01" nType="0">
        <Node pos="l" depth="1" NCoef="0" IVar="1" Cut="4.4724282836914062e+02" cType="1" res="-4.5607227832078934e-02" rms="4.4693771004676819e-01" purity="3.5535261034965515e-01" nType="0">
          <Node pos="l" depth="2" NCoef="0" IVar="-1" Cut="0.0000000000000000e+00" cType="1" res="-4.1632461361587048e-03" rms="4.3538984656333923e-01" purity="3.0461332201957703e-01" nType="-99"/>
          <Node pos="r" depth="2" NCoef="0" IVar="-1" Cut="0.0000000000000000e+00" cType="1" res="-2.3429456632584333e-04" rms="4.6662536263465881e-01" purity="4.5778283476829529e-01" nType="-99"/>
        </Node>
        <Node pos="r" depth="1" NCoef="0" IVar="6" Cut="2.4201180934906006e+00" cType="1" res="1.0965074412524700e-02" rms="4.6140584349632263e-01" purity="5.3547275066375732e-01" nType="0">
          <Node pos="l" depth="2" NCoef="0" IVar="-1" Cut="0.0000000000000000e+00" cType="1" res="1.5009597409516573e-03" rms="4.6232271194458008e-01" purity="5.8644795417785645e-01" nType="-99"/>
          <Node pos="r" depth="2" NCoef="0" IVar="-1" Cut="0.0000000000000000e+00" cType="1" res="-1.9452879205346107e-03" rms="4.5591315627098083e-01" purity="3.8645708560943604e-01" nType="-99"/>
        </Node>
      </Node>
    </BinaryTree>
    <BinaryTree type="DecisionTree" boostWeight="1.0000000000000000e+00" itree="165">
      <Node pos="s" depth="0" NCoef="0" IVar="0" Cut="1.4960646629333496e+00" cType="1" res="2.5022623594850302e-03" rms="4.5749750733375549e-01" purity="5.0032085180282593e-01" nType="0">
        <Node pos="l" depth="1" NCoef="0" IVar="5" Cut="9.4148844480514526e-01" cType="1" res="-4.9988545477390289e-02" rms="4.3392011523246765e-01" purity="2.8608876466751099e-01" nType="0">
          <Node pos="l" depth="2" NCoef="0" IVar="-1" Cut="0.0000000000000000e+00" cType="1" res="-4.4435821473598480e-03" rms="4.1684502363204956e-01" purity="2.4514661729335785e-01" nType="-99"/>
          <Node pos="r" depth="2" NCoef="0" IVar="-1" Cut="0.0000000000000000e+00" cType="1" res="-5.7433312758803368e-04" rms="4.6925806999206543e-01" purity="3.8270190358161926e-01" nType="-99"/>
        </Node>
        <Node pos="r" depth="1" NCoef="0" IVar="4" Cut="1.3999445736408234e-01" cType="1" res="1.3291909359395504e-02" rms="4.6145570278167725e-01" purity="5.4435694217681885e-01" nType="0">
          <Node pos="l" depth="2" NCoef="0" IVar="-1" Cut="0.0000000000000000e+00" cType="1" res="-3.2993704080581665e-03" rms="4.5316654443740845e-01" purity="4.0896889567375183e-01" nType="-99"/>
          <Node pos="r" depth="2" NCoef="0" IVar="-1" Cut="0.0000000000000000e+00" cType="1" res="1.1322145583108068e-03" rms="4.6167066693305969e-01" purity="5.5648452043533325e-01" nType="-99"/>
        </Node>
      </Node>
    </BinaryTree>
    <BinaryTree type="DecisionTree" boostWeight="1.0000000000000000e+00" itree="166">
      <Node pos="s" depth="0" NCoef="0" IVar="6" Cut="1.5087841749191284e+00" cType="1" res="-1.8737326608970761e-03" rms="4.5814403891563416e-01" purity="4.9652287364006042e-01" nType="0">
        <Node pos="l" depth="1" NCoef="0" IVar="-1" Cut="0.0000000000000000e+00" cType="1" res="4.6510305255651474e-03" rms="4.4582393765449524e-01" purity="6.3863986730575562e-01" nType="-99"/>
        <Node pos="r" depth="1" NCoef="0" IVar="0" Cut="3.6285734176635742e+00" cType="1" res="-8.6407624185085297e-03" rms="4.5846831798553467e-01" purity="4.8496207594871521e-01" nType="0">
          <Node pos="l" depth="2" NCoef="0" IVar="-1" Cut="0.0000000000000000e+00" cType="1" res="-1.4069853350520134e-03" rms="4.6299061179161072e-01" purity="3.9974114298820496e-01" nType="-99"/>
          <Node pos="r" depth="2" NCoef="0" IVar="-1" Cut="0.0000000000000000e+00" cType="1" res="1.5833748038858175e-03" rms="4.4593366980552673e-01" purity="6.8031364679336548e-01" nType="-99"/>
        </Node>
      </Node>
    </BinaryTree>
    <BinaryTree type="DecisionTree" boostWeight="1.0000000000000000e+00" itree="167">
      <Node pos="s" depth="0" NCoef="0" IVar="6" Cut="2.2692692279815674e+00" cType="1" res="-1.2635270832106471e-03" rms="4.5673316717147827e-01" purity="4.9841651320457458e-01" nType="0">
        <Node pos="l" depth="1" NCoef="0" IVar="5" Cut="9.8375552892684937e-01" cType="1" res="1.9914744421839714e-02" rms="4.5879122614860535e-01" purity="5.6520062685012817e-01" nType="0">
          <Node pos="l" depth="2" NCoef="0" IVar="-1" Cut="0.0000000000000000e+00" cType="1" res="5.6804675841704011e-04" rms="4.6919155120849609e-01" purity="5.2826112508773804e-01" nType="-99"/>
          <Node pos="r" depth="2" NCoef="0" IVar="-1" Cut="0.0000000000000000e+00" cType="1" res="6.2217502854764462e-03" rms="3.6934494972229004e-01" purity="8.2714110612869263e-01" nType="-99"/>
        </Node>
        <Node pos="r" depth="1" NCoef="0" IVar="0" Cut="2.5765855312347412e+00" cType="1" res="-3.1410902738571167e-02" rms="4.5207929611206055e-01" purity="4.0334898233413696e-01" nType="0">
          <Node pos="l" depth="2" NCoef="0" IVar="-1" Cut="0.0000000000000000e+00" cType="1" res="-3.7877601571381092e-03" rms="4.2530551552772522e-01" purity="2.6786917448043823e-01" nType="-99"/>
          <Node pos="r" depth="2" NCoef="0" IVar="-1" Cut="0.0000000000000000e+00" cType="1" res="-4.1605767910368741e-04" rms="4.7351723909378052e-01" purity="5.2482855319976807e-01" nType="-99"/>
        </Node>
      </Node>
    </BinaryTree>
    <BinaryTree type="DecisionTree" boostWeight="1.0000000000000000e+00" itree="168">
      <Node pos="s" depth="0" NCoef="0" IVar="4" Cut="4.2916485667228699e-01" cType="1" res="-1.7860758816823363e-03" rms="4.5856362581253052e-01" purity="4.9785670638084412e-01" nType="0">
        <Node pos="l" depth="1" NCoef="0" IVar="4" Cut="1.2121166288852692e-01" cType="1" res="-2.2465962916612625e-02" rms="4.6021106839179993e-01" purity="4.5607128739356995e-01" nType="0">
          <Node pos="l" depth="2" NCoef="0" IVar="-1" Cut="0.0000000000000000e+00" cType="1" res="-5.2593401633203030e-03" rms="4.4043529033660889e-01" purity="3.4910979866981506e-01" nType="-99"/>
          <Node pos="r" depth="2" NCoef="0" IVar="-1" Cut="0.0000000000000000e+00" cType="1" res="-8.7646895553916693e-04" rms="4.6188810467720032e-01" purity="4.6864616870880127e-01" nType="-99"/>
        </Node>
        <Node pos="r" depth="1" NCoef="0" IVar="0" Cut="2.1562261581420898e+00" cType="1" res="2.6506550610065460e-02" rms="4.5477929711341858e-01" purity="5.5502432584762573e-01" nType="0">
          <Node pos="l" depth="2" NCoef="0" IVar="-1" Cut="0.0000000000000000e+00" cType="1" res="-9.9519127979874611e-04" rms="4.6428892016410828e-01" purity="3.6210387945175171e-01" nType="-99"/>
          <Node pos="r" depth="2" NCoef="0" IVar="-1" Cut="0.0000000000000000e+00" cType="1" res="2.7900510467588902e-03" rms="4.4836169481277466e-01" purity="6.5204852819442749e-01" nType="-99"/>
        </Node>
      </Node>
    </BinaryTree>
    <BinaryTree type="DecisionTree" boostWeight="1.0000000000000000e+00" itree="169">
      <Node pos="s" depth="0" NCoef="0" IVar="3" Cut="-4.9061313271522522e-02" cType="1" res="3.3784324768930674e-03" rms="4.5979741215705872e-01" purity="5.0422638654708862e-01" nType="0">
        <Node pos="l" depth="1" NCoef="0" IVar="0" Cut="2.3630564212799072e+00" cType="1" res="5.0325531512498856e-02" rms="4.5712253451347351e-01" purity="5.8434110879898071e-01" nType="0">
          <Node pos="l" depth="2" NCoef="0" IVar="-1" Cut="0.0000000000000000e+00" cType="1" res="8.0493383575230837e-04" rms="4.7994348406791687e-01" purity="4.0720620751380920e-01" nType="-99"/>
          <Node pos="r" depth="2" NCoef="0" IVar="-1" Cut="0.0000000000000000e+00" cType="1" res="4.3510738760232925e-03" rms="4.3953236937522888e-01" purity="7.0256239175796509e-01" nType="-99"/>
        </Node>
        <Node pos="r" depth="1" NCoef="0" IVar="6" Cut="2.7918004989624023e+00" cType="1" res="-4.1252397932112217e-03" rms="4.5977941155433655e-01" purity="4.9142140150070190e-01" nType="0">
          <Node pos="l" depth="2" NCoef="0" IVar="-1" Cut="0.0000000000000000e+00" cType="1" res="8.4082297689747065e-05" rms="4.6303355693817139e-01" purity="5.1413893699645996e-01" nType="-99"/>
          <Node pos="r" depth="2" NCoef="0" IVar="-1" Cut="0.0000000000000000e+00" cType="1" res="-4.2302859947085381e-03" rms="4.1840872168540955e-01" purity="2.4638988077640533e-01" nType="-99"/>
        </Node>
      </Node>
    </BinaryTree>
    <BinaryTree type="DecisionTree" boostWeight="1.0000000000000000e+00" itree="170">
      <Node pos="s" depth="0" NCoef="0" IVar="4" Cut="1.5752775967121124e-01" cType="1" res="-9.8041410092264414e-04" rms="4.5795774459838867e-01" purity="4.9884268641471863e-01" nType="0">
        <Node pos="l" depth="1" NCoef="0" IVar="4" Cut="1.1272436380386353e-01" cType="1" res="-6.7536488175392151e-02" rms="4.4736805558204651e-01" purity="3.7970909476280212e-01" nType="0">
          <Node pos="l" depth="2" NCoef="0" IVar="-1" Cut="0.0000000000000000e+00" cType="1" res="-6.4827711321413517e-03" rms="4.3826568126678467e-01" purity="3.3186686038970947e-01" nType="-99"/>
          <Node pos="r" depth="2" NCoef="0" IVar="-1" Cut="0.0000000000000000e+00" cType="1" res="-1.8986967625096440e-03" rms="4.5237010717391968e-01" purity="4.2258644104003906e-01" nType="-99"/>
        </Node>
        <Node pos="r" depth="1" NCoef="0" IVar="1" Cut="5.2049957275390625e+02" cType="1" res="6.9797756150364876e-03" rms="4.5856162905693054e-01" purity="5.1309120655059814e-01" nType="0">
          <Node pos="l" depth="2" NCoef="0" IVar="-1" Cut="0.0000000000000000e+00" cType="1" res="-1.0603028349578381e-03" rms="4.5577949285507202e-01" purity="4.2341521382331848e-01" nType="-99"/>
          <Node pos="r" depth="2" NCoef="0" IVar="-1" Cut="0.0000000000000000e+00" cType="1" res="1.8367123557254672e-03" rms="4.5999184250831604e-01" purity="6.0236674547195435e-01" nType="-99"/>
        </Node>
      </Node>
    </BinaryTree>
    <BinaryTree type="DecisionTree" boostWeight="1.0000000000000000e+00" itree="171">
      <Node pos="s" depth="0" NCoef="0" IVar="1" Cut="7.3752093505859375e+02" cType="1" res="-1.5160307521000504e-03" rms="4.5798838138580322e-01" purity="4.9677613377571106e-01" nType="0">
        <Node pos="l" depth="1" NCoef="0" IVar="5" Cut="9.8749297857284546e-01" cType="1" res="-1.1860083788633347e-02" rms="4.5834529399871826e-01" purity="4.6954917907714844e-01" nType="0">
          <Node pos="l" depth="2" NCoef="0" IVar="-1" Cut="0.0000000000000000e+00" cType="1" res="-1.1069163447245955e-03" rms="4.6238934993743896e-01" purity="4.4194737076759338e-01" nType="-99"/>
          <Node pos="r" depth="2" NCoef="0" IVar="-1" Cut="0.0000000000000000e+00" cType="1" res="4.1006831452250481e-03" rms="4.0529462695121765e-01" purity="7.6379150152206421e-01" nType="-99"/>
        </Node>
        <Node pos="r" depth="1" NCoef="0" IVar="5" Cut="9.4225400686264038e-01" cType="1" res="5.0724629312753677e-02" rms="4.5258390903472900e-01" purity="6.3428044319152832e-01" nType="0">
          <Node pos="l" depth="2" NCoef="0" IVar="-1" Cut="0.0000000000000000e+00" cType="1" res="9.4438386440742761e-05" rms="4.8010578751564026e-01" purity="4.7792500257492065e-01" nType="-99"/>
          <Node pos="r" depth="2" NCoef="0" IVar="-1" Cut="0.0000000000000000e+00" cType="1" res="4.6560466289520264e-03" rms="4.3527525663375854e-01" purity="7.1620249748229980e-01" nType="-99"/>
        </Node>
      </Node>
    </BinaryTree>
    <BinaryTree type="DecisionTree" boostWeight="1.0000000000000000e+00" itree="172">
      <Node pos="s" depth="0" NCoef="0" IVar="7" Cut="5.1295463562011719e+01" cType="1" res="-3.5789145622402430e-03" rms="4.5757380127906799e-01" purity="4.9511271715164185e-01" nType="0">
        <Node pos="l" depth="1" NCoef="0" IVar="8" Cut="1.1816388368606567e+00" cType="1" res="-4.5369558036327362e-02" rms="4.4682598114013672e-01" purity="3.5450804233551025e-01" nType="0">
          <Node pos="l" depth="2" NCoef="0" IVar="-1" Cut="0.0000000000000000e+00" cType="1" res="-1.5677963383495808e-03" rms="4.5718508958816528e-01" purity="3.8834550976753235e-01" nType="-99"/>
          <Node pos="r" depth="2" NCoef="0" IVar="-1" Cut="0.0000000000000000e+00" cType="1" res="-4.1194269433617592e-03" rms="4.3444567918777466e-01" purity="3.1816506385803223e-01" nType="-99"/>
        </Node>
        <Node pos="r" depth="1" NCoef="0" IVar="4" Cut="1.6463679075241089e-01" cType="1" res="7.4697104282677174e-03" rms="4.5973891019821167e-01" purity="5.3228580951690674e-01" nType="0">
          <Node pos="l" depth="2" NCoef="0" IVar="-1" Cut="0.0000000000000000e+00" cType="1" res="-3.1749051995575428e-03" rms="4.5576849579811096e-01" purity="4.1058298945426941e-01" nType="-99"/>
          <Node pos="r" depth="2" NCoef="0" IVar="-1" Cut="0.0000000000000000e+00" cType="1" res="9.6244469750672579e-04" rms="4.5962139964103699e-01" purity="5.4987776279449463e-01" nType="-99"/>
        </Node>
      </Node>
    </BinaryTree>
    <BinaryTree type="DecisionTree" boostWeight="1.0000000000000000e+00" itree="173">
      <Node pos="s" depth="0" NCoef="0" IVar="7" Cut="4.2522689819335938e+01" cType="1" res="2.7297858614474535e-03" rms="4.6000751852989197e-01" purity="5.0315415859222412e-01" nType="0">
        <Node pos="l" depth="1" NCoef="0" IVar="-1" Cut="0.0000000000000000e+00" cType="1" res="-4.9564517103135586e-03" rms="4.3682715296745300e-01" purity="3.0169558525085449e-01" nType="-99"/>
        <Node pos="r" depth="1" NCoef="0" IVar="0" Cut="5.4081411361694336e+00" cType="1" res="8.6661102250218391e-03" rms="4.6108463406562805e-01" purity="5.1780581474304199e-01" nType="0">
          <Node pos="l" depth="2" NCoef="0" IVar="-1" Cut="0.0000000000000000e+00" cType="1" res="1.9326242909301072e-04" rms="4.6610209345817566e-01" purity="4.9760183691978455e-01" nType="-99"/>
          <Node pos="r" depth="2" NCoef="0" IVar="-1" Cut="0.0000000000000000e+00" cType="1" res="6.5726600587368011e-03" rms="3.6143791675567627e-01" purity="8.4023445844650269e-01" nType="-99"/>
        </Node>
      </Node>
    </BinaryTree>
    <BinaryTree type="DecisionTree" boostWeight="1.0000000000000000e+00" itree="174">
      <Node pos="s" depth="0" NCoef="0" IVar="5" Cut="9.7977113723754883e-01" cType="1" res="-2.3490686435252428e-03" rms="4.5728421211242676e-01" purity="4.9884858727455139e-01" nType="0">
        <Node pos="l" depth="1" NCoef="0" IVar="0" Cut="4.5624427795410156e+00" cType="1" res="-1.2599611654877663e-02" rms="4.6418637037277222e-01" purity="4.5236417651176453e-01" nType="0">
          <Node pos="l" depth="2" NCoef="0" IVar="-1" Cut="0.0000000000000000e+00" cType="1" res="-1.1287877568975091e-03" rms="4.6661031246185303e-01" purity="4.2286139726638794e-01" nType="-99"/>
          <Node pos="r" depth="2" NCoef="0" IVar="-1" Cut="0.0000000000000000e+00" cType="1" res="3.0751314479857683e-03" rms="4.3631842732429504e-01" purity="7.2258323431015015e-01" nType="-99"/>
        </Node>
        <Node pos="r" depth="1" NCoef="0" IVar="8" Cut="1.2266992330551147e+00" cType="1" res="5.1688667386770248e-02" rms="4.1485679149627686e-01" purity="7.4390006065368652e-01" nType="0">
          <Node pos="l" depth="2" NCoef="0" IVar="-1" Cut="0.0000000000000000e+00" cType="1" res="5.0171813927590847e-03" rms="3.9684942364692688e-01" purity="7.7903950214385986e-01" nType="-99"/>
          <Node pos="r" depth="2" NCoef="0" IVar="-1" Cut="0.0000000000000000e+00" cType="1" res="4.0332728531211615e-04" rms="4.4276851415634155e-01" purity="6.7874372005462646e-01" nType="-99"/>
        </Node>
      </Node>
    </BinaryTree>
    <BinaryTree type="DecisionTree" boostWeight="1.0000000000000000e+00" itree="175">
      <Node pos="s" depth="0" NCoef="0" IVar="4" Cut="3.8806533813476562e-01" cType="1" res="2.0891785970889032e-04" rms="4.5674142241477966e-01" purity="5.0133818387985229e-01" nType="0">
        <Node pos="l" depth="1" NCoef="0" IVar="1" Cut="7.7495141601562500e+02" cType="1" res="-2.3223469033837318e-02" rms="4.5469793677330017e-01" purity="4.5246133208274841e-01" nType="0">
          <Node pos="l" depth="2" NCoef="0" IVar="-1" Cut="0.0000000000000000e+00" cType="1" res="-2.1599903702735901e-03" rms="4.5283788442611694e-01" purity="4.1945058107376099e-01" nType="-99"/>
          <Node pos="r" depth="2" NCoef="0" IVar="-1" Cut="0.0000000000000000e+00" cType="1" res="2.0281428005546331e-03" rms="4.5842295885086060e-01" purity="6.0010266304016113e-01" nType="-99"/>
        </Node>
        <Node pos="r" depth="1" NCoef="0" IVar="1" Cut="4.0073913574218750e+02" cType="1" res="2.4125101044774055e-02" rms="4.5758202672004700e-01" purity="5.5122411251068115e-01" nType="0">
          <Node pos="l" depth="2" NCoef="0" IVar="-1" Cut="0.0000000000000000e+00" cType="1" res="-2.2840267047286034e-03" rms="4.4478574395179749e-01" purity="3.6105015873908997e-01" nType="-99"/>
          <Node pos="r" depth="2" NCoef="0" IVar="-1" Cut="0.0000000000000000e+00" cType="1" res="2.1135641727596521e-03" rms="4.5909488201141357e-01" purity="5.8869916200637817e-01" nType="-99"/>
        </Node>
      </Node>
    </BinaryTree>
    <BinaryTree type="DecisionTree" boostWeight="1.0000000000000000e+00" itree="176">
      <Node pos="s" depth="0" NCoef="0" IVar="7" Cut="4.1631557464599609e+01" cType="1" res="1.5194673324003816e-03" rms="4.5811587572097778e-01" purity="5.0133103132247925e-01" nType="0">
        <Node pos="l" depth="1" NCoef="0" IVar="-1" Cut="0.0000000000000000e+00" cType="1" res="-5.6285331957042217e-03" rms="4.2285692691802979e-01" purity="2.9119989275932312e-01" nType="-99"/>
        <Node pos="r" depth="1" NCoef="0" IVar="0" Cut="4.8450064659118652e+00" cType="1" res="6.6727325320243835e-03" rms="4.5949450135231018e-01" purity="5.1323860883712769e-01" nType="0">
          <Node pos="l" depth="2" NCoef="0" IVar="-1" Cut="0.0000000000000000e+00" cType="1" res="-3.8328798837028444e-05" rms="4.6644216775894165e-01" purity="4.7623911499977112e-01" nType="-99"/>
          <Node pos="r" depth="2" NCoef="0" IVar="-1" Cut="0.0000000000000000e+00" cType="1" res="4.0465919300913811e-03" rms="4.0039879083633423e-01" purity="7.8637748956680298e-01" nType="-99"/>
        </Node>
      </Node>
    </BinaryTree>
    <BinaryTree type="DecisionTree" boostWeight="1.0000000000000000e+00" itree="177">
      <Node pos="s" depth="0" NCoef="0" IVar="5" Cut="9.8363679647445679e-01" cType="1" res="5.7926267618313432e-04" rms="4.6013942360877991e-01" purity="5.0004589557647705e-01" nType="0">
        <Node pos="l" depth="1" NCoef="0" IVar="2" Cut="1.1612017059326172e+02" cType="1" res="-7.1523562073707581e-03" rms="4.6619996428489685e-01" purity="4.6475544571876526e-01" nType="0">
          <Node pos="l" depth="2" NCoef="0" IVar="-1" Cut="0.0000000000000000e+00" cType="1" res="-1.2127121444791555e-03" rms="4.6750217676162720e-01" purity="4.4262054562568665e-01" nType="-99"/>
          <Node pos="r" depth="2" NCoef="0" IVar="-1" Cut="0.0000000000000000e+00" cType="1" res="1.0809518862515688e-03" rms="4.6269807219505310e-01" purity="5.0573849678039551e-01" nType="-99"/>
        </Node>
        <Node pos="r" depth="1" NCoef="0" IVar="4" Cut="4.5306313037872314e-01" cType="1" res="5.8312021195888519e-02" rms="4.0746495127677917e-01" purity="7.6356267929077148e-01" nType="0">
          <Node pos="l" depth="2" NCoef="0" IVar="-1" Cut="0.0000000000000000e+00" cType="1" res="2.7055302634835243e-03" rms="4.1977331042289734e-01" purity="7.3327779769897461e-01" nType="-99"/>
          <Node pos="r" depth="2" NCoef="0" IVar="-1" Cut="0.0000000000000000e+00" cType="1" res="5.4017752408981323e-03" rms="3.9023932814598083e-01" purity="8.0192387104034424e-01" nType="-99"/>
        </Node>
      </Node>
    </BinaryTree>
    <BinaryTree type="DecisionTree" boostWeight="1.0000000000000000e+00" itree="178">
      <Node pos="s" depth="0" NCoef="0" IVar="8" Cut="1.1242109537124634e+00" cType="1" res="1.8224563682451844e-03" rms="4.5748710632324219e-01" purity="5.0362271070480347e-01" nType="0">
        <Node pos="l" depth="1" NCoef="0" IVar="0" Cut="1.3561003208160400e+00" cType="1" res="2.0498508587479591e-02" rms="4.5690909028053284e-01" purity="5.4290866851806641e-01" nType="0">
          <Node pos="l" depth="2" NCoef="0" IVar="-1" Cut="0.0000000000000000e+00" cType="1" res="-2.9953524935990572e-03" rms="4.4394043087959290e-01" purity="2.9978120326995850e-01" nType="-99"/>
          <Node pos="r" depth="2" NCoef="0" IVar="-1" Cut="0.0000000000000000e+00" cType="1" res="1.7593505326658487e-03" rms="4.5795494318008423e-01" purity="5.7823628187179565e-01" nType="-99"/>
        </Node>
        <Node pos="r" depth="1" NCoef="0" IVar="7" Cut="4.7763545989990234e+01" cType="1" res="-2.2681191563606262e-02" rms="4.5708844065666199e-01" purity="4.5207816362380981e-01" nType="0">
          <Node pos="l" depth="2" NCoef="0" IVar="-1" Cut="0.0000000000000000e+00" cType="1" res="-4.7891875728964806e-03" rms="4.3629723787307739e-01" purity="3.0560043454170227e-01" nType="-99"/>
          <Node pos="r" depth="2" NCoef="0" IVar="-1" Cut="0.0000000000000000e+00" cType="1" res="-6.4844801090657711e-04" rms="4.6065145730972290e-01" purity="4.8389574885368347e-01" nType="-99"/>
        </Node>
      </Node>
    </BinaryTree>
    <BinaryTree type="DecisionTree" boostWeight="1.0000000000000000e+00" itree="179">
      <Node pos="s" depth="0" NCoef="0" IVar="0" Cut="1.2666590213775635e+00" cType="1" res="1.9437111404840834e-06" rms="4.5768612623214722e-01" purity="4.9879848957061768e-01" nType="0">
        <Node pos="l" depth="1" NCoef="0" IVar="5" Cut="9.2220354080200195e-01" cType="1" res="-5.8671142905950546e-02" rms="4.2662301659584045e-01" purity="2.7213215827941895e-01" nType="0">
          <Node pos="l" depth="2" NCoef="0" IVar="-1" Cut="0.0000000000000000e+00" cType="1" res="-6.1464058235287666e-03" rms="3.8942393660545349e-01" purity="2.0397742092609406e-01" nType="-99"/>
          <Node pos="r" depth="2" NCoef="0" IVar="-1" Cut="0.0000000000000000e+00" cType="1" res="-2.2131348960101604e-03" rms="4.5154067873954773e-01" purity="3.2450312376022339e-01" nType="-99"/>
        </Node>
        <Node pos="r" depth="1" NCoef="0" IVar="6" Cut="1.6642420291900635e+00" cType="1" res="7.9850628972053528e-03" rms="4.6117454767227173e-01" purity="5.2963894605636597e-01" nType="0">
          <Node pos="l" depth="2" NCoef="0" IVar="-1" Cut="0.0000000000000000e+00" cType="1" res="3.5356539301574230e-03" rms="4.4970107078552246e-01" purity="6.3941425085067749e-01" nType="-99"/>
          <Node pos="r" depth="2" NCoef="0" IVar="-1" Cut="0.0000000000000000e+00" cType="1" res="4.4509637518785894e-05" rms="4.6222648024559021e-01" purity="5.1482349634170532e-01" nType="-99"/>
        </Node>
      </Node>
    </BinaryTree>
    <BinaryTree type="DecisionTree" boostWeight="1.0000000000000000e+00" itree="180">
      <Node pos="s" depth="0" NCoef="0" IVar="0" Cut="5.2033791542053223e+00" cType="1" res="1.1063202982768416e-03" rms="4.5899680256843567e-01" purity="4.9949508905410767e-01" nType="0">
        <Node pos="l" depth="1" NCoef="0" IVar="3" Cut="-4.3584112077951431e-02" cType="1" res="-5.0304164178669453e-03" rms="4.6453139185905457e-01" purity="4.7464212775230408e-01" nType="0">
          <Node pos="l" depth="2" NCoef="0" IVar="-1" Cut="0.0000000000000000e+00" cType="1" res="2.6056519709527493e-03" rms="4.6360602974891663e-01" purity="5.5918979644775391e-01" nType="-99"/>
          <Node pos="r" depth="2" NCoef="0" IVar="-1" Cut="0.0000000000000000e+00" cType="1" res="-8.2751282025128603e-04" rms="4.6412223577499390e-01" purity="4.5934602618217468e-01" nType="-99"/>
        </Node>
        <Node pos="r" depth="1" NCoef="0" IVar="-1" Cut="0.0000000000000000e+00" cType="1" res="5.4512987844645977e-03" rms="3.7229835987091064e-01" purity="8.1759124994277954e-01" nType="-99"/>
      </Node>
    </BinaryTree>
    <BinaryTree type="DecisionTree" boostWeight="1.0000000000000000e+00" itree="181">
      <Node pos="s" depth="0" NCoef="0" IVar="8" Cut="8.8276958465576172e-01" cType="1" res="-1.0931459837593138e-04" rms="4.5747223496437073e-01" purity="4.9897941946983337e-01" nType="0">
        <Node pos="l" depth="1" NCoef="0" IVar="5" Cut="9.2858761548995972e-01" cType="1" res="3.2295010983943939e-02" rms="4.5365315675735474e-01" purity="5.6362688541412354e-01" nType="0">
          <Node pos="l" depth="2" NCoef="0" IVar="-1" Cut="0.0000000000000000e+00" cType="1" res="-1.7156675457954407e-03" rms="4.5609527826309204e-01" purity="3.5561951994895935e-01" nType="-99"/>
          <Node pos="r" depth="2" NCoef="0" IVar="-1" Cut="0.0000000000000000e+00" cType="1" res="2.7391628827899694e-03" rms="4.5193830132484436e-01" purity="6.1035323143005371e-01" nType="-99"/>
        </Node>
        <Node pos="r" depth="1" NCoef="0" IVar="0" Cut="4.5647182464599609e+00" cType="1" res="-1.6723921522498131e-02" rms="4.5853084325790405e-01" purity="4.6583285927772522e-01" nType="0">
          <Node pos="l" depth="2" NCoef="0" IVar="-1" Cut="0.0000000000000000e+00" cType="1" res="-1.4412773307412863e-03" rms="4.6256494522094727e-01" purity="4.2538362741470337e-01" nType="-99"/>
          <Node pos="r" depth="2" NCoef="0" IVar="-1" Cut="0.0000000000000000e+00" cType="1" res="2.2268386092036963e-03" rms="4.2711377143859863e-01" purity="7.3519480228424072e-01" nType="-99"/>
        </Node>
      </Node>
    </BinaryTree>
    <BinaryTree type="DecisionTree" boostWeight="1.0000000000000000e+00" itree="182">
      <Node pos="s" depth="0" NCoef="0" IVar="5" Cut="9.2300713062286377e-01" cType="1" res="1.4693785924464464e-03" rms="4.5948702096939087e-01" purity="5.0042814016342163e-01" nType="0">
        <Node pos="l" depth="1" NCoef="0" IVar="2" Cut="1.0479605865478516e+02" cType="1" res="-4.3748691678047180e-02" rms="4.4389495253562927e-01" purity="3.0536693334579468e-01" nType="0">
          <Node pos="l" depth="2" NCoef="0" IVar="-1" Cut="0.0000000000000000e+00" cType="1" res="-3.7321757990866899e-03" rms="4.3571636080741882e-01" purity="2.7891281247138977e-01" nType="-99"/>
          <Node pos="r" depth="2" NCoef="0" IVar="-1" Cut="0.0000000000000000e+00" cType="1" res="-1.0366830974817276e-03" rms="4.5344793796539307e-01" purity="3.4140583872795105e-01" nType="-99"/>
        </Node>
        <Node pos="r" depth="1" NCoef="0" IVar="1" Cut="9.2817340087890625e+02" cType="1" res="9.3043008819222450e-03" rms="4.6168524026870728e-01" purity="5.3422635793685913e-01" nType="0">
          <Node pos="l" depth="2" NCoef="0" IVar="-1" Cut="0.0000000000000000e+00" cType="1" res="2.3461444652639329e-04" rms="4.6273413300514221e-01" purity="5.2309727668762207e-01" nType="-99"/>
          <Node pos="r" depth="2" NCoef="0" IVar="-1" Cut="0.0000000000000000e+00" cType="1" res="5.2287364378571510e-03" rms="4.3888542056083679e-01" purity="6.9610166549682617e-01" nType="-99"/>
        </Node>
      </Node>
    </BinaryTree>
    <BinaryTree type="DecisionTree" boostWeight="1.0000000000000000e+00" itree="183">
      <Node pos="s" depth="0" NCoef="0" IVar="7" Cut="5.3080059051513672e+01" cType="1" res="2.1995927672833204e-03" rms="4.5747342705726624e-01" purity="5.0110268592834473e-01" nType="0">
        <Node pos="l" depth="1" NCoef="0" IVar="8" Cut="1.4566955566406250e+00" cType="1" res="-3.5010047256946564e-02" rms="4.4542261958122253e-01" purity="3.6412137746810913e-01" nType="0">
          <Node pos="l" depth="2" NCoef="0" IVar="-1" Cut="0.0000000000000000e+00" cType="1" res="-9.6746050985530019e-04" rms="4.5224574208259583e-01" purity="3.8975653052330017e-01" nType="-99"/>
          <Node pos="r" depth="2" NCoef="0" IVar="-1" Cut="0.0000000000000000e+00" cType="1" res="-5.4335086606442928e-03" rms="4.2269310355186462e-01" purity="2.9628869891166687e-01" nType="-99"/>
        </Node>
        <Node pos="r" depth="1" NCoef="0" IVar="6" Cut="2.3902854919433594e+00" cType="1" res="1.3983399607241154e-02" rms="4.6059781312942505e-01" purity="5.4448294639587402e-01" nType="0">
          <Node pos="l" depth="2" NCoef="0" IVar="-1" Cut="0.0000000000000000e+00" cType="1" res="1.6581726958975196e-03" rms="4.6050640940666199e-01" purity="5.9893208742141724e-01" nType="-99"/>
          <Node pos="r" depth="2" NCoef="0" IVar="-1" Cut="0.0000000000000000e+00" cType="1" res="-1.4245063066482544e-03" rms="4.5868745446205139e-01" purity="4.0267974138259888e-01" nType="-99"/>
        </Node>
      </Node>
    </BinaryTree>
    <BinaryTree type="DecisionTree" boostWeight="1.0000000000000000e+00" itree="184">
      <Node pos="s" depth="0" NCoef="0" IVar="1" Cut="7.6992346191406250e+02" cType="1" res="4.9379467964172363e-03" rms="4.5790904760360718e-01" purity="5.0366705656051636e-01" nType="0">
        <Node pos="l" depth="1" NCoef="0" IVar="7" Cut="4.6126052856445312e+01" cType="1" res="-3.9808056317269802e-03" rms="4.5927697420120239e-01" purity="4.7871586680412292e-01" nType="0">
          <Node pos="l" depth="2" NCoef="0" IVar="-1" Cut="0.0000000000000000e+00" cType="1" res="-3.6503314040601254e-03" rms="4.3188351392745972e-01" purity="3.1257796287536621e-01" nType="-99"/>
          <Node pos="r" depth="2" NCoef="0" IVar="-1" Cut="0.0000000000000000e+00" cType="1" res="2.6090352912433445e-04" rms="4.6285879611968994e-01" purity="5.0475096702575684e-01" nType="-99"/>
        </Node>
        <Node pos="r" depth="1" NCoef="0" IVar="6" Cut="2.1601817607879639e+00" cType="1" res="5.7134363800287247e-02" rms="4.4625991582870483e-01" purity="6.4969223737716675e-01" nType="0">
          <Node pos="l" depth="2" NCoef="0" IVar="-1" Cut="0.0000000000000000e+00" cType="1" res="5.6083849631249905e-03" rms="4.2304217815399170e-01" purity="7.2733652591705322e-01" nType="-99"/>
          <Node pos="r" depth="2" NCoef="0" IVar="-1" Cut="0.0000000000000000e+00" cType="1" res="1.5021119033917785e-03" rms="4.6308517456054688e-01" purity="5.8252406120300293e-01" nType="-99"/>
        </Node>
      </Node>
    </BinaryTree>
    <BinaryTree type="DecisionTree" boostWeight="1.0000000000000000e+00" itree="185">
      <Node pos="s" depth="0" NCoef="0" IVar="4" Cut="6.9323956966400146e-01" cType="1" res="2.6464066468179226e-03" rms="4.5936545729637146e-01" purity="5.0117427110671997e-01" nType="0">
        <Node pos="l" depth="1" NCoef="0" IVar="2" Cut="9.4332191467285156e+01" cType="1" res="-3.1443065963685513e-03" rms="4.5954883098602295e-01" purity="4.9270233511924744e-01" nType="0">
          <Node pos="l" depth="2" NCoef="0" IVar="-1" Cut="0.0000000000000000e+00" cType="1" res="-1.3511903816834092e-03" rms="4.6294102072715759e-01" purity="4.6244361996650696e-01" nType="-99"/>
          <Node pos="r" depth="2" NCoef="0" IVar="-1" Cut="0.0000000000000000e+00" cType="1" res="8.4277649875730276e-04" rms="4.5587277412414551e-01" purity="5.1908290386199951e-01" nType="-99"/>
        </Node>
        <Node pos="r" depth="1" NCoef="0" IVar="-1" Cut="0.0000000000000000e+00" cType="1" res="4.7285230830311775e-03" rms="4.4986432790756226e-01" purity="6.1400574445724487e-01" nType="-99"/>
      </Node>
    </BinaryTree>
    <BinaryTree type="DecisionTree" boostWeight="1.0000000000000000e+00" itree="186">
      <Node pos="s" depth="0" NCoef="0" IVar="4" Cut="1.5952938795089722e-01" cType="1" res="4.3356963433325291e-03" rms="4.5926922559738159e-01" purity="5.0679236650466919e-01" nType="0">
        <Node pos="l" depth="1" NCoef="0" IVar="2" Cut="9.4859558105468750e+01" cType="1" res="-5.2689757198095322e-02" rms="4.4963774085044861e-01" purity="3.9246916770935059e-01" nType="0">
          <Node pos="l" depth="2" NCoef="0" IVar="-1" Cut="0.0000000000000000e+00" cType="1" res="-5.1975925453007221e-03" rms="4.3853399157524109e-01" purity="3.6178782582283020e-01" nType="-99"/>
          <Node pos="r" depth="2" NCoef="0" IVar="-1" Cut="0.0000000000000000e+00" cType="1" res="-1.3980000512674451e-03" rms="4.5690748095512390e-01" purity="4.1885170340538025e-01" nType="-99"/>
        </Node>
        <Node pos="r" depth="1" NCoef="0" IVar="1" Cut="4.0454425048828125e+02" cType="1" res="1.1427911929786205e-02" rms="4.5995894074440002e-01" purity="5.2101063728332520e-01" nType="0">
          <Node pos="l" depth="2" NCoef="0" IVar="-1" Cut="0.0000000000000000e+00" cType="1" res="-2.2281557321548462e-03" rms="4.4299149513244629e-01" purity="3.4797215461730957e-01" nType="-99"/>
          <Node pos="r" depth="2" NCoef="0" IVar="-1" Cut="0.0000000000000000e+00" cType="1" res="1.1844906257465482e-03" rms="4.6256551146507263e-01" purity="5.5370867252349854e-01" nType="-99"/>
        </Node>
      </Node>
    </BinaryTree>
    <BinaryTree type="DecisionTree" boostWeight="1.0000000000000000e+00" itree="187">
      <Node pos="s" depth="0" NCoef="0" IVar="2" Cut="1.0560594177246094e+02" cType="1" res="-1.9887534435838461e-03" rms="4.5808029174804688e-01" purity="4.9739289283752441e-01" nType="0">
        <Node pos="l" depth="1" NCoef="0" IVar="6" Cut="1.6364923715591431e+00" cType="1" res="-2.0563844591379166e-02" rms="4.5999282598495483e-01" purity="4.6952763199806213e-01" nType="0">
          <Node pos="l" depth="2" NCoef="0" IVar="-1" Cut="0.0000000000000000e+00" cType="1" res="2.6016808114945889e-03" rms="4.5839241147041321e-01" purity="5.8976590633392334e-01" nType="-99"/>
          <Node pos="r" depth="2" NCoef="0" IVar="-1" Cut="0.0000000000000000e+00" cType="1" res="-2.0055514760315418e-03" rms="4.5918616652488708e-01" purity="4.4516858458518982e-01" nType="-99"/>
        </Node>
        <Node pos="r" depth="1" NCoef="0" IVar="6" Cut="2.4075021743774414e+00" cType="1" res="2.1654337644577026e-02" rms="4.5453763008117676e-01" purity="5.3286099433898926e-01" nType="0">
          <Node pos="l" depth="2" NCoef="0" IVar="-1" Cut="0.0000000000000000e+00" cType="1" res="2.9218473937362432e-03" rms="4.5222643017768860e-01" purity="6.3145947456359863e-01" nType="-99"/>
          <Node pos="r" depth="2" NCoef="0" IVar="-1" Cut="0.0000000000000000e+00" cType="1" res="-1.0040408233180642e-03" rms="4.5496422052383423e-01" purity="3.9627462625503540e-01" nType="-99"/>
        </Node>
      </Node>
    </BinaryTree>
    <BinaryTree type="DecisionTree" boostWeight="1.0000000000000000e+00" itree="188">
      <Node pos="s" depth="0" NCoef="0" IVar="0" Cut="1.1096589565277100e+00" cType="1" res="-8.2173553528264165e-04" rms="4.5938491821289062e-01" purity="5.0146883726119995e-01" nType="0">
        <Node pos="l" depth="1" NCoef="0" IVar="-1" Cut="0.0000000000000000e+00" cType="1" res="-4.9280570819973946e-03" rms="4.1550922393798828e-01" purity="2.4893762171268463e-01" nType="-99"/>
        <Node pos="r" depth="1" NCoef="0" IVar="8" Cut="1.0435552597045898e+00" cType="1" res="6.1957347206771374e-03" rms="4.6284383535385132e-01" purity="5.2609974145889282e-01" nType="0">
          <Node pos="l" depth="2" NCoef="0" IVar="-1" Cut="0.0000000000000000e+00" cType="1" res="1.5070175286382437e-03" rms="4.5997312664985657e-01" purity="5.6948846578598022e-01" nType="-99"/>
          <Node pos="r" depth="2" NCoef="0" IVar="-1" Cut="0.0000000000000000e+00" cType="1" res="-7.4038887396454811e-04" rms="4.6481493115425110e-01" purity="4.8438540101051331e-01" nType="-99"/>
        </Node>
      </Node>
    </BinaryTree>
    <BinaryTree type="DecisionTree" boostWeight="1.0000000000000000e+00" itree="189">
      <Node pos="s" depth="0" NCoef="0" IVar="1" Cut="4.1822552490234375e+02" cType="1" res="-3.5792121198028326e-03" rms="4.5830169320106506e-01" purity="4.9626085162162781e-01" nType="0">
        <Node pos="l" depth="1" NCoef="0" IVar="8" Cut="1.4642875194549561e+00" cType="1" res="-4.7620061784982681e-02" rms="4.3092137575149536e-01" purity="3.3046165108680725e-01" nType="0">
          <Node pos="l" depth="2" NCoef="0" IVar="-1" Cut="0.0000000000000000e+00" cType="1" res="-1.7304437933489680e-03" rms="4.3833711743354797e-01" purity="3.5985150933265686e-01" nType="-99"/>
          <Node pos="r" depth="2" NCoef="0" IVar="-1" Cut="0.0000000000000000e+00" cType="1" res="-6.5554236061871052e-03" rms="4.0591731667518616e-01" purity="2.5280055403709412e-01" nType="-99"/>
        </Node>
        <Node pos="r" depth="1" NCoef="0" IVar="4" Cut="1.5701776742935181e-01" cType="1" res="6.7921415902674198e-03" rms="4.6390703320503235e-01" purity="5.3530555963516235e-01" nType="0">
          <Node pos="l" depth="2" NCoef="0" IVar="-1" Cut="0.0000000000000000e+00" cType="1" res="-3.4402441233396530e-03" rms="4.5328405499458313e-01" purity="4.0018945932388306e-01" nType="-99"/>
          <Node pos="r" depth="2" NCoef="0" IVar="-1" Cut="0.0000000000000000e+00" cType="1" res="9.0567104052752256e-04" rms="4.6461617946624756e-01" purity="5.5335158109664917e-01" nType="-99"/>
        </Node>
      </Node>
    </BinaryTree>
    <BinaryTree type="DecisionTree" boostWeight="1.0000000000000000e+00" itree="190">
      <Node pos="s" depth="0" NCoef="0" IVar="6" Cut="2.7436680793762207e+00" cType="1" res="-8.3879922749474645e-04" rms="4.5823496580123901e-01" purity="4.9747338891029358e-01" nType="0">
        <Node pos="l" depth="1" NCoef="0" IVar="2" Cut="9.2285064697265625e+01" cType="1" res="5.4637277498841286e-03" rms="4.6195808053016663e-01" purity="5.2235829830169678e-01" nType="0">
          <Node pos="l" depth="2" NCoef="0" IVar="-1" Cut="0.0000000000000000e+00" cType="1" res="-9.5874723047018051e-04" rms="4.6470111608505249e-01" purity="4.7946095466613770e-01" nType="-99"/>
          <Node pos="r" depth="2" NCoef="0" IVar="-1" Cut="0.0000000000000000e+00" cType="1" res="1.4686201466247439e-03" rms="4.5860406756401062e-01" purity="5.6079554557800293e-01" nType="-99"/>
        </Node>
        <Node pos="r" depth="1" NCoef="0" IVar="-1" Cut="0.0000000000000000e+00" cType="1" res="-4.1807703673839569e-03" rms="4.1376850008964539e-01" purity="2.4777302145957947e-01" nType="-99"/>
      </Node>
    </BinaryTree>
    <BinaryTree type="DecisionTree" boostWeight="1.0000000000000000e+00" itree="191">
      <Node pos="s" depth="0" NCoef="0" IVar="3" Cut="-4.5459855347871780e-02" cType="1" res="1.3050273992121220e-04" rms="4.5721450448036194e-01" purity="5.0117272138595581e-01" nType="0">
        <Node pos="l" depth="1" NCoef="0" IVar="4" Cut="5.1677417755126953e-01" cType="1" res="5.4404586553573608e-02" rms="4.4954630732536316e-01" purity="5.9667974710464478e-01" nType="0">
          <Node pos="l" depth="2" NCoef="0" IVar="-1" Cut="0.0000000000000000e+00" cType="1" res="1.7809888231568038e-04" rms="4.4983664155006409e-01" purity="5.3065568208694458e-01" nType="-99"/>
          <Node pos="r" depth="2" NCoef="0" IVar="-1" Cut="0.0000000000000000e+00" cType="1" res="4.9493159167468548e-03" rms="4.4681814312934875e-01" purity="6.3356244564056396e-01" nType="-99"/>
        </Node>
        <Node pos="r" depth="1" NCoef="0" IVar="0" Cut="4.3260855674743652e+00" cType="1" res="-9.3546416610479355e-03" rms="4.5788156986236572e-01" purity="4.8448154330253601e-01" nType="0">
          <Node pos="l" depth="2" NCoef="0" IVar="-1" Cut="0.0000000000000000e+00" cType="1" res="-1.1327088577672839e-03" rms="4.6428060531616211e-01" purity="4.2926874756813049e-01" nType="-99"/>
          <Node pos="r" depth="2" NCoef="0" IVar="-1" Cut="0.0000000000000000e+00" cType="1" res="2.3004612885415554e-03" rms="4.2448318004608154e-01" purity="7.3664164543151855e-01" nType="-99"/>
        </Node>
      </Node>
    </BinaryTree>
    <BinaryTree type="DecisionTree" boostWeight="1.0000000000000000e+00" itree="192">
      <Node pos="s" depth="0" NCoef="0" IVar="6" Cut="2.5997316837310791e+00" cType="1" res="2.2906735539436340e-03" rms="4.5606422424316406e-01" purity="5.0171267986297607e-01" nType="0">
        <Node pos="l" depth="1" NCoef="0" IVar="2" Cut="1.0095377349853516e+02" cType="1" res="1.2771052308380604e-02" rms="4.6015837788581848e-01" purity="5.3943157196044922e-01" nType="0">
          <Node pos="l" depth="2" NCoef="0" IVar="-1" Cut="0.0000000000000000e+00" cType="1" res="-3.9626209763810039e-04" rms="4.6296328306198120e-01" purity="4.9360445141792297e-01" nType="-99"/>
          <Node pos="r" depth="2" NCoef="0" IVar="-1" Cut="0.0000000000000000e+00" cType="1" res="2.2665832657366991e-03" rms="4.5519456267356873e-01" purity="5.9941709041595459e-01" nType="-99"/>
        </Node>
        <Node pos="r" depth="1" NCoef="0" IVar="8" Cut="1.0967750549316406e+00" cType="1" res="-5.7898618280887604e-02" rms="4.2684653401374817e-01" purity="2.8509110212326050e-01" nType="0">
          <Node pos="l" depth="2" NCoef="0" IVar="-1" Cut="0.0000000000000000e+00" cType="1" res="-1.6487562097609043e-03" rms="4.5236313343048096e-01" purity="3.3962747454643250e-01" nType="-99"/>
          <Node pos="r" depth="2" NCoef="0" IVar="-1" Cut="0.0000000000000000e+00" cType="1" res="-5.5578169412910938e-03" rms="4.0212014317512512e-01" purity="2.3902548849582672e-01" nType="-99"/>
        </Node>
      </Node>
    </BinaryTree>
    <BinaryTree type="DecisionTree" boostWeight="1.0000000000000000e+00" itree="193">
      <Node pos="s" depth="0" NCoef="0" IVar="5" Cut="9.8395049571990967e-01" cType="1" res="3.7132910802029073e-04" rms="4.5641851425170898e-01" purity="5.0308305025100708e-01" nType="0">
        <Node pos="l" depth="1" NCoef="0" IVar="4" Cut="2.8401926159858704e-01" cType="1" res="-7.0507512427866459e-03" rms="4.6270915865898132e-01" purity="4.6830877661705017e-01" nType="0">
          <Node pos="l" depth="2" NCoef="0" IVar="-1" Cut="0.0000000000000000e+00" cType="1" res="-2.0455245394259691e-03" rms="4.5259100198745728e-01" purity="4.0205892920494080e-01" nType="-99"/>
          <Node pos="r" depth="2" NCoef="0" IVar="-1" Cut="0.0000000000000000e+00" cType="1" res="3.4781551221385598e-04" rms="4.6692383289337158e-01" purity="5.0008761882781982e-01" nType="-99"/>
        </Node>
        <Node pos="r" depth="1" NCoef="0" IVar="8" Cut="1.0822252035140991e+00" cType="1" res="5.6626576930284500e-02" rms="4.0113854408264160e-01" purity="7.6665252447128296e-01" nType="0">
          <Node pos="l" depth="2" NCoef="0" IVar="-1" Cut="0.0000000000000000e+00" cType="1" res="5.6255329400300980e-03" rms="3.7549403309822083e-01" purity="8.1136727333068848e-01" nType="-99"/>
          <Node pos="r" depth="2" NCoef="0" IVar="-1" Cut="0.0000000000000000e+00" cType="1" res="1.6886582598090172e-03" rms="4.2802464962005615e-01" purity="7.1271800994873047e-01" nType="-99"/>
        </Node>
      </Node>
    </BinaryTree>
    <BinaryTree type="DecisionTree" boostWeight="1.0000000000000000e+00" itree="194">
      <Node pos="s" depth="0" NCoef="0" IVar="0" Cut="3.5545532703399658e+00" cType="1" res="4.1197948157787323e-03" rms="4.5543450117111206e-01" purity="5.0537782907485962e-01" nType="0">
        <Node pos="l" depth="1" NCoef="0" IVar="6" Cut="1.7926588058471680e+00" cType="1" res="-1.0644060559570789e-02" rms="4.6284279227256775e-01" purity="4.1380721330642700e-01" nType="0">
          <Node pos="l" depth="2" NCoef="0" IVar="-1" Cut="0.0000000000000000e+00" cType="1" res="2.3264563642442226e-03" rms="4.7218096256256104e-01" purity="5.2137589454650879e-01" nType="-99"/>
          <Node pos="r" depth="2" NCoef="0" IVar="-1" Cut="0.0000000000000000e+00" cType="1" res="-1.2265407713130116e-03" rms="4.6041205525398254e-01" purity="3.9369368553161621e-01" nType="-99"/>
        </Node>
        <Node pos="r" depth="1" NCoef="0" IVar="6" Cut="2.1345589160919189e+00" cType="1" res="3.4919075667858124e-02" rms="4.3797907233238220e-01" purity="6.9640582799911499e-01" nType="0">
          <Node pos="l" depth="2" NCoef="0" IVar="-1" Cut="0.0000000000000000e+00" cType="1" res="3.4560731146484613e-03" rms="4.1655728220939636e-01" purity="7.5714367628097534e-01" nType="-99"/>
          <Node pos="r" depth="2" NCoef="0" IVar="-1" Cut="0.0000000000000000e+00" cType="1" res="1.2465019244700670e-03" rms="4.5170265436172485e-01" purity="6.5431261062622070e-01" nType="-99"/>
        </Node>
      </Node>
    </BinaryTree>
    <BinaryTree type="DecisionTree" boostWeight="1.0000000000000000e+00" itree="195">
      <Node pos="s" depth="0" NCoef="0" IVar="4" Cut="1.1409494280815125e-01" cType="1" res="-1.7551120836287737e-03" rms="4.5722010731697083e-01" purity="4.9939590692520142e-01" nType="0">
        <Node pos="l" depth="1" NCoef="0" IVar="-1" Cut="0.0000000000000000e+00" cType="1" res="-4.7709057107567787e-03" rms="4.4576513767242432e-01" purity="3.5571148991584778e-01" nType="-99"/>
        <Node pos="r" depth="1" NCoef="0" IVar="1" Cut="4.0894445800781250e+02" cType="1" res="2.6344847865402699e-03" rms="4.5746716856956482e-01" purity="5.0753045082092285e-01" nType="0">
          <Node pos="l" depth="2" NCoef="0" IVar="-1" Cut="0.0000000000000000e+00" cType="1" res="-2.4896922986954451e-03" rms="4.3363833427429199e-01" purity="3.3267912268638611e-01" nType="-99"/>
          <Node pos="r" depth="2" NCoef="0" IVar="-1" Cut="0.0000000000000000e+00" cType="1" res="6.6829542629420757e-04" rms="4.6181994676589966e-01" purity="5.4409593343734741e-01" nType="-99"/>
        </Node>
      </Node>
    </BinaryTree>
    <BinaryTree type="DecisionTree" boostWeight="1.0000000000000000e+00" itree="196">
      <Node pos="s" depth="0" NCoef="0" IVar="4" Cut="1.3413651287555695e-01" cType="1" res="-3.8105100393295288e-03" rms="4.5757809281349182e-01" purity="4.9576038122177124e-01" nType="0">
        <Node pos="l" depth="1" NCoef="0" IVar="-1" Cut="0.0000000000000000e+00" cType="1" res="-4.4139120727777481e-03" rms="4.4057554006576538e-01" purity="3.6069938540458679e-01" nType="-99"/>
        <Node pos="r" depth="1" NCoef="0" IVar="6" Cut="1.6213749647140503e+00" cType="1" res="1.8939645960927010e-03" rms="4.5850878953933716e-01" purity="5.0703626871109009e-01" nType="0">
          <Node pos="l" depth="2" NCoef="0" IVar="-1" Cut="0.0000000000000000e+00" cType="1" res="3.5600315313786268e-03" rms="4.4671320915222168e-01" purity="6.2930226325988770e-01" nType="-99"/>
          <Node pos="r" depth="2" NCoef="0" IVar="-1" Cut="0.0000000000000000e+00" cType="1" res="-3.1139072962105274e-04" rms="4.5938843488693237e-01" purity="4.9237260222434998e-01" nType="-99"/>
        </Node>
      </Node>
    </BinaryTree>
    <BinaryTree type="DecisionTree" boostWeight="1.0000000000000000e+00" itree="197">
      <Node pos="s" depth="0" NCoef="0" IVar="7" Cut="7.5235107421875000e+01" cType="1" res="-7.3804461862891912e-04" rms="4.5728787779808044e-01" purity="4.9850946664810181e-01" nType="0">
        <Node pos="l" depth="1" NCoef="0" IVar="8" Cut="7.1302205324172974e-01" cType="1" res="-1.5963455662131310e-02" rms="4.5651271939277649e-01" purity="4.3571966886520386e-01" nType="0">
          <Node pos="l" depth="2" NCoef="0" IVar="-1" Cut="0.0000000000000000e+00" cType="1" res="2.4664436932653189e-03" rms="4.6482571959495544e-01" purity="5.1876282691955566e-01" nType="-99"/>
          <Node pos="r" depth="2" NCoef="0" IVar="-1" Cut="0.0000000000000000e+00" cType="1" res="-1.5536824939772487e-03" rms="4.5435380935668945e-01" purity="4.2163681983947754e-01" nType="-99"/>
        </Node>
        <Node pos="r" depth="1" NCoef="0" IVar="6" Cut="2.4101264476776123e+00" cType="1" res="2.3193497210741043e-02" rms="4.5748054981231689e-01" purity="5.9720343351364136e-01" nType="0">
          <Node pos="l" depth="2" NCoef="0" IVar="-1" Cut="0.0000000000000000e+00" cType="1" res="2.1039952989667654e-03" rms="4.5300844311714172e-01" purity="6.4438593387603760e-01" nType="-99"/>
          <Node pos="r" depth="2" NCoef="0" IVar="-1" Cut="0.0000000000000000e+00" cType="1" res="-8.8911090278998017e-04" rms="4.6909824013710022e-01" purity="4.4983717799186707e-01" nType="-99"/>
        </Node>
      </Node>
    </BinaryTree>
    <BinaryTree type="DecisionTree" boostWeight="1.0000000000000000e+00" itree="198">
      <Node pos="s" depth="0" NCoef="0" IVar="6" Cut="2.0113558769226074e+00" cType="1" res="-3.2064311672002077e-03" rms="4.5784988999366760e-01" purity="4.9745470285415649e-01" nType="0">
        <Node pos="l" depth="1" NCoef="0" IVar="2" Cut="9.0595954895019531e+01" cType="1" res="2.4695297703146935e-02" rms="4.5718741416931152e-01" purity="5.7735043764114380e-01" nType="0">
          <Node pos="l" depth="2" NCoef="0" IVar="-1" Cut="0.0000000000000000e+00" cType="1" res="3.2922779791988432e-04" rms="4.6243518590927124e-01" purity="5.3321105241775513e-01" nType="-99"/>
          <Node pos="r" depth="2" NCoef="0" IVar="-1" Cut="0.0000000000000000e+00" cType="1" res="3.9935284294188023e-03" rms="4.4239681959152222e-01" purity="6.7531085014343262e-01" nType="-99"/>
        </Node>
        <Node pos="r" depth="1" NCoef="0" IVar="5" Cut="9.7218960523605347e-01" cType="1" res="-1.3483406975865364e-02" rms="4.5766523480415344e-01" purity="4.6802687644958496e-01" nType="0">
          <Node pos="l" depth="2" NCoef="0" IVar="-1" Cut="0.0000000000000000e+00" cType="1" res="-1.4119859552010894e-03" rms="4.6037042140960693e-01" purity="4.0490090847015381e-01" nType="-99"/>
          <Node pos="r" depth="2" NCoef="0" IVar="-1" Cut="0.0000000000000000e+00" cType="1" res="1.2680105865001678e-03" rms="4.4705545902252197e-01" purity="6.7445528507232666e-01" nType="-99"/>
        </Node>
      </Node>
    </BinaryTree>
    <BinaryTree type="DecisionTree" boostWeight="1.0000000000000000e+00" itree="199">
      <Node pos="s" depth="0" NCoef="0" IVar="6" Cut="2.8206086158752441e+00" cType="1" res="-3.7145435344427824e-03" rms="4.5619344711303711e-01" purity="4.9850052595138550e-01" nType="0">
        <Node pos="l" depth="1" NCoef="0" IVar="2" Cut="9.1230339050292969e+01" cType="1" res="1.4697692822664976e-03" rms="4.5991182327270508e-01" purity="5.1908415555953979e-01" nType="0">
          <Node pos="l" depth="2" NCoef="0" IVar="-1" Cut="0.0000000000000000e+00" cType="1" res="-1.2289684964343905e-03" rms="4.6101760864257812e-01" purity="4.7575443983078003e-01" nType="-99"/>
          <Node pos="r" depth="2" NCoef="0" IVar="-1" Cut="0.0000000000000000e+00" cType="1" res="1.1788798728957772e-03" rms="4.5817971229553223e-01" purity="5.5483740568161011e-01" nType="-99"/>
        </Node>
        <Node pos="r" depth="1" NCoef="0" IVar="-1" Cut="0.0000000000000000e+00" cType="1" res="-5.0177955999970436e-03" rms="3.9636564254760742e-01" purity="2.2181648015975952e-01" nType="-99"/>
      </Node>
    </BinaryTree>
    <BinaryTree type="DecisionTree" boostWeight="1.0000000000000000e+00" itree="200">
      <Node pos="s" depth="0" NCoef="0" IVar="6" Cut="2.2347028255462646e+00" cType="1" res="1.6146448906511068e-03" rms="4.5736366510391235e-01" purity="5.0172746181488037e-01" nType="0">
        <Node pos="l" depth="1" NCoef="0" IVar="2" Cut="1.0860619354248047e+02" cType="1" res="1.9911812618374825e-02" rms="4.6009418368339539e-01" purity="5.6856417655944824e-01" nType="0">
          <Node pos="l" depth="2" NCoef="0" IVar="-1" Cut="0.0000000000000000e+00" cType="1" res="-2.8722861316055059e-05" rms="4.6642011404037476e-01" purity="5.2595216035842896e-01" nType="-99"/>
          <Node pos="r" depth="2" NCoef="0" IVar="-1" Cut="0.0000000000000000e+00" cType="1" res="4.4580181129276752e-03" rms="4.3816682696342468e-01" purity="6.8217515945434570e-01" nType="-99"/>
        </Node>
        <Node pos="r" depth="1" NCoef="0" IVar="6" Cut="2.9025697708129883e+00" cType="1" res="-2.0044686272740364e-02" rms="4.5315629243850708e-01" purity="4.2260932922363281e-01" nType="0">
          <Node pos="l" depth="2" NCoef="0" IVar="-1" Cut="0.0000000000000000e+00" cType="1" res="-7.4453215347602963e-04" rms="4.5981049537658691e-01" purity="4.4912630319595337e-01" nType="-99"/>
          <Node pos="r" depth="2" NCoef="0" IVar="-1" Cut="0.0000000000000000e+00" cType="1" res="-5.4470021277666092e-03" rms="3.9175751805305481e-01" purity="2.1364212036132812e-01" nType="-99"/>
        </Node>
      </Node>
    </BinaryTree>
    <BinaryTree type="DecisionTree" boostWeight="1.0000000000000000e+00" itree="201">
      <Node pos="s" depth="0" NCoef="0" IVar="6" Cut="2.5235347747802734e+00" cType="1" res="1.0072238743305206e-02" rms="4.5729264616966248e-01" purity="5.1053714752197266e-01" nType="0">
        <Node pos="l" depth="1" NCoef="0" IVar="3" Cut="1.5850254893302917e-01" cType="1" res="1.9445097073912621e-02" rms="4.5996558666229248e-01" purity="5.5205267667770386e-01" nType="0">
          <Node pos="l" depth="2" NCoef="0" IVar="-1" Cut="0.0000000000000000e+00" cType="1" res="8.2525762263685465e-04" rms="4.5917189121246338e-01" purity="5.4958522319793701e-01" nType="-99"/>
          <Node pos="r" depth="2" NCoef="0" IVar="-1" Cut="0.0000000000000000e+00" cType="1" res="4.9943174235522747e-03" rms="4.6440246701240540e-01" purity="5.8204609155654907e-01" nType="-99"/>
        </Node>
        <Node pos="r" depth="1" NCoef="0" IVar="8" Cut="1.3735749721527100e+00" cType="1" res="-3.0464826151728630e-02" rms="4.4327148795127869e-01" purity="3.3098495006561279e-01" nType="0">
          <Node pos="l" depth="2" NCoef="0" IVar="-1" Cut="0.0000000000000000e+00" cType="1" res="-5.1247741794213653e-04" rms="4.5675611495971680e-01" purity="3.7035626173019409e-01" nType="-99"/>
          <Node pos="r" depth="2" NCoef="0" IVar="-1" Cut="0.0000000000000000e+00" cType="1" res="-5.3597320802509785e-03" rms="4.0666547417640686e-01" purity="2.4182845652103424e-01" nType="-99"/>
        </Node>
      </Node>
    </BinaryTree>
    <BinaryTree type="DecisionTree" boostWeight="1.0000000000000000e+00" itree="202">
      <Node pos="s" depth="0" NCoef="0" IVar="7" Cut="4.1019863128662109e+01" cType="1" res="1.1163484305143356e-03" rms="4.5898431539535522e-01" purity="4.9974432587623596e-01" nType="0">
        <Node pos="l" depth="1" NCoef="0" IVar="-1" Cut="0.0000000000000000e+00" cType="1" res="-4.8224581405520439e-03" rms="4.3158257007598877e-01" purity="2.8724861145019531e-01" nType="-99"/>
        <Node pos="r" depth="1" NCoef="0" IVar="6" Cut="1.8899950981140137e+00" cType="1" res="5.1982444711029530e-03" rms="4.6003097295761108e-01" purity="5.1100355386734009e-01" nType="0">
          <Node pos="l" depth="2" NCoef="0" IVar="-1" Cut="0.0000000000000000e+00" cType="1" res="2.4058686103671789e-03" rms="4.5773214101791382e-01" purity="6.0561996698379517e-01" nType="-99"/>
          <Node pos="r" depth="2" NCoef="0" IVar="-1" Cut="0.0000000000000000e+00" cType="1" res="-2.6778850588016212e-04" rms="4.6016570925712585e-01" purity="4.8559707403182983e-01" nType="-99"/>
        </Node>
      </Node>
    </BinaryTree>
    <BinaryTree type="DecisionTree" boostWeight="1.0000000000000000e+00" itree="203">
      <Node pos="s" depth="0" NCoef="0" IVar="2" Cut="1.0725913238525391e+02" cType="1" res="-1.2428597547113895e-03" rms="4.5751985907554626e-01" purity="5.0022459030151367e-01" nType="0">
        <Node pos="l" depth="1" NCoef="0" IVar="8" Cut="1.6091413497924805e+00" cType="1" res="-1.9228082150220871e-02" rms="4.5966398715972900e-01" purity="4.6973568201065063e-01" nType="0">
          <Node pos="l" depth="2" NCoef="0" IVar="-1" Cut="0.0000000000000000e+00" cType="1" res="-6.3995533855631948e-04" rms="4.6229743957519531e-01" purity="4.8537686467170715e-01" nType="-99"/>
          <Node pos="r" depth="2" NCoef="0" IVar="-1" Cut="0.0000000000000000e+00" cType="1" res="-4.3054437264800072e-03" rms="4.3978312611579895e-01" purity="3.7453237175941467e-01" nType="-99"/>
        </Node>
        <Node pos="r" depth="1" NCoef="0" IVar="6" Cut="2.0621771812438965e+00" cType="1" res="2.2908011451363564e-02" rms="4.5350423455238342e-01" purity="5.4116576910018921e-01" nType="0">
          <Node pos="l" depth="2" NCoef="0" IVar="-1" Cut="0.0000000000000000e+00" cType="1" res="4.4246134348213673e-03" rms="4.3364909291267395e-01" purity="6.9997441768646240e-01" nType="-99"/>
          <Node pos="r" depth="2" NCoef="0" IVar="-1" Cut="0.0000000000000000e+00" cType="1" res="8.4248872008174658e-04" rms="4.5632091164588928e-01" purity="5.1325726509094238e-01" nType="-99"/>
        </Node>
      </Node>
    </BinaryTree>
    <BinaryTree type="DecisionTree" boostWeight="1.0000000000000000e+00" itree="204">
      <Node pos="s" depth="0" NCoef="0" IVar="2" Cut="8.9838531494140625e+01" cType="1" res="1.6344123287126422e-03" rms="4.5523345470428467e-01" purity="5.0060135126113892e-01" nType="0">
        <Node pos="l" depth="1" NCoef="0" IVar="6" Cut="2.0067687034606934e+00" cType="1" res="-2.2997369989752769e-02" rms="4.5702680945396423e-01" purity="4.6102619171142578e-01" nType="0">
          <Node pos="l" depth="2" NCoef="0" IVar="-1" Cut="0.0000000000000000e+00" cType="1" res="5.9799192240461707e-04" rms="4.6598753333091736e-01" purity="5.3379333019256592e-01" nType="-99"/>
          <Node pos="r" depth="2" NCoef="0" IVar="-1" Cut="0.0000000000000000e+00" cType="1" res="-2.9249885119497776e-03" rms="4.4843164086341858e-01" purity="4.0566080808639526e-01" nType="-99"/>
        </Node>
        <Node pos="r" depth="1" NCoef="0" IVar="6" Cut="2.3636844158172607e+00" cType="1" res="1.9743178039789200e-02" rms="4.5305711030960083e-01" purity="5.2969622611999512e-01" nType="0">
          <Node pos="l" depth="2" NCoef="0" IVar="-1" Cut="0.0000000000000000e+00" cType="1" res="2.5852960534393787e-03" rms="4.5212197303771973e-01" purity="6.2296593189239502e-01" nType="-99"/>
          <Node pos="r" depth="2" NCoef="0" IVar="-1" Cut="0.0000000000000000e+00" cType="1" res="-7.4405595660209656e-04" rms="4.5235159993171692e-01" purity="4.0434443950653076e-01" nType="-99"/>
        </Node>
      </Node>
    </BinaryTree>
    <BinaryTree type="DecisionTree" boostWeight="1.0000000000000000e+00" itree="205">
      <Node pos="s" depth="0" NCoef="0" IVar="6" Cut="1.6729726791381836e+00" cType="1" res="3.7584046367555857e-03" rms="4.5895087718963623e-01" purity="5.0167554616928101e-01" nType="0">
        <Node pos="l" depth="1" NCoef="0" IVar="3" Cut="1.8415594473481178e-02" cType="1" res="7.5478643178939819e-02" rms="4.4797971844673157e-01" purity="6.4197850227355957e-01" nType="0">
          <Node pos="l" depth="2" NCoef="0" IVar="-1" Cut="0.0000000000000000e+00" cType="1" res="3.5068020224571228e-03" rms="4.5038026571273804e-01" purity="6.3519674539566040e-01" nType="-99"/>
          <Node pos="r" depth="2" NCoef="0" IVar="-1" Cut="0.0000000000000000e+00" cType="1" res="5.2653797902166843e-03" rms="4.4479194283485413e-01" purity="6.4922696352005005e-01" nType="-99"/>
        </Node>
        <Node pos="r" depth="1" NCoef="0" IVar="4" Cut="6.4529114961624146e-01" cType="1" res="-6.2600723467767239e-03" rms="4.5957255363464355e-01" purity="4.8207688331604004e-01" nType="0">
          <Node pos="l" depth="2" NCoef="0" IVar="-1" Cut="0.0000000000000000e+00" cType="1" res="-8.2319515058770776e-04" rms="4.5902395248413086e-01" purity="4.6931561827659607e-01" nType="-99"/>
          <Node pos="r" depth="2" NCoef="0" IVar="-1" Cut="0.0000000000000000e+00" cType="1" res="3.1152402516454458e-03" rms="4.5968517661094666e-01" purity="5.8174115419387817e-01" nType="-99"/>
        </Node>
      </Node>
    </BinaryTree>
    <BinaryTree type="DecisionTree" boostWeight="1.0000000000000000e+00" itree="206">
      <Node pos="s" depth="0" NCoef="0" IVar="0" Cut="2.1247811317443848e+00" cType="1" res="3.8834978477098048e-04" rms="4.5664960145950317e-01" purity="4.9841439723968506e-01" nType="0">
        <Node pos="l" depth="1" NCoef="0" IVar="6" Cut="2.1843473911285400e+00" cType="1" res="-2.7067160233855247e-02" rms="4.4872179627418518e-01" purity="3.2722970843315125e-01" nType="0">
          <Node pos="l" depth="2" NCoef="0" IVar="-1" Cut="0.0000000000000000e+00" cType="1" res="-6.9847628765273839e-05" rms="4.7107329964637756e-01" purity="3.9774316549301147e-01" nType="-99"/>
          <Node pos="r" depth="2" NCoef="0" IVar="-1" Cut="0.0000000000000000e+00" cType="1" res="-3.2512412872165442e-03" rms="4.2780801653862000e-01" purity="2.6791486144065857e-01" nType="-99"/>
        </Node>
        <Node pos="r" depth="1" NCoef="0" IVar="8" Cut="1.4484850168228149e+00" cType="1" res="1.3888056389987469e-02" rms="4.5989689230918884e-01" purity="5.8258485794067383e-01" nType="0">
          <Node pos="l" depth="2" NCoef="0" IVar="-1" Cut="0.0000000000000000e+00" cType="1" res="1.3467881362885237e-03" rms="4.5839402079582214e-01" purity="6.0495847463607788e-01" nType="-99"/>
          <Node pos="r" depth="2" NCoef="0" IVar="-1" Cut="0.0000000000000000e+00" cType="1" res="-1.3914139708504081e-03" rms="4.6408662199974060e-01" purity="4.9079969525337219e-01" nType="-99"/>
        </Node>
      </Node>
    </BinaryTree>
    <BinaryTree type="DecisionTree" boostWeight="1.0000000000000000e+00" itree="207">
      <Node pos="s" depth="0" NCoef="0" IVar="5" Cut="9.3330311775207520e-01" cType="1" res="-3.4264083951711655e-03" rms="4.5543876290321350e-01" purity="4.9422940611839294e-01" nType="0">
        <Node pos="l" depth="1" NCoef="0" IVar="4" Cut="4.5852369070053101e-01" cType="1" res="-4.0437720715999603e-02" rms="4.4149643182754517e-01" purity="3.1538289785385132e-01" nType="0">
          <Node pos="l" depth="2" NCoef="0" IVar="-1" Cut="0.0000000000000000e+00" cType="1" res="-3.5600394476205111e-03" rms="4.3270307779312134e-01" purity="2.8477087616920471e-01" nType="-99"/>
          <Node pos="r" depth="2" NCoef="0" IVar="-1" Cut="0.0000000000000000e+00" cType="1" res="-2.7342935209162533e-04" rms="4.5687636733055115e-01" purity="3.7798646092414856e-01" nType="-99"/>
        </Node>
        <Node pos="r" depth="1" NCoef="0" IVar="4" Cut="1.5498922765254974e-01" cType="1" res="8.6455233395099640e-03" rms="4.5925027132034302e-01" purity="5.5256354808807373e-01" nType="0">
          <Node pos="l" depth="2" NCoef="0" IVar="-1" Cut="0.0000000000000000e+00" cType="1" res="-3.2018802594393492e-03" rms="4.5807555317878723e-01" purity="4.2270511388778687e-01" nType="-99"/>
          <Node pos="r" depth="2" NCoef="0" IVar="-1" Cut="0.0000000000000000e+00" cType="1" res="9.3293050304055214e-04" rms="4.5885792374610901e-01" purity="5.6705760955810547e-01" nType="-99"/>
        </Node>
      </Node>
    </BinaryTree>
    <BinaryTree type="DecisionTree" boostWeight="1.0000000000000000e+00" itree="208">
      <Node pos="s" depth="0" NCoef="0" IVar="5" Cut="9.4559186697006226e-01" cType="1" res="1.0988065041601658e-03" rms="4.5615971088409424e-01" purity="5.0268578529357910e-01" nType="0">
        <Node pos="l" depth="1" NCoef="0" IVar="0" Cut="2.6272182464599609e+00" cType="1" res="-2.6027029380202293e-02" rms="4.5037135481834412e-01" purity="3.5745257139205933e-01" nType="0">
          <Node pos="l" depth="2" NCoef="0" IVar="-1" Cut="0.0000000000000000e+00" cType="1" res="-2.7070594951510429e-03" rms="4.3618077039718628e-01" purity="2.8682145476341248e-01" nType="-99"/>
          <Node pos="r" depth="2" NCoef="0" IVar="-1" Cut="0.0000000000000000e+00" cType="1" res="5.2016525296494365e-04" rms="4.7725117206573486e-01" purity="5.0801038742065430e-01" nType="-99"/>
        </Node>
        <Node pos="r" depth="1" NCoef="0" IVar="4" Cut="6.8177139759063721e-01" cType="1" res="1.8112896010279655e-02" rms="4.5893570780754089e-01" purity="5.9378015995025635e-01" nType="0">
          <Node pos="l" depth="2" NCoef="0" IVar="-1" Cut="0.0000000000000000e+00" cType="1" res="8.0165144754573703e-04" rms="4.6091848611831665e-01" purity="5.8609145879745483e-01" nType="-99"/>
          <Node pos="r" depth="2" NCoef="0" IVar="-1" Cut="0.0000000000000000e+00" cType="1" res="4.0133586153388023e-03" rms="4.3550634384155273e-01" purity="6.7159706354141235e-01" nType="-99"/>
        </Node>
      </Node>
    </BinaryTree>
    <BinaryTree type="DecisionTree" boostWeight="1.0000000000000000e+00" itree="209">
      <Node pos="s" depth="0" NCoef="0" IVar="4" Cut="6.1101305484771729e-01" cType="1" res="4.2817494831979275e-03" rms="4.6015790104866028e-01" purity="5.0352668762207031e-01" nType="0">
        <Node pos="l" depth="1" NCoef="0" IVar="5" Cut="9.3679082393646240e-01" cType="1" res="-1.7099838005378842e-03" rms="4.5881882309913635e-01" purity="4.9036481976509094e-01" nType="0">
          <Node pos="l" depth="2" NCoef="0" IVar="-1" Cut="0.0000000000000000e+00" cType="1" res="-1.6540890792384744e-03" rms="4.4810718297958374e-01" purity="3.3218947052955627e-01" nType="-99"/>
          <Node pos="r" depth="2" NCoef="0" IVar="-1" Cut="0.0000000000000000e+00" cType="1" res="5.0387508235871792e-04" rms="4.6260213851928711e-01" purity="5.5304175615310669e-01" nType="-99"/>
        </Node>
        <Node pos="r" depth="1" NCoef="0" IVar="2" Cut="9.8690734863281250e+01" cType="1" res="3.7559606134891510e-02" rms="4.6612569689750671e-01" purity="5.7662683725357056e-01" nType="0">
          <Node pos="l" depth="2" NCoef="0" IVar="-1" Cut="0.0000000000000000e+00" cType="1" res="9.5631898147985339e-04" rms="4.7306099534034729e-01" purity="5.3454959392547607e-01" nType="-99"/>
          <Node pos="r" depth="2" NCoef="0" IVar="-1" Cut="0.0000000000000000e+00" cType="1" res="3.8885653484612703e-03" rms="4.5603254437446594e-01" purity="6.2856048345565796e-01" nType="-99"/>
        </Node>
      </Node>
    </BinaryTree>
    <BinaryTree type="DecisionTree" boostWeight="1.0000000000000000e+00" itree="210">
      <Node pos="s" depth="0" NCoef="0" IVar="5" Cut="9.8374891281127930e-01" cType="1" res="-2.1687617991119623e-03" rms="4.5764830708503723e-01" purity="4.9777618050575256e-01" nType="0">
        <Node pos="l" depth="1" NCoef="0" IVar="1" Cut="4.0454425048828125e+02" cType="1" res="-8.7993014603853226e-03" rms="4.6372950077056885e-01" purity="4.6270564198493958e-01" nType="0">
          <Node pos="l" depth="2" NCoef="0" IVar="-1" Cut="0.0000000000000000e+00" cType="1" res="-3.1401040032505989e-03" rms="4.3443870544433594e-01" purity="2.9605743288993835e-01" nType="-99"/>
          <Node pos="r" depth="2" NCoef="0" IVar="-1" Cut="0.0000000000000000e+00" cType="1" res="-7.7549739216919988e-05" rms="4.6860557794570923e-01" purity="4.9374982714653015e-01" nType="-99"/>
        </Node>
        <Node pos="r" depth="1" NCoef="0" IVar="5" Cut="9.9081552028656006e-01" cType="1" res="4.7560650855302811e-02" rms="4.0572878718376160e-01" purity="7.6080703735351562e-01" nType="0">
          <Node pos="l" depth="2" NCoef="0" IVar="-1" Cut="0.0000000000000000e+00" cType="1" res="1.8249902641400695e-03" rms="4.2417359352111816e-01" purity="7.2788733243942261e-01" nType="-99"/>
          <Node pos="r" depth="2" NCoef="0" IVar="-1" Cut="0.0000000000000000e+00" cType="1" res="4.8662330955266953e-03" rms="3.8185882568359375e-01" purity="7.9900264739990234e-01" nType="-99"/>
        </Node>
      </Node>
    </BinaryTree>
    <BinaryTree type="DecisionTree" boostWeight="1.0000000000000000e+00" itree="211">
      <Node pos="s" depth="0" NCoef="0" IVar="3" Cut="-6.0267072170972824e-02" cType="1" res="-4.5166453346610069e-03" rms="4.5928272604942322e-01" purity="4.9853143095970154e-01" nType="0">
        <Node pos="l" depth="1" NCoef="0" IVar="-1" Cut="0.0000000000000000e+00" cType="1" res="3.0789377633482218e-03" rms="4.5451933145523071e-01" purity="5.9800267219543457e-01" nType="-99"/>
        <Node pos="r" depth="1" NCoef="0" IVar="0" Cut="3.8429436683654785e+00" cType="1" res="-9.8960101604461670e-03" rms="4.5938503742218018e-01" purity="4.8889568448066711e-01" nType="0">
          <Node pos="l" depth="2" NCoef="0" IVar="-1" Cut="0.0000000000000000e+00" cType="1" res="-1.1410710867494345e-03" rms="4.6475535631179810e-01" purity="4.1510850191116333e-01" nType="-99"/>
          <Node pos="r" depth="2" NCoef="0" IVar="-1" Cut="0.0000000000000000e+00" cType="1" res="9.5938035519793630e-04" rms="4.4340610504150391e-01" purity="6.9018507003784180e-01" nType="-99"/>
        </Node>
      </Node>
    </BinaryTree>
    <BinaryTree type="DecisionTree" boostWeight="1.0000000000000000e+00" itree="212">
      <Node pos="s" depth="0" NCoef="0" IVar="4" Cut="2.9003855586051941e-01" cType="1" res="7.4618016369640827e-03" rms="4.5757958292961121e-01" purity="5.0684410333633423e-01" nType="0">
        <Node pos="l" depth="1" NCoef="0" IVar="1" Cut="8.2936669921875000e+02" cType="1" res="-1.7059287056326866e-02" rms="4.5751506090164185e-01" purity="4.3661746382713318e-01" nType="0">
          <Node pos="l" depth="2" NCoef="0" IVar="-1" Cut="0.0000000000000000e+00" cType="1" res="-1.6819062875583768e-03" rms="4.5640957355499268e-01" purity="4.0872061252593994e-01" nType="-99"/>
          <Node pos="r" depth="2" NCoef="0" IVar="-1" Cut="0.0000000000000000e+00" cType="1" res="2.2474043071269989e-03" rms="4.5927250385284424e-01" purity="5.8284378051757812e-01" nType="-99"/>
        </Node>
        <Node pos="r" depth="1" NCoef="0" IVar="0" Cut="1.3720411062240601e+00" cType="1" res="1.9604589790105820e-02" rms="4.5712482929229736e-01" purity="5.4162013530731201e-01" nType="0">
          <Node pos="l" depth="2" NCoef="0" IVar="-1" Cut="0.0000000000000000e+00" cType="1" res="-1.6678589163348079e-03" rms="4.4581621885299683e-01" purity="3.0903503298759460e-01" nType="-99"/>
          <Node pos="r" depth="2" NCoef="0" IVar="-1" Cut="0.0000000000000000e+00" cType="1" res="1.5856917016208172e-03" rms="4.5851898193359375e-01" purity="5.7941472530364990e-01" nType="-99"/>
        </Node>
      </Node>
    </BinaryTree>
    <BinaryTree type="DecisionTree" boostWeight="1.0000000000000000e+00" itree="213">
      <Node pos="s" depth="0" NCoef="0" IVar="8" Cut="9.6316242218017578e-01" cType="1" res="-1.5455917455255985e-03" rms="4.5791915059089661e-01" purity="5.0023150444030762e-01" nType="0">
        <Node pos="l" depth="1" NCoef="0" IVar="6" Cut="2.4577376842498779e+00" cType="1" res="2.0914278924465179e-02" rms="4.5875591039657593e-01" purity="5.4914885759353638e-01" nType="0">
          <Node pos="l" depth="2" NCoef="0" IVar="-1" Cut="0.0000000000000000e+00" cType="1" res="1.9522994989529252e-03" rms="4.5908245444297791e-01" purity="5.9518438577651978e-01" nType="-99"/>
          <Node pos="r" depth="2" NCoef="0" IVar="-1" Cut="0.0000000000000000e+00" cType="1" res="-1.5244211535900831e-03" rms="4.5458260178565979e-01" purity="3.7541180849075317e-01" nType="-99"/>
        </Node>
        <Node pos="r" depth="1" NCoef="0" IVar="0" Cut="4.6256046295166016e+00" cType="1" res="-1.7370933666825294e-02" rms="4.5666572451591492e-01" purity="4.6576410531997681e-01" nType="0">
          <Node pos="l" depth="2" NCoef="0" IVar="-1" Cut="0.0000000000000000e+00" cType="1" res="-1.5358136733993888e-03" rms="4.6106383204460144e-01" purity="4.2194974422454834e-01" nType="-99"/>
          <Node pos="r" depth="2" NCoef="0" IVar="-1" Cut="0.0000000000000000e+00" cType="1" res="2.2595145273953676e-03" rms="4.2407798767089844e-01" purity="7.4269193410873413e-01" nType="-99"/>
        </Node>
      </Node>
    </BinaryTree>
    <BinaryTree type="DecisionTree" boostWeight="1.0000000000000000e+00" itree="214">
      <Node pos="s" depth="0" NCoef="0" IVar="8" Cut="9.4235754013061523e-01" cType="1" res="1.5081713208928704e-03" rms="4.5704057812690735e-01" purity="5.0029069185256958e-01" nType="0">
        <Node pos="l" depth="1" NCoef="0" IVar="5" Cut="9.6169513463973999e-01" cType="1" res="2.3625019937753677e-02" rms="4.5639011263847351e-01" purity="5.5179816484451294e-01" nType="0">
          <Node pos="l" depth="2" NCoef="0" IVar="-1" Cut="0.0000000000000000e+00" cType="1" res="2.3535024956800044e-04" rms="4.6875056624412537e-01" purity="4.5467168092727661e-01" nType="-99"/>
          <Node pos="r" depth="2" NCoef="0" IVar="-1" Cut="0.0000000000000000e+00" cType="1" res="3.5742784384638071e-03" rms="4.3275445699691772e-01" purity="7.1562665700912476e-01" nType="-99"/>
        </Node>
        <Node pos="r" depth="1" NCoef="0" IVar="6" Cut="2.1967606544494629e+00" cType="1" res="-1.3025223277509212e-02" rms="4.5688498020172119e-01" purity="4.6644416451454163e-01" nType="0">
          <Node pos="l" depth="2" NCoef="0" IVar="-1" Cut="0.0000000000000000e+00" cType="1" res="2.7988187503069639e-04" rms="4.6358209848403931e-01" purity="5.3684222698211670e-01" nType="-99"/>
          <Node pos="r" depth="2" NCoef="0" IVar="-1" Cut="0.0000000000000000e+00" cType="1" res="-1.8387222662568092e-03" rms="4.4972577691078186e-01" purity="3.9910206198692322e-01" nType="-99"/>
        </Node>
      </Node>
    </BinaryTree>
    <BinaryTree type="DecisionTree" boostWeight="1.0000000000000000e+00" itree="215">
      <Node pos="s" depth="0" NCoef="0" IVar="4" Cut="1.1469846218824387e-01" cType="1" res="1.1635252740234137e-03" rms="4.5848423242568970e-01" purity="5.0142598152160645e-01" nType="0">
        <Node pos="l" depth="1" NCoef="0" IVar="-1" Cut="0.0000000000000000e+00" cType="1" res="-4.2656129226088524e-03" rms="4.3860927224159241e-01" purity="3.5161414742469788e-01" nType="-99"/>
        <Node pos="r" depth="1" NCoef="0" IVar="6" Cut="2.0205211639404297e+00" cType="1" res="5.0709699280560017e-03" rms="4.5923036336898804e-01" purity="5.0964570045471191e-01" nType="0">
          <Node pos="l" depth="2" NCoef="0" IVar="-1" Cut="0.0000000000000000e+00" cType="1" res="1.9145401893183589e-03" rms="4.5098468661308289e-01" purity="5.8900254964828491e-01" nType="-99"/>
          <Node pos="r" depth="2" NCoef="0" IVar="-1" Cut="0.0000000000000000e+00" cType="1" res="-3.2250763615593314e-04" rms="4.6190974116325378e-01" purity="4.7939246892929077e-01" nType="-99"/>
        </Node>
      </Node>
    </BinaryTree>
    <BinaryTree type="DecisionTree" boostWeight="1.0000000000000000e+00" itree="216">
      <Node pos="s" depth="0" NCoef="0" IVar="0" Cut="5.3381266593933105e+00" cType="1" res="1.9717486575245857e-03" rms="4.5609655976295471e-01" purity="5.0362557172775269e-01" nType="0">
        <Node pos="l" depth="1" NCoef="0" IVar="4" Cut="3.0686345696449280e-01" cType="1" res="-3.0223145149648190e-03" rms="4.6096771955490112e-01" purity="4.8244079947471619e-01" nType="0">
          <Node pos="l" depth="2" NCoef="0" IVar="-1" Cut="0.0000000000000000e+00" cType="1" res="-1.3899184996262193e-03" rms="4.5581609010696411e-01" purity="4.2087411880493164e-01" nType="-99"/>
          <Node pos="r" depth="2" NCoef="0" IVar="-1" Cut="0.0000000000000000e+00" cType="1" res="4.7745252959430218e-04" rms="4.6340817213058472e-01" purity="5.1638609170913696e-01" nType="-99"/>
        </Node>
        <Node pos="r" depth="1" NCoef="0" IVar="-1" Cut="0.0000000000000000e+00" cType="1" res="5.7464013807475567e-03" rms="3.6340761184692383e-01" purity="8.3335369825363159e-01" nType="-99"/>
      </Node>
    </BinaryTree>
    <BinaryTree type="DecisionTree" boostWeight="1.0000000000000000e+00" itree="217">
      <Node pos="s" depth="0" NCoef="0" IVar="3" Cut="-4.2381705716252327e-03" cType="1" res="1.9490858539938927e-03" rms="4.5833379030227661e-01" purity="4.9938121438026428e-01" nType="0">
        <Node pos="l" depth="1" NCoef="0" IVar="0" Cut="1.4262224435806274e+00" cType="1" res="2.6694947853684425e-02" rms="4.5766749978065491e-01" purity="5.5601936578750610e-01" nType="0">
          <Node pos="l" depth="2" NCoef="0" IVar="-1" Cut="0.0000000000000000e+00" cType="1" res="-1.0377541184425354e-03" rms="4.5676967501640320e-01" purity="3.2761275768280029e-01" nType="-99"/>
          <Node pos="r" depth="2" NCoef="0" IVar="-1" Cut="0.0000000000000000e+00" cType="1" res="2.0785513333976269e-03" rms="4.5737174153327942e-01" purity="6.0078763961791992e-01" nType="-99"/>
        </Node>
        <Node pos="r" depth="1" NCoef="0" IVar="1" Cut="7.5904205322265625e+02" cType="1" res="-1.1985477060079575e-02" rms="4.5812067389488220e-01" purity="4.6748790144920349e-01" nType="0">
          <Node pos="l" depth="2" NCoef="0" IVar="-1" Cut="0.0000000000000000e+00" cType="1" res="-1.2424334418028593e-03" rms="4.5775613188743591e-01" purity="4.3941089510917664e-01" nType="-99"/>
          <Node pos="r" depth="2" NCoef="0" IVar="-1" Cut="0.0000000000000000e+00" cType="1" res="1.9027628004550934e-03" rms="4.5747512578964233e-01" purity="6.1009657382965088e-01" nType="-99"/>
        </Node>
      </Node>
    </BinaryTree>
    <BinaryTree type="DecisionTree" boostWeight="1.0000000000000000e+00" itree="218">
      <Node pos="s" depth="0" NCoef="0" IVar="3" Cut="-5.8720294386148453e-02" cType="1" res="-2.2808026988059282e-03" rms="4.5717954635620117e-01" purity="4.9892705678939819e-01" nType="0">
        <Node pos="l" depth="1" NCoef="0" IVar="-1" Cut="0.0000000000000000e+00" cType="1" res="2.8989054262638092e-03" rms="4.5314785838127136e-01" purity="5.9740084409713745e-01" nType="-99"/>
        <Node pos="r" depth="1" NCoef="0" IVar="1" Cut="8.4691381835937500e+02" cType="1" res="-7.5946329161524773e-03" rms="4.5727285742759705e-01" purity="4.8863279819488525e-01" nType="0">
          <Node pos="l" depth="2" NCoef="0" IVar="-1" Cut="0.0000000000000000e+00" cType="1" res="-8.4276311099529266e-04" rms="4.5752009749412537e-01" purity="4.7148799896240234e-01" nType="-99"/>
          <Node pos="r" depth="2" NCoef="0" IVar="-1" Cut="0.0000000000000000e+00" cType="1" res="3.0098217539489269e-03" rms="4.5092436671257019e-01" purity="6.4423584938049316e-01" nType="-99"/>
        </Node>
      </Node>
    </BinaryTree>
    <BinaryTree type="DecisionTree" boostWeight="1.0000000000000000e+00" itree="219">
      <Node pos="s" depth="0" NCoef="0" IVar="1" Cut="8.0805072021484375e+02" cType="1" res="1.6827504150569439e-03" rms="4.5449873805046082e-01" purity="4.9847990274429321e-01" nType="0">
        <Node pos="l" depth="1" NCoef="0" IVar="4" Cut="5.1463264226913452e-01" cType="1" res="-5.1274257712066174e-03" rms="4.5465427637100220e-01" purity="4.7887715697288513e-01" nType="0">
          <Node pos="l" depth="2" NCoef="0" IVar="-1" Cut="0.0000000000000000e+00" cType="1" res="-1.1417152127251029e-03" rms="4.5406678318977356e-01" purity="4.4502097368240356e-01" nType="-99"/>
          <Node pos="r" depth="2" NCoef="0" IVar="-1" Cut="0.0000000000000000e+00" cType="1" res="1.5650779241696000e-03" rms="4.5443463325500488e-01" purity="5.5589330196380615e-01" nType="-99"/>
        </Node>
        <Node pos="r" depth="1" NCoef="0" IVar="1" Cut="9.2143969726562500e+02" cType="1" res="5.3250938653945923e-02" rms="4.4998633861541748e-01" purity="6.4691597223281860e-01" nType="0">
          <Node pos="l" depth="2" NCoef="0" IVar="-1" Cut="0.0000000000000000e+00" cType="1" res="2.0532768685370684e-03" rms="4.5048871636390686e-01" purity="6.1840426921844482e-01" nType="-99"/>
          <Node pos="r" depth="2" NCoef="0" IVar="-1" Cut="0.0000000000000000e+00" cType="1" res="4.0935100987553596e-03" rms="4.4900792837142944e-01" purity="6.6970044374465942e-01" nType="-99"/>
        </Node>
      </Node>
    </BinaryTree>
    <BinaryTree type="DecisionTree" boostWeight="1.0000000000000000e+00" itree="220">
      <Node pos="s" depth="0" NCoef="0" IVar="8" Cut="1.1265678405761719e+00" cType="1" res="-4.1201631538569927e-03" rms="4.5683419704437256e-01" purity="4.9726495146751404e-01" nType="0">
        <Node pos="l" depth="1" NCoef="0" IVar="4" Cut="3.6274471879005432e-01" cType="1" res="1.1190029792487621e-02" rms="4.5822232961654663e-01" purity="5.3798907995223999e-01" nType="0">
          <Node pos="l" depth="2" NCoef="0" IVar="-1" Cut="0.0000000000000000e+00" cType="1" res="-6.3617352861911058e-04" rms="4.5913660526275635e-01" purity="4.8256781697273254e-01" nType="-99"/>
          <Node pos="r" depth="2" NCoef="0" IVar="-1" Cut="0.0000000000000000e+00" cType="1" res="1.8042584415525198e-03" rms="4.5658236742019653e-01" purity="5.8614617586135864e-01" nType="-99"/>
        </Node>
        <Node pos="r" depth="1" NCoef="0" IVar="0" Cut="1.8844256401062012e+00" cType="1" res="-2.3245004937052727e-02" rms="4.5437014102935791e-01" purity="4.4639414548873901e-01" nType="0">
          <Node pos="l" depth="2" NCoef="0" IVar="-1" Cut="0.0000000000000000e+00" cType="1" res="-3.6968197673559189e-03" rms="4.2430278658866882e-01" purity="2.6125502586364746e-01" nType="-99"/>
          <Node pos="r" depth="2" NCoef="0" IVar="-1" Cut="0.0000000000000000e+00" cType="1" res="-6.5353733953088522e-04" rms="4.6469122171401978e-01" purity="5.1657813787460327e-01" nType="-99"/>
        </Node>
      </Node>
    </BinaryTree>
    <BinaryTree type="DecisionTree" boostWeight="1.0000000000000000e+00" itree="221">
      <Node pos="s" depth="0" NCoef="0" IVar="0" Cut="1.2230215072631836e+00" cType="1" res="-4.4853156432509422e-03" rms="4.5705097913742065e-01" purity="4.9625709652900696e-01" nType="0">
        <Node pos="l" depth="1" NCoef="0" IVar="0" Cut="8.7060546875000000e-01" cType="1" res="-5.5824521929025650e-02" rms="4.2052051424980164e-01" purity="2.6222565770149231e-01" nType="0">
          <Node pos="l" depth="2" NCoef="0" IVar="-1" Cut="0.0000000000000000e+00" cType="1" res="-5.5829770863056183e-03" rms="4.0461817383766174e-01" purity="2.2832229733467102e-01" nType="-99"/>
          <Node pos="r" depth="2" NCoef="0" IVar="-1" Cut="0.0000000000000000e+00" cType="1" res="-2.1831367630511522e-03" rms="4.3364763259887695e-01" purity="2.9396176338195801e-01" nType="-99"/>
        </Node>
        <Node pos="r" depth="1" NCoef="0" IVar="6" Cut="1.4878998994827271e+00" cType="1" res="1.9175822380930185e-03" rms="4.6100333333015442e-01" purity="5.2544492483139038e-01" nType="0">
          <Node pos="l" depth="2" NCoef="0" IVar="-1" Cut="0.0000000000000000e+00" cType="1" res="3.7536588497459888e-03" rms="4.4691911339759827e-01" purity="6.6477817296981812e-01" nType="-99"/>
          <Node pos="r" depth="2" NCoef="0" IVar="-1" Cut="0.0000000000000000e+00" cType="1" res="-1.5919246652629226e-04" rms="4.6172356605529785e-01" purity="5.1491296291351318e-01" nType="-99"/>
        </Node>
      </Node>
    </BinaryTree>
    <BinaryTree type="DecisionTree" boostWeight="1.0000000000000000e+00" itree="222">
      <Node pos="s" depth="0" NCoef="0" IVar="6" Cut="1.6707584857940674e+00" cType="1" res="5.2135209552943707e-03" rms="4.5729824900627136e-01" purity="5.0458812713623047e-01" nType="0">
        <Node pos="l" depth="1" NCoef="0" IVar="8" Cut="1.2431737184524536e+00" cType="1" res="4.9120407551527023e-02" rms="4.4797125458717346e-01" purity="6.1683177947998047e-01" nType="0">
          <Node pos="l" depth="2" NCoef="0" IVar="-1" Cut="0.0000000000000000e+00" cType="1" res="4.5572924427688122e-03" rms="4.4121170043945312e-01" purity="6.6511243581771851e-01" nType="-99"/>
          <Node pos="r" depth="2" NCoef="0" IVar="-1" Cut="0.0000000000000000e+00" cType="1" res="6.9616921246051788e-04" rms="4.5418113470077515e-01" purity="5.5217897891998291e-01" nType="-99"/>
        </Node>
        <Node pos="r" depth="1" NCoef="0" IVar="5" Cut="9.7631627321243286e-01" cType="1" res="-9.1977609554305673e-04" rms="4.5825126767158508e-01" purity="4.8890891671180725e-01" nType="0">
          <Node pos="l" depth="2" NCoef="0" IVar="-1" Cut="0.0000000000000000e+00" cType="1" res="-4.7639725380577147e-04" rms="4.6483060717582703e-01" purity="4.3780305981636047e-01" nType="-99"/>
          <Node pos="r" depth="2" NCoef="0" IVar="-1" Cut="0.0000000000000000e+00" cType="1" res="1.9447958329692483e-03" rms="4.2730280756950378e-01" purity="7.0976454019546509e-01" nType="-99"/>
        </Node>
      </Node>
    </BinaryTree>
    <BinaryTree type="DecisionTree" boostWeight="1.0000000000000000e+00" itree="223">
      <Node pos="s" depth="0" NCoef="0" IVar="6" Cut="2.3224012851715088e+00" cType="1" res="-3.4066525404341519e-04" rms="4.5856872200965881e-01" purity="4.9919041991233826e-01" nType="0">
        <Node pos="l" depth="1" NCoef="0" IVar="0" Cut="5.0236682891845703e+00" cType="1" res="1.2681995518505573e-02" rms="4.6151807904243469e-01" purity="5.6120228767395020e-01" nType="0">
          <Node pos="l" depth="2" NCoef="0" IVar="-1" Cut="0.0000000000000000e+00" cType="1" res="4.0708872256800532e-04" rms="4.7075414657592773e-01" purity="5.3172469139099121e-01" nType="-99"/>
          <Node pos="r" depth="2" NCoef="0" IVar="-1" Cut="0.0000000000000000e+00" cType="1" res="5.0722430460155010e-03" rms="3.5547509789466858e-01" purity="8.4647393226623535e-01" nType="-99"/>
        </Node>
        <Node pos="r" depth="1" NCoef="0" IVar="4" Cut="5.7228815555572510e-01" cType="1" res="-2.3661129176616669e-02" rms="4.5230326056480408e-01" purity="3.8814198970794678e-01" nType="0">
          <Node pos="l" depth="2" NCoef="0" IVar="-1" Cut="0.0000000000000000e+00" cType="1" res="-2.0372478757053614e-03" rms="4.4950762391090393e-01" purity="3.6998590826988220e-01" nType="-99"/>
          <Node pos="r" depth="2" NCoef="0" IVar="-1" Cut="0.0000000000000000e+00" cType="1" res="1.7372147412970662e-03" rms="4.6437081694602966e-01" purity="4.9163308739662170e-01" nType="-99"/>
        </Node>
      </Node>
    </BinaryTree>
    <BinaryTree type="DecisionTree" boostWeight="1.0000000000000000e+00" itree="224">
      <Node pos="s" depth="0" NCoef="0" IVar="6" Cut="1.9843206405639648e+00" cType="1" res="-1.7382197547703981e-03" rms="4.5507133007049561e-01" purity="4.9716809391975403e-01" nType="0">
        <Node pos="l" depth="1" NCoef="0" IVar="2" Cut="4.9703544616699219e+01" cType="1" res="3.0265195295214653e-02" rms="4.5202419161796570e-01" purity="5.8520340919494629e-01" nType="0">
          <Node pos="l" depth="2" NCoef="0" IVar="-1" Cut="0.0000000000000000e+00" cType="1" res="-1.3677562819793820e-03" rms="4.5364075899124146e-01" purity="4.7763520479202271e-01" nType="-99"/>
          <Node pos="r" depth="2" NCoef="0" IVar="-1" Cut="0.0000000000000000e+00" cType="1" res="2.8510796837508678e-03" rms="4.5004323124885559e-01" purity="6.2149339914321899e-01" nType="-99"/>
        </Node>
        <Node pos="r" depth="1" NCoef="0" IVar="3" Cut="1.3279969803988934e-02" cType="1" res="-1.3129016384482384e-02" rms="4.5560884475708008e-01" purity="4.6583423018455505e-01" nType="0">
          <Node pos="l" depth="2" NCoef="0" IVar="-1" Cut="0.0000000000000000e+00" cType="1" res="6.1974907293915749e-04" rms="4.5917615294456482e-01" purity="5.2657824754714966e-01" nType="-99"/>
          <Node pos="r" depth="2" NCoef="0" IVar="-1" Cut="0.0000000000000000e+00" cType="1" res="-1.9168752478435636e-03" rms="4.5197084546089172e-01" purity="4.1849845647811890e-01" nType="-99"/>
        </Node>
      </Node>
    </BinaryTree>
    <BinaryTree type="DecisionTree" boostWeight="1.0000000000000000e+00" itree="225">
      <Node pos="s" depth="0" NCoef="0" IVar="1" Cut="6.6292993164062500e+02" cType="1" res="-4.3447555071907118e-05" rms="4.5508819818496704e-01" purity="4.9921458959579468e-01" nType="0">
        <Node pos="l" depth="1" NCoef="0" IVar="0" Cut="4.9338383674621582e+00" cType="1" res="-1.1956760659813881e-02" rms="4.5538276433944702e-01" purity="4.5892068743705750e-01" nType="0">
          <Node pos="l" depth="2" NCoef="0" IVar="-1" Cut="0.0000000000000000e+00" cType="1" res="-1.0949713177978992e-03" rms="4.5931783318519592e-01" purity="4.2747551202774048e-01" nType="-99"/>
          <Node pos="r" depth="2" NCoef="0" IVar="-1" Cut="0.0000000000000000e+00" cType="1" res="3.3791868481785059e-03" rms="4.0898123383522034e-01" purity="7.7102643251419067e-01" nType="-99"/>
        </Node>
        <Node pos="r" depth="1" NCoef="0" IVar="5" Cut="9.3109184503555298e-01" cType="1" res="3.6983359605073929e-02" rms="4.5217207074165344e-01" purity="6.2444871664047241e-01" nType="0">
          <Node pos="l" depth="2" NCoef="0" IVar="-1" Cut="0.0000000000000000e+00" cType="1" res="-1.7183767631649971e-03" rms="4.7588631510734558e-01" purity="4.1451337933540344e-01" nType="-99"/>
          <Node pos="r" depth="2" NCoef="0" IVar="-1" Cut="0.0000000000000000e+00" cType="1" res="3.3987073693424463e-03" rms="4.4376888871192932e-01" purity="6.8118882179260254e-01" nType="-99"/>
        </Node>
      </Node>
    </BinaryTree>
    <BinaryTree type="DecisionTree" boostWeight="1.0000000000000000e+00" itree="226">
      <Node pos="s" depth="0" NCoef="0" IVar="4" Cut="1.0971299558877945e-01" cType="1" res="-2.0212151575833559e-03" rms="4.5930719375610352e-01" purity="4.9605062603950500e-01" nType="0">
        <Node pos="l" depth="1" NCoef="0" IVar="-1" Cut="0.0000000000000000e+00" cType="1" res="-3.9617810398340225e-03" rms="4.4539415836334229e-01" purity="3.5971319675445557e-01" nType="-99"/>
        <Node pos="r" depth="1" NCoef="0" IVar="6" Cut="1.9480214118957520e+00" cType="1" res="1.2480794684961438e-03" rms="4.5980316400527954e-01" purity="5.0328546762466431e-01" nType="0">
          <Node pos="l" depth="2" NCoef="0" IVar="-1" Cut="0.0000000000000000e+00" cType="1" res="1.5536155551671982e-03" rms="4.5520651340484619e-01" purity="5.8676463365554810e-01" nType="-99"/>
          <Node pos="r" depth="2" NCoef="0" IVar="-1" Cut="0.0000000000000000e+00" cType="1" res="-3.9724772796034813e-04" rms="4.6095642447471619e-01" purity="4.7712841629981995e-01" nType="-99"/>
        </Node>
      </Node>
    </BinaryTree>
    <BinaryTree type="DecisionTree" boostWeight="1.0000000000000000e+00" itree="227">
      <Node pos="s" depth="0" NCoef="0" IVar="8" Cut="8.4890770912170410e-01" cType="1" res="6.1789178289473057e-03" rms="4.5665961503982544e-01" purity="5.0494420528411865e-01" nType="0">
        <Node pos="l" depth="1" NCoef="0" IVar="6" Cut="1.8990629911422729e+00" cType="1" res="3.0079035088419914e-02" rms="4.5634564757347107e-01" purity="5.6365948915481567e-01" nType="0">
          <Node pos="l" depth="2" NCoef="0" IVar="-1" Cut="0.0000000000000000e+00" cType="1" res="3.9518917910754681e-03" rms="4.4178819656372070e-01" purity="6.4782547950744629e-01" nType="-99"/>
          <Node pos="r" depth="2" NCoef="0" IVar="-1" Cut="0.0000000000000000e+00" cType="1" res="1.2932807439938188e-03" rms="4.5918020606040955e-01" purity="5.4446166753768921e-01" nType="-99"/>
        </Node>
        <Node pos="r" depth="1" NCoef="0" IVar="9" Cut="4.2027291655540466e-01" cType="1" res="-4.1096648201346397e-03" rms="4.5640951395034790e-01" purity="4.7966828942298889e-01" nType="0">
          <Node pos="l" depth="2" NCoef="0" IVar="-1" Cut="0.0000000000000000e+00" cType="1" res="9.8264100961387157e-04" rms="4.5719990134239197e-01" purity="5.4036074876785278e-01" nType="-99"/>
          <Node pos="r" depth="2" NCoef="0" IVar="-1" Cut="0.0000000000000000e+00" cType="1" res="-9.5792621141299605e-04" rms="4.5555204153060913e-01" purity="4.4540882110595703e-01" nType="-99"/>
        </Node>
      </Node>
    </BinaryTree>
    <BinaryTree type="DecisionTree" boostWeight="1.0000000000000000e+00" itree="228">
      <Node pos="s" depth="0" NCoef="0" IVar="4" Cut="2.3952545225620270e-01" cType="1" res="2.2605473641306162e-03" rms="4.5749136805534363e-01" purity="5.0294452905654907e-01" nType="0">
        <Node pos="l" depth="1" NCoef="0" IVar="8" Cut="1.2346993684768677e+00" cType="1" res="-2.8188215568661690e-02" rms="4.5669770240783691e-01" purity="4.1890609264373779e-01" nType="0">
          <Node pos="l" depth="2" NCoef="0" IVar="-1" Cut="0.0000000000000000e+00" cType="1" res="-6.3183845486491919e-04" rms="4.6532621979713440e-01" purity="4.5695286989212036e-01" nType="-99"/>
          <Node pos="r" depth="2" NCoef="0" IVar="-1" Cut="0.0000000000000000e+00" cType="1" res="-3.9333514869213104e-03" rms="4.3708896636962891e-01" purity="3.4383004903793335e-01" nType="-99"/>
        </Node>
        <Node pos="r" depth="1" NCoef="0" IVar="7" Cut="4.5946598052978516e+01" cType="1" res="1.2112210504710674e-02" rms="4.5731401443481445e-01" purity="5.3013503551483154e-01" nType="0">
          <Node pos="l" depth="2" NCoef="0" IVar="-1" Cut="0.0000000000000000e+00" cType="1" res="-2.5553996674716473e-03" rms="4.4021144509315491e-01" purity="3.3987170457839966e-01" nType="-99"/>
          <Node pos="r" depth="2" NCoef="0" IVar="-1" Cut="0.0000000000000000e+00" cType="1" res="1.1586801847442985e-03" rms="4.5914644002914429e-01" purity="5.5637174844741821e-01" nType="-99"/>
        </Node>
      </Node>
    </BinaryTree>
    <BinaryTree type="DecisionTree" boostWeight="1.0000000000000000e+00" itree="229">
      <Node pos="s" depth="0" NCoef="0" IVar="5" Cut="9.3014848232269287e-01" cType="1" res="2.3354499135166407e-03" rms="4.5644032955169678e-01" purity="5.0543922185897827e-01" nType="0">
        <Node pos="l" depth="1" NCoef="0" IVar="3" Cut="1.1139307171106339e-02" cType="1" res="-3.0516549944877625e-02" rms="4.4181507825851440e-01" purity="3.1847986578941345e-01" nType="0">
          <Node pos="l" depth="2" NCoef="0" IVar="-1" Cut="0.0000000000000000e+00" cType="1" res="-4.2470707558095455e-04" rms="4.6394449472427368e-01" purity="3.6693772673606873e-01" nType="-99"/>
          <Node pos="r" depth="2" NCoef="0" IVar="-1" Cut="0.0000000000000000e+00" cType="1" res="-2.9632903169840574e-03" rms="4.2497959733009338e-01" purity="2.8474602103233337e-01" nType="-99"/>
        </Node>
        <Node pos="r" depth="1" NCoef="0" IVar="6" Cut="2.1721525192260742e+00" cType="1" res="1.0901201516389847e-02" rms="4.5979163050651550e-01" purity="5.5418652296066284e-01" nType="0">
          <Node pos="l" depth="2" NCoef="0" IVar="-1" Cut="0.0000000000000000e+00" cType="1" res="1.6815273556858301e-03" rms="4.5352512598037720e-01" purity="6.2636673450469971e-01" nType="-99"/>
          <Node pos="r" depth="2" NCoef="0" IVar="-1" Cut="0.0000000000000000e+00" cType="1" res="-2.0904240955132991e-04" rms="4.6461269259452820e-01" purity="4.9232959747314453e-01" nType="-99"/>
        </Node>
      </Node>
    </BinaryTree>
    <BinaryTree type="DecisionTree" boostWeight="1.0000000000000000e+00" itree="230">
      <Node pos="s" depth="0" NCoef="0" IVar="6" Cut="2.8347408771514893e+00" cType="1" res="-5.3845974616706371e-03" rms="4.5475664734840393e-01" purity="4.9485337734222412e-01" nType="0">
        <Node pos="l" depth="1" NCoef="0" IVar="2" Cut="1.0255754089355469e+02" cType="1" res="-1.0099061764776707e-03" rms="4.5787128806114197e-01" purity="5.1444971561431885e-01" nType="0">
          <Node pos="l" depth="2" NCoef="0" IVar="-1" Cut="0.0000000000000000e+00" cType="1" res="-9.8103797063231468e-04" rms="4.5928138494491577e-01" purity="4.7795590758323669e-01" nType="-99"/>
          <Node pos="r" depth="2" NCoef="0" IVar="-1" Cut="0.0000000000000000e+00" cType="1" res="1.1097165988758206e-03" rms="4.5534980297088623e-01" purity="5.6035304069519043e-01" nType="-99"/>
        </Node>
        <Node pos="r" depth="1" NCoef="0" IVar="-1" Cut="0.0000000000000000e+00" cType="1" res="-4.6636867336928844e-03" rms="4.0374812483787537e-01" purity="2.2063770890235901e-01" nType="-99"/>
      </Node>
    </BinaryTree>
    <BinaryTree type="DecisionTree" boostWeight="1.0000000000000000e+00" itree="231">
      <Node pos="s" depth="0" NCoef="0" IVar="6" Cut="2.8464171886444092e+00" cType="1" res="-7.9168146476149559e-03" rms="4.5608961582183838e-01" purity="4.9116191267967224e-01" nType="0">
        <Node pos="l" depth="1" NCoef="0" IVar="5" Cut="9.8360681533813477e-01" cType="1" res="-3.6359471268951893e-03" rms="4.5964607596397400e-01" purity="5.0945299863815308e-01" nType="0">
          <Node pos="l" depth="2" NCoef="0" IVar="-1" Cut="0.0000000000000000e+00" cType="1" res="-5.7584734167903662e-04" rms="4.6597713232040405e-01" purity="4.7474640607833862e-01" nType="-99"/>
          <Node pos="r" depth="2" NCoef="0" IVar="-1" Cut="0.0000000000000000e+00" cType="1" res="2.9993823263794184e-03" rms="4.0553906559944153e-01" purity="7.7208554744720459e-01" nType="-99"/>
        </Node>
        <Node pos="r" depth="1" NCoef="0" IVar="-1" Cut="0.0000000000000000e+00" cType="1" res="-5.0541791133582592e-03" rms="3.9335608482360840e-01" purity="2.1660766005516052e-01" nType="-99"/>
      </Node>
    </BinaryTree>
    <BinaryTree type="DecisionTree" boostWeight="1.0000000000000000e+00" itree="232">
      <Node pos="s" depth="0" NCoef="0" IVar="2" Cut="1.0732949829101562e+02" cType="1" res="2.6207389310002327e-03" rms="4.5779216289520264e-01" purity="5.0353854894638062e-01" nType="0">
        <Node pos="l" depth="1" NCoef="0" IVar="4" Cut="5.6786054372787476e-01" cType="1" res="-1.3695104047656059e-02" rms="4.6336206793785095e-01" purity="4.7788760066032410e-01" nType="0">
          <Node pos="l" depth="2" NCoef="0" IVar="-1" Cut="0.0000000000000000e+00" cType="1" res="-1.3701068237423897e-03" rms="4.6381655335426331e-01" purity="4.5783460140228271e-01" nType="-99"/>
          <Node pos="r" depth="2" NCoef="0" IVar="-1" Cut="0.0000000000000000e+00" cType="1" res="9.6326391212642193e-04" rms="4.6058064699172974e-01" purity="5.4385846853256226e-01" nType="-99"/>
        </Node>
        <Node pos="r" depth="1" NCoef="0" IVar="5" Cut="9.3832594156265259e-01" cType="1" res="2.5086464360356331e-02" rms="4.4904097914695740e-01" purity="5.3885811567306519e-01" nType="0">
          <Node pos="l" depth="2" NCoef="0" IVar="-1" Cut="0.0000000000000000e+00" cType="1" res="-6.7106419010087848e-04" rms="4.5504730939865112e-01" purity="3.7140926718711853e-01" nType="-99"/>
          <Node pos="r" depth="2" NCoef="0" IVar="-1" Cut="0.0000000000000000e+00" cType="1" res="2.4460272397845984e-03" rms="4.4575199484825134e-01" purity="6.0662174224853516e-01" nType="-99"/>
        </Node>
      </Node>
    </BinaryTree>
    <BinaryTree type="DecisionTree" boostWeight="1.0000000000000000e+00" itree="233">
      <Node pos="s" depth="0" NCoef="0" IVar="4" Cut="1.1663525551557541e-01" cType="1" res="1.0099028004333377e-03" rms="4.5626148581504822e-01" purity="5.0044810771942139e-01" nType="0">
        <Node pos="l" depth="1" NCoef="0" IVar="-1" Cut="0.0000000000000000e+00" cType="1" res="-5.1777074113488197e-03" rms="4.4377043843269348e-01" purity="3.4187954664230347e-01" nType="-99"/>
        <Node pos="r" depth="1" NCoef="0" IVar="2" Cut="1.0706526184082031e+02" cType="1" res="6.0814339667558670e-03" rms="4.5651334524154663e-01" purity="5.1004654169082642e-01" nType="0">
          <Node pos="l" depth="2" NCoef="0" IVar="-1" Cut="0.0000000000000000e+00" cType="1" res="-4.9781415145844221e-04" rms="4.5947772264480591e-01" purity="4.8266917467117310e-01" nType="-99"/>
          <Node pos="r" depth="2" NCoef="0" IVar="-1" Cut="0.0000000000000000e+00" cType="1" res="1.6217682277783751e-03" rms="4.5148155093193054e-01" purity="5.4892593622207642e-01" nType="-99"/>
        </Node>
      </Node>
    </BinaryTree>
    <BinaryTree type="DecisionTree" boostWeight="1.0000000000000000e+00" itree="234">
      <Node pos="s" depth="0" NCoef="0" IVar="1" Cut="9.5251678466796875e+02" cType="1" res="-2.6021341909654438e-04" rms="4.5582267642021179e-01" purity="5.0152385234832764e-01" nType="0">
        <Node pos="l" depth="1" NCoef="0" IVar="5" Cut="9.2688393592834473e-01" cType="1" res="-4.0928423404693604e-03" rms="4.5637929439544678e-01" purity="4.9174129962921143e-01" nType="0">
          <Node pos="l" depth="2" NCoef="0" IVar="-1" Cut="0.0000000000000000e+00" cType="1" res="-2.4523797910660505e-03" rms="4.3332937359809875e-01" purity="2.9937160015106201e-01" nType="-99"/>
          <Node pos="r" depth="2" NCoef="0" IVar="-1" Cut="0.0000000000000000e+00" cType="1" res="2.1371178445406258e-04" rms="4.6080106496810913e-01" purity="5.3289294242858887e-01" nType="-99"/>
        </Node>
        <Node pos="r" depth="1" NCoef="0" IVar="-1" Cut="0.0000000000000000e+00" cType="1" res="3.9756167680025101e-03" rms="4.4103410840034485e-01" purity="6.6913151741027832e-01" nType="-99"/>
      </Node>
    </BinaryTree>
    <BinaryTree type="DecisionTree" boostWeight="1.0000000000000000e+00" itree="235">
      <Node pos="s" depth="0" NCoef="0" IVar="6" Cut="1.5101158618927002e+00" cType="1" res="-5.0637298263609409e-03" rms="4.5636403560638428e-01" purity="4.9545633792877197e-01" nType="0">
        <Node pos="l" depth="1" NCoef="0" IVar="-1" Cut="0.0000000000000000e+00" cType="1" res="3.0335038900375366e-03" rms="4.4373816251754761e-01" purity="6.2729495763778687e-01" nType="-99"/>
        <Node pos="r" depth="1" NCoef="0" IVar="2" Cut="1.0610460662841797e+02" cType="1" res="-9.6743116155266762e-03" rms="4.5707118511199951e-01" purity="4.8469519615173340e-01" nType="0">
          <Node pos="l" depth="2" NCoef="0" IVar="-1" Cut="0.0000000000000000e+00" cType="1" res="-1.6207881271839142e-03" rms="4.5757663249969482e-01" purity="4.5260637998580933e-01" nType="-99"/>
          <Node pos="r" depth="2" NCoef="0" IVar="-1" Cut="0.0000000000000000e+00" cType="1" res="6.6412717569619417e-04" rms="4.5560961961746216e-01" purity="5.2295744419097900e-01" nType="-99"/>
        </Node>
      </Node>
    </BinaryTree>
    <BinaryTree type="DecisionTree" boostWeight="1.0000000000000000e+00" itree="236">
      <Node pos="s" depth="0" NCoef="0" IVar="4" Cut="2.8495261073112488e-01" cType="1" res="6.5323960734531283e-04" rms="4.5609053969383240e-01" purity="5.0153267383575439e-01" nType="0">
        <Node pos="l" depth="1" NCoef="0" IVar="2" Cut="8.4396469116210938e+01" cType="1" res="-2.3847285658121109e-02" rms="4.5667958259582520e-01" purity="4.2641651630401611e-01" nType="0">
          <Node pos="l" depth="2" NCoef="0" IVar="-1" Cut="0.0000000000000000e+00" cType="1" res="-3.9053016807883978e-03" rms="4.5157673954963684e-01" purity="3.7663936614990234e-01" nType="-99"/>
          <Node pos="r" depth="2" NCoef="0" IVar="-1" Cut="0.0000000000000000e+00" cType="1" res="-1.1041824473068118e-04" rms="4.5792064070701599e-01" purity="4.5343741774559021e-01" nType="-99"/>
        </Node>
        <Node pos="r" depth="1" NCoef="0" IVar="5" Cut="9.2681688070297241e-01" cType="1" res="1.1915588751435280e-02" rms="4.5537751913070679e-01" purity="5.3606188297271729e-01" nType="0">
          <Node pos="l" depth="2" NCoef="0" IVar="-1" Cut="0.0000000000000000e+00" cType="1" res="-1.6601949464529753e-03" rms="4.4716295599937439e-01" purity="3.3407926559448242e-01" nType="-99"/>
          <Node pos="r" depth="2" NCoef="0" IVar="-1" Cut="0.0000000000000000e+00" cType="1" res="1.2104511260986328e-03" rms="4.5662122964859009e-01" purity="5.7757914066314697e-01" nType="-99"/>
        </Node>
      </Node>
    </BinaryTree>
    <BinaryTree type="DecisionTree" boostWeight="1.0000000000000000e+00" itree="237">
      <Node pos="s" depth="0" NCoef="0" IVar="2" Cut="1.0560594177246094e+02" cType="1" res="2.6781458873301744e-03" rms="4.5835748314857483e-01" purity="5.0113815069198608e-01" nType="0">
        <Node pos="l" depth="1" NCoef="0" IVar="6" Cut="1.8413877487182617e+00" cType="1" res="-1.1074749752879143e-02" rms="4.6173828840255737e-01" purity="4.7394892573356628e-01" nType="0">
          <Node pos="l" depth="2" NCoef="0" IVar="-1" Cut="0.0000000000000000e+00" cType="1" res="1.3675740920007229e-03" rms="4.6492192149162292e-01" purity="5.6870281696319580e-01" nType="-99"/>
          <Node pos="r" depth="2" NCoef="0" IVar="-1" Cut="0.0000000000000000e+00" cType="1" res="-1.4462991384789348e-03" rms="4.5988565683364868e-01" purity="4.3869769573211670e-01" nType="-99"/>
        </Node>
        <Node pos="r" depth="1" NCoef="0" IVar="1" Cut="5.6172167968750000e+02" cType="1" res="2.0082501694560051e-02" rms="4.5344543457031250e-01" purity="5.3554630279541016e-01" nType="0">
          <Node pos="l" depth="2" NCoef="0" IVar="-1" Cut="0.0000000000000000e+00" cType="1" res="-1.6987416893243790e-04" rms="4.5651122927665710e-01" purity="4.3251413106918335e-01" nType="-99"/>
          <Node pos="r" depth="2" NCoef="0" IVar="-1" Cut="0.0000000000000000e+00" cType="1" res="2.2219589445739985e-03" rms="4.5042520761489868e-01" purity="6.1163443326950073e-01" nType="-99"/>
        </Node>
      </Node>
    </BinaryTree>
    <BinaryTree type="DecisionTree" boostWeight="1.0000000000000000e+00" itree="238">
      <Node pos="s" depth="0" NCoef="0" IVar="4" Cut="1.3289274275302887e-01" cType="1" res="-5.9270305791869760e-04" rms="4.5853200554847717e-01" purity="4.9799144268035889e-01" nType="0">
        <Node pos="l" depth="1" NCoef="0" IVar="-1" Cut="0.0000000000000000e+00" cType="1" res="-3.6217451561242342e-03" rms="4.5010653138160706e-01" purity="3.6206257343292236e-01" nType="-99"/>
        <Node pos="r" depth="1" NCoef="0" IVar="8" Cut="7.8424549102783203e-01" cType="1" res="4.3131667189300060e-03" rms="4.5889195799827576e-01" purity="5.0938159227371216e-01" nType="0">
          <Node pos="l" depth="2" NCoef="0" IVar="-1" Cut="0.0000000000000000e+00" cType="1" res="1.8272835295647383e-03" rms="4.5398089289665222e-01" purity="5.7489222288131714e-01" nType="-99"/>
          <Node pos="r" depth="2" NCoef="0" IVar="-1" Cut="0.0000000000000000e+00" cType="1" res="-2.4632480926811695e-04" rms="4.6013101935386658e-01" purity="4.8849910497665405e-01" nType="-99"/>
        </Node>
      </Node>
    </BinaryTree>
    <BinaryTree type="DecisionTree" boostWeight="1.0000000000000000e+00" itree="239">
      <Node pos="s" depth="0" NCoef="0" IVar="1" Cut="8.4580303955078125e+02" cType="1" res="-4.6234591864049435e-03" rms="4.5749968290328979e-01" purity="4.9685618281364441e-01" nType="0">
        <Node pos="l" depth="1" NCoef="0" IVar="8" Cut="1.1730586290359497e+00" cType="1" res="-9.9557209759950638e-03" rms="4.5799490809440613e-01" purity="4.8085623979568481e-01" nType="0">
          <Node pos="l" depth="2" NCoef="0" IVar="-1" Cut="0.0000000000000000e+00" cType="1" res="1.1783581430790946e-04" rms="4.5817250013351440e-01" purity="5.1478427648544312e-01" nType="-99"/>
          <Node pos="r" depth="2" NCoef="0" IVar="-1" Cut="0.0000000000000000e+00" cType="1" res="-1.5818228712305427e-03" rms="4.5726191997528076e-01" purity="4.3504363298416138e-01" nType="-99"/>
        </Node>
        <Node pos="r" depth="1" NCoef="0" IVar="-1" Cut="0.0000000000000000e+00" cType="1" res="2.8400900773704052e-03" rms="4.4948697090148926e-01" purity="6.5079355239868164e-01" nType="-99"/>
      </Node>
    </BinaryTree>
    <BinaryTree type="DecisionTree" boostWeight="1.0000000000000000e+00" itree="240">
      <Node pos="s" depth="0" NCoef="0" IVar="3" Cut="-5.1457770168781281e-02" cType="1" res="-2.6116222143173218e-03" rms="4.5810556411743164e-01" purity="4.9847802519798279e-01" nType="0">
        <Node pos="l" depth="1" NCoef="0" IVar="4" Cut="6.1921119689941406e-01" cType="1" res="4.6362921595573425e-02" rms="4.5374000072479248e-01" purity="5.9438788890838623e-01" nType="0">
          <Node pos="l" depth="2" NCoef="0" IVar="-1" Cut="0.0000000000000000e+00" cType="1" res="1.3479923363775015e-03" rms="4.5545250177383423e-01" purity="5.6647378206253052e-01" nType="-99"/>
          <Node pos="r" depth="2" NCoef="0" IVar="-1" Cut="0.0000000000000000e+00" cType="1" res="4.6936133876442909e-03" rms="4.4961118698120117e-01" purity="6.3080346584320068e-01" nType="-99"/>
        </Node>
        <Node pos="r" depth="1" NCoef="0" IVar="1" Cut="9.1999981689453125e+02" cType="1" res="-9.3946764245629311e-03" rms="4.5829448103904724e-01" purity="4.8519438505172729e-01" nType="0">
          <Node pos="l" depth="2" NCoef="0" IVar="-1" Cut="0.0000000000000000e+00" cType="1" res="-8.2626607036218047e-04" rms="4.5894965529441833e-01" purity="4.7327804565429688e-01" nType="-99"/>
          <Node pos="r" depth="2" NCoef="0" IVar="-1" Cut="0.0000000000000000e+00" cType="1" res="2.9532792977988720e-03" rms="4.4493773579597473e-01" purity="6.5116631984710693e-01" nType="-99"/>
        </Node>
      </Node>
    </BinaryTree>
    <BinaryTree type="DecisionTree" boostWeight="1.0000000000000000e+00" itree="241">
      <Node pos="s" depth="0" NCoef="0" IVar="5" Cut="9.8749297857284546e-01" cType="1" res="2.8796198312193155e-03" rms="4.5586037635803223e-01" purity="5.0183653831481934e-01" nType="0">
        <Node pos="l" depth="1" NCoef="0" IVar="1" Cut="8.5417425537109375e+02" cType="1" res="-2.5228052400052547e-03" rms="4.6079507470130920e-01" purity="4.7571820020675659e-01" nType="0">
          <Node pos="l" depth="2" NCoef="0" IVar="-1" Cut="0.0000000000000000e+00" cType="1" res="-4.5127060730010271e-04" rms="4.6034473180770874e-01" purity="4.5995596051216125e-01" nType="-99"/>
          <Node pos="r" depth="2" NCoef="0" IVar="-1" Cut="0.0000000000000000e+00" cType="1" res="2.7160972822457552e-03" rms="4.6232518553733826e-01" purity="6.2701731920242310e-01" nType="-99"/>
        </Node>
        <Node pos="r" depth="1" NCoef="0" IVar="-1" Cut="0.0000000000000000e+00" cType="1" res="4.3039009906351566e-03" rms="3.9255869388580322e-01" purity="7.8962272405624390e-01" nType="-99"/>
      </Node>
    </BinaryTree>
    <BinaryTree type="DecisionTree" boostWeight="1.0000000000000000e+00" itree="242">
      <Node pos="s" depth="0" NCoef="0" IVar="5" Cut="9.8364990949630737e-01" cType="1" res="-2.7652075514197350e-03" rms="4.5339041948318481e-01" purity="4.9685221910476685e-01" nType="0">
        <Node pos="l" depth="1" NCoef="0" IVar="4" Cut="2.8870940208435059e-01" cType="1" res="-8.9411865919828415e-03" rms="4.5917317271232605e-01" purity="4.6082156896591187e-01" nType="0">
          <Node pos="l" depth="2" NCoef="0" IVar="-1" Cut="0.0000000000000000e+00" cType="1" res="-2.0971256308257580e-03" rms="4.5110625028610229e-01" purity="3.8782054185867310e-01" nType="-99"/>
          <Node pos="r" depth="2" NCoef="0" IVar="-1" Cut="0.0000000000000000e+00" cType="1" res="2.3501434770878404e-04" rms="4.6264183521270752e-01" purity="4.9757093191146851e-01" nType="-99"/>
        </Node>
        <Node pos="r" depth="1" NCoef="0" IVar="9" Cut="5.4071784019470215e-01" cType="1" res="4.3325878679752350e-02" rms="4.0468600392341614e-01" purity="7.6574766635894775e-01" nType="0">
          <Node pos="l" depth="2" NCoef="0" IVar="-1" Cut="0.0000000000000000e+00" cType="1" res="5.0467555411159992e-03" rms="3.7276270985603333e-01" purity="8.1687051057815552e-01" nType="-99"/>
          <Node pos="r" depth="2" NCoef="0" IVar="-1" Cut="0.0000000000000000e+00" cType="1" res="5.3814699640497565e-04" rms="4.4089475274085999e-01" purity="6.9821089506149292e-01" nType="-99"/>
        </Node>
      </Node>
    </BinaryTree>
    <BinaryTree type="DecisionTree" boostWeight="1.0000000000000000e+00" itree="243">
      <Node pos="s" depth="0" NCoef="0" IVar="6" Cut="2.7244384288787842e+00" cType="1" res="-2.5636074133217335e-03" rms="4.5466864109039307e-01" purity="4.9807450175285339e-01" nType="0">
        <Node pos="l" depth="1" NCoef="0" IVar="5" Cut="9.2322748899459839e-01" cType="1" res="2.6659723371267319e-03" rms="4.5839035511016846e-01" purity="5.2440840005874634e-01" nType="0">
          <Node pos="l" depth="2" NCoef="0" IVar="-1" Cut="0.0000000000000000e+00" cType="1" res="-2.1781143732368946e-03" rms="4.4536429643630981e-01" purity="3.2516229152679443e-01" nType="-99"/>
          <Node pos="r" depth="2" NCoef="0" IVar="-1" Cut="0.0000000000000000e+00" cType="1" res="5.6948052952066064e-04" rms="4.6028175950050354e-01" purity="5.5917853116989136e-01" nType="-99"/>
        </Node>
        <Node pos="r" depth="1" NCoef="0" IVar="-1" Cut="0.0000000000000000e+00" cType="1" res="-3.6613983102142811e-03" rms="4.1384875774383545e-01" purity="2.4495147168636322e-01" nType="-99"/>
      </Node>
    </BinaryTree>
    <BinaryTree type="DecisionTree" boostWeight="1.0000000000000000e+00" itree="244">
      <Node pos="s" depth="0" NCoef="0" IVar="3" Cut="-7.0481151342391968e-02" cType="1" res="-2.5175141636282206e-03" rms="4.5750978589057922e-01" purity="4.9686700105667114e-01" nType="0">
        <Node pos="l" depth="1" NCoef="0" IVar="-1" Cut="0.0000000000000000e+00" cType="1" res="4.0958267636597157e-03" rms="4.5405569672584534e-01" purity="6.1347085237503052e-01" nType="-99"/>
        <Node pos="r" depth="1" NCoef="0" IVar="9" Cut="1.0423622131347656e+00" cType="1" res="-6.6732047125697136e-03" rms="4.5737150311470032e-01" purity="4.9002039432525635e-01" nType="0">
          <Node pos="l" depth="2" NCoef="0" IVar="-1" Cut="0.0000000000000000e+00" cType="1" res="-1.6392667021136731e-04" rms="4.5817768573760986e-01" purity="5.0120896100997925e-01" nType="-99"/>
          <Node pos="r" depth="2" NCoef="0" IVar="-1" Cut="0.0000000000000000e+00" cType="1" res="-4.0105148218572140e-03" rms="4.4160765409469604e-01" purity="3.2811069488525391e-01" nType="-99"/>
        </Node>
      </Node>
    </BinaryTree>
    <BinaryTree type="DecisionTree" boostWeight="1.0000000000000000e+00" itree="245">
      <Node pos="s" depth="0" NCoef="0" IVar="0" Cut="5.0689415931701660e+00" cType="1" res="-3.8439705967903137e-03" rms="4.5517861843109131e-01" purity="4.9567466974258423e-01" nType="0">
        <Node pos="l" depth="1" NCoef="0" IVar="1" Cut="3.8398358154296875e+02" cType="1" res="-9.1951275244355202e-03" rms="4.6122607588768005e-01" purity="4.6661102771759033e-01" nType="0">
          <Node pos="l" depth="2" NCoef="0" IVar="-1" Cut="0.0000000000000000e+00" cType="1" res="-3.3955127000808716e-03" rms="4.2556518316268921e-01" purity="2.7754113078117371e-01" nType="-99"/>
          <Node pos="r" depth="2" NCoef="0" IVar="-1" Cut="0.0000000000000000e+00" cType="1" res="-2.3169232008513063e-04" rms="4.6524444222450256e-01" purity="4.9035957455635071e-01" nType="-99"/>
        </Node>
        <Node pos="r" depth="1" NCoef="0" IVar="-1" Cut="0.0000000000000000e+00" cType="1" res="3.8206777535378933e-03" rms="3.8030669093132019e-01" purity="8.0510902404785156e-01" nType="-99"/>
      </Node>
    </BinaryTree>
    <BinaryTree type="DecisionTree" boostWeight="1.0000000000000000e+00" itree="246">
      <Node pos="s" depth="0" NCoef="0" IVar="4" Cut="4.8489508032798767e-01" cType="1" res="4.4033303856849670e-03" rms="4.5653620362281799e-01" purity="5.0235825777053833e-01" nType="0">
        <Node pos="l" depth="1" NCoef="0" IVar="5" Cut="9.8356789350509644e-01" cType="1" res="-7.6558543369174004e-03" rms="4.5540493726730347e-01" purity="4.7160357236862183e-01" nType="0">
          <Node pos="l" depth="2" NCoef="0" IVar="-1" Cut="0.0000000000000000e+00" cType="1" res="-8.6536322487518191e-04" rms="4.6016243100166321e-01" purity="4.3680396676063538e-01" nType="-99"/>
          <Node pos="r" depth="2" NCoef="0" IVar="-1" Cut="0.0000000000000000e+00" cType="1" res="3.2741983886808157e-03" rms="4.1021847724914551e-01" purity="7.5632721185684204e-01" nType="-99"/>
        </Node>
        <Node pos="r" depth="1" NCoef="0" IVar="3" Cut="-6.3640601933002472e-02" cType="1" res="2.8755044564604759e-02" rms="4.5784488320350647e-01" purity="5.6446278095245361e-01" nType="0">
          <Node pos="l" depth="2" NCoef="0" IVar="-1" Cut="0.0000000000000000e+00" cType="1" res="4.6270866878330708e-03" rms="4.4379439949989319e-01" purity="6.3329613208770752e-01" nType="-99"/>
          <Node pos="r" depth="2" NCoef="0" IVar="-1" Cut="0.0000000000000000e+00" cType="1" res="1.1214871192350984e-03" rms="4.6012085676193237e-01" purity="5.4987263679504395e-01" nType="-99"/>
        </Node>
      </Node>
    </BinaryTree>
    <BinaryTree type="DecisionTree" boostWeight="1.0000000000000000e+00" itree="247">
      <Node pos="s" depth="0" NCoef="0" IVar="6" Cut="1.8103828430175781e+00" cType="1" res="-3.7836475712538231e-06" rms="4.5802548527717590e-01" purity="5.0052970647811890e-01" nType="0">
        <Node pos="l" depth="1" NCoef="0" IVar="7" Cut="6.4531524658203125e+01" cType="1" res="3.5471662878990173e-02" rms="4.5013248920440674e-01" purity="5.9873813390731812e-01" nType="0">
          <Node pos="l" depth="2" NCoef="0" IVar="-1" Cut="0.0000000000000000e+00" cType="1" res="1.7746635421644896e-04" rms="4.6128222346305847e-01" purity="4.9497970938682556e-01" nType="-99"/>
          <Node pos="r" depth="2" NCoef="0" IVar="-1" Cut="0.0000000000000000e+00" cType="1" res="3.8147061131894588e-03" rms="4.3848243355751038e-01" purity="6.8739211559295654e-01" nType="-99"/>
        </Node>
        <Node pos="r" depth="1" NCoef="0" IVar="8" Cut="1.0390599966049194e+00" cType="1" res="-7.2911120951175690e-03" rms="4.5929095149040222e-01" purity="4.8035591840744019e-01" nType="0">
          <Node pos="l" depth="2" NCoef="0" IVar="-1" Cut="0.0000000000000000e+00" cType="1" res="5.6676246458664536e-04" rms="4.6061357855796814e-01" purity="5.2739518880844116e-01" nType="-99"/>
          <Node pos="r" depth="2" NCoef="0" IVar="-1" Cut="0.0000000000000000e+00" cType="1" res="-1.4558277325704694e-03" rms="4.5738285779953003e-01" purity="4.3383201956748962e-01" nType="-99"/>
        </Node>
      </Node>
    </BinaryTree>
    <BinaryTree type="DecisionTree" boostWeight="1.0000000000000000e+00" itree="248">
      <Node pos="s" depth="0" NCoef="0" IVar="4" Cut="1.5725702047348022e-01" cType="1" res="2.0306606311351061e-03" rms="4.5701503753662109e-01" purity="5.0255757570266724e-01" nType="0">
        <Node pos="l" depth="1" NCoef="0" IVar="4" Cut="1.1257636547088623e-01" cType="1" res="-3.9998266845941544e-02" rms="4.4646415114402771e-01" purity="3.8491836190223694e-01" nType="0">
          <Node pos="l" depth="2" NCoef="0" IVar="-1" Cut="0.0000000000000000e+00" cType="1" res="-4.4933720491826534e-03" rms="4.4862961769104004e-01" purity="3.3737140893936157e-01" nType="-99"/>
          <Node pos="r" depth="2" NCoef="0" IVar="-1" Cut="0.0000000000000000e+00" cType="1" res="-6.8510067649185658e-04" rms="4.4255697727203369e-01" purity="4.2565420269966125e-01" nType="-99"/>
        </Node>
        <Node pos="r" depth="1" NCoef="0" IVar="6" Cut="1.4909123182296753e+00" cType="1" res="7.2052492760121822e-03" rms="4.5803070068359375e-01" purity="5.1704126596450806e-01" nType="0">
          <Node pos="l" depth="2" NCoef="0" IVar="-1" Cut="0.0000000000000000e+00" cType="1" res="3.6985725164413452e-03" rms="4.4501861929893494e-01" purity="6.5217983722686768e-01" nType="-99"/>
          <Node pos="r" depth="2" NCoef="0" IVar="-1" Cut="0.0000000000000000e+00" cType="1" res="1.8493855895940214e-04" rms="4.5874062180519104e-01" purity="5.0675201416015625e-01" nType="-99"/>
        </Node>
      </Node>
    </BinaryTree>
    <BinaryTree type="DecisionTree" boostWeight="1.0000000000000000e+00" itree="249">
      <Node pos="s" depth="0" NCoef="0" IVar="6" Cut="1.6435219049453735e+00" cType="1" res="-7.8325881622731686e-04" rms="4.5622038841247559e-01" purity="4.9678841233253479e-01" nType="0">
        <Node pos="l" depth="1" NCoef="0" IVar="0" Cut="2.9683225154876709e+00" cType="1" res="3.9323262870311737e-02" rms="4.4902619719505310e-01" purity="6.1683899164199829e-01" nType="0">
          <Node pos="l" depth="2" NCoef="0" IVar="-1" Cut="0.0000000000000000e+00" cType="1" res="3.4247888252139091e-03" rms="4.6790713071823120e-01" purity="5.2210271358489990e-01" nType="-99"/>
          <Node pos="r" depth="2" NCoef="0" IVar="-1" Cut="0.0000000000000000e+00" cType="1" res="1.0498398914933205e-03" rms="4.2610856890678406e-01" purity="7.2112399339675903e-01" nType="-99"/>
        </Node>
        <Node pos="r" depth="1" NCoef="0" IVar="2" Cut="1.0599127960205078e+02" cType="1" res="-6.0475342907011509e-03" rms="4.5689496397972107e-01" purity="4.8103088140487671e-01" nType="0">
          <Node pos="l" depth="2" NCoef="0" IVar="-1" Cut="0.0000000000000000e+00" cType="1" res="-1.3358721043914557e-03" rms="4.5766091346740723e-01" purity="4.4707310199737549e-01" nType="-99"/>
          <Node pos="r" depth="2" NCoef="0" IVar="-1" Cut="0.0000000000000000e+00" cType="1" res="7.0679234340786934e-04" rms="4.5541098713874817e-01" purity="5.1803791522979736e-01" nType="-99"/>
        </Node>
      </Node>
    </BinaryTree>
    <BinaryTree type="DecisionTree" boostWeight="1.0000000000000000e+00" itree="250">
      <Node pos="s" depth="0" NCoef="0" IVar="4" Cut="1.1443493515253067e-01" cType="1" res="-5.8205570094287395e-03" rms="4.5730823278427124e-01" purity="4.9553796648979187e-01" nType="0">
        <Node pos="l" depth="1" NCoef="0" IVar="-1" Cut="0.0000000000000000e+00" cType="1" res="-4.3695210479199886e-03" rms="4.3614327907562256e-01" purity="3.4394192695617676e-01" nType="-99"/>
        <Node pos="r" depth="1" NCoef="0" IVar="2" Cut="1.0479605865478516e+02" cType="1" res="-2.0594359375536442e-03" rms="4.5822712779045105e-01" purity="5.0434744358062744e-01" nType="0">
          <Node pos="l" depth="2" NCoef="0" IVar="-1" Cut="0.0000000000000000e+00" cType="1" res="-9.0111285680904984e-04" rms="4.6034276485443115e-01" purity="4.7621533274650574e-01" nType="-99"/>
          <Node pos="r" depth="2" NCoef="0" IVar="-1" Cut="0.0000000000000000e+00" cType="1" res="8.6453463882207870e-04" rms="4.5504468679428101e-01" purity="5.3956782817840576e-01" nType="-99"/>
        </Node>
      </Node>
    </BinaryTree>
    <BinaryTree type="DecisionTree" boostWeight="1.0000000000000000e+00" itree="251">
      <Node pos="s" depth="0" NCoef="0" IVar="1" Cut="3.9073977661132812e+02" cType="1" res="2.9430836439132690e-03" rms="4.5454820990562439e-01" purity="5.0029879808425903e-01" nType="0">
        <Node pos="l" depth="1" NCoef="0" IVar="7" Cut="4.7728908538818359e+01" cType="1" res="-4.2409267276525497e-02" rms="4.2165338993072510e-01" purity="3.0090460181236267e-01" nType="0">
          <Node pos="l" depth="2" NCoef="0" IVar="-1" Cut="0.0000000000000000e+00" cType="1" res="-5.4531153291463852e-03" rms="4.0569394826889038e-01" purity="2.3708605766296387e-01" nType="-99"/>
          <Node pos="r" depth="2" NCoef="0" IVar="-1" Cut="0.0000000000000000e+00" cType="1" res="-1.9593663455452770e-04" rms="4.3480500578880310e-01" purity="3.6977618932723999e-01" nType="-99"/>
        </Node>
        <Node pos="r" depth="1" NCoef="0" IVar="0" Cut="3.8848943710327148e+00" cType="1" res="9.3685202300548553e-03" rms="4.5865553617477417e-01" purity="5.2854859828948975e-01" nType="0">
          <Node pos="l" depth="2" NCoef="0" IVar="-1" Cut="0.0000000000000000e+00" cType="1" res="-5.6518611017963849e-06" rms="4.7172826528549194e-01" purity="4.5380100607872009e-01" nType="-99"/>
          <Node pos="r" depth="2" NCoef="0" IVar="-1" Cut="0.0000000000000000e+00" cType="1" res="2.3222591262310743e-03" rms="4.1875118017196655e-01" purity="7.3786371946334839e-01" nType="-99"/>
        </Node>
      </Node>
    </BinaryTree>
    <BinaryTree type="DecisionTree" boostWeight="1.0000000000000000e+00" itree="252">
      <Node pos="s" depth="0" NCoef="0" IVar="5" Cut="9.3080401420593262e-01" cType="1" res="1.4579554554075003e-03" rms="4.5571714639663696e-01" purity="4.9800404906272888e-01" nType="0">
        <Node pos="l" depth="1" NCoef="0" IVar="8" Cut="1.3855731487274170e+00" cType="1" res="-2.7896367013454437e-02" rms="4.4156315922737122e-01" purity="3.1557190418243408e-01" nType="0">
          <Node pos="l" depth="2" NCoef="0" IVar="-1" Cut="0.0000000000000000e+00" cType="1" res="-6.2885676743462682e-04" rms="4.5437759160995483e-01" purity="3.4619483351707458e-01" nType="-99"/>
          <Node pos="r" depth="2" NCoef="0" IVar="-1" Cut="0.0000000000000000e+00" cType="1" res="-5.5607310496270657e-03" rms="3.9213061332702637e-01" purity="2.1678285300731659e-01" nType="-99"/>
        </Node>
        <Node pos="r" depth="1" NCoef="0" IVar="0" Cut="4.9097929000854492e+00" cType="1" res="9.6193999052047729e-03" rms="4.5924174785614014e-01" purity="5.4872608184814453e-01" nType="0">
          <Node pos="l" depth="2" NCoef="0" IVar="-1" Cut="0.0000000000000000e+00" cType="1" res="2.9252181411720812e-04" rms="4.6685555577278137e-01" purity="5.1432979106903076e-01" nType="-99"/>
          <Node pos="r" depth="2" NCoef="0" IVar="-1" Cut="0.0000000000000000e+00" cType="1" res="2.9536185320466757e-03" rms="4.0147435665130615e-01" purity="7.8549832105636597e-01" nType="-99"/>
        </Node>
      </Node>
    </BinaryTree>
    <BinaryTree type="DecisionTree" boostWeight="1.0000000000000000e+00" itree="253">
      <Node pos="s" depth="0" NCoef="0" IVar="0" Cut="4.3608136177062988e+00" cType="1" res="-4.1722389869391918e-03" rms="4.5592147111892700e-01" purity="4.9504649639129639e-01" nType="0">
        <Node pos="l" depth="1" NCoef="0" IVar="0" Cut="1.4796899557113647e+00" cType="1" res="-1.1763508431613445e-02" rms="4.6339377760887146e-01" purity="4.4161266088485718e-01" nType="0">
          <Node pos="l" depth="2" NCoef="0" IVar="-1" Cut="0.0000000000000000e+00" cType="1" res="-2.6503738481551409e-03" rms="4.2996063828468323e-01" purity="2.7958872914314270e-01" nType="-99"/>
          <Node pos="r" depth="2" NCoef="0" IVar="-1" Cut="0.0000000000000000e+00" cType="1" res="-2.6373876607976854e-04" rms="4.7152537107467651e-01" purity="4.8420521616935730e-01" nType="-99"/>
        </Node>
        <Node pos="r" depth="1" NCoef="0" IVar="9" Cut="6.0377937555313110e-01" cType="1" res="3.1433861702680588e-02" rms="4.1726005077362061e-01" purity="7.4567240476608276e-01" nType="0">
          <Node pos="l" depth="2" NCoef="0" IVar="-1" Cut="0.0000000000000000e+00" cType="1" res="3.0754555482417345e-03" rms="3.9948326349258423e-01" purity="7.8330093622207642e-01" nType="-99"/>
          <Node pos="r" depth="2" NCoef="0" IVar="-1" Cut="0.0000000000000000e+00" cType="1" res="5.6448951363563538e-04" rms="4.4625306129455566e-01" purity="6.7876434326171875e-01" nType="-99"/>
        </Node>
      </Node>
    </BinaryTree>
    <BinaryTree type="DecisionTree" boostWeight="1.0000000000000000e+00" itree="254">
      <Node pos="s" depth="0" NCoef="0" IVar="4" Cut="5.1057690382003784e-01" cType="1" res="2.1348581649363041e-03" rms="4.5695871114730835e-01" purity="5.0132822990417480e-01" nType="0">
        <Node pos="l" depth="1" NCoef="0" IVar="1" Cut="4.2313781738281250e+02" cType="1" res="-7.5009749270975590e-03" rms="4.5768341422080994e-01" purity="4.7345450520515442e-01" nType="0">
          <Node pos="l" depth="2" NCoef="0" IVar="-1" Cut="0.0000000000000000e+00" cType="1" res="-2.9792252462357283e-03" rms="4.2336094379425049e-01" purity="2.9623481631278992e-01" nType="-99"/>
          <Node pos="r" depth="2" NCoef="0" IVar="-1" Cut="0.0000000000000000e+00" cType="1" res="6.5023261413443834e-05" rms="4.6488445997238159e-01" purity="5.1468247175216675e-01" nType="-99"/>
        </Node>
        <Node pos="r" depth="1" NCoef="0" IVar="3" Cut="-4.9476400017738342e-02" cType="1" res="2.4968773126602173e-02" rms="4.5442175865173340e-01" purity="5.6738018989562988e-01" nType="0">
          <Node pos="l" depth="2" NCoef="0" IVar="-1" Cut="0.0000000000000000e+00" cType="1" res="3.6179709713906050e-03" rms="4.4019016623497009e-01" purity="6.1471652984619141e-01" nType="-99"/>
          <Node pos="r" depth="2" NCoef="0" IVar="-1" Cut="0.0000000000000000e+00" cType="1" res="5.7641213061287999e-04" rms="4.5966500043869019e-01" purity="5.4667252302169800e-01" nType="-99"/>
        </Node>
      </Node>
    </BinaryTree>
    <BinaryTree type="DecisionTree" boostWeight="1.0000000000000000e+00" itree="255">
      <Node pos="s" depth="0" NCoef="0" IVar="6" Cut="2.3207275867462158e+00" cType="1" res="2.7085496112704277e-03" rms="4.5548734068870544e-01" purity="5.0140005350112915e-01" nType="0">
        <Node pos="l" depth="1" NCoef="0" IVar="2" Cut="1.1173898315429688e+02" cType="1" res="1.4848299324512482e-02" rms="4.5779809355735779e-01" purity="5.6168788671493530e-01" nType="0">
          <Node pos="l" depth="2" NCoef="0" IVar="-1" Cut="0.0000000000000000e+00" cType="1" res="1.7340081103611737e-04" rms="4.6445617079734802e-01" purity="5.2440446615219116e-01" nType="-99"/>
          <Node pos="r" depth="2" NCoef="0" IVar="-1" Cut="0.0000000000000000e+00" cType="1" res="2.7576303109526634e-03" rms="4.3903690576553345e-01" purity="6.5612787008285522e-01" nType="-99"/>
        </Node>
        <Node pos="r" depth="1" NCoef="0" IVar="3" Cut="-5.2158744074404240e-03" cType="1" res="-1.9901929423213005e-02" rms="4.5028033852577209e-01" purity="3.8911291956901550e-01" nType="0">
          <Node pos="l" depth="2" NCoef="0" IVar="-1" Cut="0.0000000000000000e+00" cType="1" res="1.2585679069161415e-03" rms="4.5796778798103333e-01" purity="4.7682422399520874e-01" nType="-99"/>
          <Node pos="r" depth="2" NCoef="0" IVar="-1" Cut="0.0000000000000000e+00" cType="1" res="-2.2389611694961786e-03" rms="4.4639247655868530e-01" purity="3.5611137747764587e-01" nType="-99"/>
        </Node>
      </Node>
    </BinaryTree>
    <BinaryTree type="DecisionTree" boostWeight="1.0000000000000000e+00" itree="256">
      <Node pos="s" depth="0" NCoef="0" IVar="1" Cut="7.6322460937500000e+02" cType="1" res="-3.7951075937598944e-03" rms="4.5554700493812561e-01" purity="4.9703302979469299e-01" nType="0">
        <Node pos="l" depth="1" NCoef="0" IVar="3" Cut="-5.0281416624784470e-02" cType="1" res="-1.0964924469590187e-02" rms="4.5663785934448242e-01" purity="4.7192487120628357e-01" nType="0">
          <Node pos="l" depth="2" NCoef="0" IVar="-1" Cut="0.0000000000000000e+00" cType="1" res="1.8049598438665271e-03" rms="4.5160472393035889e-01" purity="5.7175445556640625e-01" nType="-99"/>
          <Node pos="r" depth="2" NCoef="0" IVar="-1" Cut="0.0000000000000000e+00" cType="1" res="-1.0705158347263932e-03" rms="4.5709764957427979e-01" purity="4.5590370893478394e-01" nType="-99"/>
        </Node>
        <Node pos="r" depth="1" NCoef="0" IVar="9" Cut="5.3864145278930664e-01" cType="1" res="3.8184877485036850e-02" rms="4.4680386781692505e-01" purity="6.4404392242431641e-01" nType="0">
          <Node pos="l" depth="2" NCoef="0" IVar="-1" Cut="0.0000000000000000e+00" cType="1" res="3.3477882388979197e-03" rms="4.3482315540313721e-01" purity="6.8459182977676392e-01" nType="-99"/>
          <Node pos="r" depth="2" NCoef="0" IVar="-1" Cut="0.0000000000000000e+00" cType="1" res="8.9472910622134805e-04" rms="4.6296980977058411e-01" purity="5.8402180671691895e-01" nType="-99"/>
        </Node>
      </Node>
    </BinaryTree>
    <BinaryTree type="DecisionTree" boostWeight="1.0000000000000000e+00" itree="257">
      <Node pos="s" depth="0" NCoef="0" IVar="0" Cut="1.9382234811782837e+00" cType="1" res="7.5538647361099720e-03" rms="4.5513302087783813e-01" purity="5.0487440824508667e-01" nType="0">
        <Node pos="l" depth="1" NCoef="0" IVar="5" Cut="9.2317396402359009e-01" cType="1" res="-1.6202801838517189e-02" rms="4.4635349512100220e-01" purity="3.1932476162910461e-01" nType="0">
          <Node pos="l" depth="2" NCoef="0" IVar="-1" Cut="0.0000000000000000e+00" cType="1" res="-2.7775138150900602e-03" rms="4.1508591175079346e-01" purity="2.3924081027507782e-01" nType="-99"/>
          <Node pos="r" depth="2" NCoef="0" IVar="-1" Cut="0.0000000000000000e+00" cType="1" res="-3.4551700809970498e-04" rms="4.5915287733078003e-01" purity="3.5490840673446655e-01" nType="-99"/>
        </Node>
        <Node pos="r" depth="1" NCoef="0" IVar="4" Cut="1.2997165322303772e-01" cType="1" res="1.7198383808135986e-02" rms="4.5829796791076660e-01" purity="5.8020216226577759e-01" nType="0">
          <Node pos="l" depth="2" NCoef="0" IVar="-1" Cut="0.0000000000000000e+00" cType="1" res="-2.2345830220729113e-03" rms="4.5741635560989380e-01" purity="4.3155360221862793e-01" nType="-99"/>
          <Node pos="r" depth="2" NCoef="0" IVar="-1" Cut="0.0000000000000000e+00" cType="1" res="1.2674231547862291e-03" rms="4.5809546113014221e-01" purity="5.9145957231521606e-01" nType="-99"/>
        </Node>
      </Node>
    </BinaryTree>
    <BinaryTree type="DecisionTree" boostWeight="1.0000000000000000e+00" itree="258">
      <Node pos="s" depth="0" NCoef="0" IVar="4" Cut="2.8730225563049316e-01" cType="1" res="-3.6434065550565720e-03" rms="4.5736014842987061e-01" purity="4.9695909023284912e-01" nType="0">
        <Node pos="l" depth="1" NCoef="0" IVar="3" Cut="2.4487519636750221e-02" cType="1" res="-2.7636490762233734e-02" rms="4.5184344053268433e-01" purity="4.1953685879707336e-01" nType="0">
          <Node pos="l" depth="2" NCoef="0" IVar="-1" Cut="0.0000000000000000e+00" cType="1" res="-4.3561216443777084e-03" rms="4.5330774784088135e-01" purity="4.0181854367256165e-01" nType="-99"/>
          <Node pos="r" depth="2" NCoef="0" IVar="-1" Cut="0.0000000000000000e+00" cType="1" res="-1.0253796353936195e-03" rms="4.5080313086509705e-01" purity="4.2398896813392639e-01" nType="-99"/>
        </Node>
        <Node pos="r" depth="1" NCoef="0" IVar="6" Cut="1.7210221290588379e+00" cType="1" res="7.7757444232702255e-03" rms="4.5952272415161133e-01" purity="5.3380703926086426e-01" nType="0">
          <Node pos="l" depth="2" NCoef="0" IVar="-1" Cut="0.0000000000000000e+00" cType="1" res="2.5583105161786079e-03" rms="4.4786906242370605e-01" purity="6.2420290708541870e-01" nType="-99"/>
          <Node pos="r" depth="2" NCoef="0" IVar="-1" Cut="0.0000000000000000e+00" cType="1" res="1.0373654367867857e-04" rms="4.6126341819763184e-01" purity="5.1798927783966064e-01" nType="-99"/>
        </Node>
      </Node>
    </BinaryTree>
    <BinaryTree type="DecisionTree" boostWeight="1.0000000000000000e+00" itree="259">
      <Node pos="s" depth="0" NCoef="0" IVar="0" Cut="2.6606874465942383e+00" cType="1" res="3.5759294405579567e-04" rms="4.5327982306480408e-01" purity="4.9929812550544739e-01" nType="0">
        <Node pos="l" depth="1" NCoef="0" IVar="1" Cut="4.7318151855468750e+02" cType="1" res="-1.8576925620436668e-02" rms="4.5462295413017273e-01" purity="3.5310623049736023e-01" nType="0">
          <Node pos="l" depth="2" NCoef="0" IVar="-1" Cut="0.0000000000000000e+00" cType="1" res="-2.4071179796010256e-03" rms="4.1991889476776123e-01" purity="2.4993301928043365e-01" nType="-99"/>
          <Node pos="r" depth="2" NCoef="0" IVar="-1" Cut="0.0000000000000000e+00" cType="1" res="-4.6003758325241506e-04" rms="4.7556379437446594e-01" purity="4.2029958963394165e-01" nType="-99"/>
        </Node>
        <Node pos="r" depth="1" NCoef="0" IVar="8" Cut="1.3634759187698364e+00" cType="1" res="1.7304021865129471e-02" rms="4.5140129327774048e-01" purity="6.3014018535614014e-01" nType="0">
          <Node pos="l" depth="2" NCoef="0" IVar="-1" Cut="0.0000000000000000e+00" cType="1" res="1.7415984766557813e-03" rms="4.4698286056518555e-01" purity="6.5584737062454224e-01" nType="-99"/>
          <Node pos="r" depth="2" NCoef="0" IVar="-1" Cut="0.0000000000000000e+00" cType="1" res="-1.1105658486485481e-03" rms="4.6304345130920410e-01" purity="5.4995441436767578e-01" nType="-99"/>
        </Node>
      </Node>
    </BinaryTree>
    <BinaryTree type="DecisionTree" boostWeight="1.0000000000000000e+00" itree="260">
      <Node pos="s" depth="0" NCoef="0" IVar="8" Cut="1.0968368053436279e+00" cType="1" res="-4.8441197723150253e-03" rms="4.5570766925811768e-01" purity="4.9519604444503784e-01" nType="0">
        <Node pos="l" depth="1" NCoef="0" IVar="4" Cut="5.4089260101318359e-01" cType="1" res="9.7728567197918892e-03" rms="4.5572522282600403e-01" purity="5.3856831789016724e-01" nType="0">
          <Node pos="l" depth="2" NCoef="0" IVar="-1" Cut="0.0000000000000000e+00" cType="1" res="2.4831373593769968e-05" rms="4.5504906773567200e-01" purity="5.1523756980895996e-01" nType="-99"/>
          <Node pos="r" depth="2" NCoef="0" IVar="-1" Cut="0.0000000000000000e+00" cType="1" res="2.2947830148041248e-03" rms="4.5659717917442322e-01" purity="6.0834735631942749e-01" nType="-99"/>
        </Node>
        <Node pos="r" depth="1" NCoef="0" IVar="1" Cut="7.2573046875000000e+02" cType="1" res="-2.1620253100991249e-02" rms="4.5510929822921753e-01" purity="4.4541701674461365e-01" nType="0">
          <Node pos="l" depth="2" NCoef="0" IVar="-1" Cut="0.0000000000000000e+00" cType="1" res="-1.7290672985836864e-03" rms="4.5471939444541931e-01" purity="4.2501679062843323e-01" nType="-99"/>
          <Node pos="r" depth="2" NCoef="0" IVar="-1" Cut="0.0000000000000000e+00" cType="1" res="1.9233410712331533e-03" rms="4.5475700497627258e-01" purity="6.1416715383529663e-01" nType="-99"/>
        </Node>
      </Node>
    </BinaryTree>
    <BinaryTree type="DecisionTree" boostWeight="1.0000000000000000e+00" itree="261">
      <Node pos="s" depth="0" NCoef="0" IVar="5" Cut="9.7236591577529907e-01" cType="1" res="-3.5446782130748034e-03" rms="4.5657047629356384e-01" purity="4.9399861693382263e-01" nType="0">
        <Node pos="l" depth="1" NCoef="0" IVar="6" Cut="1.6198825836181641e+00" cType="1" res="-1.0711354203522205e-02" rms="4.6391078829765320e-01" purity="4.3211966753005981e-01" nType="0">
          <Node pos="l" depth="2" NCoef="0" IVar="-1" Cut="0.0000000000000000e+00" cType="1" res="1.7240041634067893e-03" rms="4.6881467103958130e-01" purity="5.5067312717437744e-01" nType="-99"/>
          <Node pos="r" depth="2" NCoef="0" IVar="-1" Cut="0.0000000000000000e+00" cType="1" res="-9.2891528038308024e-04" rms="4.6309450268745422e-01" purity="4.1828727722167969e-01" nType="-99"/>
        </Node>
        <Node pos="r" depth="1" NCoef="0" IVar="7" Cut="5.9884365081787109e+01" cType="1" res="2.0477952435612679e-02" rms="4.3018499016761780e-01" purity="7.0141631364822388e-01" nType="0">
          <Node pos="l" depth="2" NCoef="0" IVar="-1" Cut="0.0000000000000000e+00" cType="1" res="-4.6511579421348870e-04" rms="4.6947693824768066e-01" purity="5.9738403558731079e-01" nType="-99"/>
          <Node pos="r" depth="2" NCoef="0" IVar="-1" Cut="0.0000000000000000e+00" cType="1" res="2.3521762341260910e-03" rms="4.0909734368324280e-01" purity="7.5183272361755371e-01" nType="-99"/>
        </Node>
      </Node>
    </BinaryTree>
    <BinaryTree type="DecisionTree" boostWeight="1.0000000000000000e+00" itree="262">
      <Node pos="s" depth="0" NCoef="0" IVar="0" Cut="1.5441365242004395e+00" cType="1" res="-8.0495898146182299e-04" rms="4.5523193478584290e-01" purity="4.9818691611289978e-01" nType="0">
        <Node pos="l" depth="1" NCoef="0" IVar="3" Cut="6.0815028846263885e-02" cType="1" res="-3.7640098482370377e-02" rms="4.2790439724922180e-01" purity="2.7910062670707703e-01" nType="0">
          <Node pos="l" depth="2" NCoef="0" IVar="-1" Cut="0.0000000000000000e+00" cType="1" res="-1.1997340479865670e-03" rms="4.4465789198875427e-01" purity="3.1387418508529663e-01" nType="-99"/>
          <Node pos="r" depth="2" NCoef="0" IVar="-1" Cut="0.0000000000000000e+00" cType="1" res="-5.5756559595465660e-03" rms="3.8913324475288391e-01" purity="2.0922179520130157e-01" nType="-99"/>
        </Node>
        <Node pos="r" depth="1" NCoef="0" IVar="2" Cut="9.5322006225585938e+01" cType="1" res="7.0892721414566040e-03" rms="4.6049451828002930e-01" purity="5.4513978958129883e-01" nType="0">
          <Node pos="l" depth="2" NCoef="0" IVar="-1" Cut="0.0000000000000000e+00" cType="1" res="-4.8917875392362475e-04" rms="4.6507489681243896e-01" purity="5.1516854763031006e-01" nType="-99"/>
          <Node pos="r" depth="2" NCoef="0" IVar="-1" Cut="0.0000000000000000e+00" cType="1" res="1.2334390776231885e-03" rms="4.5607754588127136e-01" purity="5.7104772329330444e-01" nType="-99"/>
        </Node>
      </Node>
    </BinaryTree>
    <BinaryTree type="DecisionTree" boostWeight="1.0000000000000000e+00" itree="263">
      <Node pos="s" depth="0" NCoef="0" IVar="5" Cut="9.7231954336166382e-01" cType="1" res="2.6457845233380795e-03" rms="4.5650056004524231e-01" purity="5.0222033262252808e-01" nType="0">
        <Node pos="l" depth="1" NCoef="0" IVar="6" Cut="1.6796381473541260e+00" cType="1" res="-5.9195328503847122e-03" rms="4.6241816878318787e-01" purity="4.3895968794822693e-01" nType="0">
          <Node pos="l" depth="2" NCoef="0" IVar="-1" Cut="0.0000000000000000e+00" cType="1" res="2.3213285021483898e-03" rms="4.6989291906356812e-01" purity="5.5776840448379517e-01" nType="-99"/>
          <Node pos="r" depth="2" NCoef="0" IVar="-1" Cut="0.0000000000000000e+00" cType="1" res="-7.6630566036328673e-04" rms="4.6092388033866882e-01" purity="4.2167475819587708e-01" nType="-99"/>
        </Node>
        <Node pos="r" depth="1" NCoef="0" IVar="0" Cut="3.1088819503784180e+00" cType="1" res="3.0730748549103737e-02" rms="4.3535420298576355e-01" purity="7.0964658260345459e-01" nType="0">
          <Node pos="l" depth="2" NCoef="0" IVar="-1" Cut="0.0000000000000000e+00" cType="1" res="4.0596034377813339e-03" rms="4.6777471899986267e-01" purity="6.3020694255828857e-01" nType="-99"/>
          <Node pos="r" depth="2" NCoef="0" IVar="-1" Cut="0.0000000000000000e+00" cType="1" res="1.2911381199955940e-03" rms="4.2342028021812439e-01" purity="7.3593538999557495e-01" nType="-99"/>
        </Node>
      </Node>
    </BinaryTree>
    <BinaryTree type="DecisionTree" boostWeight="1.0000000000000000e+00" itree="264">
      <Node pos="s" depth="0" NCoef="0" IVar="4" Cut="6.6771018505096436e-01" cType="1" res="3.9093997329473495e-03" rms="4.5553526282310486e-01" purity="5.0080388784408569e-01" nType="0">
        <Node pos="l" depth="1" NCoef="0" IVar="4" Cut="1.1518678069114685e-01" cType="1" res="-4.5783515815855935e-05" rms="4.5611664652824402e-01" purity="4.9259033799171448e-01" nType="0">
          <Node pos="l" depth="2" NCoef="0" IVar="-1" Cut="0.0000000000000000e+00" cType="1" res="-3.6792282480746508e-03" rms="4.3882459402084351e-01" purity="3.4324610233306885e-01" nType="-99"/>
          <Node pos="r" depth="2" NCoef="0" IVar="-1" Cut="0.0000000000000000e+00" cType="1" res="2.2532649745699018e-04" rms="4.5693686604499817e-01" purity="5.0207698345184326e-01" nType="-99"/>
        </Node>
        <Node pos="r" depth="1" NCoef="0" IVar="-1" Cut="0.0000000000000000e+00" cType="1" res="2.5784007739275694e-03" rms="4.4806060194969177e-01" purity="5.8037161827087402e-01" nType="-99"/>
      </Node>
    </BinaryTree>
    <BinaryTree type="DecisionTree" boostWeight="1.0000000000000000e+00" itree="265">
      <Node pos="s" depth="0" NCoef="0" IVar="6" Cut="2.1674070358276367e+00" cType="1" res="-1.1413268512114882e-03" rms="4.5618143677711487e-01" purity="4.9872270226478577e-01" nType="0">
        <Node pos="l" depth="1" NCoef="0" IVar="2" Cut="9.5385200500488281e+01" cType="1" res="1.5493594110012054e-02" rms="4.5843434333801270e-01" purity="5.7124882936477661e-01" nType="0">
          <Node pos="l" depth="2" NCoef="0" IVar="-1" Cut="0.0000000000000000e+00" cType="1" res="-3.4432756365276873e-05" rms="4.6543458104133606e-01" purity="5.2119606733322144e-01" nType="-99"/>
          <Node pos="r" depth="2" NCoef="0" IVar="-1" Cut="0.0000000000000000e+00" cType="1" res="2.8030732646584511e-03" rms="4.4347873330116272e-01" purity="6.6489619016647339e-01" nType="-99"/>
        </Node>
        <Node pos="r" depth="1" NCoef="0" IVar="5" Cut="9.7238767147064209e-01" cType="1" res="-1.4320041052997112e-02" rms="4.5395615696907043e-01" purity="4.4126519560813904e-01" nType="0">
          <Node pos="l" depth="2" NCoef="0" IVar="-1" Cut="0.0000000000000000e+00" cType="1" res="-1.3702312717214227e-03" rms="4.5470583438873291e-01" purity="3.7704026699066162e-01" nType="-99"/>
          <Node pos="r" depth="2" NCoef="0" IVar="-1" Cut="0.0000000000000000e+00" cType="1" res="7.8074622433632612e-04" rms="4.5041573047637939e-01" purity="6.5607440471649170e-01" nType="-99"/>
        </Node>
      </Node>
    </BinaryTree>
    <BinaryTree type="DecisionTree" boostWeight="1.0000000000000000e+00" itree="266">
      <Node pos="s" depth="0" NCoef="0" IVar="7" Cut="5.0469856262207031e+01" cType="1" res="-1.3349946821108460e-03" rms="4.5522120594978333e-01" purity="4.9694439768791199e-01" nType="0">
        <Node pos="l" depth="1" NCoef="0" IVar="8" Cut="9.7760778665542603e-01" cType="1" res="-2.9309516772627831e-02" rms="4.4214522838592529e-01" purity="3.5313209891319275e-01" nType="0">
          <Node pos="l" depth="2" NCoef="0" IVar="-1" Cut="0.0000000000000000e+00" cType="1" res="6.0226366622373462e-04" rms="4.6112501621246338e-01" purity="4.2309138178825378e-01" nType="-99"/>
          <Node pos="r" depth="2" NCoef="0" IVar="-1" Cut="0.0000000000000000e+00" cType="1" res="-3.1576738692820072e-03" rms="4.3144568800926208e-01" purity="3.1941878795623779e-01" nType="-99"/>
        </Node>
        <Node pos="r" depth="1" NCoef="0" IVar="0" Cut="1.9006565809249878e+00" cType="1" res="5.2116336300969124e-03" rms="4.5798069238662720e-01" purity="5.3059953451156616e-01" nType="0">
          <Node pos="l" depth="2" NCoef="0" IVar="-1" Cut="0.0000000000000000e+00" cType="1" res="-1.2429568450897932e-03" rms="4.5646521449089050e-01" purity="3.4088566899299622e-01" nType="-99"/>
          <Node pos="r" depth="2" NCoef="0" IVar="-1" Cut="0.0000000000000000e+00" cType="1" res="8.3111086860299110e-04" rms="4.5819231867790222e-01" purity="5.9728926420211792e-01" nType="-99"/>
        </Node>
      </Node>
    </BinaryTree>
    <BinaryTree type="DecisionTree" boostWeight="1.0000000000000000e+00" itree="267">
      <Node pos="s" depth="0" NCoef="0" IVar="8" Cut="1.5259121656417847e+00" cType="1" res="5.8567355154082179e-04" rms="4.5866665244102478e-01" purity="5.0170266628265381e-01" nType="0">
        <Node pos="l" depth="1" NCoef="0" IVar="6" Cut="1.9434812068939209e+00" cType="1" res="6.7004235461354256e-03" rms="4.5957106351852417e-01" purity="5.1785182952880859e-01" nType="0">
          <Node pos="l" depth="2" NCoef="0" IVar="-1" Cut="0.0000000000000000e+00" cType="1" res="1.8911389634013176e-03" rms="4.5376333594322205e-01" purity="6.0997658967971802e-01" nType="-99"/>
          <Node pos="r" depth="2" NCoef="0" IVar="-1" Cut="0.0000000000000000e+00" cType="1" res="-1.7646269043325447e-05" rms="4.6094739437103271e-01" purity="4.9197801947593689e-01" nType="-99"/>
        </Node>
        <Node pos="r" depth="1" NCoef="0" IVar="4" Cut="3.6720103025436401e-01" cType="1" res="-3.1820431351661682e-02" rms="4.5246613025665283e-01" purity="4.1611787676811218e-01" nType="0">
          <Node pos="l" depth="2" NCoef="0" IVar="-1" Cut="0.0000000000000000e+00" cType="1" res="-3.6997953429818153e-03" rms="4.4259050488471985e-01" purity="3.4505903720855713e-01" nType="-99"/>
          <Node pos="r" depth="2" NCoef="0" IVar="-1" Cut="0.0000000000000000e+00" cType="1" res="-4.6403644955717027e-04" rms="4.5994985103607178e-01" purity="4.8085254430770874e-01" nType="-99"/>
        </Node>
      </Node>
    </BinaryTree>
    <BinaryTree type="DecisionTree" boostWeight="1.0000000000000000e+00" itree="268">
      <Node pos="s" depth="0" NCoef="0" IVar="0" Cut="4.5647182464599609e+00" cType="1" res="3.4540228080004454e-03" rms="4.5409095287322998e-01" purity="5.0488793849945068e-01" nType="0">
        <Node pos="l" depth="1" NCoef="0" IVar="6" Cut="1.9550768136978149e+00" cType="1" res="-2.8502743225544691e-03" rms="4.6200588345527649e-01" purity="4.5975625514984131e-01" nType="0">
          <Node pos="l" depth="2" NCoef="0" IVar="-1" Cut="0.0000000000000000e+00" cType="1" res="1.3146800920367241e-03" rms="4.6367985010147095e-01" purity="5.5078834295272827e-01" nType="-99"/>
          <Node pos="r" depth="2" NCoef="0" IVar="-1" Cut="0.0000000000000000e+00" cType="1" res="-6.5550423460081220e-04" rms="4.6119856834411621e-01" purity="4.3160662055015564e-01" nType="-99"/>
        </Node>
        <Node pos="r" depth="1" NCoef="0" IVar="0" Cut="5.0826411247253418e+00" cType="1" res="4.0165752172470093e-02" rms="4.0298348665237427e-01" purity="7.6770299673080444e-01" nType="0">
          <Node pos="l" depth="2" NCoef="0" IVar="-1" Cut="0.0000000000000000e+00" cType="1" res="1.5063555911183357e-03" rms="4.3400985002517700e-01" purity="7.1260362863540649e-01" nType="-99"/>
          <Node pos="r" depth="2" NCoef="0" IVar="-1" Cut="0.0000000000000000e+00" cType="1" res="3.7671767640858889e-03" rms="3.7824809551239014e-01" purity="8.0800676345825195e-01" nType="-99"/>
        </Node>
      </Node>
    </BinaryTree>
    <BinaryTree type="DecisionTree" boostWeight="1.0000000000000000e+00" itree="269">
      <Node pos="s" depth="0" NCoef="0" IVar="6" Cut="2.1441247463226318e+00" cType="1" res="7.0934374816715717e-03" rms="4.5807179808616638e-01" purity="5.0633239746093750e-01" nType="0">
        <Node pos="l" depth="1" NCoef="0" IVar="0" Cut="1.3415300846099854e+00" cType="1" res="2.8102289885282516e-02" rms="4.5320552587509155e-01" purity="5.8807909488677979e-01" nType="0">
          <Node pos="l" depth="2" NCoef="0" IVar="-1" Cut="0.0000000000000000e+00" cType="1" res="-1.3024031650274992e-03" rms="4.5349541306495667e-01" purity="3.3695536851882935e-01" nType="-99"/>
          <Node pos="r" depth="2" NCoef="0" IVar="-1" Cut="0.0000000000000000e+00" cType="1" res="2.1189132239669561e-03" rms="4.5270311832427979e-01" purity="6.2622976303100586e-01" nType="-99"/>
        </Node>
        <Node pos="r" depth="1" NCoef="0" IVar="8" Cut="6.1996430158615112e-01" cType="1" res="-7.4882218614220619e-03" rms="4.6085649728775024e-01" purity="4.4959431886672974e-01" nType="0">
          <Node pos="l" depth="2" NCoef="0" IVar="-1" Cut="0.0000000000000000e+00" cType="1" res="1.8952423706650734e-03" rms="4.6123403310775757e-01" purity="5.3409820795059204e-01" nType="-99"/>
          <Node pos="r" depth="2" NCoef="0" IVar="-1" Cut="0.0000000000000000e+00" cType="1" res="-7.2673079557716846e-04" rms="4.6061497926712036e-01" purity="4.4034051895141602e-01" nType="-99"/>
        </Node>
      </Node>
    </BinaryTree>
    <BinaryTree type="DecisionTree" boostWeight="1.0000000000000000e+00" itree="270">
      <Node pos="s" depth="0" NCoef="0" IVar="8" Cut="6.3573515415191650e-01" cType="1" res="-1.8275494221597910e-03" rms="4.5735284686088562e-01" purity="4.9901682138442993e-01" nType="0">
        <Node pos="l" depth="1" NCoef="0" IVar="8" Cut="5.6676614284515381e-01" cType="1" res="2.9737334698438644e-02" rms="4.5827227830886841e-01" purity="5.7773184776306152e-01" nType="0">
          <Node pos="l" depth="2" NCoef="0" IVar="-1" Cut="0.0000000000000000e+00" cType="1" res="7.4007635703310370e-04" rms="4.5677301287651062e-01" purity="5.6085258722305298e-01" nType="-99"/>
          <Node pos="r" depth="2" NCoef="0" IVar="-1" Cut="0.0000000000000000e+00" cType="1" res="3.0600016470998526e-03" rms="4.5916986465454102e-01" purity="5.9773439168930054e-01" nType="-99"/>
        </Node>
        <Node pos="r" depth="1" NCoef="0" IVar="7" Cut="1.1575947570800781e+02" cType="1" res="-5.9906807728111744e-03" rms="4.5706874132156372e-01" purity="4.8863500356674194e-01" nType="0">
          <Node pos="l" depth="2" NCoef="0" IVar="-1" Cut="0.0000000000000000e+00" cType="1" res="-6.1276991618797183e-04" rms="4.5722955465316772e-01" purity="4.7434285283088684e-01" nType="-99"/>
          <Node pos="r" depth="2" NCoef="0" IVar="-1" Cut="0.0000000000000000e+00" cType="1" res="2.5515097659081221e-03" rms="4.5251041650772095e-01" purity="6.5498203039169312e-01" nType="-99"/>
        </Node>
      </Node>
    </BinaryTree>
    <BinaryTree type="DecisionTree" boostWeight="1.0000000000000000e+00" itree="271">
      <Node pos="s" depth="0" NCoef="0" IVar="8" Cut="6.2753039598464966e-01" cType="1" res="4.0690675377845764e-03" rms="4.5778656005859375e-01" purity="5.0138288736343384e-01" nType="0">
        <Node pos="l" depth="1" NCoef="0" IVar="4" Cut="3.7401714920997620e-01" cType="1" res="4.3769840151071548e-02" rms="4.5431345701217651e-01" purity="5.9433174133300781e-01" nType="0">
          <Node pos="l" depth="2" NCoef="0" IVar="-1" Cut="0.0000000000000000e+00" cType="1" res="1.7771852435544133e-03" rms="4.6190553903579712e-01" purity="5.5525225400924683e-01" nType="-99"/>
          <Node pos="r" depth="2" NCoef="0" IVar="-1" Cut="0.0000000000000000e+00" cType="1" res="3.5183650907129049e-03" rms="4.4643089175224304e-01" purity="6.3206315040588379e-01" nType="-99"/>
        </Node>
        <Node pos="r" depth="1" NCoef="0" IVar="5" Cut="9.2646545171737671e-01" cType="1" res="-6.7897612461820245e-04" rms="4.5796981453895569e-01" purity="4.9026656150817871e-01" nType="0">
          <Node pos="l" depth="2" NCoef="0" IVar="-1" Cut="0.0000000000000000e+00" cType="1" res="-1.9462397322058678e-03" rms="4.3491894006729126e-01" purity="3.0237415432929993e-01" nType="-99"/>
          <Node pos="r" depth="2" NCoef="0" IVar="-1" Cut="0.0000000000000000e+00" cType="1" res="3.7040028837509453e-04" rms="4.6267721056938171e-01" purity="5.3213518857955933e-01" nType="-99"/>
        </Node>
      </Node>
    </BinaryTree>
    <BinaryTree type="DecisionTree" boostWeight="1.0000000000000000e+00" itree="272">
      <Node pos="s" depth="0" NCoef="0" IVar="4" Cut="5.0913906097412109e-01" cType="1" res="-2.8661405667662621e-03" rms="4.5524638891220093e-01" purity="4.9490937590599060e-01" nType="0">
        <Node pos="l" depth="1" NCoef="0" IVar="1" Cut="7.7239910888671875e+02" cType="1" res="-1.2040219269692898e-02" rms="4.5451584458351135e-01" purity="4.6669661998748779e-01" nType="0">
          <Node pos="l" depth="2" NCoef="0" IVar="-1" Cut="0.0000000000000000e+00" cType="1" res="-1.1936784721910954e-03" rms="4.5393806695938110e-01" purity="4.3673011660575867e-01" nType="-99"/>
          <Node pos="r" depth="2" NCoef="0" IVar="-1" Cut="0.0000000000000000e+00" cType="1" res="1.5130937099456787e-03" rms="4.5561841130256653e-01" purity="6.1670899391174316e-01" nType="-99"/>
        </Node>
        <Node pos="r" depth="1" NCoef="0" IVar="3" Cut="-5.5118236690759659e-02" cType="1" res="1.9693598151206970e-02" rms="4.5625406503677368e-01" purity="5.6428658962249756e-01" nType="0">
          <Node pos="l" depth="2" NCoef="0" IVar="-1" Cut="0.0000000000000000e+00" cType="1" res="3.4036957658827305e-03" rms="4.4205692410469055e-01" purity="6.1508178710937500e-01" nType="-99"/>
          <Node pos="r" depth="2" NCoef="0" IVar="-1" Cut="0.0000000000000000e+00" cType="1" res="4.5968050835654140e-04" rms="4.6017888188362122e-01" purity="5.4759609699249268e-01" nType="-99"/>
        </Node>
      </Node>
    </BinaryTree>
    <BinaryTree type="DecisionTree" boostWeight="1.0000000000000000e+00" itree="273">
      <Node pos="s" depth="0" NCoef="0" IVar="6" Cut="1.8405498266220093e+00" cType="1" res="3.1625451520085335e-03" rms="4.5518645644187927e-01" purity="5.0319206714630127e-01" nType="0">
        <Node pos="l" depth="1" NCoef="0" IVar="2" Cut="5.0181419372558594e+01" cType="1" res="3.1635586172342300e-02" rms="4.5026528835296631e-01" purity="6.0089606046676636e-01" nType="0">
          <Node pos="l" depth="2" NCoef="0" IVar="-1" Cut="0.0000000000000000e+00" cType="1" res="-3.9808111614547670e-04" rms="4.6603503823280334e-01" purity="5.1474583148956299e-01" nType="-99"/>
          <Node pos="r" depth="2" NCoef="0" IVar="-1" Cut="0.0000000000000000e+00" cType="1" res="2.7792197652161121e-03" rms="4.4309914112091064e-01" purity="6.3434100151062012e-01" nType="-99"/>
        </Node>
        <Node pos="r" depth="1" NCoef="0" IVar="2" Cut="1.0800304412841797e+02" cType="1" res="-3.3176934812217951e-03" rms="4.5605081319808960e-01" purity="4.8095545172691345e-01" nType="0">
          <Node pos="l" depth="2" NCoef="0" IVar="-1" Cut="0.0000000000000000e+00" cType="1" res="-1.0280542774125934e-03" rms="4.5846158266067505e-01" purity="4.4836664199829102e-01" nType="-99"/>
          <Node pos="r" depth="2" NCoef="0" IVar="-1" Cut="0.0000000000000000e+00" cType="1" res="7.2646286571398377e-04" rms="4.5288378000259399e-01" purity="5.1715743541717529e-01" nType="-99"/>
        </Node>
      </Node>
    </BinaryTree>
    <BinaryTree type="DecisionTree" boostWeight="1.0000000000000000e+00" itree="274">
      <Node pos="s" depth="0" NCoef="0" IVar="9" Cut="1.0278521776199341e+00" cType="1" res="1.3255121884867549e-03" rms="4.5646327733993530e-01" purity="5.0127065181732178e-01" nType="0">
        <Node pos="l" depth="1" NCoef="0" IVar="1" Cut="6.6292993164062500e+02" cType="1" res="5.2546155638992786e-03" rms="4.5737802982330322e-01" purity="5.1266288757324219e-01" nType="0">
          <Node pos="l" depth="2" NCoef="0" IVar="-1" Cut="0.0000000000000000e+00" cType="1" res="-1.6104207315947860e-04" rms="4.5779702067375183e-01" purity="4.7364577651023865e-01" nType="-99"/>
          <Node pos="r" depth="2" NCoef="0" IVar="-1" Cut="0.0000000000000000e+00" cType="1" res="1.7401302466169000e-03" rms="4.5532703399658203e-01" purity="6.2843388319015503e-01" nType="-99"/>
        </Node>
        <Node pos="r" depth="1" NCoef="0" IVar="-1" Cut="0.0000000000000000e+00" cType="1" res="-3.4943278878927231e-03" rms="4.3959853053092957e-01" purity="3.4030365943908691e-01" nType="-99"/>
      </Node>
    </BinaryTree>
    <BinaryTree type="DecisionTree" boostWeight="1.0000000000000000e+00" itree="275">
      <Node pos="s" depth="0" NCoef="0" IVar="2" Cut="5.0436534881591797e+01" cType="1" res="2.4373235646635294e-03" rms="4.5703956484794617e-01" purity="5.0311148166656494e-01" nType="0">
        <Node pos="l" depth="1" NCoef="0" IVar="8" Cut="1.2050718069076538e+00" cType="1" res="-5.0319895148277283e-02" rms="4.5894601941108704e-01" purity="4.3390238285064697e-01" nType="0">
          <Node pos="l" depth="2" NCoef="0" IVar="-1" Cut="0.0000000000000000e+00" cType="1" res="-3.8906058762222528e-03" rms="4.6481987833976746e-01" purity="4.4027808308601379e-01" nType="-99"/>
          <Node pos="r" depth="2" NCoef="0" IVar="-1" Cut="0.0000000000000000e+00" cType="1" res="-1.9344642059877515e-03" rms="4.5139539241790771e-01" purity="4.2652153968811035e-01" nType="-99"/>
        </Node>
        <Node pos="r" depth="1" NCoef="0" IVar="6" Cut="2.8378889560699463e+00" cType="1" res="8.9156264439225197e-03" rms="4.5638465881347656e-01" purity="5.1161003112792969e-01" nType="0">
          <Node pos="l" depth="2" NCoef="0" IVar="-1" Cut="0.0000000000000000e+00" cType="1" res="8.0072908895090222e-04" rms="4.5959717035293579e-01" purity="5.3231757879257202e-01" nType="-99"/>
          <Node pos="r" depth="2" NCoef="0" IVar="-1" Cut="0.0000000000000000e+00" cType="1" res="-3.4120059572160244e-03" rms="4.0707999467849731e-01" purity="2.3674640059471130e-01" nType="-99"/>
        </Node>
      </Node>
    </BinaryTree>
    <BinaryTree type="DecisionTree" boostWeight="1.0000000000000000e+00" itree="276">
      <Node pos="s" depth="0" NCoef="0" IVar="6" Cut="2.8994674682617188e+00" cType="1" res="1.8537808209657669e-03" rms="4.5573139190673828e-01" purity="5.0043249130249023e-01" nType="0">
        <Node pos="l" depth="1" NCoef="0" IVar="5" Cut="9.8774856328964233e-01" cType="1" res="5.2971597760915756e-03" rms="4.5854526758193970e-01" purity="5.1567625999450684e-01" nType="0">
          <Node pos="l" depth="2" NCoef="0" IVar="-1" Cut="0.0000000000000000e+00" cType="1" res="5.0341441237833351e-05" rms="4.6430149674415588e-01" purity="4.8918095231056213e-01" nType="-99"/>
          <Node pos="r" depth="2" NCoef="0" IVar="-1" Cut="0.0000000000000000e+00" cType="1" res="3.8266177289187908e-03" rms="3.8870957493782043e-01" purity="7.9848426580429077e-01" nType="-99"/>
        </Node>
        <Node pos="r" depth="1" NCoef="0" IVar="-1" Cut="0.0000000000000000e+00" cType="1" res="-4.5684161596000195e-03" rms="3.9360556006431580e-01" purity="2.1391883492469788e-01" nType="-99"/>
      </Node>
    </BinaryTree>
    <BinaryTree type="DecisionTree" boostWeight="1.0000000000000000e+00" itree="277">
      <Node pos="s" depth="0" NCoef="0" IVar="0" Cut="2.6012902259826660e+00" cType="1" res="5.7172444649040699e-03" rms="4.5548239350318909e-01" purity="5.0720703601837158e-01" nType="0">
        <Node pos="l" depth="1" NCoef="0" IVar="8" Cut="7.7895253896713257e-01" cType="1" res="-8.1823933869600296e-03" rms="4.5596522092819214e-01" purity="3.6070618033409119e-01" nType="0">
          <Node pos="l" depth="2" NCoef="0" IVar="-1" Cut="0.0000000000000000e+00" cType="1" res="1.2713114265352488e-03" rms="4.7566145658493042e-01" purity="4.2964908480644226e-01" nType="-99"/>
          <Node pos="r" depth="2" NCoef="0" IVar="-1" Cut="0.0000000000000000e+00" cType="1" res="-1.0798025177791715e-03" rms="4.4956597685813904e-01" purity="3.4018996357917786e-01" nType="-99"/>
        </Node>
        <Node pos="r" depth="1" NCoef="0" IVar="2" Cut="9.1717193603515625e+01" cType="1" res="1.7189225181937218e-02" rms="4.5476362109184265e-01" purity="6.2812060117721558e-01" nType="0">
          <Node pos="l" depth="2" NCoef="0" IVar="-1" Cut="0.0000000000000000e+00" cType="1" res="-8.2902450230903924e-05" rms="4.6470871567726135e-01" purity="6.0027360916137695e-01" nType="-99"/>
          <Node pos="r" depth="2" NCoef="0" IVar="-1" Cut="0.0000000000000000e+00" cType="1" res="1.8777743680402637e-03" rms="4.4690978527069092e-01" purity="6.4836370944976807e-01" nType="-99"/>
        </Node>
      </Node>
    </BinaryTree>
    <BinaryTree type="DecisionTree" boostWeight="1.0000000000000000e+00" itree="278">
      <Node pos="s" depth="0" NCoef="0" IVar="4" Cut="6.8147760629653931e-01" cType="1" res="3.2868885318748653e-04" rms="4.5688360929489136e-01" purity="5.0197911262512207e-01" nType="0">
        <Node pos="l" depth="1" NCoef="0" IVar="6" Cut="1.6579763889312744e+00" cType="1" res="-4.0762443095445633e-03" rms="4.5715525746345520e-01" purity="4.9260747432708740e-01" nType="0">
          <Node pos="l" depth="2" NCoef="0" IVar="-1" Cut="0.0000000000000000e+00" cType="1" res="2.0277190487831831e-03" rms="4.5356115698814392e-01" purity="6.0603666305541992e-01" nType="-99"/>
          <Node pos="r" depth="2" NCoef="0" IVar="-1" Cut="0.0000000000000000e+00" cType="1" res="-5.6150113232433796e-04" rms="4.5739555358886719e-01" purity="4.7746598720550537e-01" nType="-99"/>
        </Node>
        <Node pos="r" depth="1" NCoef="0" IVar="-1" Cut="0.0000000000000000e+00" cType="1" res="3.1302885618060827e-03" rms="4.5063787698745728e-01" purity="6.1005944013595581e-01" nType="-99"/>
      </Node>
    </BinaryTree>
    <BinaryTree type="DecisionTree" boostWeight="1.0000000000000000e+00" itree="279">
      <Node pos="s" depth="0" NCoef="0" IVar="1" Cut="3.8398358154296875e+02" cType="1" res="-4.3446146883070469e-03" rms="4.5647057890892029e-01" purity="4.9239704012870789e-01" nType="0">
        <Node pos="l" depth="1" NCoef="0" IVar="7" Cut="4.6302238464355469e+01" cType="1" res="-5.2661728113889694e-02" rms="4.1700026392936707e-01" purity="2.9082444310188293e-01" nType="0">
          <Node pos="l" depth="2" NCoef="0" IVar="-1" Cut="0.0000000000000000e+00" cType="1" res="-7.0456634275615215e-03" rms="3.8345682621002197e-01" purity="2.1494670212268829e-01" nType="-99"/>
          <Node pos="r" depth="2" NCoef="0" IVar="-1" Cut="0.0000000000000000e+00" cType="1" res="-6.6808552946895361e-04" rms="4.3994599580764771e-01" purity="3.5727873444557190e-01" nType="-99"/>
        </Node>
        <Node pos="r" depth="1" NCoef="0" IVar="4" Cut="1.3413651287555695e-01" cType="1" res="1.5581429470330477e-03" rms="4.6071380376815796e-01" purity="5.1702255010604858e-01" nType="0">
          <Node pos="l" depth="2" NCoef="0" IVar="-1" Cut="0.0000000000000000e+00" cType="1" res="-2.3166907485574484e-03" rms="4.4919767975807190e-01" purity="3.7628650665283203e-01" nType="-99"/>
          <Node pos="r" depth="2" NCoef="0" IVar="-1" Cut="0.0000000000000000e+00" cType="1" res="3.0362539109773934e-04" rms="4.6157661080360413e-01" purity="5.2968257665634155e-01" nType="-99"/>
        </Node>
      </Node>
    </BinaryTree>
    <BinaryTree type="DecisionTree" boostWeight="1.0000000000000000e+00" itree="280">
      <Node pos="s" depth="0" NCoef="0" IVar="4" Cut="3.6895218491554260e-01" cType="1" res="-2.5993289891630411e-03" rms="4.5508062839508057e-01" purity="4.9757078289985657e-01" nType="0">
        <Node pos="l" depth="1" NCoef="0" IVar="4" Cut="1.2182667106389999e-01" cType="1" res="-2.0307863131165504e-02" rms="4.5550993084907532e-01" purity="4.4222024083137512e-01" nType="0">
          <Node pos="l" depth="2" NCoef="0" IVar="-1" Cut="0.0000000000000000e+00" cType="1" res="-3.6683997604995966e-03" rms="4.4754296541213989e-01" purity="3.5553264617919922e-01" nType="-99"/>
          <Node pos="r" depth="2" NCoef="0" IVar="-1" Cut="0.0000000000000000e+00" cType="1" res="-9.0561696561053395e-04" rms="4.5642390847206116e-01" purity="4.5511361956596375e-01" nType="-99"/>
        </Node>
        <Node pos="r" depth="1" NCoef="0" IVar="8" Cut="6.3383376598358154e-01" cType="1" res="1.3517796993255615e-02" rms="4.5408964157104492e-01" purity="5.4794710874557495e-01" nType="0">
          <Node pos="l" depth="2" NCoef="0" IVar="-1" Cut="0.0000000000000000e+00" cType="1" res="3.9704935625195503e-03" rms="4.4715142250061035e-01" purity="6.3697695732116699e-01" nType="-99"/>
          <Node pos="r" depth="2" NCoef="0" IVar="-1" Cut="0.0000000000000000e+00" cType="1" res="4.5239005703479052e-04" rms="4.5450478792190552e-01" purity="5.3755426406860352e-01" nType="-99"/>
        </Node>
      </Node>
    </BinaryTree>
    <BinaryTree type="DecisionTree" boostWeight="1.0000000000000000e+00" itree="281">
      <Node pos="s" depth="0" NCoef="0" IVar="7" Cut="4.8648033142089844e+01" cType="1" res="-2.9556904337368906e-04" rms="4.5643040537834167e-01" purity="5.0068205595016479e-01" nType="0">
        <Node pos="l" depth="1" NCoef="0" IVar="1" Cut="3.7589138793945312e+02" cType="1" res="-3.4656461328268051e-02" rms="4.3683797121047974e-01" purity="3.3176219463348389e-01" nType="0">
          <Node pos="l" depth="2" NCoef="0" IVar="-1" Cut="0.0000000000000000e+00" cType="1" res="-5.1923342980444431e-03" rms="3.9462560415267944e-01" purity="2.3604148626327515e-01" nType="-99"/>
          <Node pos="r" depth="2" NCoef="0" IVar="-1" Cut="0.0000000000000000e+00" cType="1" res="-7.4151105945929885e-04" rms="4.5789039134979248e-01" purity="3.8701549172401428e-01" nType="-99"/>
        </Node>
        <Node pos="r" depth="1" NCoef="0" IVar="6" Cut="2.2000284194946289e+00" cType="1" res="6.0462877154350281e-03" rms="4.5967459678649902e-01" purity="5.3185892105102539e-01" nType="0">
          <Node pos="l" depth="2" NCoef="0" IVar="-1" Cut="0.0000000000000000e+00" cType="1" res="1.1191494995728135e-03" rms="4.5792943239212036e-01" purity="6.0351419448852539e-01" nType="-99"/>
          <Node pos="r" depth="2" NCoef="0" IVar="-1" Cut="0.0000000000000000e+00" cType="1" res="-3.7434772821143270e-04" rms="4.6104583144187927e-01" purity="4.6189883351325989e-01" nType="-99"/>
        </Node>
      </Node>
    </BinaryTree>
    <BinaryTree type="DecisionTree" boostWeight="1.0000000000000000e+00" itree="282">
      <Node pos="s" depth="0" NCoef="0" IVar="8" Cut="1.0435552597045898e+00" cType="1" res="-1.8985185306519270e-04" rms="4.5707577466964722e-01" purity="4.9955132603645325e-01" nType="0">
        <Node pos="l" depth="1" NCoef="0" IVar="0" Cut="1.2711272239685059e+00" cType="1" res="1.4139004051685333e-02" rms="4.5961397886276245e-01" purity="5.4364299774169922e-01" nType="0">
          <Node pos="l" depth="2" NCoef="0" IVar="-1" Cut="0.0000000000000000e+00" cType="1" res="-1.4383459929376841e-03" rms="4.3999767303466797e-01" purity="3.1077086925506592e-01" nType="-99"/>
          <Node pos="r" depth="2" NCoef="0" IVar="-1" Cut="0.0000000000000000e+00" cType="1" res="1.1147836921736598e-03" rms="4.6183079481124878e-01" purity="5.7299375534057617e-01" nType="-99"/>
        </Node>
        <Node pos="r" depth="1" NCoef="0" IVar="7" Cut="8.0397727966308594e+01" cType="1" res="-1.4433056116104126e-02" rms="4.5409083366394043e-01" purity="4.5572334527969360e-01" nType="0">
          <Node pos="l" depth="2" NCoef="0" IVar="-1" Cut="0.0000000000000000e+00" cType="1" res="-1.4481157995760441e-03" rms="4.5334047079086304e-01" purity="4.1334703564643860e-01" nType="-99"/>
          <Node pos="r" depth="2" NCoef="0" IVar="-1" Cut="0.0000000000000000e+00" cType="1" res="6.5871735569089651e-04" rms="4.5527121424674988e-01" purity="5.7645976543426514e-01" nType="-99"/>
        </Node>
      </Node>
    </BinaryTree>
    <BinaryTree type="DecisionTree" boostWeight="1.0000000000000000e+00" itree="283">
      <Node pos="s" depth="0" NCoef="0" IVar="5" Cut="9.2149102687835693e-01" cType="1" res="-8.9873215183615685e-03" rms="4.5475745201110840e-01" purity="4.9123162031173706e-01" nType="0">
        <Node pos="l" depth="1" NCoef="0" IVar="0" Cut="1.6996251344680786e+00" cType="1" res="-4.4738925993442535e-02" rms="4.2963162064552307e-01" purity="2.8850993514060974e-01" nType="0">
          <Node pos="l" depth="2" NCoef="0" IVar="-1" Cut="0.0000000000000000e+00" cType="1" res="-4.7231251373887062e-03" rms="3.9779427647590637e-01" purity="2.1452715992927551e-01" nType="-99"/>
          <Node pos="r" depth="2" NCoef="0" IVar="-1" Cut="0.0000000000000000e+00" cType="1" res="-1.1055038776248693e-03" rms="4.6054285764694214e-01" purity="3.6921119689941406e-01" nType="-99"/>
        </Node>
        <Node pos="r" depth="1" NCoef="0" IVar="8" Cut="9.2607605457305908e-01" cType="1" res="-3.2970141619443893e-03" rms="4.5837241411209106e-01" purity="5.2349722385406494e-01" nType="0">
          <Node pos="l" depth="2" NCoef="0" IVar="-1" Cut="0.0000000000000000e+00" cType="1" res="1.0137077188119292e-03" rms="4.5730069279670715e-01" purity="5.7850205898284912e-01" nType="-99"/>
          <Node pos="r" depth="2" NCoef="0" IVar="-1" Cut="0.0000000000000000e+00" cType="1" res="-9.5132587011903524e-04" rms="4.5859855413436890e-01" purity="4.8959302902221680e-01" nType="-99"/>
        </Node>
      </Node>
    </BinaryTree>
    <BinaryTree type="DecisionTree" boostWeight="1.0000000000000000e+00" itree="284">
      <Node pos="s" depth="0" NCoef="0" IVar="2" Cut="9.9534889221191406e+01" cType="1" res="-7.3060975410044193e-03" rms="4.5428380370140076e-01" purity="4.9178898334503174e-01" nType="0">
        <Node pos="l" depth="1" NCoef="0" IVar="6" Cut="1.7843966484069824e+00" cType="1" res="-2.1595587953925133e-02" rms="4.5739114284515381e-01" purity="4.6354323625564575e-01" nType="0">
          <Node pos="l" depth="2" NCoef="0" IVar="-1" Cut="0.0000000000000000e+00" cType="1" res="7.3665753006935120e-04" rms="4.6090880036354065e-01" purity="5.6978589296340942e-01" nType="-99"/>
          <Node pos="r" depth="2" NCoef="0" IVar="-1" Cut="0.0000000000000000e+00" cType="1" res="-2.0390341524034739e-03" rms="4.5558339357376099e-01" purity="4.2691117525100708e-01" nType="-99"/>
        </Node>
        <Node pos="r" depth="1" NCoef="0" IVar="6" Cut="2.3718125820159912e+00" cType="1" res="7.8138131648302078e-03" rms="4.5047929883003235e-01" purity="5.2167618274688721e-01" nType="0">
          <Node pos="l" depth="2" NCoef="0" IVar="-1" Cut="0.0000000000000000e+00" cType="1" res="2.0303768105804920e-03" rms="4.5120507478713989e-01" purity="6.2930166721343994e-01" nType="-99"/>
          <Node pos="r" depth="2" NCoef="0" IVar="-1" Cut="0.0000000000000000e+00" cType="1" res="-1.5076579293236136e-03" rms="4.4754004478454590e-01" purity="3.8703313469886780e-01" nType="-99"/>
        </Node>
      </Node>
    </BinaryTree>
    <BinaryTree type="DecisionTree" boostWeight="1.0000000000000000e+00" itree="285">
      <Node pos="s" depth="0" NCoef="0" IVar="6" Cut="1.6796381473541260e+00" cType="1" res="4.4198243995197117e-04" rms="4.5380175113677979e-01" purity="4.9862319231033325e-01" nType="0">
        <Node pos="l" depth="1" NCoef="0" IVar="9" Cut="4.6710589528083801e-01" cType="1" res="4.4176023453474045e-02" rms="4.5122259855270386e-01" purity="6.2233358621597290e-01" nType="0">
          <Node pos="l" depth="2" NCoef="0" IVar="-1" Cut="0.0000000000000000e+00" cType="1" res="1.6042115166783333e-03" rms="4.4698879122734070e-01" purity="6.1531001329421997e-01" nType="-99"/>
          <Node pos="r" depth="2" NCoef="0" IVar="-1" Cut="0.0000000000000000e+00" cType="1" res="3.9775180630385876e-03" rms="4.5573019981384277e-01" purity="6.3158106803894043e-01" nType="-99"/>
        </Node>
        <Node pos="r" depth="1" NCoef="0" IVar="1" Cut="8.3050128173828125e+02" cType="1" res="-5.9591871686279774e-03" rms="4.5382457971572876e-01" purity="4.8051619529724121e-01" nType="0">
          <Node pos="l" depth="2" NCoef="0" IVar="-1" Cut="0.0000000000000000e+00" cType="1" res="-6.7555677378550172e-04" rms="4.5277905464172363e-01" purity="4.6400436758995056e-01" nType="-99"/>
          <Node pos="r" depth="2" NCoef="0" IVar="-1" Cut="0.0000000000000000e+00" cType="1" res="2.4860792327672243e-03" rms="4.6088239550590515e-01" purity="6.3501173257827759e-01" nType="-99"/>
        </Node>
      </Node>
    </BinaryTree>
    <BinaryTree type="DecisionTree" boostWeight="1.0000000000000000e+00" itree="286">
      <Node pos="s" depth="0" NCoef="0" IVar="9" Cut="7.8561192750930786e-01" cType="1" res="4.8607285134494305e-03" rms="4.5515304803848267e-01" purity="5.0520086288452148e-01" nType="0">
        <Node pos="l" depth="1" NCoef="0" IVar="5" Cut="9.8750782012939453e-01" cType="1" res="1.2661321088671684e-02" rms="4.5557877421379089e-01" purity="5.3491175174713135e-01" nType="0">
          <Node pos="l" depth="2" NCoef="0" IVar="-1" Cut="0.0000000000000000e+00" cType="1" res="4.7750305384397507e-04" rms="4.6238687634468079e-01" purity="5.0812965631484985e-01" nType="-99"/>
          <Node pos="r" depth="2" NCoef="0" IVar="-1" Cut="0.0000000000000000e+00" cType="1" res="4.5222332701086998e-03" rms="3.7457588315010071e-01" purity="8.1192523241043091e-01" nType="-99"/>
        </Node>
        <Node pos="r" depth="1" NCoef="0" IVar="6" Cut="2.4053406715393066e+00" cType="1" res="-2.3099808022379875e-02" rms="4.5252025127410889e-01" purity="3.9870482683181763e-01" nType="0">
          <Node pos="l" depth="2" NCoef="0" IVar="-1" Cut="0.0000000000000000e+00" cType="1" res="-2.7183368802070618e-03" rms="4.6404063701629639e-01" purity="4.4848626852035522e-01" nType="-99"/>
          <Node pos="r" depth="2" NCoef="0" IVar="-1" Cut="0.0000000000000000e+00" cType="1" res="-3.2259742147289217e-04" rms="4.4204467535018921e-01" purity="3.5798248648643494e-01" nType="-99"/>
        </Node>
      </Node>
    </BinaryTree>
    <BinaryTree type="DecisionTree" boostWeight="1.0000000000000000e+00" itree="287">
      <Node pos="s" depth="0" NCoef="0" IVar="0" Cut="4.1909947395324707e+00" cType="1" res="-3.8115270435810089e-03" rms="4.5447188615798950e-01" purity="4.9336946010589600e-01" nType="0">
        <Node pos="l" depth="1" NCoef="0" IVar="1" Cut="3.5975357055664062e+02" cType="1" res="-1.1668974533677101e-02" rms="4.6187108755111694e-01" purity="4.3383044004440308e-01" nType="0">
          <Node pos="l" depth="2" NCoef="0" IVar="-1" Cut="0.0000000000000000e+00" cType="1" res="-4.4831237755715847e-03" rms="4.0711209177970886e-01" purity="2.2712935507297516e-01" nType="-99"/>
          <Node pos="r" depth="2" NCoef="0" IVar="-1" Cut="0.0000000000000000e+00" cType="1" res="-4.5195693382993340e-04" rms="4.6561461687088013e-01" purity="4.4991144537925720e-01" nType="-99"/>
        </Node>
        <Node pos="r" depth="1" NCoef="0" IVar="8" Cut="1.0798754692077637e+00" cType="1" res="2.8422405943274498e-02" rms="4.2123359441757202e-01" purity="7.3761892318725586e-01" nType="0">
          <Node pos="l" depth="2" NCoef="0" IVar="-1" Cut="0.0000000000000000e+00" cType="1" res="3.4303322900086641e-03" rms="4.0174755454063416e-01" purity="7.7856212854385376e-01" nType="-99"/>
          <Node pos="r" depth="2" NCoef="0" IVar="-1" Cut="0.0000000000000000e+00" cType="1" res="1.7402038793079555e-04" rms="4.4224932789802551e-01" purity="6.8821096420288086e-01" nType="-99"/>
        </Node>
      </Node>
    </BinaryTree>
    <BinaryTree type="DecisionTree" boostWeight="1.0000000000000000e+00" itree="288">
      <Node pos="s" depth="0" NCoef="0" IVar="2" Cut="8.9838531494140625e+01" cType="1" res="-1.6325073083862662e-03" rms="4.5536378026008606e-01" purity="5.0023156404495239e-01" nType="0">
        <Node pos="l" depth="1" NCoef="0" IVar="6" Cut="1.6085551977157593e+00" cType="1" res="-1.7805783078074455e-02" rms="4.5660260319709778e-01" purity="4.6683898568153381e-01" nType="0">
          <Node pos="l" depth="2" NCoef="0" IVar="-1" Cut="0.0000000000000000e+00" cType="1" res="1.2253148015588522e-03" rms="4.6274563670158386e-01" purity="5.8049935102462769e-01" nType="-99"/>
          <Node pos="r" depth="2" NCoef="0" IVar="-1" Cut="0.0000000000000000e+00" cType="1" res="-1.6449963441118598e-03" rms="4.5462027192115784e-01" purity="4.3944826722145081e-01" nType="-99"/>
        </Node>
        <Node pos="r" depth="1" NCoef="0" IVar="0" Cut="3.8447246551513672e+00" cType="1" res="1.0658473707735538e-02" rms="4.5403498411178589e-01" purity="5.2560842037200928e-01" nType="0">
          <Node pos="l" depth="2" NCoef="0" IVar="-1" Cut="0.0000000000000000e+00" cType="1" res="-6.7719462094828486e-05" rms="4.6444049477577209e-01" purity="4.4420862197875977e-01" nType="-99"/>
          <Node pos="r" depth="2" NCoef="0" IVar="-1" Cut="0.0000000000000000e+00" cType="1" res="2.7102320455014706e-03" rms="4.2422172427177429e-01" purity="7.3753464221954346e-01" nType="-99"/>
        </Node>
      </Node>
    </BinaryTree>
    <BinaryTree type="DecisionTree" boostWeight="1.0000000000000000e+00" itree="289">
      <Node pos="s" depth="0" NCoef="0" IVar="6" Cut="1.8899950981140137e+00" cType="1" res="9.5554133877158165e-03" rms="4.5446032285690308e-01" purity="5.0975543260574341e-01" nType="0">
        <Node pos="l" depth="1" NCoef="0" IVar="7" Cut="6.2019901275634766e+01" cType="1" res="3.8280446082353592e-02" rms="4.4979920983314514e-01" purity="6.0823261737823486e-01" nType="0">
          <Node pos="l" depth="2" NCoef="0" IVar="-1" Cut="0.0000000000000000e+00" cType="1" res="8.7253178935497999e-04" rms="4.6253222227096558e-01" purity="5.0171780586242676e-01" nType="-99"/>
          <Node pos="r" depth="2" NCoef="0" IVar="-1" Cut="0.0000000000000000e+00" cType="1" res="3.3373718615621328e-03" rms="4.3992403149604797e-01" purity="6.8280094861984253e-01" nType="-99"/>
        </Node>
        <Node pos="r" depth="1" NCoef="0" IVar="5" Cut="9.0991020202636719e-01" cType="1" res="1.8701544031500816e-03" rms="4.5539215207099915e-01" purity="4.8340827226638794e-01" nType="0">
          <Node pos="l" depth="2" NCoef="0" IVar="-1" Cut="0.0000000000000000e+00" cType="1" res="-3.3109153155237436e-03" rms="4.1093844175338745e-01" purity="2.4826383590698242e-01" nType="-99"/>
          <Node pos="r" depth="2" NCoef="0" IVar="-1" Cut="0.0000000000000000e+00" cType="1" res="3.4733215579763055e-04" rms="4.5818594098091125e-01" purity="5.0030249357223511e-01" nType="-99"/>
        </Node>
      </Node>
    </BinaryTree>
    <BinaryTree type="DecisionTree" boostWeight="1.0000000000000000e+00" itree="290">
      <Node pos="s" depth="0" NCoef="0" IVar="6" Cut="2.6482071876525879e+00" cType="1" res="-2.2293485235422850e-03" rms="4.5567363500595093e-01" purity="4.9549639225006104e-01" nType="0">
        <Node pos="l" depth="1" NCoef="0" IVar="2" Cut="1.0090779113769531e+02" cType="1" res="2.3936242796480656e-03" rms="4.6034887433052063e-01" purity="5.2834844589233398e-01" nType="0">
          <Node pos="l" depth="2" NCoef="0" IVar="-1" Cut="0.0000000000000000e+00" cType="1" res="-4.9706501886248589e-04" rms="4.6238276362419128e-01" purity="4.8352408409118652e-01" nType="-99"/>
          <Node pos="r" depth="2" NCoef="0" IVar="-1" Cut="0.0000000000000000e+00" cType="1" res="9.7547686891630292e-04" rms="4.5738506317138672e-01" purity="5.8543932437896729e-01" nType="-99"/>
        </Node>
        <Node pos="r" depth="1" NCoef="0" IVar="7" Cut="6.3808300018310547e+01" cType="1" res="-3.4537401050329208e-02" rms="4.2013794183731079e-01" purity="2.6590678095817566e-01" nType="0">
          <Node pos="l" depth="2" NCoef="0" IVar="-1" Cut="0.0000000000000000e+00" cType="1" res="-6.5284082666039467e-04" rms="4.0614697337150574e-01" purity="2.5048992037773132e-01" nType="-99"/>
          <Node pos="r" depth="2" NCoef="0" IVar="-1" Cut="0.0000000000000000e+00" cType="1" res="-3.9146323688328266e-03" rms="4.3248528242111206e-01" purity="2.8181454539299011e-01" nType="-99"/>
        </Node>
      </Node>
    </BinaryTree>
    <BinaryTree type="DecisionTree" boostWeight="1.0000000000000000e+00" itree="291">
      <Node pos="s" depth="0" NCoef="0" IVar="8" Cut="1.4735395908355713e+00" cType="1" res="1.4076029183343053e-03" rms="4.5432928204536438e-01" purity="5.0211614370346069e-01" nType="0">
        <Node pos="l" depth="1" NCoef="0" IVar="5" Cut="9.8772728443145752e-01" cType="1" res="7.1188323199748993e-03" rms="4.5596978068351746e-01" purity="5.2051526308059692e-01" nType="0">
          <Node pos="l" depth="2" NCoef="0" IVar="-1" Cut="0.0000000000000000e+00" cType="1" res="1.9559319480322301e-04" rms="4.6180093288421631e-01" purity="4.9512836337089539e-01" nType="-99"/>
          <Node pos="r" depth="2" NCoef="0" IVar="-1" Cut="0.0000000000000000e+00" cType="1" res="3.7236700300127268e-03" rms="3.8174062967300415e-01" purity="8.0575031042098999e-01" nType="-99"/>
        </Node>
        <Node pos="r" depth="1" NCoef="0" IVar="9" Cut="4.8265552520751953e-01" cType="1" res="-2.4580480530858040e-02" rms="4.4586545228958130e-01" purity="4.1839370131492615e-01" nType="0">
          <Node pos="l" depth="2" NCoef="0" IVar="-1" Cut="0.0000000000000000e+00" cType="1" res="5.9306125876901206e-06" rms="4.4472333788871765e-01" purity="4.8785188794136047e-01" nType="-99"/>
          <Node pos="r" depth="2" NCoef="0" IVar="-1" Cut="0.0000000000000000e+00" cType="1" res="-2.6766678784042597e-03" rms="4.4584918022155762e-01" purity="3.6949259042739868e-01" nType="-99"/>
        </Node>
      </Node>
    </BinaryTree>
    <BinaryTree type="DecisionTree" boostWeight="1.0000000000000000e+00" itree="292">
      <Node pos="s" depth="0" NCoef="0" IVar="3" Cut="-6.2941193580627441e-02" cType="1" res="8.0526503734290600e-04" rms="4.5471307635307312e-01" purity="4.9812489748001099e-01" nType="0">
        <Node pos="l" depth="1" NCoef="0" IVar="-1" Cut="0.0000000000000000e+00" cType="1" res="2.5753872469067574e-03" rms="4.4949817657470703e-01" purity="6.0567098855972290e-01" nType="-99"/>
        <Node pos="r" depth="1" NCoef="0" IVar="0" Cut="4.0597610473632812e+00" cType="1" res="-3.0282975640147924e-03" rms="4.5500436425209045e-01" purity="4.8813679814338684e-01" nType="0">
          <Node pos="l" depth="2" NCoef="0" IVar="-1" Cut="0.0000000000000000e+00" cType="1" res="-5.8370392071083188e-04" rms="4.6162080764770508e-01" purity="4.2222851514816284e-01" nType="-99"/>
          <Node pos="r" depth="2" NCoef="0" IVar="-1" Cut="0.0000000000000000e+00" cType="1" res="1.2660600477829576e-03" rms="4.3096625804901123e-01" purity="7.1241563558578491e-01" nType="-99"/>
        </Node>
      </Node>
    </BinaryTree>
    <BinaryTree type="DecisionTree" boostWeight="1.0000000000000000e+00" itree="293">
      <Node pos="s" depth="0" NCoef="0" IVar="6" Cut="2.3271975517272949e+00" cType="1" res="2.7205138467252254e-03" rms="4.5700350403785706e-01" purity="5.0451654195785522e-01" nType="0">
        <Node pos="l" depth="1" NCoef="0" IVar="8" Cut="6.9617235660552979e-01" cType="1" res="1.2757513672113419e-02" rms="4.5997810363769531e-01" purity="5.6348180770874023e-01" nType="0">
          <Node pos="l" depth="2" NCoef="0" IVar="-1" Cut="0.0000000000000000e+00" cType="1" res="2.6596547104418278e-03" rms="4.5019498467445374e-01" purity="6.3216173648834229e-01" nType="-99"/>
          <Node pos="r" depth="2" NCoef="0" IVar="-1" Cut="0.0000000000000000e+00" cType="1" res="3.8006785325706005e-04" rms="4.6175500750541687e-01" purity="5.4900294542312622e-01" nType="-99"/>
        </Node>
        <Node pos="r" depth="1" NCoef="0" IVar="6" Cut="2.8697319030761719e+00" cType="1" res="-1.6726825386285782e-02" rms="4.5054838061332703e-01" purity="3.9026752114295959e-01" nType="0">
          <Node pos="l" depth="2" NCoef="0" IVar="-1" Cut="0.0000000000000000e+00" cType="1" res="-6.7695626057684422e-04" rms="4.5979386568069458e-01" purity="4.2296701669692993e-01" nType="-99"/>
          <Node pos="r" depth="2" NCoef="0" IVar="-1" Cut="0.0000000000000000e+00" cType="1" res="-3.3048822078853846e-03" rms="4.0009891986846924e-01" purity="2.2734782099723816e-01" nType="-99"/>
        </Node>
      </Node>
    </BinaryTree>
    <BinaryTree type="DecisionTree" boostWeight="1.0000000000000000e+00" itree="294">
      <Node pos="s" depth="0" NCoef="0" IVar="8" Cut="1.2515977621078491e+00" cType="1" res="3.5578801762312651e-03" rms="4.5818591117858887e-01" purity="5.0272202491760254e-01" nType="0">
        <Node pos="l" depth="1" NCoef="0" IVar="0" Cut="3.0625712871551514e+00" cType="1" res="1.0142625309526920e-02" rms="4.5849618315696716e-01" purity="5.3017085790634155e-01" nType="0">
          <Node pos="l" depth="2" NCoef="0" IVar="-1" Cut="0.0000000000000000e+00" cType="1" res="-1.7413913155905902e-04" rms="4.6903118491172791e-01" purity="4.0956425666809082e-01" nType="-99"/>
          <Node pos="r" depth="2" NCoef="0" IVar="-1" Cut="0.0000000000000000e+00" cType="1" res="1.6508831176906824e-03" rms="4.4421207904815674e-01" purity="6.8327170610427856e-01" nType="-99"/>
        </Node>
        <Node pos="r" depth="1" NCoef="0" IVar="0" Cut="3.3534908294677734e+00" cType="1" res="-9.7615234553813934e-03" rms="4.5726785063743591e-01" purity="4.4719931483268738e-01" nType="0">
          <Node pos="l" depth="2" NCoef="0" IVar="-1" Cut="0.0000000000000000e+00" cType="1" res="1.4546686725225300e-04" rms="4.5486295223236084e-01" purity="3.7440004944801331e-01" nType="-99"/>
          <Node pos="r" depth="2" NCoef="0" IVar="-1" Cut="0.0000000000000000e+00" cType="1" res="-1.9992899615317583e-03" rms="4.6100842952728271e-01" purity="5.8890473842620850e-01" nType="-99"/>
        </Node>
      </Node>
    </BinaryTree>
    <BinaryTree type="DecisionTree" boostWeight="1.0000000000000000e+00" itree="295">
      <Node pos="s" depth="0" NCoef="0" IVar="4" Cut="1.3318286836147308e-01" cType="1" res="-2.4484407622367144e-03" rms="4.5649164915084839e-01" purity="5.0019747018814087e-01" nType="0">
        <Node pos="l" depth="1" NCoef="0" IVar="-1" Cut="0.0000000000000000e+00" cType="1" res="-3.8769599050283432e-03" rms="4.4770267605781555e-01" purity="3.5207065939903259e-01" nType="-99"/>
        <Node pos="r" depth="1" NCoef="0" IVar="0" Cut="1.0751069784164429e+00" cType="1" res="2.5599226355552673e-03" rms="4.5687168836593628e-01" purity="5.1268202066421509e-01" nType="0">
          <Node pos="l" depth="2" NCoef="0" IVar="-1" Cut="0.0000000000000000e+00" cType="1" res="-2.9745534993708134e-03" rms="4.2088609933853149e-01" purity="2.7195423841476440e-01" nType="-99"/>
          <Node pos="r" depth="2" NCoef="0" IVar="-1" Cut="0.0000000000000000e+00" cType="1" res="4.2241750634275377e-04" rms="4.5997551083564758e-01" purity="5.3605014085769653e-01" nType="-99"/>
        </Node>
      </Node>
    </BinaryTree>
    <BinaryTree type="DecisionTree" boostWeight="1.0000000000000000e+00" itree="296">
      <Node pos="s" depth="0" NCoef="0" IVar="8" Cut="1.1574239730834961e+00" cType="1" res="3.2218731939792633e-04" rms="4.5720961689949036e-01" purity="4.9968102574348450e-01" nType="0">
        <Node pos="l" depth="1" NCoef="0" IVar="0" Cut="2.0695703029632568e+00" cType="1" res="1.1175435036420822e-02" rms="4.5846739411354065e-01" purity="5.3729587793350220e-01" nType="0">
          <Node pos="l" depth="2" NCoef="0" IVar="-1" Cut="0.0000000000000000e+00" cType="1" res="-1.1147686745971441e-03" rms="4.5338964462280273e-01" purity="3.4123548865318298e-01" nType="-99"/>
          <Node pos="r" depth="2" NCoef="0" IVar="-1" Cut="0.0000000000000000e+00" cType="1" res="1.4052212936803699e-03" rms="4.6007561683654785e-01" purity="6.2113255262374878e-01" nType="-99"/>
        </Node>
        <Node pos="r" depth="1" NCoef="0" IVar="5" Cut="9.3839448690414429e-01" cType="1" res="-1.5100313350558281e-02" rms="4.5497119426727295e-01" purity="4.4623008370399475e-01" nType="0">
          <Node pos="l" depth="2" NCoef="0" IVar="-1" Cut="0.0000000000000000e+00" cType="1" res="-2.5101243518292904e-03" rms="4.3062865734100342e-01" purity="2.8558942675590515e-01" nType="-99"/>
          <Node pos="r" depth="2" NCoef="0" IVar="-1" Cut="0.0000000000000000e+00" cType="1" res="-2.8407271020114422e-04" rms="4.6477746963500977e-01" purity="5.1611095666885376e-01" nType="-99"/>
        </Node>
      </Node>
    </BinaryTree>
    <BinaryTree type="DecisionTree" boostWeight="1.0000000000000000e+00" itree="297">
      <Node pos="s" depth="0" NCoef="0" IVar="8" Cut="6.3255405426025391e-01" cType="1" res="-3.4238446969538927e-03" rms="4.5530888438224792e-01" purity="4.9408614635467529e-01" nType="0">
        <Node pos="l" depth="1" NCoef="0" IVar="8" Cut="5.5722558498382568e-01" cType="1" res="3.0423359945416451e-02" rms="4.5174887776374817e-01" purity="5.7774084806442261e-01" nType="0">
          <Node pos="l" depth="2" NCoef="0" IVar="-1" Cut="0.0000000000000000e+00" cType="1" res="5.7622086023911834e-04" rms="4.5014011859893799e-01" purity="5.5900400876998901e-01" nType="-99"/>
          <Node pos="r" depth="2" NCoef="0" IVar="-1" Cut="0.0000000000000000e+00" cType="1" res="3.1209585722535849e-03" rms="4.5237076282501221e-01" purity="5.9585094451904297e-01" nType="-99"/>
        </Node>
        <Node pos="r" depth="1" NCoef="0" IVar="0" Cut="5.3136682510375977e+00" cType="1" res="-7.5437645427882671e-03" rms="4.5556867122650146e-01" purity="4.8390355706214905e-01" nType="0">
          <Node pos="l" depth="2" NCoef="0" IVar="-1" Cut="0.0000000000000000e+00" cType="1" res="-6.6083180718123913e-04" rms="4.5996811985969543e-01" purity="4.6144944429397583e-01" nType="-99"/>
          <Node pos="r" depth="2" NCoef="0" IVar="-1" Cut="0.0000000000000000e+00" cType="1" res="3.0915071256458759e-03" rms="3.8320252299308777e-01" purity="8.0849742889404297e-01" nType="-99"/>
        </Node>
      </Node>
    </BinaryTree>
    <BinaryTree type="DecisionTree" boostWeight="1.0000000000000000e+00" itree="298">
      <Node pos="s" depth="0" NCoef="0" IVar="9" Cut="8.3086431026458740e-01" cType="1" res="-6.3868932193145156e-04" rms="4.5482739806175232e-01" purity="4.9828407168388367e-01" nType="0">
        <Node pos="l" depth="1" NCoef="0" IVar="5" Cut="9.8748636245727539e-01" cType="1" res="6.3097020611166954e-03" rms="4.5513302087783813e-01" purity="5.2436327934265137e-01" nType="0">
          <Node pos="l" depth="2" NCoef="0" IVar="-1" Cut="0.0000000000000000e+00" cType="1" res="1.4479433593805879e-04" rms="4.6129652857780457e-01" purity="4.9768635630607605e-01" nType="-99"/>
          <Node pos="r" depth="2" NCoef="0" IVar="-1" Cut="0.0000000000000000e+00" cType="1" res="3.5010438878089190e-03" rms="3.8232916593551636e-01" purity="8.0366182327270508e-01" nType="-99"/>
        </Node>
        <Node pos="r" depth="1" NCoef="0" IVar="4" Cut="3.1259009242057800e-01" cType="1" res="-3.1333275139331818e-02" rms="4.5219901204109192e-01" purity="3.8307896256446838e-01" nType="0">
          <Node pos="l" depth="2" NCoef="0" IVar="-1" Cut="0.0000000000000000e+00" cType="1" res="-6.5316952532157302e-04" rms="4.4802981615066528e-01" purity="3.6977079510688782e-01" nType="-99"/>
          <Node pos="r" depth="2" NCoef="0" IVar="-1" Cut="0.0000000000000000e+00" cType="1" res="-3.3010898623615503e-03" rms="4.5547252893447876e-01" purity="3.9703309535980225e-01" nType="-99"/>
        </Node>
      </Node>
    </BinaryTree>
    <BinaryTree type="DecisionTree" boostWeight="1.0000000000000000e+00" itree="299">
      <Node pos="s" depth="0" NCoef="0" IVar="5" Cut="9.8763203620910645e-01" cType="1" res="-5.2518123993650079e-04" rms="4.5613849163055420e-01" purity="5.0173151493072510e-01" nType="0">
        <Node pos="l" depth="1" NCoef="0" IVar="2" Cut="1.5395980834960938e+02" cType="1" res="-4.1341930627822876e-03" rms="4.6122342348098755e-01" purity="4.7588443756103516e-01" nType="0">
          <Node pos="l" depth="2" NCoef="0" IVar="-1" Cut="0.0000000000000000e+00" cType="1" res="-5.3821172332391143e-04" rms="4.6130135655403137e-01" purity="4.7031328082084656e-01" nType="-99"/>
          <Node pos="r" depth="2" NCoef="0" IVar="-1" Cut="0.0000000000000000e+00" cType="1" res="1.4463645638898015e-03" rms="4.5980748534202576e-01" purity="5.0831365585327148e-01" nType="-99"/>
        </Node>
        <Node pos="r" depth="1" NCoef="0" IVar="-1" Cut="0.0000000000000000e+00" cType="1" res="2.8153113089501858e-03" rms="3.9485454559326172e-01" purity="7.8147071599960327e-01" nType="-99"/>
      </Node>
    </BinaryTree>
    <BinaryTree type="DecisionTree" boostWeight="1.0000000000000000e+00" itree="300">
      <Node pos="s" depth="0" NCoef="0" IVar="0" Cut="3.6566979885101318e+00" cType="1" res="7.4026454240083694e-03" rms="4.5595356822013855e-01" purity="5.0753098726272583e-01" nType="0">
        <Node pos="l" depth="1" NCoef="0" IVar="6" Cut="1.6713186502456665e+00" cType="1" res="-8.1654149107635021e-04" rms="4.6417325735092163e-01" purity="4.2272710800170898e-01" nType="0">
          <Node pos="l" depth="2" NCoef="0" IVar="-1" Cut="0.0000000000000000e+00" cType="1" res="2.4773138575255871e-03" rms="4.6717685461044312e-01" purity="5.5252480506896973e-01" nType="-99"/>
          <Node pos="r" depth="2" NCoef="0" IVar="-1" Cut="0.0000000000000000e+00" cType="1" res="-4.2423320701345801e-04" rms="4.6342277526855469e-01" purity="4.0477573871612549e-01" nType="-99"/>
        </Node>
        <Node pos="r" depth="1" NCoef="0" IVar="7" Cut="7.1925315856933594e+01" cType="1" res="2.6356024667620659e-02" rms="4.3581882119178772e-01" purity="7.0308792591094971e-01" nType="0">
          <Node pos="l" depth="2" NCoef="0" IVar="-1" Cut="0.0000000000000000e+00" cType="1" res="2.4459874257445335e-03" rms="4.4794440269470215e-01" purity="6.6819834709167480e-01" nType="-99"/>
          <Node pos="r" depth="2" NCoef="0" IVar="-1" Cut="0.0000000000000000e+00" cType="1" res="7.2100944817066193e-04" rms="4.2214989662170410e-01" purity="7.3968070745468140e-01" nType="-99"/>
        </Node>
      </Node>
    </BinaryTree>
    <BinaryTree type="DecisionTree" boostWeight="1.0000000000000000e+00" itree="301">
      <Node pos="s" depth="0" NCoef="0" IVar="3" Cut="-6.7394867539405823e-02" cType="1" res="-1.5128112863749266e-03" rms="4.5232537388801575e-01" purity="4.9730682373046875e-01" nType="0">
        <Node pos="l" depth="1" NCoef="0" IVar="-1" Cut="0.0000000000000000e+00" cType="1" res="3.7257985677570105e-03" rms="4.3962252140045166e-01" purity="6.2879157066345215e-01" nType="-99"/>
        <Node pos="r" depth="1" NCoef="0" IVar="7" Cut="4.1631557464599609e+01" cType="1" res="-6.1518950387835503e-03" rms="4.5291143655776978e-01" purity="4.8753878474235535e-01" nType="0">
          <Node pos="l" depth="2" NCoef="0" IVar="-1" Cut="0.0000000000000000e+00" cType="1" res="-4.6685934066772461e-03" rms="4.1007107496261597e-01" purity="2.6567637920379639e-01" nType="-99"/>
          <Node pos="r" depth="2" NCoef="0" IVar="-1" Cut="0.0000000000000000e+00" cType="1" res="-1.5949511725921184e-04" rms="4.5497569441795349e-01" purity="5.0018870830535889e-01" nType="-99"/>
        </Node>
      </Node>
    </BinaryTree>
    <BinaryTree type="DecisionTree" boostWeight="1.0000000000000000e+00" itree="302">
      <Node pos="s" depth="0" NCoef="0" IVar="4" Cut="1.3928131759166718e-01" cType="1" res="-3.5821509081870317e-03" rms="4.5735570788383484e-01" purity="4.9400511384010315e-01" nType="0">
        <Node pos="l" depth="1" NCoef="0" IVar="-1" Cut="0.0000000000000000e+00" cType="1" res="-3.0177158769220114e-03" rms="4.5339599251747131e-01" purity="3.6126181483268738e-01" nType="-99"/>
        <Node pos="r" depth="1" NCoef="0" IVar="0" Cut="1.4288102388381958e+00" cType="1" res="7.3480344144627452e-04" rms="4.5750951766967773e-01" purity="5.0692099332809448e-01" nType="0">
          <Node pos="l" depth="2" NCoef="0" IVar="-1" Cut="0.0000000000000000e+00" cType="1" res="-1.6321206931024790e-03" rms="4.3408253788948059e-01" purity="2.9109287261962891e-01" nType="-99"/>
          <Node pos="r" depth="2" NCoef="0" IVar="-1" Cut="0.0000000000000000e+00" cType="1" res="3.1478764140047133e-04" rms="4.6152800321578979e-01" purity="5.4642415046691895e-01" nType="-99"/>
        </Node>
      </Node>
    </BinaryTree>
    <BinaryTree type="DecisionTree" boostWeight="1.0000000000000000e+00" itree="303">
      <Node pos="s" depth="0" NCoef="0" IVar="4" Cut="1.1469846218824387e-01" cType="1" res="7.4853841215372086e-03" rms="4.5331233739852905e-01" purity="5.0580692291259766e-01" nType="0">
        <Node pos="l" depth="1" NCoef="0" IVar="-1" Cut="0.0000000000000000e+00" cType="1" res="-3.2832382712513208e-03" rms="4.4761011004447937e-01" purity="3.4596624970436096e-01" nType="-99"/>
        <Node pos="r" depth="1" NCoef="0" IVar="1" Cut="3.8199645996093750e+02" cType="1" res="1.1165715754032135e-02" rms="4.5340609550476074e-01" purity="5.1568961143493652e-01" nType="0">
          <Node pos="l" depth="2" NCoef="0" IVar="-1" Cut="0.0000000000000000e+00" cType="1" res="-2.1793607156723738e-03" rms="4.2284384369850159e-01" purity="3.0214056372642517e-01" nType="-99"/>
          <Node pos="r" depth="2" NCoef="0" IVar="-1" Cut="0.0000000000000000e+00" cType="1" res="9.7886810544878244e-04" rms="4.5653590559959412e-01" purity="5.4031842947006226e-01" nType="-99"/>
        </Node>
      </Node>
    </BinaryTree>
    <BinaryTree type="DecisionTree" boostWeight="1.0000000000000000e+00" itree="304">
      <Node pos="s" depth="0" NCoef="0" IVar="6" Cut="2.7160840034484863e+00" cType="1" res="-8.8634155690670013e-03" rms="4.5452344417572021e-01" purity="4.9116444587707520e-01" nType="0">
        <Node pos="l" depth="1" NCoef="0" IVar="5" Cut="9.8356789350509644e-01" cType="1" res="-4.4695334509015083e-03" rms="4.5881336927413940e-01" purity="5.1864033937454224e-01" nType="0">
          <Node pos="l" depth="2" NCoef="0" IVar="-1" Cut="0.0000000000000000e+00" cType="1" res="-5.7908211601898074e-04" rms="4.6579241752624512e-01" purity="4.8238077759742737e-01" nType="-99"/>
          <Node pos="r" depth="2" NCoef="0" IVar="-1" Cut="0.0000000000000000e+00" cType="1" res="2.4566268548369408e-03" rms="4.0296530723571777e-01" purity="7.7979475259780884e-01" nType="-99"/>
        </Node>
        <Node pos="r" depth="1" NCoef="0" IVar="-1" Cut="0.0000000000000000e+00" cType="1" res="-3.4547108225524426e-03" rms="4.1106316447257996e-01" purity="2.3992305994033813e-01" nType="-99"/>
      </Node>
    </BinaryTree>
    <BinaryTree type="DecisionTree" boostWeight="1.0000000000000000e+00" itree="305">
      <Node pos="s" depth="0" NCoef="0" IVar="4" Cut="1.1595585942268372e-01" cType="1" res="-1.6348470235243440e-03" rms="4.5575249195098877e-01" purity="4.9640849232673645e-01" nType="0">
        <Node pos="l" depth="1" NCoef="0" IVar="-1" Cut="0.0000000000000000e+00" cType="1" res="-3.6993792746216059e-03" rms="4.4777971506118774e-01" purity="3.3656704425811768e-01" nType="-99"/>
        <Node pos="r" depth="1" NCoef="0" IVar="6" Cut="1.6385518312454224e+00" cType="1" res="1.9032242707908154e-03" rms="4.5601758360862732e-01" purity="5.0646460056304932e-01" nType="0">
          <Node pos="l" depth="2" NCoef="0" IVar="-1" Cut="0.0000000000000000e+00" cType="1" res="2.6903529651463032e-03" rms="4.4899484515190125e-01" purity="6.3506245613098145e-01" nType="-99"/>
          <Node pos="r" depth="2" NCoef="0" IVar="-1" Cut="0.0000000000000000e+00" cType="1" res="-2.0146106544416398e-04" rms="4.5659339427947998e-01" purity="4.9082860350608826e-01" nType="-99"/>
        </Node>
      </Node>
    </BinaryTree>
    <BinaryTree type="DecisionTree" boostWeight="1.0000000000000000e+00" itree="306">
      <Node pos="s" depth="0" NCoef="0" IVar="8" Cut="9.2866671085357666e-01" cType="1" res="5.5452305823564529e-03" rms="4.5571428537368774e-01" purity="5.0438320636749268e-01" nType="0">
        <Node pos="l" depth="1" NCoef="0" IVar="0" Cut="2.5376815795898438e+00" cType="1" res="1.9759705290198326e-02" rms="4.5375058054924011e-01" purity="5.5702996253967285e-01" nType="0">
          <Node pos="l" depth="2" NCoef="0" IVar="-1" Cut="0.0000000000000000e+00" cType="1" res="5.4436033678939566e-05" rms="4.6727266907691956e-01" purity="3.9332962036132812e-01" nType="-99"/>
          <Node pos="r" depth="2" NCoef="0" IVar="-1" Cut="0.0000000000000000e+00" cType="1" res="2.0877697970718145e-03" rms="4.4283917546272278e-01" purity="6.7950010299682617e-01" nType="-99"/>
        </Node>
        <Node pos="r" depth="1" NCoef="0" IVar="2" Cut="9.6705093383789062e+01" cType="1" res="-3.1783771701157093e-03" rms="4.5669627189636230e-01" purity="4.7207328677177429e-01" nType="0">
          <Node pos="l" depth="2" NCoef="0" IVar="-1" Cut="0.0000000000000000e+00" cType="1" res="-9.4546773470938206e-04" rms="4.5530080795288086e-01" purity="4.4682484865188599e-01" nType="-99"/>
          <Node pos="r" depth="2" NCoef="0" IVar="-1" Cut="0.0000000000000000e+00" cType="1" res="5.8207724941894412e-04" rms="4.5779731869697571e-01" purity="4.9817854166030884e-01" nType="-99"/>
        </Node>
      </Node>
    </BinaryTree>
    <BinaryTree type="DecisionTree" boostWeight="1.0000000000000000e+00" itree="307">
      <Node pos="s" depth="0" NCoef="0" IVar="6" Cut="1.6997977495193481e+00" cType="1" res="-2.1464342717081308e-03" rms="4.5683258771896362e-01" purity="4.9701809883117676e-01" nType="0">
        <Node pos="l" depth="1" NCoef="0" IVar="2" Cut="6.9058731079101562e+01" cType="1" res="3.8576070219278336e-02" rms="4.4733875989913940e-01" purity="6.2445008754730225e-01" nType="0">
          <Node pos="l" depth="2" NCoef="0" IVar="-1" Cut="0.0000000000000000e+00" cType="1" res="1.1752030113711953e-03" rms="4.5729047060012817e-01" purity="5.6809073686599731e-01" nType="-99"/>
          <Node pos="r" depth="2" NCoef="0" IVar="-1" Cut="0.0000000000000000e+00" cType="1" res="3.7538029719144106e-03" rms="4.3407839536666870e-01" purity="6.9167482852935791e-01" nType="-99"/>
        </Node>
        <Node pos="r" depth="1" NCoef="0" IVar="4" Cut="6.5786325931549072e-01" cType="1" res="-8.2590607926249504e-03" rms="4.5792818069458008e-01" purity="4.7789001464843750e-01" nType="0">
          <Node pos="l" depth="2" NCoef="0" IVar="-1" Cut="0.0000000000000000e+00" cType="1" res="-7.6465134043246508e-04" rms="4.5778954029083252e-01" purity="4.6740144491195679e-01" nType="-99"/>
          <Node pos="r" depth="2" NCoef="0" IVar="-1" Cut="0.0000000000000000e+00" cType="1" res="1.7380962381139398e-03" rms="4.5755788683891296e-01" purity="5.7037156820297241e-01" nType="-99"/>
        </Node>
      </Node>
    </BinaryTree>
    <BinaryTree type="DecisionTree" boostWeight="1.0000000000000000e+00" itree="308">
      <Node pos="s" depth="0" NCoef="0" IVar="4" Cut="1.4013613760471344e-01" cType="1" res="2.3077651858329773e-03" rms="4.5641809701919556e-01" purity="5.0301039218902588e-01" nType="0">
        <Node pos="l" depth="1" NCoef="0" IVar="-1" Cut="0.0000000000000000e+00" cType="1" res="-3.0466862954199314e-03" rms="4.4746363162994385e-01" purity="3.5484382510185242e-01" nType="-99"/>
        <Node pos="r" depth="1" NCoef="0" IVar="3" Cut="-4.9725364893674850e-02" cType="1" res="6.8877921439707279e-03" rms="4.5694676041603088e-01" purity="5.1646286249160767e-01" nType="0">
          <Node pos="l" depth="2" NCoef="0" IVar="-1" Cut="0.0000000000000000e+00" cType="1" res="2.1310604643076658e-03" rms="4.4927489757537842e-01" purity="5.9240639209747314e-01" nType="-99"/>
          <Node pos="r" depth="2" NCoef="0" IVar="-1" Cut="0.0000000000000000e+00" cType="1" res="1.4177065168041736e-04" rms="4.5803898572921753e-01" purity="5.0393182039260864e-01" nType="-99"/>
        </Node>
      </Node>
    </BinaryTree>
    <BinaryTree type="DecisionTree" boostWeight="1.0000000000000000e+00" itree="309">
      <Node pos="s" depth="0" NCoef="0" IVar="6" Cut="1.4722890853881836e+00" cType="1" res="-2.8533057775348425e-04" rms="4.5265445113182068e-01" purity="4.9888494610786438e-01" nType="0">
        <Node pos="l" depth="1" NCoef="0" IVar="-1" Cut="0.0000000000000000e+00" cType="1" res="3.4112257417291403e-03" rms="4.5047897100448608e-01" purity="6.4443653821945190e-01" nType="-99"/>
        <Node pos="r" depth="1" NCoef="0" IVar="5" Cut="9.8748910427093506e-01" cType="1" res="-4.1477209888398647e-03" rms="4.5254516601562500e-01" purity="4.8893725872039795e-01" nType="0">
          <Node pos="l" depth="2" NCoef="0" IVar="-1" Cut="0.0000000000000000e+00" cType="1" res="-5.1445991266518831e-04" rms="4.5695900917053223e-01" purity="4.6254521608352661e-01" nType="-99"/>
          <Node pos="r" depth="2" NCoef="0" IVar="-1" Cut="0.0000000000000000e+00" cType="1" res="3.1562261283397675e-03" rms="3.9747864007949829e-01" purity="7.8044652938842773e-01" nType="-99"/>
        </Node>
      </Node>
    </BinaryTree>
    <BinaryTree type="DecisionTree" boostWeight="1.0000000000000000e+00" itree="310">
      <Node pos="s" depth="0" NCoef="0" IVar="2" Cut="1.0479605865478516e+02" cType="1" res="5.1842089742422104e-03" rms="4.5543885231018066e-01" purity="5.0377470254898071e-01" nType="0">
        <Node pos="l" depth="1" NCoef="0" IVar="5" Cut="9.2262065410614014e-01" cType="1" res="-4.4260388240218163e-03" rms="4.5888432860374451e-01" purity="4.7793772816658020e-01" nType="0">
          <Node pos="l" depth="2" NCoef="0" IVar="-1" Cut="0.0000000000000000e+00" cType="1" res="-2.8889125678688288e-03" rms="4.2469263076782227e-01" purity="2.6543307304382324e-01" nType="-99"/>
          <Node pos="r" depth="2" NCoef="0" IVar="-1" Cut="0.0000000000000000e+00" cType="1" res="1.6342177696060389e-04" rms="4.6421125531196594e-01" purity="5.1493471860885620e-01" nType="-99"/>
        </Node>
        <Node pos="r" depth="1" NCoef="0" IVar="1" Cut="5.3767034912109375e+02" cType="1" res="1.6934150829911232e-02" rms="4.5091226696968079e-01" purity="5.3536421060562134e-01" nType="0">
          <Node pos="l" depth="2" NCoef="0" IVar="-1" Cut="0.0000000000000000e+00" cType="1" res="-3.6946640466339886e-04" rms="4.4923594594001770e-01" purity="4.1260522603988647e-01" nType="-99"/>
          <Node pos="r" depth="2" NCoef="0" IVar="-1" Cut="0.0000000000000000e+00" cType="1" res="1.8859932897612453e-03" rms="4.5136493444442749e-01" purity="6.0904067754745483e-01" nType="-99"/>
        </Node>
      </Node>
    </BinaryTree>
    <BinaryTree type="DecisionTree" boostWeight="1.0000000000000000e+00" itree="311">
      <Node pos="s" depth="0" NCoef="0" IVar="5" Cut="9.2168939113616943e-01" cType="1" res="7.7962595969438553e-03" rms="4.5600455999374390e-01" purity="5.0606852769851685e-01" nType="0">
        <Node pos="l" depth="1" NCoef="0" IVar="6" Cut="2.1404967308044434e+00" cType="1" res="-2.3772183805704117e-02" rms="4.4157943129539490e-01" purity="3.0596882104873657e-01" nType="0">
          <Node pos="l" depth="2" NCoef="0" IVar="-1" Cut="0.0000000000000000e+00" cType="1" res="-2.7920601423829794e-03" rms="4.4730219244956970e-01" purity="3.3080697059631348e-01" nType="-99"/>
          <Node pos="r" depth="2" NCoef="0" IVar="-1" Cut="0.0000000000000000e+00" cType="1" res="-5.3340371232479811e-04" rms="4.3719443678855896e-01" purity="2.9024901986122131e-01" nType="-99"/>
        </Node>
        <Node pos="r" depth="1" NCoef="0" IVar="3" Cut="-5.1950082182884216e-02" cType="1" res="1.2772388756275177e-02" rms="4.5803850889205933e-01" purity="5.3761017322540283e-01" nType="0">
          <Node pos="l" depth="2" NCoef="0" IVar="-1" Cut="0.0000000000000000e+00" cType="1" res="2.7153680566698313e-03" rms="4.4713371992111206e-01" purity="6.2274497747421265e-01" nType="-99"/>
          <Node pos="r" depth="2" NCoef="0" IVar="-1" Cut="0.0000000000000000e+00" cType="1" res="5.0613656640052795e-04" rms="4.5940613746643066e-01" purity="5.2537763118743896e-01" nType="-99"/>
        </Node>
      </Node>
    </BinaryTree>
    <BinaryTree type="DecisionTree" boostWeight="1.0000000000000000e+00" itree="312">
      <Node pos="s" depth="0" NCoef="0" IVar="0" Cut="2.3101823329925537e+00" cType="1" res="-5.6176737416535616e-04" rms="4.5400270819664001e-01" purity="4.9969553947448730e-01" nType="0">
        <Node pos="l" depth="1" NCoef="0" IVar="5" Cut="9.5747613906860352e-01" cType="1" res="-1.5571203082799911e-02" rms="4.4791674613952637e-01" purity="3.3220273256301880e-01" nType="0">
          <Node pos="l" depth="2" NCoef="0" IVar="-1" Cut="0.0000000000000000e+00" cType="1" res="-1.4590754872187972e-03" rms="4.4213029742240906e-01" purity="3.0436581373214722e-01" nType="-99"/>
          <Node pos="r" depth="2" NCoef="0" IVar="-1" Cut="0.0000000000000000e+00" cType="1" res="1.1469776509329677e-03" rms="4.7518771886825562e-01" purity="4.7587534785270691e-01" nType="-99"/>
        </Node>
        <Node pos="r" depth="1" NCoef="0" IVar="2" Cut="9.7925590515136719e+01" cType="1" res="8.5214301943778992e-03" rms="4.5740729570388794e-01" purity="6.0105639696121216e-01" nType="0">
          <Node pos="l" depth="2" NCoef="0" IVar="-1" Cut="0.0000000000000000e+00" cType="1" res="-3.5234238021075726e-04" rms="4.6356669068336487e-01" purity="5.7388716936111450e-01" nType="-99"/>
          <Node pos="r" depth="2" NCoef="0" IVar="-1" Cut="0.0000000000000000e+00" cType="1" res="1.3797273859381676e-03" rms="4.5102077722549438e-01" purity="6.2695944309234619e-01" nType="-99"/>
        </Node>
      </Node>
    </BinaryTree>
    <BinaryTree type="DecisionTree" boostWeight="1.0000000000000000e+00" itree="313">
      <Node pos="s" depth="0" NCoef="0" IVar="0" Cut="1.3069972991943359e+00" cType="1" res="4.5826528221368790e-03" rms="4.5469644665718079e-01" purity="5.0568103790283203e-01" nType="0">
        <Node pos="l" depth="1" NCoef="0" IVar="5" Cut="9.2333394289016724e-01" cType="1" res="-2.8542900457978249e-02" rms="4.3170705437660217e-01" purity="2.7653989195823669e-01" nType="0">
          <Node pos="l" depth="2" NCoef="0" IVar="-1" Cut="0.0000000000000000e+00" cType="1" res="-3.6453360226005316e-03" rms="3.9763060212135315e-01" purity="2.1393652260303497e-01" nType="-99"/>
          <Node pos="r" depth="2" NCoef="0" IVar="-1" Cut="0.0000000000000000e+00" cType="1" res="-7.4012274853885174e-04" rms="4.5708769559860229e-01" purity="3.2804089784622192e-01" nType="-99"/>
        </Node>
        <Node pos="r" depth="1" NCoef="0" IVar="3" Cut="-6.8995736539363861e-02" cType="1" res="9.2970309779047966e-03" rms="4.5767959952354431e-01" purity="5.3829210996627808e-01" nType="0">
          <Node pos="l" depth="2" NCoef="0" IVar="-1" Cut="0.0000000000000000e+00" cType="1" res="3.1927672680467367e-03" rms="4.4558945298194885e-01" purity="6.5185153484344482e-01" nType="-99"/>
          <Node pos="r" depth="2" NCoef="0" IVar="-1" Cut="0.0000000000000000e+00" cType="1" res="4.0430677472613752e-04" rms="4.5828828215599060e-01" purity="5.3126800060272217e-01" nType="-99"/>
        </Node>
      </Node>
    </BinaryTree>
    <BinaryTree type="DecisionTree" boostWeight="1.0000000000000000e+00" itree="314">
      <Node pos="s" depth="0" NCoef="0" IVar="0" Cut="1.5441365242004395e+00" cType="1" res="5.3210225887596607e-03" rms="4.5510807633399963e-01" purity="5.0504904985427856e-01" nType="0">
        <Node pos="l" depth="1" NCoef="0" IVar="5" Cut="9.4290536642074585e-01" cType="1" res="-1.8759958446025848e-02" rms="4.4057661294937134e-01" purity="2.9840716719627380e-01" nType="0">
          <Node pos="l" depth="2" NCoef="0" IVar="-1" Cut="0.0000000000000000e+00" cType="1" res="-4.8662332119420171e-04" rms="4.3321594595909119e-01" purity="2.8110107779502869e-01" nType="-99"/>
          <Node pos="r" depth="2" NCoef="0" IVar="-1" Cut="0.0000000000000000e+00" cType="1" res="-2.9671061784029007e-03" rms="4.5607295632362366e-01" purity="3.3873414993286133e-01" nType="-99"/>
        </Node>
        <Node pos="r" depth="1" NCoef="0" IVar="8" Cut="1.4457446336746216e+00" cType="1" res="1.0681069456040859e-02" rms="4.5810765027999878e-01" purity="5.5104434490203857e-01" nType="0">
          <Node pos="l" depth="2" NCoef="0" IVar="-1" Cut="0.0000000000000000e+00" cType="1" res="1.0407378431409597e-03" rms="4.5858752727508545e-01" purity="5.7123720645904541e-01" nType="-99"/>
          <Node pos="r" depth="2" NCoef="0" IVar="-1" Cut="0.0000000000000000e+00" cType="1" res="-9.5054134726524353e-04" rms="4.5523107051849365e-01" purity="4.7047525644302368e-01" nType="-99"/>
        </Node>
      </Node>
    </BinaryTree>
    <BinaryTree type="DecisionTree" boostWeight="1.0000000000000000e+00" itree="315">
      <Node pos="s" depth="0" NCoef="0" IVar="6" Cut="2.8378889560699463e+00" cType="1" res="2.3547604214400053e-03" rms="4.5696535706520081e-01" purity="5.0501918792724609e-01" nType="0">
        <Node pos="l" depth="1" NCoef="0" IVar="2" Cut="9.0626800537109375e+01" cType="1" res="5.5208536796271801e-03" rms="4.6031653881072998e-01" purity="5.2435827255249023e-01" nType="0">
          <Node pos="l" depth="2" NCoef="0" IVar="-1" Cut="0.0000000000000000e+00" cType="1" res="-5.0185126019641757e-04" rms="4.6325933933258057e-01" purity="4.7748386859893799e-01" nType="-99"/>
          <Node pos="r" depth="2" NCoef="0" IVar="-1" Cut="0.0000000000000000e+00" cType="1" res="9.9925883114337921e-04" rms="4.5770442485809326e-01" purity="5.6112074851989746e-01" nType="-99"/>
        </Node>
        <Node pos="r" depth="1" NCoef="0" IVar="-1" Cut="0.0000000000000000e+00" cType="1" res="-3.1467434018850327e-03" rms="4.0317380428314209e-01" purity="2.2779925167560577e-01" nType="-99"/>
      </Node>
    </BinaryTree>
    <BinaryTree type="DecisionTree" boostWeight="1.0000000000000000e+00" itree="316">
      <Node pos="s" depth="0" NCoef="0" IVar="8" Cut="1.5218569040298462e+00" cType="1" res="-2.4086177290882915e-04" rms="4.5297113060951233e-01" purity="5.0127327442169189e-01" nType="0">
        <Node pos="l" depth="1" NCoef="0" IVar="0" Cut="1.5101981163024902e+00" cType="1" res="5.9032384306192398e-03" rms="4.5440536737442017e-01" purity="5.2017402648925781e-01" nType="0">
          <Node pos="l" depth="2" NCoef="0" IVar="-1" Cut="0.0000000000000000e+00" cType="1" res="-1.3963327510282397e-03" rms="4.3901944160461426e-01" purity="2.9854407906532288e-01" nType="-99"/>
          <Node pos="r" depth="2" NCoef="0" IVar="-1" Cut="0.0000000000000000e+00" cType="1" res="6.7487376509234309e-04" rms="4.5723673701286316e-01" purity="5.6447327136993408e-01" nType="-99"/>
        </Node>
        <Node pos="r" depth="1" NCoef="0" IVar="4" Cut="4.6607446670532227e-01" cType="1" res="-3.2092534005641937e-02" rms="4.4410136342048645e-01" purity="4.0328967571258545e-01" nType="0">
          <Node pos="l" depth="2" NCoef="0" IVar="-1" Cut="0.0000000000000000e+00" cType="1" res="-3.0594875570386648e-03" rms="4.4063082337379456e-01" purity="3.5681501030921936e-01" nType="-99"/>
          <Node pos="r" depth="2" NCoef="0" IVar="-1" Cut="0.0000000000000000e+00" cType="1" res="-2.5339410058222711e-04" rms="4.4880807399749756e-01" purity="4.8544800281524658e-01" nType="-99"/>
        </Node>
      </Node>
    </BinaryTree>
    <BinaryTree type="DecisionTree" boostWeight="1.0000000000000000e+00" itree="317">
      <Node pos="s" depth="0" NCoef="0" IVar="5" Cut="9.8764163255691528e-01" cType="1" res="1.4628248754888773e-03" rms="4.5519945025444031e-01" purity="5.0147062540054321e-01" nType="0">
        <Node pos="l" depth="1" NCoef="0" IVar="7" Cut="5.9335208892822266e+01" cType="1" res="-1.7413169844076037e-03" rms="4.6012145280838013e-01" purity="4.7642004489898682e-01" nType="0">
          <Node pos="l" depth="2" NCoef="0" IVar="-1" Cut="0.0000000000000000e+00" cType="1" res="-9.3489018036052585e-04" rms="4.5019149780273438e-01" purity="3.7330657243728638e-01" nType="-99"/>
          <Node pos="r" depth="2" NCoef="0" IVar="-1" Cut="0.0000000000000000e+00" cType="1" res="3.3483860897831619e-04" rms="4.6541666984558105e-01" purity="5.3403908014297485e-01" nType="-99"/>
        </Node>
        <Node pos="r" depth="1" NCoef="0" IVar="-1" Cut="0.0000000000000000e+00" cType="1" res="2.7644806541502476e-03" rms="3.9389652013778687e-01" purity="7.8304535150527954e-01" nType="-99"/>
      </Node>
    </BinaryTree>
    <BinaryTree type="DecisionTree" boostWeight="1.0000000000000000e+00" itree="318">
      <Node pos="s" depth="0" NCoef="0" IVar="1" Cut="9.1333135986328125e+02" cType="1" res="-9.7024384886026382e-03" rms="4.5456370711326599e-01" purity="4.8838713765144348e-01" nType="0">
        <Node pos="l" depth="1" NCoef="0" IVar="0" Cut="5.0936603546142578e+00" cType="1" res="-1.3136595487594604e-02" rms="4.5518097281455994e-01" purity="4.7541636228561401e-01" nType="0">
          <Node pos="l" depth="2" NCoef="0" IVar="-1" Cut="0.0000000000000000e+00" cType="1" res="-9.9937804043292999e-04" rms="4.5963084697723389e-01" purity="4.4873380661010742e-01" nType="-99"/>
          <Node pos="r" depth="2" NCoef="0" IVar="-1" Cut="0.0000000000000000e+00" cType="1" res="1.7745777731761336e-03" rms="3.9875191450119019e-01" purity="7.8130143880844116e-01" nType="-99"/>
        </Node>
        <Node pos="r" depth="1" NCoef="0" IVar="-1" Cut="0.0000000000000000e+00" cType="1" res="2.2620370145887136e-03" rms="4.4377982616424561e-01" purity="6.6054934263229370e-01" nType="-99"/>
      </Node>
    </BinaryTree>
    <BinaryTree type="DecisionTree" boostWeight="1.0000000000000000e+00" itree="319">
      <Node pos="s" depth="0" NCoef="0" IVar="6" Cut="1.6391808986663818e+00" cType="1" res="-2.2739612031728029e-03" rms="4.5297321677207947e-01" purity="4.9797055125236511e-01" nType="0">
        <Node pos="l" depth="1" NCoef="0" IVar="1" Cut="5.6607305908203125e+02" cType="1" res="3.2123334705829620e-02" rms="4.4870948791503906e-01" purity="6.2098634243011475e-01" nType="0">
          <Node pos="l" depth="2" NCoef="0" IVar="-1" Cut="0.0000000000000000e+00" cType="1" res="6.6238579165656120e-05" rms="4.7144085168838501e-01" purity="5.2111375331878662e-01" nType="-99"/>
          <Node pos="r" depth="2" NCoef="0" IVar="-1" Cut="0.0000000000000000e+00" cType="1" res="4.1974452324211597e-03" rms="4.1944375634193420e-01" purity="7.3159366846084595e-01" nType="-99"/>
        </Node>
        <Node pos="r" depth="1" NCoef="0" IVar="2" Cut="8.4204696655273438e+01" cType="1" res="-6.6647315397858620e-03" rms="4.5332679152488708e-01" purity="4.8226776719093323e-01" nType="0">
          <Node pos="l" depth="2" NCoef="0" IVar="-1" Cut="0.0000000000000000e+00" cType="1" res="-1.6585245030000806e-03" rms="4.5100820064544678e-01" purity="4.3243449926376343e-01" nType="-99"/>
          <Node pos="r" depth="2" NCoef="0" IVar="-1" Cut="0.0000000000000000e+00" cType="1" res="2.2588840511161834e-04" rms="4.5414996147155762e-01" purity="5.0751739740371704e-01" nType="-99"/>
        </Node>
      </Node>
    </BinaryTree>
    <BinaryTree type="DecisionTree" boostWeight="1.0000000000000000e+00" itree="320">
      <Node pos="s" depth="0" NCoef="0" IVar="8" Cut="1.5613261461257935e+00" cType="1" res="4.2652641423046589e-03" rms="4.5750981569290161e-01" purity="5.0064635276794434e-01" nType="0">
        <Node pos="l" depth="1" NCoef="0" IVar="3" Cut="1.6528366506099701e-01" cType="1" res="1.0456158779561520e-02" rms="4.5968839526176453e-01" purity="5.1807969808578491e-01" nType="0">
          <Node pos="l" depth="2" NCoef="0" IVar="-1" Cut="0.0000000000000000e+00" cType="1" res="4.4984984560869634e-04" rms="4.5910739898681641e-01" purity="5.2100431919097900e-01" nType="-99"/>
          <Node pos="r" depth="2" NCoef="0" IVar="-1" Cut="0.0000000000000000e+00" cType="1" res="3.1463361810892820e-03" rms="4.6517002582550049e-01" purity="4.8093169927597046e-01" nType="-99"/>
        </Node>
        <Node pos="r" depth="1" NCoef="0" IVar="3" Cut="4.4935911893844604e-02" cType="1" res="-3.1621754169464111e-02" rms="4.4296973943710327e-01" purity="3.9958989620208740e-01" nType="0">
          <Node pos="l" depth="2" NCoef="0" IVar="-1" Cut="0.0000000000000000e+00" cType="1" res="-4.8937980318441987e-04" rms="4.4960382580757141e-01" purity="4.5036900043487549e-01" nType="-99"/>
          <Node pos="r" depth="2" NCoef="0" IVar="-1" Cut="0.0000000000000000e+00" cType="1" res="-3.7528511602431536e-03" rms="4.3413108587265015e-01" purity="3.4408473968505859e-01" nType="-99"/>
        </Node>
      </Node>
    </BinaryTree>
    <BinaryTree type="DecisionTree" boostWeight="1.0000000000000000e+00" itree="321">
      <Node pos="s" depth="0" NCoef="0" IVar="1" Cut="7.3752093505859375e+02" cType="1" res="-4.1850260458886623e-03" rms="4.5377951860427856e-01" purity="4.9705290794372559e-01" nType="0">
        <Node pos="l" depth="1" NCoef="0" IVar="5" Cut="9.1064041852951050e-01" cType="1" res="-1.1581994593143463e-02" rms="4.5436751842498779e-01" purity="4.6911311149597168e-01" nType="0">
          <Node pos="l" depth="2" NCoef="0" IVar="-1" Cut="0.0000000000000000e+00" cType="1" res="-4.4514578767120838e-03" rms="3.9268618822097778e-01" purity="2.2047689557075500e-01" nType="-99"/>
          <Node pos="r" depth="2" NCoef="0" IVar="-1" Cut="0.0000000000000000e+00" cType="1" res="-4.5618938747793436e-04" rms="4.5839747786521912e-01" purity="4.8780345916748047e-01" nType="-99"/>
        </Node>
        <Node pos="r" depth="1" NCoef="0" IVar="2" Cut="1.1875441741943359e+02" cType="1" res="3.2591592520475388e-02" rms="4.4903931021690369e-01" purity="6.3596546649932861e-01" nType="0">
          <Node pos="l" depth="2" NCoef="0" IVar="-1" Cut="0.0000000000000000e+00" cType="1" res="-6.1115515563869849e-06" rms="4.5700293779373169e-01" purity="6.1213618516921997e-01" nType="-99"/>
          <Node pos="r" depth="2" NCoef="0" IVar="-1" Cut="0.0000000000000000e+00" cType="1" res="3.5184933803975582e-03" rms="4.4167768955230713e-01" purity="6.5321606397628784e-01" nType="-99"/>
        </Node>
      </Node>
    </BinaryTree>
    <BinaryTree type="DecisionTree" boostWeight="1.0000000000000000e+00" itree="322">
      <Node pos="s" depth="0" NCoef="0" IVar="4" Cut="2.8725755214691162e-01" cType="1" res="2.9572760686278343e-03" rms="4.5382136106491089e-01" purity="5.0315940380096436e-01" nType="0">
        <Node pos="l" depth="1" NCoef="0" IVar="4" Cut="1.1381036788225174e-01" cType="1" res="-1.4442496933043003e-02" rms="4.5115706324577332e-01" purity="4.2859494686126709e-01" nType="0">
          <Node pos="l" depth="2" NCoef="0" IVar="-1" Cut="0.0000000000000000e+00" cType="1" res="-3.9238766767084599e-03" rms="4.3292784690856934e-01" purity="3.3670026063919067e-01" nType="-99"/>
          <Node pos="r" depth="2" NCoef="0" IVar="-1" Cut="0.0000000000000000e+00" cType="1" res="-3.4065055660903454e-04" rms="4.5414444804191589e-01" purity="4.4677624106407166e-01" nType="-99"/>
        </Node>
        <Node pos="r" depth="1" NCoef="0" IVar="3" Cut="7.4777320027351379e-02" cType="1" res="1.1328548192977905e-02" rms="4.5486053824424744e-01" purity="5.3903341293334961e-01" nType="0">
          <Node pos="l" depth="2" NCoef="0" IVar="-1" Cut="0.0000000000000000e+00" cType="1" res="9.7240309696644545e-04" rms="4.5481178164482117e-01" purity="5.5099219083786011e-01" nType="-99"/>
          <Node pos="r" depth="2" NCoef="0" IVar="-1" Cut="0.0000000000000000e+00" cType="1" res="-1.1306008091196418e-03" rms="4.5407465100288391e-01" purity="4.6007215976715088e-01" nType="-99"/>
        </Node>
      </Node>
    </BinaryTree>
    <BinaryTree type="DecisionTree" boostWeight="1.0000000000000000e+00" itree="323">
      <Node pos="s" depth="0" NCoef="0" IVar="8" Cut="1.4434776306152344e+00" cType="1" res="2.4526226334273815e-03" rms="4.5402246713638306e-01" purity="5.0344711542129517e-01" nType="0">
        <Node pos="l" depth="1" NCoef="0" IVar="8" Cut="6.2621188163757324e-01" cType="1" res="9.8645491525530815e-03" rms="4.5605921745300293e-01" purity="5.2620440721511841e-01" nType="0">
          <Node pos="l" depth="2" NCoef="0" IVar="-1" Cut="0.0000000000000000e+00" cType="1" res="2.6018538046628237e-03" rms="4.5468628406524658e-01" purity="5.9607809782028198e-01" nType="-99"/>
          <Node pos="r" depth="2" NCoef="0" IVar="-1" Cut="0.0000000000000000e+00" cType="1" res="2.8920959448441863e-04" rms="4.5606392621994019e-01" purity="5.1510334014892578e-01" nType="-99"/>
        </Node>
        <Node pos="r" depth="1" NCoef="0" IVar="3" Cut="7.7005609869956970e-02" cType="1" res="-2.6223214343190193e-02" rms="4.4489338994026184e-01" purity="4.1540157794952393e-01" nType="0">
          <Node pos="l" depth="2" NCoef="0" IVar="-1" Cut="0.0000000000000000e+00" cType="1" res="5.2462401799857616e-04" rms="4.5917475223541260e-01" purity="4.7722655534744263e-01" nType="-99"/>
          <Node pos="r" depth="2" NCoef="0" IVar="-1" Cut="0.0000000000000000e+00" cType="1" res="-6.5695154480636120e-03" rms="4.0320101380348206e-01" purity="2.8436011075973511e-01" nType="-99"/>
        </Node>
      </Node>
    </BinaryTree>
    <BinaryTree type="DecisionTree" boostWeight="1.0000000000000000e+00" itree="324">
      <Node pos="s" depth="0" NCoef="0" IVar="1" Cut="7.4729846191406250e+02" cType="1" res="2.6568693574517965e-03" rms="4.5402809977531433e-01" purity="5.0406563282012939e-01" nType="0">
        <Node pos="l" depth="1" NCoef="0" IVar="1" Cut="3.8391723632812500e+02" cType="1" res="-2.8408083599060774e-03" rms="4.5455843210220337e-01" purity="4.7826021909713745e-01" nType="0">
          <Node pos="l" depth="2" NCoef="0" IVar="-1" Cut="0.0000000000000000e+00" cType="1" res="-2.8780549764633179e-03" rms="4.2140775918960571e-01" purity="2.9245436191558838e-01" nType="-99"/>
          <Node pos="r" depth="2" NCoef="0" IVar="-1" Cut="0.0000000000000000e+00" cType="1" res="1.7957769159693271e-04" rms="4.5899045467376709e-01" purity="5.0583451986312866e-01" nType="-99"/>
        </Node>
        <Node pos="r" depth="1" NCoef="0" IVar="3" Cut="6.7852407693862915e-02" cType="1" res="3.2103992998600006e-02" rms="4.5003503561019897e-01" purity="6.4228641986846924e-01" nType="0">
          <Node pos="l" depth="2" NCoef="0" IVar="-1" Cut="0.0000000000000000e+00" cType="1" res="5.6016969028860331e-04" rms="4.4549775123596191e-01" purity="6.4113652706146240e-01" nType="-99"/>
          <Node pos="r" depth="2" NCoef="0" IVar="-1" Cut="0.0000000000000000e+00" cType="1" res="4.3189497664570808e-03" rms="4.5495271682739258e-01" purity="6.4425438642501831e-01" nType="-99"/>
        </Node>
      </Node>
    </BinaryTree>
    <BinaryTree type="DecisionTree" boostWeight="1.0000000000000000e+00" itree="325">
      <Node pos="s" depth="0" NCoef="0" IVar="2" Cut="8.3009468078613281e+01" cType="1" res="-3.4019364975392818e-03" rms="4.5639574527740479e-01" purity="4.9557113647460938e-01" nType="0">
        <Node pos="l" depth="1" NCoef="0" IVar="3" Cut="-5.2016037516295910e-03" cType="1" res="-2.2747719660401344e-02" rms="4.5984420180320740e-01" purity="4.5357948541641235e-01" nType="0">
          <Node pos="l" depth="2" NCoef="0" IVar="-1" Cut="0.0000000000000000e+00" cType="1" res="-2.5373992975801229e-03" rms="4.6201136708259583e-01" purity="4.6657711267471313e-01" nType="-99"/>
          <Node pos="r" depth="2" NCoef="0" IVar="-1" Cut="0.0000000000000000e+00" cType="1" res="-7.7283132122829556e-04" rms="4.5835945010185242e-01" purity="4.4661411643028259e-01" nType="-99"/>
        </Node>
        <Node pos="r" depth="1" NCoef="0" IVar="9" Cut="1.0141377449035645e+00" cType="1" res="7.9388357698917389e-03" rms="4.5397889614105225e-01" purity="5.2018719911575317e-01" nType="0">
          <Node pos="l" depth="2" NCoef="0" IVar="-1" Cut="0.0000000000000000e+00" cType="1" res="8.0555258318781853e-04" rms="4.5473957061767578e-01" purity="5.3608351945877075e-01" nType="-99"/>
          <Node pos="r" depth="2" NCoef="0" IVar="-1" Cut="0.0000000000000000e+00" cType="1" res="-2.9070780146867037e-03" rms="4.4227531552314758e-01" purity="3.5113173723220825e-01" nType="-99"/>
        </Node>
      </Node>
    </BinaryTree>
    <BinaryTree type="DecisionTree" boostWeight="1.0000000000000000e+00" itree="326">
      <Node pos="s" depth="0" NCoef="0" IVar="2" Cut="4.2671001434326172e+01" cType="1" res="3.0792255420237780e-03" rms="4.5546552538871765e-01" purity="5.0435197353363037e-01" nType="0">
        <Node pos="l" depth="1" NCoef="0" IVar="-1" Cut="0.0000000000000000e+00" cType="1" res="-2.5057557504624128e-03" rms="4.6350288391113281e-01" purity="4.3058809638023376e-01" nType="-99"/>
        <Node pos="r" depth="1" NCoef="0" IVar="4" Cut="1.3106507062911987e-01" cType="1" res="6.0525205917656422e-03" rms="4.5476812124252319e-01" purity="5.0928270816802979e-01" nType="0">
          <Node pos="l" depth="2" NCoef="0" IVar="-1" Cut="0.0000000000000000e+00" cType="1" res="-2.0781217608600855e-03" rms="4.4645071029663086e-01" purity="3.7184077501296997e-01" nType="-99"/>
          <Node pos="r" depth="2" NCoef="0" IVar="-1" Cut="0.0000000000000000e+00" cType="1" res="5.7330488925799727e-04" rms="4.5530626177787781e-01" purity="5.2075237035751343e-01" nType="-99"/>
        </Node>
      </Node>
    </BinaryTree>
    <BinaryTree type="DecisionTree" boostWeight="1.0000000000000000e+00" itree="327">
      <Node pos="s" depth="0" NCoef="0" IVar="6" Cut="2.8849899768829346e+00" cType="1" res="-2.1907901391386986e-03" rms="4.5671299099922180e-01" purity="4.9805709719657898e-01" nType="0">
        <Node pos="l" depth="1" NCoef="0" IVar="4" Cut="6.0251748561859131e-01" cType="1" res="7.4308994226157665e-04" rms="4.5959380269050598e-01" purity="5.1430660486221313e-01" nType="0">
          <Node pos="l" depth="2" NCoef="0" IVar="-1" Cut="0.0000000000000000e+00" cType="1" res="-2.3075680655892938e-04" rms="4.6035477519035339e-01" purity="4.9958884716033936e-01" nType="-99"/>
          <Node pos="r" depth="2" NCoef="0" IVar="-1" Cut="0.0000000000000000e+00" cType="1" res="1.3289559865370393e-03" rms="4.5549693703651428e-01" purity="5.8203876018524170e-01" nType="-99"/>
        </Node>
        <Node pos="r" depth="1" NCoef="0" IVar="-1" Cut="0.0000000000000000e+00" cType="1" res="-4.1726403869688511e-03" rms="3.9724105596542358e-01" purity="2.0376542210578918e-01" nType="-99"/>
      </Node>
    </BinaryTree>
    <BinaryTree type="DecisionTree" boostWeight="1.0000000000000000e+00" itree="328">
      <Node pos="s" depth="0" NCoef="0" IVar="4" Cut="6.6771018505096436e-01" cType="1" res="-4.8398002982139587e-03" rms="4.5515805482864380e-01" purity="4.9371722340583801e-01" nType="0">
        <Node pos="l" depth="1" NCoef="0" IVar="6" Cut="2.1474173069000244e+00" cType="1" res="-9.3599222600460052e-03" rms="4.5568731427192688e-01" purity="4.8296129703521729e-01" nType="0">
          <Node pos="l" depth="2" NCoef="0" IVar="-1" Cut="0.0000000000000000e+00" cType="1" res="3.0940389842726290e-04" rms="4.5967987179756165e-01" purity="5.6198954582214355e-01" nType="-99"/>
          <Node pos="r" depth="2" NCoef="0" IVar="-1" Cut="0.0000000000000000e+00" cType="1" res="-1.1964847799390554e-03" rms="4.5272266864776611e-01" purity="4.2980679869651794e-01" nType="-99"/>
        </Node>
        <Node pos="r" depth="1" NCoef="0" IVar="-1" Cut="0.0000000000000000e+00" cType="1" res="2.3663647007197142e-03" rms="4.4782200455665588e-01" purity="5.9597665071487427e-01" nType="-99"/>
      </Node>
    </BinaryTree>
    <BinaryTree type="DecisionTree" boostWeight="1.0000000000000000e+00" itree="329">
      <Node pos="s" depth="0" NCoef="0" IVar="5" Cut="9.8764163255691528e-01" cType="1" res="2.0315465517342091e-03" rms="4.5559078454971313e-01" purity="5.0288122892379761e-01" nType="0">
        <Node pos="l" depth="1" NCoef="0" IVar="3" Cut="1.5301875770092010e-01" cType="1" res="-9.7382906824350357e-04" rms="4.6105733513832092e-01" purity="4.7715032100677490e-01" nType="0">
          <Node pos="l" depth="2" NCoef="0" IVar="-1" Cut="0.0000000000000000e+00" cType="1" res="-2.4345749989151955e-04" rms="4.6163871884346008e-01" purity="4.8235023021697998e-01" nType="-99"/>
          <Node pos="r" depth="2" NCoef="0" IVar="-1" Cut="0.0000000000000000e+00" cType="1" res="1.6508363187313080e-03" rms="4.5499795675277710e-01" purity="4.3116593360900879e-01" nType="-99"/>
        </Node>
        <Node pos="r" depth="1" NCoef="0" IVar="-1" Cut="0.0000000000000000e+00" cType="1" res="2.5919757317751646e-03" rms="3.8923645019531250e-01" purity="7.8466773033142090e-01" nType="-99"/>
      </Node>
    </BinaryTree>
    <BinaryTree type="DecisionTree" boostWeight="1.0000000000000000e+00" itree="330">
      <Node pos="s" depth="0" NCoef="0" IVar="4" Cut="4.3943858146667480e-01" cType="1" res="1.5040966682136059e-03" rms="4.5640280842781067e-01" purity="5.0277793407440186e-01" nType="0">
        <Node pos="l" depth="1" NCoef="0" IVar="3" Cut="1.7061243951320648e-01" cType="1" res="-8.7644010782241821e-03" rms="4.5550662279129028e-01" purity="4.6469148993492126e-01" nType="0">
          <Node pos="l" depth="2" NCoef="0" IVar="-1" Cut="0.0000000000000000e+00" cType="1" res="-8.4033457096666098e-04" rms="4.5535939931869507e-01" purity="4.6676236391067505e-01" nType="-99"/>
          <Node pos="r" depth="2" NCoef="0" IVar="-1" Cut="0.0000000000000000e+00" cType="1" res="1.8167475936934352e-03" rms="4.5492097735404968e-01" purity="4.4848245382308960e-01" nType="-99"/>
        </Node>
        <Node pos="r" depth="1" NCoef="0" IVar="3" Cut="1.2701064348220825e-02" cType="1" res="1.6945904120802879e-02" rms="4.5731335878372192e-01" purity="5.6005233526229858e-01" nType="0">
          <Node pos="l" depth="2" NCoef="0" IVar="-1" Cut="0.0000000000000000e+00" cType="1" res="1.5593102434650064e-03" rms="4.5690035820007324e-01" purity="5.7784712314605713e-01" nType="-99"/>
          <Node pos="r" depth="2" NCoef="0" IVar="-1" Cut="0.0000000000000000e+00" cType="1" res="-4.5309681445360184e-04" rms="4.5764806866645813e-01" purity="5.0783145427703857e-01" nType="-99"/>
        </Node>
      </Node>
    </BinaryTree>
    <BinaryTree type="DecisionTree" boostWeight="1.0000000000000000e+00" itree="331">
      <Node pos="s" depth="0" NCoef="0" IVar="4" Cut="6.4578700065612793e-01" cType="1" res="3.4088720567524433e-03" rms="4.5743963122367859e-01" purity="5.0304812192916870e-01" nType="0">
        <Node pos="l" depth="1" NCoef="0" IVar="3" Cut="-2.3730153217911720e-02" cType="1" res="-1.2159625475760549e-04" rms="4.5769512653350830e-01" purity="4.9186438322067261e-01" nType="0">
          <Node pos="l" depth="2" NCoef="0" IVar="-1" Cut="0.0000000000000000e+00" cType="1" res="-1.1779164196923375e-03" rms="4.5518192648887634e-01" purity="5.3014051914215088e-01" nType="-99"/>
          <Node pos="r" depth="2" NCoef="0" IVar="-1" Cut="0.0000000000000000e+00" cType="1" res="2.9389047995209694e-04" rms="4.5820465683937073e-01" purity="4.8213869333267212e-01" nType="-99"/>
        </Node>
        <Node pos="r" depth="1" NCoef="0" IVar="3" Cut="-4.3949775397777557e-02" cType="1" res="3.0707834288477898e-02" rms="4.5453435182571411e-01" purity="5.8952498435974121e-01" nType="0">
          <Node pos="l" depth="2" NCoef="0" IVar="-1" Cut="0.0000000000000000e+00" cType="1" res="4.3150503188371658e-03" rms="4.3217805027961731e-01" purity="6.5091621875762939e-01" nType="-99"/>
          <Node pos="r" depth="2" NCoef="0" IVar="-1" Cut="0.0000000000000000e+00" cType="1" res="-3.1755465897731483e-04" rms="4.7177740931510925e-01" purity="5.3185790777206421e-01" nType="-99"/>
        </Node>
      </Node>
    </BinaryTree>
    <BinaryTree type="DecisionTree" boostWeight="1.0000000000000000e+00" itree="332">
      <Node pos="s" depth="0" NCoef="0" IVar="4" Cut="1.5600845217704773e-01" cType="1" res="-4.6959738247096539e-03" rms="4.5530492067337036e-01" purity="4.9731186032295227e-01" nType="0">
        <Node pos="l" depth="1" NCoef="0" IVar="9" Cut="6.3690865039825439e-01" cType="1" res="-3.2339647412300110e-02" rms="4.4843989610671997e-01" purity="3.8622316718101501e-01" nType="0">
          <Node pos="l" depth="2" NCoef="0" IVar="-1" Cut="0.0000000000000000e+00" cType="1" res="-2.5386345805600286e-04" rms="4.6121346950531006e-01" purity="4.6606430411338806e-01" nType="-99"/>
          <Node pos="r" depth="2" NCoef="0" IVar="-1" Cut="0.0000000000000000e+00" cType="1" res="-3.9318008348345757e-03" rms="4.3358150124549866e-01" purity="3.0697372555732727e-01" nType="-99"/>
        </Node>
        <Node pos="r" depth="1" NCoef="0" IVar="5" Cut="9.8766541481018066e-01" cType="1" res="-1.2956995051354170e-03" rms="4.5602649450302124e-01" purity="5.1097619533538818e-01" nType="0">
          <Node pos="l" depth="2" NCoef="0" IVar="-1" Cut="0.0000000000000000e+00" cType="1" res="-2.7916848193854094e-04" rms="4.6120384335517883e-01" purity="4.8499497771263123e-01" nType="-99"/>
          <Node pos="r" depth="2" NCoef="0" IVar="-1" Cut="0.0000000000000000e+00" cType="1" res="2.5157888885587454e-03" rms="3.9554235339164734e-01" purity="7.8552383184432983e-01" nType="-99"/>
        </Node>
      </Node>
    </BinaryTree>
    <BinaryTree type="DecisionTree" boostWeight="1.0000000000000000e+00" itree="333">
      <Node pos="s" depth="0" NCoef="0" IVar="5" Cut="9.1372227668762207e-01" cType="1" res="-6.4190902048721910e-04" rms="4.5355570316314697e-01" purity="4.9904528260231018e-01" nType="0">
        <Node pos="l" depth="1" NCoef="0" IVar="-1" Cut="0.0000000000000000e+00" cType="1" res="-2.6856139302253723e-03" rms="4.2496743798255920e-01" purity="2.7947849035263062e-01" nType="-99"/>
        <Node pos="r" depth="1" NCoef="0" IVar="6" Cut="2.8492162227630615e+00" cType="1" res="3.2779762987047434e-03" rms="4.5598903298377991e-01" purity="5.1993972063064575e-01" nType="0">
          <Node pos="l" depth="2" NCoef="0" IVar="-1" Cut="0.0000000000000000e+00" cType="1" res="4.1153610800392926e-04" rms="4.5916911959648132e-01" purity="5.3862088918685913e-01" nType="-99"/>
          <Node pos="r" depth="2" NCoef="0" IVar="-1" Cut="0.0000000000000000e+00" cType="1" res="-3.6280143540352583e-03" rms="3.9930742979049683e-01" purity="2.2853864729404449e-01" nType="-99"/>
        </Node>
      </Node>
    </BinaryTree>
    <BinaryTree type="DecisionTree" boostWeight="1.0000000000000000e+00" itree="334">
      <Node pos="s" depth="0" NCoef="0" IVar="6" Cut="2.2252843379974365e+00" cType="1" res="4.0339617989957333e-03" rms="4.5461073517799377e-01" purity="5.0395715236663818e-01" nType="0">
        <Node pos="l" depth="1" NCoef="0" IVar="5" Cut="9.2824018001556396e-01" cType="1" res="1.7308227717876434e-02" rms="4.5522889494895935e-01" purity="5.7493549585342407e-01" nType="0">
          <Node pos="l" depth="2" NCoef="0" IVar="-1" Cut="0.0000000000000000e+00" cType="1" res="-7.4708176543936133e-04" rms="4.5880803465843201e-01" purity="3.7387546896934509e-01" nType="-99"/>
          <Node pos="r" depth="2" NCoef="0" IVar="-1" Cut="0.0000000000000000e+00" cType="1" res="1.4917718945071101e-03" rms="4.5414105057716370e-01" purity="6.2024933099746704e-01" nType="-99"/>
        </Node>
        <Node pos="r" depth="1" NCoef="0" IVar="4" Cut="6.1090898513793945e-01" cType="1" res="-1.1146510019898415e-02" rms="4.5342671871185303e-01" purity="4.2278608679771423e-01" nType="0">
          <Node pos="l" depth="2" NCoef="0" IVar="-1" Cut="0.0000000000000000e+00" cType="1" res="-1.1380335781723261e-03" rms="4.4938567280769348e-01" purity="4.0667456388473511e-01" nType="-99"/>
          <Node pos="r" depth="2" NCoef="0" IVar="-1" Cut="0.0000000000000000e+00" cType="1" res="2.1645408123731613e-03" rms="4.7787329554557800e-01" purity="5.3435611724853516e-01" nType="-99"/>
        </Node>
      </Node>
    </BinaryTree>
    <BinaryTree type="DecisionTree" boostWeight="1.0000000000000000e+00" itree="335">
      <Node pos="s" depth="0" NCoef="0" IVar="7" Cut="4.2088577270507812e+01" cType="1" res="3.2438081689178944e-03" rms="4.5544898509979248e-01" purity="5.0193238258361816e-01" nType="0">
        <Node pos="l" depth="1" NCoef="0" IVar="-1" Cut="0.0000000000000000e+00" cType="1" res="-2.7035051025450230e-03" rms="4.3110510706901550e-01" purity="3.0955320596694946e-01" nType="-99"/>
        <Node pos="r" depth="1" NCoef="0" IVar="0" Cut="1.8085898160934448e+00" cType="1" res="6.1258613131940365e-03" rms="4.5686250925064087e-01" purity="5.1462382078170776e-01" nType="0">
          <Node pos="l" depth="2" NCoef="0" IVar="-1" Cut="0.0000000000000000e+00" cType="1" res="-6.6915951902046800e-04" rms="4.4965207576751709e-01" purity="3.2121577858924866e-01" nType="-99"/>
          <Node pos="r" depth="2" NCoef="0" IVar="-1" Cut="0.0000000000000000e+00" cType="1" res="6.8790244404226542e-04" rms="4.5906764268875122e-01" purity="5.7777047157287598e-01" nType="-99"/>
        </Node>
      </Node>
    </BinaryTree>
    <BinaryTree type="DecisionTree" boostWeight="1.0000000000000000e+00" itree="336">
      <Node pos="s" depth="0" NCoef="0" IVar="6" Cut="2.2342770099639893e+00" cType="1" res="7.1145393885672092e-03" rms="4.5715811848640442e-01" purity="5.0867027044296265e-01" nType="0">
        <Node pos="l" depth="1" NCoef="0" IVar="4" Cut="4.6424397826194763e-01" cType="1" res="1.4946909621357918e-02" rms="4.5662406086921692e-01" purity="5.7286000251770020e-01" nType="0">
          <Node pos="l" depth="2" NCoef="0" IVar="-1" Cut="0.0000000000000000e+00" cType="1" res="2.6222376618534327e-04" rms="4.6464389562606812e-01" purity="5.4466885328292847e-01" nType="-99"/>
          <Node pos="r" depth="2" NCoef="0" IVar="-1" Cut="0.0000000000000000e+00" cType="1" res="1.8571837572380900e-03" rms="4.4461593031883240e-01" purity="6.1268782615661621e-01" nType="-99"/>
        </Node>
        <Node pos="r" depth="1" NCoef="0" IVar="8" Cut="7.4708533287048340e-01" cType="1" res="-2.2824613843113184e-03" rms="4.5762115716934204e-01" purity="4.3165776133537292e-01" nType="0">
          <Node pos="l" depth="2" NCoef="0" IVar="-1" Cut="0.0000000000000000e+00" cType="1" res="1.6125012189149857e-03" rms="4.6791490912437439e-01" purity="5.1317262649536133e-01" nType="-99"/>
          <Node pos="r" depth="2" NCoef="0" IVar="-1" Cut="0.0000000000000000e+00" cType="1" res="-5.9096299810335040e-04" rms="4.5476555824279785e-01" purity="4.1149836778640747e-01" nType="-99"/>
        </Node>
      </Node>
    </BinaryTree>
    <BinaryTree type="DecisionTree" boostWeight="1.0000000000000000e+00" itree="337">
      <Node pos="s" depth="0" NCoef="0" IVar="2" Cut="8.1302635192871094e+01" cType="1" res="-8.0864381743595004e-04" rms="4.5563921332359314e-01" purity="4.9806916713714600e-01" nType="0">
        <Node pos="l" depth="1" NCoef="0" IVar="9" Cut="3.7508699297904968e-01" cType="1" res="-1.9590327516198158e-02" rms="4.5867064595222473e-01" purity="4.5749595761299133e-01" nType="0">
          <Node pos="l" depth="2" NCoef="0" IVar="-1" Cut="0.0000000000000000e+00" cType="1" res="-2.4885800667107105e-03" rms="4.6035429835319519e-01" purity="4.6801546216011047e-01" nType="-99"/>
          <Node pos="r" depth="2" NCoef="0" IVar="-1" Cut="0.0000000000000000e+00" cType="1" res="-4.7469630953855813e-04" rms="4.5729476213455200e-01" purity="4.5162475109100342e-01" nType="-99"/>
        </Node>
        <Node pos="r" depth="1" NCoef="0" IVar="6" Cut="1.9868590831756592e+00" cType="1" res="9.4445571303367615e-03" rms="4.5364779233932495e-01" purity="5.2021867036819458e-01" nType="0">
          <Node pos="l" depth="2" NCoef="0" IVar="-1" Cut="0.0000000000000000e+00" cType="1" res="2.5143208913505077e-03" rms="4.3279632925987244e-01" purity="6.6974008083343506e-01" nType="-99"/>
          <Node pos="r" depth="2" NCoef="0" IVar="-1" Cut="0.0000000000000000e+00" cType="1" res="2.6198674459010363e-04" rms="4.5692631602287292e-01" purity="4.9454963207244873e-01" nType="-99"/>
        </Node>
      </Node>
    </BinaryTree>
    <BinaryTree type="DecisionTree" boostWeight="1.0000000000000000e+00" itree="338">
      <Node pos="s" depth="0" NCoef="0" IVar="7" Cut="4.2248851776123047e+01" cType="1" res="3.7011562380939722e-03" rms="4.5475780963897705e-01" purity="5.0371098518371582e-01" nType="0">
        <Node pos="l" depth="1" NCoef="0" IVar="-1" Cut="0.0000000000000000e+00" cType="1" res="-3.1083431094884872e-03" rms="4.3153676390647888e-01" purity="2.9429489374160767e-01" nType="-99"/>
        <Node pos="r" depth="1" NCoef="0" IVar="0" Cut="5.4506945610046387e+00" cType="1" res="7.0194117724895477e-03" rms="4.5607319474220276e-01" purity="5.1769208908081055e-01" nType="0">
          <Node pos="l" depth="2" NCoef="0" IVar="-1" Cut="0.0000000000000000e+00" cType="1" res="2.7709046844393015e-04" rms="4.6074420213699341e-01" purity="4.9897652864456177e-01" nType="-99"/>
          <Node pos="r" depth="2" NCoef="0" IVar="-1" Cut="0.0000000000000000e+00" cType="1" res="3.7711269687861204e-03" rms="3.6740076541900635e-01" purity="8.2901984453201294e-01" nType="-99"/>
        </Node>
      </Node>
    </BinaryTree>
    <BinaryTree type="DecisionTree" boostWeight="1.0000000000000000e+00" itree="339">
      <Node pos="s" depth="0" NCoef="0" IVar="3" Cut="-7.0311643183231354e-02" cType="1" res="-2.0118318498134613e-03" rms="4.5438760519027710e-01" purity="4.9702966213226318e-01" nType="0">
        <Node pos="l" depth="1" NCoef="0" IVar="-1" Cut="0.0000000000000000e+00" cType="1" res="3.1375875696539879e-03" rms="4.4386050105094910e-01" purity="6.1163771152496338e-01" nType="-99"/>
        <Node pos="r" depth="1" NCoef="0" IVar="4" Cut="1.2683291733264923e-01" cType="1" res="-5.2223568782210350e-03" rms="4.5482775568962097e-01" purity="4.9001377820968628e-01" nType="0">
          <Node pos="l" depth="2" NCoef="0" IVar="-1" Cut="0.0000000000000000e+00" cType="1" res="-2.9166140593588352e-03" rms="4.4411554932594299e-01" purity="3.5844805836677551e-01" nType="-99"/>
          <Node pos="r" depth="2" NCoef="0" IVar="-1" Cut="0.0000000000000000e+00" cType="1" res="-1.3438714086078107e-04" rms="4.5548242330551147e-01" purity="4.9996685981750488e-01" nType="-99"/>
        </Node>
      </Node>
    </BinaryTree>
    <BinaryTree type="DecisionTree" boostWeight="1.0000000000000000e+00" itree="340">
      <Node pos="s" depth="0" NCoef="0" IVar="4" Cut="1.1224771291017532e-01" cType="1" res="-2.0712874829769135e-03" rms="4.5574089884757996e-01" purity="4.9598449468612671e-01" nType="0">
        <Node pos="l" depth="1" NCoef="0" IVar="-1" Cut="0.0000000000000000e+00" cType="1" res="-2.5642183609306812e-03" rms="4.4513222575187683e-01" purity="3.4980028867721558e-01" nType="-99"/>
        <Node pos="r" depth="1" NCoef="0" IVar="6" Cut="1.6738162040710449e+00" cType="1" res="2.0302062694099732e-05" rms="4.5623722672462463e-01" purity="5.0417023897171021e-01" nType="0">
          <Node pos="l" depth="2" NCoef="0" IVar="-1" Cut="0.0000000000000000e+00" cType="1" res="1.4876516070216894e-03" rms="4.4962996244430542e-01" purity="6.1438256502151489e-01" nType="-99"/>
          <Node pos="r" depth="2" NCoef="0" IVar="-1" Cut="0.0000000000000000e+00" cType="1" res="-1.9397516734898090e-04" rms="4.5699861645698547e-01" purity="4.8978012800216675e-01" nType="-99"/>
        </Node>
      </Node>
    </BinaryTree>
    <BinaryTree type="DecisionTree" boostWeight="1.0000000000000000e+00" itree="341">
      <Node pos="s" depth="0" NCoef="0" IVar="2" Cut="8.1302635192871094e+01" cType="1" res="1.9457701127976179e-03" rms="4.5536306500434875e-01" purity="5.0371628999710083e-01" nType="0">
        <Node pos="l" depth="1" NCoef="0" IVar="1" Cut="5.5839874267578125e+02" cType="1" res="-1.2649568729102612e-02" rms="4.5892807841300964e-01" purity="4.6736407279968262e-01" nType="0">
          <Node pos="l" depth="2" NCoef="0" IVar="-1" Cut="0.0000000000000000e+00" cType="1" res="1.7040330567397177e-04" rms="4.5511779189109802e-01" purity="4.4446751475334167e-01" nType="-99"/>
          <Node pos="r" depth="2" NCoef="0" IVar="-1" Cut="0.0000000000000000e+00" cType="1" res="-3.1262834090739489e-03" rms="4.6633452177047729e-01" purity="5.2708750963211060e-01" nType="-99"/>
        </Node>
        <Node pos="r" depth="1" NCoef="0" IVar="9" Cut="2.1859470009803772e-01" cType="1" res="9.7476225346326828e-03" rms="4.5325320959091187e-01" purity="5.2314817905426025e-01" nType="0">
          <Node pos="l" depth="2" NCoef="0" IVar="-1" Cut="0.0000000000000000e+00" cType="1" res="3.2206138130277395e-03" rms="4.3346193432807922e-01" purity="6.4040660858154297e-01" nType="-99"/>
          <Node pos="r" depth="2" NCoef="0" IVar="-1" Cut="0.0000000000000000e+00" cType="1" res="3.0993553809821606e-04" rms="4.5525506138801575e-01" purity="5.0952637195587158e-01" nType="-99"/>
        </Node>
      </Node>
    </BinaryTree>
    <BinaryTree type="DecisionTree" boostWeight="1.0000000000000000e+00" itree="342">
      <Node pos="s" depth="0" NCoef="0" IVar="6" Cut="2.7389073371887207e+00" cType="1" res="-1.8960282905027270e-03" rms="4.5427268743515015e-01" purity="5.0032192468643188e-01" nType="0">
        <Node pos="l" depth="1" NCoef="0" IVar="4" Cut="6.0715234279632568e-01" cType="1" res="1.5732247848063707e-03" rms="4.5875528454780579e-01" purity="5.2521401643753052e-01" nType="0">
          <Node pos="l" depth="2" NCoef="0" IVar="-1" Cut="0.0000000000000000e+00" cType="1" res="4.0000170702114701e-04" rms="4.5802727341651917e-01" purity="5.2227246761322021e-01" nType="-99"/>
          <Node pos="r" depth="2" NCoef="0" IVar="-1" Cut="0.0000000000000000e+00" cType="1" res="-1.4472863404080272e-03" rms="4.6153602004051208e-01" purity="5.3971976041793823e-01" nType="-99"/>
        </Node>
        <Node pos="r" depth="1" NCoef="0" IVar="-1" Cut="0.0000000000000000e+00" cType="1" res="-2.7616627048701048e-03" rms="4.0335923433303833e-01" purity="2.4331045150756836e-01" nType="-99"/>
      </Node>
    </BinaryTree>
    <BinaryTree type="DecisionTree" boostWeight="1.0000000000000000e+00" itree="343">
      <Node pos="s" depth="0" NCoef="0" IVar="6" Cut="1.9210829734802246e+00" cType="1" res="-7.8608831390738487e-03" rms="4.5437708497047424e-01" purity="4.9409121274948120e-01" nType="0">
        <Node pos="l" depth="1" NCoef="0" IVar="2" Cut="9.2332046508789062e+01" cType="1" res="1.4558239839971066e-02" rms="4.5099520683288574e-01" purity="5.8386147022247314e-01" nType="0">
          <Node pos="l" depth="2" NCoef="0" IVar="-1" Cut="0.0000000000000000e+00" cType="1" res="-9.8879951110575348e-05" rms="4.6157836914062500e-01" purity="5.3830063343048096e-01" nType="-99"/>
          <Node pos="r" depth="2" NCoef="0" IVar="-1" Cut="0.0000000000000000e+00" cType="1" res="3.7157195620238781e-03" rms="4.1762322187423706e-01" purity="7.0802670717239380e-01" nType="-99"/>
        </Node>
        <Node pos="r" depth="1" NCoef="0" IVar="2" Cut="9.2960281372070312e+01" cType="1" res="-1.4270653948187828e-02" rms="4.5513641834259033e-01" purity="4.6842530369758606e-01" nType="0">
          <Node pos="l" depth="2" NCoef="0" IVar="-1" Cut="0.0000000000000000e+00" cType="1" res="-1.6136412741616368e-03" rms="4.5483168959617615e-01" purity="4.1905012726783752e-01" nType="-99"/>
          <Node pos="r" depth="2" NCoef="0" IVar="-1" Cut="0.0000000000000000e+00" cType="1" res="-4.5117925037629902e-04" rms="4.5517423748970032e-01" purity="4.9806988239288330e-01" nType="-99"/>
        </Node>
      </Node>
    </BinaryTree>
    <BinaryTree type="DecisionTree" boostWeight="1.0000000000000000e+00" itree="344">
      <Node pos="s" depth="0" NCoef="0" IVar="3" Cut="-6.5869174897670746e-02" cType="1" res="6.9021939998492599e-04" rms="4.5691150426864624e-01" purity="4.9971157312393188e-01" nType="0">
        <Node pos="l" depth="1" NCoef="0" IVar="-1" Cut="0.0000000000000000e+00" cType="1" res="2.1238147746771574e-03" rms="4.5589634776115417e-01" purity="6.0702145099639893e-01" nType="-99"/>
        <Node pos="r" depth="1" NCoef="0" IVar="6" Cut="2.8284838199615479e+00" cType="1" res="-1.7305911751464009e-03" rms="4.5688739418983459e-01" purity="4.9206340312957764e-01" nType="0">
          <Node pos="l" depth="2" NCoef="0" IVar="-1" Cut="0.0000000000000000e+00" cType="1" res="3.8523867260664701e-05" rms="4.6099999547004700e-01" purity="5.1223164796829224e-01" nType="-99"/>
          <Node pos="r" depth="2" NCoef="0" IVar="-1" Cut="0.0000000000000000e+00" cType="1" res="-2.4271113798022270e-03" rms="3.9824914932250977e-01" purity="2.2958463430404663e-01" nType="-99"/>
        </Node>
      </Node>
    </BinaryTree>
    <BinaryTree type="DecisionTree" boostWeight="1.0000000000000000e+00" itree="345">
      <Node pos="s" depth="0" NCoef="0" IVar="6" Cut="2.0205211639404297e+00" cType="1" res="4.6949367970228195e-03" rms="4.5644381642341614e-01" purity="5.0636565685272217e-01" nType="0">
        <Node pos="l" depth="1" NCoef="0" IVar="2" Cut="4.6586498260498047e+01" cType="1" res="2.2066686302423477e-02" rms="4.5449110865592957e-01" purity="5.9499794244766235e-01" nType="0">
          <Node pos="l" depth="2" NCoef="0" IVar="-1" Cut="0.0000000000000000e+00" cType="1" res="-1.5488576609641314e-03" rms="4.7374001145362854e-01" purity="4.7717362642288208e-01" nType="-99"/>
          <Node pos="r" depth="2" NCoef="0" IVar="-1" Cut="0.0000000000000000e+00" cType="1" res="2.1281321533024311e-03" rms="4.4844248890876770e-01" purity="6.2591576576232910e-01" nType="-99"/>
        </Node>
        <Node pos="r" depth="1" NCoef="0" IVar="4" Cut="2.3285728693008423e-01" cType="1" res="-2.0043081603944302e-03" rms="4.5701822638511658e-01" purity="4.7218552231788635e-01" nType="0">
          <Node pos="l" depth="2" NCoef="0" IVar="-1" Cut="0.0000000000000000e+00" cType="1" res="-1.5515474369749427e-03" rms="4.5158183574676514e-01" purity="3.7915721535682678e-01" nType="-99"/>
          <Node pos="r" depth="2" NCoef="0" IVar="-1" Cut="0.0000000000000000e+00" cType="1" res="2.8558660415001214e-04" rms="4.5843598246574402e-01" purity="5.0017988681793213e-01" nType="-99"/>
        </Node>
      </Node>
    </BinaryTree>
    <BinaryTree type="DecisionTree" boostWeight="1.0000000000000000e+00" itree="346">
      <Node pos="s" depth="0" NCoef="0" IVar="6" Cut="2.9119369983673096e+00" cType="1" res="-8.6392916273325682e-04" rms="4.5498427748680115e-01" purity="4.9425151944160461e-01" nType="0">
        <Node pos="l" depth="1" NCoef="0" IVar="8" Cut="1.1584825515747070e+00" cType="1" res="1.6615388449281454e-03" rms="4.5806092023849487e-01" purity="5.1008051633834839e-01" nType="0">
          <Node pos="l" depth="2" NCoef="0" IVar="-1" Cut="0.0000000000000000e+00" cType="1" res="5.9548323042690754e-04" rms="4.5970857143402100e-01" purity="5.4514861106872559e-01" nType="-99"/>
          <Node pos="r" depth="2" NCoef="0" IVar="-1" Cut="0.0000000000000000e+00" cType="1" res="-6.4888974884524941e-04" rms="4.5529589056968689e-01" purity="4.5723903179168701e-01" nType="-99"/>
        </Node>
        <Node pos="r" depth="1" NCoef="0" IVar="-1" Cut="0.0000000000000000e+00" cType="1" res="-3.5171722993254662e-03" rms="3.9260044693946838e-01" purity="2.0865219831466675e-01" nType="-99"/>
      </Node>
    </BinaryTree>
    <BinaryTree type="DecisionTree" boostWeight="1.0000000000000000e+00" itree="347">
      <Node pos="s" depth="0" NCoef="0" IVar="8" Cut="1.2857123613357544e+00" cType="1" res="2.5712713977554813e-05" rms="4.5611444115638733e-01" purity="4.9925222992897034e-01" nType="0">
        <Node pos="l" depth="1" NCoef="0" IVar="3" Cut="1.6625355184078217e-01" cType="1" res="7.4004833586513996e-03" rms="4.5887279510498047e-01" purity="5.2909994125366211e-01" nType="0">
          <Node pos="l" depth="2" NCoef="0" IVar="-1" Cut="0.0000000000000000e+00" cType="1" res="2.6326350052841008e-04" rms="4.5793709158897400e-01" purity="5.3319287300109863e-01" nType="-99"/>
          <Node pos="r" depth="2" NCoef="0" IVar="-1" Cut="0.0000000000000000e+00" cType="1" res="2.9266611672937870e-03" rms="4.6864053606987000e-01" purity="4.7798621654510498e-01" nType="-99"/>
        </Node>
        <Node pos="r" depth="1" NCoef="0" IVar="1" Cut="6.3632617187500000e+02" cType="1" res="-1.6739502549171448e-02" rms="4.4933071732521057e-01" purity="4.3139880895614624e-01" nType="0">
          <Node pos="l" depth="2" NCoef="0" IVar="-1" Cut="0.0000000000000000e+00" cType="1" res="-1.7067044973373413e-03" rms="4.4698560237884521e-01" purity="3.9209941029548645e-01" nType="-99"/>
          <Node pos="r" depth="2" NCoef="0" IVar="-1" Cut="0.0000000000000000e+00" cType="1" res="1.6035983571782708e-03" rms="4.5669400691986084e-01" purity="5.9972494840621948e-01" nType="-99"/>
        </Node>
      </Node>
    </BinaryTree>
    <BinaryTree type="DecisionTree" boostWeight="1.0000000000000000e+00" itree="348">
      <Node pos="s" depth="0" NCoef="0" IVar="8" Cut="1.0917634963989258e+00" cType="1" res="3.9366106502711773e-03" rms="4.5401501655578613e-01" purity="5.0186461210250854e-01" nType="0">
        <Node pos="l" depth="1" NCoef="0" IVar="4" Cut="1.8258704245090485e-01" cType="1" res="1.7057962715625763e-02" rms="4.5615953207015991e-01" purity="5.4837369918823242e-01" nType="0">
          <Node pos="l" depth="2" NCoef="0" IVar="-1" Cut="0.0000000000000000e+00" cType="1" res="-1.1720621259883046e-03" rms="4.6041440963745117e-01" purity="4.3371948599815369e-01" nType="-99"/>
          <Node pos="r" depth="2" NCoef="0" IVar="-1" Cut="0.0000000000000000e+00" cType="1" res="1.4060463290661573e-03" rms="4.5520031452178955e-01" purity="5.6699460744857788e-01" nType="-99"/>
        </Node>
        <Node pos="r" depth="1" NCoef="0" IVar="2" Cut="1.5168000793457031e+02" cType="1" res="-1.0691271163523197e-02" rms="4.5116266608238220e-01" purity="4.5001554489135742e-01" nType="0">
          <Node pos="l" depth="2" NCoef="0" IVar="-1" Cut="0.0000000000000000e+00" cType="1" res="-1.1277360608801246e-03" rms="4.4904834032058716e-01" purity="4.4556078314781189e-01" nType="-99"/>
          <Node pos="r" depth="2" NCoef="0" IVar="-1" Cut="0.0000000000000000e+00" cType="1" res="2.5584590621292591e-03" rms="4.6229487657546997e-01" purity="4.8072117567062378e-01" nType="-99"/>
        </Node>
      </Node>
    </BinaryTree>
    <BinaryTree type="DecisionTree" boostWeight="1.0000000000000000e+00" itree="349">
      <Node pos="s" depth="0" NCoef="0" IVar="7" Cut="4.7036994934082031e+01" cType="1" res="-5.0777301657944918e-04" rms="4.5402103662490845e-01" purity="4.9617585539817810e-01" nType="0">
        <Node pos="l" depth="1" NCoef="0" IVar="7" Cut="4.1288856506347656e+01" cType="1" res="-3.0531682074069977e-02" rms="4.3628373742103577e-01" purity="3.2598417997360229e-01" nType="0">
          <Node pos="l" depth="2" NCoef="0" IVar="-1" Cut="0.0000000000000000e+00" cType="1" res="-4.3189409188926220e-03" rms="4.2267522215843201e-01" purity="2.7215096354484558e-01" nType="-99"/>
          <Node pos="r" depth="2" NCoef="0" IVar="-1" Cut="0.0000000000000000e+00" cType="1" res="-6.7008851328864694e-04" rms="4.4328603148460388e-01" purity="3.5929742455482483e-01" nType="-99"/>
        </Node>
        <Node pos="r" depth="1" NCoef="0" IVar="5" Cut="9.8766154050827026e-01" cType="1" res="4.0949787944555283e-03" rms="4.5650476217269897e-01" purity="5.2226674556732178e-01" nType="0">
          <Node pos="l" depth="2" NCoef="0" IVar="-1" Cut="0.0000000000000000e+00" cType="1" res="2.4566610591136850e-05" rms="4.6298378705978394e-01" purity="4.9668732285499573e-01" nType="-99"/>
          <Node pos="r" depth="2" NCoef="0" IVar="-1" Cut="0.0000000000000000e+00" cType="1" res="3.4664850682020187e-03" rms="3.7369725108146667e-01" purity="8.0942189693450928e-01" nType="-99"/>
        </Node>
      </Node>
    </BinaryTree>
    <BinaryTree type="DecisionTree" boostWeight="1.0000000000000000e+00" itree="350">
      <Node pos="s" depth="0" NCoef="0" IVar="0" Cut="5.3136682510375977e+00" cType="1" res="-4.4317254796624184e-03" rms="4.5474839210510254e-01" purity="4.9699410796165466e-01" nType="0">
        <Node pos="l" depth="1" NCoef="0" IVar="1" Cut="4.0255712890625000e+02" cType="1" res="-7.4346205219626427e-03" rms="4.5911484956741333e-01" purity="4.7483795881271362e-01" nType="0">
          <Node pos="l" depth="2" NCoef="0" IVar="-1" Cut="0.0000000000000000e+00" cType="1" res="-2.1774338092654943e-03" rms="4.2796880006790161e-01" purity="3.0105099081993103e-01" nType="-99"/>
          <Node pos="r" depth="2" NCoef="0" IVar="-1" Cut="0.0000000000000000e+00" cType="1" res="-1.8360155809205025e-04" rms="4.6434646844863892e-01" purity="5.0602287054061890e-01" nType="-99"/>
        </Node>
        <Node pos="r" depth="1" NCoef="0" IVar="-1" Cut="0.0000000000000000e+00" cType="1" res="2.9891086742281914e-03" rms="3.8452795147895813e-01" purity="8.1330579519271851e-01" nType="-99"/>
      </Node>
    </BinaryTree>
    <BinaryTree type="DecisionTree" boostWeight="1.0000000000000000e+00" itree="351">
      <Node pos="s" depth="0" NCoef="0" IVar="5" Cut="9.2148965597152710e-01" cType="1" res="-7.6111685484647751e-04" rms="4.5633047819137573e-01" purity="4.9978536367416382e-01" nType="0">
        <Node pos="l" depth="1" NCoef="0" IVar="6" Cut="2.1877443790435791e+00" cType="1" res="-2.9143212363123894e-02" rms="4.3939232826232910e-01" purity="3.0166813731193542e-01" nType="0">
          <Node pos="l" depth="2" NCoef="0" IVar="-1" Cut="0.0000000000000000e+00" cType="1" res="-3.3791877795010805e-03" rms="4.4919019937515259e-01" purity="3.2317879796028137e-01" nType="-99"/>
          <Node pos="r" depth="2" NCoef="0" IVar="-1" Cut="0.0000000000000000e+00" cType="1" res="-3.0685460660606623e-04" rms="4.2933061718940735e-01" purity="2.8332978487014771e-01" nType="-99"/>
        </Node>
        <Node pos="r" depth="1" NCoef="0" IVar="3" Cut="1.5301875770092010e-01" cType="1" res="3.7847200874239206e-03" rms="4.5882222056388855e-01" purity="5.3151690959930420e-01" nType="0">
          <Node pos="l" depth="2" NCoef="0" IVar="-1" Cut="0.0000000000000000e+00" cType="1" res="3.1253228371497244e-05" rms="4.5886322855949402e-01" purity="5.3722506761550903e-01" nType="-99"/>
          <Node pos="r" depth="2" NCoef="0" IVar="-1" Cut="0.0000000000000000e+00" cType="1" res="2.1944404579699039e-03" rms="4.5725837349891663e-01" purity="4.7724223136901855e-01" nType="-99"/>
        </Node>
      </Node>
    </BinaryTree>
    <BinaryTree type="DecisionTree" boostWeight="1.0000000000000000e+00" itree="352">
      <Node pos="s" depth="0" NCoef="0" IVar="4" Cut="1.1725578457117081e-01" cType="1" res="-5.3693959489464760e-04" rms="4.5357835292816162e-01" purity="4.9695989489555359e-01" nType="0">
        <Node pos="l" depth="1" NCoef="0" IVar="-1" Cut="0.0000000000000000e+00" cType="1" res="-2.5386416818946600e-03" rms="4.3657985329627991e-01" purity="3.6069160699844360e-01" nType="-99"/>
        <Node pos="r" depth="1" NCoef="0" IVar="6" Cut="1.4925099611282349e+00" cType="1" res="1.8146266229450703e-03" rms="4.5447817444801331e-01" purity="5.0519233942031860e-01" nType="0">
          <Node pos="l" depth="2" NCoef="0" IVar="-1" Cut="0.0000000000000000e+00" cType="1" res="2.8476384468376637e-03" rms="4.4023966789245605e-01" purity="6.4041334390640259e-01" nType="-99"/>
          <Node pos="r" depth="2" NCoef="0" IVar="-1" Cut="0.0000000000000000e+00" cType="1" res="-8.5206069343257695e-05" rms="4.5533138513565063e-01" purity="4.9536079168319702e-01" nType="-99"/>
        </Node>
      </Node>
    </BinaryTree>
    <BinaryTree type="DecisionTree" boostWeight="1.0000000000000000e+00" itree="353">
      <Node pos="s" depth="0" NCoef="0" IVar="5" Cut="9.2537182569503784e-01" cType="1" res="3.8167389575392008e-03" rms="4.5527195930480957e-01" purity="5.0326645374298096e-01" nType="0">
        <Node pos="l" depth="1" NCoef="0" IVar="8" Cut="9.8921877145767212e-01" cType="1" res="-1.7324680462479591e-02" rms="4.4274544715881348e-01" purity="3.1396606564521790e-01" nType="0">
          <Node pos="l" depth="2" NCoef="0" IVar="-1" Cut="0.0000000000000000e+00" cType="1" res="-2.4035212118178606e-03" rms="4.4450086355209351e-01" purity="3.2528290152549744e-01" nType="-99"/>
          <Node pos="r" depth="2" NCoef="0" IVar="-1" Cut="0.0000000000000000e+00" cType="1" res="-1.8029199111424532e-07" rms="4.4060051441192627e-01" purity="3.0519065260887146e-01" nType="-99"/>
        </Node>
        <Node pos="r" depth="1" NCoef="0" IVar="9" Cut="1.0322053432464600e+00" cType="1" res="8.0145131796598434e-03" rms="4.5760220289230347e-01" purity="5.4085332155227661e-01" nType="0">
          <Node pos="l" depth="2" NCoef="0" IVar="-1" Cut="0.0000000000000000e+00" cType="1" res="7.0930243236944079e-04" rms="4.5733630657196045e-01" purity="5.5349862575531006e-01" nType="-99"/>
          <Node pos="r" depth="2" NCoef="0" IVar="-1" Cut="0.0000000000000000e+00" cType="1" res="-2.5295403320342302e-03" rms="4.5855066180229187e-01" purity="3.6476194858551025e-01" nType="-99"/>
        </Node>
      </Node>
    </BinaryTree>
    <BinaryTree type="DecisionTree" boostWeight="1.0000000000000000e+00" itree="354">
      <Node pos="s" depth="0" NCoef="0" IVar="1" Cut="4.6716061401367188e+02" cType="1" res="-2.6731307152658701e-03" rms="4.5211172103881836e-01" purity="4.9906098842620850e-01" nType="0">
        <Node pos="l" depth="1" NCoef="0" IVar="8" Cut="9.9120497703552246e-01" cType="1" res="-1.8535437062382698e-02" rms="4.4048669934272766e-01" purity="3.7452661991119385e-01" nType="0">
          <Node pos="l" depth="2" NCoef="0" IVar="-1" Cut="0.0000000000000000e+00" cType="1" res="2.1399959223344922e-04" rms="4.5386540889739990e-01" purity="4.3852007389068604e-01" nType="-99"/>
          <Node pos="r" depth="2" NCoef="0" IVar="-1" Cut="0.0000000000000000e+00" cType="1" res="-1.9882458727806807e-03" rms="4.3271872401237488e-01" purity="3.4036347270011902e-01" nType="-99"/>
        </Node>
        <Node pos="r" depth="1" NCoef="0" IVar="6" Cut="1.8706885576248169e+00" cType="1" res="5.1035932265222073e-03" rms="4.5750233530998230e-01" purity="5.6011575460433960e-01" nType="0">
          <Node pos="l" depth="2" NCoef="0" IVar="-1" Cut="0.0000000000000000e+00" cType="1" res="2.2401646710932255e-03" rms="4.4848945736885071e-01" purity="6.6346913576126099e-01" nType="-99"/>
          <Node pos="r" depth="2" NCoef="0" IVar="-1" Cut="0.0000000000000000e+00" cType="1" res="-1.7580944404471666e-04" rms="4.5942959189414978e-01" purity="5.3377300500869751e-01" nType="-99"/>
        </Node>
      </Node>
    </BinaryTree>
    <BinaryTree type="DecisionTree" boostWeight="1.0000000000000000e+00" itree="355">
      <Node pos="s" depth="0" NCoef="0" IVar="5" Cut="9.0687173604965210e-01" cType="1" res="-1.9273562356829643e-03" rms="4.5392012596130371e-01" purity="4.9885746836662292e-01" nType="0">
        <Node pos="l" depth="1" NCoef="0" IVar="-1" Cut="0.0000000000000000e+00" cType="1" res="-2.6386168319731951e-03" rms="4.2281168699264526e-01" purity="2.6980501413345337e-01" nType="-99"/>
        <Node pos="r" depth="1" NCoef="0" IVar="1" Cut="8.3609930419921875e+02" cType="1" res="4.3521891348063946e-04" rms="4.5562428236007690e-01" purity="5.1269763708114624e-01" nType="0">
          <Node pos="l" depth="2" NCoef="0" IVar="-1" Cut="0.0000000000000000e+00" cType="1" res="-1.8898781854659319e-04" rms="4.5660704374313354e-01" purity="4.9605426192283630e-01" nType="-99"/>
          <Node pos="r" depth="2" NCoef="0" IVar="-1" Cut="0.0000000000000000e+00" cType="1" res="2.0061375107616186e-03" rms="4.4559329748153687e-01" purity="6.6065776348114014e-01" nType="-99"/>
        </Node>
      </Node>
    </BinaryTree>
    <BinaryTree type="DecisionTree" boostWeight="1.0000000000000000e+00" itree="356">
      <Node pos="s" depth="0" NCoef="0" IVar="4" Cut="6.6241914033889771e-01" cType="1" res="2.8866727370768785e-03" rms="4.5372331142425537e-01" purity="5.0314253568649292e-01" nType="0">
        <Node pos="l" depth="1" NCoef="0" IVar="1" Cut="7.6901562500000000e+02" cType="1" res="-1.1057202937081456e-03" rms="4.5419275760650635e-01" purity="4.9312323331832886e-01" nType="0">
          <Node pos="l" depth="2" NCoef="0" IVar="-1" Cut="0.0000000000000000e+00" cType="1" res="-3.3563416218385100e-04" rms="4.5537734031677246e-01" purity="4.6704107522964478e-01" nType="-99"/>
          <Node pos="r" depth="2" NCoef="0" IVar="-1" Cut="0.0000000000000000e+00" cType="1" res="1.4709060778841376e-03" rms="4.4660884141921997e-01" purity="6.4141613245010376e-01" nType="-99"/>
        </Node>
        <Node pos="r" depth="1" NCoef="0" IVar="-1" Cut="0.0000000000000000e+00" cType="1" res="2.4504598695784807e-03" rms="4.4775310158729553e-01" purity="5.9484267234802246e-01" nType="-99"/>
      </Node>
    </BinaryTree>
    <BinaryTree type="DecisionTree" boostWeight="1.0000000000000000e+00" itree="357">
      <Node pos="s" depth="0" NCoef="0" IVar="8" Cut="1.1523766517639160e+00" cType="1" res="3.6089383065700531e-03" rms="4.5385432243347168e-01" purity="5.0374001264572144e-01" nType="0">
        <Node pos="l" depth="1" NCoef="0" IVar="2" Cut="5.2653572082519531e+01" cType="1" res="1.7636543139815331e-02" rms="4.5646256208419800e-01" purity="5.4426366090774536e-01" nType="0">
          <Node pos="l" depth="2" NCoef="0" IVar="-1" Cut="0.0000000000000000e+00" cType="1" res="3.5133978817611933e-03" rms="4.6620222926139832e-01" purity="5.5975449085235596e-01" nType="-99"/>
          <Node pos="r" depth="2" NCoef="0" IVar="-1" Cut="0.0000000000000000e+00" cType="1" res="7.8846776159480214e-04" rms="4.5502963662147522e-01" purity="5.4240733385086060e-01" nType="-99"/>
        </Node>
        <Node pos="r" depth="1" NCoef="0" IVar="7" Cut="4.9392395019531250e+01" cType="1" res="-1.5588871203362942e-02" rms="4.4955140352249146e-01" purity="4.4828036427497864e-01" nType="0">
          <Node pos="l" depth="2" NCoef="0" IVar="-1" Cut="0.0000000000000000e+00" cType="1" res="-3.5513520706444979e-03" rms="4.1618075966835022e-01" purity="2.9493442177772522e-01" nType="-99"/>
          <Node pos="r" depth="2" NCoef="0" IVar="-1" Cut="0.0000000000000000e+00" cType="1" res="-3.4631087328307331e-04" rms="4.5762628316879272e-01" purity="4.8963022232055664e-01" nType="-99"/>
        </Node>
      </Node>
    </BinaryTree>
    <BinaryTree type="DecisionTree" boostWeight="1.0000000000000000e+00" itree="358">
      <Node pos="s" depth="0" NCoef="0" IVar="6" Cut="1.4159023761749268e+00" cType="1" res="5.4141553118824959e-03" rms="4.5625600218772888e-01" purity="5.0392401218414307e-01" nType="0">
        <Node pos="l" depth="1" NCoef="0" IVar="-1" Cut="0.0000000000000000e+00" cType="1" res="3.8068997673690319e-03" rms="4.3988847732543945e-01" purity="6.6084003448486328e-01" nType="-99"/>
        <Node pos="r" depth="1" NCoef="0" IVar="4" Cut="6.9307368993759155e-01" cType="1" res="1.9701677374541759e-03" rms="4.5700377225875854e-01" purity="4.9440065026283264e-01" nType="0">
          <Node pos="l" depth="2" NCoef="0" IVar="-1" Cut="0.0000000000000000e+00" cType="1" res="-5.4408097639679909e-05" rms="4.5729202032089233e-01" purity="4.8641130328178406e-01" nType="-99"/>
          <Node pos="r" depth="2" NCoef="0" IVar="-1" Cut="0.0000000000000000e+00" cType="1" res="2.3969416506588459e-03" rms="4.5178249478340149e-01" purity="5.9570407867431641e-01" nType="-99"/>
        </Node>
      </Node>
    </BinaryTree>
    <BinaryTree type="DecisionTree" boostWeight="1.0000000000000000e+00" itree="359">
      <Node pos="s" depth="0" NCoef="0" IVar="3" Cut="7.5149483978748322e-02" cType="1" res="-2.9776054434478283e-03" rms="4.5602852106094360e-01" purity="4.9481743574142456e-01" nType="0">
        <Node pos="l" depth="1" NCoef="0" IVar="1" Cut="4.0791708374023438e+02" cType="1" res="-1.0527728125452995e-02" rms="4.5744296908378601e-01" purity="5.0904315710067749e-01" nType="0">
          <Node pos="l" depth="2" NCoef="0" IVar="-1" Cut="0.0000000000000000e+00" cType="1" res="-2.4910748470574617e-03" rms="4.3474414944648743e-01" purity="3.3535477519035339e-01" nType="-99"/>
          <Node pos="r" depth="2" NCoef="0" IVar="-1" Cut="0.0000000000000000e+00" cType="1" res="-3.1005832715891302e-04" rms="4.6158090233802795e-01" purity="5.4322093725204468e-01" nType="-99"/>
        </Node>
        <Node pos="r" depth="1" NCoef="0" IVar="6" Cut="2.3202190399169922e+00" cType="1" res="1.5932472422719002e-02" rms="4.5191320776939392e-01" purity="4.5918753743171692e-01" nType="0">
          <Node pos="l" depth="2" NCoef="0" IVar="-1" Cut="0.0000000000000000e+00" cType="1" res="2.0306978840380907e-03" rms="4.6069329977035522e-01" purity="5.4839229583740234e-01" nType="-99"/>
          <Node pos="r" depth="2" NCoef="0" IVar="-1" Cut="0.0000000000000000e+00" cType="1" res="-3.6055207601748407e-04" rms="4.4015300273895264e-01" purity="3.5158622264862061e-01" nType="-99"/>
        </Node>
      </Node>
    </BinaryTree>
    <BinaryTree type="DecisionTree" boostWeight="1.0000000000000000e+00" itree="360">
      <Node pos="s" depth="0" NCoef="0" IVar="1" Cut="4.0923263549804688e+02" cType="1" res="7.3649869300425053e-03" rms="4.5533215999603271e-01" purity="5.0672352313995361e-01" nType="0">
        <Node pos="l" depth="1" NCoef="0" IVar="9" Cut="4.8634743690490723e-01" cType="1" res="-1.6775155439972878e-02" rms="4.3796840310096741e-01" purity="3.3141246438026428e-01" nType="0">
          <Node pos="l" depth="2" NCoef="0" IVar="-1" Cut="0.0000000000000000e+00" cType="1" res="-3.4653451293706894e-03" rms="4.3380057811737061e-01" purity="3.2366195321083069e-01" nType="-99"/>
          <Node pos="r" depth="2" NCoef="0" IVar="-1" Cut="0.0000000000000000e+00" cType="1" res="4.6771080815233290e-04" rms="4.3906539678573608e-01" purity="3.3646377921104431e-01" nType="-99"/>
        </Node>
        <Node pos="r" depth="1" NCoef="0" IVar="4" Cut="2.2719660401344299e-01" cType="1" res="1.2175154872238636e-02" rms="4.5856174826622009e-01" purity="5.4165601730346680e-01" nType="0">
          <Node pos="l" depth="2" NCoef="0" IVar="-1" Cut="0.0000000000000000e+00" cType="1" res="-6.2965456163510680e-04" rms="4.5761218667030334e-01" purity="4.4626185297966003e-01" nType="-99"/>
          <Node pos="r" depth="2" NCoef="0" IVar="-1" Cut="0.0000000000000000e+00" cType="1" res="1.1359448544681072e-03" rms="4.5863324403762817e-01" purity="5.6927305459976196e-01" nType="-99"/>
        </Node>
      </Node>
    </BinaryTree>
    <BinaryTree type="DecisionTree" boostWeight="1.0000000000000000e+00" itree="361">
      <Node pos="s" depth="0" NCoef="0" IVar="6" Cut="1.4940277338027954e+00" cType="1" res="1.7595948884263635e-03" rms="4.5443910360336304e-01" purity="5.0368744134902954e-01" nType="0">
        <Node pos="l" depth="1" NCoef="0" IVar="-1" Cut="0.0000000000000000e+00" cType="1" res="2.4985102936625481e-03" rms="4.5153585076332092e-01" purity="6.3796776533126831e-01" nType="-99"/>
        <Node pos="r" depth="1" NCoef="0" IVar="4" Cut="1.1736731976270676e-01" cType="1" res="-1.3661644188687205e-03" rms="4.5452755689620972e-01" purity="4.9288406968116760e-01" nType="0">
          <Node pos="l" depth="2" NCoef="0" IVar="-1" Cut="0.0000000000000000e+00" cType="1" res="-3.2457176130264997e-03" rms="4.4174849987030029e-01" purity="3.2425701618194580e-01" nType="-99"/>
          <Node pos="r" depth="2" NCoef="0" IVar="-1" Cut="0.0000000000000000e+00" cType="1" res="8.9367953478358686e-05" rms="4.5511370897293091e-01" purity="5.0281798839569092e-01" nType="-99"/>
        </Node>
      </Node>
    </BinaryTree>
    <BinaryTree type="DecisionTree" boostWeight="1.0000000000000000e+00" itree="362">
      <Node pos="s" depth="0" NCoef="0" IVar="4" Cut="7.1363991498947144e-01" cType="1" res="1.2443279847502708e-03" rms="4.5506614446640015e-01" purity="5.0356853008270264e-01" nType="0">
        <Node pos="l" depth="1" NCoef="0" IVar="4" Cut="1.2314885109663010e-01" cType="1" res="-1.8078766297549009e-03" rms="4.5561924576759338e-01" purity="4.9657428264617920e-01" nType="0">
          <Node pos="l" depth="2" NCoef="0" IVar="-1" Cut="0.0000000000000000e+00" cType="1" res="-2.4952671956270933e-03" rms="4.4437462091445923e-01" purity="3.4897148609161377e-01" nType="-99"/>
          <Node pos="r" depth="2" NCoef="0" IVar="-1" Cut="0.0000000000000000e+00" cType="1" res="4.2325227695982903e-05" rms="4.5626819133758545e-01" purity="5.0662457942962646e-01" nType="-99"/>
        </Node>
        <Node pos="r" depth="1" NCoef="0" IVar="-1" Cut="0.0000000000000000e+00" cType="1" res="3.6345766857266426e-03" rms="4.4085150957107544e-01" purity="6.3341850042343140e-01" nType="-99"/>
      </Node>
    </BinaryTree>
    <BinaryTree type="DecisionTree" boostWeight="1.0000000000000000e+00" itree="363">
      <Node pos="s" depth="0" NCoef="0" IVar="0" Cut="4.1266474723815918e+00" cType="1" res="4.7132768668234348e-04" rms="4.5377048850059509e-01" purity="5.0067299604415894e-01" nType="0">
        <Node pos="l" depth="1" NCoef="0" IVar="2" Cut="1.4815533447265625e+02" cType="1" res="-6.8233944475650787e-03" rms="4.6264633536338806e-01" purity="4.3753841519355774e-01" nType="0">
          <Node pos="l" depth="2" NCoef="0" IVar="-1" Cut="0.0000000000000000e+00" cType="1" res="-7.7457795850932598e-04" rms="4.6157822012901306e-01" purity="4.2960867285728455e-01" nType="-99"/>
          <Node pos="r" depth="2" NCoef="0" IVar="-1" Cut="0.0000000000000000e+00" cType="1" res="1.4941167319193482e-03" rms="4.6697694063186646e-01" purity="4.7893953323364258e-01" nType="-99"/>
        </Node>
        <Node pos="r" depth="1" NCoef="0" IVar="2" Cut="1.0885521697998047e+02" cType="1" res="2.8200110420584679e-02" rms="4.1715413331985474e-01" purity="7.4066084623336792e-01" nType="0">
          <Node pos="l" depth="2" NCoef="0" IVar="-1" Cut="0.0000000000000000e+00" cType="1" res="2.9792110435664654e-03" rms="4.1282010078430176e-01" purity="7.5023841857910156e-01" nType="-99"/>
          <Node pos="r" depth="2" NCoef="0" IVar="-1" Cut="0.0000000000000000e+00" cType="1" res="5.2059534937143326e-04" rms="4.2153549194335938e-01" purity="7.2880303859710693e-01" nType="-99"/>
        </Node>
      </Node>
    </BinaryTree>
    <BinaryTree type="DecisionTree" boostWeight="1.0000000000000000e+00" itree="364">
      <Node pos="s" depth="0" NCoef="0" IVar="5" Cut="9.0984034538269043e-01" cType="1" res="5.4800673387944698e-03" rms="4.5297935605049133e-01" purity="5.0647497177124023e-01" nType="0">
        <Node pos="l" depth="1" NCoef="0" IVar="-1" Cut="0.0000000000000000e+00" cType="1" res="-2.1396381780505180e-03" rms="4.2494156956672668e-01" purity="2.7907136082649231e-01" nType="-99"/>
        <Node pos="r" depth="1" NCoef="0" IVar="8" Cut="1.0765284299850464e+00" cType="1" res="8.2730064168572426e-03" rms="4.5479643344879150e-01" purity="5.2279019355773926e-01" nType="0">
          <Node pos="l" depth="2" NCoef="0" IVar="-1" Cut="0.0000000000000000e+00" cType="1" res="1.1336671886965632e-03" rms="4.5382890105247498e-01" purity="5.6671029329299927e-01" nType="-99"/>
          <Node pos="r" depth="2" NCoef="0" IVar="-1" Cut="0.0000000000000000e+00" cType="1" res="-1.7679465236142278e-04" rms="4.5560032129287720e-01" purity="4.7446629405021667e-01" nType="-99"/>
        </Node>
      </Node>
    </BinaryTree>
    <BinaryTree type="DecisionTree" boostWeight="1.0000000000000000e+00" itree="365">
      <Node pos="s" depth="0" NCoef="0" IVar="2" Cut="1.5735989379882812e+02" cType="1" res="1.0270260972902179e-03" rms="4.5582911372184753e-01" purity="5.0388467311859131e-01" nType="0">
        <Node pos="l" depth="1" NCoef="0" IVar="2" Cut="1.3439772033691406e+02" cType="1" res="-3.0981157906353474e-03" rms="4.5547613501548767e-01" purity="4.9890479445457458e-01" nType="0">
          <Node pos="l" depth="2" NCoef="0" IVar="-1" Cut="0.0000000000000000e+00" cType="1" res="6.3103332649916410e-05" rms="4.5529061555862427e-01" purity="4.9976152181625366e-01" nType="-99"/>
          <Node pos="r" depth="2" NCoef="0" IVar="-1" Cut="0.0000000000000000e+00" cType="1" res="-2.3143631406128407e-03" rms="4.5558741688728333e-01" purity="4.9183288216590881e-01" nType="-99"/>
        </Node>
        <Node pos="r" depth="1" NCoef="0" IVar="2" Cut="1.9683123779296875e+02" cType="1" res="2.8051337227225304e-02" rms="4.5721513032913208e-01" purity="5.3650856018066406e-01" nType="0">
          <Node pos="l" depth="2" NCoef="0" IVar="-1" Cut="0.0000000000000000e+00" cType="1" res="3.9542815648019314e-03" rms="4.6239730715751648e-01" purity="5.8074748516082764e-01" nType="-99"/>
          <Node pos="r" depth="2" NCoef="0" IVar="-1" Cut="0.0000000000000000e+00" cType="1" res="-6.7028484772890806e-04" rms="4.4824105501174927e-01" purity="4.8738184571266174e-01" nType="-99"/>
        </Node>
      </Node>
    </BinaryTree>
    <BinaryTree type="DecisionTree" boostWeight="1.0000000000000000e+00" itree="366">
      <Node pos="s" depth="0" NCoef="0" IVar="0" Cut="3.9455893039703369e+00" cType="1" res="-9.7096123499795794e-04" rms="4.5466071367263794e-01" purity="4.9782922863960266e-01" nType="0">
        <Node pos="l" depth="1" NCoef="0" IVar="3" Cut="1.2365347146987915e-01" cType="1" res="-6.4732464961707592e-03" rms="4.6213519573211670e-01" purity="4.2846477031707764e-01" nType="0">
          <Node pos="l" depth="2" NCoef="0" IVar="-1" Cut="0.0000000000000000e+00" cType="1" res="-6.9742550840601325e-04" rms="4.6348816156387329e-01" purity="4.3479320406913757e-01" nType="-99"/>
          <Node pos="r" depth="2" NCoef="0" IVar="-1" Cut="0.0000000000000000e+00" cType="1" res="1.3486929237842560e-03" rms="4.5375224947929382e-01" purity="3.9415460824966431e-01" nType="-99"/>
        </Node>
        <Node pos="r" depth="1" NCoef="0" IVar="4" Cut="3.4488430619239807e-01" cType="1" res="1.6209902241826057e-02" rms="4.3003430962562561e-01" purity="7.1441960334777832e-01" nType="0">
          <Node pos="l" depth="2" NCoef="0" IVar="-1" Cut="0.0000000000000000e+00" cType="1" res="-9.7781863587442786e-05" rms="4.5156303048133850e-01" purity="6.5083867311477661e-01" nType="-99"/>
          <Node pos="r" depth="2" NCoef="0" IVar="-1" Cut="0.0000000000000000e+00" cType="1" res="2.0121161360293627e-03" rms="4.1337549686431885e-01" purity="7.6017653942108154e-01" nType="-99"/>
        </Node>
      </Node>
    </BinaryTree>
    <BinaryTree type="DecisionTree" boostWeight="1.0000000000000000e+00" itree="367">
      <Node pos="s" depth="0" NCoef="0" IVar="3" Cut="1.7086297273635864e-01" cType="1" res="1.0326371993869543e-03" rms="4.5435628294944763e-01" purity="5.0093287229537964e-01" nType="0">
        <Node pos="l" depth="1" NCoef="0" IVar="9" Cut="1.0287178754806519e+00" cType="1" res="-2.2200802341103554e-03" rms="4.5477810502052307e-01" purity="5.0475114583969116e-01" nType="0">
          <Node pos="l" depth="2" NCoef="0" IVar="-1" Cut="0.0000000000000000e+00" cType="1" res="2.1642108549713157e-05" rms="4.5543935894966125e-01" purity="5.1685738563537598e-01" nType="-99"/>
          <Node pos="r" depth="2" NCoef="0" IVar="-1" Cut="0.0000000000000000e+00" cType="1" res="-2.4846009910106659e-03" rms="4.4400203227996826e-01" purity="3.3721035718917847e-01" nType="-99"/>
        </Node>
        <Node pos="r" depth="1" NCoef="0" IVar="-1" Cut="0.0000000000000000e+00" cType="1" res="2.8879754245281219e-03" rms="4.4630533456802368e-01" purity="4.4937092065811157e-01" nType="-99"/>
      </Node>
    </BinaryTree>
    <BinaryTree type="DecisionTree" boostWeight="1.0000000000000000e+00" itree="368">
      <Node pos="s" depth="0" NCoef="0" IVar="8" Cut="1.1666857004165649e+00" cType="1" res="3.7852062378078699e-03" rms="4.5471727848052979e-01" purity="5.0594717264175415e-01" nType="0">
        <Node pos="l" depth="1" NCoef="0" IVar="3" Cut="7.7875316143035889e-02" cType="1" res="1.3637287542223930e-02" rms="4.5716550946235657e-01" purity="5.4353994131088257e-01" nType="0">
          <Node pos="l" depth="2" NCoef="0" IVar="-1" Cut="0.0000000000000000e+00" cType="1" res="3.9370157173834741e-04" rms="4.5742741227149963e-01" purity="5.5422580242156982e-01" nType="-99"/>
          <Node pos="r" depth="2" NCoef="0" IVar="-1" Cut="0.0000000000000000e+00" cType="1" res="2.1436833776533604e-03" rms="4.5576405525207520e-01" purity="5.1286518573760986e-01" nType="-99"/>
        </Node>
        <Node pos="r" depth="1" NCoef="0" IVar="1" Cut="5.8557519531250000e+02" cType="1" res="-1.0722866281867027e-02" rms="4.5069593191146851e-01" purity="4.5058846473693848e-01" nType="0">
          <Node pos="l" depth="2" NCoef="0" IVar="-1" Cut="0.0000000000000000e+00" cType="1" res="-1.2805839069187641e-03" rms="4.4755777716636658e-01" purity="4.0244409441947937e-01" nType="-99"/>
          <Node pos="r" depth="2" NCoef="0" IVar="-1" Cut="0.0000000000000000e+00" cType="1" res="8.5147016216069460e-04" rms="4.5795014500617981e-01" purity="5.7766711711883545e-01" nType="-99"/>
        </Node>
      </Node>
    </BinaryTree>
    <BinaryTree type="DecisionTree" boostWeight="1.0000000000000000e+00" itree="369">
      <Node pos="s" depth="0" NCoef="0" IVar="0" Cut="4.9197459220886230e+00" cType="1" res="5.0483515224186704e-05" rms="4.5446974039077759e-01" purity="5.0023174285888672e-01" nType="0">
        <Node pos="l" depth="1" NCoef="0" IVar="4" Cut="2.8832191228866577e-01" cType="1" res="-3.5261958837509155e-03" rms="4.6087521314620972e-01" purity="4.6744447946548462e-01" nType="0">
          <Node pos="l" depth="2" NCoef="0" IVar="-1" Cut="0.0000000000000000e+00" cType="1" res="-9.8108104430139065e-04" rms="4.5293033123016357e-01" purity="3.9852687716484070e-01" nType="-99"/>
          <Node pos="r" depth="2" NCoef="0" IVar="-1" Cut="0.0000000000000000e+00" cType="1" res="1.4857402129564434e-04" rms="4.6465626358985901e-01" purity="5.0168627500534058e-01" nType="-99"/>
        </Node>
        <Node pos="r" depth="1" NCoef="0" IVar="-1" Cut="0.0000000000000000e+00" cType="1" res="2.4043514858931303e-03" rms="3.9139527082443237e-01" purity="7.9226738214492798e-01" nType="-99"/>
      </Node>
    </BinaryTree>
    <BinaryTree type="DecisionTree" boostWeight="1.0000000000000000e+00" itree="370">
      <Node pos="s" depth="0" NCoef="0" IVar="0" Cut="1.5132720470428467e+00" cType="1" res="-3.6478293623076752e-05" rms="4.5413246750831604e-01" purity="5.0134640932083130e-01" nType="0">
        <Node pos="l" depth="1" NCoef="0" IVar="2" Cut="7.2252975463867188e+01" cType="1" res="-3.0721943825483322e-02" rms="4.2365974187850952e-01" purity="2.7832585573196411e-01" nType="0">
          <Node pos="l" depth="2" NCoef="0" IVar="-1" Cut="0.0000000000000000e+00" cType="1" res="-4.4521172530949116e-03" rms="4.0243977308273315e-01" purity="2.2836524248123169e-01" nType="-99"/>
          <Node pos="r" depth="2" NCoef="0" IVar="-1" Cut="0.0000000000000000e+00" cType="1" res="-1.2264444958418608e-03" rms="4.3160063028335571e-01" purity="2.9934388399124146e-01" nType="-99"/>
        </Node>
        <Node pos="r" depth="1" NCoef="0" IVar="3" Cut="1.1254765093326569e-01" cType="1" res="6.2507116235792637e-03" rms="4.5987436175346375e-01" purity="5.4704141616821289e-01" nType="0">
          <Node pos="l" depth="2" NCoef="0" IVar="-1" Cut="0.0000000000000000e+00" cType="1" res="-3.0470997444353998e-05" rms="4.6073749661445618e-01" purity="5.5670189857482910e-01" nType="-99"/>
          <Node pos="r" depth="2" NCoef="0" IVar="-1" Cut="0.0000000000000000e+00" cType="1" res="2.1908550988882780e-03" rms="4.5483636856079102e-01" purity="5.0430971384048462e-01" nType="-99"/>
        </Node>
      </Node>
    </BinaryTree>
    <BinaryTree type="DecisionTree" boostWeight="1.0000000000000000e+00" itree="371">
      <Node pos="s" depth="0" NCoef="0" IVar="6" Cut="2.8464171886444092e+00" cType="1" res="-2.8862555045634508e-03" rms="4.5633980631828308e-01" purity="5.0127422809600830e-01" nType="0">
        <Node pos="l" depth="1" NCoef="0" IVar="5" Cut="9.8752242326736450e-01" cType="1" res="2.8010612004436553e-04" rms="4.5990210771560669e-01" purity="5.2000582218170166e-01" nType="0">
          <Node pos="l" depth="2" NCoef="0" IVar="-1" Cut="0.0000000000000000e+00" cType="1" res="-1.8996838480234146e-04" rms="4.6613377332687378e-01" purity="4.9330055713653564e-01" nType="-99"/>
          <Node pos="r" depth="2" NCoef="0" IVar="-1" Cut="0.0000000000000000e+00" cType="1" res="2.7544195763766766e-03" rms="3.8627475500106812e-01" purity="8.0175232887268066e-01" nType="-99"/>
        </Node>
        <Node pos="r" depth="1" NCoef="0" IVar="-1" Cut="0.0000000000000000e+00" cType="1" res="-3.9795464836061001e-03" rms="3.9264592528343201e-01" purity="2.0613026618957520e-01" nType="-99"/>
      </Node>
    </BinaryTree>
    <BinaryTree type="DecisionTree" boostWeight="1.0000000000000000e+00" itree="372">
      <Node pos="s" depth="0" NCoef="0" IVar="4" Cut="3.8871157169342041e-01" cType="1" res="-1.0776815470308065e-03" rms="4.5263504981994629e-01" purity="4.9869424104690552e-01" nType="0">
        <Node pos="l" depth="1" NCoef="0" IVar="1" Cut="7.6199047851562500e+02" cType="1" res="-1.1927107349038124e-02" rms="4.5222166180610657e-01" purity="4.5053765177726746e-01" nType="0">
          <Node pos="l" depth="2" NCoef="0" IVar="-1" Cut="0.0000000000000000e+00" cType="1" res="-1.2330944882705808e-03" rms="4.5172309875488281e-01" purity="4.1313570737838745e-01" nType="-99"/>
          <Node pos="r" depth="2" NCoef="0" IVar="-1" Cut="0.0000000000000000e+00" cType="1" res="1.2485425686463714e-03" rms="4.5289978384971619e-01" purity="6.0806834697723389e-01" nType="-99"/>
        </Node>
        <Node pos="r" depth="1" NCoef="0" IVar="3" Cut="-4.5579306781291962e-02" cType="1" res="1.0092055425047874e-02" rms="4.5278874039649963e-01" purity="5.4827255010604858e-01" nType="0">
          <Node pos="l" depth="2" NCoef="0" IVar="-1" Cut="0.0000000000000000e+00" cType="1" res="2.1924902684986591e-03" rms="4.4635549187660217e-01" purity="6.0108226537704468e-01" nType="-99"/>
          <Node pos="r" depth="2" NCoef="0" IVar="-1" Cut="0.0000000000000000e+00" cType="1" res="1.1999178968835622e-04" rms="4.5457911491394043e-01" purity="5.3098076581954956e-01" nType="-99"/>
        </Node>
      </Node>
    </BinaryTree>
    <BinaryTree type="DecisionTree" boostWeight="1.0000000000000000e+00" itree="373">
      <Node pos="s" depth="0" NCoef="0" IVar="5" Cut="9.0596204996109009e-01" cType="1" res="3.3547086059115827e-04" rms="4.5404976606369019e-01" purity="5.0100767612457275e-01" nType="0">
        <Node pos="l" depth="1" NCoef="0" IVar="-1" Cut="0.0000000000000000e+00" cType="1" res="-2.4338110815733671e-03" rms="4.2602053284645081e-01" purity="2.6835462450981140e-01" nType="-99"/>
        <Node pos="r" depth="1" NCoef="0" IVar="2" Cut="1.7250158691406250e+02" cType="1" res="2.4235551245510578e-03" rms="4.5543351769447327e-01" purity="5.1367354393005371e-01" nType="0">
          <Node pos="l" depth="2" NCoef="0" IVar="-1" Cut="0.0000000000000000e+00" cType="1" res="-6.8225795985199511e-05" rms="4.5482823252677917e-01" purity="5.1024842262268066e-01" nType="-99"/>
          <Node pos="r" depth="2" NCoef="0" IVar="-1" Cut="0.0000000000000000e+00" cType="1" res="2.2287890315055847e-03" rms="4.5973324775695801e-01" purity="5.4552382230758667e-01" nType="-99"/>
        </Node>
      </Node>
    </BinaryTree>
    <BinaryTree type="DecisionTree" boostWeight="1.0000000000000000e+00" itree="374">
      <Node pos="s" depth="0" NCoef="0" IVar="5" Cut="9.2251002788543701e-01" cType="1" res="-2.6412589941173792e-03" rms="4.5422741770744324e-01" purity="4.9981188774108887e-01" nType="0">
        <Node pos="l" depth="1" NCoef="0" IVar="2" Cut="1.0332900238037109e+02" cType="1" res="-3.5719215869903564e-02" rms="4.2521411180496216e-01" purity="2.8541001677513123e-01" nType="0">
          <Node pos="l" depth="2" NCoef="0" IVar="-1" Cut="0.0000000000000000e+00" cType="1" res="-3.7708347663283348e-03" rms="4.1156002879142761e-01" purity="2.3970964550971985e-01" nType="-99"/>
          <Node pos="r" depth="2" NCoef="0" IVar="-1" Cut="0.0000000000000000e+00" cType="1" res="-4.8793278983794153e-04" rms="4.4100424647331238e-01" purity="3.4566801786422729e-01" nType="-99"/>
        </Node>
        <Node pos="r" depth="1" NCoef="0" IVar="9" Cut="1.0322053432464600e+00" cType="1" res="2.8300029225647449e-03" rms="4.5861968398094177e-01" purity="5.3527504205703735e-01" nType="0">
          <Node pos="l" depth="2" NCoef="0" IVar="-1" Cut="0.0000000000000000e+00" cType="1" res="3.4508135286159813e-04" rms="4.5896831154823303e-01" purity="5.4647976160049438e-01" nType="-99"/>
          <Node pos="r" depth="2" NCoef="0" IVar="-1" Cut="0.0000000000000000e+00" cType="1" res="-2.3789834231138229e-03" rms="4.5153006911277771e-01" purity="3.6978983879089355e-01" nType="-99"/>
        </Node>
      </Node>
    </BinaryTree>
    <BinaryTree type="DecisionTree" boostWeight="1.0000000000000000e+00" itree="375">
      <Node pos="s" depth="0" NCoef="0" IVar="0" Cut="4.1909947395324707e+00" cType="1" res="2.1831428166478872e-03" rms="4.5396080613136292e-01" purity="5.0461804866790771e-01" nType="0">
        <Node pos="l" depth="1" NCoef="0" IVar="2" Cut="1.7365988159179688e+02" cType="1" res="-2.2993993479758501e-03" rms="4.6238392591476440e-01" purity="4.4395595788955688e-01" nType="0">
          <Node pos="l" depth="2" NCoef="0" IVar="-1" Cut="0.0000000000000000e+00" cType="1" res="-3.4767066244967282e-04" rms="4.6235096454620361e-01" purity="4.4024705886840820e-01" nType="-99"/>
          <Node pos="r" depth="2" NCoef="0" IVar="-1" Cut="0.0000000000000000e+00" cType="1" res="1.8637966131791472e-03" rms="4.6144932508468628e-01" purity="4.7917291522026062e-01" nType="-99"/>
        </Node>
        <Node pos="r" depth="1" NCoef="0" IVar="5" Cut="9.7749221324920654e-01" cType="1" res="1.9539758563041687e-02" rms="4.1930305957794189e-01" purity="7.3950445652008057e-01" nType="0">
          <Node pos="l" depth="2" NCoef="0" IVar="-1" Cut="0.0000000000000000e+00" cType="1" res="1.9717756658792496e-03" rms="4.3632927536964417e-01" purity="7.0939594507217407e-01" nType="-99"/>
          <Node pos="r" depth="2" NCoef="0" IVar="-1" Cut="0.0000000000000000e+00" cType="1" res="1.8211235874332488e-04" rms="3.9259546995162964e-01" purity="7.8328239917755127e-01" nType="-99"/>
        </Node>
      </Node>
    </BinaryTree>
    <BinaryTree type="DecisionTree" boostWeight="1.0000000000000000e+00" itree="376">
      <Node pos="s" depth="0" NCoef="0" IVar="9" Cut="6.8703013658523560e-01" cType="1" res="-2.6234043762087822e-03" rms="4.5455992221832275e-01" purity="4.9645677208900452e-01" nType="0">
        <Node pos="l" depth="1" NCoef="0" IVar="2" Cut="1.5952795410156250e+02" cType="1" res="-9.1476785019040108e-03" rms="4.5645695924758911e-01" purity="5.1823258399963379e-01" nType="0">
          <Node pos="l" depth="2" NCoef="0" IVar="-1" Cut="0.0000000000000000e+00" cType="1" res="-8.3847093628719449e-04" rms="4.5598486065864563e-01" purity="5.0953876972198486e-01" nType="-99"/>
          <Node pos="r" depth="2" NCoef="0" IVar="-1" Cut="0.0000000000000000e+00" cType="1" res="1.7438451759517193e-03" rms="4.5871075987815857e-01" purity="5.8976739645004272e-01" nType="-99"/>
        </Node>
        <Node pos="r" depth="1" NCoef="0" IVar="0" Cut="3.0473310947418213e+00" cType="1" res="1.2136123143136501e-02" rms="4.4988980889320374e-01" purity="4.4719436764717102e-01" nType="0">
          <Node pos="l" depth="2" NCoef="0" IVar="-1" Cut="0.0000000000000000e+00" cType="1" res="-4.3615471804514527e-04" rms="4.4194042682647705e-01" purity="3.3206188678741455e-01" nType="-99"/>
          <Node pos="r" depth="2" NCoef="0" IVar="-1" Cut="0.0000000000000000e+00" cType="1" res="2.3651279043406248e-03" rms="4.6013152599334717e-01" purity="6.1992967128753662e-01" nType="-99"/>
        </Node>
      </Node>
    </BinaryTree>
    <BinaryTree type="DecisionTree" boostWeight="1.0000000000000000e+00" itree="377">
      <Node pos="s" depth="0" NCoef="0" IVar="5" Cut="9.4147235155105591e-01" cType="1" res="8.2837621448561549e-04" rms="4.5159649848937988e-01" purity="5.0116324424743652e-01" nType="0">
        <Node pos="l" depth="1" NCoef="0" IVar="3" Cut="-3.6247845739126205e-02" cType="1" res="-1.5905184671282768e-02" rms="4.4535163044929504e-01" purity="3.4263902902603149e-01" nType="0">
          <Node pos="l" depth="2" NCoef="0" IVar="-1" Cut="0.0000000000000000e+00" cType="1" res="-3.7655192427337170e-03" rms="4.4156199693679810e-01" purity="3.3236339688301086e-01" nType="-99"/>
          <Node pos="r" depth="2" NCoef="0" IVar="-1" Cut="0.0000000000000000e+00" cType="1" res="-3.2254503457807004e-04" rms="4.4552108645439148e-01" purity="3.4500774741172791e-01" nType="-99"/>
        </Node>
        <Node pos="r" depth="1" NCoef="0" IVar="1" Cut="3.8199645996093750e+02" cType="1" res="9.0528335422277451e-03" rms="4.5440855622291565e-01" purity="5.7907706499099731e-01" nType="0">
          <Node pos="l" depth="2" NCoef="0" IVar="-1" Cut="0.0000000000000000e+00" cType="1" res="-1.9532742444425821e-03" rms="4.4804728031158447e-01" purity="3.6825683712959290e-01" nType="-99"/>
          <Node pos="r" depth="2" NCoef="0" IVar="-1" Cut="0.0000000000000000e+00" cType="1" res="8.1502285320311785e-04" rms="4.5487216114997864e-01" purity="6.0091894865036011e-01" nType="-99"/>
        </Node>
      </Node>
    </BinaryTree>
    <BinaryTree type="DecisionTree" boostWeight="1.0000000000000000e+00" itree="378">
      <Node pos="s" depth="0" NCoef="0" IVar="3" Cut="1.7354539036750793e-01" cType="1" res="-3.3726077526807785e-03" rms="4.5640751719474792e-01" purity="4.9730548262596130e-01" nType="0">
        <Node pos="l" depth="1" NCoef="0" IVar="8" Cut="6.2830978631973267e-01" cType="1" res="-6.5715368837118149e-03" rms="4.5666944980621338e-01" purity="5.0008684396743774e-01" nType="0">
          <Node pos="l" depth="2" NCoef="0" IVar="-1" Cut="0.0000000000000000e+00" cType="1" res="1.1159365531057119e-03" rms="4.4739159941673279e-01" purity="5.7641232013702393e-01" nType="-99"/>
          <Node pos="r" depth="2" NCoef="0" IVar="-1" Cut="0.0000000000000000e+00" cType="1" res="-5.9415446594357491e-04" rms="4.5768323540687561e-01" purity="4.9092501401901245e-01" nType="-99"/>
        </Node>
        <Node pos="r" depth="1" NCoef="0" IVar="-1" Cut="0.0000000000000000e+00" cType="1" res="2.7040587738156319e-03" rms="4.5021539926528931e-01" purity="4.5776492357254028e-01" nType="-99"/>
      </Node>
    </BinaryTree>
    <BinaryTree type="DecisionTree" boostWeight="1.0000000000000000e+00" itree="379">
      <Node pos="s" depth="0" NCoef="0" IVar="6" Cut="1.7696740627288818e+00" cType="1" res="3.0675355810672045e-03" rms="4.5568084716796875e-01" purity="5.0390040874481201e-01" nType="0">
        <Node pos="l" depth="1" NCoef="0" IVar="4" Cut="4.1123148798942566e-01" cType="1" res="2.6826569810509682e-02" rms="4.5005679130554199e-01" purity="6.1275494098663330e-01" nType="0">
          <Node pos="l" depth="2" NCoef="0" IVar="-1" Cut="0.0000000000000000e+00" cType="1" res="2.8110467828810215e-03" rms="4.5797809958457947e-01" purity="6.1105793714523315e-01" nType="-99"/>
          <Node pos="r" depth="2" NCoef="0" IVar="-1" Cut="0.0000000000000000e+00" cType="1" res="5.3297751583158970e-04" rms="4.4174790382385254e-01" purity="6.1433959007263184e-01" nType="-99"/>
        </Node>
        <Node pos="r" depth="1" NCoef="0" IVar="7" Cut="9.0753242492675781e+01" cType="1" res="-1.2503308244049549e-03" rms="4.5656275749206543e-01" purity="4.8411762714385986e-01" nType="0">
          <Node pos="l" depth="2" NCoef="0" IVar="-1" Cut="0.0000000000000000e+00" cType="1" res="1.8337248184252530e-04" rms="4.5435339212417603e-01" purity="4.5838797092437744e-01" nType="-99"/>
          <Node pos="r" depth="2" NCoef="0" IVar="-1" Cut="0.0000000000000000e+00" cType="1" res="-1.0076134931296110e-03" rms="4.6406492590904236e-01" purity="5.7606446743011475e-01" nType="-99"/>
        </Node>
      </Node>
    </BinaryTree>
    <BinaryTree type="DecisionTree" boostWeight="1.0000000000000000e+00" itree="380">
      <Node pos="s" depth="0" NCoef="0" IVar="5" Cut="9.3016934394836426e-01" cType="1" res="-4.6497755683958530e-03" rms="4.5546099543571472e-01" purity="4.9414163827896118e-01" nType="0">
        <Node pos="l" depth="1" NCoef="0" IVar="9" Cut="6.6643345355987549e-01" cType="1" res="-3.0032644048333168e-02" rms="4.3720394372940063e-01" purity="3.0234441161155701e-01" nType="0">
          <Node pos="l" depth="2" NCoef="0" IVar="-1" Cut="0.0000000000000000e+00" cType="1" res="-2.6677709538489580e-03" rms="4.4190949201583862e-01" purity="3.1347668170928955e-01" nType="-99"/>
          <Node pos="r" depth="2" NCoef="0" IVar="-1" Cut="0.0000000000000000e+00" cType="1" res="-3.7637515924870968e-04" rms="4.2743468284606934e-01" purity="2.8213801980018616e-01" nType="-99"/>
        </Node>
        <Node pos="r" depth="1" NCoef="0" IVar="7" Cut="7.5768112182617188e+01" cType="1" res="2.3341670166701078e-03" rms="4.6011170744895935e-01" purity="5.4691344499588013e-01" nType="0">
          <Node pos="l" depth="2" NCoef="0" IVar="-1" Cut="0.0000000000000000e+00" cType="1" res="8.7782426271587610e-04" rms="4.6079650521278381e-01" purity="5.0741922855377197e-01" nType="-99"/>
          <Node pos="r" depth="2" NCoef="0" IVar="-1" Cut="0.0000000000000000e+00" cType="1" res="-1.1051187757402658e-03" rms="4.5828917622566223e-01" purity="6.1238527297973633e-01" nType="-99"/>
        </Node>
      </Node>
    </BinaryTree>
    <BinaryTree type="DecisionTree" boostWeight="1.0000000000000000e+00" itree="381">
      <Node pos="s" depth="0" NCoef="0" IVar="0" Cut="4.0571575164794922e+00" cType="1" res="2.4463239242322743e-04" rms="4.5349431037902832e-01" purity="4.9593082070350647e-01" nType="0">
        <Node pos="l" depth="1" NCoef="0" IVar="3" Cut="1.7334492504596710e-01" cType="1" res="-6.4198910258710384e-03" rms="4.6127060055732727e-01" purity="4.2908346652984619e-01" nType="0">
          <Node pos="l" depth="2" NCoef="0" IVar="-1" Cut="0.0000000000000000e+00" cType="1" res="-5.7230197126045823e-04" rms="4.6300911903381348e-01" purity="4.3191128969192505e-01" nType="-99"/>
          <Node pos="r" depth="2" NCoef="0" IVar="-1" Cut="0.0000000000000000e+00" cType="1" res="2.3388634435832500e-03" rms="4.3436482548713684e-01" purity="3.8992059230804443e-01" nType="-99"/>
        </Node>
        <Node pos="r" depth="1" NCoef="0" IVar="8" Cut="1.0629528760910034e+00" cType="1" res="2.3617919534444809e-02" rms="4.2427247762680054e-01" purity="7.3037272691726685e-01" nType="0">
          <Node pos="l" depth="2" NCoef="0" IVar="-1" Cut="0.0000000000000000e+00" cType="1" res="2.8706202283501625e-03" rms="4.0437895059585571e-01" purity="7.7579152584075928e-01" nType="-99"/>
          <Node pos="r" depth="2" NCoef="0" IVar="-1" Cut="0.0000000000000000e+00" cType="1" res="3.2175178057514131e-04" rms="4.4469597935676575e-01" purity="6.7967003583908081e-01" nType="-99"/>
        </Node>
      </Node>
    </BinaryTree>
    <BinaryTree type="DecisionTree" boostWeight="1.0000000000000000e+00" itree="382">
      <Node pos="s" depth="0" NCoef="0" IVar="0" Cut="5.4538373947143555e+00" cType="1" res="6.0828253626823425e-03" rms="4.5466053485870361e-01" purity="5.0462639331817627e-01" nType="0">
        <Node pos="l" depth="1" NCoef="0" IVar="4" Cut="6.7924112081527710e-01" cType="1" res="3.3847272861748934e-03" rms="4.5926705002784729e-01" purity="4.8626992106437683e-01" nType="0">
          <Node pos="l" depth="2" NCoef="0" IVar="-1" Cut="0.0000000000000000e+00" cType="1" res="3.2240583095699549e-05" rms="4.5911508798599243e-01" purity="4.7805246710777283e-01" nType="-99"/>
          <Node pos="r" depth="2" NCoef="0" IVar="-1" Cut="0.0000000000000000e+00" cType="1" res="2.1725783590227365e-03" rms="4.5974916219711304e-01" purity="5.7861369848251343e-01" nType="-99"/>
        </Node>
        <Node pos="r" depth="1" NCoef="0" IVar="-1" Cut="0.0000000000000000e+00" cType="1" res="4.3690828606486320e-03" rms="3.5907536745071411e-01" purity="8.3303725719451904e-01" nType="-99"/>
      </Node>
    </BinaryTree>
    <BinaryTree type="DecisionTree" boostWeight="1.0000000000000000e+00" itree="383">
      <Node pos="s" depth="0" NCoef="0" IVar="8" Cut="6.2887811660766602e-01" cType="1" res="-1.0966248373733833e-04" rms="4.5821768045425415e-01" purity="4.9802330136299133e-01" nType="0">
        <Node pos="l" depth="1" NCoef="0" IVar="1" Cut="6.1308032226562500e+02" cType="1" res="3.9955377578735352e-02" rms="4.5540615916252136e-01" purity="5.9982293844223022e-01" nType="0">
          <Node pos="l" depth="2" NCoef="0" IVar="-1" Cut="0.0000000000000000e+00" cType="1" res="3.0340102966874838e-03" rms="4.6546459197998047e-01" purity="5.5350756645202637e-01" nType="-99"/>
          <Node pos="r" depth="2" NCoef="0" IVar="-1" Cut="0.0000000000000000e+00" cType="1" res="1.8432164797559381e-03" rms="4.4422975182533264e-01" purity="6.4900159835815430e-01" nType="-99"/>
        </Node>
        <Node pos="r" depth="1" NCoef="0" IVar="3" Cut="1.7694477736949921e-01" cType="1" res="-4.7331526875495911e-03" rms="4.5831564068794250e-01" purity="4.8627564311027527e-01" nType="0">
          <Node pos="l" depth="2" NCoef="0" IVar="-1" Cut="0.0000000000000000e+00" cType="1" res="-4.5893806964159012e-04" rms="4.5871090888977051e-01" purity="4.8961952328681946e-01" nType="-99"/>
          <Node pos="r" depth="2" NCoef="0" IVar="-1" Cut="0.0000000000000000e+00" cType="1" res="2.0941242109984159e-03" rms="4.5091181993484497e-01" purity="4.3812447786331177e-01" nType="-99"/>
        </Node>
      </Node>
    </BinaryTree>
    <BinaryTree type="DecisionTree" boostWeight="1.0000000000000000e+00" itree="384">
      <Node pos="s" depth="0" NCoef="0" IVar="6" Cut="1.3986191749572754e+00" cType="1" res="1.4426974812522531e-03" rms="4.5560628175735474e-01" purity="5.0025767087936401e-01" nType="0">
        <Node pos="l" depth="1" NCoef="0" IVar="-1" Cut="0.0000000000000000e+00" cType="1" res="2.3474879562854767e-03" rms="4.4478937983512878e-01" purity="6.2846499681472778e-01" nType="-99"/>
        <Node pos="r" depth="1" NCoef="0" IVar="2" Cut="8.4204696655273438e+01" cType="1" res="-5.7157856645062566e-04" rms="4.5611038804054260e-01" purity="4.9318596720695496e-01" nType="0">
          <Node pos="l" depth="2" NCoef="0" IVar="-1" Cut="0.0000000000000000e+00" cType="1" res="-7.3650432750582695e-04" rms="4.5816478133201599e-01" purity="4.5232886075973511e-01" nType="-99"/>
          <Node pos="r" depth="2" NCoef="0" IVar="-1" Cut="0.0000000000000000e+00" cType="1" res="3.6612094845622778e-04" rms="4.5482170581817627e-01" purity="5.1625585556030273e-01" nType="-99"/>
        </Node>
      </Node>
    </BinaryTree>
    <BinaryTree type="DecisionTree" boostWeight="1.0000000000000000e+00" itree="385">
      <Node pos="s" depth="0" NCoef="0" IVar="0" Cut="3.9956388473510742e+00" cType="1" res="-1.4810692518949509e-03" rms="4.5421510934829712e-01" purity="5.0222140550613403e-01" nType="0">
        <Node pos="l" depth="1" NCoef="0" IVar="9" Cut="2.5328189134597778e-01" cType="1" res="-8.0296322703361511e-03" rms="4.6395725011825562e-01" purity="4.3133655190467834e-01" nType="0">
          <Node pos="l" depth="2" NCoef="0" IVar="-1" Cut="0.0000000000000000e+00" cType="1" res="1.5193236758932471e-03" rms="4.6689933538436890e-01" purity="5.1365983486175537e-01" nType="-99"/>
          <Node pos="r" depth="2" NCoef="0" IVar="-1" Cut="0.0000000000000000e+00" cType="1" res="-8.6096854647621512e-04" rms="4.6317514777183533e-01" purity="4.1672965884208679e-01" nType="-99"/>
        </Node>
        <Node pos="r" depth="1" NCoef="0" IVar="4" Cut="5.6792169809341431e-01" cType="1" res="1.9514184445142746e-02" rms="4.2077878117561340e-01" purity="7.2948437929153442e-01" nType="0">
          <Node pos="l" depth="2" NCoef="0" IVar="-1" Cut="0.0000000000000000e+00" cType="1" res="1.9242349080741405e-03" rms="4.2026549577713013e-01" purity="7.2583866119384766e-01" nType="-99"/>
          <Node pos="r" depth="2" NCoef="0" IVar="-1" Cut="0.0000000000000000e+00" cType="1" res="-8.4085215348750353e-04" rms="4.2094659805297852e-01" purity="7.4140465259552002e-01" nType="-99"/>
        </Node>
      </Node>
    </BinaryTree>
    <BinaryTree type="DecisionTree" boostWeight="1.0000000000000000e+00" itree="386">
      <Node pos="s" depth="0" NCoef="0" IVar="4" Cut="5.5290538072586060e-01" cType="1" res="-5.3523234091699123e-03" rms="4.5508196949958801e-01" purity="4.9465134739875793e-01" nType="0">
        <Node pos="l" depth="1" NCoef="0" IVar="6" Cut="1.6724123954772949e+00" cType="1" res="-1.3218078762292862e-02" rms="4.5560652017593384e-01" purity="4.6997201442718506e-01" nType="0">
          <Node pos="l" depth="2" NCoef="0" IVar="-1" Cut="0.0000000000000000e+00" cType="1" res="1.2448319466784596e-03" rms="4.5110222697257996e-01" purity="5.9666067361831665e-01" nType="-99"/>
          <Node pos="r" depth="2" NCoef="0" IVar="-1" Cut="0.0000000000000000e+00" cType="1" res="-1.0939510539174080e-03" rms="4.5599284768104553e-01" purity="4.5417982339859009e-01" nType="-99"/>
        </Node>
        <Node pos="r" depth="1" NCoef="0" IVar="8" Cut="1.0190929174423218e+00" cType="1" res="2.0700076594948769e-02" rms="4.5236468315124512e-01" purity="5.7639235258102417e-01" nType="0">
          <Node pos="l" depth="2" NCoef="0" IVar="-1" Cut="0.0000000000000000e+00" cType="1" res="2.4625323712825775e-03" rms="4.4120764732360840e-01" purity="6.3250881433486938e-01" nType="-99"/>
          <Node pos="r" depth="2" NCoef="0" IVar="-1" Cut="0.0000000000000000e+00" cType="1" res="3.7082243943586946e-04" rms="4.6029376983642578e-01" purity="5.3285425901412964e-01" nType="-99"/>
        </Node>
      </Node>
    </BinaryTree>
    <BinaryTree type="DecisionTree" boostWeight="1.0000000000000000e+00" itree="387">
      <Node pos="s" depth="0" NCoef="0" IVar="7" Cut="5.0222537994384766e+01" cType="1" res="-3.1882320763543248e-04" rms="4.5472168922424316e-01" purity="5.0122308731079102e-01" nType="0">
        <Node pos="l" depth="1" NCoef="0" IVar="6" Cut="2.3021731376647949e+00" cType="1" res="-2.2464225068688393e-02" rms="4.4032731652259827e-01" purity="3.4679496288299561e-01" nType="0">
          <Node pos="l" depth="2" NCoef="0" IVar="-1" Cut="0.0000000000000000e+00" cType="1" res="-2.6439735665917397e-03" rms="4.4444367289543152e-01" purity="3.7370067834854126e-01" nType="-99"/>
          <Node pos="r" depth="2" NCoef="0" IVar="-1" Cut="0.0000000000000000e+00" cType="1" res="5.7988881599158049e-04" rms="4.3222713470458984e-01" purity="3.0602946877479553e-01" nType="-99"/>
        </Node>
        <Node pos="r" depth="1" NCoef="0" IVar="6" Cut="2.0205211639404297e+00" cType="1" res="4.7210115008056164e-03" rms="4.5778474211692810e-01" purity="5.3636771440505981e-01" nType="0">
          <Node pos="l" depth="2" NCoef="0" IVar="-1" Cut="0.0000000000000000e+00" cType="1" res="1.5233964659273624e-03" rms="4.5092478394508362e-01" purity="6.2902331352233887e-01" nType="-99"/>
          <Node pos="r" depth="2" NCoef="0" IVar="-1" Cut="0.0000000000000000e+00" cType="1" res="-1.6247347230091691e-04" rms="4.6002924442291260e-01" purity="5.0273877382278442e-01" nType="-99"/>
        </Node>
      </Node>
    </BinaryTree>
    <BinaryTree type="DecisionTree" boostWeight="1.0000000000000000e+00" itree="388">
      <Node pos="s" depth="0" NCoef="0" IVar="5" Cut="9.1006904840469360e-01" cType="1" res="-2.5901056360453367e-03" rms="4.5520758628845215e-01" purity="4.9829789996147156e-01" nType="0">
        <Node pos="l" depth="1" NCoef="0" IVar="-1" Cut="0.0000000000000000e+00" cType="1" res="-2.4583744816482067e-03" rms="4.2357856035232544e-01" purity="2.6611402630805969e-01" nType="-99"/>
        <Node pos="r" depth="1" NCoef="0" IVar="4" Cut="3.2965084910392761e-01" cType="1" res="-5.3447398386197165e-05" rms="4.5727813243865967e-01" purity="5.1488655805587769e-01" nType="0">
          <Node pos="l" depth="2" NCoef="0" IVar="-1" Cut="0.0000000000000000e+00" cType="1" res="-6.2651222106069326e-04" rms="4.5667982101440430e-01" purity="4.5767766237258911e-01" nType="-99"/>
          <Node pos="r" depth="2" NCoef="0" IVar="-1" Cut="0.0000000000000000e+00" cType="1" res="4.1405824595130980e-04" rms="4.5755919814109802e-01" purity="5.5351918935775757e-01" nType="-99"/>
        </Node>
      </Node>
    </BinaryTree>
    <BinaryTree type="DecisionTree" boostWeight="1.0000000000000000e+00" itree="389">
      <Node pos="s" depth="0" NCoef="0" IVar="3" Cut="1.8519067764282227e-01" cType="1" res="-2.2967790719121695e-03" rms="4.5477977395057678e-01" purity="4.9807420372962952e-01" nType="0">
        <Node pos="l" depth="1" NCoef="0" IVar="4" Cut="2.8932937979698181e-01" cType="1" res="-4.9873027019202709e-03" rms="4.5530745387077332e-01" purity="5.0028604269027710e-01" nType="0">
          <Node pos="l" depth="2" NCoef="0" IVar="-1" Cut="0.0000000000000000e+00" cType="1" res="-1.2493085814639926e-03" rms="4.5173370838165283e-01" purity="4.2757722735404968e-01" nType="-99"/>
          <Node pos="r" depth="2" NCoef="0" IVar="-1" Cut="0.0000000000000000e+00" cType="1" res="7.1363894676323980e-05" rms="4.5662534236907959e-01" purity="5.3014039993286133e-01" nType="-99"/>
        </Node>
        <Node pos="r" depth="1" NCoef="0" IVar="-1" Cut="0.0000000000000000e+00" cType="1" res="2.7277111075818539e-03" rms="4.4343414902687073e-01" purity="4.6104016900062561e-01" nType="-99"/>
      </Node>
    </BinaryTree>
    <BinaryTree type="DecisionTree" boostWeight="1.0000000000000000e+00" itree="390">
      <Node pos="s" depth="0" NCoef="0" IVar="4" Cut="1.1026047170162201e-01" cType="1" res="3.4640321973711252e-03" rms="4.5369678735733032e-01" purity="5.0290137529373169e-01" nType="0">
        <Node pos="l" depth="1" NCoef="0" IVar="-1" Cut="0.0000000000000000e+00" cType="1" res="-2.8287768363952637e-03" rms="4.3703678250312805e-01" purity="3.3695581555366516e-01" nType="-99"/>
        <Node pos="r" depth="1" NCoef="0" IVar="5" Cut="9.0984588861465454e-01" cType="1" res="5.9790695086121559e-03" rms="4.5443946123123169e-01" purity="5.1182889938354492e-01" nType="0">
          <Node pos="l" depth="2" NCoef="0" IVar="-1" Cut="0.0000000000000000e+00" cType="1" res="-2.1342958789318800e-03" rms="4.2262133955955505e-01" purity="2.7215453982353210e-01" nType="-99"/>
          <Node pos="r" depth="2" NCoef="0" IVar="-1" Cut="0.0000000000000000e+00" cType="1" res="5.5258709471672773e-04" rms="4.5659890770912170e-01" purity="5.2978736162185669e-01" nType="-99"/>
        </Node>
      </Node>
    </BinaryTree>
    <BinaryTree type="DecisionTree" boostWeight="1.0000000000000000e+00" itree="391">
      <Node pos="s" depth="0" NCoef="0" IVar="2" Cut="1.0606583404541016e+02" cType="1" res="-6.0146469622850418e-03" rms="4.5786744356155396e-01" purity="4.9630495905876160e-01" nType="0">
        <Node pos="l" depth="1" NCoef="0" IVar="7" Cut="5.4510097503662109e+01" cType="1" res="-1.4883239753544331e-02" rms="4.6244242787361145e-01" purity="4.6914497017860413e-01" nType="0">
          <Node pos="l" depth="2" NCoef="0" IVar="-1" Cut="0.0000000000000000e+00" cType="1" res="4.6558916801586747e-04" rms="4.5871528983116150e-01" purity="3.9534875750541687e-01" nType="-99"/>
          <Node pos="r" depth="2" NCoef="0" IVar="-1" Cut="0.0000000000000000e+00" cType="1" res="-1.6121300868690014e-03" rms="4.6396863460540771e-01" purity="5.0791305303573608e-01" nType="-99"/>
        </Node>
        <Node pos="r" depth="1" NCoef="0" IVar="6" Cut="2.2252843379974365e+00" cType="1" res="5.9134154580533504e-03" rms="4.5136642456054688e-01" purity="5.3283452987670898e-01" nType="0">
          <Node pos="l" depth="2" NCoef="0" IVar="-1" Cut="0.0000000000000000e+00" cType="1" res="1.9977374467998743e-03" rms="4.4407996535301208e-01" purity="6.7654860019683838e-01" nType="-99"/>
          <Node pos="r" depth="2" NCoef="0" IVar="-1" Cut="0.0000000000000000e+00" cType="1" res="-5.3668447071686387e-04" rms="4.5486459136009216e-01" purity="4.5040333271026611e-01" nType="-99"/>
        </Node>
      </Node>
    </BinaryTree>
    <BinaryTree type="DecisionTree" boostWeight="1.0000000000000000e+00" itree="392">
      <Node pos="s" depth="0" NCoef="0" IVar="9" Cut="1.0707911252975464e+00" cType="1" res="-8.6974408477544785e-03" rms="4.5245036482810974e-01" purity="4.9055543541908264e-01" nType="0">
        <Node pos="l" depth="1" NCoef="0" IVar="5" Cut="9.8730885982513428e-01" cType="1" res="-6.0898009687662125e-03" rms="4.5318457484245300e-01" purity="5.0000989437103271e-01" nType="0">
          <Node pos="l" depth="2" NCoef="0" IVar="-1" Cut="0.0000000000000000e+00" cType="1" res="-5.6369451340287924e-04" rms="4.5813879370689392e-01" purity="4.7424128651618958e-01" nType="-99"/>
          <Node pos="r" depth="2" NCoef="0" IVar="-1" Cut="0.0000000000000000e+00" cType="1" res="2.2003019694238901e-03" rms="3.9210945367813110e-01" purity="7.8720283508300781e-01" nType="-99"/>
        </Node>
        <Node pos="r" depth="1" NCoef="0" IVar="-1" Cut="0.0000000000000000e+00" cType="1" res="-3.7284353747963905e-03" rms="4.3597131967544556e-01" purity="3.1681355834007263e-01" nType="-99"/>
      </Node>
    </BinaryTree>
    <BinaryTree type="DecisionTree" boostWeight="1.0000000000000000e+00" itree="393">
      <Node pos="s" depth="0" NCoef="0" IVar="7" Cut="4.2088577270507812e+01" cType="1" res="3.0742133967578411e-03" rms="4.5678099989891052e-01" purity="5.0290340185165405e-01" nType="0">
        <Node pos="l" depth="1" NCoef="0" IVar="-1" Cut="0.0000000000000000e+00" cType="1" res="-2.8985317330807447e-03" rms="4.3709650635719299e-01" purity="2.9842048883438110e-01" nType="-99"/>
        <Node pos="r" depth="1" NCoef="0" IVar="3" Cut="-5.6831777095794678e-02" cType="1" res="6.0289883986115456e-03" rms="4.5787128806114197e-01" purity="5.1615911722183228e-01" nType="0">
          <Node pos="l" depth="2" NCoef="0" IVar="-1" Cut="0.0000000000000000e+00" cType="1" res="2.4142882321029902e-03" rms="4.5269656181335449e-01" purity="6.1513119935989380e-01" nType="-99"/>
          <Node pos="r" depth="2" NCoef="0" IVar="-1" Cut="0.0000000000000000e+00" cType="1" res="1.4281111361924559e-04" rms="4.5830187201499939e-01" purity="5.0499016046524048e-01" nType="-99"/>
        </Node>
      </Node>
    </BinaryTree>
    <BinaryTree type="DecisionTree" boostWeight="1.0000000000000000e+00" itree="394">
      <Node pos="s" depth="0" NCoef="0" IVar="9" Cut="4.9698507785797119e-01" cType="1" res="-3.5839290358126163e-03" rms="4.5511502027511597e-01" purity="4.9596199393272400e-01" nType="0">
        <Node pos="l" depth="1" NCoef="0" IVar="9" Cut="1.6465106606483459e-01" cType="1" res="-1.3893820345401764e-02" rms="4.5375618338584900e-01" purity="5.2696430683135986e-01" nType="0">
          <Node pos="l" depth="2" NCoef="0" IVar="-1" Cut="0.0000000000000000e+00" cType="1" res="1.0604233248159289e-03" rms="4.3927168846130371e-01" purity="5.8280652761459351e-01" nType="-99"/>
          <Node pos="r" depth="2" NCoef="0" IVar="-1" Cut="0.0000000000000000e+00" cType="1" res="-1.1931550689041615e-03" rms="4.5594939589500427e-01" purity="5.1753985881805420e-01" nType="-99"/>
        </Node>
        <Node pos="r" depth="1" NCoef="0" IVar="8" Cut="8.1025296449661255e-01" cType="1" res="5.2918363362550735e-03" rms="4.5609495043754578e-01" purity="4.6927222609519958e-01" nType="0">
          <Node pos="l" depth="2" NCoef="0" IVar="-1" Cut="0.0000000000000000e+00" cType="1" res="1.4626175398007035e-03" rms="4.6154674887657166e-01" purity="5.3317683935165405e-01" nType="-99"/>
          <Node pos="r" depth="2" NCoef="0" IVar="-1" Cut="0.0000000000000000e+00" cType="1" res="-6.6219981817994267e-05" rms="4.5402565598487854e-01" purity="4.4721755385398865e-01" nType="-99"/>
        </Node>
      </Node>
    </BinaryTree>
    <BinaryTree type="DecisionTree" boostWeight="1.0000000000000000e+00" itree="395">
      <Node pos="s" depth="0" NCoef="0" IVar="8" Cut="1.7689619064331055e+00" cType="1" res="9.6918648341670632e-04" rms="4.5620602369308472e-01" purity="5.0373804569244385e-01" nType="0">
        <Node pos="l" depth="1" NCoef="0" IVar="3" Cut="1.1197905987501144e-01" cType="1" res="-1.6672729980200529e-03" rms="4.5630857348442078e-01" purity="5.0706517696380615e-01" nType="0">
          <Node pos="l" depth="2" NCoef="0" IVar="-1" Cut="0.0000000000000000e+00" cType="1" res="-3.6783376708626747e-04" rms="4.5702210068702698e-01" purity="5.1567977666854858e-01" nType="-99"/>
          <Node pos="r" depth="2" NCoef="0" IVar="-1" Cut="0.0000000000000000e+00" cType="1" res="1.1865530395880342e-03" rms="4.5232912898063660e-01" purity="4.6589544415473938e-01" nType="-99"/>
        </Node>
        <Node pos="r" depth="1" NCoef="0" IVar="-1" Cut="0.0000000000000000e+00" cType="1" res="2.2263983264565468e-03" rms="4.5355457067489624e-01" purity="4.6131083369255066e-01" nType="-99"/>
      </Node>
    </BinaryTree>
    <BinaryTree type="DecisionTree" boostWeight="1.0000000000000000e+00" itree="396">
      <Node pos="s" depth="0" NCoef="0" IVar="6" Cut="2.8701176643371582e+00" cType="1" res="1.8512974493205547e-03" rms="4.5560786128044128e-01" purity="5.0360774993896484e-01" nType="0">
        <Node pos="l" depth="1" NCoef="0" IVar="2" Cut="1.6851089477539062e+02" cType="1" res="3.4176111221313477e-03" rms="4.5793429017066956e-01" purity="5.1961565017700195e-01" nType="0">
          <Node pos="l" depth="2" NCoef="0" IVar="-1" Cut="0.0000000000000000e+00" cType="1" res="7.0656678872182965e-05" rms="4.5808804035186768e-01" purity="5.1198756694793701e-01" nType="-99"/>
          <Node pos="r" depth="2" NCoef="0" IVar="-1" Cut="0.0000000000000000e+00" cType="1" res="1.7024257685989141e-03" rms="4.5565685629844666e-01" purity="5.9901040792465210e-01" nType="-99"/>
        </Node>
        <Node pos="r" depth="1" NCoef="0" IVar="-1" Cut="0.0000000000000000e+00" cType="1" res="-1.8337802030146122e-03" rms="4.1400223970413208e-01" purity="2.3654462397098541e-01" nType="-99"/>
      </Node>
    </BinaryTree>
    <BinaryTree type="DecisionTree" boostWeight="1.0000000000000000e+00" itree="397">
      <Node pos="s" depth="0" NCoef="0" IVar="2" Cut="4.8680934906005859e+01" cType="1" res="-2.7135509299114347e-04" rms="4.5461937785148621e-01" purity="4.9780052900314331e-01" nType="0">
        <Node pos="l" depth="1" NCoef="0" IVar="-1" Cut="0.0000000000000000e+00" cType="1" res="-2.1207293029874563e-03" rms="4.5698145031929016e-01" purity="4.3889877200126648e-01" nType="-99"/>
        <Node pos="r" depth="1" NCoef="0" IVar="0" Cut="5.1632847785949707e+00" cType="1" res="3.5415524616837502e-03" rms="4.5419687032699585e-01" purity="5.0430434942245483e-01" nType="0">
          <Node pos="l" depth="2" NCoef="0" IVar="-1" Cut="0.0000000000000000e+00" cType="1" res="4.3776228267233819e-05" rms="4.5945018529891968e-01" purity="4.7962921857833862e-01" nType="-99"/>
          <Node pos="r" depth="2" NCoef="0" IVar="-1" Cut="0.0000000000000000e+00" cType="1" res="3.0345572158694267e-03" rms="3.8089314103126526e-01" purity="8.1208860874176025e-01" nType="-99"/>
        </Node>
      </Node>
    </BinaryTree>
    <BinaryTree type="DecisionTree" boostWeight="1.0000000000000000e+00" itree="398">
      <Node pos="s" depth="0" NCoef="0" IVar="2" Cut="1.0560594177246094e+02" cType="1" res="3.0146453063935041e-03" rms="4.5457640290260315e-01" purity="5.0450545549392700e-01" nType="0">
        <Node pos="l" depth="1" NCoef="0" IVar="1" Cut="6.6859906005859375e+02" cType="1" res="-4.3873060494661331e-03" rms="4.5778673887252808e-01" purity="4.7851201891899109e-01" nType="0">
          <Node pos="l" depth="2" NCoef="0" IVar="-1" Cut="0.0000000000000000e+00" cType="1" res="9.8600314231589437e-05" rms="4.5672506093978882e-01" purity="4.6458289027214050e-01" nType="-99"/>
          <Node pos="r" depth="2" NCoef="0" IVar="-1" Cut="0.0000000000000000e+00" cType="1" res="-2.2912970744073391e-03" rms="4.6227252483367920e-01" purity="5.5680578947067261e-01" nType="-99"/>
        </Node>
        <Node pos="r" depth="1" NCoef="0" IVar="6" Cut="2.0102338790893555e+00" cType="1" res="1.2720316648483276e-02" rms="4.5014780759811401e-01" purity="5.3858906030654907e-01" nType="0">
          <Node pos="l" depth="2" NCoef="0" IVar="-1" Cut="0.0000000000000000e+00" cType="1" res="3.6040120758116245e-03" rms="4.1514819860458374e-01" purity="7.3113042116165161e-01" nType="-99"/>
          <Node pos="r" depth="2" NCoef="0" IVar="-1" Cut="0.0000000000000000e+00" cType="1" res="4.1982531547546387e-04" rms="4.5466500520706177e-01" purity="5.1074540615081787e-01" nType="-99"/>
        </Node>
      </Node>
    </BinaryTree>
    <BinaryTree type="DecisionTree" boostWeight="1.0000000000000000e+00" itree="399">
      <Node pos="s" depth="0" NCoef="0" IVar="4" Cut="4.9209091067314148e-01" cType="1" res="-1.2794689973816276e-03" rms="4.5610564947128296e-01" purity="4.9813988804817200e-01" nType="0">
        <Node pos="l" depth="1" NCoef="0" IVar="7" Cut="8.7228408813476562e+01" cType="1" res="-8.6999116465449333e-03" rms="4.5523962378501892e-01" purity="4.6679383516311646e-01" nType="0">
          <Node pos="l" depth="2" NCoef="0" IVar="-1" Cut="0.0000000000000000e+00" cType="1" res="-6.2246777815744281e-05" rms="4.5345193147659302e-01" purity="4.3507242202758789e-01" nType="-99"/>
          <Node pos="r" depth="2" NCoef="0" IVar="-1" Cut="0.0000000000000000e+00" cType="1" res="-1.8353105988353491e-03" rms="4.5940786600112915e-01" purity="5.5297160148620605e-01" nType="-99"/>
        </Node>
        <Node pos="r" depth="1" NCoef="0" IVar="1" Cut="4.0805755615234375e+02" cType="1" res="1.4194952324032784e-02" rms="4.5751938223838806e-01" purity="5.6350827217102051e-01" nType="0">
          <Node pos="l" depth="2" NCoef="0" IVar="-1" Cut="0.0000000000000000e+00" cType="1" res="-1.2155470903962851e-03" rms="4.4980639219284058e-01" purity="3.8215959072113037e-01" nType="-99"/>
          <Node pos="r" depth="2" NCoef="0" IVar="-1" Cut="0.0000000000000000e+00" cType="1" res="1.3792368117719889e-03" rms="4.5901554822921753e-01" purity="6.0775536298751831e-01" nType="-99"/>
        </Node>
      </Node>
    </BinaryTree>
    <BinaryTree type="DecisionTree" boostWeight="1.0000000000000000e+00" itree="400">
      <Node pos="s" depth="0" NCoef="0" IVar="4" Cut="1.0971299558877945e-01" cType="1" res="-6.5234298817813396e-03" rms="4.5398747920989990e-01" purity="4.9502235651016235e-01" nType="0">
        <Node pos="l" depth="1" NCoef="0" IVar="-1" Cut="0.0000000000000000e+00" cType="1" res="-2.7923320885747671e-03" rms="4.4044131040573120e-01" purity="3.4046208858489990e-01" nType="-99"/>
        <Node pos="r" depth="1" NCoef="0" IVar="0" Cut="5.0804023742675781e+00" cType="1" res="-4.5595159754157066e-03" rms="4.5462551712989807e-01" purity="5.0337696075439453e-01" nType="0">
          <Node pos="l" depth="2" NCoef="0" IVar="-1" Cut="0.0000000000000000e+00" cType="1" res="-4.3617133633233607e-04" rms="4.6043926477432251e-01" purity="4.7484904527664185e-01" nType="-99"/>
          <Node pos="r" depth="2" NCoef="0" IVar="-1" Cut="0.0000000000000000e+00" cType="1" res="1.7372230067849159e-03" rms="3.8778045773506165e-01" purity="8.0117863416671753e-01" nType="-99"/>
        </Node>
      </Node>
    </BinaryTree>
    <BinaryTree type="DecisionTree" boostWeight="1.0000000000000000e+00" itree="401">
      <Node pos="s" depth="0" NCoef="0" IVar="9" Cut="1.0320731401443481e+00" cType="1" res="-3.0247666873037815e-03" rms="4.5303577184677124e-01" purity="4.9694272875785828e-01" nType="0">
        <Node pos="l" depth="1" NCoef="0" IVar="4" Cut="2.0438043773174286e-01" cType="1" res="1.2330016761552542e-04" rms="4.5385754108428955e-01" purity="5.0888383388519287e-01" nType="0">
          <Node pos="l" depth="2" NCoef="0" IVar="-1" Cut="0.0000000000000000e+00" cType="1" res="-1.5659648925065994e-03" rms="4.4764265418052673e-01" purity="4.0829014778137207e-01" nType="-99"/>
          <Node pos="r" depth="2" NCoef="0" IVar="-1" Cut="0.0000000000000000e+00" cType="1" res="3.1981864594854414e-04" rms="4.5493894815444946e-01" purity="5.2923148870468140e-01" nType="-99"/>
        </Node>
        <Node pos="r" depth="1" NCoef="0" IVar="-1" Cut="0.0000000000000000e+00" cType="1" res="-3.2938397489488125e-03" rms="4.3809428811073303e-01" purity="3.2058236002922058e-01" nType="-99"/>
      </Node>
    </BinaryTree>
    <BinaryTree type="DecisionTree" boostWeight="1.0000000000000000e+00" itree="402">
      <Node pos="s" depth="0" NCoef="0" IVar="0" Cut="4.2363972663879395e+00" cType="1" res="-4.8990938812494278e-03" rms="4.5220759510993958e-01" purity="4.9811285734176636e-01" nType="0">
        <Node pos="l" depth="1" NCoef="0" IVar="8" Cut="7.8175073862075806e-01" cType="1" res="-9.8302997648715973e-03" rms="4.6036577224731445e-01" purity="4.3913814425468445e-01" nType="0">
          <Node pos="l" depth="2" NCoef="0" IVar="-1" Cut="0.0000000000000000e+00" cType="1" res="5.1723915385082364e-04" rms="4.6611225605010986e-01" purity="5.0924772024154663e-01" nType="-99"/>
          <Node pos="r" depth="2" NCoef="0" IVar="-1" Cut="0.0000000000000000e+00" cType="1" res="-9.7260408801957965e-04" rms="4.5836260914802551e-01" purity="4.1679605841636658e-01" nType="-99"/>
        </Node>
        <Node pos="r" depth="1" NCoef="0" IVar="6" Cut="2.2409718036651611e+00" cType="1" res="1.5495163388550282e-02" rms="4.1615477204322815e-01" purity="7.4201756715774536e-01" nType="0">
          <Node pos="l" depth="2" NCoef="0" IVar="-1" Cut="0.0000000000000000e+00" cType="1" res="2.0902580581605434e-03" rms="3.8755431771278381e-01" purity="8.0009108781814575e-01" nType="-99"/>
          <Node pos="r" depth="2" NCoef="0" IVar="-1" Cut="0.0000000000000000e+00" cType="1" res="-9.3967071734368801e-05" rms="4.5272967219352722e-01" purity="6.6048038005828857e-01" nType="-99"/>
        </Node>
      </Node>
    </BinaryTree>
    <BinaryTree type="DecisionTree" boostWeight="1.0000000000000000e+00" itree="403">
      <Node pos="s" depth="0" NCoef="0" IVar="4" Cut="1.1324273049831390e-01" cType="1" res="2.6636391412466764e-03" rms="4.5554405450820923e-01" purity="5.0121200084686279e-01" nType="0">
        <Node pos="l" depth="1" NCoef="0" IVar="-1" Cut="0.0000000000000000e+00" cType="1" res="-2.3460329975932837e-03" rms="4.5043012499809265e-01" purity="3.4918880462646484e-01" nType="-99"/>
        <Node pos="r" depth="1" NCoef="0" IVar="3" Cut="-1.2348582968115807e-02" cType="1" res="4.7823414206504822e-03" rms="4.5572757720947266e-01" purity="5.0953692197799683e-01" nType="0">
          <Node pos="l" depth="2" NCoef="0" IVar="-1" Cut="0.0000000000000000e+00" cType="1" res="-4.1374293505214155e-04" rms="4.5670217275619507e-01" purity="5.4195582866668701e-01" nType="-99"/>
          <Node pos="r" depth="2" NCoef="0" IVar="-1" Cut="0.0000000000000000e+00" cType="1" res="6.5969233401119709e-04" rms="4.5512092113494873e-01" purity="4.9300196766853333e-01" nType="-99"/>
        </Node>
      </Node>
    </BinaryTree>
    <BinaryTree type="DecisionTree" boostWeight="1.0000000000000000e+00" itree="404">
      <Node pos="s" depth="0" NCoef="0" IVar="7" Cut="4.1574054718017578e+01" cType="1" res="-1.3603556726593524e-04" rms="4.5372933149337769e-01" purity="5.0003647804260254e-01" nType="0">
        <Node pos="l" depth="1" NCoef="0" IVar="-1" Cut="0.0000000000000000e+00" cType="1" res="-3.5769592504948378e-03" rms="4.2040213942527771e-01" purity="2.7900248765945435e-01" nType="-99"/>
        <Node pos="r" depth="1" NCoef="0" IVar="4" Cut="1.3413651287555695e-01" cType="1" res="2.7534805703908205e-03" rms="4.5538410544395447e-01" purity="5.1262617111206055e-01" nType="0">
          <Node pos="l" depth="2" NCoef="0" IVar="-1" Cut="0.0000000000000000e+00" cType="1" res="-1.7982479184865952e-03" rms="4.4359570741653442e-01" purity="3.6594504117965698e-01" nType="-99"/>
          <Node pos="r" depth="2" NCoef="0" IVar="-1" Cut="0.0000000000000000e+00" cType="1" res="3.3381039975211024e-04" rms="4.5629397034645081e-01" purity="5.2530699968338013e-01" nType="-99"/>
        </Node>
      </Node>
    </BinaryTree>
    <BinaryTree type="DecisionTree" boostWeight="1.0000000000000000e+00" itree="405">
      <Node pos="s" depth="0" NCoef="0" IVar="6" Cut="1.4185057878494263e+00" cType="1" res="-1.2724819825962186e-03" rms="4.5475101470947266e-01" purity="4.9800074100494385e-01" nType="0">
        <Node pos="l" depth="1" NCoef="0" IVar="-1" Cut="0.0000000000000000e+00" cType="1" res="2.5880045723170042e-03" rms="4.5095232129096985e-01" purity="6.5240699052810669e-01" nType="-99"/>
        <Node pos="r" depth="1" NCoef="0" IVar="3" Cut="1.3060343265533447e-01" cType="1" res="-3.8503643590956926e-03" rms="4.5485058426856995e-01" purity="4.8869165778160095e-01" nType="0">
          <Node pos="l" depth="2" NCoef="0" IVar="-1" Cut="0.0000000000000000e+00" cType="1" res="-4.7719318536110222e-04" rms="4.5553657412528992e-01" purity="4.9786651134490967e-01" nType="-99"/>
          <Node pos="r" depth="2" NCoef="0" IVar="-1" Cut="0.0000000000000000e+00" cType="1" res="1.2801605043932796e-03" rms="4.4984054565429688e-01" purity="4.3162307143211365e-01" nType="-99"/>
        </Node>
      </Node>
    </BinaryTree>
    <BinaryTree type="DecisionTree" boostWeight="1.0000000000000000e+00" itree="406">
      <Node pos="s" depth="0" NCoef="0" IVar="4" Cut="1.5952938795089722e-01" cType="1" res="5.7152530644088984e-04" rms="4.5602548122406006e-01" purity="5.0207161903381348e-01" nType="0">
        <Node pos="l" depth="1" NCoef="0" IVar="5" Cut="9.5226544141769409e-01" cType="1" res="-2.8051450848579407e-02" rms="4.4248506426811218e-01" purity="3.7880256772041321e-01" nType="0">
          <Node pos="l" depth="2" NCoef="0" IVar="-1" Cut="0.0000000000000000e+00" cType="1" res="-4.5111989602446556e-03" rms="4.1428068280220032e-01" purity="2.4118044972419739e-01" nType="-99"/>
          <Node pos="r" depth="2" NCoef="0" IVar="-1" Cut="0.0000000000000000e+00" cType="1" res="9.0568198356777430e-04" rms="4.6874323487281799e-01" purity="5.3490662574768066e-01" nType="-99"/>
        </Node>
        <Node pos="r" depth="1" NCoef="0" IVar="8" Cut="1.5249838829040527e+00" cType="1" res="4.0562395006418228e-03" rms="4.5752432942390442e-01" purity="5.1707905530929565e-01" nType="0">
          <Node pos="l" depth="2" NCoef="0" IVar="-1" Cut="0.0000000000000000e+00" cType="1" res="5.3162378026172519e-04" rms="4.5943507552146912e-01" purity="5.3410345315933228e-01" nType="-99"/>
          <Node pos="r" depth="2" NCoef="0" IVar="-1" Cut="0.0000000000000000e+00" cType="1" res="-1.2854430824518204e-03" rms="4.4630491733551025e-01" purity="4.2536142468452454e-01" nType="-99"/>
        </Node>
      </Node>
    </BinaryTree>
    <BinaryTree type="DecisionTree" boostWeight="1.0000000000000000e+00" itree="407">
      <Node pos="s" depth="0" NCoef="0" IVar="6" Cut="2.6988799571990967e+00" cType="1" res="-8.8625249918550253e-04" rms="4.5654335618019104e-01" purity="4.9952244758605957e-01" nType="0">
        <Node pos="l" depth="1" NCoef="0" IVar="6" Cut="2.2942380905151367e+00" cType="1" res="1.8925735494121909e-03" rms="4.6066793799400330e-01" purity="5.2635598182678223e-01" nType="0">
          <Node pos="l" depth="2" NCoef="0" IVar="-1" Cut="0.0000000000000000e+00" cType="1" res="-3.1384549220092595e-04" rms="4.6025106310844421e-01" purity="5.5059301853179932e-01" nType="-99"/>
          <Node pos="r" depth="2" NCoef="0" IVar="-1" Cut="0.0000000000000000e+00" cType="1" res="1.0616759536787868e-03" rms="4.6121382713317871e-01" purity="4.7289809584617615e-01" nType="-99"/>
        </Node>
        <Node pos="r" depth="1" NCoef="0" IVar="3" Cut="8.0806903541088104e-02" cType="1" res="-2.5382038205862045e-02" rms="4.1763028502464294e-01" purity="2.6298090815544128e-01" nType="0">
          <Node pos="l" depth="2" NCoef="0" IVar="-1" Cut="0.0000000000000000e+00" cType="1" res="-2.4652243591845036e-03" rms="4.2533114552497864e-01" purity="2.7980023622512817e-01" nType="-99"/>
          <Node pos="r" depth="2" NCoef="0" IVar="-1" Cut="0.0000000000000000e+00" cType="1" res="-1.1309628607705235e-03" rms="4.0979042649269104e-01" purity="2.4674110114574432e-01" nType="-99"/>
        </Node>
      </Node>
    </BinaryTree>
    <BinaryTree type="DecisionTree" boostWeight="1.0000000000000000e+00" itree="408">
      <Node pos="s" depth="0" NCoef="0" IVar="1" Cut="3.5706973266601562e+02" cType="1" res="4.8233121633529663e-03" rms="4.5633268356323242e-01" purity="5.0431090593338013e-01" nType="0">
        <Node pos="l" depth="1" NCoef="0" IVar="-1" Cut="0.0000000000000000e+00" cType="1" res="-2.2317536640912294e-03" rms="4.1927692294120789e-01" purity="2.8622967004776001e-01" nType="-99"/>
        <Node pos="r" depth="1" NCoef="0" IVar="6" Cut="1.9987527132034302e+00" cType="1" res="6.9218920543789864e-03" rms="4.5831835269927979e-01" purity="5.1705420017242432e-01" nType="0">
          <Node pos="l" depth="2" NCoef="0" IVar="-1" Cut="0.0000000000000000e+00" cType="1" res="1.3108865823596716e-03" rms="4.5390135049819946e-01" purity="6.0338973999023438e-01" nType="-99"/>
          <Node pos="r" depth="2" NCoef="0" IVar="-1" Cut="0.0000000000000000e+00" cType="1" res="1.1889595771208405e-04" rms="4.5974040031433105e-01" purity="4.8699578642845154e-01" nType="-99"/>
        </Node>
      </Node>
    </BinaryTree>
    <BinaryTree type="DecisionTree" boostWeight="1.0000000000000000e+00" itree="409">
      <Node pos="s" depth="0" NCoef="0" IVar="4" Cut="5.8348923921585083e-01" cType="1" res="1.3255591038614511e-03" rms="4.5548120141029358e-01" purity="5.0015437602996826e-01" nType="0">
        <Node pos="l" depth="1" NCoef="0" IVar="3" Cut="-2.0143968984484673e-02" cType="1" res="-3.3741819206625223e-03" rms="4.5432266592979431e-01" purity="4.8052018880844116e-01" nType="0">
          <Node pos="l" depth="2" NCoef="0" IVar="-1" Cut="0.0000000000000000e+00" cType="1" res="-1.7826147377490997e-03" rms="4.5048463344573975e-01" purity="5.0530087947845459e-01" nType="-99"/>
          <Node pos="r" depth="2" NCoef="0" IVar="-1" Cut="0.0000000000000000e+00" cType="1" res="1.5123392222449183e-04" rms="4.5500537753105164e-01" purity="4.7481864690780640e-01" nType="-99"/>
        </Node>
        <Node pos="r" depth="1" NCoef="0" IVar="5" Cut="9.3972688913345337e-01" cType="1" res="2.0816069096326828e-02" rms="4.5974230766296387e-01" purity="5.8158028125762939e-01" nType="0">
          <Node pos="l" depth="2" NCoef="0" IVar="-1" Cut="0.0000000000000000e+00" cType="1" res="4.6474998816847801e-03" rms="4.7849038243293762e-01" purity="4.8237991333007812e-01" nType="-99"/>
          <Node pos="r" depth="2" NCoef="0" IVar="-1" Cut="0.0000000000000000e+00" cType="1" res="-1.1941856791963801e-04" rms="4.5017400383949280e-01" purity="6.2035167217254639e-01" nType="-99"/>
        </Node>
      </Node>
    </BinaryTree>
    <BinaryTree type="DecisionTree" boostWeight="1.0000000000000000e+00" itree="410">
      <Node pos="s" depth="0" NCoef="0" IVar="1" Cut="9.4110888671875000e+02" cType="1" res="1.6672479687258601e-03" rms="4.5441889762878418e-01" purity="5.0141042470932007e-01" nType="0">
        <Node pos="l" depth="1" NCoef="0" IVar="0" Cut="1.1156454086303711e+00" cType="1" res="-8.9720200048759580e-04" rms="4.5480340719223022e-01" purity="4.9082589149475098e-01" nType="0">
          <Node pos="l" depth="2" NCoef="0" IVar="-1" Cut="0.0000000000000000e+00" cType="1" res="-2.1834729705005884e-03" rms="4.2082065343856812e-01" purity="2.5281855463981628e-01" nType="-99"/>
          <Node pos="r" depth="2" NCoef="0" IVar="-1" Cut="0.0000000000000000e+00" cType="1" res="1.2870349746663123e-04" rms="4.5814570784568787e-01" purity="5.1598089933395386e-01" nType="-99"/>
        </Node>
        <Node pos="r" depth="1" NCoef="0" IVar="-1" Cut="0.0000000000000000e+00" cType="1" res="2.6997360400855541e-03" rms="4.4624224305152893e-01" purity="6.7042714357376099e-01" nType="-99"/>
      </Node>
    </BinaryTree>
    <BinaryTree type="DecisionTree" boostWeight="1.0000000000000000e+00" itree="411">
      <Node pos="s" depth="0" NCoef="0" IVar="6" Cut="1.9814155101776123e+00" cType="1" res="5.5084154009819031e-03" rms="4.5278924703598022e-01" purity="5.0725841522216797e-01" nType="0">
        <Node pos="l" depth="1" NCoef="0" IVar="3" Cut="1.6193552874028683e-03" cType="1" res="2.1348614245653152e-02" rms="4.5097687840461731e-01" purity="5.9941327571868896e-01" nType="0">
          <Node pos="l" depth="2" NCoef="0" IVar="-1" Cut="0.0000000000000000e+00" cType="1" res="-9.0865003585349768e-05" rms="4.4707572460174561e-01" purity="6.0128480195999146e-01" nType="-99"/>
          <Node pos="r" depth="2" NCoef="0" IVar="-1" Cut="0.0000000000000000e+00" cType="1" res="2.3657246492803097e-03" rms="4.5315459370613098e-01" purity="5.9798943996429443e-01" nType="-99"/>
        </Node>
        <Node pos="r" depth="1" NCoef="0" IVar="3" Cut="1.5301875770092010e-01" cType="1" res="9.1763813543366268e-06" rms="4.5328730344772339e-01" purity="4.7526505589485168e-01" nType="0">
          <Node pos="l" depth="2" NCoef="0" IVar="-1" Cut="0.0000000000000000e+00" cType="1" res="-2.1228357218205929e-04" rms="4.5412477850914001e-01" purity="4.8154792189598083e-01" nType="-99"/>
          <Node pos="r" depth="2" NCoef="0" IVar="-1" Cut="0.0000000000000000e+00" cType="1" res="2.0017535425722599e-03" rms="4.4458985328674316e-01" purity="4.1915521025657654e-01" nType="-99"/>
        </Node>
      </Node>
    </BinaryTree>
    <BinaryTree type="DecisionTree" boostWeight="1.0000000000000000e+00" itree="412">
      <Node pos="s" depth="0" NCoef="0" IVar="6" Cut="2.8770618438720703e+00" cType="1" res="-2.3834605235606432e-03" rms="4.5462852716445923e-01" purity="5.0129318237304688e-01" nType="0">
        <Node pos="l" depth="1" NCoef="0" IVar="7" Cut="1.1222910308837891e+02" cType="1" res="2.5827172794379294e-04" rms="4.5814570784568787e-01" purity="5.1833480596542358e-01" nType="0">
          <Node pos="l" depth="2" NCoef="0" IVar="-1" Cut="0.0000000000000000e+00" cType="1" res="2.1058619313407689e-04" rms="4.5773777365684509e-01" purity="5.0752449035644531e-01" nType="-99"/>
          <Node pos="r" depth="2" NCoef="0" IVar="-1" Cut="0.0000000000000000e+00" cType="1" res="-1.7263364279642701e-03" rms="4.6074604988098145e-01" purity="6.1121648550033569e-01" nType="-99"/>
        </Node>
        <Node pos="r" depth="1" NCoef="0" IVar="-1" Cut="0.0000000000000000e+00" cType="1" res="-3.6205074284225702e-03" rms="3.8641449809074402e-01" purity="2.0833775401115417e-01" nType="-99"/>
      </Node>
    </BinaryTree>
    <BinaryTree type="DecisionTree" boostWeight="1.0000000000000000e+00" itree="413">
      <Node pos="s" depth="0" NCoef="0" IVar="9" Cut="3.6732673645019531e-01" cType="1" res="-2.5031843688338995e-03" rms="4.5702108740806580e-01" purity="4.9590823054313660e-01" nType="0">
        <Node pos="l" depth="1" NCoef="0" IVar="2" Cut="1.1171404266357422e+02" cType="1" res="-1.9736871123313904e-02" rms="4.5755732059478760e-01" purity="5.2418702840805054e-01" nType="0">
          <Node pos="l" depth="2" NCoef="0" IVar="-1" Cut="0.0000000000000000e+00" cType="1" res="-2.0374632440507412e-03" rms="4.6302476525306702e-01" purity="4.8512127995491028e-01" nType="-99"/>
          <Node pos="r" depth="2" NCoef="0" IVar="-1" Cut="0.0000000000000000e+00" cType="1" res="5.6926859542727470e-04" rms="4.4429957866668701e-01" purity="6.0765039920806885e-01" nType="-99"/>
        </Node>
        <Node pos="r" depth="1" NCoef="0" IVar="9" Cut="4.2848342657089233e-01" cType="1" res="4.5714862644672394e-03" rms="4.5661249756813049e-01" purity="4.8429942131042480e-01" nType="0">
          <Node pos="l" depth="2" NCoef="0" IVar="-1" Cut="0.0000000000000000e+00" cType="1" res="2.3467976134270430e-03" rms="4.5392826199531555e-01" purity="5.6939762830734253e-01" nType="-99"/>
          <Node pos="r" depth="2" NCoef="0" IVar="-1" Cut="0.0000000000000000e+00" cType="1" res="1.5261564840329811e-05" rms="4.5678159594535828e-01" purity="4.7324624657630920e-01" nType="-99"/>
        </Node>
      </Node>
    </BinaryTree>
    <BinaryTree type="DecisionTree" boostWeight="1.0000000000000000e+00" itree="414">
      <Node pos="s" depth="0" NCoef="0" IVar="9" Cut="1.0278521776199341e+00" cType="1" res="-4.3844478204846382e-03" rms="4.5628088712692261e-01" purity="4.9651008844375610e-01" nType="0">
        <Node pos="l" depth="1" NCoef="0" IVar="4" Cut="2.8188917040824890e-01" cType="1" res="-1.4095467049628496e-03" rms="4.5693948864936829e-01" purity="5.0914120674133301e-01" nType="0">
          <Node pos="l" depth="2" NCoef="0" IVar="-1" Cut="0.0000000000000000e+00" cType="1" res="-1.1794927995651960e-03" rms="4.5867514610290527e-01" purity="4.3110698461532593e-01" nType="-99"/>
          <Node pos="r" depth="2" NCoef="0" IVar="-1" Cut="0.0000000000000000e+00" cType="1" res="3.6295360769145191e-04" rms="4.5601561665534973e-01" purity="5.4179364442825317e-01" nType="-99"/>
        </Node>
        <Node pos="r" depth="1" NCoef="0" IVar="-1" Cut="0.0000000000000000e+00" cType="1" res="-3.1501327175647020e-03" rms="4.4466933608055115e-01" purity="3.1699007749557495e-01" nType="-99"/>
      </Node>
    </BinaryTree>
    <BinaryTree type="DecisionTree" boostWeight="1.0000000000000000e+00" itree="415">
      <Node pos="s" depth="0" NCoef="0" IVar="6" Cut="2.8664958477020264e+00" cType="1" res="3.0062866862863302e-03" rms="4.5557320117950439e-01" purity="5.0202333927154541e-01" nType="0">
        <Node pos="l" depth="1" NCoef="0" IVar="1" Cut="9.0368835449218750e+02" cType="1" res="5.6058415211737156e-03" rms="4.5850387215614319e-01" purity="5.2014845609664917e-01" nType="0">
          <Node pos="l" depth="2" NCoef="0" IVar="-1" Cut="0.0000000000000000e+00" cType="1" res="1.7369315901305526e-04" rms="4.5930859446525574e-01" purity="5.0891852378845215e-01" nType="-99"/>
          <Node pos="r" depth="2" NCoef="0" IVar="-1" Cut="0.0000000000000000e+00" cType="1" res="2.7412266936153173e-03" rms="4.4581434130668640e-01" purity="6.7145842313766479e-01" nType="-99"/>
        </Node>
        <Node pos="r" depth="1" NCoef="0" IVar="-1" Cut="0.0000000000000000e+00" cType="1" res="-2.9774340800940990e-03" rms="4.0385159850120544e-01" purity="2.1357609331607819e-01" nType="-99"/>
      </Node>
    </BinaryTree>
    <BinaryTree type="DecisionTree" boostWeight="1.0000000000000000e+00" itree="416">
      <Node pos="s" depth="0" NCoef="0" IVar="0" Cut="3.1547467708587646e+00" cType="1" res="-2.3486458230763674e-03" rms="4.5777478814125061e-01" purity="4.9550965428352356e-01" nType="0">
        <Node pos="l" depth="1" NCoef="0" IVar="6" Cut="2.5638623237609863e+00" cType="1" res="7.1743451990187168e-03" rms="4.6069025993347168e-01" purity="3.9916384220123291e-01" nType="0">
          <Node pos="l" depth="2" NCoef="0" IVar="-1" Cut="0.0000000000000000e+00" cType="1" res="7.8539451351389289e-04" rms="4.7267809510231018e-01" purity="4.3878585100173950e-01" nType="-99"/>
          <Node pos="r" depth="2" NCoef="0" IVar="-1" Cut="0.0000000000000000e+00" cType="1" res="-1.4721563784405589e-03" rms="4.0285807847976685e-01" purity="2.2526143491268158e-01" nType="-99"/>
        </Node>
        <Node pos="r" depth="1" NCoef="0" IVar="9" Cut="2.9215717315673828e-01" cType="1" res="-1.6542077064514160e-02" rms="4.5302331447601318e-01" purity="6.3910716772079468e-01" nType="0">
          <Node pos="l" depth="2" NCoef="0" IVar="-1" Cut="0.0000000000000000e+00" cType="1" res="-3.2832613214850426e-03" rms="4.4492825865745544e-01" purity="6.4872235059738159e-01" nType="-99"/>
          <Node pos="r" depth="2" NCoef="0" IVar="-1" Cut="0.0000000000000000e+00" cType="1" res="-4.7621148405596614e-04" rms="4.5475596189498901e-01" purity="6.3653147220611572e-01" nType="-99"/>
        </Node>
      </Node>
    </BinaryTree>
    <BinaryTree type="DecisionTree" boostWeight="1.0000000000000000e+00" itree="417">
      <Node pos="s" depth="0" NCoef="0" IVar="9" Cut="6.6618692874908447e-01" cType="1" res="-2.0142372231930494e-03" rms="4.5581656694412231e-01" purity="4.9686509370803833e-01" nType="0">
        <Node pos="l" depth="1" NCoef="0" IVar="9" Cut="2.0175601541996002e-01" cType="1" res="-9.6351485699415207e-03" rms="4.5494654774665833e-01" purity="5.2043926715850830e-01" nType="0">
          <Node pos="l" depth="2" NCoef="0" IVar="-1" Cut="0.0000000000000000e+00" cType="1" res="1.0885640513151884e-03" rms="4.3882414698600769e-01" purity="5.7432198524475098e-01" nType="-99"/>
          <Node pos="r" depth="2" NCoef="0" IVar="-1" Cut="0.0000000000000000e+00" cType="1" res="-9.1253872960805893e-04" rms="4.5770099759101868e-01" purity="5.1043605804443359e-01" nType="-99"/>
        </Node>
        <Node pos="r" depth="1" NCoef="0" IVar="6" Cut="2.6245169639587402e+00" cType="1" res="1.3270030729472637e-02" rms="4.5717376470565796e-01" purity="4.4958552718162537e-01" nType="0">
          <Node pos="l" depth="2" NCoef="0" IVar="-1" Cut="0.0000000000000000e+00" cType="1" res="3.6732412991113961e-04" rms="4.6086075901985168e-01" purity="4.8872864246368408e-01" nType="-99"/>
          <Node pos="r" depth="2" NCoef="0" IVar="-1" Cut="0.0000000000000000e+00" cType="1" res="2.5045885704457760e-03" rms="4.4515648484230042e-01" purity="3.3164197206497192e-01" nType="-99"/>
        </Node>
      </Node>
    </BinaryTree>
    <BinaryTree type="DecisionTree" boostWeight="1.0000000000000000e+00" itree="418">
      <Node pos="s" depth="0" NCoef="0" IVar="3" Cut="1.6625355184078217e-01" cType="1" res="-2.9801903292536736e-03" rms="4.5573014020919800e-01" purity="4.9543493986129761e-01" nType="0">
        <Node pos="l" depth="1" NCoef="0" IVar="9" Cut="2.1821397542953491e-01" cType="1" res="-5.8623687364161015e-03" rms="4.5603603124618530e-01" purity="4.9880731105804443e-01" nType="0">
          <Node pos="l" depth="2" NCoef="0" IVar="-1" Cut="0.0000000000000000e+00" cType="1" res="-1.8475978868082166e-03" rms="4.5765894651412964e-01" purity="5.3122889995574951e-01" nType="-99"/>
          <Node pos="r" depth="2" NCoef="0" IVar="-1" Cut="0.0000000000000000e+00" cType="1" res="-1.6570834850426763e-04" rms="4.5572134852409363e-01" purity="4.9444159865379333e-01" nType="-99"/>
        </Node>
        <Node pos="r" depth="1" NCoef="0" IVar="-1" Cut="0.0000000000000000e+00" cType="1" res="1.9936866592615843e-03" rms="4.5071125030517578e-01" purity="4.5561513304710388e-01" nType="-99"/>
      </Node>
    </BinaryTree>
    <BinaryTree type="DecisionTree" boostWeight="1.0000000000000000e+00" itree="419">
      <Node pos="s" depth="0" NCoef="0" IVar="4" Cut="3.3838272094726562e-01" cType="1" res="3.8398912874981761e-04" rms="4.5375001430511475e-01" purity="5.0145965814590454e-01" nType="0">
        <Node pos="l" depth="1" NCoef="0" IVar="9" Cut="9.0001457929611206e-01" cType="1" res="-1.0708305053412914e-02" rms="4.5420843362808228e-01" purity="4.4191321730613708e-01" nType="0">
          <Node pos="l" depth="2" NCoef="0" IVar="-1" Cut="0.0000000000000000e+00" cType="1" res="-1.0667525930330157e-03" rms="4.5516204833984375e-01" purity="4.5524361729621887e-01" nType="-99"/>
          <Node pos="r" depth="2" NCoef="0" IVar="-1" Cut="0.0000000000000000e+00" cType="1" res="1.2270194711163640e-03" rms="4.4873234629631042e-01" purity="3.8142529129981995e-01" nType="-99"/>
        </Node>
        <Node pos="r" depth="1" NCoef="0" IVar="2" Cut="1.4826228332519531e+02" cType="1" res="8.4707234054803848e-03" rms="4.5324447751045227e-01" purity="5.4487144947052002e-01" nType="0">
          <Node pos="l" depth="2" NCoef="0" IVar="-1" Cut="0.0000000000000000e+00" cType="1" res="1.6730307834222913e-04" rms="4.5315283536911011e-01" purity="5.3400450944900513e-01" nType="-99"/>
          <Node pos="r" depth="2" NCoef="0" IVar="-1" Cut="0.0000000000000000e+00" cType="1" res="2.5851498357951641e-03" rms="4.5240336656570435e-01" purity="6.0526949167251587e-01" nType="-99"/>
        </Node>
      </Node>
    </BinaryTree>
    <BinaryTree type="DecisionTree" boostWeight="1.0000000000000000e+00" itree="420">
      <Node pos="s" depth="0" NCoef="0" IVar="5" Cut="9.4166755676269531e-01" cType="1" res="3.1495771836489439e-03" rms="4.5683550834655762e-01" purity="5.0034910440444946e-01" nType="0">
        <Node pos="l" depth="1" NCoef="0" IVar="6" Cut="2.5924179553985596e+00" cType="1" res="1.9835233688354492e-02" rms="4.5421648025512695e-01" purity="3.7684795260429382e-01" nType="0">
          <Node pos="l" depth="2" NCoef="0" IVar="-1" Cut="0.0000000000000000e+00" cType="1" res="1.6914675943553448e-03" rms="4.6643325686454773e-01" purity="4.1468197107315063e-01" nType="-99"/>
          <Node pos="r" depth="2" NCoef="0" IVar="-1" Cut="0.0000000000000000e+00" cType="1" res="-1.5672629233449697e-03" rms="3.9059683680534363e-01" purity="2.0232911407947540e-01" nType="-99"/>
        </Node>
        <Node pos="r" depth="1" NCoef="0" IVar="0" Cut="5.4929718971252441e+00" cType="1" res="-5.3919949568808079e-03" rms="4.5793521404266357e-01" purity="5.6357067823410034e-01" nType="0">
          <Node pos="l" depth="2" NCoef="0" IVar="-1" Cut="0.0000000000000000e+00" cType="1" res="-5.5953126866370440e-04" rms="4.6441271901130676e-01" purity="5.4065966606140137e-01" nType="-99"/>
          <Node pos="r" depth="2" NCoef="0" IVar="-1" Cut="0.0000000000000000e+00" cType="1" res="3.0984862241894007e-03" rms="3.7275427579879761e-01" purity="8.2722645998001099e-01" nType="-99"/>
        </Node>
      </Node>
    </BinaryTree>
    <BinaryTree type="DecisionTree" boostWeight="1.0000000000000000e+00" itree="421">
      <Node pos="s" depth="0" NCoef="0" IVar="5" Cut="9.6041160821914673e-01" cType="1" res="2.6475300546735525e-03" rms="4.5624351501464844e-01" purity="5.0285798311233521e-01" nType="0">
        <Node pos="l" depth="1" NCoef="0" IVar="0" Cut="3.4240832328796387e+00" cType="1" res="1.0289378464221954e-02" rms="4.5884367823600769e-01" purity="4.2259803414344788e-01" nType="0">
          <Node pos="l" depth="2" NCoef="0" IVar="-1" Cut="0.0000000000000000e+00" cType="1" res="2.5792341330088675e-04" rms="4.5686256885528564e-01" purity="3.6896124482154846e-01" nType="-99"/>
          <Node pos="r" depth="2" NCoef="0" IVar="-1" Cut="0.0000000000000000e+00" cType="1" res="1.8714346224442124e-03" rms="4.6542629599571228e-01" purity="6.2209695577621460e-01" nType="-99"/>
        </Node>
        <Node pos="r" depth="1" NCoef="0" IVar="7" Cut="7.1032585144042969e+01" cType="1" res="-9.7851986065506935e-03" rms="4.5170509815216064e-01" purity="6.3343507051467896e-01" nType="0">
          <Node pos="l" depth="2" NCoef="0" IVar="-1" Cut="0.0000000000000000e+00" cType="1" res="4.5955722453072667e-04" rms="4.6229597926139832e-01" purity="5.9246951341629028e-01" nType="-99"/>
          <Node pos="r" depth="2" NCoef="0" IVar="-1" Cut="0.0000000000000000e+00" cType="1" res="-2.0137564279139042e-03" rms="4.3887099623680115e-01" purity="6.7888170480728149e-01" nType="-99"/>
        </Node>
      </Node>
    </BinaryTree>
    <BinaryTree type="DecisionTree" boostWeight="1.0000000000000000e+00" itree="422">
      <Node pos="s" depth="0" NCoef="0" IVar="4" Cut="6.8875646591186523e-01" cType="1" res="6.0592510271817446e-04" rms="4.5584145188331604e-01" purity="5.0008475780487061e-01" nType="0">
        <Node pos="l" depth="1" NCoef="0" IVar="0" Cut="3.1495184898376465e+00" cType="1" res="-3.3997045829892159e-03" rms="4.5678305625915527e-01" purity="4.9082139134407043e-01" nType="0">
          <Node pos="l" depth="2" NCoef="0" IVar="-1" Cut="0.0000000000000000e+00" cType="1" res="2.9617987456731498e-04" rms="4.5904457569122314e-01" purity="3.9284244179725647e-01" nType="-99"/>
          <Node pos="r" depth="2" NCoef="0" IVar="-1" Cut="0.0000000000000000e+00" cType="1" res="-9.5630576834082603e-04" rms="4.5319196581840515e-01" purity="6.3416296243667603e-01" nType="-99"/>
        </Node>
        <Node pos="r" depth="1" NCoef="0" IVar="-1" Cut="0.0000000000000000e+00" cType="1" res="3.1011323444545269e-03" rms="4.4145178794860840e-01" purity="6.1195433139801025e-01" nType="-99"/>
      </Node>
    </BinaryTree>
    <BinaryTree type="DecisionTree" boostWeight="1.0000000000000000e+00" itree="423">
      <Node pos="s" depth="0" NCoef="0" IVar="3" Cut="1.3472522795200348e-01" cType="1" res="-3.4936284646391869e-03" rms="4.5595583319664001e-01" purity="4.9816459417343140e-01" nType="0">
        <Node pos="l" depth="1" NCoef="0" IVar="4" Cut="1.8956801295280457e-01" cType="1" res="-7.3712212033569813e-03" rms="4.5636892318725586e-01" purity="5.0539761781692505e-01" nType="0">
          <Node pos="l" depth="2" NCoef="0" IVar="-1" Cut="0.0000000000000000e+00" cType="1" res="-2.2339210845530033e-03" rms="4.5098698139190674e-01" purity="3.9007541537284851e-01" nType="-99"/>
          <Node pos="r" depth="2" NCoef="0" IVar="-1" Cut="0.0000000000000000e+00" cType="1" res="-2.5740516139194369e-04" rms="4.5687708258628845e-01" purity="5.1874327659606934e-01" nType="-99"/>
        </Node>
        <Node pos="r" depth="1" NCoef="0" IVar="8" Cut="1.2064157724380493e+00" cType="1" res="2.2496527060866356e-02" rms="4.5231992006301880e-01" purity="4.4968432188034058e-01" nType="0">
          <Node pos="l" depth="2" NCoef="0" IVar="-1" Cut="0.0000000000000000e+00" cType="1" res="3.2505530398339033e-03" rms="4.6182644367218018e-01" purity="5.1733344793319702e-01" nType="-99"/>
          <Node pos="r" depth="2" NCoef="0" IVar="-1" Cut="0.0000000000000000e+00" cType="1" res="-1.4218299183994532e-03" rms="4.3432989716529846e-01" purity="3.5084125399589539e-01" nType="-99"/>
        </Node>
      </Node>
    </BinaryTree>
    <BinaryTree type="DecisionTree" boostWeight="1.0000000000000000e+00" itree="424">
      <Node pos="s" depth="0" NCoef="0" IVar="9" Cut="5.4467850923538208e-01" cType="1" res="3.0368473380804062e-03" rms="4.5575791597366333e-01" purity="5.0386852025985718e-01" nType="0">
        <Node pos="l" depth="1" NCoef="0" IVar="8" Cut="1.4330835342407227e+00" cType="1" res="1.0716712102293968e-02" rms="4.5859962701797485e-01" purity="5.4811894893646240e-01" nType="0">
          <Node pos="l" depth="2" NCoef="0" IVar="-1" Cut="0.0000000000000000e+00" cType="1" res="2.0860705990344286e-04" rms="4.5976674556732178e-01" purity="5.5483096837997437e-01" nType="-99"/>
          <Node pos="r" depth="2" NCoef="0" IVar="-1" Cut="0.0000000000000000e+00" cType="1" res="2.6640738360583782e-03" rms="4.5206570625305176e-01" purity="5.1880407333374023e-01" nType="-99"/>
        </Node>
        <Node pos="r" depth="1" NCoef="0" IVar="8" Cut="1.2447592020034790e+00" cType="1" res="-5.4918183013796806e-03" rms="4.5242848992347717e-01" purity="4.5472759008407593e-01" nType="0">
          <Node pos="l" depth="2" NCoef="0" IVar="-1" Cut="0.0000000000000000e+00" cType="1" res="4.6842620940878987e-04" rms="4.5728260278701782e-01" purity="4.9369731545448303e-01" nType="-99"/>
          <Node pos="r" depth="2" NCoef="0" IVar="-1" Cut="0.0000000000000000e+00" cType="1" res="-1.8119241576641798e-03" rms="4.4298270344734192e-01" purity="3.8721391558647156e-01" nType="-99"/>
        </Node>
      </Node>
    </BinaryTree>
    <BinaryTree type="DecisionTree" boostWeight="1.0000000000000000e+00" itree="425">
      <Node pos="s" depth="0" NCoef="0" IVar="3" Cut="-5.0201997160911560e-02" cType="1" res="6.7586608929559588e-04" rms="4.5427376031875610e-01" purity="5.0087535381317139e-01" nType="0">
        <Node pos="l" depth="1" NCoef="0" IVar="7" Cut="6.7364624023437500e+01" cType="1" res="2.8867343440651894e-02" rms="4.4994226098060608e-01" purity="5.9513777494430542e-01" nType="0">
          <Node pos="l" depth="2" NCoef="0" IVar="-1" Cut="0.0000000000000000e+00" cType="1" res="2.7219816111028194e-03" rms="4.4920071959495544e-01" purity="5.4925191402435303e-01" nType="-99"/>
          <Node pos="r" depth="2" NCoef="0" IVar="-1" Cut="0.0000000000000000e+00" cType="1" res="6.5964553505182266e-04" rms="4.5011299848556519e-01" purity="6.4968764781951904e-01" nType="-99"/>
        </Node>
        <Node pos="r" depth="1" NCoef="0" IVar="3" Cut="1.7975616455078125e-01" cType="1" res="-3.4476097207516432e-03" rms="4.5475736260414124e-01" purity="4.8708793520927429e-01" nType="0">
          <Node pos="l" depth="2" NCoef="0" IVar="-1" Cut="0.0000000000000000e+00" cType="1" res="-4.1670474456623197e-04" rms="4.5465269684791565e-01" purity="4.8948770761489868e-01" nType="-99"/>
          <Node pos="r" depth="2" NCoef="0" IVar="-1" Cut="0.0000000000000000e+00" cType="1" res="2.5507949758321047e-03" rms="4.5395192503929138e-01" purity="4.5469281077384949e-01" nType="-99"/>
        </Node>
      </Node>
    </BinaryTree>
    <BinaryTree type="DecisionTree" boostWeight="1.0000000000000000e+00" itree="426">
      <Node pos="s" depth="0" NCoef="0" IVar="0" Cut="1.1710981130599976e+00" cType="1" res="2.1467546466737986e-03" rms="4.5600393414497375e-01" purity="5.0243860483169556e-01" nType="0">
        <Node pos="l" depth="1" NCoef="0" IVar="3" Cut="2.2291624918580055e-02" cType="1" res="-2.8818232938647270e-02" rms="4.1808113455772400e-01" purity="2.6116740703582764e-01" nType="0">
          <Node pos="l" depth="2" NCoef="0" IVar="-1" Cut="0.0000000000000000e+00" cType="1" res="-2.8941887430846691e-03" rms="4.2553371191024780e-01" purity="2.7093198895454407e-01" nType="-99"/>
          <Node pos="r" depth="2" NCoef="0" IVar="-1" Cut="0.0000000000000000e+00" cType="1" res="-1.2495813425630331e-03" rms="4.0993362665176392e-01" purity="2.5118651986122131e-01" nType="-99"/>
        </Node>
        <Node pos="r" depth="1" NCoef="0" IVar="8" Cut="6.4579254388809204e-01" cType="1" res="5.6547294370830059e-03" rms="4.5997166633605957e-01" purity="5.2977186441421509e-01" nType="0">
          <Node pos="l" depth="2" NCoef="0" IVar="-1" Cut="0.0000000000000000e+00" cType="1" res="-1.3069692067801952e-03" rms="4.5143762230873108e-01" purity="5.6418740749359131e-01" nType="-99"/>
          <Node pos="r" depth="2" NCoef="0" IVar="-1" Cut="0.0000000000000000e+00" cType="1" res="5.6997756473720074e-04" rms="4.6100354194641113e-01" purity="5.2508318424224854e-01" nType="-99"/>
        </Node>
      </Node>
    </BinaryTree>
    <BinaryTree type="DecisionTree" boostWeight="1.0000000000000000e+00" itree="427">
      <Node pos="s" depth="0" NCoef="0" IVar="7" Cut="9.1225196838378906e+01" cType="1" res="-2.1448228508234024e-03" rms="4.5897558331489563e-01" purity="5.0037413835525513e-01" nType="0">
        <Node pos="l" depth="1" NCoef="0" IVar="0" Cut="2.8946044445037842e+00" cType="1" res="4.3809968046844006e-03" rms="4.5937219262123108e-01" purity="4.7691437602043152e-01" nType="0">
          <Node pos="l" depth="2" NCoef="0" IVar="-1" Cut="0.0000000000000000e+00" cType="1" res="8.5762015078216791e-04" rms="4.5926281809806824e-01" purity="3.7094160914421082e-01" nType="-99"/>
          <Node pos="r" depth="2" NCoef="0" IVar="-1" Cut="0.0000000000000000e+00" cType="1" res="-4.0388616616837680e-04" rms="4.5926529169082642e-01" purity="6.0704064369201660e-01" nType="-99"/>
        </Node>
        <Node pos="r" depth="1" NCoef="0" IVar="1" Cut="8.4600561523437500e+02" cType="1" res="-2.6006411761045456e-02" rms="4.5672938227653503e-01" purity="5.8615463972091675e-01" nType="0">
          <Node pos="l" depth="2" NCoef="0" IVar="-1" Cut="0.0000000000000000e+00" cType="1" res="-2.6022542733699083e-03" rms="4.6003362536430359e-01" purity="5.5556988716125488e-01" nType="-99"/>
          <Node pos="r" depth="2" NCoef="0" IVar="-1" Cut="0.0000000000000000e+00" cType="1" res="2.1024244779255241e-04" rms="4.4896510243415833e-01" purity="6.4393877983093262e-01" nType="-99"/>
        </Node>
      </Node>
    </BinaryTree>
    <BinaryTree type="DecisionTree" boostWeight="1.0000000000000000e+00" itree="428">
      <Node pos="s" depth="0" NCoef="0" IVar="8" Cut="1.0658719539642334e+00" cType="1" res="-5.3754210239276290e-04" rms="4.5653179287910461e-01" purity="5.0069475173950195e-01" nType="0">
        <Node pos="l" depth="1" NCoef="0" IVar="4" Cut="5.6650495529174805e-01" cType="1" res="-7.8736720606684685e-03" rms="4.5734867453575134e-01" purity="5.2718198299407959e-01" nType="0">
          <Node pos="l" depth="2" NCoef="0" IVar="-1" Cut="0.0000000000000000e+00" cType="1" res="-9.6519582439213991e-04" rms="4.5715996623039246e-01" purity="5.0528967380523682e-01" nType="-99"/>
          <Node pos="r" depth="2" NCoef="0" IVar="-1" Cut="0.0000000000000000e+00" cType="1" res="1.3490269193425775e-03" rms="4.5689520239830017e-01" purity="6.1113739013671875e-01" nType="-99"/>
        </Node>
        <Node pos="r" depth="1" NCoef="0" IVar="9" Cut="7.1506392955780029e-01" cType="1" res="7.1868319064378738e-03" rms="4.5554244518280029e-01" purity="4.7280582785606384e-01" nType="0">
          <Node pos="l" depth="2" NCoef="0" IVar="-1" Cut="0.0000000000000000e+00" cType="1" res="-1.6271094864350744e-05" rms="4.5581677556037903e-01" purity="4.9417927861213684e-01" nType="-99"/>
          <Node pos="r" depth="2" NCoef="0" IVar="-1" Cut="0.0000000000000000e+00" cType="1" res="1.5471738297492266e-03" rms="4.5447862148284912e-01" purity="4.2471715807914734e-01" nType="-99"/>
        </Node>
      </Node>
    </BinaryTree>
    <BinaryTree type="DecisionTree" boostWeight="1.0000000000000000e+00" itree="429">
      <Node pos="s" depth="0" NCoef="0" IVar="3" Cut="-7.0311643183231354e-02" cType="1" res="-1.3828992377966642e-03" rms="4.5754104852676392e-01" purity="4.9493795633316040e-01" nType="0">
        <Node pos="l" depth="1" NCoef="0" IVar="-1" Cut="0.0000000000000000e+00" cType="1" res="2.1266576368361712e-03" rms="4.5077079534530640e-01" purity="5.9858739376068115e-01" nType="-99"/>
        <Node pos="r" depth="1" NCoef="0" IVar="3" Cut="9.7485795617103577e-02" cType="1" res="-3.4539715852588415e-03" rms="4.5784682035446167e-01" purity="4.8890566825866699e-01" nType="0">
          <Node pos="l" depth="2" NCoef="0" IVar="-1" Cut="0.0000000000000000e+00" cType="1" res="-5.7564338203519583e-04" rms="4.6030986309051514e-01" purity="5.0282406806945801e-01" nType="-99"/>
          <Node pos="r" depth="2" NCoef="0" IVar="-1" Cut="0.0000000000000000e+00" cType="1" res="9.8007416818290949e-04" rms="4.4922459125518799e-01" purity="4.4360890984535217e-01" nType="-99"/>
        </Node>
      </Node>
    </BinaryTree>
    <BinaryTree type="DecisionTree" boostWeight="1.0000000000000000e+00" itree="430">
      <Node pos="s" depth="0" NCoef="0" IVar="1" Cut="4.8874246215820312e+02" cType="1" res="-4.1261920705437660e-03" rms="4.5722374320030212e-01" purity="4.9798735976219177e-01" nType="0">
        <Node pos="l" depth="1" NCoef="0" IVar="1" Cut="4.3978054809570312e+02" cType="1" res="6.2458789907395840e-03" rms="4.5108896493911743e-01" purity="4.1224771738052368e-01" nType="0">
          <Node pos="l" depth="2" NCoef="0" IVar="-1" Cut="0.0000000000000000e+00" cType="1" res="-2.6950283790938556e-04" rms="4.4761720299720764e-01" purity="3.7371727824211121e-01" nType="-99"/>
          <Node pos="r" depth="2" NCoef="0" IVar="-1" Cut="0.0000000000000000e+00" cType="1" res="1.5529377851635218e-03" rms="4.5676925778388977e-01" purity="4.8277866840362549e-01" nType="-99"/>
        </Node>
        <Node pos="r" depth="1" NCoef="0" IVar="2" Cut="1.0479605865478516e+02" cType="1" res="-1.0850523598492146e-02" rms="4.6103271842002869e-01" purity="5.5357336997985840e-01" nType="0">
          <Node pos="l" depth="2" NCoef="0" IVar="-1" Cut="0.0000000000000000e+00" cType="1" res="-1.5166391385719180e-03" rms="4.6735584735870361e-01" purity="5.3104692697525024e-01" nType="-99"/>
          <Node pos="r" depth="2" NCoef="0" IVar="-1" Cut="0.0000000000000000e+00" cType="1" res="4.2502342694206163e-05" rms="4.5557785034179688e-01" purity="5.7161235809326172e-01" nType="-99"/>
        </Node>
      </Node>
    </BinaryTree>
    <BinaryTree type="DecisionTree" boostWeight="1.0000000000000000e+00" itree="431">
      <Node pos="s" depth="0" NCoef="0" IVar="8" Cut="9.2978316545486450e-01" cType="1" res="8.3645019913092256e-04" rms="4.5255035161972046e-01" purity="4.9956580996513367e-01" nType="0">
        <Node pos="l" depth="1" NCoef="0" IVar="6" Cut="2.4818842411041260e+00" cType="1" res="1.4333964325487614e-02" rms="4.5304518938064575e-01" purity="5.5796545743942261e-01" nType="0">
          <Node pos="l" depth="2" NCoef="0" IVar="-1" Cut="0.0000000000000000e+00" cType="1" res="1.3286191970109940e-03" rms="4.5426526665687561e-01" purity="5.9591686725616455e-01" nType="-99"/>
          <Node pos="r" depth="2" NCoef="0" IVar="-1" Cut="0.0000000000000000e+00" cType="1" res="-1.1169023346155882e-03" rms="4.4619598984718323e-01" purity="3.8951331377029419e-01" nType="-99"/>
        </Node>
        <Node pos="r" depth="1" NCoef="0" IVar="8" Cut="1.7200350761413574e+00" cType="1" res="-7.4104554951190948e-03" rms="4.5204943418502808e-01" purity="4.6388399600982666e-01" nType="0">
          <Node pos="l" depth="2" NCoef="0" IVar="-1" Cut="0.0000000000000000e+00" cType="1" res="-8.7028532288968563e-04" rms="4.5142436027526855e-01" purity="4.6530139446258545e-01" nType="-99"/>
          <Node pos="r" depth="2" NCoef="0" IVar="-1" Cut="0.0000000000000000e+00" cType="1" res="2.1076949778944254e-03" rms="4.5386114716529846e-01" purity="4.5506635308265686e-01" nType="-99"/>
        </Node>
      </Node>
    </BinaryTree>
    <BinaryTree type="DecisionTree" boostWeight="1.0000000000000000e+00" itree="432">
      <Node pos="s" depth="0" NCoef="0" IVar="8" Cut="1.5611195564270020e+00" cType="1" res="3.5904010292142630e-03" rms="4.5481383800506592e-01" purity="5.0285351276397705e-01" nType="0">
        <Node pos="l" depth="1" NCoef="0" IVar="9" Cut="3.8786748051643372e-01" cType="1" res="7.3314402252435684e-03" rms="4.5696982741355896e-01" purity="5.1774960756301880e-01" nType="0">
          <Node pos="l" depth="2" NCoef="0" IVar="-1" Cut="0.0000000000000000e+00" cType="1" res="-4.7014013398438692e-04" rms="4.5054036378860474e-01" purity="5.4892051219940186e-01" nType="-99"/>
          <Node pos="r" depth="2" NCoef="0" IVar="-1" Cut="0.0000000000000000e+00" cType="1" res="9.2389050405472517e-04" rms="4.5996364951133728e-01" purity="5.0220054388046265e-01" nType="-99"/>
        </Node>
        <Node pos="r" depth="1" NCoef="0" IVar="9" Cut="5.2498948574066162e-01" cType="1" res="-1.8388539552688599e-02" rms="4.4129472970962524e-01" purity="4.1533759236335754e-01" nType="0">
          <Node pos="l" depth="2" NCoef="0" IVar="-1" Cut="0.0000000000000000e+00" cType="1" res="5.4685398936271667e-04" rms="4.4734737277030945e-01" purity="4.8246735334396362e-01" nType="-99"/>
          <Node pos="r" depth="2" NCoef="0" IVar="-1" Cut="0.0000000000000000e+00" cType="1" res="-2.6439116336405277e-03" rms="4.3509727716445923e-01" purity="3.6099728941917419e-01" nType="-99"/>
        </Node>
      </Node>
    </BinaryTree>
    <BinaryTree type="DecisionTree" boostWeight="1.0000000000000000e+00" itree="433">
      <Node pos="s" depth="0" NCoef="0" IVar="6" Cut="2.3493173122406006e+00" cType="1" res="-1.9601152744144201e-03" rms="4.5781505107879639e-01" purity="4.9589332938194275e-01" nType="0">
        <Node pos="l" depth="1" NCoef="0" IVar="7" Cut="1.2105012512207031e+02" cType="1" res="-9.3001574277877808e-03" rms="4.5954388380050659e-01" purity="5.4230648279190063e-01" nType="0">
          <Node pos="l" depth="2" NCoef="0" IVar="-1" Cut="0.0000000000000000e+00" cType="1" res="-7.8279158333316445e-04" rms="4.6129637956619263e-01" purity="5.2845597267150879e-01" nType="-99"/>
          <Node pos="r" depth="2" NCoef="0" IVar="-1" Cut="0.0000000000000000e+00" cType="1" res="1.9847312942147255e-03" rms="4.3738052248954773e-01" purity="6.9844532012939453e-01" nType="-99"/>
        </Node>
        <Node pos="r" depth="1" NCoef="0" IVar="2" Cut="1.5330108642578125e+02" cType="1" res="1.3061336241662502e-02" rms="4.5388662815093994e-01" purity="4.0090835094451904e-01" nType="0">
          <Node pos="l" depth="2" NCoef="0" IVar="-1" Cut="0.0000000000000000e+00" cType="1" res="1.5810724580660462e-03" rms="4.5092368125915527e-01" purity="4.0197956562042236e-01" nType="-99"/>
          <Node pos="r" depth="2" NCoef="0" IVar="-1" Cut="0.0000000000000000e+00" cType="1" res="-1.0438526514917612e-03" rms="4.6041697263717651e-01" purity="3.9805272221565247e-01" nType="-99"/>
        </Node>
      </Node>
    </BinaryTree>
    <BinaryTree type="DecisionTree" boostWeight="1.0000000000000000e+00" itree="434">
      <Node pos="s" depth="0" NCoef="0" IVar="5" Cut="9.1006904840469360e-01" cType="1" res="-4.3429289944469929e-03" rms="4.5508152246475220e-01" purity="4.9335256218910217e-01" nType="0">
        <Node pos="l" depth="1" NCoef="0" IVar="-1" Cut="0.0000000000000000e+00" cType="1" res="-2.4345687124878168e-03" rms="4.1177347302436829e-01" purity="2.6553800702095032e-01" nType="-99"/>
        <Node pos="r" depth="1" NCoef="0" IVar="5" Cut="9.4617807865142822e-01" cType="1" res="-2.0193045493215322e-03" rms="4.5796197652816772e-01" purity="5.0979852676391602e-01" nType="0">
          <Node pos="l" depth="2" NCoef="0" IVar="-1" Cut="0.0000000000000000e+00" cType="1" res="5.6185631547123194e-04" rms="4.5690521597862244e-01" purity="3.9092808961868286e-01" nType="-99"/>
          <Node pos="r" depth="2" NCoef="0" IVar="-1" Cut="0.0000000000000000e+00" cType="1" res="-5.2164756925776601e-04" rms="4.5843866467475891e-01" purity="5.7695329189300537e-01" nType="-99"/>
        </Node>
      </Node>
    </BinaryTree>
    <BinaryTree type="DecisionTree" boostWeight="1.0000000000000000e+00" itree="435">
      <Node pos="s" depth="0" NCoef="0" IVar="7" Cut="4.1631557464599609e+01" cType="1" res="7.9384614946320653e-04" rms="4.5504283905029297e-01" purity="5.0115847587585449e-01" nType="0">
        <Node pos="l" depth="1" NCoef="0" IVar="-1" Cut="0.0000000000000000e+00" cType="1" res="-3.0859152320772409e-03" rms="4.2666697502136230e-01" purity="2.9171773791313171e-01" nType="-99"/>
        <Node pos="r" depth="1" NCoef="0" IVar="4" Cut="1.1324273049831390e-01" cType="1" res="3.4687884617596865e-03" rms="4.5649689435958862e-01" purity="5.1334351301193237e-01" nType="0">
          <Node pos="l" depth="2" NCoef="0" IVar="-1" Cut="0.0000000000000000e+00" cType="1" res="-2.4000902194529772e-03" rms="4.3690532445907593e-01" purity="3.5594448447227478e-01" nType="-99"/>
          <Node pos="r" depth="2" NCoef="0" IVar="-1" Cut="0.0000000000000000e+00" cType="1" res="3.5632186336442828e-04" rms="4.5747065544128418e-01" purity="5.2220499515533447e-01" nType="-99"/>
        </Node>
      </Node>
    </BinaryTree>
    <BinaryTree type="DecisionTree" boostWeight="1.0000000000000000e+00" itree="436">
      <Node pos="s" depth="0" NCoef="0" IVar="0" Cut="3.5641639232635498e+00" cType="1" res="-1.8692245939746499e-03" rms="4.5584267377853394e-01" purity="4.9683335423469543e-01" nType="0">
        <Node pos="l" depth="1" NCoef="0" IVar="4" Cut="6.1101305484771729e-01" cType="1" res="-8.2820439711213112e-03" rms="4.6198776364326477e-01" purity="4.0756389498710632e-01" nType="0">
          <Node pos="l" depth="2" NCoef="0" IVar="-1" Cut="0.0000000000000000e+00" cType="1" res="-7.9374219058081508e-04" rms="4.5907592773437500e-01" purity="3.9242699742317200e-01" nType="-99"/>
          <Node pos="r" depth="2" NCoef="0" IVar="-1" Cut="0.0000000000000000e+00" cType="1" res="1.0193573543801904e-03" rms="4.7728079557418823e-01" purity="4.9290335178375244e-01" nType="-99"/>
        </Node>
        <Node pos="r" depth="1" NCoef="0" IVar="5" Cut="9.4824934005737305e-01" cType="1" res="1.2012728489935398e-02" rms="4.4192928075790405e-01" purity="6.9007664918899536e-01" nType="0">
          <Node pos="l" depth="2" NCoef="0" IVar="-1" Cut="0.0000000000000000e+00" cType="1" res="3.0254444573074579e-03" rms="4.6827024221420288e-01" purity="6.2402284145355225e-01" nType="-99"/>
          <Node pos="r" depth="2" NCoef="0" IVar="-1" Cut="0.0000000000000000e+00" cType="1" res="-3.0546536436304450e-05" rms="4.3318456411361694e-01" purity="7.0925903320312500e-01" nType="-99"/>
        </Node>
      </Node>
    </BinaryTree>
    <BinaryTree type="DecisionTree" boostWeight="1.0000000000000000e+00" itree="437">
      <Node pos="s" depth="0" NCoef="0" IVar="2" Cut="4.2594318389892578e+01" cType="1" res="2.4699878413230181e-03" rms="4.5626047253608704e-01" purity="5.0225681066513062e-01" nType="0">
        <Node pos="l" depth="1" NCoef="0" IVar="-1" Cut="0.0000000000000000e+00" cType="1" res="-1.9143171375617385e-03" rms="4.6535003185272217e-01" purity="4.3264052271842957e-01" nType="-99"/>
        <Node pos="r" depth="1" NCoef="0" IVar="6" Cut="1.6997977495193481e+00" cType="1" res="4.6539292670786381e-03" rms="4.5557162165641785e-01" purity="5.0683432817459106e-01" nType="0">
          <Node pos="l" depth="2" NCoef="0" IVar="-1" Cut="0.0000000000000000e+00" cType="1" res="1.9216956570744514e-03" rms="4.4658976793289185e-01" purity="6.4177495241165161e-01" nType="-99"/>
          <Node pos="r" depth="2" NCoef="0" IVar="-1" Cut="0.0000000000000000e+00" cType="1" res="8.5375802882481366e-05" rms="4.5659282803535461e-01" purity="4.8971876502037048e-01" nType="-99"/>
        </Node>
      </Node>
    </BinaryTree>
    <BinaryTree type="DecisionTree" boostWeight="1.0000000000000000e+00" itree="438">
      <Node pos="s" depth="0" NCoef="0" IVar="9" Cut="2.9346659779548645e-01" cType="1" res="-2.7231210842728615e-03" rms="4.5632663369178772e-01" purity="4.9797701835632324e-01" nType="0">
        <Node pos="l" depth="1" NCoef="0" IVar="1" Cut="5.0488357543945312e+02" cType="1" res="-2.2472904995083809e-02" rms="4.5543766021728516e-01" purity="5.3615373373031616e-01" nType="0">
          <Node pos="l" depth="2" NCoef="0" IVar="-1" Cut="0.0000000000000000e+00" cType="1" res="-3.4470646642148495e-03" rms="4.5548474788665771e-01" purity="4.0890264511108398e-01" nType="-99"/>
          <Node pos="r" depth="2" NCoef="0" IVar="-1" Cut="0.0000000000000000e+00" cType="1" res="-4.4696422264678404e-05" rms="4.5409458875656128e-01" purity="6.1979734897613525e-01" nType="-99"/>
        </Node>
        <Node pos="r" depth="1" NCoef="0" IVar="6" Cut="1.8026514053344727e+00" cType="1" res="2.4164281785488129e-03" rms="4.5641759037971497e-01" purity="4.8804220557212830e-01" nType="0">
          <Node pos="l" depth="2" NCoef="0" IVar="-1" Cut="0.0000000000000000e+00" cType="1" res="1.8854406662285328e-03" rms="4.5133405923843384e-01" purity="6.1073988676071167e-01" nType="-99"/>
          <Node pos="r" depth="2" NCoef="0" IVar="-1" Cut="0.0000000000000000e+00" cType="1" res="-1.6447834786958992e-04" rms="4.5714697241783142e-01" purity="4.6591228246688843e-01" nType="-99"/>
        </Node>
      </Node>
    </BinaryTree>
    <BinaryTree type="DecisionTree" boostWeight="1.0000000000000000e+00" itree="439">
      <Node pos="s" depth="0" NCoef="0" IVar="0" Cut="9.3332219123840332e-01" cType="1" res="2.2781984880566597e-03" rms="4.5463976263999939e-01" purity="5.0142121315002441e-01" nType="0">
        <Node pos="l" depth="1" NCoef="0" IVar="-1" Cut="0.0000000000000000e+00" cType="1" res="-2.2039907053112984e-03" rms="4.1664865612983704e-01" purity="2.5252616405487061e-01" nType="-99"/>
        <Node pos="r" depth="1" NCoef="0" IVar="2" Cut="1.9249211120605469e+02" cType="1" res="4.4091437011957169e-03" rms="4.5700120925903320e-01" purity="5.1815050840377808e-01" nType="0">
          <Node pos="l" depth="2" NCoef="0" IVar="-1" Cut="0.0000000000000000e+00" cType="1" res="4.1317200521007180e-04" rms="4.5686769485473633e-01" purity="5.2079606056213379e-01" nType="-99"/>
          <Node pos="r" depth="2" NCoef="0" IVar="-1" Cut="0.0000000000000000e+00" cType="1" res="-1.6368823125958443e-03" rms="4.5768880844116211e-01" purity="4.8326495289802551e-01" nType="-99"/>
        </Node>
      </Node>
    </BinaryTree>
    <BinaryTree type="DecisionTree" boostWeight="1.0000000000000000e+00" itree="440">
      <Node pos="s" depth="0" NCoef="0" IVar="4" Cut="1.1725578457117081e-01" cType="1" res="-2.5167996063828468e-03" rms="4.5515984296798706e-01" purity="4.9729174375534058e-01" nType="0">
        <Node pos="l" depth="1" NCoef="0" IVar="-1" Cut="0.0000000000000000e+00" cType="1" res="-3.0165645293891430e-03" rms="4.2694783210754395e-01" purity="3.4006825089454651e-01" nType="-99"/>
        <Node pos="r" depth="1" NCoef="0" IVar="6" Cut="1.7138738632202148e+00" cType="1" res="1.4672341058030725e-04" rms="4.5672133564949036e-01" purity="5.0705415010452271e-01" nType="0">
          <Node pos="l" depth="2" NCoef="0" IVar="-1" Cut="0.0000000000000000e+00" cType="1" res="1.2161383638158441e-03" rms="4.4989848136901855e-01" purity="6.1658078432083130e-01" nType="-99"/>
          <Node pos="r" depth="2" NCoef="0" IVar="-1" Cut="0.0000000000000000e+00" cType="1" res="-1.8597915186546743e-04" rms="4.5772269368171692e-01" purity="4.8958960175514221e-01" nType="-99"/>
        </Node>
      </Node>
    </BinaryTree>
    <BinaryTree type="DecisionTree" boostWeight="1.0000000000000000e+00" itree="441">
      <Node pos="s" depth="0" NCoef="0" IVar="0" Cut="4.6035408973693848e+00" cType="1" res="3.0091446824371815e-03" rms="4.5568394660949707e-01" purity="5.0291097164154053e-01" nType="0">
        <Node pos="l" depth="1" NCoef="0" IVar="4" Cut="6.3287848234176636e-01" cType="1" res="-3.0397460795938969e-04" rms="4.6346992254257202e-01" purity="4.6052542328834534e-01" nType="0">
          <Node pos="l" depth="2" NCoef="0" IVar="-1" Cut="0.0000000000000000e+00" cType="1" res="2.1772598847746849e-04" rms="4.6255823969841003e-01" purity="4.5502722263336182e-01" nType="-99"/>
          <Node pos="r" depth="2" NCoef="0" IVar="-1" Cut="0.0000000000000000e+00" cType="1" res="-1.5950226224958897e-03" rms="4.6879747509956360e-01" purity="4.9800485372543335e-01" nType="-99"/>
        </Node>
        <Node pos="r" depth="1" NCoef="0" IVar="9" Cut="5.4330283403396606e-01" cType="1" res="2.3772373795509338e-02" rms="4.0286248922348022e-01" purity="7.6854002475738525e-01" nType="0">
          <Node pos="l" depth="2" NCoef="0" IVar="-1" Cut="0.0000000000000000e+00" cType="1" res="3.3170939423143864e-03" rms="3.7094038724899292e-01" purity="8.1581848859786987e-01" nType="-99"/>
          <Node pos="r" depth="2" NCoef="0" IVar="-1" Cut="0.0000000000000000e+00" cType="1" res="-1.6062846407294273e-04" rms="4.4105535745620728e-01" purity="7.0457100868225098e-01" nType="-99"/>
        </Node>
      </Node>
    </BinaryTree>
    <BinaryTree type="DecisionTree" boostWeight="1.0000000000000000e+00" itree="442">
      <Node pos="s" depth="0" NCoef="0" IVar="8" Cut="7.2198396921157837e-01" cType="1" res="1.0599563829600811e-03" rms="4.5706191658973694e-01" purity="5.0090396404266357e-01" nType="0">
        <Node pos="l" depth="1" NCoef="0" IVar="9" Cut="5.6620597839355469e-01" cType="1" res="2.1803397685289383e-02" rms="4.5597243309020996e-01" purity="5.7525044679641724e-01" nType="0">
          <Node pos="l" depth="2" NCoef="0" IVar="-1" Cut="0.0000000000000000e+00" cType="1" res="-3.1389219657285139e-05" rms="4.5585489273071289e-01" purity="5.8628427982330322e-01" nType="-99"/>
          <Node pos="r" depth="2" NCoef="0" IVar="-1" Cut="0.0000000000000000e+00" cType="1" res="3.4621309023350477e-03" rms="4.5404535531997681e-01" purity="5.5841392278671265e-01" nType="-99"/>
        </Node>
        <Node pos="r" depth="1" NCoef="0" IVar="8" Cut="1.0088458061218262e+00" cType="1" res="-3.7386775948107243e-03" rms="4.5717954635620117e-01" purity="4.8370516300201416e-01" nType="0">
          <Node pos="l" depth="2" NCoef="0" IVar="-1" Cut="0.0000000000000000e+00" cType="1" res="-1.1575997341424227e-03" rms="4.6044349670410156e-01" purity="5.0223332643508911e-01" nType="-99"/>
          <Node pos="r" depth="2" NCoef="0" IVar="-1" Cut="0.0000000000000000e+00" cType="1" res="2.1867973555345088e-04" rms="4.5541739463806152e-01" purity="4.7474330663681030e-01" nType="-99"/>
        </Node>
      </Node>
    </BinaryTree>
    <BinaryTree type="DecisionTree" boostWeight="1.0000000000000000e+00" itree="443">
      <Node pos="s" depth="0" NCoef="0" IVar="7" Cut="8.1318847656250000e+01" cType="1" res="1.8428742187097669e-03" rms="4.5641908049583435e-01" purity="5.0339919328689575e-01" nType="0">
        <Node pos="l" depth="1" NCoef="0" IVar="9" Cut="3.9036926627159119e-01" cType="1" res="8.7391696870326996e-03" rms="4.5536684989929199e-01" purity="4.6739843487739563e-01" nType="0">
          <Node pos="l" depth="2" NCoef="0" IVar="-1" Cut="0.0000000000000000e+00" cType="1" res="-4.4147617882117629e-04" rms="4.5490759611129761e-01" purity="4.9464288353919983e-01" nType="-99"/>
          <Node pos="r" depth="2" NCoef="0" IVar="-1" Cut="0.0000000000000000e+00" cType="1" res="1.0043082293123007e-03" rms="4.5539173483848572e-01" purity="4.5503365993499756e-01" nType="-99"/>
        </Node>
        <Node pos="r" depth="1" NCoef="0" IVar="0" Cut="3.6340365409851074e+00" cType="1" res="-1.3466725125908852e-02" rms="4.5837566256523132e-01" purity="5.8332008123397827e-01" nType="0">
          <Node pos="l" depth="2" NCoef="0" IVar="-1" Cut="0.0000000000000000e+00" cType="1" res="-1.4959015243221074e-04" rms="4.7218716144561768e-01" purity="5.1121068000793457e-01" nType="-99"/>
          <Node pos="r" depth="2" NCoef="0" IVar="-1" Cut="0.0000000000000000e+00" cType="1" res="-2.3742970079183578e-03" rms="4.3216088414192200e-01" purity="7.1102124452590942e-01" nType="-99"/>
        </Node>
      </Node>
    </BinaryTree>
    <BinaryTree type="DecisionTree" boostWeight="1.0000000000000000e+00" itree="444">
      <Node pos="s" depth="0" NCoef="0" IVar="8" Cut="1.7678433656692505e+00" cType="1" res="3.1461610342375934e-04" rms="4.5499891042709351e-01" purity="5.0018090009689331e-01" nType="0">
        <Node pos="l" depth="1" NCoef="0" IVar="6" Cut="1.8537634611129761e+00" cType="1" res="-3.7228818982839584e-03" rms="4.5597684383392334e-01" purity="5.0186324119567871e-01" nType="0">
          <Node pos="l" depth="2" NCoef="0" IVar="-1" Cut="0.0000000000000000e+00" cType="1" res="1.2502605095505714e-03" rms="4.5135083794593811e-01" purity="6.1083287000656128e-01" nType="-99"/>
          <Node pos="r" depth="2" NCoef="0" IVar="-1" Cut="0.0000000000000000e+00" cType="1" res="-5.6637858506292105e-04" rms="4.5682954788208008e-01" purity="4.7764307260513306e-01" nType="-99"/>
        </Node>
        <Node pos="r" depth="1" NCoef="0" IVar="-1" Cut="0.0000000000000000e+00" cType="1" res="3.2707720529288054e-03" rms="4.3930894136428833e-01" purity="4.7896558046340942e-01" nType="-99"/>
      </Node>
    </BinaryTree>
    <BinaryTree type="DecisionTree" boostWeight="1.0000000000000000e+00" itree="445">
      <Node pos="s" depth="0" NCoef="0" IVar="0" Cut="4.6030726432800293e+00" cType="1" res="-2.4806169676594436e-04" rms="4.5556944608688354e-01" purity="5.0186496973037720e-01" nType="0">
        <Node pos="l" depth="1" NCoef="0" IVar="7" Cut="7.7431983947753906e+01" cType="1" res="-4.2988811619579792e-03" rms="4.6346125006675720e-01" purity="4.5848453044891357e-01" nType="0">
          <Node pos="l" depth="2" NCoef="0" IVar="-1" Cut="0.0000000000000000e+00" cType="1" res="2.6836674078367651e-04" rms="4.5893877744674683e-01" purity="4.2099937796592712e-01" nType="-99"/>
          <Node pos="r" depth="2" NCoef="0" IVar="-1" Cut="0.0000000000000000e+00" cType="1" res="-1.2362394481897354e-03" rms="4.7154426574707031e-01" purity="5.3011614084243774e-01" nType="-99"/>
        </Node>
        <Node pos="r" depth="1" NCoef="0" IVar="4" Cut="3.3225545287132263e-01" cType="1" res="2.5003317743539810e-02" rms="4.0198528766632080e-01" purity="7.7228283882141113e-01" nType="0">
          <Node pos="l" depth="2" NCoef="0" IVar="-1" Cut="0.0000000000000000e+00" cType="1" res="-1.5958126459736377e-04" rms="4.3706086277961731e-01" purity="7.0149791240692139e-01" nType="-99"/>
          <Node pos="r" depth="2" NCoef="0" IVar="-1" Cut="0.0000000000000000e+00" cType="1" res="3.1646054703742266e-03" rms="3.7904068827629089e-01" purity="8.1371009349822998e-01" nType="-99"/>
        </Node>
      </Node>
    </BinaryTree>
    <BinaryTree type="DecisionTree" boostWeight="1.0000000000000000e+00" itree="446">
      <Node pos="s" depth="0" NCoef="0" IVar="7" Cut="4.7196289062500000e+01" cType="1" res="-2.9075087513774633e-03" rms="4.5282754302024841e-01" purity="4.9578258395195007e-01" nType="0">
        <Node pos="l" depth="1" NCoef="0" IVar="4" Cut="4.8962849378585815e-01" cType="1" res="-2.6429479941725731e-02" rms="4.2996087670326233e-01" purity="3.2213291525840759e-01" nType="0">
          <Node pos="l" depth="2" NCoef="0" IVar="-1" Cut="0.0000000000000000e+00" cType="1" res="-3.4833196550607681e-03" rms="4.1407236456871033e-01" purity="2.7249717712402344e-01" nType="-99"/>
          <Node pos="r" depth="2" NCoef="0" IVar="-1" Cut="0.0000000000000000e+00" cType="1" res="5.8285094564780593e-04" rms="4.5133933424949646e-01" purity="3.9956066012382507e-01" nType="-99"/>
        </Node>
        <Node pos="r" depth="1" NCoef="0" IVar="6" Cut="1.5703959465026855e+00" cType="1" res="8.0417335266247392e-04" rms="4.5622038841247559e-01" purity="5.2318388223648071e-01" nType="0">
          <Node pos="l" depth="2" NCoef="0" IVar="-1" Cut="0.0000000000000000e+00" cType="1" res="2.1636011078953743e-03" rms="4.3978452682495117e-01" purity="6.6299456357955933e-01" nType="-99"/>
          <Node pos="r" depth="2" NCoef="0" IVar="-1" Cut="0.0000000000000000e+00" cType="1" res="-1.5499364235438406e-04" rms="4.5766362547874451e-01" purity="5.0949102640151978e-01" nType="-99"/>
        </Node>
      </Node>
    </BinaryTree>
    <BinaryTree type="DecisionTree" boostWeight="1.0000000000000000e+00" itree="447">
      <Node pos="s" depth="0" NCoef="0" IVar="9" Cut="4.7562068700790405e-01" cType="1" res="-3.7854970432817936e-03" rms="4.5505556464195251e-01" purity="4.9660196900367737e-01" nType="0">
        <Node pos="l" depth="1" NCoef="0" IVar="2" Cut="1.0583148193359375e+02" cType="1" res="7.0838690735399723e-03" rms="4.5498007535934448e-01" purity="5.5066955089569092e-01" nType="0">
          <Node pos="l" depth="2" NCoef="0" IVar="-1" Cut="0.0000000000000000e+00" cType="1" res="-9.9605771538335830e-05" rms="4.6032801270484924e-01" purity="5.1193165779113770e-01" nType="-99"/>
          <Node pos="r" depth="2" NCoef="0" IVar="-1" Cut="0.0000000000000000e+00" cType="1" res="1.3575367629528046e-03" rms="4.4570830464363098e-01" purity="6.1416435241699219e-01" nType="-99"/>
        </Node>
        <Node pos="r" depth="1" NCoef="0" IVar="9" Cut="8.9427733421325684e-01" cType="1" res="-1.2213243171572685e-02" rms="4.5493537187576294e-01" purity="4.5467972755432129e-01" nType="0">
          <Node pos="l" depth="2" NCoef="0" IVar="-1" Cut="0.0000000000000000e+00" cType="1" res="-1.1665660422295332e-03" rms="4.5453974604606628e-01" purity="4.7157731652259827e-01" nType="-99"/>
          <Node pos="r" depth="2" NCoef="0" IVar="-1" Cut="0.0000000000000000e+00" cType="1" res="4.5099825365468860e-04" rms="4.5556539297103882e-01" purity="4.0472391247749329e-01" nType="-99"/>
        </Node>
      </Node>
    </BinaryTree>
    <BinaryTree type="DecisionTree" boostWeight="1.0000000000000000e+00" itree="448">
      <Node pos="s" depth="0" NCoef="0" IVar="3" Cut="-4.8116572201251984e-02" cType="1" res="1.4409520372282714e-04" rms="4.5660853385925293e-01" purity="5.0121295452117920e-01" nType="0">
        <Node pos="l" depth="1" NCoef="0" IVar="4" Cut="6.2721771001815796e-01" cType="1" res="2.1441977471113205e-02" rms="4.5568564534187317e-01" purity="5.8890902996063232e-01" nType="0">
          <Node pos="l" depth="2" NCoef="0" IVar="-1" Cut="0.0000000000000000e+00" cType="1" res="-4.3471463141031563e-04" rms="4.6121108531951904e-01" purity="5.4533213376998901e-01" nType="-99"/>
          <Node pos="r" depth="2" NCoef="0" IVar="-1" Cut="0.0000000000000000e+00" cType="1" res="3.8575355429202318e-03" rms="4.4467648863792419e-01" purity="6.5044784545898438e-01" nType="-99"/>
        </Node>
        <Node pos="r" depth="1" NCoef="0" IVar="9" Cut="2.6289099454879761e-01" cType="1" res="-3.3201945479959249e-03" rms="4.5666453242301941e-01" purity="4.8694837093353271e-01" nType="0">
          <Node pos="l" depth="2" NCoef="0" IVar="-1" Cut="0.0000000000000000e+00" cType="1" res="-1.7507740994915366e-03" rms="4.6000111103057861e-01" purity="5.1644074916839600e-01" nType="-99"/>
          <Node pos="r" depth="2" NCoef="0" IVar="-1" Cut="0.0000000000000000e+00" cType="1" res="8.0118006735574454e-05" rms="4.5589476823806763e-01" purity="4.8147660493850708e-01" nType="-99"/>
        </Node>
      </Node>
    </BinaryTree>
    <BinaryTree type="DecisionTree" boostWeight="1.0000000000000000e+00" itree="449">
      <Node pos="s" depth="0" NCoef="0" IVar="0" Cut="3.0625712871551514e+00" cType="1" res="-1.3232562923803926e-03" rms="4.5214155316352844e-01" purity="5.0011783838272095e-01" nType="0">
        <Node pos="l" depth="1" NCoef="0" IVar="3" Cut="-9.4537353143095970e-03" cType="1" res="-1.0719140991568565e-02" rms="4.5607876777648926e-01" purity="3.7792128324508667e-01" nType="0">
          <Node pos="l" depth="2" NCoef="0" IVar="-1" Cut="0.0000000000000000e+00" cType="1" res="-1.8121520988643169e-03" rms="4.6323290467262268e-01" purity="4.0291601419448853e-01" nType="-99"/>
          <Node pos="r" depth="2" NCoef="0" IVar="-1" Cut="0.0000000000000000e+00" cType="1" res="-6.4086612837854773e-05" rms="4.5211470127105713e-01" purity="3.6531063914299011e-01" nType="-99"/>
        </Node>
        <Node pos="r" depth="1" NCoef="0" IVar="5" Cut="9.5629465579986572e-01" cType="1" res="1.1096781119704247e-02" rms="4.4658061861991882e-01" purity="6.6164445877075195e-01" nType="0">
          <Node pos="l" depth="2" NCoef="0" IVar="-1" Cut="0.0000000000000000e+00" cType="1" res="1.9633083138614893e-03" rms="4.6757405996322632e-01" purity="5.9103226661682129e-01" nType="-99"/>
          <Node pos="r" depth="2" NCoef="0" IVar="-1" Cut="0.0000000000000000e+00" cType="1" res="-1.3111860607750714e-04" rms="4.3445754051208496e-01" purity="6.9913840293884277e-01" nType="-99"/>
        </Node>
      </Node>
    </BinaryTree>
    <BinaryTree type="DecisionTree" boostWeight="1.0000000000000000e+00" itree="450">
      <Node pos="s" depth="0" NCoef="0" IVar="1" Cut="9.2131561279296875e+02" cType="1" res="6.8288850598037243e-03" rms="4.5393487811088562e-01" purity="5.0620400905609131e-01" nType="0">
        <Node pos="l" depth="1" NCoef="0" IVar="2" Cut="1.5558828735351562e+02" cType="1" res="3.7276523653417826e-03" rms="4.5531249046325684e-01" purity="4.9453550577163696e-01" nType="0">
          <Node pos="l" depth="2" NCoef="0" IVar="-1" Cut="0.0000000000000000e+00" cType="1" res="7.4160134317935444e-06" rms="4.5501562952995300e-01" purity="4.9046534299850464e-01" nType="-99"/>
          <Node pos="r" depth="2" NCoef="0" IVar="-1" Cut="0.0000000000000000e+00" cType="1" res="1.8753831973299384e-03" rms="4.5659923553466797e-01" purity="5.2364057302474976e-01" nType="-99"/>
        </Node>
        <Node pos="r" depth="1" NCoef="0" IVar="-1" Cut="0.0000000000000000e+00" cType="1" res="3.3939993008971214e-03" rms="4.2982491850852966e-01" purity="6.8281346559524536e-01" nType="-99"/>
      </Node>
    </BinaryTree>
    <BinaryTree type="DecisionTree" boostWeight="1.0000000000000000e+00" itree="451">
      <Node pos="s" depth="0" NCoef="0" IVar="2" Cut="1.1364251708984375e+02" cType="1" res="1.6177841462194920e-03" rms="4.5389321446418762e-01" purity="4.9992758035659790e-01" nType="0">
        <Node pos="l" depth="1" NCoef="0" IVar="6" Cut="1.6163889169692993e+00" cType="1" res="-6.2839076854288578e-03" rms="4.5699787139892578e-01" purity="4.7705927491188049e-01" nType="0">
          <Node pos="l" depth="2" NCoef="0" IVar="-1" Cut="0.0000000000000000e+00" cType="1" res="1.5230170683935285e-03" rms="4.5100897550582886e-01" purity="6.1040860414505005e-01" nType="-99"/>
          <Node pos="r" depth="2" NCoef="0" IVar="-1" Cut="0.0000000000000000e+00" cType="1" res="-7.2712649125605822e-04" rms="4.5780548453330994e-01" purity="4.5413592457771301e-01" nType="-99"/>
        </Node>
        <Node pos="r" depth="1" NCoef="0" IVar="5" Cut="9.3819600343704224e-01" cType="1" res="1.4824382029473782e-02" rms="4.4834548234939575e-01" purity="5.3814882040023804e-01" nType="0">
          <Node pos="l" depth="2" NCoef="0" IVar="-1" Cut="0.0000000000000000e+00" cType="1" res="-4.5630347449332476e-04" rms="4.5084023475646973e-01" purity="3.6836341023445129e-01" nType="-99"/>
          <Node pos="r" depth="2" NCoef="0" IVar="-1" Cut="0.0000000000000000e+00" cType="1" res="1.5160314505919814e-03" rms="4.4704586267471313e-01" purity="6.0577702522277832e-01" nType="-99"/>
        </Node>
      </Node>
    </BinaryTree>
    <BinaryTree type="DecisionTree" boostWeight="1.0000000000000000e+00" itree="452">
      <Node pos="s" depth="0" NCoef="0" IVar="4" Cut="6.2810218334197998e-01" cType="1" res="-4.3144281953573227e-03" rms="4.5565843582153320e-01" purity="4.9576121568679810e-01" nType="0">
        <Node pos="l" depth="1" NCoef="0" IVar="7" Cut="7.0960258483886719e+01" cType="1" res="-4.1735655395314097e-04" rms="4.5540472865104675e-01" purity="4.8991176486015320e-01" nType="0">
          <Node pos="l" depth="2" NCoef="0" IVar="-1" Cut="0.0000000000000000e+00" cType="1" res="5.7576649123802781e-04" rms="4.5030260086059570e-01" purity="4.3369531631469727e-01" nType="-99"/>
          <Node pos="r" depth="2" NCoef="0" IVar="-1" Cut="0.0000000000000000e+00" cType="1" res="-7.1515509625896811e-04" rms="4.6109080314636230e-01" purity="5.5611848831176758e-01" nType="-99"/>
        </Node>
        <Node pos="r" depth="1" NCoef="0" IVar="2" Cut="9.2712875366210938e+01" cType="1" res="-2.9165616258978844e-02" rms="4.5649093389511108e-01" purity="5.3306257724761963e-01" nType="0">
          <Node pos="l" depth="2" NCoef="0" IVar="-1" Cut="0.0000000000000000e+00" cType="1" res="-4.0592676959931850e-03" rms="4.5381495356559753e-01" purity="4.6507182717323303e-01" nType="-99"/>
          <Node pos="r" depth="2" NCoef="0" IVar="-1" Cut="0.0000000000000000e+00" cType="1" res="4.6682165702804923e-04" rms="4.5628103613853455e-01" purity="6.0177487134933472e-01" nType="-99"/>
        </Node>
      </Node>
    </BinaryTree>
    <BinaryTree type="DecisionTree" boostWeight="1.0000000000000000e+00" itree="453">
      <Node pos="s" depth="0" NCoef="0" IVar="2" Cut="8.6709564208984375e+01" cType="1" res="5.1520124543458223e-04" rms="4.5483109354972839e-01" purity="5.0043040513992310e-01" nType="0">
        <Node pos="l" depth="1" NCoef="0" IVar="2" Cut="7.3329353332519531e+01" cType="1" res="-9.5123415812849998e-03" rms="4.5915991067886353e-01" purity="4.6884831786155701e-01" nType="0">
          <Node pos="l" depth="2" NCoef="0" IVar="-1" Cut="0.0000000000000000e+00" cType="1" res="3.6378642107592896e-05" rms="4.6068975329399109e-01" purity="4.8111540079116821e-01" nType="-99"/>
          <Node pos="r" depth="2" NCoef="0" IVar="-1" Cut="0.0000000000000000e+00" cType="1" res="-2.2518855985254049e-03" rms="4.5406597852706909e-01" purity="4.3672347068786621e-01" nType="-99"/>
        </Node>
        <Node pos="r" depth="1" NCoef="0" IVar="8" Cut="1.2043409347534180e+00" cType="1" res="7.1087148971855640e-03" rms="4.5184087753295898e-01" purity="5.2119696140289307e-01" nType="0">
          <Node pos="l" depth="2" NCoef="0" IVar="-1" Cut="0.0000000000000000e+00" cType="1" res="-1.2182706996100023e-04" rms="4.5329257845878601e-01" purity="5.3919064998626709e-01" nType="-99"/>
          <Node pos="r" depth="2" NCoef="0" IVar="-1" Cut="0.0000000000000000e+00" cType="1" res="1.5385246369987726e-03" rms="4.4857060909271240e-01" purity="4.8702955245971680e-01" nType="-99"/>
        </Node>
      </Node>
    </BinaryTree>
    <BinaryTree type="DecisionTree" boostWeight="1.0000000000000000e+00" itree="454">
      <Node pos="s" depth="0" NCoef="0" IVar="9" Cut="2.9566594958305359e-01" cType="1" res="-1.0708434274420142e-03" rms="4.5627465844154358e-01" purity="4.9958732724189758e-01" nType="0">
        <Node pos="l" depth="1" NCoef="0" IVar="0" Cut="2.8850932121276855e+00" cType="1" res="-1.5674019232392311e-02" rms="4.6062374114990234e-01" purity="5.3176867961883545e-01" nType="0">
          <Node pos="l" depth="2" NCoef="0" IVar="-1" Cut="0.0000000000000000e+00" cType="1" res="3.6040734266862273e-04" rms="4.7160676121711731e-01" purity="4.2953664064407349e-01" nType="-99"/>
          <Node pos="r" depth="2" NCoef="0" IVar="-1" Cut="0.0000000000000000e+00" cType="1" res="-2.4322017561644316e-03" rms="4.4790592789649963e-01" purity="6.3729465007781982e-01" nType="-99"/>
        </Node>
        <Node pos="r" depth="1" NCoef="0" IVar="2" Cut="1.2192340850830078e+02" cType="1" res="2.7234316803514957e-03" rms="4.5506116747856140e-01" purity="4.9122577905654907e-01" nType="0">
          <Node pos="l" depth="2" NCoef="0" IVar="-1" Cut="0.0000000000000000e+00" cType="1" res="5.5266107665374875e-04" rms="4.5346418023109436e-01" purity="4.8915177583694458e-01" nType="-99"/>
          <Node pos="r" depth="2" NCoef="0" IVar="-1" Cut="0.0000000000000000e+00" cType="1" res="-6.1901769367977977e-04" rms="4.5807781815528870e-01" purity="4.9549669027328491e-01" nType="-99"/>
        </Node>
      </Node>
    </BinaryTree>
    <BinaryTree type="DecisionTree" boostWeight="1.0000000000000000e+00" itree="455">
      <Node pos="s" depth="0" NCoef="0" IVar="6" Cut="2.0147333145141602e+00" cType="1" res="2.9028984718024731e-03" rms="4.5366925001144409e-01" purity="5.0202816724777222e-01" nType="0">
        <Node pos="l" depth="1" NCoef="0" IVar="0" Cut="3.1311278343200684e+00" cType="1" res="1.6573399305343628e-02" rms="4.5489156246185303e-01" purity="5.8326536417007446e-01" nType="0">
          <Node pos="l" depth="2" NCoef="0" IVar="-1" Cut="0.0000000000000000e+00" cType="1" res="1.7352877184748650e-03" rms="4.6956583857536316e-01" purity="4.8874372243881226e-01" nType="-99"/>
          <Node pos="r" depth="2" NCoef="0" IVar="-1" Cut="0.0000000000000000e+00" cType="1" res="-6.0255359130678698e-05" rms="4.3390521407127380e-01" purity="7.0950585603713989e-01" nType="-99"/>
        </Node>
        <Node pos="r" depth="1" NCoef="0" IVar="0" Cut="4.0025157928466797e+00" cType="1" res="-2.1621757186949253e-03" rms="4.5311084389686584e-01" purity="4.7192877531051636e-01" nType="0">
          <Node pos="l" depth="2" NCoef="0" IVar="-1" Cut="0.0000000000000000e+00" cType="1" res="-4.7566005378030241e-04" rms="4.5891201496124268e-01" purity="4.0166962146759033e-01" nType="-99"/>
          <Node pos="r" depth="2" NCoef="0" IVar="-1" Cut="0.0000000000000000e+00" cType="1" res="1.0133429896086454e-03" rms="4.3318516016006470e-01" purity="7.0102524757385254e-01" nType="-99"/>
        </Node>
      </Node>
    </BinaryTree>
    <BinaryTree type="DecisionTree" boostWeight="1.0000000000000000e+00" itree="456">
      <Node pos="s" depth="0" NCoef="0" IVar="4" Cut="1.1284057796001434e-01" cType="1" res="3.4509901888668537e-04" rms="4.5491755008697510e-01" purity="5.0196951627731323e-01" nType="0">
        <Node pos="l" depth="1" NCoef="0" IVar="-1" Cut="0.0000000000000000e+00" cType="1" res="-2.8795555699616671e-03" rms="4.3891370296478271e-01" purity="3.4339630603790283e-01" nType="-99"/>
        <Node pos="r" depth="1" NCoef="0" IVar="5" Cut="9.2516750097274780e-01" cType="1" res="2.7339744847267866e-03" rms="4.5566391944885254e-01" purity="5.1071381568908691e-01" nType="0">
          <Node pos="l" depth="2" NCoef="0" IVar="-1" Cut="0.0000000000000000e+00" cType="1" res="-1.0330610675737262e-03" rms="4.4305667281150818e-01" purity="3.1949856877326965e-01" nType="-99"/>
          <Node pos="r" depth="2" NCoef="0" IVar="-1" Cut="0.0000000000000000e+00" cType="1" res="4.0681561222299933e-04" rms="4.5802184939384460e-01" purity="5.4852360486984253e-01" nType="-99"/>
        </Node>
      </Node>
    </BinaryTree>
    <BinaryTree type="DecisionTree" boostWeight="1.0000000000000000e+00" itree="457">
      <Node pos="s" depth="0" NCoef="0" IVar="3" Cut="-5.0201997160911560e-02" cType="1" res="2.1421127021312714e-03" rms="4.5522892475128174e-01" purity="5.0065952539443970e-01" nType="0">
        <Node pos="l" depth="1" NCoef="0" IVar="2" Cut="1.0791542053222656e+02" cType="1" res="2.8522515669465065e-02" rms="4.5144397020339966e-01" purity="5.8633220195770264e-01" nType="0">
          <Node pos="l" depth="2" NCoef="0" IVar="-1" Cut="0.0000000000000000e+00" cType="1" res="6.0553837101906538e-04" rms="4.5530486106872559e-01" purity="5.4199510812759399e-01" nType="-99"/>
          <Node pos="r" depth="2" NCoef="0" IVar="-1" Cut="0.0000000000000000e+00" cType="1" res="3.4791298676282167e-03" rms="4.4464412331581116e-01" purity="6.4857602119445801e-01" nType="-99"/>
        </Node>
        <Node pos="r" depth="1" NCoef="0" IVar="6" Cut="1.4722890853881836e+00" cType="1" res="-1.8521515885367990e-03" rms="4.5566615462303162e-01" purity="4.8768782615661621e-01" nType="0">
          <Node pos="l" depth="2" NCoef="0" IVar="-1" Cut="0.0000000000000000e+00" cType="1" res="2.0915349014103413e-03" rms="4.5930573344230652e-01" purity="6.3068884611129761e-01" nType="-99"/>
          <Node pos="r" depth="2" NCoef="0" IVar="-1" Cut="0.0000000000000000e+00" cType="1" res="-2.7689518174156547e-04" rms="4.5529562234878540e-01" purity="4.7742724418640137e-01" nType="-99"/>
        </Node>
      </Node>
    </BinaryTree>
    <BinaryTree type="DecisionTree" boostWeight="1.0000000000000000e+00" itree="458">
      <Node pos="s" depth="0" NCoef="0" IVar="2" Cut="2.1178942871093750e+02" cType="1" res="1.2788460589945316e-03" rms="4.5590001344680786e-01" purity="4.9923148751258850e-01" nType="0">
        <Node pos="l" depth="1" NCoef="0" IVar="6" Cut="2.5920817852020264e+00" cType="1" res="3.0574740376323462e-03" rms="4.5613130927085876e-01" purity="5.0174272060394287e-01" nType="0">
          <Node pos="l" depth="2" NCoef="0" IVar="-1" Cut="0.0000000000000000e+00" cType="1" res="-7.5854209171666298e-06" rms="4.5888569951057434e-01" purity="5.2778697013854980e-01" nType="-99"/>
          <Node pos="r" depth="2" NCoef="0" IVar="-1" Cut="0.0000000000000000e+00" cType="1" res="1.7027553403750062e-03" rms="4.3679988384246826e-01" purity="3.2867586612701416e-01" nType="-99"/>
        </Node>
        <Node pos="r" depth="1" NCoef="0" IVar="-1" Cut="0.0000000000000000e+00" cType="1" res="-2.0676709245890379e-03" rms="4.5015206933021545e-01" purity="4.5153650641441345e-01" nType="-99"/>
      </Node>
    </BinaryTree>
    <BinaryTree type="DecisionTree" boostWeight="1.0000000000000000e+00" itree="459">
      <Node pos="s" depth="0" NCoef="0" IVar="4" Cut="6.6091942787170410e-01" cType="1" res="-1.9765000324696302e-03" rms="4.5428228378295898e-01" purity="4.9872258305549622e-01" nType="0">
        <Node pos="l" depth="1" NCoef="0" IVar="0" Cut="9.8385614156723022e-01" cType="1" res="-6.1496892012655735e-03" rms="4.5383077859878540e-01" purity="4.8793676495552063e-01" nType="0">
          <Node pos="l" depth="2" NCoef="0" IVar="-1" Cut="0.0000000000000000e+00" cType="1" res="-3.0363500118255615e-03" rms="4.0629628300666809e-01" purity="2.3763743042945862e-01" nType="-99"/>
          <Node pos="r" depth="2" NCoef="0" IVar="-1" Cut="0.0000000000000000e+00" cType="1" res="-2.2542664373759180e-04" rms="4.5706793665885925e-01" purity="5.0654858350753784e-01" nType="-99"/>
        </Node>
        <Node pos="r" depth="1" NCoef="0" IVar="5" Cut="9.5517724752426147e-01" cType="1" res="3.5018138587474823e-02" rms="4.5660045742988586e-01" purity="5.9433764219284058e-01" nType="0">
          <Node pos="l" depth="2" NCoef="0" IVar="-1" Cut="0.0000000000000000e+00" cType="1" res="3.6117436829954386e-03" rms="4.7642800211906433e-01" purity="5.0174480676651001e-01" nType="-99"/>
          <Node pos="r" depth="2" NCoef="0" IVar="-1" Cut="0.0000000000000000e+00" cType="1" res="5.8050145162269473e-04" rms="4.3414014577865601e-01" purity="6.8749952316284180e-01" nType="-99"/>
        </Node>
      </Node>
    </BinaryTree>
    <BinaryTree type="DecisionTree" boostWeight="1.0000000000000000e+00" itree="460">
      <Node pos="s" depth="0" NCoef="0" IVar="3" Cut="1.5113215148448944e-01" cType="1" res="-1.4313509454950690e-03" rms="4.5393872261047363e-01" purity="5.0134021043777466e-01" nType="0">
        <Node pos="l" depth="1" NCoef="0" IVar="4" Cut="1.5895268321037292e-01" cType="1" res="-3.8478442002087831e-03" rms="4.5424643158912659e-01" purity="5.0738948583602905e-01" nType="0">
          <Node pos="l" depth="2" NCoef="0" IVar="-1" Cut="0.0000000000000000e+00" cType="1" res="-2.6002856902778149e-03" rms="4.5307728648185730e-01" purity="3.8282546401023865e-01" nType="-99"/>
          <Node pos="r" depth="2" NCoef="0" IVar="-1" Cut="0.0000000000000000e+00" cType="1" res="-5.7373144954908639e-05" rms="4.5421275496482849e-01" purity="5.1737201213836670e-01" nType="-99"/>
        </Node>
        <Node pos="r" depth="1" NCoef="0" IVar="-1" Cut="0.0000000000000000e+00" cType="1" res="1.3056306634098291e-03" rms="4.5055532455444336e-01" purity="4.4659262895584106e-01" nType="-99"/>
      </Node>
    </BinaryTree>
    <BinaryTree type="DecisionTree" boostWeight="1.0000000000000000e+00" itree="461">
      <Node pos="s" depth="0" NCoef="0" IVar="8" Cut="6.3516682386398315e-01" cType="1" res="1.1987976031377912e-03" rms="4.5543506741523743e-01" purity="5.0324457883834839e-01" nType="0">
        <Node pos="l" depth="1" NCoef="0" IVar="9" Cut="4.7950479388237000e-01" cType="1" res="3.0662415549159050e-02" rms="4.4879114627838135e-01" purity="5.8913910388946533e-01" nType="0">
          <Node pos="l" depth="2" NCoef="0" IVar="-1" Cut="0.0000000000000000e+00" cType="1" res="7.7347282785922289e-04" rms="4.3814605474472046e-01" purity="6.0624957084655762e-01" nType="-99"/>
          <Node pos="r" depth="2" NCoef="0" IVar="-1" Cut="0.0000000000000000e+00" cType="1" res="2.9633236117660999e-03" rms="4.5786452293395996e-01" purity="5.7312107086181641e-01" nType="-99"/>
        </Node>
        <Node pos="r" depth="1" NCoef="0" IVar="0" Cut="4.8110637664794922e+00" cType="1" res="-2.6393169537186623e-03" rms="4.5615333318710327e-01" purity="4.9205547571182251e-01" nType="0">
          <Node pos="l" depth="2" NCoef="0" IVar="-1" Cut="0.0000000000000000e+00" cType="1" res="6.6758067987393588e-05" rms="4.5917010307312012e-01" purity="4.6311399340629578e-01" nType="-99"/>
          <Node pos="r" depth="2" NCoef="0" IVar="-1" Cut="0.0000000000000000e+00" cType="1" res="-2.4026306346058846e-03" rms="4.3023189902305603e-01" purity="7.2250115871429443e-01" nType="-99"/>
        </Node>
      </Node>
    </BinaryTree>
    <BinaryTree type="DecisionTree" boostWeight="1.0000000000000000e+00" itree="462">
      <Node pos="s" depth="0" NCoef="0" IVar="4" Cut="1.1425444483757019e-01" cType="1" res="-3.8981472607702017e-03" rms="4.5467829704284668e-01" purity="4.9367919564247131e-01" nType="0">
        <Node pos="l" depth="1" NCoef="0" IVar="-1" Cut="0.0000000000000000e+00" cType="1" res="-4.2831227183341980e-03" rms="4.2362862825393677e-01" purity="3.1207779049873352e-01" nType="-99"/>
        <Node pos="r" depth="1" NCoef="0" IVar="1" Cut="3.5878332519531250e+02" cType="1" res="-5.3443713113665581e-04" rms="4.5613217353820801e-01" purity="5.0391000509262085e-01" nType="0">
          <Node pos="l" depth="2" NCoef="0" IVar="-1" Cut="0.0000000000000000e+00" cType="1" res="-2.6245259214192629e-03" rms="4.1594529151916504e-01" purity="2.7349767088890076e-01" nType="-99"/>
          <Node pos="r" depth="2" NCoef="0" IVar="-1" Cut="0.0000000000000000e+00" cType="1" res="1.1849022848764434e-04" rms="4.5865583419799805e-01" purity="5.1969718933105469e-01" nType="-99"/>
        </Node>
      </Node>
    </BinaryTree>
    <BinaryTree type="DecisionTree" boostWeight="1.0000000000000000e+00" itree="463">
      <Node pos="s" depth="0" NCoef="0" IVar="2" Cut="4.8680934906005859e+01" cType="1" res="6.1175357550382614e-03" rms="4.5666828751564026e-01" purity="5.0674676895141602e-01" nType="0">
        <Node pos="l" depth="1" NCoef="0" IVar="-1" Cut="0.0000000000000000e+00" cType="1" res="-1.5730389859527349e-03" rms="4.6304583549499512e-01" purity="4.4832888245582581e-01" nType="-99"/>
        <Node pos="r" depth="1" NCoef="0" IVar="8" Cut="8.5706686973571777e-01" cType="1" res="9.6953911706805229e-03" rms="4.5580589771270752e-01" purity="5.1332396268844604e-01" nType="0">
          <Node pos="l" depth="2" NCoef="0" IVar="-1" Cut="0.0000000000000000e+00" cType="1" res="1.4477947261184454e-03" rms="4.5292136073112488e-01" purity="5.7448649406433105e-01" nType="-99"/>
          <Node pos="r" depth="2" NCoef="0" IVar="-1" Cut="0.0000000000000000e+00" cType="1" res="2.1784762793686241e-04" rms="4.5699357986450195e-01" purity="4.8514443635940552e-01" nType="-99"/>
        </Node>
      </Node>
    </BinaryTree>
    <BinaryTree type="DecisionTree" boostWeight="1.0000000000000000e+00" itree="464">
      <Node pos="s" depth="0" NCoef="0" IVar="5" Cut="9.0596204996109009e-01" cType="1" res="1.0178136872127652e-03" rms="4.5311650633811951e-01" purity="5.0204056501388550e-01" nType="0">
        <Node pos="l" depth="1" NCoef="0" IVar="-1" Cut="0.0000000000000000e+00" cType="1" res="-3.7070801481604576e-03" rms="4.0710499882698059e-01" purity="2.4069266021251678e-01" nType="-99"/>
        <Node pos="r" depth="1" NCoef="0" IVar="3" Cut="-5.1378346979618073e-02" cType="1" res="4.0374342352151871e-03" rms="4.5522880554199219e-01" purity="5.1590490341186523e-01" nType="0">
          <Node pos="l" depth="2" NCoef="0" IVar="-1" Cut="0.0000000000000000e+00" cType="1" res="1.9581548403948545e-03" rms="4.4917827844619751e-01" purity="6.1081016063690186e-01" nType="-99"/>
          <Node pos="r" depth="2" NCoef="0" IVar="-1" Cut="0.0000000000000000e+00" cType="1" res="4.5675228648178745e-06" rms="4.5596662163734436e-01" purity="5.0209873914718628e-01" nType="-99"/>
        </Node>
      </Node>
    </BinaryTree>
    <BinaryTree type="DecisionTree" boostWeight="1.0000000000000000e+00" itree="465">
      <Node pos="s" depth="0" NCoef="0" IVar="0" Cut="1.2114025354385376e+00" cType="1" res="-2.9666952323168516e-03" rms="4.5365825295448303e-01" purity="4.9410834908485413e-01" nType="0">
        <Node pos="l" depth="1" NCoef="0" IVar="9" Cut="5.3121697902679443e-01" cType="1" res="-3.2006647437810898e-02" rms="4.1900789737701416e-01" purity="2.5466188788414001e-01" nType="0">
          <Node pos="l" depth="2" NCoef="0" IVar="-1" Cut="0.0000000000000000e+00" cType="1" res="-5.5338535457849503e-04" rms="4.5215022563934326e-01" purity="3.0916303396224976e-01" nType="-99"/>
          <Node pos="r" depth="2" NCoef="0" IVar="-1" Cut="0.0000000000000000e+00" cType="1" res="-4.1055246256291866e-03" rms="3.8717693090438843e-01" purity="2.0795480906963348e-01" nType="-99"/>
        </Node>
        <Node pos="r" depth="1" NCoef="0" IVar="2" Cut="8.6258453369140625e+01" cType="1" res="6.8306899629533291e-04" rms="4.5769733190536499e-01" purity="5.2420222759246826e-01" nType="0">
          <Node pos="l" depth="2" NCoef="0" IVar="-1" Cut="0.0000000000000000e+00" cType="1" res="-8.7011390132829547e-04" rms="4.6095633506774902e-01" purity="4.8732820153236389e-01" nType="-99"/>
          <Node pos="r" depth="2" NCoef="0" IVar="-1" Cut="0.0000000000000000e+00" cType="1" res="6.3403527019545436e-04" rms="4.5537963509559631e-01" purity="5.4741328954696655e-01" nType="-99"/>
        </Node>
      </Node>
    </BinaryTree>
    <BinaryTree type="DecisionTree" boostWeight="1.0000000000000000e+00" itree="466">
      <Node pos="s" depth="0" NCoef="0" IVar="4" Cut="6.5307843685150146e-01" cType="1" res="2.8529171831905842e-03" rms="4.5452505350112915e-01" purity="5.0152182579040527e-01" nType="0">
        <Node pos="l" depth="1" NCoef="0" IVar="1" Cut="6.6358465576171875e+02" cType="1" res="-2.6023626560345292e-04" rms="4.5472902059555054e-01" purity="4.9053633213043213e-01" nType="0">
          <Node pos="l" depth="2" NCoef="0" IVar="-1" Cut="0.0000000000000000e+00" cType="1" res="-4.0673124021850526e-04" rms="4.5523345470428467e-01" purity="4.4761148095130920e-01" nType="-99"/>
          <Node pos="r" depth="2" NCoef="0" IVar="-1" Cut="0.0000000000000000e+00" cType="1" res="1.1096893576905131e-03" rms="4.5278981328010559e-01" purity="6.1453521251678467e-01" nType="-99"/>
        </Node>
        <Node pos="r" depth="1" NCoef="0" IVar="3" Cut="-4.3892402201890945e-02" cType="1" res="2.7810551226139069e-02" rms="4.5211234688758850e-01" purity="5.8959066867828369e-01" nType="0">
          <Node pos="l" depth="2" NCoef="0" IVar="-1" Cut="0.0000000000000000e+00" cType="1" res="2.9779328033328056e-03" rms="4.4467315077781677e-01" purity="6.3213640451431274e-01" nType="-99"/>
          <Node pos="r" depth="2" NCoef="0" IVar="-1" Cut="0.0000000000000000e+00" cType="1" res="5.0377327715978026e-04" rms="4.5866960287094116e-01" purity="5.4650896787643433e-01" nType="-99"/>
        </Node>
      </Node>
    </BinaryTree>
    <BinaryTree type="DecisionTree" boostWeight="1.0000000000000000e+00" itree="467">
      <Node pos="s" depth="0" NCoef="0" IVar="8" Cut="9.2960923910140991e-01" cType="1" res="-1.9305964233353734e-03" rms="4.5519462227821350e-01" purity="4.9690958857536316e-01" nType="0">
        <Node pos="l" depth="1" NCoef="0" IVar="8" Cut="8.7223750352859497e-01" cType="1" res="-1.7094649374485016e-02" rms="4.5584022998809814e-01" purity="5.2271550893783569e-01" nType="0">
          <Node pos="l" depth="2" NCoef="0" IVar="-1" Cut="0.0000000000000000e+00" cType="1" res="-6.0363131342455745e-04" rms="4.5555287599563599e-01" purity="5.3388726711273193e-01" nType="-99"/>
          <Node pos="r" depth="2" NCoef="0" IVar="-1" Cut="0.0000000000000000e+00" cType="1" res="-4.0582832880318165e-03" rms="4.5480996370315552e-01" purity="4.5104700326919556e-01" nType="-99"/>
        </Node>
        <Node pos="r" depth="1" NCoef="0" IVar="9" Cut="5.4683214426040649e-01" cType="1" res="7.0879259146749973e-03" rms="4.5457038283348083e-01" purity="4.8156210780143738e-01" nType="0">
          <Node pos="l" depth="2" NCoef="0" IVar="-1" Cut="0.0000000000000000e+00" cType="1" res="1.1936747469007969e-03" rms="4.5660099387168884e-01" purity="5.3191131353378296e-01" nType="-99"/>
          <Node pos="r" depth="2" NCoef="0" IVar="-1" Cut="0.0000000000000000e+00" cType="1" res="-3.7683235132135451e-04" rms="4.5201465487480164e-01" purity="4.2738884687423706e-01" nType="-99"/>
        </Node>
      </Node>
    </BinaryTree>
    <BinaryTree type="DecisionTree" boostWeight="1.0000000000000000e+00" itree="468">
      <Node pos="s" depth="0" NCoef="0" IVar="0" Cut="4.7443113327026367e+00" cType="1" res="-4.1684461757540703e-03" rms="4.5511826872825623e-01" purity="4.9588483572006226e-01" nType="0">
        <Node pos="l" depth="1" NCoef="0" IVar="5" Cut="9.3688440322875977e-01" cType="1" res="-6.1395892407745123e-04" rms="4.5855498313903809e-01" purity="4.6515098214149475e-01" nType="0">
          <Node pos="l" depth="2" NCoef="0" IVar="-1" Cut="0.0000000000000000e+00" cType="1" res="-1.0841158218681812e-03" rms="4.4295674562454224e-01" purity="3.2659754157066345e-01" nType="-99"/>
          <Node pos="r" depth="2" NCoef="0" IVar="-1" Cut="0.0000000000000000e+00" cType="1" res="4.2516770190559328e-04" rms="4.6539291739463806e-01" purity="5.2922374010086060e-01" nType="-99"/>
        </Node>
        <Node pos="r" depth="1" NCoef="0" IVar="1" Cut="5.8749035644531250e+02" cType="1" res="-3.0935864895582199e-02" rms="4.2740449309349060e-01" purity="7.2732931375503540e-01" nType="0">
          <Node pos="l" depth="2" NCoef="0" IVar="-1" Cut="0.0000000000000000e+00" cType="1" res="-1.7643248429521918e-04" rms="4.2864573001861572e-01" purity="7.2307628393173218e-01" nType="-99"/>
          <Node pos="r" depth="2" NCoef="0" IVar="-1" Cut="0.0000000000000000e+00" cType="1" res="-5.5266986601054668e-03" rms="4.2329609394073486e-01" purity="7.3252809047698975e-01" nType="-99"/>
        </Node>
      </Node>
    </BinaryTree>
    <BinaryTree type="DecisionTree" boostWeight="1.0000000000000000e+00" itree="469">
      <Node pos="s" depth="0" NCoef="0" IVar="9" Cut="1.0321179628372192e+00" cType="1" res="-2.7051506913267076e-04" rms="4.5627564191818237e-01" purity="4.9666807055473328e-01" nType="0">
        <Node pos="l" depth="1" NCoef="0" IVar="0" Cut="4.6267509460449219e+00" cType="1" res="2.1487756166607141e-03" rms="4.5657381415367126e-01" purity="5.0777417421340942e-01" nType="0">
          <Node pos="l" depth="2" NCoef="0" IVar="-1" Cut="0.0000000000000000e+00" cType="1" res="-8.5160987509880215e-05" rms="4.6375980973243713e-01" purity="4.6618601679801941e-01" nType="-99"/>
          <Node pos="r" depth="2" NCoef="0" IVar="-1" Cut="0.0000000000000000e+00" cType="1" res="1.8119727028533816e-03" rms="4.0698066353797913e-01" purity="7.7335709333419800e-01" nType="-99"/>
        </Node>
        <Node pos="r" depth="1" NCoef="0" IVar="-1" Cut="0.0000000000000000e+00" cType="1" res="-2.4159075692296028e-03" rms="4.5027217268943787e-01" purity="3.3117988705635071e-01" nType="-99"/>
      </Node>
    </BinaryTree>
    <BinaryTree type="DecisionTree" boostWeight="1.0000000000000000e+00" itree="470">
      <Node pos="s" depth="0" NCoef="0" IVar="2" Cut="1.4973318481445312e+02" cType="1" res="8.2035139203071594e-03" rms="4.5430356264114380e-01" purity="5.0472772121429443e-01" nType="0">
        <Node pos="l" depth="1" NCoef="0" IVar="0" Cut="4.4999599456787109e+00" cType="1" res="4.6778619289398193e-03" rms="4.5357444882392883e-01" purity="4.9952727556228638e-01" nType="0">
          <Node pos="l" depth="2" NCoef="0" IVar="-1" Cut="0.0000000000000000e+00" cType="1" res="5.6129647418856621e-05" rms="4.6075147390365601e-01" purity="4.5340114831924438e-01" nType="-99"/>
          <Node pos="r" depth="2" NCoef="0" IVar="-1" Cut="0.0000000000000000e+00" cType="1" res="1.9558076746761799e-03" rms="4.0791741013526917e-01" purity="7.7194881439208984e-01" nType="-99"/>
        </Node>
        <Node pos="r" depth="1" NCoef="0" IVar="6" Cut="2.5185110569000244e+00" cType="1" res="2.7027141302824020e-02" rms="4.5771735906600952e-01" purity="5.3249329328536987e-01" nType="0">
          <Node pos="l" depth="2" NCoef="0" IVar="-1" Cut="0.0000000000000000e+00" cType="1" res="3.2443522941321135e-03" rms="4.5356756448745728e-01" purity="6.6999793052673340e-01" nType="-99"/>
          <Node pos="r" depth="2" NCoef="0" IVar="-1" Cut="0.0000000000000000e+00" cType="1" res="-3.5421227948972955e-05" rms="4.6078413724899292e-01" purity="3.7784239649772644e-01" nType="-99"/>
        </Node>
      </Node>
    </BinaryTree>
    <BinaryTree type="DecisionTree" boostWeight="1.0000000000000000e+00" itree="471">
      <Node pos="s" depth="0" NCoef="0" IVar="2" Cut="1.3610508728027344e+02" cType="1" res="3.3629988320171833e-03" rms="4.5598509907722473e-01" purity="5.0515526533126831e-01" nType="0">
        <Node pos="l" depth="1" NCoef="0" IVar="0" Cut="2.6095941066741943e+00" cType="1" res="1.1811025440692902e-02" rms="4.5701333880424500e-01" purity="5.0902295112609863e-01" nType="0">
          <Node pos="l" depth="2" NCoef="0" IVar="-1" Cut="0.0000000000000000e+00" cType="1" res="1.6646453877910972e-03" rms="4.6105307340621948e-01" purity="3.8522633910179138e-01" nType="-99"/>
          <Node pos="r" depth="2" NCoef="0" IVar="-1" Cut="0.0000000000000000e+00" cType="1" res="-2.6015219191322103e-05" rms="4.5317453145980835e-01" purity="6.1480230093002319e-01" nType="-99"/>
        </Node>
        <Node pos="r" depth="1" NCoef="0" IVar="1" Cut="7.3462719726562500e+02" cType="1" res="-2.6751391589641571e-02" rms="4.5101517438888550e-01" purity="4.9136838316917419e-01" nType="0">
          <Node pos="l" depth="2" NCoef="0" IVar="-1" Cut="0.0000000000000000e+00" cType="1" res="-2.7295146137475967e-03" rms="4.4936329126358032e-01" purity="4.3290609121322632e-01" nType="-99"/>
          <Node pos="r" depth="2" NCoef="0" IVar="-1" Cut="0.0000000000000000e+00" cType="1" res="4.0361273568123579e-04" rms="4.5253503322601318e-01" purity="6.0945367813110352e-01" nType="-99"/>
        </Node>
      </Node>
    </BinaryTree>
    <BinaryTree type="DecisionTree" boostWeight="1.0000000000000000e+00" itree="472">
      <Node pos="s" depth="0" NCoef="0" IVar="7" Cut="9.1725898742675781e+01" cType="1" res="1.7602900334168226e-04" rms="4.5607230067253113e-01" purity="4.9989894032478333e-01" nType="0">
        <Node pos="l" depth="1" NCoef="0" IVar="4" Cut="6.1063116788864136e-01" cType="1" res="5.9595750644803047e-03" rms="4.5526760816574097e-01" purity="4.7805044054985046e-01" nType="0">
          <Node pos="l" depth="2" NCoef="0" IVar="-1" Cut="0.0000000000000000e+00" cType="1" res="7.0332462200894952e-04" rms="4.5562323927879333e-01" purity="4.6769517660140991e-01" nType="-99"/>
          <Node pos="r" depth="2" NCoef="0" IVar="-1" Cut="0.0000000000000000e+00" cType="1" res="-1.1729433899745345e-03" rms="4.5275050401687622e-01" purity="5.2714252471923828e-01" nType="-99"/>
        </Node>
        <Node pos="r" depth="1" NCoef="0" IVar="8" Cut="7.7445900440216064e-01" cType="1" res="-2.1441962569952011e-02" rms="4.5842191576957703e-01" purity="5.8156520128250122e-01" nType="0">
          <Node pos="l" depth="2" NCoef="0" IVar="-1" Cut="0.0000000000000000e+00" cType="1" res="-3.4837997518479824e-03" rms="4.5214489102363586e-01" purity="5.6512236595153809e-01" nType="-99"/>
          <Node pos="r" depth="2" NCoef="0" IVar="-1" Cut="0.0000000000000000e+00" cType="1" res="-3.1122632208280265e-04" rms="4.6069890260696411e-01" purity="5.8989554643630981e-01" nType="-99"/>
        </Node>
      </Node>
    </BinaryTree>
    <BinaryTree type="DecisionTree" boostWeight="1.0000000000000000e+00" itree="473">
      <Node pos="s" depth="0" NCoef="0" IVar="3" Cut="-1.5368822962045670e-02" cType="1" res="-1.9143406534567475e-03" rms="4.5544642210006714e-01" purity="4.9627649784088135e-01" nType="0">
        <Node pos="l" depth="1" NCoef="0" IVar="3" Cut="-5.1410008221864700e-02" cType="1" res="-1.4271331951022148e-02" rms="4.5900103449821472e-01" purity="5.3249317407608032e-01" nType="0">
          <Node pos="l" depth="2" NCoef="0" IVar="-1" Cut="0.0000000000000000e+00" cType="1" res="1.0620992397889495e-03" rms="4.5348337292671204e-01" purity="5.7904171943664551e-01" nType="-99"/>
          <Node pos="r" depth="2" NCoef="0" IVar="-1" Cut="0.0000000000000000e+00" cType="1" res="-2.2315946407616138e-03" rms="4.6150970458984375e-01" purity="5.0075584650039673e-01" nType="-99"/>
        </Node>
        <Node pos="r" depth="1" NCoef="0" IVar="6" Cut="2.2277653217315674e+00" cType="1" res="3.4945313818752766e-03" rms="4.5377588272094727e-01" purity="4.8042383790016174e-01" nType="0">
          <Node pos="l" depth="2" NCoef="0" IVar="-1" Cut="0.0000000000000000e+00" cType="1" res="9.6053705783560872e-04" rms="4.6010124683380127e-01" purity="5.5843299627304077e-01" nType="-99"/>
          <Node pos="r" depth="2" NCoef="0" IVar="-1" Cut="0.0000000000000000e+00" cType="1" res="-5.5686524137854576e-04" rms="4.4709059596061707e-01" purity="4.0312793850898743e-01" nType="-99"/>
        </Node>
      </Node>
    </BinaryTree>
    <BinaryTree type="DecisionTree" boostWeight="1.0000000000000000e+00" itree="474">
      <Node pos="s" depth="0" NCoef="0" IVar="3" Cut="1.6010069521144032e-03" cType="1" res="-1.4074657810851932e-03" rms="4.5615139603614807e-01" purity="4.9877628684043884e-01" nType="0">
        <Node pos="l" depth="1" NCoef="0" IVar="3" Cut="-5.3169682621955872e-02" cType="1" res="-1.6356995329260826e-02" rms="4.5772117376327515e-01" purity="5.2665174007415771e-01" nType="0">
          <Node pos="l" depth="2" NCoef="0" IVar="-1" Cut="0.0000000000000000e+00" cType="1" res="6.3688849331811070e-04" rms="4.5911616086959839e-01" purity="5.8157664537429810e-01" nType="-99"/>
          <Node pos="r" depth="2" NCoef="0" IVar="-1" Cut="0.0000000000000000e+00" cType="1" res="-1.7225499032065272e-03" rms="4.5667576789855957e-01" purity="5.0359338521957397e-01" nType="-99"/>
        </Node>
        <Node pos="r" depth="1" NCoef="0" IVar="6" Cut="2.7427105903625488e+00" cType="1" res="8.2671130076050758e-03" rms="4.5487084984779358e-01" purity="4.8073673248291016e-01" nType="0">
          <Node pos="l" depth="2" NCoef="0" IVar="-1" Cut="0.0000000000000000e+00" cType="1" res="8.0507056554779410e-04" rms="4.6154215931892395e-01" purity="5.1416361331939697e-01" nType="-99"/>
          <Node pos="r" depth="2" NCoef="0" IVar="-1" Cut="0.0000000000000000e+00" cType="1" res="-2.0554920192807913e-03" rms="4.0105545520782471e-01" purity="2.3672354221343994e-01" nType="-99"/>
        </Node>
      </Node>
    </BinaryTree>
    <BinaryTree type="DecisionTree" boostWeight="1.0000000000000000e+00" itree="475">
      <Node pos="s" depth="0" NCoef="0" IVar="8" Cut="1.7159856557846069e+00" cType="1" res="1.4699207386001945e-03" rms="4.5497879385948181e-01" purity="5.0239199399948120e-01" nType="0">
        <Node pos="l" depth="1" NCoef="0" IVar="1" Cut="9.2761462402343750e+02" cType="1" res="5.1168352365493774e-03" rms="4.5595821738243103e-01" purity="5.1355689764022827e-01" nType="0">
          <Node pos="l" depth="2" NCoef="0" IVar="-1" Cut="0.0000000000000000e+00" cType="1" res="1.5991558029782027e-04" rms="4.5701086521148682e-01" purity="5.0204777717590332e-01" nType="-99"/>
          <Node pos="r" depth="2" NCoef="0" IVar="-1" Cut="0.0000000000000000e+00" cType="1" res="2.6879005599766970e-03" rms="4.3891674280166626e-01" purity="6.7884647846221924e-01" nType="-99"/>
        </Node>
        <Node pos="r" depth="1" NCoef="0" IVar="-1" Cut="0.0000000000000000e+00" cType="1" res="-2.5331624783575535e-03" rms="4.4204154610633850e-01" purity="3.7925133109092712e-01" nType="-99"/>
      </Node>
    </BinaryTree>
    <BinaryTree type="DecisionTree" boostWeight="1.0000000000000000e+00" itree="476">
      <Node pos="s" depth="0" NCoef="0" IVar="0" Cut="2.8006470203399658e+00" cType="1" res="1.2024716706946492e-03" rms="4.5614707469940186e-01" purity="5.0007534027099609e-01" nType="0">
        <Node pos="l" depth="1" NCoef="0" IVar="6" Cut="1.6796381473541260e+00" cType="1" res="1.1470727622509003e-02" rms="4.5672160387039185e-01" purity="3.8458228111267090e-01" nType="0">
          <Node pos="l" depth="2" NCoef="0" IVar="-1" Cut="0.0000000000000000e+00" cType="1" res="3.3448929898440838e-03" rms="4.6891513466835022e-01" purity="5.3161591291427612e-01" nType="-99"/>
          <Node pos="r" depth="2" NCoef="0" IVar="-1" Cut="0.0000000000000000e+00" cType="1" res="3.3121125306934118e-04" rms="4.5467406511306763e-01" purity="3.6462259292602539e-01" nType="-99"/>
        </Node>
        <Node pos="r" depth="1" NCoef="0" IVar="7" Cut="6.1547523498535156e+01" cType="1" res="-9.4730537384748459e-03" rms="4.5530349016189575e-01" purity="6.2014925479888916e-01" nType="0">
          <Node pos="l" depth="2" NCoef="0" IVar="-1" Cut="0.0000000000000000e+00" cType="1" res="8.7210661149583757e-05" rms="4.6905985474586487e-01" purity="5.4983097314834595e-01" nType="-99"/>
          <Node pos="r" depth="2" NCoef="0" IVar="-1" Cut="0.0000000000000000e+00" cType="1" res="-1.0095806792378426e-03" rms="4.4726485013961792e-01" purity="6.5968775749206543e-01" nType="-99"/>
        </Node>
      </Node>
    </BinaryTree>
    <BinaryTree type="DecisionTree" boostWeight="1.0000000000000000e+00" itree="477">
      <Node pos="s" depth="0" NCoef="0" IVar="9" Cut="4.5159038901329041e-01" cType="1" res="2.3255150299519300e-03" rms="4.5215699076652527e-01" purity="5.0164431333541870e-01" nType="0">
        <Node pos="l" depth="1" NCoef="0" IVar="5" Cut="9.2631822824478149e-01" cType="1" res="1.6956534236669540e-02" rms="4.5189955830574036e-01" purity="5.6089323759078979e-01" nType="0">
          <Node pos="l" depth="2" NCoef="0" IVar="-1" Cut="0.0000000000000000e+00" cType="1" res="-1.1502052657306194e-03" rms="4.4898277521133423e-01" purity="3.3934918045997620e-01" nType="-99"/>
          <Node pos="r" depth="2" NCoef="0" IVar="-1" Cut="0.0000000000000000e+00" cType="1" res="1.4983753208070993e-03" rms="4.5213362574577332e-01" purity="6.0422515869140625e-01" nType="-99"/>
        </Node>
        <Node pos="r" depth="1" NCoef="0" IVar="0" Cut="4.8074464797973633e+00" cType="1" res="-7.6899933628737926e-03" rms="4.5206016302108765e-01" purity="4.6108612418174744e-01" nType="0">
          <Node pos="l" depth="2" NCoef="0" IVar="-1" Cut="0.0000000000000000e+00" cType="1" res="-7.7329983469098806e-04" rms="4.5661351084709167e-01" purity="4.2383518815040588e-01" nType="-99"/>
          <Node pos="r" depth="2" NCoef="0" IVar="-1" Cut="0.0000000000000000e+00" cType="1" res="2.2933576256036758e-03" rms="4.1014617681503296e-01" purity="7.7058184146881104e-01" nType="-99"/>
        </Node>
      </Node>
    </BinaryTree>
    <BinaryTree type="DecisionTree" boostWeight="1.0000000000000000e+00" itree="478">
      <Node pos="s" depth="0" NCoef="0" IVar="1" Cut="5.8317150878906250e+02" cType="1" res="-2.6641502045094967e-03" rms="4.5293834805488586e-01" purity="4.9590662121772766e-01" nType="0">
        <Node pos="l" depth="1" NCoef="0" IVar="5" Cut="9.8770713806152344e-01" cType="1" res="-1.0191841982305050e-02" rms="4.5017635822296143e-01" purity="4.3242895603179932e-01" nType="0">
          <Node pos="l" depth="2" NCoef="0" IVar="-1" Cut="0.0000000000000000e+00" cType="1" res="-8.4794429130852222e-04" rms="4.5292362570762634e-01" purity="4.0341046452522278e-01" nType="-99"/>
          <Node pos="r" depth="2" NCoef="0" IVar="-1" Cut="0.0000000000000000e+00" cType="1" res="1.8158952007070184e-03" rms="4.1785567998886108e-01" purity="7.4415409564971924e-01" nType="-99"/>
        </Node>
        <Node pos="r" depth="1" NCoef="0" IVar="9" Cut="5.3924012184143066e-01" cType="1" res="9.5377014949917793e-03" rms="4.5711666345596313e-01" purity="5.9879940748214722e-01" nType="0">
          <Node pos="l" depth="2" NCoef="0" IVar="-1" Cut="0.0000000000000000e+00" cType="1" res="1.3502105139195919e-03" rms="4.4950702786445618e-01" purity="6.4298170804977417e-01" nType="-99"/>
          <Node pos="r" depth="2" NCoef="0" IVar="-1" Cut="0.0000000000000000e+00" cType="1" res="-3.4930527908727527e-04" rms="4.6609100699424744e-01" purity="5.4307639598846436e-01" nType="-99"/>
        </Node>
      </Node>
    </BinaryTree>
    <BinaryTree type="DecisionTree" boostWeight="1.0000000000000000e+00" itree="479">
      <Node pos="s" depth="0" NCoef="0" IVar="8" Cut="7.8550016880035400e-01" cType="1" res="-8.0272201448678970e-03" rms="4.5519867539405823e-01" purity="4.9123808741569519e-01" nType="0">
        <Node pos="l" depth="1" NCoef="0" IVar="3" Cut="-3.0955802649259567e-02" cType="1" res="1.1042312718927860e-02" rms="4.5371261239051819e-01" purity="5.6447178125381470e-01" nType="0">
          <Node pos="l" depth="2" NCoef="0" IVar="-1" Cut="0.0000000000000000e+00" cType="1" res="-1.8490005750209093e-03" rms="4.5160385966300964e-01" purity="5.8684492111206055e-01" nType="-99"/>
          <Node pos="r" depth="2" NCoef="0" IVar="-1" Cut="0.0000000000000000e+00" cType="1" res="1.3809965457767248e-03" rms="4.5367598533630371e-01" purity="5.5821198225021362e-01" nType="-99"/>
        </Node>
        <Node pos="r" depth="1" NCoef="0" IVar="3" Cut="3.7126265466213226e-02" cType="1" res="-1.4167787507176399e-02" rms="4.5550626516342163e-01" purity="4.6765616536140442e-01" nType="0">
          <Node pos="l" depth="2" NCoef="0" IVar="-1" Cut="0.0000000000000000e+00" cType="1" res="-2.9706381610594690e-04" rms="4.6152213215827942e-01" purity="5.0890791416168213e-01" nType="-99"/>
          <Node pos="r" depth="2" NCoef="0" IVar="-1" Cut="0.0000000000000000e+00" cType="1" res="-1.6585798002779484e-03" rms="4.4758623838424683e-01" purity="4.1603168845176697e-01" nType="-99"/>
        </Node>
      </Node>
    </BinaryTree>
    <BinaryTree type="DecisionTree" boostWeight="1.0000000000000000e+00" itree="480">
      <Node pos="s" depth="0" NCoef="0" IVar="5" Cut="9.8015779256820679e-01" cType="1" res="-1.2556828733067960e-04" rms="4.5542466640472412e-01" purity="4.9797636270523071e-01" nType="0">
        <Node pos="l" depth="1" NCoef="0" IVar="0" Cut="3.8673791885375977e+00" cType="1" res="-3.4395817201584578e-03" rms="4.6173888444900513e-01" purity="4.5580980181694031e-01" nType="0">
          <Node pos="l" depth="2" NCoef="0" IVar="-1" Cut="0.0000000000000000e+00" cType="1" res="1.0897914762608707e-04" rms="4.6235793828964233e-01" purity="4.0985122323036194e-01" nType="-99"/>
          <Node pos="r" depth="2" NCoef="0" IVar="-1" Cut="0.0000000000000000e+00" cType="1" res="-1.4735761797055602e-03" rms="4.5872411131858826e-01" purity="6.3636451959609985e-01" nType="-99"/>
        </Node>
        <Node pos="r" depth="1" NCoef="0" IVar="9" Cut="4.6382859349250793e-01" cType="1" res="1.8618650734424591e-02" rms="4.1742432117462158e-01" purity="7.3647266626358032e-01" nType="0">
          <Node pos="l" depth="2" NCoef="0" IVar="-1" Cut="0.0000000000000000e+00" cType="1" res="3.1983237713575363e-03" rms="3.8866403698921204e-01" purity="7.9452884197235107e-01" nType="-99"/>
          <Node pos="r" depth="2" NCoef="0" IVar="-1" Cut="0.0000000000000000e+00" cType="1" res="-8.2909944467246532e-05" rms="4.3945112824440002e-01" purity="6.8706774711608887e-01" nType="-99"/>
        </Node>
      </Node>
    </BinaryTree>
    <BinaryTree type="DecisionTree" boostWeight="1.0000000000000000e+00" itree="481">
      <Node pos="s" depth="0" NCoef="0" IVar="4" Cut="6.1936897039413452e-01" cType="1" res="1.2070889351889491e-03" rms="4.5543518662452698e-01" purity="5.0311380624771118e-01" nType="0">
        <Node pos="l" depth="1" NCoef="0" IVar="6" Cut="1.9460532665252686e+00" cType="1" res="5.5053294636309147e-03" rms="4.5512503385543823e-01" purity="4.9603927135467529e-01" nType="0">
          <Node pos="l" depth="2" NCoef="0" IVar="-1" Cut="0.0000000000000000e+00" cType="1" res="1.3143033720552921e-03" rms="4.5370191335678101e-01" purity="5.9550064802169800e-01" nType="-99"/>
          <Node pos="r" depth="2" NCoef="0" IVar="-1" Cut="0.0000000000000000e+00" cType="1" res="4.4727697968482971e-05" rms="4.5544561743736267e-01" purity="4.6596729755401611e-01" nType="-99"/>
        </Node>
        <Node pos="r" depth="1" NCoef="0" IVar="3" Cut="-2.5351323187351227e-02" cType="1" res="-2.3704728111624718e-02" rms="4.5643216371536255e-01" purity="5.4411685466766357e-01" nType="0">
          <Node pos="l" depth="2" NCoef="0" IVar="-1" Cut="0.0000000000000000e+00" cType="1" res="-6.3717307057231665e-04" rms="4.5049414038658142e-01" purity="5.7026338577270508e-01" nType="-99"/>
          <Node pos="r" depth="2" NCoef="0" IVar="-1" Cut="0.0000000000000000e+00" cType="1" res="-2.9808066319674253e-03" rms="4.6563225984573364e-01" purity="4.9858188629150391e-01" nType="-99"/>
        </Node>
      </Node>
    </BinaryTree>
    <BinaryTree type="DecisionTree" boostWeight="1.0000000000000000e+00" itree="482">
      <Node pos="s" depth="0" NCoef="0" IVar="4" Cut="5.8548700809478760e-01" cType="1" res="1.1857999925268814e-04" rms="4.5490124821662903e-01" purity="5.0215202569961548e-01" nType="0">
        <Node pos="l" depth="1" NCoef="0" IVar="5" Cut="9.1007179021835327e-01" cType="1" res="-4.3326201848685741e-03" rms="4.5603895187377930e-01" purity="4.8365560173988342e-01" nType="0">
          <Node pos="l" depth="2" NCoef="0" IVar="-1" Cut="0.0000000000000000e+00" cType="1" res="-2.7572829276323318e-03" rms="4.0966835618019104e-01" purity="2.5303086638450623e-01" nType="-99"/>
          <Node pos="r" depth="2" NCoef="0" IVar="-1" Cut="0.0000000000000000e+00" cType="1" res="-9.5328054158017039e-05" rms="4.5924171805381775e-01" purity="5.0113910436630249e-01" nType="-99"/>
        </Node>
        <Node pos="r" depth="1" NCoef="0" IVar="8" Cut="1.0045819282531738e+00" cType="1" res="1.9227903336286545e-02" rms="4.4948381185531616e-01" purity="5.8155870437622070e-01" nType="0">
          <Node pos="l" depth="2" NCoef="0" IVar="-1" Cut="0.0000000000000000e+00" cType="1" res="3.2046420965343714e-03" rms="4.3594881892204285e-01" purity="6.4894038438796997e-01" nType="-99"/>
          <Node pos="r" depth="2" NCoef="0" IVar="-1" Cut="0.0000000000000000e+00" cType="1" res="-2.9997614910826087e-04" rms="4.5809257030487061e-01" purity="5.3010553121566772e-01" nType="-99"/>
        </Node>
      </Node>
    </BinaryTree>
    <BinaryTree type="DecisionTree" boostWeight="1.0000000000000000e+00" itree="483">
      <Node pos="s" depth="0" NCoef="0" IVar="7" Cut="1.3209783935546875e+02" cType="1" res="-2.0842943340539932e-03" rms="4.5533040165901184e-01" purity="4.9547567963600159e-01" nType="0">
        <Node pos="l" depth="1" NCoef="0" IVar="0" Cut="1.0562009811401367e+00" cType="1" res="3.4617635537870228e-04" rms="4.5536664128303528e-01" purity="4.9066150188446045e-01" nType="0">
          <Node pos="l" depth="2" NCoef="0" IVar="-1" Cut="0.0000000000000000e+00" cType="1" res="-2.4048623163253069e-03" rms="4.0689843893051147e-01" purity="2.4227678775787354e-01" nType="-99"/>
          <Node pos="r" depth="2" NCoef="0" IVar="-1" Cut="0.0000000000000000e+00" cType="1" res="2.0267273066565394e-04" rms="4.5943340659141541e-01" purity="5.1338195800781250e-01" nType="-99"/>
        </Node>
        <Node pos="r" depth="1" NCoef="0" IVar="-1" Cut="0.0000000000000000e+00" cType="1" res="-3.1167061533778906e-03" rms="4.5224648714065552e-01" purity="5.8560353517532349e-01" nType="-99"/>
      </Node>
    </BinaryTree>
    <BinaryTree type="DecisionTree" boostWeight="1.0000000000000000e+00" itree="484">
      <Node pos="s" depth="0" NCoef="0" IVar="2" Cut="5.1269557952880859e+01" cType="1" res="-3.1440111342817545e-03" rms="4.5301073789596558e-01" purity="4.9927675724029541e-01" nType="0">
        <Node pos="l" depth="1" NCoef="0" IVar="9" Cut="4.5876288414001465e-01" cType="1" res="-3.6202643066644669e-02" rms="4.5077064633369446e-01" purity="4.4054630398750305e-01" nType="0">
          <Node pos="l" depth="2" NCoef="0" IVar="-1" Cut="0.0000000000000000e+00" cType="1" res="-1.0702406289055943e-03" rms="4.5482385158538818e-01" purity="4.7885537147521973e-01" nType="-99"/>
          <Node pos="r" depth="2" NCoef="0" IVar="-1" Cut="0.0000000000000000e+00" cType="1" res="-3.6977066192775965e-03" rms="4.4459259510040283e-01" purity="3.9293318986892700e-01" nType="-99"/>
        </Node>
        <Node pos="r" depth="1" NCoef="0" IVar="0" Cut="1.2666590213775635e+00" cType="1" res="1.1545894667506218e-03" rms="4.5312404632568359e-01" purity="5.0691342353820801e-01" nType="0">
          <Node pos="l" depth="2" NCoef="0" IVar="-1" Cut="0.0000000000000000e+00" cType="1" res="-1.7622024752199650e-03" rms="4.2364448308944702e-01" purity="2.7165290713310242e-01" nType="-99"/>
          <Node pos="r" depth="2" NCoef="0" IVar="-1" Cut="0.0000000000000000e+00" cType="1" res="2.8360282885842025e-04" rms="4.5687171816825867e-01" purity="5.3886067867279053e-01" nType="-99"/>
        </Node>
      </Node>
    </BinaryTree>
    <BinaryTree type="DecisionTree" boostWeight="1.0000000000000000e+00" itree="485">
      <Node pos="s" depth="0" NCoef="0" IVar="3" Cut="1.6839516162872314e-01" cType="1" res="6.2861442565917969e-03" rms="4.5363390445709229e-01" purity="5.0337022542953491e-01" nType="0">
        <Node pos="l" depth="1" NCoef="0" IVar="3" Cut="1.3727919757366180e-01" cType="1" res="3.4646838903427124e-03" rms="4.5350685715675354e-01" purity="5.0631552934646606e-01" nType="0">
          <Node pos="l" depth="2" NCoef="0" IVar="-1" Cut="0.0000000000000000e+00" cType="1" res="3.8510322337970138e-04" rms="4.5369380712509155e-01" purity="5.1270675659179688e-01" nType="-99"/>
          <Node pos="r" depth="2" NCoef="0" IVar="-1" Cut="0.0000000000000000e+00" cType="1" res="-2.7536314446479082e-03" rms="4.4773444533348083e-01" purity="3.9540293812751770e-01" nType="-99"/>
        </Node>
        <Node pos="r" depth="1" NCoef="0" IVar="-1" Cut="0.0000000000000000e+00" cType="1" res="2.7496186085045338e-03" rms="4.5370379090309143e-01" purity="4.6549335122108459e-01" nType="-99"/>
      </Node>
    </BinaryTree>
    <BinaryTree type="DecisionTree" boostWeight="1.0000000000000000e+00" itree="486">
      <Node pos="s" depth="0" NCoef="0" IVar="4" Cut="6.3416200876235962e-01" cType="1" res="-2.8884735002066009e-05" rms="4.5355933904647827e-01" purity="5.0163215398788452e-01" nType="0">
        <Node pos="l" depth="1" NCoef="0" IVar="5" Cut="9.6028155088424683e-01" cType="1" res="-2.7259758207947016e-03" rms="4.5443433523178101e-01" purity="4.9059313535690308e-01" nType="0">
          <Node pos="l" depth="2" NCoef="0" IVar="-1" Cut="0.0000000000000000e+00" cType="1" res="2.6962402625940740e-04" rms="4.5587390661239624e-01" purity="4.1075560450553894e-01" nType="-99"/>
          <Node pos="r" depth="2" NCoef="0" IVar="-1" Cut="0.0000000000000000e+00" cType="1" res="-9.3328638467937708e-04" rms="4.5184192061424255e-01" purity="6.2050771713256836e-01" nType="-99"/>
        </Node>
        <Node pos="r" depth="1" NCoef="0" IVar="9" Cut="5.0031715631484985e-01" cType="1" res="1.8833100795745850e-02" rms="4.4693759083747864e-01" purity="5.7883292436599731e-01" nType="0">
          <Node pos="l" depth="2" NCoef="0" IVar="-1" Cut="0.0000000000000000e+00" cType="1" res="2.1825355943292379e-03" rms="4.4648677110671997e-01" purity="6.0928124189376831e-01" nType="-99"/>
          <Node pos="r" depth="2" NCoef="0" IVar="-1" Cut="0.0000000000000000e+00" cType="1" res="-8.8850036263465881e-05" rms="4.4672521948814392e-01" purity="5.3862571716308594e-01" nType="-99"/>
        </Node>
      </Node>
    </BinaryTree>
    <BinaryTree type="DecisionTree" boostWeight="1.0000000000000000e+00" itree="487">
      <Node pos="s" depth="0" NCoef="0" IVar="0" Cut="4.3608136177062988e+00" cType="1" res="-6.2293759547173977e-03" rms="4.5332169532775879e-01" purity="4.9460682272911072e-01" nType="0">
        <Node pos="l" depth="1" NCoef="0" IVar="5" Cut="9.5730757713317871e-01" cType="1" res="-1.0988799855113029e-02" rms="4.6076565980911255e-01" purity="4.4332465529441833e-01" nType="0">
          <Node pos="l" depth="2" NCoef="0" IVar="-1" Cut="0.0000000000000000e+00" cType="1" res="-3.1373937963508070e-04" rms="4.5651009678840637e-01" purity="3.8088703155517578e-01" nType="-99"/>
          <Node pos="r" depth="2" NCoef="0" IVar="-1" Cut="0.0000000000000000e+00" cType="1" res="-1.3026717351749539e-03" rms="4.6792227029800415e-01" purity="5.5227810144424438e-01" nType="-99"/>
        </Node>
        <Node pos="r" depth="1" NCoef="0" IVar="1" Cut="6.3936370849609375e+02" cType="1" res="1.7208740115165710e-02" rms="4.1392126679420471e-01" purity="7.4714922904968262e-01" nType="0">
          <Node pos="l" depth="2" NCoef="0" IVar="-1" Cut="0.0000000000000000e+00" cType="1" res="2.1082160528749228e-03" rms="4.1504082083702087e-01" purity="7.3700684309005737e-01" nType="-99"/>
          <Node pos="r" depth="2" NCoef="0" IVar="-1" Cut="0.0000000000000000e+00" cType="1" res="-9.5362233696505427e-04" rms="4.1005921363830566e-01" purity="7.6806211471557617e-01" nType="-99"/>
        </Node>
      </Node>
    </BinaryTree>
    <BinaryTree type="DecisionTree" boostWeight="1.0000000000000000e+00" itree="488">
      <Node pos="s" depth="0" NCoef="0" IVar="9" Cut="9.0001457929611206e-01" cType="1" res="6.0878642834722996e-03" rms="4.5510685443878174e-01" purity="5.0388437509536743e-01" nType="0">
        <Node pos="l" depth="1" NCoef="0" IVar="5" Cut="9.8381400108337402e-01" cType="1" res="9.8915370181202888e-03" rms="4.5508947968482971e-01" purity="5.2428996562957764e-01" nType="0">
          <Node pos="l" depth="2" NCoef="0" IVar="-1" Cut="0.0000000000000000e+00" cType="1" res="3.9964119787327945e-04" rms="4.6324604749679565e-01" purity="4.8845186829566956e-01" nType="-99"/>
          <Node pos="r" depth="2" NCoef="0" IVar="-1" Cut="0.0000000000000000e+00" cType="1" res="2.6187228504568338e-03" rms="3.8877701759338379e-01" purity="7.8877317905426025e-01" nType="-99"/>
        </Node>
        <Node pos="r" depth="1" NCoef="0" IVar="3" Cut="7.2925120592117310e-02" cType="1" res="-1.7755502834916115e-02" rms="4.5449104905128479e-01" purity="3.7597146630287170e-01" nType="0">
          <Node pos="l" depth="2" NCoef="0" IVar="-1" Cut="0.0000000000000000e+00" cType="1" res="-2.5212424807250500e-03" rms="4.5933020114898682e-01" purity="3.7407499551773071e-01" nType="-99"/>
          <Node pos="r" depth="2" NCoef="0" IVar="-1" Cut="0.0000000000000000e+00" cType="1" res="1.2193854199722409e-03" rms="4.4388717412948608e-01" purity="3.7916356325149536e-01" nType="-99"/>
        </Node>
      </Node>
    </BinaryTree>
    <BinaryTree type="DecisionTree" boostWeight="1.0000000000000000e+00" itree="489">
      <Node pos="s" depth="0" NCoef="0" IVar="5" Cut="9.2609429359436035e-01" cType="1" res="2.0823040977120399e-03" rms="4.5390039682388306e-01" purity="5.0194448232650757e-01" nType="0">
        <Node pos="l" depth="1" NCoef="0" IVar="6" Cut="2.1947176456451416e+00" cType="1" res="-1.8390124663710594e-02" rms="4.3960082530975342e-01" purity="3.0074164271354675e-01" nType="0">
          <Node pos="l" depth="2" NCoef="0" IVar="-1" Cut="0.0000000000000000e+00" cType="1" res="-2.9323643539100885e-03" rms="4.5344299077987671e-01" purity="3.2609423995018005e-01" nType="-99"/>
          <Node pos="r" depth="2" NCoef="0" IVar="-1" Cut="0.0000000000000000e+00" cType="1" res="6.2724517192691565e-04" rms="4.2533040046691895e-01" purity="2.7867972850799561e-01" nType="-99"/>
        </Node>
        <Node pos="r" depth="1" NCoef="0" IVar="6" Cut="2.2364692687988281e+00" cType="1" res="6.4509734511375427e-03" rms="4.5677512884140015e-01" purity="5.4487979412078857e-01" nType="0">
          <Node pos="l" depth="2" NCoef="0" IVar="-1" Cut="0.0000000000000000e+00" cType="1" res="1.1309478431940079e-03" rms="4.5472493767738342e-01" purity="6.1513030529022217e-01" nType="-99"/>
          <Node pos="r" depth="2" NCoef="0" IVar="-1" Cut="0.0000000000000000e+00" cType="1" res="-4.9073196714743972e-04" rms="4.5887362957000732e-01" purity="4.5866909623146057e-01" nType="-99"/>
        </Node>
      </Node>
    </BinaryTree>
    <BinaryTree type="DecisionTree" boostWeight="1.0000000000000000e+00" itree="490">
      <Node pos="s" depth="0" NCoef="0" IVar="3" Cut="1.7403870820999146e-01" cType="1" res="-1.2834568042308092e-03" rms="4.5584616065025330e-01" purity="4.9903413653373718e-01" nType="0">
        <Node pos="l" depth="1" NCoef="0" IVar="7" Cut="8.1092727661132812e+01" cType="1" res="-4.6073035337030888e-03" rms="4.5647677779197693e-01" purity="5.0154942274093628e-01" nType="0">
          <Node pos="l" depth="2" NCoef="0" IVar="-1" Cut="0.0000000000000000e+00" cType="1" res="1.6268878243863583e-04" rms="4.5502197742462158e-01" purity="4.6759429574012756e-01" nType="-99"/>
          <Node pos="r" depth="2" NCoef="0" IVar="-1" Cut="0.0000000000000000e+00" cType="1" res="-1.3161936076357961e-03" rms="4.5935711264610291e-01" purity="5.7903248071670532e-01" nType="-99"/>
        </Node>
        <Node pos="r" depth="1" NCoef="0" IVar="-1" Cut="0.0000000000000000e+00" cType="1" res="2.7585162315517664e-03" rms="4.4490060210227966e-01" purity="4.6527740359306335e-01" nType="-99"/>
      </Node>
    </BinaryTree>
    <BinaryTree type="DecisionTree" boostWeight="1.0000000000000000e+00" itree="491">
      <Node pos="s" depth="0" NCoef="0" IVar="1" Cut="6.8737640380859375e+02" cType="1" res="4.6983044594526291e-03" rms="4.5071172714233398e-01" purity="5.0280529260635376e-01" nType="0">
        <Node pos="l" depth="1" NCoef="0" IVar="0" Cut="4.9348554611206055e+00" cType="1" res="-1.4931538607925177e-03" rms="4.5103019475936890e-01" purity="4.6750572323799133e-01" nType="0">
          <Node pos="l" depth="2" NCoef="0" IVar="-1" Cut="0.0000000000000000e+00" cType="1" res="-3.6085347528569400e-04" rms="4.5665854215621948e-01" purity="4.3461853265762329e-01" nType="-99"/>
          <Node pos="r" depth="2" NCoef="0" IVar="-1" Cut="0.0000000000000000e+00" cType="1" res="3.1135415192693472e-03" rms="3.8734221458435059e-01" purity="7.9776138067245483e-01" nType="-99"/>
        </Node>
        <Node pos="r" depth="1" NCoef="0" IVar="9" Cut="4.0183159708976746e-01" cType="1" res="2.6921672746539116e-02" rms="4.4886386394500732e-01" purity="6.2950825691223145e-01" nType="0">
          <Node pos="l" depth="2" NCoef="0" IVar="-1" Cut="0.0000000000000000e+00" cType="1" res="3.1553856097161770e-03" rms="4.2958280444145203e-01" purity="6.8882560729980469e-01" nType="-99"/>
          <Node pos="r" depth="2" NCoef="0" IVar="-1" Cut="0.0000000000000000e+00" cType="1" res="7.6876836828887463e-04" rms="4.6026265621185303e-01" purity="5.9130436182022095e-01" nType="-99"/>
        </Node>
      </Node>
    </BinaryTree>
    <BinaryTree type="DecisionTree" boostWeight="1.0000000000000000e+00" itree="492">
      <Node pos="s" depth="0" NCoef="0" IVar="4" Cut="2.8725755214691162e-01" cType="1" res="4.2877122759819031e-03" rms="4.5365491509437561e-01" purity="5.0205063819885254e-01" nType="0">
        <Node pos="l" depth="1" NCoef="0" IVar="3" Cut="6.0288254171609879e-02" cType="1" res="-9.4417342916131020e-03" rms="4.5028328895568848e-01" purity="4.2978525161743164e-01" nType="0">
          <Node pos="l" depth="2" NCoef="0" IVar="-1" Cut="0.0000000000000000e+00" cType="1" res="-1.8669654382392764e-03" rms="4.5465788245201111e-01" purity="4.2493787407875061e-01" nType="-99"/>
          <Node pos="r" depth="2" NCoef="0" IVar="-1" Cut="0.0000000000000000e+00" cType="1" res="4.3827258195960894e-05" rms="4.4771158695220947e-01" purity="4.3223965167999268e-01" nType="-99"/>
        </Node>
        <Node pos="r" depth="1" NCoef="0" IVar="1" Cut="3.6786959838867188e+02" cType="1" res="1.1009404435753822e-02" rms="4.5514553785324097e-01" purity="5.3743052482604980e-01" nType="0">
          <Node pos="l" depth="2" NCoef="0" IVar="-1" Cut="0.0000000000000000e+00" cType="1" res="-1.8801302649080753e-03" rms="4.2660844326019287e-01" purity="2.9960605502128601e-01" nType="-99"/>
          <Node pos="r" depth="2" NCoef="0" IVar="-1" Cut="0.0000000000000000e+00" cType="1" res="8.8179367594420910e-04" rms="4.5735278725624084e-01" purity="5.5773341655731201e-01" nType="-99"/>
        </Node>
      </Node>
    </BinaryTree>
    <BinaryTree type="DecisionTree" boostWeight="1.0000000000000000e+00" itree="493">
      <Node pos="s" depth="0" NCoef="0" IVar="5" Cut="9.9147021770477295e-01" cType="1" res="1.3622089754790068e-03" rms="4.5439618825912476e-01" purity="5.0285971164703369e-01" nType="0">
        <Node pos="l" depth="1" NCoef="0" IVar="8" Cut="1.4484850168228149e+00" cType="1" res="-6.6141568822786212e-04" rms="4.5793455839157104e-01" purity="4.8608487844467163e-01" nType="0">
          <Node pos="l" depth="2" NCoef="0" IVar="-1" Cut="0.0000000000000000e+00" cType="1" res="-3.1975776073522866e-04" rms="4.5908397436141968e-01" purity="4.9764594435691833e-01" nType="-99"/>
          <Node pos="r" depth="2" NCoef="0" IVar="-1" Cut="0.0000000000000000e+00" cType="1" res="1.1212183162570000e-03" rms="4.5281973481178284e-01" purity="4.3945646286010742e-01" nType="-99"/>
        </Node>
        <Node pos="r" depth="1" NCoef="0" IVar="-1" Cut="0.0000000000000000e+00" cType="1" res="2.8307943139225245e-03" rms="3.8458091020584106e-01" purity="8.0016726255416870e-01" nType="-99"/>
      </Node>
    </BinaryTree>
    <BinaryTree type="DecisionTree" boostWeight="1.0000000000000000e+00" itree="494">
      <Node pos="s" depth="0" NCoef="0" IVar="6" Cut="2.8847210407257080e+00" cType="1" res="2.9949750751256943e-03" rms="4.5519518852233887e-01" purity="5.0558412075042725e-01" nType="0">
        <Node pos="l" depth="1" NCoef="0" IVar="3" Cut="1.6736404597759247e-01" cType="1" res="5.1965476013720036e-03" rms="4.5785427093505859e-01" purity="5.2231276035308838e-01" nType="0">
          <Node pos="l" depth="2" NCoef="0" IVar="-1" Cut="0.0000000000000000e+00" cType="1" res="2.0668774959631264e-04" rms="4.5837694406509399e-01" purity="5.2387744188308716e-01" nType="-99"/>
          <Node pos="r" depth="2" NCoef="0" IVar="-1" Cut="0.0000000000000000e+00" cType="1" res="2.0356513559818268e-03" rms="4.4912531971931458e-01" purity="4.9911808967590332e-01" nType="-99"/>
        </Node>
        <Node pos="r" depth="1" NCoef="0" IVar="-1" Cut="0.0000000000000000e+00" cType="1" res="-2.7570144739001989e-03" rms="4.0423232316970825e-01" purity="2.1449132263660431e-01" nType="-99"/>
      </Node>
    </BinaryTree>
    <BinaryTree type="DecisionTree" boostWeight="1.0000000000000000e+00" itree="495">
      <Node pos="s" depth="0" NCoef="0" IVar="5" Cut="9.8383677005767822e-01" cType="1" res="2.9059483204036951e-03" rms="4.5311006903648376e-01" purity="5.0180995464324951e-01" nType="0">
        <Node pos="l" depth="1" NCoef="0" IVar="5" Cut="9.6677410602569580e-01" cType="1" res="-7.4070348637178540e-04" rms="4.5998588204383850e-01" purity="4.6557322144508362e-01" nType="0">
          <Node pos="l" depth="2" NCoef="0" IVar="-1" Cut="0.0000000000000000e+00" cType="1" res="3.6225281655788422e-04" rms="4.5906147360801697e-01" purity="4.3116042017936707e-01" nType="-99"/>
          <Node pos="r" depth="2" NCoef="0" IVar="-1" Cut="0.0000000000000000e+00" cType="1" res="-1.6063883667811751e-03" rms="4.6256679296493530e-01" purity="5.9323632717132568e-01" nType="-99"/>
        </Node>
        <Node pos="r" depth="1" NCoef="0" IVar="5" Cut="9.9128007888793945e-01" cType="1" res="3.0292812734842300e-02" rms="3.9662081003189087e-01" purity="7.7395290136337280e-01" nType="0">
          <Node pos="l" depth="2" NCoef="0" IVar="-1" Cut="0.0000000000000000e+00" cType="1" res="7.8662252053618431e-04" rms="4.1990765929222107e-01" purity="7.3590070009231567e-01" nType="-99"/>
          <Node pos="r" depth="2" NCoef="0" IVar="-1" Cut="0.0000000000000000e+00" cType="1" res="4.0526208467781544e-03" rms="3.6633685231208801e-01" purity="8.1824457645416260e-01" nType="-99"/>
        </Node>
      </Node>
    </BinaryTree>
    <BinaryTree type="DecisionTree" boostWeight="1.0000000000000000e+00" itree="496">
      <Node pos="s" depth="0" NCoef="0" IVar="2" Cut="9.7439498901367188e+01" cType="1" res="-1.9909990951418877e-03" rms="4.5512366294860840e-01" purity="4.9735912680625916e-01" nType="0">
        <Node pos="l" depth="1" NCoef="0" IVar="2" Cut="4.0595718383789062e+01" cType="1" res="-1.3229754753410816e-02" rms="4.5731484889984131e-01" purity="4.6437102556228638e-01" nType="0">
          <Node pos="l" depth="2" NCoef="0" IVar="-1" Cut="0.0000000000000000e+00" cType="1" res="-4.1531138122081757e-03" rms="4.3500608205795288e-01" purity="3.9328810572624207e-01" nType="-99"/>
          <Node pos="r" depth="2" NCoef="0" IVar="-1" Cut="0.0000000000000000e+00" cType="1" res="-4.3807449401356280e-04" rms="4.5941212773323059e-01" purity="4.7255876660346985e-01" nType="-99"/>
        </Node>
        <Node pos="r" depth="1" NCoef="0" IVar="6" Cut="2.7766613960266113e+00" cType="1" res="8.7147578597068787e-03" rms="4.5276716351509094e-01" purity="5.2878266572952271e-01" nType="0">
          <Node pos="l" depth="2" NCoef="0" IVar="-1" Cut="0.0000000000000000e+00" cType="1" res="8.7338860612362623e-04" rms="4.5706292986869812e-01" purity="5.6851530075073242e-01" nType="-99"/>
          <Node pos="r" depth="2" NCoef="0" IVar="-1" Cut="0.0000000000000000e+00" cType="1" res="-2.0080530084669590e-03" rms="4.1994976997375488e-01" purity="2.5324615836143494e-01" nType="-99"/>
        </Node>
      </Node>
    </BinaryTree>
    <BinaryTree type="DecisionTree" boostWeight="1.0000000000000000e+00" itree="497">
      <Node pos="s" depth="0" NCoef="0" IVar="5" Cut="9.0686917304992676e-01" cType="1" res="-1.8926398479379714e-04" rms="4.5301908254623413e-01" purity="4.9807810783386230e-01" nType="0">
        <Node pos="l" depth="1" NCoef="0" IVar="-1" Cut="0.0000000000000000e+00" cType="1" res="-2.4437876418232918e-03" rms="4.2067068815231323e-01" purity="2.5881341099739075e-01" nType="-99"/>
        <Node pos="r" depth="1" NCoef="0" IVar="5" Cut="9.8916023969650269e-01" cType="1" res="1.7888956936076283e-03" rms="4.5464715361595154e-01" purity="5.1122432947158813e-01" nType="0">
          <Node pos="l" depth="2" NCoef="0" IVar="-1" Cut="0.0000000000000000e+00" cType="1" res="-4.4144231651443988e-05" rms="4.5993098616600037e-01" purity="4.8878589272499084e-01" nType="-99"/>
          <Node pos="r" depth="2" NCoef="0" IVar="-1" Cut="0.0000000000000000e+00" cType="1" res="2.6683318428695202e-03" rms="3.7864035367965698e-01" purity="8.0011481046676636e-01" nType="-99"/>
        </Node>
      </Node>
    </BinaryTree>
    <BinaryTree type="DecisionTree" boostWeight="1.0000000000000000e+00" itree="498">
      <Node pos="s" depth="0" NCoef="0" IVar="7" Cut="4.1631557464599609e+01" cType="1" res="-5.7457834482192993e-03" rms="4.5486238598823547e-01" purity="4.9630278348922729e-01" nType="0">
        <Node pos="l" depth="1" NCoef="0" IVar="-1" Cut="0.0000000000000000e+00" cType="1" res="-3.2731031533330679e-03" rms="4.3165427446365356e-01" purity="2.8228479623794556e-01" nType="-99"/>
        <Node pos="r" depth="1" NCoef="0" IVar="4" Cut="1.5895268321037292e-01" cType="1" res="-3.3637059386819601e-03" rms="4.5604032278060913e-01" purity="5.0855427980422974e-01" nType="0">
          <Node pos="l" depth="2" NCoef="0" IVar="-1" Cut="0.0000000000000000e+00" cType="1" res="-2.0642455201596022e-03" rms="4.4632849097251892e-01" purity="3.7705186009407043e-01" nType="-99"/>
          <Node pos="r" depth="2" NCoef="0" IVar="-1" Cut="0.0000000000000000e+00" cType="1" res="1.7911639588419348e-05" rms="4.5713624358177185e-01" purity="5.2533721923828125e-01" nType="-99"/>
        </Node>
      </Node>
    </BinaryTree>
    <BinaryTree type="DecisionTree" boostWeight="1.0000000000000000e+00" itree="499">
      <Node pos="s" depth="0" NCoef="0" IVar="9" Cut="3.4605157375335693e-01" cType="1" res="-6.5383822657167912e-03" rms="4.5826464891433716e-01" purity="4.9570769071578979e-01" nType="0">
        <Node pos="l" depth="1" NCoef="0" IVar="6" Cut="2.2546355724334717e+00" cType="1" res="1.0857230983674526e-02" rms="4.5119729638099670e-01" purity="5.6107115745544434e-01" nType="0">
          <Node pos="l" depth="2" NCoef="0" IVar="-1" Cut="0.0000000000000000e+00" cType="1" res="1.3434127904474735e-03" rms="4.5129311084747314e-01" purity="5.9445148706436157e-01" nType="-99"/>
          <Node pos="r" depth="2" NCoef="0" IVar="-1" Cut="0.0000000000000000e+00" cType="1" res="-1.7892292235046625e-03" rms="4.4869601726531982e-01" purity="4.4104781746864319e-01" nType="-99"/>
        </Node>
        <Node pos="r" depth="1" NCoef="0" IVar="7" Cut="7.9121955871582031e+01" cType="1" res="-1.2731265276670456e-02" rms="4.6059590578079224e-01" purity="4.7243818640708923e-01" nType="0">
          <Node pos="l" depth="2" NCoef="0" IVar="-1" Cut="0.0000000000000000e+00" cType="1" res="-1.2490045628510416e-04" rms="4.5695805549621582e-01" purity="4.4006416201591492e-01" nType="-99"/>
          <Node pos="r" depth="2" NCoef="0" IVar="-1" Cut="0.0000000000000000e+00" cType="1" res="-2.2199295926839113e-03" rms="4.6736606955528259e-01" purity="5.4072189331054688e-01" nType="-99"/>
        </Node>
      </Node>
    </BinaryTree>
    <BinaryTree type="DecisionTree" boostWeight="1.0000000000000000e+00" itree="500">
      <Node pos="s" depth="0" NCoef="0" IVar="7" Cut="1.3060339355468750e+02" cType="1" res="1.6096954932436347e-03" rms="4.5406916737556458e-01" purity="4.9984467029571533e-01" nType="0">
        <Node pos="l" depth="1" NCoef="0" IVar="9" Cut="3.0258551239967346e-01" cType="1" res="4.2055468074977398e-03" rms="4.5338952541351318e-01" purity="4.9523225426673889e-01" nType="0">
          <Node pos="l" depth="2" NCoef="0" IVar="-1" Cut="0.0000000000000000e+00" cType="1" res="-1.1757743777707219e-03" rms="4.5280820131301880e-01" purity="5.2512365579605103e-01" nType="-99"/>
          <Node pos="r" depth="2" NCoef="0" IVar="-1" Cut="0.0000000000000000e+00" cType="1" res="6.5402872860431671e-04" rms="4.5334440469741821e-01" purity="4.8726984858512878e-01" nType="-99"/>
        </Node>
        <Node pos="r" depth="1" NCoef="0" IVar="-1" Cut="0.0000000000000000e+00" cType="1" res="-2.9364163056015968e-03" rms="4.6368348598480225e-01" purity="5.8320522308349609e-01" nType="-99"/>
      </Node>
    </BinaryTree>
    <BinaryTree type="DecisionTree" boostWeight="1.0000000000000000e+00" itree="501">
      <Node pos="s" depth="0" NCoef="0" IVar="8" Cut="1.6874881982803345e+00" cType="1" res="3.3696005120873451e-03" rms="4.5477718114852905e-01" purity="5.0136327743530273e-01" nType="0">
        <Node pos="l" depth="1" NCoef="0" IVar="9" Cut="1.0332775115966797e+00" cType="1" res="1.5991649706847966e-04" rms="4.5523974299430847e-01" purity="5.0614207983016968e-01" nType="0">
          <Node pos="l" depth="2" NCoef="0" IVar="-1" Cut="0.0000000000000000e+00" cType="1" res="1.8271201406605542e-04" rms="4.5615220069885254e-01" purity="5.1730102300643921e-01" nType="-99"/>
          <Node pos="r" depth="2" NCoef="0" IVar="-1" Cut="0.0000000000000000e+00" cType="1" res="-2.7136062271893024e-03" rms="4.3939566612243652e-01" purity="3.4018528461456299e-01" nType="-99"/>
        </Node>
        <Node pos="r" depth="1" NCoef="0" IVar="-1" Cut="0.0000000000000000e+00" cType="1" res="2.1410598419606686e-03" rms="4.4938454031944275e-01" purity="4.5711827278137207e-01" nType="-99"/>
      </Node>
    </BinaryTree>
    <BinaryTree type="DecisionTree" boostWeight="1.0000000000000000e+00" itree="502">
      <Node pos="s" depth="0" NCoef="0" IVar="9" Cut="7.9375821352005005e-01" cType="1" res="8.3824223838746548e-04" rms="4.5345756411552429e-01" purity="5.0041019916534424e-01" nType="0">
        <Node pos="l" depth="1" NCoef="0" IVar="5" Cut="9.2214274406433105e-01" cType="1" res="5.9170401655137539e-03" rms="4.5310518145561218e-01" purity="5.2780240774154663e-01" nType="0">
          <Node pos="l" depth="2" NCoef="0" IVar="-1" Cut="0.0000000000000000e+00" cType="1" res="-1.0223087156191468e-03" rms="4.4441038370132446e-01" purity="3.1472343206405640e-01" nType="-99"/>
          <Node pos="r" depth="2" NCoef="0" IVar="-1" Cut="0.0000000000000000e+00" cType="1" res="5.8567390078678727e-04" rms="4.5435920357704163e-01" purity="5.6127375364303589e-01" nType="-99"/>
        </Node>
        <Node pos="r" depth="1" NCoef="0" IVar="6" Cut="2.4366328716278076e+00" cType="1" res="-1.8498420715332031e-02" rms="4.5427739620208740e-01" purity="3.9611899852752686e-01" nType="0">
          <Node pos="l" depth="2" NCoef="0" IVar="-1" Cut="0.0000000000000000e+00" cType="1" res="-2.9799041803926229e-03" rms="4.6021971106529236e-01" purity="4.3538275361061096e-01" nType="-99"/>
          <Node pos="r" depth="2" NCoef="0" IVar="-1" Cut="0.0000000000000000e+00" cType="1" res="7.4265437433496118e-04" rms="4.4635662436485291e-01" purity="3.5716325044631958e-01" nType="-99"/>
        </Node>
      </Node>
    </BinaryTree>
    <BinaryTree type="DecisionTree" boostWeight="1.0000000000000000e+00" itree="503">
      <Node pos="s" depth="0" NCoef="0" IVar="1" Cut="9.1966912841796875e+02" cType="1" res="1.8157074227929115e-03" rms="4.5296031236648560e-01" purity="5.0396531820297241e-01" nType="0">
        <Node pos="l" depth="1" NCoef="0" IVar="0" Cut="1.2256093025207520e+00" cType="1" res="-1.4919759705662727e-03" rms="4.5416629314422607e-01" purity="4.9147820472717285e-01" nType="0">
          <Node pos="l" depth="2" NCoef="0" IVar="-1" Cut="0.0000000000000000e+00" cType="1" res="-2.3211732041090727e-03" rms="4.1462147235870361e-01" purity="2.5250393152236938e-01" nType="-99"/>
          <Node pos="r" depth="2" NCoef="0" IVar="-1" Cut="0.0000000000000000e+00" cType="1" res="1.4842741074971855e-04" rms="4.5892074704170227e-01" purity="5.2259278297424316e-01" nType="-99"/>
        </Node>
        <Node pos="r" depth="1" NCoef="0" IVar="-1" Cut="0.0000000000000000e+00" cType="1" res="3.0574665870517492e-03" rms="4.3337246775627136e-01" purity="6.7655158042907715e-01" nType="-99"/>
      </Node>
    </BinaryTree>
    <BinaryTree type="DecisionTree" boostWeight="1.0000000000000000e+00" itree="504">
      <Node pos="s" depth="0" NCoef="0" IVar="0" Cut="1.7954386472702026e+00" cType="1" res="-3.7504045758396387e-03" rms="4.5639336109161377e-01" purity="4.9643421173095703e-01" nType="0">
        <Node pos="l" depth="1" NCoef="0" IVar="3" Cut="1.0263306647539139e-01" cType="1" res="1.1956413276493549e-02" rms="4.5074856281280518e-01" purity="3.2748681306838989e-01" nType="0">
          <Node pos="l" depth="2" NCoef="0" IVar="-1" Cut="0.0000000000000000e+00" cType="1" res="1.2941941386088729e-03" rms="4.6083584427833557e-01" purity="3.4684419631958008e-01" nType="-99"/>
          <Node pos="r" depth="2" NCoef="0" IVar="-1" Cut="0.0000000000000000e+00" cType="1" res="-1.2607605895027518e-03" rms="4.0858408808708191e-01" purity="2.5339052081108093e-01" nType="-99"/>
        </Node>
        <Node pos="r" depth="1" NCoef="0" IVar="3" Cut="1.0241007059812546e-01" cType="1" res="-8.8447891175746918e-03" rms="4.5809361338615417e-01" purity="5.5123102664947510e-01" nType="0">
          <Node pos="l" depth="2" NCoef="0" IVar="-1" Cut="0.0000000000000000e+00" cType="1" res="-8.7623501894995570e-04" rms="4.5842063426971436e-01" purity="5.6470209360122681e-01" nType="-99"/>
          <Node pos="r" depth="2" NCoef="0" IVar="-1" Cut="0.0000000000000000e+00" cType="1" res="7.9534831456840038e-04" rms="4.5613402128219604e-01" purity="4.9733826518058777e-01" nType="-99"/>
        </Node>
      </Node>
    </BinaryTree>
    <BinaryTree type="DecisionTree" boostWeight="1.0000000000000000e+00" itree="505">
      <Node pos="s" depth="0" NCoef="0" IVar="5" Cut="9.9097973108291626e-01" cType="1" res="2.6538935489952564e-03" rms="4.5464366674423218e-01" purity="5.0420093536376953e-01" nType="0">
        <Node pos="l" depth="1" NCoef="0" IVar="2" Cut="1.1392433929443359e+02" cType="1" res="5.6231988128274679e-04" rms="4.5897954702377319e-01" purity="4.8683634400367737e-01" nType="0">
          <Node pos="l" depth="2" NCoef="0" IVar="-1" Cut="0.0000000000000000e+00" cType="1" res="-4.5938062248751521e-04" rms="4.6208241581916809e-01" purity="4.6563336253166199e-01" nType="-99"/>
          <Node pos="r" depth="2" NCoef="0" IVar="-1" Cut="0.0000000000000000e+00" cType="1" res="8.9114677393808961e-04" rms="4.5338112115859985e-01" purity="5.2255964279174805e-01" nType="-99"/>
        </Node>
        <Node pos="r" depth="1" NCoef="0" IVar="-1" Cut="0.0000000000000000e+00" cType="1" res="3.0553352553397417e-03" rms="3.6881163716316223e-01" purity="8.0782282352447510e-01" nType="-99"/>
      </Node>
    </BinaryTree>
    <BinaryTree type="DecisionTree" boostWeight="1.0000000000000000e+00" itree="506">
      <Node pos="s" depth="0" NCoef="0" IVar="8" Cut="1.1242109537124634e+00" cType="1" res="-4.9386881291866302e-03" rms="4.5197370648384094e-01" purity="4.9536517262458801e-01" nType="0">
        <Node pos="l" depth="1" NCoef="0" IVar="0" Cut="4.0555353164672852e+00" cType="1" res="3.7433849647641182e-03" rms="4.5438116788864136e-01" purity="5.3896361589431763e-01" nType="0">
          <Node pos="l" depth="2" NCoef="0" IVar="-1" Cut="0.0000000000000000e+00" cType="1" res="-1.6832433175295591e-04" rms="4.6755900979042053e-01" purity="4.6956408023834229e-01" nType="-99"/>
          <Node pos="r" depth="2" NCoef="0" IVar="-1" Cut="0.0000000000000000e+00" cType="1" res="1.7752042040228844e-03" rms="4.0816083550453186e-01" purity="7.6335519552230835e-01" nType="-99"/>
        </Node>
        <Node pos="r" depth="1" NCoef="0" IVar="3" Cut="-1.8940761685371399e-02" cType="1" res="-1.6063896939158440e-02" rms="4.4862440228462219e-01" purity="4.3949806690216064e-01" nType="0">
          <Node pos="l" depth="2" NCoef="0" IVar="-1" Cut="0.0000000000000000e+00" cType="1" res="-2.3810323327779770e-03" rms="4.4969546794891357e-01" purity="4.7327631711959839e-01" nType="-99"/>
          <Node pos="r" depth="2" NCoef="0" IVar="-1" Cut="0.0000000000000000e+00" cType="1" res="-5.1167292986065149e-04" rms="4.4795498251914978e-01" purity="4.2687809467315674e-01" nType="-99"/>
        </Node>
      </Node>
    </BinaryTree>
    <BinaryTree type="DecisionTree" boostWeight="1.0000000000000000e+00" itree="507">
      <Node pos="s" depth="0" NCoef="0" IVar="4" Cut="4.9016562104225159e-01" cType="1" res="-3.6310698487795889e-04" rms="4.5653849840164185e-01" purity="5.0036942958831787e-01" nType="0">
        <Node pos="l" depth="1" NCoef="0" IVar="0" Cut="2.9026589393615723e+00" cType="1" res="-6.5623302944004536e-03" rms="4.5548033714294434e-01" purity="4.6839237213134766e-01" nType="0">
          <Node pos="l" depth="2" NCoef="0" IVar="-1" Cut="0.0000000000000000e+00" cType="1" res="2.9983429703861475e-04" rms="4.5282742381095886e-01" purity="3.6607861518859863e-01" nType="-99"/>
          <Node pos="r" depth="2" NCoef="0" IVar="-1" Cut="0.0000000000000000e+00" cType="1" res="-1.2157295132055879e-03" rms="4.5824965834617615e-01" purity="5.8955419063568115e-01" nType="-99"/>
        </Node>
        <Node pos="r" depth="1" NCoef="0" IVar="8" Cut="1.1752334833145142e+00" cType="1" res="1.2502370402216911e-02" rms="4.5845928788185120e-01" purity="5.6673252582550049e-01" nType="0">
          <Node pos="l" depth="2" NCoef="0" IVar="-1" Cut="0.0000000000000000e+00" cType="1" res="-1.6522026271559298e-04" rms="4.5781901478767395e-01" purity="5.7686036825180054e-01" nType="-99"/>
          <Node pos="r" depth="2" NCoef="0" IVar="-1" Cut="0.0000000000000000e+00" cType="1" res="2.0681447349488735e-03" rms="4.5851713418960571e-01" purity="5.5262249708175659e-01" nType="-99"/>
        </Node>
      </Node>
    </BinaryTree>
    <BinaryTree type="DecisionTree" boostWeight="1.0000000000000000e+00" itree="508">
      <Node pos="s" depth="0" NCoef="0" IVar="3" Cut="-4.9061313271522522e-02" cType="1" res="2.0934930071234703e-03" rms="4.5349279046058655e-01" purity="5.0073230266571045e-01" nType="0">
        <Node pos="l" depth="1" NCoef="0" IVar="2" Cut="1.0467874145507812e+02" cType="1" res="3.0517684295773506e-02" rms="4.4627708196640015e-01" purity="5.9670478105545044e-01" nType="0">
          <Node pos="l" depth="2" NCoef="0" IVar="-1" Cut="0.0000000000000000e+00" cType="1" res="7.1471912087872624e-04" rms="4.5494550466537476e-01" purity="5.4052770137786865e-01" nType="-99"/>
          <Node pos="r" depth="2" NCoef="0" IVar="-1" Cut="0.0000000000000000e+00" cType="1" res="3.5156172234565020e-03" rms="4.3396651744842529e-01" purity="6.6732758283615112e-01" nType="-99"/>
        </Node>
        <Node pos="r" depth="1" NCoef="0" IVar="3" Cut="1.7378813028335571e-01" cType="1" res="-2.2363956086337566e-03" rms="4.5442590117454529e-01" purity="4.8611271381378174e-01" nType="0">
          <Node pos="l" depth="2" NCoef="0" IVar="-1" Cut="0.0000000000000000e+00" cType="1" res="-3.2327379449270666e-04" rms="4.5506721735000610e-01" purity="4.8848712444305420e-01" nType="-99"/>
          <Node pos="r" depth="2" NCoef="0" IVar="-1" Cut="0.0000000000000000e+00" cType="1" res="2.1727082785218954e-03" rms="4.4479003548622131e-01" purity="4.5661595463752747e-01" nType="-99"/>
        </Node>
      </Node>
    </BinaryTree>
    <BinaryTree type="DecisionTree" boostWeight="1.0000000000000000e+00" itree="509">
      <Node pos="s" depth="0" NCoef="0" IVar="4" Cut="1.1626076698303223e-01" cType="1" res="-2.7214451692998409e-03" rms="4.5511689782142639e-01" purity="4.9709370732307434e-01" nType="0">
        <Node pos="l" depth="1" NCoef="0" IVar="-1" Cut="0.0000000000000000e+00" cType="1" res="-2.3741759359836578e-03" rms="4.3139493465423584e-01" purity="3.3423697948455811e-01" nType="-99"/>
        <Node pos="r" depth="1" NCoef="0" IVar="2" Cut="1.6148254394531250e+02" cType="1" res="-7.5010559521615505e-04" rms="4.5642116665840149e-01" purity="5.0683397054672241e-01" nType="0">
          <Node pos="l" depth="2" NCoef="0" IVar="-1" Cut="0.0000000000000000e+00" cType="1" res="-2.4479191051796079e-04" rms="4.5677760243415833e-01" purity="5.0136840343475342e-01" nType="-99"/>
          <Node pos="r" depth="2" NCoef="0" IVar="-1" Cut="0.0000000000000000e+00" cType="1" res="1.4873329782858491e-03" rms="4.5304617285728455e-01" purity="5.4769384860992432e-01" nType="-99"/>
        </Node>
      </Node>
    </BinaryTree>
    <BinaryTree type="DecisionTree" boostWeight="1.0000000000000000e+00" itree="510">
      <Node pos="s" depth="0" NCoef="0" IVar="7" Cut="7.0960258483886719e+01" cType="1" res="3.6642306949943304e-03" rms="4.5300990343093872e-01" purity="5.0379109382629395e-01" nType="0">
        <Node pos="l" depth="1" NCoef="0" IVar="7" Cut="4.9047203063964844e+01" cType="1" res="1.0434144176542759e-02" rms="4.5059597492218018e-01" purity="4.4747185707092285e-01" nType="0">
          <Node pos="l" depth="2" NCoef="0" IVar="-1" Cut="0.0000000000000000e+00" cType="1" res="-8.1623683217912912e-04" rms="4.4013518095016479e-01" purity="3.4543997049331665e-01" nType="-99"/>
          <Node pos="r" depth="2" NCoef="0" IVar="-1" Cut="0.0000000000000000e+00" cType="1" res="1.2272326275706291e-03" rms="4.5453444123268127e-01" purity="4.8979711532592773e-01" nType="-99"/>
        </Node>
        <Node pos="r" depth="1" NCoef="0" IVar="1" Cut="6.8878979492187500e+02" cType="1" res="-4.8938058316707611e-03" rms="4.5589929819107056e-01" purity="5.7498580217361450e-01" nType="0">
          <Node pos="l" depth="2" NCoef="0" IVar="-1" Cut="0.0000000000000000e+00" cType="1" res="-9.6716708503663540e-04" rms="4.5818701386451721e-01" purity="5.3664511442184448e-01" nType="-99"/>
          <Node pos="r" depth="2" NCoef="0" IVar="-1" Cut="0.0000000000000000e+00" cType="1" res="6.4620084594935179e-04" rms="4.5227214694023132e-01" purity="6.2819427251815796e-01" nType="-99"/>
        </Node>
      </Node>
    </BinaryTree>
    <BinaryTree type="DecisionTree" boostWeight="1.0000000000000000e+00" itree="511">
      <Node pos="s" depth="0" NCoef="0" IVar="5" Cut="9.8361063003540039e-01" cType="1" res="-3.9917742833495140e-03" rms="4.5329612493515015e-01" purity="4.9505856633186340e-01" nType="0">
        <Node pos="l" depth="1" NCoef="0" IVar="2" Cut="1.5654441833496094e+02" cType="1" res="-7.6643684878945351e-03" rms="4.5945990085601807e-01" purity="4.5859637856483459e-01" nType="0">
          <Node pos="l" depth="2" NCoef="0" IVar="-1" Cut="0.0000000000000000e+00" cType="1" res="-7.0000829873606563e-04" rms="4.5981901884078979e-01" purity="4.5135974884033203e-01" nType="-99"/>
          <Node pos="r" depth="2" NCoef="0" IVar="-1" Cut="0.0000000000000000e+00" cType="1" res="1.0647797025740147e-03" rms="4.5633658766746521e-01" purity="5.0597310066223145e-01" nType="-99"/>
        </Node>
        <Node pos="r" depth="1" NCoef="0" IVar="7" Cut="6.7311164855957031e+01" cType="1" res="2.3407757282257080e-02" rms="4.0330240130424500e-01" purity="7.6708620786666870e-01" nType="0">
          <Node pos="l" depth="2" NCoef="0" IVar="-1" Cut="0.0000000000000000e+00" cType="1" res="2.8030197136104107e-03" rms="4.2101901769638062e-01" purity="7.3748493194580078e-01" nType="-99"/>
          <Node pos="r" depth="2" NCoef="0" IVar="-1" Cut="0.0000000000000000e+00" cType="1" res="6.4390734769403934e-04" rms="3.8598284125328064e-01" purity="7.9375529289245605e-01" nType="-99"/>
        </Node>
      </Node>
    </BinaryTree>
    <BinaryTree type="DecisionTree" boostWeight="1.0000000000000000e+00" itree="512">
      <Node pos="s" depth="0" NCoef="0" IVar="2" Cut="1.9418675231933594e+02" cType="1" res="3.0584554187953472e-03" rms="4.5448333024978638e-01" purity="5.0438898801803589e-01" nType="0">
        <Node pos="l" depth="1" NCoef="0" IVar="1" Cut="6.5013177490234375e+02" cType="1" res="6.1471713706851006e-03" rms="4.5424035191535950e-01" purity="5.0792223215103149e-01" nType="0">
          <Node pos="l" depth="2" NCoef="0" IVar="-1" Cut="0.0000000000000000e+00" cType="1" res="6.9735368015244603e-05" rms="4.5499581098556519e-01" purity="4.6793782711029053e-01" nType="-99"/>
          <Node pos="r" depth="2" NCoef="0" IVar="-1" Cut="0.0000000000000000e+00" cType="1" res="1.3717327965423465e-03" rms="4.5149210095405579e-01" purity="6.3359224796295166e-01" nType="-99"/>
        </Node>
        <Node pos="r" depth="1" NCoef="0" IVar="-1" Cut="0.0000000000000000e+00" cType="1" res="-2.5334672536700964e-03" rms="4.5568570494651794e-01" purity="4.5533066987991333e-01" nType="-99"/>
      </Node>
    </BinaryTree>
    <BinaryTree type="DecisionTree" boostWeight="1.0000000000000000e+00" itree="513">
      <Node pos="s" depth="0" NCoef="0" IVar="9" Cut="6.6858732700347900e-01" cType="1" res="-2.0607227925211191e-03" rms="4.5459392666816711e-01" purity="4.9616876244544983e-01" nType="0">
        <Node pos="l" depth="1" NCoef="0" IVar="6" Cut="2.1967606544494629e+00" cType="1" res="-9.0931141749024391e-03" rms="4.5526397228240967e-01" purity="5.1876026391983032e-01" nType="0">
          <Node pos="l" depth="2" NCoef="0" IVar="-1" Cut="0.0000000000000000e+00" cType="1" res="1.2684494140557945e-04" rms="4.5468693971633911e-01" purity="5.7072860002517700e-01" nType="-99"/>
          <Node pos="r" depth="2" NCoef="0" IVar="-1" Cut="0.0000000000000000e+00" cType="1" res="-1.5747045399621129e-03" rms="4.5561587810516357e-01" purity="4.4398039579391479e-01" nType="-99"/>
        </Node>
        <Node pos="r" depth="1" NCoef="0" IVar="0" Cut="3.4225804805755615e+00" cType="1" res="1.2538927607238293e-02" rms="4.5285117626190186e-01" purity="4.4926738739013672e-01" nType="0">
          <Node pos="l" depth="2" NCoef="0" IVar="-1" Cut="0.0000000000000000e+00" cType="1" res="-1.4112546341493726e-04" rms="4.5166507363319397e-01" purity="3.5083311796188354e-01" nType="-99"/>
          <Node pos="r" depth="2" NCoef="0" IVar="-1" Cut="0.0000000000000000e+00" cType="1" res="2.5973427109420300e-03" rms="4.5378735661506653e-01" purity="6.5244150161743164e-01" nType="-99"/>
        </Node>
      </Node>
    </BinaryTree>
    <BinaryTree type="DecisionTree" boostWeight="1.0000000000000000e+00" itree="514">
      <Node pos="s" depth="0" NCoef="0" IVar="1" Cut="6.0971142578125000e+02" cType="1" res="-2.6319709140807390e-03" rms="4.5582187175750732e-01" purity="4.9539926648139954e-01" nType="0">
        <Node pos="l" depth="1" NCoef="0" IVar="4" Cut="3.1745812296867371e-01" cType="1" res="-8.6133256554603577e-03" rms="4.5376080274581909e-01" purity="4.4358628988265991e-01" nType="0">
          <Node pos="l" depth="2" NCoef="0" IVar="-1" Cut="0.0000000000000000e+00" cType="1" res="4.0853553218767047e-04" rms="4.4557553529739380e-01" purity="3.8666081428527832e-01" nType="-99"/>
          <Node pos="r" depth="2" NCoef="0" IVar="-1" Cut="0.0000000000000000e+00" cType="1" res="-1.0145639535039663e-03" rms="4.5776033401489258e-01" purity="4.7311654686927795e-01" nType="-99"/>
        </Node>
        <Node pos="r" depth="1" NCoef="0" IVar="6" Cut="2.2766194343566895e+00" cType="1" res="9.6443817019462585e-03" rms="4.5977950096130371e-01" purity="6.0174202919006348e-01" nType="0">
          <Node pos="l" depth="2" NCoef="0" IVar="-1" Cut="0.0000000000000000e+00" cType="1" res="-2.1349007147364318e-04" rms="4.5568138360977173e-01" purity="6.3899636268615723e-01" nType="-99"/>
          <Node pos="r" depth="2" NCoef="0" IVar="-1" Cut="0.0000000000000000e+00" cType="1" res="1.9742690492421389e-03" rms="4.6597263216972351e-01" purity="5.3676128387451172e-01" nType="-99"/>
        </Node>
      </Node>
    </BinaryTree>
    <BinaryTree type="DecisionTree" boostWeight="1.0000000000000000e+00" itree="515">
      <Node pos="s" depth="0" NCoef="0" IVar="3" Cut="-2.0143968984484673e-02" cType="1" res="2.3440604563802481e-03" rms="4.5474833250045776e-01" purity="5.0281566381454468e-01" nType="0">
        <Node pos="l" depth="1" NCoef="0" IVar="3" Cut="-6.8964235484600067e-02" cType="1" res="-1.1547285132110119e-02" rms="4.5334199070930481e-01" purity="5.4020881652832031e-01" nType="0">
          <Node pos="l" depth="2" NCoef="0" IVar="-1" Cut="0.0000000000000000e+00" cType="1" res="1.7718038288876414e-03" rms="4.5322129130363464e-01" purity="6.0694909095764160e-01" nType="-99"/>
          <Node pos="r" depth="2" NCoef="0" IVar="-1" Cut="0.0000000000000000e+00" cType="1" res="-1.4323375653475523e-03" rms="4.5275545120239258e-01" purity="5.2160209417343140e-01" nType="-99"/>
        </Node>
        <Node pos="r" depth="1" NCoef="0" IVar="5" Cut="9.2631822824478149e-01" cType="1" res="7.6401922851800919e-03" rms="4.5517173409461975e-01" purity="4.8855936527252197e-01" nType="0">
          <Node pos="l" depth="2" NCoef="0" IVar="-1" Cut="0.0000000000000000e+00" cType="1" res="-1.1795713799074292e-03" rms="4.2627811431884766e-01" purity="2.9174509644508362e-01" nType="-99"/>
          <Node pos="r" depth="2" NCoef="0" IVar="-1" Cut="0.0000000000000000e+00" cType="1" res="8.3260680548846722e-04" rms="4.6125566959381104e-01" purity="5.3302979469299316e-01" nType="-99"/>
        </Node>
      </Node>
    </BinaryTree>
    <BinaryTree type="DecisionTree" boostWeight="1.0000000000000000e+00" itree="516">
      <Node pos="s" depth="0" NCoef="0" IVar="1" Cut="6.7918774414062500e+02" cType="1" res="-6.0182614251971245e-03" rms="4.5436286926269531e-01" purity="4.9112704396247864e-01" nType="0">
        <Node pos="l" depth="1" NCoef="0" IVar="2" Cut="1.7258741760253906e+02" cType="1" res="-1.0804039426147938e-02" rms="4.5267102122306824e-01" purity="4.5659676194190979e-01" nType="0">
          <Node pos="l" depth="2" NCoef="0" IVar="-1" Cut="0.0000000000000000e+00" cType="1" res="-8.3902734331786633e-04" rms="4.5265504717826843e-01" purity="4.5522373914718628e-01" nType="-99"/>
          <Node pos="r" depth="2" NCoef="0" IVar="-1" Cut="0.0000000000000000e+00" cType="1" res="1.6356318956241012e-03" rms="4.5137450098991394e-01" purity="4.7619435191154480e-01" nType="-99"/>
        </Node>
        <Node pos="r" depth="1" NCoef="0" IVar="6" Cut="2.3657612800598145e+00" cType="1" res="1.0898210108280182e-02" rms="4.5989429950714111e-01" purity="6.1318254470825195e-01" nType="0">
          <Node pos="l" depth="2" NCoef="0" IVar="-1" Cut="0.0000000000000000e+00" cType="1" res="-3.0567520298063755e-04" rms="4.5293986797332764e-01" purity="6.4488863945007324e-01" nType="-99"/>
          <Node pos="r" depth="2" NCoef="0" IVar="-1" Cut="0.0000000000000000e+00" cType="1" res="3.1387482304126024e-03" rms="4.7543558478355408e-01" purity="5.2857369184494019e-01" nType="-99"/>
        </Node>
      </Node>
    </BinaryTree>
    <BinaryTree type="DecisionTree" boostWeight="1.0000000000000000e+00" itree="517">
      <Node pos="s" depth="0" NCoef="0" IVar="7" Cut="1.0330101776123047e+02" cType="1" res="4.1029471321962774e-04" rms="4.5686212182044983e-01" purity="4.9925082921981812e-01" nType="0">
        <Node pos="l" depth="1" NCoef="0" IVar="9" Cut="7.5164842605590820e-01" cType="1" res="4.9180192872881889e-03" rms="4.5656931400299072e-01" purity="4.8426246643066406e-01" nType="0">
          <Node pos="l" depth="2" NCoef="0" IVar="-1" Cut="0.0000000000000000e+00" cType="1" res="-4.1953215259127319e-05" rms="4.5537805557250977e-01" purity="5.0449061393737793e-01" nType="-99"/>
          <Node pos="r" depth="2" NCoef="0" IVar="-1" Cut="0.0000000000000000e+00" cType="1" res="1.3499826891347766e-03" rms="4.5961299538612366e-01" purity="4.2579054832458496e-01" nType="-99"/>
        </Node>
        <Node pos="r" depth="1" NCoef="0" IVar="9" Cut="3.9542362093925476e-01" cType="1" res="-2.7068316936492920e-02" rms="4.5768365263938904e-01" purity="5.9061807394027710e-01" nType="0">
          <Node pos="l" depth="2" NCoef="0" IVar="-1" Cut="0.0000000000000000e+00" cType="1" res="-4.9554614815860987e-04" rms="4.4889187812805176e-01" purity="6.4477068185806274e-01" nType="-99"/>
          <Node pos="r" depth="2" NCoef="0" IVar="-1" Cut="0.0000000000000000e+00" cType="1" res="-2.5090982671827078e-03" rms="4.6260052919387817e-01" purity="5.5732345581054688e-01" nType="-99"/>
        </Node>
      </Node>
    </BinaryTree>
    <BinaryTree type="DecisionTree" boostWeight="1.0000000000000000e+00" itree="518">
      <Node pos="s" depth="0" NCoef="0" IVar="7" Cut="1.1621171569824219e+02" cType="1" res="3.8246868643909693e-03" rms="4.5555281639099121e-01" purity="5.0456357002258301e-01" nType="0">
        <Node pos="l" depth="1" NCoef="0" IVar="7" Cut="4.2538635253906250e+01" cType="1" res="1.7844671674538404e-04" rms="4.5679238438606262e-01" purity="4.8924028873443604e-01" nType="0">
          <Node pos="l" depth="2" NCoef="0" IVar="-1" Cut="0.0000000000000000e+00" cType="1" res="-2.6508620940148830e-03" rms="4.1683200001716614e-01" purity="2.9879346489906311e-01" nType="-99"/>
          <Node pos="r" depth="2" NCoef="0" IVar="-1" Cut="0.0000000000000000e+00" cType="1" res="1.8955423729494214e-04" rms="4.5955303311347961e-01" purity="5.0367760658264160e-01" nType="-99"/>
        </Node>
        <Node pos="r" depth="1" NCoef="0" IVar="-1" Cut="0.0000000000000000e+00" cType="1" res="2.8258392121642828e-03" rms="4.3984857201576233e-01" purity="6.7169374227523804e-01" nType="-99"/>
      </Node>
    </BinaryTree>
    <BinaryTree type="DecisionTree" boostWeight="1.0000000000000000e+00" itree="519">
      <Node pos="s" depth="0" NCoef="0" IVar="5" Cut="9.0984588861465454e-01" cType="1" res="2.2715930826961994e-03" rms="4.5434987545013428e-01" purity="5.0291359424591064e-01" nType="0">
        <Node pos="l" depth="1" NCoef="0" IVar="-1" Cut="0.0000000000000000e+00" cType="1" res="-1.4393762685358524e-03" rms="4.2040827870368958e-01" purity="2.7834916114807129e-01" nType="-99"/>
        <Node pos="r" depth="1" NCoef="0" IVar="3" Cut="-3.9822878316044807e-03" cType="1" res="3.9719976484775543e-03" rms="4.5662131905555725e-01" purity="5.1889318227767944e-01" nType="0">
          <Node pos="l" depth="2" NCoef="0" IVar="-1" Cut="0.0000000000000000e+00" cType="1" res="-4.4614871148951352e-04" rms="4.5608443021774292e-01" purity="5.4636770486831665e-01" nType="-99"/>
          <Node pos="r" depth="2" NCoef="0" IVar="-1" Cut="0.0000000000000000e+00" cType="1" res="6.6279474413022399e-04" rms="4.5681259036064148e-01" purity="5.0259602069854736e-01" nType="-99"/>
        </Node>
      </Node>
    </BinaryTree>
    <BinaryTree type="DecisionTree" boostWeight="1.0000000000000000e+00" itree="520">
      <Node pos="s" depth="0" NCoef="0" IVar="2" Cut="2.0446011352539062e+02" cType="1" res="-4.6221609227359295e-03" rms="4.5254945755004883e-01" purity="4.9682438373565674e-01" nType="0">
        <Node pos="l" depth="1" NCoef="0" IVar="4" Cut="2.1766513586044312e-01" cType="1" res="-2.6732911355793476e-03" rms="4.5200040936470032e-01" purity="4.9934205412864685e-01" nType="0">
          <Node pos="l" depth="2" NCoef="0" IVar="-1" Cut="0.0000000000000000e+00" cType="1" res="-1.3332120142877102e-03" rms="4.4571143388748169e-01" purity="4.0815937519073486e-01" nType="-99"/>
          <Node pos="r" depth="2" NCoef="0" IVar="-1" Cut="0.0000000000000000e+00" cType="1" res="1.0140917584067211e-04" rms="4.5336583256721497e-01" purity="5.2086156606674194e-01" nType="-99"/>
        </Node>
        <Node pos="r" depth="1" NCoef="0" IVar="-1" Cut="0.0000000000000000e+00" cType="1" res="-2.3723563645035028e-03" rms="4.6039563417434692e-01" purity="4.5483338832855225e-01" nType="-99"/>
      </Node>
    </BinaryTree>
    <BinaryTree type="DecisionTree" boostWeight="1.0000000000000000e+00" itree="521">
      <Node pos="s" depth="0" NCoef="0" IVar="0" Cut="2.6413223743438721e+00" cType="1" res="-3.0170998070389032e-03" rms="4.5722073316574097e-01" purity="4.9379107356071472e-01" nType="0">
        <Node pos="l" depth="1" NCoef="0" IVar="2" Cut="1.3682293701171875e+02" cType="1" res="8.0967694520950317e-03" rms="4.5656597614288330e-01" purity="3.6958834528923035e-01" nType="0">
          <Node pos="l" depth="2" NCoef="0" IVar="-1" Cut="0.0000000000000000e+00" cType="1" res="1.0244896402582526e-03" rms="4.5743256807327271e-01" purity="3.7082481384277344e-01" nType="-99"/>
          <Node pos="r" depth="2" NCoef="0" IVar="-1" Cut="0.0000000000000000e+00" cType="1" res="-1.3999001821503043e-03" rms="4.5202288031578064e-01" purity="3.6490243673324585e-01" nType="-99"/>
        </Node>
        <Node pos="r" depth="1" NCoef="0" IVar="6" Cut="1.7760354280471802e+00" cType="1" res="-1.2803313322365284e-02" rms="4.5757302641868591e-01" purity="6.0315662622451782e-01" nType="0">
          <Node pos="l" depth="2" NCoef="0" IVar="-1" Cut="0.0000000000000000e+00" cType="1" res="9.4396225176751614e-04" rms="4.3144840002059937e-01" purity="7.0676225423812866e-01" nType="-99"/>
          <Node pos="r" depth="2" NCoef="0" IVar="-1" Cut="0.0000000000000000e+00" cType="1" res="-1.1157140834257007e-03" rms="4.6244725584983826e-01" purity="5.8235353231430054e-01" nType="-99"/>
        </Node>
      </Node>
    </BinaryTree>
    <BinaryTree type="DecisionTree" boostWeight="1.0000000000000000e+00" itree="522">
      <Node pos="s" depth="0" NCoef="0" IVar="9" Cut="1.7022079229354858e-01" cType="1" res="1.0298487031832337e-03" rms="4.5491382479667664e-01" purity="5.0049656629562378e-01" nType="0">
        <Node pos="l" depth="1" NCoef="0" IVar="-1" Cut="0.0000000000000000e+00" cType="1" res="1.9918747711926699e-03" rms="4.4473379850387573e-01" purity="5.9316492080688477e-01" nType="-99"/>
        <Node pos="r" depth="1" NCoef="0" IVar="7" Cut="4.7234046936035156e+01" cType="1" res="-1.3109261635690928e-03" rms="4.5559304952621460e-01" purity="4.9345397949218750e-01" nType="0">
          <Node pos="l" depth="2" NCoef="0" IVar="-1" Cut="0.0000000000000000e+00" cType="1" res="-1.4721474144607782e-03" rms="4.3671751022338867e-01" purity="3.3088272809982300e-01" nType="-99"/>
          <Node pos="r" depth="2" NCoef="0" IVar="-1" Cut="0.0000000000000000e+00" cType="1" res="1.1942581477342173e-04" rms="4.5839655399322510e-01" purity="5.1892924308776855e-01" nType="-99"/>
        </Node>
      </Node>
    </BinaryTree>
    <BinaryTree type="DecisionTree" boostWeight="1.0000000000000000e+00" itree="523">
      <Node pos="s" depth="0" NCoef="0" IVar="4" Cut="7.0756840705871582e-01" cType="1" res="-3.6880846600979567e-03" rms="4.5536947250366211e-01" purity="4.9569171667098999e-01" nType="0">
        <Node pos="l" depth="1" NCoef="0" IVar="3" Cut="-5.0237663090229034e-02" cType="1" res="-1.4594158856198192e-03" rms="4.5542231202125549e-01" purity="4.9328103661537170e-01" nType="0">
          <Node pos="l" depth="2" NCoef="0" IVar="-1" Cut="0.0000000000000000e+00" cType="1" res="1.4201097656041384e-03" rms="4.5329701900482178e-01" purity="5.7892805337905884e-01" nType="-99"/>
          <Node pos="r" depth="2" NCoef="0" IVar="-1" Cut="0.0000000000000000e+00" cType="1" res="-2.7317815693095326e-04" rms="4.5558878779411316e-01" purity="4.8310077190399170e-01" nType="-99"/>
        </Node>
        <Node pos="r" depth="1" NCoef="0" IVar="-1" Cut="0.0000000000000000e+00" cType="1" res="-2.5143101811408997e-03" rms="4.5302361249923706e-01" purity="5.3437304496765137e-01" nType="-99"/>
      </Node>
    </BinaryTree>
    <BinaryTree type="DecisionTree" boostWeight="1.0000000000000000e+00" itree="524">
      <Node pos="s" depth="0" NCoef="0" IVar="7" Cut="7.5235107421875000e+01" cType="1" res="-4.1572633199393749e-04" rms="4.5393875241279602e-01" purity="5.0107103586196899e-01" nType="0">
        <Node pos="l" depth="1" NCoef="0" IVar="4" Cut="5.6927365064620972e-01" cType="1" res="8.3468314260244370e-03" rms="4.5191773772239685e-01" purity="4.5793056488037109e-01" nType="0">
          <Node pos="l" depth="2" NCoef="0" IVar="-1" Cut="0.0000000000000000e+00" cType="1" res="1.5985459322109818e-04" rms="4.4976556301116943e-01" purity="4.3193736672401428e-01" nType="-99"/>
          <Node pos="r" depth="2" NCoef="0" IVar="-1" Cut="0.0000000000000000e+00" cType="1" res="1.7433247994631529e-03" rms="4.5873329043388367e-01" purity="5.4816275835037231e-01" nType="-99"/>
        </Node>
        <Node pos="r" depth="1" NCoef="0" IVar="0" Cut="3.6285734176635742e+00" cType="1" res="-1.4723427593708038e-02" rms="4.5685839653015137e-01" purity="5.7151168584823608e-01" nType="0">
          <Node pos="l" depth="2" NCoef="0" IVar="-1" Cut="0.0000000000000000e+00" cType="1" res="-1.7029313603416085e-03" rms="4.7759288549423218e-01" purity="4.7061526775360107e-01" nType="-99"/>
          <Node pos="r" depth="2" NCoef="0" IVar="-1" Cut="0.0000000000000000e+00" cType="1" res="7.9982919851318002e-04" rms="4.1583338379859924e-01" purity="7.5250875949859619e-01" nType="-99"/>
        </Node>
      </Node>
    </BinaryTree>
    <BinaryTree type="DecisionTree" boostWeight="1.0000000000000000e+00" itree="525">
      <Node pos="s" depth="0" NCoef="0" IVar="6" Cut="2.8381803035736084e+00" cType="1" res="-5.9858913300558925e-04" rms="4.5540547370910645e-01" purity="5.0034624338150024e-01" nType="0">
        <Node pos="l" depth="1" NCoef="0" IVar="2" Cut="1.1399482727050781e+02" cType="1" res="1.5604180516675115e-03" rms="4.5894873142242432e-01" purity="5.1885509490966797e-01" nType="0">
          <Node pos="l" depth="2" NCoef="0" IVar="-1" Cut="0.0000000000000000e+00" cType="1" res="-2.9358279425650835e-04" rms="4.6047228574752808e-01" purity="4.8795536160469055e-01" nType="-99"/>
          <Node pos="r" depth="2" NCoef="0" IVar="-1" Cut="0.0000000000000000e+00" cType="1" res="8.1962603144347668e-04" rms="4.5590081810951233e-01" purity="5.7576650381088257e-01" nType="-99"/>
        </Node>
        <Node pos="r" depth="1" NCoef="0" IVar="-1" Cut="0.0000000000000000e+00" cType="1" res="-2.5716968812048435e-03" rms="3.9609891176223755e-01" purity="2.1842654049396515e-01" nType="-99"/>
      </Node>
    </BinaryTree>
    <BinaryTree type="DecisionTree" boostWeight="1.0000000000000000e+00" itree="526">
      <Node pos="s" depth="0" NCoef="0" IVar="5" Cut="9.0686655044555664e-01" cType="1" res="-1.6216482035815716e-03" rms="4.5436578989028931e-01" purity="4.9945652484893799e-01" nType="0">
        <Node pos="l" depth="1" NCoef="0" IVar="-1" Cut="0.0000000000000000e+00" cType="1" res="-2.9171139467507601e-03" rms="4.0992659330368042e-01" purity="2.4344260990619659e-01" nType="-99"/>
        <Node pos="r" depth="1" NCoef="0" IVar="7" Cut="1.3219117736816406e+02" cType="1" res="8.1079918891191483e-04" rms="4.5676255226135254e-01" purity="5.1471370458602905e-01" nType="0">
          <Node pos="l" depth="2" NCoef="0" IVar="-1" Cut="0.0000000000000000e+00" cType="1" res="1.7834617756307125e-04" rms="4.5683562755584717e-01" purity="5.0917214155197144e-01" nType="-99"/>
          <Node pos="r" depth="2" NCoef="0" IVar="-1" Cut="0.0000000000000000e+00" cType="1" res="-2.1048211492598057e-03" rms="4.5424339175224304e-01" purity="6.0629594326019287e-01" nType="-99"/>
        </Node>
      </Node>
    </BinaryTree>
    <BinaryTree type="DecisionTree" boostWeight="1.0000000000000000e+00" itree="527">
      <Node pos="s" depth="0" NCoef="0" IVar="5" Cut="9.6428722143173218e-01" cType="1" res="-5.2888058125972748e-03" rms="4.5680794119834900e-01" purity="4.9514734745025635e-01" nType="0">
        <Node pos="l" depth="1" NCoef="0" IVar="4" Cut="1.5895268321037292e-01" cType="1" res="1.8860321724787354e-03" rms="4.6083381772041321e-01" purity="4.2284718155860901e-01" nType="0">
          <Node pos="l" depth="2" NCoef="0" IVar="-1" Cut="0.0000000000000000e+00" cType="1" res="-1.6309983329847455e-03" rms="4.3283954262733459e-01" purity="3.1134191155433655e-01" nType="-99"/>
          <Node pos="r" depth="2" NCoef="0" IVar="-1" Cut="0.0000000000000000e+00" cType="1" res="3.2126315636560321e-04" rms="4.6424475312232971e-01" purity="4.3736264109611511e-01" nType="-99"/>
        </Node>
        <Node pos="r" depth="1" NCoef="0" IVar="2" Cut="9.8002120971679688e+01" cType="1" res="-1.9550165161490440e-02" rms="4.4835773110389709e-01" purity="6.3885772228240967e-01" nType="0">
          <Node pos="l" depth="2" NCoef="0" IVar="-1" Cut="0.0000000000000000e+00" cType="1" res="-2.7795417699962854e-03" rms="4.6188586950302124e-01" purity="6.0106819868087769e-01" nType="-99"/>
          <Node pos="r" depth="2" NCoef="0" IVar="-1" Cut="0.0000000000000000e+00" cType="1" res="2.4648816906847060e-04" rms="4.3319863080978394e-01" purity="6.7657995223999023e-01" nType="-99"/>
        </Node>
      </Node>
    </BinaryTree>
    <BinaryTree type="DecisionTree" boostWeight="1.0000000000000000e+00" itree="528">
      <Node pos="s" depth="0" NCoef="0" IVar="1" Cut="6.6534466552734375e+02" cType="1" res="6.3343514921143651e-04" rms="4.5190164446830750e-01" purity="5.0200361013412476e-01" nType="0">
        <Node pos="l" depth="1" NCoef="0" IVar="4" Cut="4.4553217291831970e-01" cType="1" res="-4.0113036520779133e-03" rms="4.5051592588424683e-01" purity="4.6253481507301331e-01" nType="0">
          <Node pos="l" depth="2" NCoef="0" IVar="-1" Cut="0.0000000000000000e+00" cType="1" res="-1.0831922991201282e-03" rms="4.4804525375366211e-01" purity="4.0999352931976318e-01" nType="-99"/>
          <Node pos="r" depth="2" NCoef="0" IVar="-1" Cut="0.0000000000000000e+00" cType="1" res="8.5436302470043302e-04" rms="4.5325741171836853e-01" purity="5.3410816192626953e-01" nType="-99"/>
        </Node>
        <Node pos="r" depth="1" NCoef="0" IVar="0" Cut="2.0934998989105225e+00" cType="1" res="1.4771402813494205e-02" rms="4.5580250024795532e-01" purity="6.2214136123657227e-01" nType="0">
          <Node pos="l" depth="2" NCoef="0" IVar="-1" Cut="0.0000000000000000e+00" cType="1" res="3.2343126367777586e-03" rms="4.8166245222091675e-01" purity="5.0454860925674438e-01" nType="-99"/>
          <Node pos="r" depth="2" NCoef="0" IVar="-1" Cut="0.0000000000000000e+00" cType="1" res="-2.4211713025579229e-05" rms="4.4473764300346375e-01" purity="6.6640579700469971e-01" nType="-99"/>
        </Node>
      </Node>
    </BinaryTree>
    <BinaryTree type="DecisionTree" boostWeight="1.0000000000000000e+00" itree="529">
      <Node pos="s" depth="0" NCoef="0" IVar="7" Cut="9.8526924133300781e+01" cType="1" res="-1.1135757667943835e-03" rms="4.5706021785736084e-01" purity="4.9851545691490173e-01" nType="0">
        <Node pos="l" depth="1" NCoef="0" IVar="2" Cut="4.0688594818115234e+01" cType="1" res="3.1362872105091810e-03" rms="4.5599621534347534e-01" purity="4.7978475689888000e-01" nType="0">
          <Node pos="l" depth="2" NCoef="0" IVar="-1" Cut="0.0000000000000000e+00" cType="1" res="-2.4112523533403873e-03" rms="4.5101073384284973e-01" purity="4.2435595393180847e-01" nType="-99"/>
          <Node pos="r" depth="2" NCoef="0" IVar="-1" Cut="0.0000000000000000e+00" cType="1" res="3.6825507413595915e-04" rms="4.5618605613708496e-01" purity="4.8339560627937317e-01" nType="-99"/>
        </Node>
        <Node pos="r" depth="1" NCoef="0" IVar="9" Cut="6.3942652940750122e-01" cType="1" res="-2.1817788481712341e-02" rms="4.6164944767951965e-01" purity="5.8976638317108154e-01" nType="0">
          <Node pos="l" depth="2" NCoef="0" IVar="-1" Cut="0.0000000000000000e+00" cType="1" res="-2.9223706224001944e-04" rms="4.5764985680580139e-01" purity="6.2868189811706543e-01" nType="-99"/>
          <Node pos="r" depth="2" NCoef="0" IVar="-1" Cut="0.0000000000000000e+00" cType="1" res="-3.8184812292456627e-03" rms="4.6821835637092590e-01" purity="5.0195622444152832e-01" nType="-99"/>
        </Node>
      </Node>
    </BinaryTree>
    <BinaryTree type="DecisionTree" boostWeight="1.0000000000000000e+00" itree="530">
      <Node pos="s" depth="0" NCoef="0" IVar="3" Cut="-6.3957944512367249e-02" cType="1" res="8.1550289178267121e-04" rms="4.5747423171997070e-01" purity="4.9862197041511536e-01" nType="0">
        <Node pos="l" depth="1" NCoef="0" IVar="-1" Cut="0.0000000000000000e+00" cType="1" res="-1.8756557255983353e-03" rms="4.6450459957122803e-01" purity="5.4441624879837036e-01" nType="-99"/>
        <Node pos="r" depth="1" NCoef="0" IVar="8" Cut="1.7015370130538940e+00" cType="1" res="3.4023311454802752e-03" rms="4.5678362250328064e-01" purity="4.9477052688598633e-01" nType="0">
          <Node pos="l" depth="2" NCoef="0" IVar="-1" Cut="0.0000000000000000e+00" cType="1" res="3.8437219336628914e-04" rms="4.5802235603332520e-01" purity="5.0507205724716187e-01" nType="-99"/>
          <Node pos="r" depth="2" NCoef="0" IVar="-1" Cut="0.0000000000000000e+00" cType="1" res="-1.5646218089386821e-03" rms="4.4338092207908630e-01" purity="3.9248791337013245e-01" nType="-99"/>
        </Node>
      </Node>
    </BinaryTree>
    <BinaryTree type="DecisionTree" boostWeight="1.0000000000000000e+00" itree="531">
      <Node pos="s" depth="0" NCoef="0" IVar="2" Cut="1.9292573547363281e+02" cType="1" res="1.7135181697085500e-03" rms="4.5483487844467163e-01" purity="5.0321871042251587e-01" nType="0">
        <Node pos="l" depth="1" NCoef="0" IVar="7" Cut="7.0918518066406250e+01" cType="1" res="4.4574243947863579e-03" rms="4.5502647757530212e-01" purity="5.0655114650726318e-01" nType="0">
          <Node pos="l" depth="2" NCoef="0" IVar="-1" Cut="0.0000000000000000e+00" cType="1" res="8.4189197514206171e-04" rms="4.5417952537536621e-01" purity="4.5405140519142151e-01" nType="-99"/>
          <Node pos="r" depth="2" NCoef="0" IVar="-1" Cut="0.0000000000000000e+00" cType="1" res="-4.8043180140666664e-04" rms="4.5590814948081970e-01" purity="5.7873713970184326e-01" nType="-99"/>
        </Node>
        <Node pos="r" depth="1" NCoef="0" IVar="-1" Cut="0.0000000000000000e+00" cType="1" res="-2.3845057003200054e-03" rms="4.5038995146751404e-01" purity="4.5654770731925964e-01" nType="-99"/>
      </Node>
    </BinaryTree>
    <BinaryTree type="DecisionTree" boostWeight="1.0000000000000000e+00" itree="532">
      <Node pos="s" depth="0" NCoef="0" IVar="8" Cut="1.3952465057373047e+00" cType="1" res="5.2953697741031647e-04" rms="4.5531216263771057e-01" purity="4.9769511818885803e-01" nType="0">
        <Node pos="l" depth="1" NCoef="0" IVar="7" Cut="1.0184221649169922e+02" cType="1" res="6.4450185745954514e-03" rms="4.5688942074775696e-01" purity="5.2130979299545288e-01" nType="0">
          <Node pos="l" depth="2" NCoef="0" IVar="-1" Cut="0.0000000000000000e+00" cType="1" res="7.0313381729647517e-04" rms="4.5719164609909058e-01" purity="5.0402224063873291e-01" nType="-99"/>
          <Node pos="r" depth="2" NCoef="0" IVar="-1" Cut="0.0000000000000000e+00" cType="1" res="-1.1152914958074689e-03" rms="4.5465978980064392e-01" purity="6.0553067922592163e-01" nType="-99"/>
        </Node>
        <Node pos="r" depth="1" NCoef="0" IVar="3" Cut="3.7081479094922543e-03" cType="1" res="-1.8443018198013306e-02" rms="4.4969138503074646e-01" purity="4.2195641994476318e-01" nType="0">
          <Node pos="l" depth="2" NCoef="0" IVar="-1" Cut="0.0000000000000000e+00" cType="1" res="5.0999413360841572e-05" rms="4.5934259891510010e-01" purity="4.9296909570693970e-01" nType="-99"/>
          <Node pos="r" depth="2" NCoef="0" IVar="-1" Cut="0.0000000000000000e+00" cType="1" res="-1.9313672091811895e-03" rms="4.4358435273170471e-01" purity="3.8057082891464233e-01" nType="-99"/>
        </Node>
      </Node>
    </BinaryTree>
    <BinaryTree type="DecisionTree" boostWeight="1.0000000000000000e+00" itree="533">
      <Node pos="s" depth="0" NCoef="0" IVar="9" Cut="1.0293194055557251e+00" cType="1" res="-1.3376482820603997e-04" rms="4.5460426807403564e-01" purity="4.9653449654579163e-01" nType="0">
        <Node pos="l" depth="1" NCoef="0" IVar="3" Cut="1.6361218690872192e-01" cType="1" res="2.5048472452908754e-03" rms="4.5596465468406677e-01" purity="5.0795567035675049e-01" nType="0">
          <Node pos="l" depth="2" NCoef="0" IVar="-1" Cut="0.0000000000000000e+00" cType="1" res="-1.8726843336480670e-05" rms="4.5592057704925537e-01" purity="5.1213973760604858e-01" nType="-99"/>
          <Node pos="r" depth="2" NCoef="0" IVar="-1" Cut="0.0000000000000000e+00" cType="1" res="2.1964123006910086e-03" rms="4.5526984333992004e-01" purity="4.6082913875579834e-01" nType="-99"/>
        </Node>
        <Node pos="r" depth="1" NCoef="0" IVar="-1" Cut="0.0000000000000000e+00" cType="1" res="-2.5313312653452158e-03" rms="4.3322062492370605e-01" purity="3.3520764112472534e-01" nType="-99"/>
      </Node>
    </BinaryTree>
    <BinaryTree type="DecisionTree" boostWeight="1.0000000000000000e+00" itree="534">
      <Node pos="s" depth="0" NCoef="0" IVar="5" Cut="9.4584667682647705e-01" cType="1" res="-8.2640675827860832e-04" rms="4.5424449443817139e-01" purity="4.9983036518096924e-01" nType="0">
        <Node pos="l" depth="1" NCoef="0" IVar="4" Cut="5.6373822689056396e-01" cType="1" res="1.1790392920374870e-02" rms="4.5263618230819702e-01" purity="3.7804237008094788e-01" nType="0">
          <Node pos="l" depth="2" NCoef="0" IVar="-1" Cut="0.0000000000000000e+00" cType="1" res="3.0254456214606762e-04" rms="4.4807422161102295e-01" purity="3.5891005396842957e-01" nType="-99"/>
          <Node pos="r" depth="2" NCoef="0" IVar="-1" Cut="0.0000000000000000e+00" cType="1" res="2.3029777221381664e-03" rms="4.6876382827758789e-01" purity="4.5151394605636597e-01" nType="-99"/>
        </Node>
        <Node pos="r" depth="1" NCoef="0" IVar="1" Cut="4.5312322998046875e+02" cType="1" res="-8.9761316776275635e-03" rms="4.5509442687034607e-01" purity="5.7849836349487305e-01" nType="0">
          <Node pos="l" depth="2" NCoef="0" IVar="-1" Cut="0.0000000000000000e+00" cType="1" res="9.7394129261374474e-04" rms="4.6499437093734741e-01" purity="4.9671694636344910e-01" nType="-99"/>
          <Node pos="r" depth="2" NCoef="0" IVar="-1" Cut="0.0000000000000000e+00" cType="1" res="-1.1730982223525643e-03" rms="4.5091375708580017e-01" purity="6.0961580276489258e-01" nType="-99"/>
        </Node>
      </Node>
    </BinaryTree>
    <BinaryTree type="DecisionTree" boostWeight="1.0000000000000000e+00" itree="535">
      <Node pos="s" depth="0" NCoef="0" IVar="1" Cut="3.5826296997070312e+02" cType="1" res="2.9827246908098459e-03" rms="4.5383498072624207e-01" purity="5.0341939926147461e-01" nType="0">
        <Node pos="l" depth="1" NCoef="0" IVar="-1" Cut="0.0000000000000000e+00" cType="1" res="-2.2011750843375921e-03" rms="4.1120705008506775e-01" purity="2.8939229249954224e-01" nType="-99"/>
        <Node pos="r" depth="1" NCoef="0" IVar="4" Cut="6.7722940444946289e-01" cType="1" res="5.0270892679691315e-03" rms="4.5620882511138916e-01" purity="5.1638269424438477e-01" nType="0">
          <Node pos="l" depth="2" NCoef="0" IVar="-1" Cut="0.0000000000000000e+00" cType="1" res="1.8155945872422308e-04" rms="4.5636257529258728e-01" purity="5.0856375694274902e-01" nType="-99"/>
          <Node pos="r" depth="2" NCoef="0" IVar="-1" Cut="0.0000000000000000e+00" cType="1" res="1.7921365797519684e-03" rms="4.5385366678237915e-01" purity="6.0266900062561035e-01" nType="-99"/>
        </Node>
      </Node>
    </BinaryTree>
    <BinaryTree type="DecisionTree" boostWeight="1.0000000000000000e+00" itree="536">
      <Node pos="s" depth="0" NCoef="0" IVar="6" Cut="1.8216139078140259e+00" cType="1" res="2.1365964785218239e-03" rms="4.5636963844299316e-01" purity="5.0177621841430664e-01" nType="0">
        <Node pos="l" depth="1" NCoef="0" IVar="4" Cut="5.1197695732116699e-01" cType="1" res="-1.8801607191562653e-02" rms="4.5315170288085938e-01" purity="5.6463080644607544e-01" nType="0">
          <Node pos="l" depth="2" NCoef="0" IVar="-1" Cut="0.0000000000000000e+00" cType="1" res="-2.0046816207468510e-03" rms="4.5210769772529602e-01" purity="5.4164832830429077e-01" nType="-99"/>
          <Node pos="r" depth="2" NCoef="0" IVar="-1" Cut="0.0000000000000000e+00" cType="1" res="6.6258432343602180e-04" rms="4.5398038625717163e-01" purity="6.1370146274566650e-01" nType="-99"/>
        </Node>
        <Node pos="r" depth="1" NCoef="0" IVar="1" Cut="5.4720422363281250e+02" cType="1" res="6.6267028450965881e-03" rms="4.5693182945251465e-01" purity="4.8829728364944458e-01" nType="0">
          <Node pos="l" depth="2" NCoef="0" IVar="-1" Cut="0.0000000000000000e+00" cType="1" res="9.9014677107334137e-04" rms="4.5099478960037231e-01" purity="4.3094235658645630e-01" nType="-99"/>
          <Node pos="r" depth="2" NCoef="0" IVar="-1" Cut="0.0000000000000000e+00" cType="1" res="-2.5598064530640841e-04" rms="4.6391114592552185e-01" purity="5.5892157554626465e-01" nType="-99"/>
        </Node>
      </Node>
    </BinaryTree>
    <BinaryTree type="DecisionTree" boostWeight="1.0000000000000000e+00" itree="537">
      <Node pos="s" depth="0" NCoef="0" IVar="3" Cut="-7.0534102618694305e-02" cType="1" res="1.0523055243538693e-04" rms="4.5453155040740967e-01" purity="4.9820664525032043e-01" nType="0">
        <Node pos="l" depth="1" NCoef="0" IVar="-1" Cut="0.0000000000000000e+00" cType="1" res="2.7744548860937357e-03" rms="4.4093817472457886e-01" purity="6.2536764144897461e-01" nType="-99"/>
        <Node pos="r" depth="1" NCoef="0" IVar="8" Cut="1.0995981693267822e+00" cType="1" res="-2.5540334172546864e-03" rms="4.5520401000976562e-01" purity="4.9051991105079651e-01" nType="0">
          <Node pos="l" depth="2" NCoef="0" IVar="-1" Cut="0.0000000000000000e+00" cType="1" res="5.0768215442076325e-04" rms="4.5804226398468018e-01" purity="5.3449881076812744e-01" nType="-99"/>
          <Node pos="r" depth="2" NCoef="0" IVar="-1" Cut="0.0000000000000000e+00" cType="1" res="-9.3376607401296496e-04" rms="4.5165431499481201e-01" purity="4.4061735272407532e-01" nType="-99"/>
        </Node>
      </Node>
    </BinaryTree>
    <BinaryTree type="DecisionTree" boostWeight="1.0000000000000000e+00" itree="538">
      <Node pos="s" depth="0" NCoef="0" IVar="4" Cut="7.1162134408950806e-01" cType="1" res="4.1607473394833505e-04" rms="4.5399215817451477e-01" purity="5.0185400247573853e-01" nType="0">
        <Node pos="l" depth="1" NCoef="0" IVar="7" Cut="1.0967340850830078e+02" cType="1" res="2.5806338526308537e-03" rms="4.5387437939643860e-01" purity="5.0017130374908447e-01" nType="0">
          <Node pos="l" depth="2" NCoef="0" IVar="-1" Cut="0.0000000000000000e+00" cType="1" res="-3.6528468626784161e-05" rms="4.5416471362113953e-01" purity="4.8167300224304199e-01" nType="-99"/>
          <Node pos="r" depth="2" NCoef="0" IVar="-1" Cut="0.0000000000000000e+00" cType="1" res="1.7309875693172216e-03" rms="4.5091128349304199e-01" purity="6.4176917076110840e-01" nType="-99"/>
        </Node>
        <Node pos="r" depth="1" NCoef="0" IVar="-1" Cut="0.0000000000000000e+00" cType="1" res="-2.3570836056023836e-03" rms="4.5439767837524414e-01" purity="5.3092235326766968e-01" nType="-99"/>
      </Node>
    </BinaryTree>
    <BinaryTree type="DecisionTree" boostWeight="1.0000000000000000e+00" itree="539">
      <Node pos="s" depth="0" NCoef="0" IVar="6" Cut="2.2342770099639893e+00" cType="1" res="4.0297352825291455e-04" rms="4.5428246259689331e-01" purity="4.9792578816413879e-01" nType="0">
        <Node pos="l" depth="1" NCoef="0" IVar="7" Cut="4.9092361450195312e+01" cType="1" res="8.4513742476701736e-03" rms="4.5724070072174072e-01" purity="5.6643950939178467e-01" nType="0">
          <Node pos="l" depth="2" NCoef="0" IVar="-1" Cut="0.0000000000000000e+00" cType="1" res="-1.4093960635364056e-03" rms="4.5375871658325195e-01" purity="3.8601586222648621e-01" nType="-99"/>
          <Node pos="r" depth="2" NCoef="0" IVar="-1" Cut="0.0000000000000000e+00" cType="1" res="8.9814007515087724e-04" rms="4.5768278837203979e-01" purity="6.0218846797943115e-01" nType="-99"/>
        </Node>
        <Node pos="r" depth="1" NCoef="0" IVar="2" Cut="1.1569156646728516e+02" cType="1" res="-9.2053310945630074e-03" rms="4.5053717494010925e-01" purity="4.1613313555717468e-01" nType="0">
          <Node pos="l" depth="2" NCoef="0" IVar="-1" Cut="0.0000000000000000e+00" cType="1" res="-1.5609147958457470e-03" rms="4.4194063544273376e-01" purity="3.7605771422386169e-01" nType="-99"/>
          <Node pos="r" depth="2" NCoef="0" IVar="-1" Cut="0.0000000000000000e+00" cType="1" res="3.4314379445277154e-04" rms="4.5853054523468018e-01" purity="4.5632290840148926e-01" nType="-99"/>
        </Node>
      </Node>
    </BinaryTree>
    <BinaryTree type="DecisionTree" boostWeight="1.0000000000000000e+00" itree="540">
      <Node pos="s" depth="0" NCoef="0" IVar="1" Cut="9.5926159667968750e+02" cType="1" res="-3.1265621073544025e-03" rms="4.5351049304008484e-01" purity="4.9550318717956543e-01" nType="0">
        <Node pos="l" depth="1" NCoef="0" IVar="8" Cut="1.1541789770126343e+00" cType="1" res="-5.9680268168449402e-03" rms="4.5398086309432983e-01" purity="4.8473113775253296e-01" nType="0">
          <Node pos="l" depth="2" NCoef="0" IVar="-1" Cut="0.0000000000000000e+00" cType="1" res="1.5160314796958119e-04" rms="4.5424282550811768e-01" purity="5.2218788862228394e-01" nType="-99"/>
          <Node pos="r" depth="2" NCoef="0" IVar="-1" Cut="0.0000000000000000e+00" cType="1" res="-1.1033664923161268e-03" rms="4.5337095856666565e-01" purity="4.3354061245918274e-01" nType="-99"/>
        </Node>
        <Node pos="r" depth="1" NCoef="0" IVar="-1" Cut="0.0000000000000000e+00" cType="1" res="2.8490214608609676e-03" rms="4.4289705157279968e-01" purity="6.7537683248519897e-01" nType="-99"/>
      </Node>
    </BinaryTree>
    <BinaryTree type="DecisionTree" boostWeight="1.0000000000000000e+00" itree="541">
      <Node pos="s" depth="0" NCoef="0" IVar="8" Cut="5.6464993953704834e-01" cType="1" res="5.9838425368070602e-03" rms="4.5476958155632019e-01" purity="5.0684654712677002e-01" nType="0">
        <Node pos="l" depth="1" NCoef="0" IVar="-1" Cut="0.0000000000000000e+00" cType="1" res="-1.7589802155271173e-03" rms="4.4878411293029785e-01" purity="5.3240609169006348e-01" nType="-99"/>
        <Node pos="r" depth="1" NCoef="0" IVar="4" Cut="4.9346905946731567e-01" cType="1" res="8.0726388841867447e-03" rms="4.5505616068840027e-01" purity="5.0526118278503418e-01" nType="0">
          <Node pos="l" depth="2" NCoef="0" IVar="-1" Cut="0.0000000000000000e+00" cType="1" res="9.2133367434144020e-04" rms="4.5344105362892151e-01" purity="4.8636549711227417e-01" nType="-99"/>
          <Node pos="r" depth="2" NCoef="0" IVar="-1" Cut="0.0000000000000000e+00" cType="1" res="-3.7018980947323143e-04" rms="4.5816874504089355e-01" purity="5.4555743932723999e-01" nType="-99"/>
        </Node>
      </Node>
    </BinaryTree>
    <BinaryTree type="DecisionTree" boostWeight="1.0000000000000000e+00" itree="542">
      <Node pos="s" depth="0" NCoef="0" IVar="3" Cut="1.3066346943378448e-01" cType="1" res="-1.2882940936833620e-03" rms="4.5426407456398010e-01" purity="4.9761968851089478e-01" nType="0">
        <Node pos="l" depth="1" NCoef="0" IVar="9" Cut="7.9375821352005005e-01" cType="1" res="-5.5858185514807701e-03" rms="4.5432591438293457e-01" purity="5.0538855791091919e-01" nType="0">
          <Node pos="l" depth="2" NCoef="0" IVar="-1" Cut="0.0000000000000000e+00" cType="1" res="-4.3056617869297042e-05" rms="4.5433640480041504e-01" purity="5.3355544805526733e-01" nType="-99"/>
          <Node pos="r" depth="2" NCoef="0" IVar="-1" Cut="0.0000000000000000e+00" cType="1" res="-1.5655228635296226e-03" rms="4.5379561185836792e-01" purity="3.9730635285377502e-01" nType="-99"/>
        </Node>
        <Node pos="r" depth="1" NCoef="0" IVar="5" Cut="9.4102358818054199e-01" cType="1" res="2.5567648932337761e-02" rms="4.5295497775077820e-01" purity="4.4907078146934509e-01" nType="0">
          <Node pos="l" depth="2" NCoef="0" IVar="-1" Cut="0.0000000000000000e+00" cType="1" res="3.8176516536623240e-03" rms="4.4635254144668579e-01" purity="3.6266160011291504e-01" nType="-99"/>
          <Node pos="r" depth="2" NCoef="0" IVar="-1" Cut="0.0000000000000000e+00" cType="1" res="3.9025483420118690e-04" rms="4.5591562986373901e-01" purity="5.0248956680297852e-01" nType="-99"/>
        </Node>
      </Node>
    </BinaryTree>
    <BinaryTree type="DecisionTree" boostWeight="1.0000000000000000e+00" itree="543">
      <Node pos="s" depth="0" NCoef="0" IVar="7" Cut="9.8724403381347656e+01" cType="1" res="-6.1811031773686409e-03" rms="4.5472964644432068e-01" purity="4.9036923050880432e-01" nType="0">
        <Node pos="l" depth="1" NCoef="0" IVar="1" Cut="3.6806503295898438e+02" cType="1" res="-1.7660491866990924e-03" rms="4.5476523041725159e-01" purity="4.7295731306076050e-01" nType="0">
          <Node pos="l" depth="2" NCoef="0" IVar="-1" Cut="0.0000000000000000e+00" cType="1" res="-2.7087950147688389e-03" rms="4.1344809532165527e-01" purity="2.7519035339355469e-01" nType="-99"/>
          <Node pos="r" depth="2" NCoef="0" IVar="-1" Cut="0.0000000000000000e+00" cType="1" res="1.0846045188372955e-04" rms="4.5844301581382751e-01" purity="4.9224379658699036e-01" nType="-99"/>
        </Node>
        <Node pos="r" depth="1" NCoef="0" IVar="5" Cut="9.4473755359649658e-01" cType="1" res="-2.9776893556118011e-02" rms="4.5381176471710205e-01" purity="5.8342516422271729e-01" nType="0">
          <Node pos="l" depth="2" NCoef="0" IVar="-1" Cut="0.0000000000000000e+00" cType="1" res="-3.9032159838825464e-03" rms="4.6233674883842468e-01" purity="4.1558948159217834e-01" nType="-99"/>
          <Node pos="r" depth="2" NCoef="0" IVar="-1" Cut="0.0000000000000000e+00" cType="1" res="-7.6253589941188693e-04" rms="4.4822278618812561e-01" purity="6.7019641399383545e-01" nType="-99"/>
        </Node>
      </Node>
    </BinaryTree>
    <BinaryTree type="DecisionTree" boostWeight="1.0000000000000000e+00" itree="544">
      <Node pos="s" depth="0" NCoef="0" IVar="9" Cut="2.5161254405975342e-01" cType="1" res="-1.4328786637634039e-03" rms="4.5259404182434082e-01" purity="4.9765598773956299e-01" nType="0">
        <Node pos="l" depth="1" NCoef="0" IVar="8" Cut="1.1177797317504883e+00" cType="1" res="1.8126871436834335e-02" rms="4.5407867431640625e-01" purity="5.7137727737426758e-01" nType="0">
          <Node pos="l" depth="2" NCoef="0" IVar="-1" Cut="0.0000000000000000e+00" cType="1" res="2.7397455414757133e-04" rms="4.5294052362442017e-01" purity="5.8371412754058838e-01" nType="-99"/>
          <Node pos="r" depth="2" NCoef="0" IVar="-1" Cut="0.0000000000000000e+00" cType="1" res="2.3839483037590981e-03" rms="4.5500841736793518e-01" purity="5.5264300107955933e-01" nType="-99"/>
        </Node>
        <Node pos="r" depth="1" NCoef="0" IVar="2" Cut="1.8852993774414062e+02" cType="1" res="-4.8463325947523117e-03" rms="4.5224776864051819e-01" purity="4.8479059338569641e-01" nType="0">
          <Node pos="l" depth="2" NCoef="0" IVar="-1" Cut="0.0000000000000000e+00" cType="1" res="-1.1765368981286883e-04" rms="4.5172658562660217e-01" purity="4.8809981346130371e-01" nType="-99"/>
          <Node pos="r" depth="2" NCoef="0" IVar="-1" Cut="0.0000000000000000e+00" cType="1" res="-2.6544008869677782e-03" rms="4.5701631903648376e-01" purity="4.4418984651565552e-01" nType="-99"/>
        </Node>
      </Node>
    </BinaryTree>
    <BinaryTree type="DecisionTree" boostWeight="1.0000000000000000e+00" itree="545">
      <Node pos="s" depth="0" NCoef="0" IVar="8" Cut="6.9617235660552979e-01" cType="1" res="-9.4226573128253222e-04" rms="4.5664423704147339e-01" purity="4.9929851293563843e-01" nType="0">
        <Node pos="l" depth="1" NCoef="0" IVar="8" Cut="5.7626551389694214e-01" cType="1" res="-2.7858169749379158e-02" rms="4.5798692107200623e-01" purity="5.2798652648925781e-01" nType="0">
          <Node pos="l" depth="2" NCoef="0" IVar="-1" Cut="0.0000000000000000e+00" cType="1" res="-3.8597749080508947e-03" rms="4.6352320909500122e-01" purity="4.9998259544372559e-01" nType="-99"/>
          <Node pos="r" depth="2" NCoef="0" IVar="-1" Cut="0.0000000000000000e+00" cType="1" res="-3.0597814475186169e-04" rms="4.5263811945915222e-01" purity="5.4771733283996582e-01" nType="-99"/>
        </Node>
        <Node pos="r" depth="1" NCoef="0" IVar="2" Cut="1.1310274505615234e+02" cType="1" res="4.1455691680312157e-03" rms="4.5621156692504883e-01" purity="4.9387568235397339e-01" nType="0">
          <Node pos="l" depth="2" NCoef="0" IVar="-1" Cut="0.0000000000000000e+00" cType="1" res="-1.8175363948103040e-04" rms="4.5613124966621399e-01" purity="4.7334015369415283e-01" nType="-99"/>
          <Node pos="r" depth="2" NCoef="0" IVar="-1" Cut="0.0000000000000000e+00" cType="1" res="1.0427925735712051e-03" rms="4.5609074831008911e-01" purity="5.2961081266403198e-01" nType="-99"/>
        </Node>
      </Node>
    </BinaryTree>
    <BinaryTree type="DecisionTree" boostWeight="1.0000000000000000e+00" itree="546">
      <Node pos="s" depth="0" NCoef="0" IVar="4" Cut="2.8903433680534363e-01" cType="1" res="3.1572810839861631e-03" rms="4.5589140057563782e-01" purity="5.0356709957122803e-01" nType="0">
        <Node pos="l" depth="1" NCoef="0" IVar="3" Cut="1.0363201797008514e-01" cType="1" res="-1.1777210980653763e-02" rms="4.4944742321968079e-01" purity="4.2807158827781677e-01" nType="0">
          <Node pos="l" depth="2" NCoef="0" IVar="-1" Cut="0.0000000000000000e+00" cType="1" res="-1.8520839512348175e-03" rms="4.5471403002738953e-01" purity="4.2348256707191467e-01" nType="-99"/>
          <Node pos="r" depth="2" NCoef="0" IVar="-1" Cut="0.0000000000000000e+00" cType="1" res="4.7100050142034888e-04" rms="4.4283849000930786e-01" purity="4.3308100104331970e-01" nType="-99"/>
        </Node>
        <Node pos="r" depth="1" NCoef="0" IVar="0" Cut="2.5620946884155273e+00" cType="1" res="1.0299759916961193e-02" rms="4.5876947045326233e-01" purity="5.3967308998107910e-01" nType="0">
          <Node pos="l" depth="2" NCoef="0" IVar="-1" Cut="0.0000000000000000e+00" cType="1" res="1.4781469944864511e-03" rms="4.6730181574821472e-01" purity="4.0840932726860046e-01" nType="-99"/>
          <Node pos="r" depth="2" NCoef="0" IVar="-1" Cut="0.0000000000000000e+00" cType="1" res="-2.7888518161489628e-05" rms="4.5160228013992310e-01" purity="6.4372861385345459e-01" nType="-99"/>
        </Node>
      </Node>
    </BinaryTree>
    <BinaryTree type="DecisionTree" boostWeight="1.0000000000000000e+00" itree="547">
      <Node pos="s" depth="0" NCoef="0" IVar="7" Cut="6.4274177551269531e+01" cType="1" res="-3.7431798409670591e-04" rms="4.5492422580718994e-01" purity="4.9769231677055359e-01" nType="0">
        <Node pos="l" depth="1" NCoef="0" IVar="6" Cut="2.0339121818542480e+00" cType="1" res="8.6686788126826286e-03" rms="4.5215344429016113e-01" purity="4.2620772123336792e-01" nType="0">
          <Node pos="l" depth="2" NCoef="0" IVar="-1" Cut="0.0000000000000000e+00" cType="1" res="-8.5352297173812985e-04" rms="4.5375874638557434e-01" purity="4.6807357668876648e-01" nType="-99"/>
          <Node pos="r" depth="2" NCoef="0" IVar="-1" Cut="0.0000000000000000e+00" cType="1" res="1.1805053800344467e-03" rms="4.5115378499031067e-01" purity="4.0884914994239807e-01" nType="-99"/>
        </Node>
        <Node pos="r" depth="1" NCoef="0" IVar="9" Cut="8.2493764162063599e-01" cType="1" res="-7.6620401814579964e-03" rms="4.5701479911804199e-01" purity="5.5530154705047607e-01" nType="0">
          <Node pos="l" depth="2" NCoef="0" IVar="-1" Cut="0.0000000000000000e+00" cType="1" res="-9.5066672656685114e-05" rms="4.5596560835838318e-01" purity="5.8087074756622314e-01" nType="-99"/>
          <Node pos="r" depth="2" NCoef="0" IVar="-1" Cut="0.0000000000000000e+00" cType="1" res="-2.3689446970820427e-03" rms="4.6092459559440613e-01" purity="4.3075239658355713e-01" nType="-99"/>
        </Node>
      </Node>
    </BinaryTree>
    <BinaryTree type="DecisionTree" boostWeight="1.0000000000000000e+00" itree="548">
      <Node pos="s" depth="0" NCoef="0" IVar="2" Cut="8.3009468078613281e+01" cType="1" res="8.5139088332653046e-03" rms="4.5098844170570374e-01" purity="5.0829893350601196e-01" nType="0">
        <Node pos="l" depth="1" NCoef="0" IVar="8" Cut="1.3513232469558716e+00" cType="1" res="-6.0815569013357162e-03" rms="4.5645907521247864e-01" purity="4.6831119060516357e-01" nType="0">
          <Node pos="l" depth="2" NCoef="0" IVar="-1" Cut="0.0000000000000000e+00" cType="1" res="2.4135973944794387e-04" rms="4.5435816049575806e-01" purity="5.0288927555084229e-01" nType="-99"/>
          <Node pos="r" depth="2" NCoef="0" IVar="-1" Cut="0.0000000000000000e+00" cType="1" res="-1.7466464778408408e-03" rms="4.6012890338897705e-01" purity="3.9574864506721497e-01" nType="-99"/>
        </Node>
        <Node pos="r" depth="1" NCoef="0" IVar="8" Cut="1.4063587188720703e+00" cType="1" res="1.6879476606845856e-02" rms="4.4760823249816895e-01" purity="5.3121840953826904e-01" nType="0">
          <Node pos="l" depth="2" NCoef="0" IVar="-1" Cut="0.0000000000000000e+00" cType="1" res="6.9513928610831499e-04" rms="4.4971722364425659e-01" purity="5.3957498073577881e-01" nType="-99"/>
          <Node pos="r" depth="2" NCoef="0" IVar="-1" Cut="0.0000000000000000e+00" cType="1" res="2.6058775838464499e-03" rms="4.3817639350891113e-01" purity="4.9744039773941040e-01" nType="-99"/>
        </Node>
      </Node>
    </BinaryTree>
    <BinaryTree type="DecisionTree" boostWeight="1.0000000000000000e+00" itree="549">
      <Node pos="s" depth="0" NCoef="0" IVar="4" Cut="1.1328344047069550e-01" cType="1" res="-1.9539354834705591e-03" rms="4.5513635873794556e-01" purity="5.0002187490463257e-01" nType="0">
        <Node pos="l" depth="1" NCoef="0" IVar="-1" Cut="0.0000000000000000e+00" cType="1" res="-2.4856945965439081e-03" rms="4.3005055189132690e-01" purity="3.4305199980735779e-01" nType="-99"/>
        <Node pos="r" depth="1" NCoef="0" IVar="2" Cut="1.0606583404541016e+02" cType="1" res="5.3078524615557399e-06" rms="4.5642879605293274e-01" purity="5.0885927677154541e-01" nType="0">
          <Node pos="l" depth="2" NCoef="0" IVar="-1" Cut="0.0000000000000000e+00" cType="1" res="-5.0879991613328457e-04" rms="4.5990228652954102e-01" purity="4.8078000545501709e-01" nType="-99"/>
          <Node pos="r" depth="2" NCoef="0" IVar="-1" Cut="0.0000000000000000e+00" cType="1" res="6.9496268406510353e-04" rms="4.5157292485237122e-01" purity="5.4591983556747437e-01" nType="-99"/>
        </Node>
      </Node>
    </BinaryTree>
    <BinaryTree type="DecisionTree" boostWeight="1.0000000000000000e+00" itree="550">
      <Node pos="s" depth="0" NCoef="0" IVar="0" Cut="4.6098389625549316e+00" cType="1" res="4.4533102773129940e-03" rms="4.5338276028633118e-01" purity="5.0660520792007446e-01" nType="0">
        <Node pos="l" depth="1" NCoef="0" IVar="2" Cut="8.2181449890136719e+01" cType="1" res="7.3453871300444007e-04" rms="4.6089112758636475e-01" purity="4.6258005499839783e-01" nType="0">
          <Node pos="l" depth="2" NCoef="0" IVar="-1" Cut="0.0000000000000000e+00" cType="1" res="-7.2778295725584030e-04" rms="4.6429312229156494e-01" purity="4.2522960901260376e-01" nType="-99"/>
          <Node pos="r" depth="2" NCoef="0" IVar="-1" Cut="0.0000000000000000e+00" cType="1" res="4.7942495439201593e-04" rms="4.5884034037590027e-01" purity="4.8332399129867554e-01" nType="-99"/>
        </Node>
        <Node pos="r" depth="1" NCoef="0" IVar="3" Cut="4.7654870897531509e-02" cType="1" res="2.7111595496535301e-02" rms="4.0389603376388550e-01" purity="7.7484822273254395e-01" nType="0">
          <Node pos="l" depth="2" NCoef="0" IVar="-1" Cut="0.0000000000000000e+00" cType="1" res="9.9402968771755695e-04" rms="3.9977261424064636e-01" purity="7.8470194339752197e-01" nType="-99"/>
          <Node pos="r" depth="2" NCoef="0" IVar="-1" Cut="0.0000000000000000e+00" cType="1" res="3.3762438688427210e-03" rms="4.0922087430953979e-01" purity="7.5953352451324463e-01" nType="-99"/>
        </Node>
      </Node>
    </BinaryTree>
    <BinaryTree type="DecisionTree" boostWeight="1.0000000000000000e+00" itree="551">
      <Node pos="s" depth="0" NCoef="0" IVar="6" Cut="1.9045677185058594e+00" cType="1" res="-1.4730454422533512e-03" rms="4.5570185780525208e-01" purity="4.9745219945907593e-01" nType="0">
        <Node pos="l" depth="1" NCoef="0" IVar="3" Cut="-2.1800871938467026e-02" cType="1" res="1.4438682235777378e-02" rms="4.5380616188049316e-01" purity="5.9402066469192505e-01" nType="0">
          <Node pos="l" depth="2" NCoef="0" IVar="-1" Cut="0.0000000000000000e+00" cType="1" res="-7.8241393202915788e-04" rms="4.6120682358741760e-01" purity="5.8897799253463745e-01" nType="-99"/>
          <Node pos="r" depth="2" NCoef="0" IVar="-1" Cut="0.0000000000000000e+00" cType="1" res="1.6410429961979389e-03" rms="4.4990608096122742e-01" purity="5.9628820419311523e-01" nType="-99"/>
        </Node>
        <Node pos="r" depth="1" NCoef="0" IVar="6" Cut="2.5486471652984619e+00" cType="1" res="-5.8138668537139893e-03" rms="4.5612129569053650e-01" purity="4.7110772132873535e-01" nType="0">
          <Node pos="l" depth="2" NCoef="0" IVar="-1" Cut="0.0000000000000000e+00" cType="1" res="-6.8057526368647814e-04" rms="4.5938450098037720e-01" purity="5.0702142715454102e-01" nType="-99"/>
          <Node pos="r" depth="2" NCoef="0" IVar="-1" Cut="0.0000000000000000e+00" cType="1" res="8.4080075612291694e-04" rms="4.4401606917381287e-01" purity="3.4518840909004211e-01" nType="-99"/>
        </Node>
      </Node>
    </BinaryTree>
    <BinaryTree type="DecisionTree" boostWeight="1.0000000000000000e+00" itree="552">
      <Node pos="s" depth="0" NCoef="0" IVar="2" Cut="1.0695841217041016e+02" cType="1" res="1.5049822395667434e-03" rms="4.5783400535583496e-01" purity="4.9723815917968750e-01" nType="0">
        <Node pos="l" depth="1" NCoef="0" IVar="0" Cut="2.3716111183166504e+00" cType="1" res="-5.6837243027985096e-03" rms="4.6132364869117737e-01" purity="4.6917313337326050e-01" nType="0">
          <Node pos="l" depth="2" NCoef="0" IVar="-1" Cut="0.0000000000000000e+00" cType="1" res="6.5108004491776228e-04" rms="4.5392590761184692e-01" purity="3.3791211247444153e-01" nType="-99"/>
          <Node pos="r" depth="2" NCoef="0" IVar="-1" Cut="0.0000000000000000e+00" cType="1" res="-9.8749063909053802e-04" rms="4.6613934636116028e-01" purity="5.6130206584930420e-01" nType="-99"/>
        </Node>
        <Node pos="r" depth="1" NCoef="0" IVar="8" Cut="1.3028247356414795e+00" cType="1" res="1.0922575369477272e-02" rms="4.5304918289184570e-01" purity="5.3400474786758423e-01" nType="0">
          <Node pos="l" depth="2" NCoef="0" IVar="-1" Cut="0.0000000000000000e+00" cType="1" res="1.7196433327626437e-04" rms="4.5321476459503174e-01" purity="5.4549515247344971e-01" nType="-99"/>
          <Node pos="r" depth="2" NCoef="0" IVar="-1" Cut="0.0000000000000000e+00" cType="1" res="2.2725223097950220e-03" rms="4.5166051387786865e-01" purity="4.9958255887031555e-01" nType="-99"/>
        </Node>
      </Node>
    </BinaryTree>
    <BinaryTree type="DecisionTree" boostWeight="1.0000000000000000e+00" itree="553">
      <Node pos="s" depth="0" NCoef="0" IVar="7" Cut="6.0827785491943359e+01" cType="1" res="-1.3308307388797402e-03" rms="4.5512014627456665e-01" purity="4.9635687470436096e-01" nType="0">
        <Node pos="l" depth="1" NCoef="0" IVar="9" Cut="3.0258551239967346e-01" cType="1" res="1.2306685559451580e-02" rms="4.5017561316490173e-01" purity="4.1625458002090454e-01" nType="0">
          <Node pos="l" depth="2" NCoef="0" IVar="-1" Cut="0.0000000000000000e+00" cType="1" res="-1.5436671674251556e-03" rms="4.4979354739189148e-01" purity="4.1290989518165588e-01" nType="-99"/>
          <Node pos="r" depth="2" NCoef="0" IVar="-1" Cut="0.0000000000000000e+00" cType="1" res="1.3538778293877840e-03" rms="4.4983130693435669e-01" purity="4.1702210903167725e-01" nType="-99"/>
        </Node>
        <Node pos="r" depth="1" NCoef="0" IVar="9" Cut="2.5143700838088989e-01" cType="1" res="-9.8108500242233276e-03" rms="4.5796310901641846e-01" purity="5.4616570472717285e-01" nType="0">
          <Node pos="l" depth="2" NCoef="0" IVar="-1" Cut="0.0000000000000000e+00" cType="1" res="7.6394784264266491e-04" rms="4.4148191809654236e-01" purity="6.2111973762512207e-01" nType="-99"/>
          <Node pos="r" depth="2" NCoef="0" IVar="-1" Cut="0.0000000000000000e+00" cType="1" res="-8.6249597370624542e-04" rms="4.6086320281028748e-01" purity="5.3214520215988159e-01" nType="-99"/>
        </Node>
      </Node>
    </BinaryTree>
    <BinaryTree type="DecisionTree" boostWeight="1.0000000000000000e+00" itree="554">
      <Node pos="s" depth="0" NCoef="0" IVar="1" Cut="8.4938598632812500e+02" cType="1" res="-5.0427452661097050e-03" rms="4.5250609517097473e-01" purity="4.9424141645431519e-01" nType="0">
        <Node pos="l" depth="1" NCoef="0" IVar="5" Cut="9.7630113363265991e-01" cType="1" res="-8.1618614494800568e-03" rms="4.5309922099113464e-01" purity="4.7843515872955322e-01" nType="0">
          <Node pos="l" depth="2" NCoef="0" IVar="-1" Cut="0.0000000000000000e+00" cType="1" res="-7.8772049164399505e-04" rms="4.5836782455444336e-01" purity="4.2349749803543091e-01" nType="-99"/>
          <Node pos="r" depth="2" NCoef="0" IVar="-1" Cut="0.0000000000000000e+00" cType="1" res="8.0962851643562317e-04" rms="4.2951124906539917e-01" purity="7.1106749773025513e-01" nType="-99"/>
        </Node>
        <Node pos="r" depth="1" NCoef="0" IVar="-1" Cut="0.0000000000000000e+00" cType="1" res="1.7495451029390097e-03" rms="4.4506257772445679e-01" purity="6.5738677978515625e-01" nType="-99"/>
      </Node>
    </BinaryTree>
    <BinaryTree type="DecisionTree" boostWeight="1.0000000000000000e+00" itree="555">
      <Node pos="s" depth="0" NCoef="0" IVar="8" Cut="1.4473636150360107e+00" cType="1" res="2.3315269500017166e-03" rms="4.5427933335304260e-01" purity="5.0305134057998657e-01" nType="0">
        <Node pos="l" depth="1" NCoef="0" IVar="1" Cut="5.3567999267578125e+02" cType="1" res="7.0749782025814056e-03" rms="4.5628508925437927e-01" purity="5.2229946851730347e-01" nType="0">
          <Node pos="l" depth="2" NCoef="0" IVar="-1" Cut="0.0000000000000000e+00" cType="1" res="1.1273325653746724e-03" rms="4.5694380998611450e-01" purity="4.6048301458358765e-01" nType="-99"/>
          <Node pos="r" depth="2" NCoef="0" IVar="-1" Cut="0.0000000000000000e+00" cType="1" res="-1.9473009160719812e-04" rms="4.5543038845062256e-01" purity="5.8016592264175415e-01" nType="-99"/>
        </Node>
        <Node pos="r" depth="1" NCoef="0" IVar="4" Cut="3.7709677219390869e-01" cType="1" res="-1.7154980450868607e-02" rms="4.4541513919830322e-01" purity="4.2397826910018921e-01" nType="0">
          <Node pos="l" depth="2" NCoef="0" IVar="-1" Cut="0.0000000000000000e+00" cType="1" res="-2.8227216098457575e-03" rms="4.3631720542907715e-01" purity="3.3649355173110962e-01" nType="-99"/>
          <Node pos="r" depth="2" NCoef="0" IVar="-1" Cut="0.0000000000000000e+00" cType="1" res="4.2807674617506564e-04" rms="4.5239409804344177e-01" purity="5.0539064407348633e-01" nType="-99"/>
        </Node>
      </Node>
    </BinaryTree>
    <BinaryTree type="DecisionTree" boostWeight="1.0000000000000000e+00" itree="556">
      <Node pos="s" depth="0" NCoef="0" IVar="5" Cut="9.7618728876113892e-01" cType="1" res="7.2320370236411691e-04" rms="4.5601996779441833e-01" purity="5.0057792663574219e-01" nType="0">
        <Node pos="l" depth="1" NCoef="0" IVar="3" Cut="1.6371808946132660e-01" cType="1" res="5.1544201560318470e-03" rms="4.6050521731376648e-01" purity="4.5555773377418518e-01" nType="0">
          <Node pos="l" depth="2" NCoef="0" IVar="-1" Cut="0.0000000000000000e+00" cType="1" res="1.1868072760989890e-04" rms="4.5997571945190430e-01" purity="4.5770698785781860e-01" nType="-99"/>
          <Node pos="r" depth="2" NCoef="0" IVar="-1" Cut="0.0000000000000000e+00" cType="1" res="2.5432265829294920e-03" rms="4.6477282047271729e-01" purity="4.3234014511108398e-01" nType="-99"/>
        </Node>
        <Node pos="r" depth="1" NCoef="0" IVar="6" Cut="2.3492002487182617e+00" cType="1" res="-1.8376195803284645e-02" rms="4.3564453721046448e-01" purity="6.9462347030639648e-01" nType="0">
          <Node pos="l" depth="2" NCoef="0" IVar="-1" Cut="0.0000000000000000e+00" cType="1" res="-6.1632663710042834e-04" rms="4.2310002446174622e-01" purity="7.4567079544067383e-01" nType="-99"/>
          <Node pos="r" depth="2" NCoef="0" IVar="-1" Cut="0.0000000000000000e+00" cType="1" res="-2.8041235636919737e-03" rms="4.6533188223838806e-01" purity="5.6318706274032593e-01" nType="-99"/>
        </Node>
      </Node>
    </BinaryTree>
    <BinaryTree type="DecisionTree" boostWeight="1.0000000000000000e+00" itree="557">
      <Node pos="s" depth="0" NCoef="0" IVar="8" Cut="6.2998974323272705e-01" cType="1" res="3.1443790066987276e-03" rms="4.5547240972518921e-01" purity="5.0036585330963135e-01" nType="0">
        <Node pos="l" depth="1" NCoef="0" IVar="0" Cut="2.7599380016326904e+00" cType="1" res="2.4857129901647568e-02" rms="4.5079502463340759e-01" purity="5.7949095964431763e-01" nType="0">
          <Node pos="l" depth="2" NCoef="0" IVar="-1" Cut="0.0000000000000000e+00" cType="1" res="2.5771800428628922e-03" rms="4.7355133295059204e-01" purity="4.6505394577980042e-01" nType="-99"/>
          <Node pos="r" depth="2" NCoef="0" IVar="-1" Cut="0.0000000000000000e+00" cType="1" res="5.3512671729549766e-04" rms="4.2758703231811523e-01" purity="6.8724066019058228e-01" nType="-99"/>
        </Node>
        <Node pos="r" depth="1" NCoef="0" IVar="0" Cut="9.2843610048294067e-01" cType="1" res="5.5455556139349937e-04" rms="4.5595809817314148e-01" purity="4.9092802405357361e-01" nType="0">
          <Node pos="l" depth="2" NCoef="0" IVar="-1" Cut="0.0000000000000000e+00" cType="1" res="-2.1428135223686695e-03" rms="4.1215038299560547e-01" purity="2.4753676354885101e-01" nType="-99"/>
          <Node pos="r" depth="2" NCoef="0" IVar="-1" Cut="0.0000000000000000e+00" cType="1" res="1.5446482575498521e-04" rms="4.5867833495140076e-01" purity="5.0723266601562500e-01" nType="-99"/>
        </Node>
      </Node>
    </BinaryTree>
    <BinaryTree type="DecisionTree" boostWeight="1.0000000000000000e+00" itree="558">
      <Node pos="s" depth="0" NCoef="0" IVar="8" Cut="1.6385000944137573e+00" cType="1" res="3.1735785305500031e-03" rms="4.5679461956024170e-01" purity="5.0426745414733887e-01" nType="0">
        <Node pos="l" depth="1" NCoef="0" IVar="7" Cut="7.0014701843261719e+01" cType="1" res="-9.2020089505240321e-04" rms="4.5760625600814819e-01" purity="5.0934803485870361e-01" nType="0">
          <Node pos="l" depth="2" NCoef="0" IVar="-1" Cut="0.0000000000000000e+00" cType="1" res="5.5765832075849175e-04" rms="4.5426991581916809e-01" purity="4.5543029904365540e-01" nType="-99"/>
          <Node pos="r" depth="2" NCoef="0" IVar="-1" Cut="0.0000000000000000e+00" cType="1" res="-7.4400351149961352e-04" rms="4.6107912063598633e-01" purity="5.6994456052780151e-01" nType="-99"/>
        </Node>
        <Node pos="r" depth="1" NCoef="0" IVar="6" Cut="2.1544764041900635e+00" cType="1" res="3.6534361541271210e-02" rms="4.4873577356338501e-01" purity="4.6286541223526001e-01" nType="0">
          <Node pos="l" depth="2" NCoef="0" IVar="-1" Cut="0.0000000000000000e+00" cType="1" res="8.9916359866037965e-04" rms="4.4918468594551086e-01" purity="5.2296066284179688e-01" nType="-99"/>
          <Node pos="r" depth="2" NCoef="0" IVar="-1" Cut="0.0000000000000000e+00" cType="1" res="3.8240712601691484e-03" rms="4.4747695326805115e-01" purity="4.1102916002273560e-01" nType="-99"/>
        </Node>
      </Node>
    </BinaryTree>
    <BinaryTree type="DecisionTree" boostWeight="1.0000000000000000e+00" itree="559">
      <Node pos="s" depth="0" NCoef="0" IVar="1" Cut="5.7680139160156250e+02" cType="1" res="5.7630632072687149e-03" rms="4.5182353258132935e-01" purity="5.0508987903594971e-01" nType="0">
        <Node pos="l" depth="1" NCoef="0" IVar="8" Cut="9.8612397909164429e-01" cType="1" res="-1.6102317022159696e-03" rms="4.5027124881744385e-01" purity="4.4109502434730530e-01" nType="0">
          <Node pos="l" depth="2" NCoef="0" IVar="-1" Cut="0.0000000000000000e+00" cType="1" res="9.2934689018875360e-04" rms="4.5583808422088623e-01" purity="4.9779653549194336e-01" nType="-99"/>
          <Node pos="r" depth="2" NCoef="0" IVar="-1" Cut="0.0000000000000000e+00" cType="1" res="-7.3743489338085055e-04" rms="4.4664424657821655e-01" purity="4.0743270516395569e-01" nType="-99"/>
        </Node>
        <Node pos="r" depth="1" NCoef="0" IVar="0" Cut="2.8049733638763428e+00" cType="1" res="1.7592608928680420e-02" rms="4.5405283570289612e-01" purity="6.0776180028915405e-01" nType="0">
          <Node pos="l" depth="2" NCoef="0" IVar="-1" Cut="0.0000000000000000e+00" cType="1" res="1.9989120773971081e-03" rms="4.7732838988304138e-01" purity="5.0240814685821533e-01" nType="-99"/>
          <Node pos="r" depth="2" NCoef="0" IVar="-1" Cut="0.0000000000000000e+00" cType="1" res="2.3259423323906958e-04" rms="4.3300977349281311e-01" purity="6.9637334346771240e-01" nType="-99"/>
        </Node>
      </Node>
    </BinaryTree>
    <BinaryTree type="DecisionTree" boostWeight="1.0000000000000000e+00" itree="560">
      <Node pos="s" depth="0" NCoef="0" IVar="2" Cut="1.0560594177246094e+02" cType="1" res="1.4649055665358901e-03" rms="4.5348191261291504e-01" purity="4.9991503357887268e-01" nType="0">
        <Node pos="l" depth="1" NCoef="0" IVar="2" Cut="4.2200119018554688e+01" cType="1" res="-8.0833313986659050e-03" rms="4.5500463247299194e-01" purity="4.6903699636459351e-01" nType="0">
          <Node pos="l" depth="2" NCoef="0" IVar="-1" Cut="0.0000000000000000e+00" cType="1" res="-3.1806661281734705e-03" rms="4.5382738113403320e-01" purity="4.0282797813415527e-01" nType="-99"/>
          <Node pos="r" depth="2" NCoef="0" IVar="-1" Cut="0.0000000000000000e+00" cType="1" res="-1.7681648023426533e-04" rms="4.5486193895339966e-01" purity="4.7694104909896851e-01" nType="-99"/>
        </Node>
        <Node pos="r" depth="1" NCoef="0" IVar="3" Cut="-4.4672675430774689e-02" cType="1" res="1.3928450644016266e-02" rms="4.5118263363838196e-01" purity="5.4022079706192017e-01" nType="0">
          <Node pos="l" depth="2" NCoef="0" IVar="-1" Cut="0.0000000000000000e+00" cType="1" res="2.9796652961522341e-03" rms="4.4033059477806091e-01" purity="6.5671712160110474e-01" nType="-99"/>
          <Node pos="r" depth="2" NCoef="0" IVar="-1" Cut="0.0000000000000000e+00" cType="1" res="5.0891563296318054e-04" rms="4.5291849970817566e-01" purity="5.1866638660430908e-01" nType="-99"/>
        </Node>
      </Node>
    </BinaryTree>
    <BinaryTree type="DecisionTree" boostWeight="1.0000000000000000e+00" itree="561">
      <Node pos="s" depth="0" NCoef="0" IVar="1" Cut="9.1966912841796875e+02" cType="1" res="5.6324768811464310e-03" rms="4.5491605997085571e-01" purity="5.0629770755767822e-01" nType="0">
        <Node pos="l" depth="1" NCoef="0" IVar="9" Cut="7.3156750202178955e-01" cType="1" res="2.9969043098390102e-03" rms="4.5551550388336182e-01" purity="4.9416705965995789e-01" nType="0">
          <Node pos="l" depth="2" NCoef="0" IVar="-1" Cut="0.0000000000000000e+00" cType="1" res="-1.0309460049029440e-04" rms="4.5633384585380554e-01" purity="5.1723450422286987e-01" nType="-99"/>
          <Node pos="r" depth="2" NCoef="0" IVar="-1" Cut="0.0000000000000000e+00" cType="1" res="1.0041727218776941e-03" rms="4.5303189754486084e-01" purity="4.3120598793029785e-01" nType="-99"/>
        </Node>
        <Node pos="r" depth="1" NCoef="0" IVar="-1" Cut="0.0000000000000000e+00" cType="1" res="2.7127778157591820e-03" rms="4.4486290216445923e-01" purity="6.7525589466094971e-01" nType="-99"/>
      </Node>
    </BinaryTree>
    <BinaryTree type="DecisionTree" boostWeight="1.0000000000000000e+00" itree="562">
      <Node pos="s" depth="0" NCoef="0" IVar="0" Cut="1.2928344011306763e+00" cType="1" res="-6.0658110305666924e-03" rms="4.5229640603065491e-01" purity="4.9299901723861694e-01" nType="0">
        <Node pos="l" depth="1" NCoef="0" IVar="7" Cut="6.4707992553710938e+01" cType="1" res="-2.7138430625200272e-02" rms="4.1844984889030457e-01" purity="2.6391887664794922e-01" nType="0">
          <Node pos="l" depth="2" NCoef="0" IVar="-1" Cut="0.0000000000000000e+00" cType="1" res="-3.6908923648297787e-03" rms="3.7993797659873962e-01" purity="1.8449267745018005e-01" nType="-99"/>
          <Node pos="r" depth="2" NCoef="0" IVar="-1" Cut="0.0000000000000000e+00" cType="1" res="-6.4622156787663698e-04" rms="4.5357134938240051e-01" purity="3.4455844759941101e-01" nType="-99"/>
        </Node>
        <Node pos="r" depth="1" NCoef="0" IVar="0" Cut="3.5751566886901855e+00" cType="1" res="-3.0519997235387564e-03" rms="4.5685282349586487e-01" purity="5.2576214075088501e-01" nType="0">
          <Node pos="l" depth="2" NCoef="0" IVar="-1" Cut="0.0000000000000000e+00" cType="1" res="-5.0331477541476488e-04" rms="4.6669620275497437e-01" purity="4.3447944521903992e-01" nType="-99"/>
          <Node pos="r" depth="2" NCoef="0" IVar="-1" Cut="0.0000000000000000e+00" cType="1" res="4.2714440496638417e-04" rms="4.3841621279716492e-01" purity="6.9006073474884033e-01" nType="-99"/>
        </Node>
      </Node>
    </BinaryTree>
    <BinaryTree type="DecisionTree" boostWeight="1.0000000000000000e+00" itree="563">
      <Node pos="s" depth="0" NCoef="0" IVar="9" Cut="1.0379418134689331e+00" cType="1" res="-2.8680376708507538e-03" rms="4.5672222971916199e-01" purity="4.9745213985443115e-01" nType="0">
        <Node pos="l" depth="1" NCoef="0" IVar="0" Cut="2.2408154010772705e+00" cType="1" res="-4.9574603326618671e-03" rms="4.5693334937095642e-01" purity="5.0505346059799194e-01" nType="0">
          <Node pos="l" depth="2" NCoef="0" IVar="-1" Cut="0.0000000000000000e+00" cType="1" res="4.5576962293125689e-04" rms="4.5501664280891418e-01" purity="3.5435268282890320e-01" nType="-99"/>
          <Node pos="r" depth="2" NCoef="0" IVar="-1" Cut="0.0000000000000000e+00" cType="1" res="-7.0337939541786909e-04" rms="4.5783558487892151e-01" purity="5.8641850948333740e-01" nType="-99"/>
        </Node>
        <Node pos="r" depth="1" NCoef="0" IVar="-1" Cut="0.0000000000000000e+00" cType="1" res="1.8221586942672729e-03" rms="4.5259931683540344e-01" purity="3.8791501522064209e-01" nType="-99"/>
      </Node>
    </BinaryTree>
    <BinaryTree type="DecisionTree" boostWeight="1.0000000000000000e+00" itree="564">
      <Node pos="s" depth="0" NCoef="0" IVar="3" Cut="1.1490818113088608e-01" cType="1" res="-1.0943169036181644e-04" rms="4.5835360884666443e-01" purity="5.0371670722961426e-01" nType="0">
        <Node pos="l" depth="1" NCoef="0" IVar="8" Cut="1.4560658931732178e+00" cType="1" res="3.8300962187349796e-03" rms="4.5952242612838745e-01" purity="5.2244675159454346e-01" nType="0">
          <Node pos="l" depth="2" NCoef="0" IVar="-1" Cut="0.0000000000000000e+00" cType="1" res="-1.8664302842807956e-05" rms="4.5917761325836182e-01" purity="5.3284138441085815e-01" nType="-99"/>
          <Node pos="r" depth="2" NCoef="0" IVar="-1" Cut="0.0000000000000000e+00" cType="1" res="1.3249005423858762e-03" rms="4.6056413650512695e-01" purity="4.7877040505409241e-01" nType="-99"/>
        </Node>
        <Node pos="r" depth="1" NCoef="0" IVar="4" Cut="2.3151008784770966e-01" cType="1" res="-1.9469721242785454e-02" rms="4.5206713676452637e-01" purity="4.1166999936103821e-01" nType="0">
          <Node pos="l" depth="2" NCoef="0" IVar="-1" Cut="0.0000000000000000e+00" cType="1" res="8.0954363511409611e-05" rms="4.5329952239990234e-01" purity="4.1006621718406677e-01" nType="-99"/>
          <Node pos="r" depth="2" NCoef="0" IVar="-1" Cut="0.0000000000000000e+00" cType="1" res="-3.4545785747468472e-03" rms="4.4782647490501404e-01" purity="4.1436892747879028e-01" nType="-99"/>
        </Node>
      </Node>
    </BinaryTree>
    <BinaryTree type="DecisionTree" boostWeight="1.0000000000000000e+00" itree="565">
      <Node pos="s" depth="0" NCoef="0" IVar="9" Cut="4.9736252427101135e-01" cType="1" res="3.3115143887698650e-03" rms="4.5381405949592590e-01" purity="5.0322288274765015e-01" nType="0">
        <Node pos="l" depth="1" NCoef="0" IVar="2" Cut="1.4757928466796875e+02" cType="1" res="1.4355177991092205e-02" rms="4.5318570733070374e-01" purity="5.5784398317337036e-01" nType="0">
          <Node pos="l" depth="2" NCoef="0" IVar="-1" Cut="0.0000000000000000e+00" cType="1" res="5.2439456339925528e-04" rms="4.5308935642242432e-01" purity="5.4556989669799805e-01" nType="-99"/>
          <Node pos="r" depth="2" NCoef="0" IVar="-1" Cut="0.0000000000000000e+00" cType="1" res="3.2700290903449059e-03" rms="4.5198386907577515e-01" purity="6.3577616214752197e-01" nType="-99"/>
        </Node>
        <Node pos="r" depth="1" NCoef="0" IVar="7" Cut="5.0222537994384766e+01" cType="1" res="-6.3272058032453060e-03" rms="4.5414236187934875e-01" purity="4.5555061101913452e-01" nType="0">
          <Node pos="l" depth="2" NCoef="0" IVar="-1" Cut="0.0000000000000000e+00" cType="1" res="1.2357098748907447e-03" rms="4.4090545177459717e-01" purity="3.5429030656814575e-01" nType="-99"/>
          <Node pos="r" depth="2" NCoef="0" IVar="-1" Cut="0.0000000000000000e+00" cType="1" res="-7.5165810994803905e-04" rms="4.5703938603401184e-01" purity="4.7959062457084656e-01" nType="-99"/>
        </Node>
      </Node>
    </BinaryTree>
    <BinaryTree type="DecisionTree" boostWeight="1.0000000000000000e+00" itree="566">
      <Node pos="s" depth="0" NCoef="0" IVar="4" Cut="5.2809929847717285e-01" cType="1" res="-3.1312250066548586e-03" rms="4.5474782586097717e-01" purity="4.9743166565895081e-01" nType="0">
        <Node pos="l" depth="1" NCoef="0" IVar="3" Cut="-3.4504193812608719e-02" cType="1" res="-8.1239603459835052e-03" rms="4.5486110448837280e-01" purity="4.7147554159164429e-01" nType="0">
          <Node pos="l" depth="2" NCoef="0" IVar="-1" Cut="0.0000000000000000e+00" cType="1" res="-2.2763488814234734e-03" rms="4.5492136478424072e-01" purity="4.9377578496932983e-01" nType="-99"/>
          <Node pos="r" depth="2" NCoef="0" IVar="-1" Cut="0.0000000000000000e+00" cType="1" res="-2.8479710454121232e-04" rms="4.5472574234008789e-01" purity="4.6865737438201904e-01" nType="-99"/>
        </Node>
        <Node pos="r" depth="1" NCoef="0" IVar="1" Cut="6.0413287353515625e+02" cType="1" res="1.0345084592700005e-02" rms="4.5416796207427979e-01" purity="5.6749206781387329e-01" nType="0">
          <Node pos="l" depth="2" NCoef="0" IVar="-1" Cut="0.0000000000000000e+00" cType="1" res="1.2107531074434519e-03" rms="4.5403555035591125e-01" purity="5.4175418615341187e-01" nType="-99"/>
          <Node pos="r" depth="2" NCoef="0" IVar="-1" Cut="0.0000000000000000e+00" cType="1" res="-1.1718675959855318e-03" rms="4.5341819524765015e-01" purity="6.4523005485534668e-01" nType="-99"/>
        </Node>
      </Node>
    </BinaryTree>
    <BinaryTree type="DecisionTree" boostWeight="1.0000000000000000e+00" itree="567">
      <Node pos="s" depth="0" NCoef="0" IVar="9" Cut="7.4476110935211182e-01" cType="1" res="3.7924703792668879e-04" rms="4.5461371541023254e-01" purity="4.9876987934112549e-01" nType="0">
        <Node pos="l" depth="1" NCoef="0" IVar="6" Cut="2.2653572559356689e+00" cType="1" res="-5.0897388719022274e-03" rms="4.5388305187225342e-01" purity="5.1983654499053955e-01" nType="0">
          <Node pos="l" depth="2" NCoef="0" IVar="-1" Cut="0.0000000000000000e+00" cType="1" res="2.9732089024037123e-04" rms="4.5459365844726562e-01" purity="5.6826025247573853e-01" nType="-99"/>
          <Node pos="r" depth="2" NCoef="0" IVar="-1" Cut="0.0000000000000000e+00" cType="1" res="-1.6789978835731745e-03" rms="4.5164451003074646e-01" purity="4.1664704680442810e-01" nType="-99"/>
        </Node>
        <Node pos="r" depth="1" NCoef="0" IVar="0" Cut="1.5714879035949707e+00" cType="1" res="1.6709238290786743e-02" rms="4.5639875531196594e-01" purity="4.3586629629135132e-01" nType="0">
          <Node pos="l" depth="2" NCoef="0" IVar="-1" Cut="0.0000000000000000e+00" cType="1" res="3.8991407491266727e-03" rms="4.3630492687225342e-01" purity="2.9688039422035217e-01" nType="-99"/>
          <Node pos="r" depth="2" NCoef="0" IVar="-1" Cut="0.0000000000000000e+00" cType="1" res="5.2322988631203771e-04" rms="4.6108400821685791e-01" purity="4.7172617912292480e-01" nType="-99"/>
        </Node>
      </Node>
    </BinaryTree>
    <BinaryTree type="DecisionTree" boostWeight="1.0000000000000000e+00" itree="568">
      <Node pos="s" depth="0" NCoef="0" IVar="8" Cut="5.5161166191101074e-01" cType="1" res="2.2630668245255947e-03" rms="4.5303511619567871e-01" purity="5.0035893917083740e-01" nType="0">
        <Node pos="l" depth="1" NCoef="0" IVar="-1" Cut="0.0000000000000000e+00" cType="1" res="2.8480116743594408e-03" rms="4.5315769314765930e-01" purity="6.1918354034423828e-01" nType="-99"/>
        <Node pos="r" depth="1" NCoef="0" IVar="4" Cut="1.5752775967121124e-01" cType="1" res="-9.0778143203351647e-05" rms="4.5291021466255188e-01" purity="4.9387493729591370e-01" nType="0">
          <Node pos="l" depth="2" NCoef="0" IVar="-1" Cut="0.0000000000000000e+00" cType="1" res="-1.6175385098904371e-03" rms="4.3643370270729065e-01" purity="3.6815890669822693e-01" nType="-99"/>
          <Node pos="r" depth="2" NCoef="0" IVar="-1" Cut="0.0000000000000000e+00" cType="1" res="1.7609415226615965e-04" rms="4.5473006367683411e-01" purity="5.0872856378555298e-01" nType="-99"/>
        </Node>
      </Node>
    </BinaryTree>
    <BinaryTree type="DecisionTree" boostWeight="1.0000000000000000e+00" itree="569">
      <Node pos="s" depth="0" NCoef="0" IVar="6" Cut="2.1474173069000244e+00" cType="1" res="-2.1965457126498222e-03" rms="4.5576930046081543e-01" purity="4.9740538001060486e-01" nType="0">
        <Node pos="l" depth="1" NCoef="0" IVar="5" Cut="9.7616189718246460e-01" cType="1" res="9.0547641739249229e-03" rms="4.5738741755485535e-01" purity="5.7421046495437622e-01" nType="0">
          <Node pos="l" depth="2" NCoef="0" IVar="-1" Cut="0.0000000000000000e+00" cType="1" res="9.0032210573554039e-04" rms="4.6626931428909302e-01" purity="5.3178983926773071e-01" nType="-99"/>
          <Node pos="r" depth="2" NCoef="0" IVar="-1" Cut="0.0000000000000000e+00" cType="1" res="-1.2674346799030900e-03" rms="4.1867864131927490e-01" purity="7.4540072679519653e-01" nType="-99"/>
        </Node>
        <Node pos="r" depth="1" NCoef="0" IVar="9" Cut="2.5850233435630798e-01" cType="1" res="-1.0226111859083176e-02" rms="4.5444068312644958e-01" purity="4.4259291887283325e-01" nType="0">
          <Node pos="l" depth="2" NCoef="0" IVar="-1" Cut="0.0000000000000000e+00" cType="1" res="-3.2612546347081661e-03" rms="4.6236056089401245e-01" purity="4.6047711372375488e-01" nType="-99"/>
          <Node pos="r" depth="2" NCoef="0" IVar="-1" Cut="0.0000000000000000e+00" cType="1" res="-4.0311855264008045e-04" rms="4.5349171757698059e-01" purity="4.4090250134468079e-01" nType="-99"/>
        </Node>
      </Node>
    </BinaryTree>
    <BinaryTree type="DecisionTree" boostWeight="1.0000000000000000e+00" itree="570">
      <Node pos="s" depth="0" NCoef="0" IVar="5" Cut="9.4090473651885986e-01" cType="1" res="-9.1981521109119058e-04" rms="4.5656266808509827e-01" purity="4.9801954627037048e-01" nType="0">
        <Node pos="l" depth="1" NCoef="0" IVar="0" Cut="1.2847117185592651e+00" cType="1" res="1.3848116621375084e-02" rms="4.5325422286987305e-01" purity="3.6850556731224060e-01" nType="0">
          <Node pos="l" depth="2" NCoef="0" IVar="-1" Cut="0.0000000000000000e+00" cType="1" res="-9.7394082695245743e-04" rms="4.2244386672973633e-01" purity="2.5271910429000854e-01" nType="-99"/>
          <Node pos="r" depth="2" NCoef="0" IVar="-1" Cut="0.0000000000000000e+00" cType="1" res="1.4500757679343224e-03" rms="4.6445131301879883e-01" purity="4.1429790854454041e-01" nType="-99"/>
        </Node>
        <Node pos="r" depth="1" NCoef="0" IVar="0" Cut="1.5797837972640991e+00" cType="1" res="-8.0649452283978462e-03" rms="4.5798391103744507e-01" purity="5.6068193912506104e-01" nType="0">
          <Node pos="l" depth="2" NCoef="0" IVar="-1" Cut="0.0000000000000000e+00" cType="1" res="1.8439881969243288e-03" rms="4.6807235479354858e-01" purity="4.0367603302001953e-01" nType="-99"/>
          <Node pos="r" depth="2" NCoef="0" IVar="-1" Cut="0.0000000000000000e+00" cType="1" res="-7.4966478860005736e-04" rms="4.5671722292900085e-01" purity="5.7748937606811523e-01" nType="-99"/>
        </Node>
      </Node>
    </BinaryTree>
    <BinaryTree type="DecisionTree" boostWeight="1.0000000000000000e+00" itree="571">
      <Node pos="s" depth="0" NCoef="0" IVar="7" Cut="6.1376941680908203e+01" cType="1" res="-6.4552258700132370e-03" rms="4.5195457339286804e-01" purity="4.9277156591415405e-01" nType="0">
        <Node pos="l" depth="1" NCoef="0" IVar="3" Cut="1.1235747486352921e-01" cType="1" res="-2.0356075838208199e-02" rms="4.4537231326103210e-01" purity="3.8649371266365051e-01" nType="0">
          <Node pos="l" depth="2" NCoef="0" IVar="-1" Cut="0.0000000000000000e+00" cType="1" res="-9.0563751291483641e-04" rms="4.5174986124038696e-01" purity="4.0830498933792114e-01" nType="-99"/>
          <Node pos="r" depth="2" NCoef="0" IVar="-1" Cut="0.0000000000000000e+00" cType="1" res="-3.4718054812401533e-03" rms="4.1193854808807373e-01" purity="2.8127571940422058e-01" nType="-99"/>
        </Node>
        <Node pos="r" depth="1" NCoef="0" IVar="4" Cut="6.1418056488037109e-01" cType="1" res="2.5359755381941795e-03" rms="4.5593577623367310e-01" purity="5.6151306629180908e-01" nType="0">
          <Node pos="l" depth="2" NCoef="0" IVar="-1" Cut="0.0000000000000000e+00" cType="1" res="4.5052613131701946e-04" rms="4.5522072911262512e-01" purity="5.5454999208450317e-01" nType="-99"/>
          <Node pos="r" depth="2" NCoef="0" IVar="-1" Cut="0.0000000000000000e+00" cType="1" res="-1.7021429957821965e-03" rms="4.5921817421913147e-01" purity="6.0420531034469604e-01" nType="-99"/>
        </Node>
      </Node>
    </BinaryTree>
    <BinaryTree type="DecisionTree" boostWeight="1.0000000000000000e+00" itree="572">
      <Node pos="s" depth="0" NCoef="0" IVar="0" Cut="4.5673489570617676e+00" cType="1" res="5.1707046804949641e-04" rms="4.5484119653701782e-01" purity="5.0012135505676270e-01" nType="0">
        <Node pos="l" depth="1" NCoef="0" IVar="5" Cut="9.5640051364898682e-01" cType="1" res="-3.3863657154142857e-03" rms="4.6254166960716248e-01" purity="4.5547777414321899e-01" nType="0">
          <Node pos="l" depth="2" NCoef="0" IVar="-1" Cut="0.0000000000000000e+00" cType="1" res="3.4640546073205769e-04" rms="4.6028795838356018e-01" purity="3.9317664504051208e-01" nType="-99"/>
          <Node pos="r" depth="2" NCoef="0" IVar="-1" Cut="0.0000000000000000e+00" cType="1" res="-1.1207306524738669e-03" rms="4.6583518385887146e-01" purity="5.5762708187103271e-01" nType="-99"/>
        </Node>
        <Node pos="r" depth="1" NCoef="0" IVar="8" Cut="9.6536874771118164e-01" cType="1" res="2.3828400298953056e-02" rms="4.0504094958305359e-01" purity="7.6673299074172974e-01" nType="0">
          <Node pos="l" depth="2" NCoef="0" IVar="-1" Cut="0.0000000000000000e+00" cType="1" res="-1.0709150956245139e-04" rms="4.0348425507545471e-01" purity="7.6774632930755615e-01" nType="-99"/>
          <Node pos="r" depth="2" NCoef="0" IVar="-1" Cut="0.0000000000000000e+00" cType="1" res="3.0019362457096577e-03" rms="4.0517452359199524e-01" purity="7.6596850156784058e-01" nType="-99"/>
        </Node>
      </Node>
    </BinaryTree>
    <BinaryTree type="DecisionTree" boostWeight="1.0000000000000000e+00" itree="573">
      <Node pos="s" depth="0" NCoef="0" IVar="8" Cut="1.3660675287246704e+00" cType="1" res="-1.5761137474328279e-03" rms="4.5323941111564636e-01" purity="4.9551627039909363e-01" nType="0">
        <Node pos="l" depth="1" NCoef="0" IVar="1" Cut="9.2131561279296875e+02" cType="1" res="4.6810805797576904e-03" rms="4.5670482516288757e-01" purity="5.2057224512100220e-01" nType="0">
          <Node pos="l" depth="2" NCoef="0" IVar="-1" Cut="0.0000000000000000e+00" cType="1" res="4.6224016114138067e-04" rms="4.5610129833221436e-01" purity="5.1419019699096680e-01" nType="-99"/>
          <Node pos="r" depth="2" NCoef="0" IVar="-1" Cut="0.0000000000000000e+00" cType="1" res="-1.8565602367743850e-03" rms="4.6277582645416260e-01" purity="5.9936738014221191e-01" nType="-99"/>
        </Node>
        <Node pos="r" depth="1" NCoef="0" IVar="2" Cut="8.1474128723144531e+01" cType="1" res="-1.9900143146514893e-02" rms="4.4242635369300842e-01" purity="4.2214038968086243e-01" nType="0">
          <Node pos="l" depth="2" NCoef="0" IVar="-1" Cut="0.0000000000000000e+00" cType="1" res="-2.7841906994581223e-03" rms="4.4719567894935608e-01" purity="3.8665604591369629e-01" nType="-99"/>
          <Node pos="r" depth="2" NCoef="0" IVar="-1" Cut="0.0000000000000000e+00" cType="1" res="-2.2588479623664171e-04" rms="4.3829718232154846e-01" purity="4.4712582230567932e-01" nType="-99"/>
        </Node>
      </Node>
    </BinaryTree>
    <BinaryTree type="DecisionTree" boostWeight="1.0000000000000000e+00" itree="574">
      <Node pos="s" depth="0" NCoef="0" IVar="8" Cut="1.4660773277282715e+00" cType="1" res="-5.4462482221424580e-03" rms="4.5266646146774292e-01" purity="4.9415731430053711e-01" nType="0">
        <Node pos="l" depth="1" NCoef="0" IVar="0" Cut="2.0810720920562744e+00" cType="1" res="-3.4380081342533231e-04" rms="4.5464637875556946e-01" purity="5.1635575294494629e-01" nType="0">
          <Node pos="l" depth="2" NCoef="0" IVar="-1" Cut="0.0000000000000000e+00" cType="1" res="-1.0206818114966154e-03" rms="4.4822874665260315e-01" purity="3.2715302705764771e-01" nType="-99"/>
          <Node pos="r" depth="2" NCoef="0" IVar="-1" Cut="0.0000000000000000e+00" cType="1" res="3.8313562981784344e-04" rms="4.5726621150970459e-01" purity="5.9902936220169067e-01" nType="-99"/>
        </Node>
        <Node pos="r" depth="1" NCoef="0" IVar="3" Cut="9.7272418439388275e-02" cType="1" res="-2.6888716965913773e-02" rms="4.4360855221748352e-01" purity="4.0087059140205383e-01" nType="0">
          <Node pos="l" depth="2" NCoef="0" IVar="-1" Cut="0.0000000000000000e+00" cType="1" res="-9.0094772167503834e-04" rms="4.5399999618530273e-01" purity="4.3833488225936890e-01" nType="-99"/>
          <Node pos="r" depth="2" NCoef="0" IVar="-1" Cut="0.0000000000000000e+00" cType="1" res="-4.2535965330898762e-03" rms="4.1120448708534241e-01" purity="2.9639163613319397e-01" nType="-99"/>
        </Node>
      </Node>
    </BinaryTree>
    <BinaryTree type="DecisionTree" boostWeight="1.0000000000000000e+00" itree="575">
      <Node pos="s" depth="0" NCoef="0" IVar="2" Cut="1.1392433929443359e+02" cType="1" res="-7.3385122232139111e-03" rms="4.5256882905960083e-01" purity="4.8926094174385071e-01" nType="0">
        <Node pos="l" depth="1" NCoef="0" IVar="5" Cut="9.8753666877746582e-01" cType="1" res="-1.7824513837695122e-02" rms="4.5492878556251526e-01" purity="4.6145710349082947e-01" nType="0">
          <Node pos="l" depth="2" NCoef="0" IVar="-1" Cut="0.0000000000000000e+00" cType="1" res="-1.3656851369887590e-03" rms="4.5932149887084961e-01" purity="4.3362921476364136e-01" nType="-99"/>
          <Node pos="r" depth="2" NCoef="0" IVar="-1" Cut="0.0000000000000000e+00" cType="1" res="2.4397110100835562e-03" rms="3.9834031462669373e-01" purity="7.7710568904876709e-01" nType="-99"/>
        </Node>
        <Node pos="r" depth="1" NCoef="0" IVar="9" Cut="3.7727293372154236e-01" cType="1" res="1.1353788897395134e-02" rms="4.4772249460220337e-01" purity="5.3882390260696411e-01" nType="0">
          <Node pos="l" depth="2" NCoef="0" IVar="-1" Cut="0.0000000000000000e+00" cType="1" res="3.3515726681798697e-03" rms="4.3234726786613464e-01" purity="6.5273624658584595e-01" nType="-99"/>
          <Node pos="r" depth="2" NCoef="0" IVar="-1" Cut="0.0000000000000000e+00" cType="1" res="-1.9981182413175702e-04" rms="4.5215544104576111e-01" purity="4.9848860502243042e-01" nType="-99"/>
        </Node>
      </Node>
    </BinaryTree>
    <BinaryTree type="DecisionTree" boostWeight="1.0000000000000000e+00" itree="576">
      <Node pos="s" depth="0" NCoef="0" IVar="9" Cut="7.2956442832946777e-01" cType="1" res="4.7127124853432178e-03" rms="4.5696353912353516e-01" purity="5.0095087289810181e-01" nType="0">
        <Node pos="l" depth="1" NCoef="0" IVar="6" Cut="2.2435874938964844e+00" cType="1" res="-3.2401655334979296e-03" rms="4.5525586605072021e-01" purity="5.1819837093353271e-01" nType="0">
          <Node pos="l" depth="2" NCoef="0" IVar="-1" Cut="0.0000000000000000e+00" cType="1" res="3.4099622280336916e-04" rms="4.5837602019309998e-01" purity="5.6623554229736328e-01" nType="-99"/>
          <Node pos="r" depth="2" NCoef="0" IVar="-1" Cut="0.0000000000000000e+00" cType="1" res="-1.2203985825181007e-03" rms="4.4904392957687378e-01" purity="4.3021884560585022e-01" nType="-99"/>
        </Node>
        <Node pos="r" depth="1" NCoef="0" IVar="6" Cut="2.3286745548248291e+00" cType="1" res="2.6747671887278557e-02" rms="4.6094578504562378e-01" purity="4.5316323637962341e-01" nType="0">
          <Node pos="l" depth="2" NCoef="0" IVar="-1" Cut="0.0000000000000000e+00" cType="1" res="1.1146745964651927e-04" rms="4.6494090557098389e-01" purity="5.0412952899932861e-01" nType="-99"/>
          <Node pos="r" depth="2" NCoef="0" IVar="-1" Cut="0.0000000000000000e+00" cType="1" res="2.7321793604642153e-03" rms="4.5783495903015137e-01" purity="4.2216530442237854e-01" nType="-99"/>
        </Node>
      </Node>
    </BinaryTree>
    <BinaryTree type="DecisionTree" boostWeight="1.0000000000000000e+00" itree="577">
      <Node pos="s" depth="0" NCoef="0" IVar="8" Cut="6.3255405426025391e-01" cType="1" res="1.9939043559134007e-03" rms="4.5540198683738708e-01" purity="5.0056087970733643e-01" nType="0">
        <Node pos="l" depth="1" NCoef="0" IVar="4" Cut="3.7401714920997620e-01" cType="1" res="3.9222948253154755e-02" rms="4.5317211747169495e-01" purity="5.9375667572021484e-01" nType="0">
          <Node pos="l" depth="2" NCoef="0" IVar="-1" Cut="0.0000000000000000e+00" cType="1" res="4.1110292077064514e-03" rms="4.4883561134338379e-01" purity="5.8548456430435181e-01" nType="-99"/>
          <Node pos="r" depth="2" NCoef="0" IVar="-1" Cut="0.0000000000000000e+00" cType="1" res="6.0903199482709169e-04" rms="4.5593023300170898e-01" purity="6.0264456272125244e-01" nType="-99"/>
        </Node>
        <Node pos="r" depth="1" NCoef="0" IVar="0" Cut="4.3551340103149414e+00" cType="1" res="-2.6186178438365459e-03" rms="4.5546567440032959e-01" purity="4.8901438713073730e-01" nType="0">
          <Node pos="l" depth="2" NCoef="0" IVar="-1" Cut="0.0000000000000000e+00" cType="1" res="5.2562158089131117e-05" rms="4.5999097824096680e-01" purity="4.4343912601470947e-01" nType="-99"/>
          <Node pos="r" depth="2" NCoef="0" IVar="-1" Cut="0.0000000000000000e+00" cType="1" res="-1.3526470866054296e-03" rms="4.3263533711433411e-01" purity="7.0836693048477173e-01" nType="-99"/>
        </Node>
      </Node>
    </BinaryTree>
    <BinaryTree type="DecisionTree" boostWeight="1.0000000000000000e+00" itree="578">
      <Node pos="s" depth="0" NCoef="0" IVar="6" Cut="2.1437528133392334e+00" cType="1" res="-1.2391633354127407e-03" rms="4.5348924398422241e-01" purity="4.9892446398735046e-01" nType="0">
        <Node pos="l" depth="1" NCoef="0" IVar="7" Cut="4.9092361450195312e+01" cType="1" res="9.0354774147272110e-03" rms="4.5233672857284546e-01" purity="5.7483929395675659e-01" nType="0">
          <Node pos="l" depth="2" NCoef="0" IVar="-1" Cut="0.0000000000000000e+00" cType="1" res="-1.9633474294096231e-03" rms="4.5434498786926270e-01" purity="3.8659539818763733e-01" nType="-99"/>
          <Node pos="r" depth="2" NCoef="0" IVar="-1" Cut="0.0000000000000000e+00" cType="1" res="1.0677643585950136e-03" rms="4.5149052143096924e-01" purity="6.1282980442047119e-01" nType="-99"/>
        </Node>
        <Node pos="r" depth="1" NCoef="0" IVar="6" Cut="2.2923502922058105e+00" cType="1" res="-8.3171240985393524e-03" rms="4.5414629578590393e-01" purity="4.4662854075431824e-01" nType="0">
          <Node pos="l" depth="2" NCoef="0" IVar="-1" Cut="0.0000000000000000e+00" cType="1" res="-1.6105979448184371e-03" rms="4.5610642433166504e-01" purity="5.1228606700897217e-01" nType="-99"/>
          <Node pos="r" depth="2" NCoef="0" IVar="-1" Cut="0.0000000000000000e+00" cType="1" res="7.0370973844546825e-05" rms="4.5281413197517395e-01" purity="4.1150146722793579e-01" nType="-99"/>
        </Node>
      </Node>
    </BinaryTree>
    <BinaryTree type="DecisionTree" boostWeight="1.0000000000000000e+00" itree="579">
      <Node pos="s" depth="0" NCoef="0" IVar="4" Cut="1.1172781884670258e-01" cType="1" res="-1.6212537884712219e-03" rms="4.5295923948287964e-01" purity="4.9920374155044556e-01" nType="0">
        <Node pos="l" depth="1" NCoef="0" IVar="-1" Cut="0.0000000000000000e+00" cType="1" res="-2.8476312290877104e-03" rms="4.2968511581420898e-01" purity="3.2922178506851196e-01" nType="-99"/>
        <Node pos="r" depth="1" NCoef="0" IVar="6" Cut="1.9958475828170776e+00" cType="1" res="5.9752597007900476e-04" rms="4.5408385992050171e-01" purity="5.0843524932861328e-01" nType="0">
          <Node pos="l" depth="2" NCoef="0" IVar="-1" Cut="0.0000000000000000e+00" cType="1" res="1.0179301025345922e-03" rms="4.4902116060256958e-01" purity="5.9480190277099609e-01" nType="-99"/>
          <Node pos="r" depth="2" NCoef="0" IVar="-1" Cut="0.0000000000000000e+00" cType="1" res="-3.0952735687606037e-04" rms="4.5570534467697144e-01" purity="4.7833970189094543e-01" nType="-99"/>
        </Node>
      </Node>
    </BinaryTree>
    <BinaryTree type="DecisionTree" boostWeight="1.0000000000000000e+00" itree="580">
      <Node pos="s" depth="0" NCoef="0" IVar="4" Cut="3.3404576778411865e-01" cType="1" res="2.8567975386977196e-03" rms="4.5331287384033203e-01" purity="5.0177556276321411e-01" nType="0">
        <Node pos="l" depth="1" NCoef="0" IVar="9" Cut="9.4262707233428955e-01" cType="1" res="1.2295575812458992e-02" rms="4.5348250865936279e-01" purity="4.5921415090560913e-01" nType="0">
          <Node pos="l" depth="2" NCoef="0" IVar="-1" Cut="0.0000000000000000e+00" cType="1" res="3.2435238244943321e-04" rms="4.5333546400070190e-01" purity="4.6867311000823975e-01" nType="-99"/>
          <Node pos="r" depth="2" NCoef="0" IVar="-1" Cut="0.0000000000000000e+00" cType="1" res="3.3902132418006659e-03" rms="4.5238769054412842e-01" purity="4.0930953621864319e-01" nType="-99"/>
        </Node>
        <Node pos="r" depth="1" NCoef="0" IVar="8" Cut="6.3784390687942505e-01" cType="1" res="-3.5296867135912180e-03" rms="4.5308655500411987e-01" purity="5.3057354688644409e-01" nType="0">
          <Node pos="l" depth="2" NCoef="0" IVar="-1" Cut="0.0000000000000000e+00" cType="1" res="2.0613172091543674e-03" rms="4.4333097338676453e-01" purity="6.1389863491058350e-01" nType="-99"/>
          <Node pos="r" depth="2" NCoef="0" IVar="-1" Cut="0.0000000000000000e+00" cType="1" res="-4.9839774146676064e-04" rms="4.5406150817871094e-01" purity="5.2042454481124878e-01" nType="-99"/>
        </Node>
      </Node>
    </BinaryTree>
    <BinaryTree type="DecisionTree" boostWeight="1.0000000000000000e+00" itree="581">
      <Node pos="s" depth="0" NCoef="0" IVar="1" Cut="9.1622308349609375e+02" cType="1" res="-3.6351513117551804e-03" rms="4.5504853129386902e-01" purity="4.9493005871772766e-01" nType="0">
        <Node pos="l" depth="1" NCoef="0" IVar="7" Cut="7.3470451354980469e+01" cType="1" res="-5.5635622702538967e-03" rms="4.5589146018028259e-01" purity="4.8334807157516479e-01" nType="0">
          <Node pos="l" depth="2" NCoef="0" IVar="-1" Cut="0.0000000000000000e+00" cType="1" res="2.0337353635113686e-04" rms="4.5296064019203186e-01" purity="4.4502905011177063e-01" nType="-99"/>
          <Node pos="r" depth="2" NCoef="0" IVar="-1" Cut="0.0000000000000000e+00" cType="1" res="-1.2755560455843806e-03" rms="4.6048402786254883e-01" purity="5.4905670881271362e-01" nType="-99"/>
        </Node>
        <Node pos="r" depth="1" NCoef="0" IVar="-1" Cut="0.0000000000000000e+00" cType="1" res="1.5778669621795416e-03" rms="4.4175347685813904e-01" purity="6.6225212812423706e-01" nType="-99"/>
      </Node>
    </BinaryTree>
    <BinaryTree type="DecisionTree" boostWeight="1.0000000000000000e+00" itree="582">
      <Node pos="s" depth="0" NCoef="0" IVar="3" Cut="-5.7769723236560822e-02" cType="1" res="-1.4160714345052838e-03" rms="4.5435664057731628e-01" purity="4.9864935874938965e-01" nType="0">
        <Node pos="l" depth="1" NCoef="0" IVar="-1" Cut="0.0000000000000000e+00" cType="1" res="1.7691212706267834e-03" rms="4.4460317492485046e-01" purity="6.0347968339920044e-01" nType="-99"/>
        <Node pos="r" depth="1" NCoef="0" IVar="4" Cut="6.1561250686645508e-01" cType="1" res="-4.6993140131235123e-03" rms="4.5530349016189575e-01" purity="4.8705706000328064e-01" nType="0">
          <Node pos="l" depth="2" NCoef="0" IVar="-1" Cut="0.0000000000000000e+00" cType="1" res="-2.3603341105626896e-05" rms="4.5458045601844788e-01" purity="4.8465463519096375e-01" nType="-99"/>
          <Node pos="r" depth="2" NCoef="0" IVar="-1" Cut="0.0000000000000000e+00" cType="1" res="-2.4510421790182590e-03" rms="4.5955783128738403e-01" purity="5.0610333681106567e-01" nType="-99"/>
        </Node>
      </Node>
    </BinaryTree>
    <BinaryTree type="DecisionTree" boostWeight="1.0000000000000000e+00" itree="583">
      <Node pos="s" depth="0" NCoef="0" IVar="1" Cut="8.5688940429687500e+02" cType="1" res="-3.8336364086717367e-03" rms="4.5373970270156860e-01" purity="4.9515113234519958e-01" nType="0">
        <Node pos="l" depth="1" NCoef="0" IVar="4" Cut="2.1031515300273895e-01" cType="1" res="-7.7290921472012997e-03" rms="4.5443111658096313e-01" purity="4.7836920619010925e-01" nType="0">
          <Node pos="l" depth="2" NCoef="0" IVar="-1" Cut="0.0000000000000000e+00" cType="1" res="6.8560114596039057e-04" rms="4.5448279380798340e-01" purity="4.1035920381546021e-01" nType="-99"/>
          <Node pos="r" depth="2" NCoef="0" IVar="-1" Cut="0.0000000000000000e+00" cType="1" res="-7.2057964280247688e-04" rms="4.5432659983634949e-01" purity="4.9268880486488342e-01" nType="-99"/>
        </Node>
        <Node pos="r" depth="1" NCoef="0" IVar="-1" Cut="0.0000000000000000e+00" cType="1" res="2.3260999005287886e-03" rms="4.4466674327850342e-01" purity="6.6655403375625610e-01" nType="-99"/>
      </Node>
    </BinaryTree>
    <BinaryTree type="DecisionTree" boostWeight="1.0000000000000000e+00" itree="584">
      <Node pos="s" depth="0" NCoef="0" IVar="9" Cut="7.9369109869003296e-01" cType="1" res="1.7655621049925685e-03" rms="4.5332923531532288e-01" purity="5.0198853015899658e-01" nType="0">
        <Node pos="l" depth="1" NCoef="0" IVar="3" Cut="-2.1770775318145752e-02" cType="1" res="6.3368096016347408e-03" rms="4.5362037420272827e-01" purity="5.2986133098602295e-01" nType="0">
          <Node pos="l" depth="2" NCoef="0" IVar="-1" Cut="0.0000000000000000e+00" cType="1" res="-6.6111236810684204e-04" rms="4.5192441344261169e-01" purity="5.6025487184524536e-01" nType="-99"/>
          <Node pos="r" depth="2" NCoef="0" IVar="-1" Cut="0.0000000000000000e+00" cType="1" res="8.1437785411253572e-04" rms="4.5412451028823853e-01" purity="5.1768893003463745e-01" nType="-99"/>
        </Node>
        <Node pos="r" depth="1" NCoef="0" IVar="6" Cut="2.4086897373199463e+00" cType="1" res="-1.5103377401828766e-02" rms="4.5185318589210510e-01" purity="3.9913162589073181e-01" nType="0">
          <Node pos="l" depth="2" NCoef="0" IVar="-1" Cut="0.0000000000000000e+00" cType="1" res="-2.4810505565255880e-03" rms="4.6633529663085938e-01" purity="4.5898345112800598e-01" nType="-99"/>
          <Node pos="r" depth="2" NCoef="0" IVar="-1" Cut="0.0000000000000000e+00" cType="1" res="2.9559838003478944e-04" rms="4.3939015269279480e-01" purity="3.5304245352745056e-01" nType="-99"/>
        </Node>
      </Node>
    </BinaryTree>
    <BinaryTree type="DecisionTree" boostWeight="1.0000000000000000e+00" itree="585">
      <Node pos="s" depth="0" NCoef="0" IVar="5" Cut="9.1007018089294434e-01" cType="1" res="3.0864814762026072e-03" rms="4.5364621281623840e-01" purity="5.0381869077682495e-01" nType="0">
        <Node pos="l" depth="1" NCoef="0" IVar="-1" Cut="0.0000000000000000e+00" cType="1" res="-2.3889287840574980e-03" rms="4.1252613067626953e-01" purity="2.5969201326370239e-01" nType="-99"/>
        <Node pos="r" depth="1" NCoef="0" IVar="5" Cut="9.8710024356842041e-01" cType="1" res="5.8408444747328758e-03" rms="4.5628440380096436e-01" purity="5.2106082439422607e-01" nType="0">
          <Node pos="l" depth="2" NCoef="0" IVar="-1" Cut="0.0000000000000000e+00" cType="1" res="1.8724895198829472e-04" rms="4.6302336454391479e-01" purity="4.9292165040969849e-01" nType="-99"/>
          <Node pos="r" depth="2" NCoef="0" IVar="-1" Cut="0.0000000000000000e+00" cType="1" res="2.6005282998085022e-03" rms="3.8280430436134338e-01" purity="7.9735362529754639e-01" nType="-99"/>
        </Node>
      </Node>
    </BinaryTree>
    <BinaryTree type="DecisionTree" boostWeight="1.0000000000000000e+00" itree="586">
      <Node pos="s" depth="0" NCoef="0" IVar="1" Cut="4.0437432861328125e+02" cType="1" res="2.9296458233147860e-03" rms="4.5388138294219971e-01" purity="5.0190103054046631e-01" nType="0">
        <Node pos="l" depth="1" NCoef="0" IVar="7" Cut="4.4720249176025391e+01" cType="1" res="-1.7123958095908165e-02" rms="4.2754459381103516e-01" purity="3.2038843631744385e-01" nType="0">
          <Node pos="l" depth="2" NCoef="0" IVar="-1" Cut="0.0000000000000000e+00" cType="1" res="-3.5381591878831387e-03" rms="3.9897862076759338e-01" purity="2.3790939152240753e-01" nType="-99"/>
          <Node pos="r" depth="2" NCoef="0" IVar="-1" Cut="0.0000000000000000e+00" cType="1" res="-1.4806177932769060e-04" rms="4.4008895754814148e-01" purity="3.6078134179115295e-01" nType="-99"/>
        </Node>
        <Node pos="r" depth="1" NCoef="0" IVar="7" Cut="5.0674133300781250e+01" cType="1" res="6.6710333339869976e-03" rms="4.5853057503700256e-01" purity="5.3576564788818359e-01" nType="0">
          <Node pos="l" depth="2" NCoef="0" IVar="-1" Cut="0.0000000000000000e+00" cType="1" res="2.5689287576824427e-03" rms="4.6478572487831116e-01" purity="4.5629307627677917e-01" nType="-99"/>
          <Node pos="r" depth="2" NCoef="0" IVar="-1" Cut="0.0000000000000000e+00" cType="1" res="1.3331226364243776e-04" rms="4.5750841498374939e-01" purity="5.4623800516128540e-01" nType="-99"/>
        </Node>
      </Node>
    </BinaryTree>
    <BinaryTree type="DecisionTree" boostWeight="1.0000000000000000e+00" itree="587">
      <Node pos="s" depth="0" NCoef="0" IVar="5" Cut="9.2943447828292847e-01" cType="1" res="-2.8811488300561905e-03" rms="4.5574057102203369e-01" purity="4.9888488650321960e-01" nType="0">
        <Node pos="l" depth="1" NCoef="0" IVar="4" Cut="4.4995641708374023e-01" cType="1" res="1.5264819376170635e-02" rms="4.4879177212715149e-01" purity="3.4019151329994202e-01" nType="0">
          <Node pos="l" depth="2" NCoef="0" IVar="-1" Cut="0.0000000000000000e+00" cType="1" res="1.7534397775307298e-03" rms="4.4649589061737061e-01" purity="3.3056607842445374e-01" nType="-99"/>
          <Node pos="r" depth="2" NCoef="0" IVar="-1" Cut="0.0000000000000000e+00" cType="1" res="-3.6696350434795022e-04" rms="4.5251244306564331e-01" purity="3.5909968614578247e-01" nType="-99"/>
        </Node>
        <Node pos="r" depth="1" NCoef="0" IVar="5" Cut="9.8972290754318237e-01" cType="1" res="-7.3695559985935688e-03" rms="4.5733201503753662e-01" purity="5.3813773393630981e-01" nType="0">
          <Node pos="l" depth="2" NCoef="0" IVar="-1" Cut="0.0000000000000000e+00" cType="1" res="-6.4855156233534217e-04" rms="4.6268171072006226e-01" purity="5.1582401990890503e-01" nType="-99"/>
          <Node pos="r" depth="2" NCoef="0" IVar="-1" Cut="0.0000000000000000e+00" cType="1" res="2.2340805735439062e-03" rms="3.8905787467956543e-01" purity="7.9363381862640381e-01" nType="-99"/>
        </Node>
      </Node>
    </BinaryTree>
    <BinaryTree type="DecisionTree" boostWeight="1.0000000000000000e+00" itree="588">
      <Node pos="s" depth="0" NCoef="0" IVar="0" Cut="1.5965552330017090e+00" cType="1" res="2.9407141264528036e-03" rms="4.5303857326507568e-01" purity="5.0431638956069946e-01" nType="0">
        <Node pos="l" depth="1" NCoef="0" IVar="8" Cut="1.2156920433044434e+00" cType="1" res="-1.2332458980381489e-02" rms="4.3720030784606934e-01" purity="2.9652681946754456e-01" nType="0">
          <Node pos="l" depth="2" NCoef="0" IVar="-1" Cut="0.0000000000000000e+00" cType="1" res="-2.1030243951827288e-03" rms="4.3929117918014526e-01" purity="2.9734465479850769e-01" nType="-99"/>
          <Node pos="r" depth="2" NCoef="0" IVar="-1" Cut="0.0000000000000000e+00" cType="1" res="1.4060511020943522e-03" rms="4.3183761835098267e-01" purity="2.9513716697692871e-01" nType="-99"/>
        </Node>
        <Node pos="r" depth="1" NCoef="0" IVar="2" Cut="1.9238513183593750e+02" cType="1" res="6.5369182266294956e-03" rms="4.5661365985870361e-01" purity="5.5324226617813110e-01" nType="0">
          <Node pos="l" depth="2" NCoef="0" IVar="-1" Cut="0.0000000000000000e+00" cType="1" res="5.6480692001059651e-04" rms="4.5651733875274658e-01" purity="5.5681252479553223e-01" nType="-99"/>
          <Node pos="r" depth="2" NCoef="0" IVar="-1" Cut="0.0000000000000000e+00" cType="1" res="-1.8710788572207093e-03" rms="4.5641645789146423e-01" purity="5.0569164752960205e-01" nType="-99"/>
        </Node>
      </Node>
    </BinaryTree>
    <BinaryTree type="DecisionTree" boostWeight="1.0000000000000000e+00" itree="589">
      <Node pos="s" depth="0" NCoef="0" IVar="2" Cut="1.0308922576904297e+02" cType="1" res="1.9246567972004414e-03" rms="4.5391154289245605e-01" purity="5.0075435638427734e-01" nType="0">
        <Node pos="l" depth="1" NCoef="0" IVar="2" Cut="9.6030677795410156e+01" cType="1" res="-6.4599527977406979e-03" rms="4.5710167288780212e-01" purity="4.7326228022575378e-01" nType="0">
          <Node pos="l" depth="2" NCoef="0" IVar="-1" Cut="0.0000000000000000e+00" cType="1" res="-7.5754389399662614e-04" rms="4.5792633295059204e-01" purity="4.6547481417655945e-01" nType="-99"/>
          <Node pos="r" depth="2" NCoef="0" IVar="-1" Cut="0.0000000000000000e+00" cType="1" res="2.5129311252385378e-03" rms="4.4758158922195435e-01" purity="5.3710025548934937e-01" nType="-99"/>
        </Node>
        <Node pos="r" depth="1" NCoef="0" IVar="4" Cut="3.6875694990158081e-01" cType="1" res="1.1940326541662216e-02" rms="4.4986644387245178e-01" purity="5.3359454870223999e-01" nType="0">
          <Node pos="l" depth="2" NCoef="0" IVar="-1" Cut="0.0000000000000000e+00" cType="1" res="-3.1816562113817781e-05" rms="4.4498410820960999e-01" purity="4.7442820668220520e-01" nType="-99"/>
          <Node pos="r" depth="2" NCoef="0" IVar="-1" Cut="0.0000000000000000e+00" cType="1" res="1.5340429963544011e-03" rms="4.5430311560630798e-01" purity="5.9203124046325684e-01" nType="-99"/>
        </Node>
      </Node>
    </BinaryTree>
    <BinaryTree type="DecisionTree" boostWeight="1.0000000000000000e+00" itree="590">
      <Node pos="s" depth="0" NCoef="0" IVar="0" Cut="4.1839690208435059e+00" cType="1" res="2.1277633495628834e-03" rms="4.5206364989280701e-01" purity="5.0240409374237061e-01" nType="0">
        <Node pos="l" depth="1" NCoef="0" IVar="5" Cut="9.2556190490722656e-01" cType="1" res="-3.0654575675725937e-03" rms="4.6088579297065735e-01" purity="4.4077876210212708e-01" nType="0">
          <Node pos="l" depth="2" NCoef="0" IVar="-1" Cut="0.0000000000000000e+00" cType="1" res="-1.4452929608523846e-03" rms="4.2959025502204895e-01" purity="2.8617456555366516e-01" nType="-99"/>
          <Node pos="r" depth="2" NCoef="0" IVar="-1" Cut="0.0000000000000000e+00" cType="1" res="9.0256413386669010e-05" rms="4.6812513470649719e-01" purity="4.7867465019226074e-01" nType="-99"/>
        </Node>
        <Node pos="r" depth="1" NCoef="0" IVar="5" Cut="9.6203994750976562e-01" cType="1" res="2.2184513509273529e-02" rms="4.1563093662261963e-01" purity="7.4040746688842773e-01" nType="0">
          <Node pos="l" depth="2" NCoef="0" IVar="-1" Cut="0.0000000000000000e+00" cType="1" res="2.9146580491214991e-03" rms="4.4048842787742615e-01" purity="6.9261014461517334e-01" nType="-99"/>
          <Node pos="r" depth="2" NCoef="0" IVar="-1" Cut="0.0000000000000000e+00" cType="1" res="6.6113536013290286e-04" rms="4.0165722370147705e-01" purity="7.6486849784851074e-01" nType="-99"/>
        </Node>
      </Node>
    </BinaryTree>
    <BinaryTree type="DecisionTree" boostWeight="1.0000000000000000e+00" itree="591">
      <Node pos="s" depth="0" NCoef="0" IVar="3" Cut="1.7619678378105164e-01" cType="1" res="5.6385266361758113e-04" rms="4.5413064956665039e-01" purity="4.9771735072135925e-01" nType="0">
        <Node pos="l" depth="1" NCoef="0" IVar="6" Cut="1.9674228429794312e+00" cType="1" res="-2.3655842524021864e-03" rms="4.5446440577507019e-01" purity="5.0027322769165039e-01" nType="0">
          <Node pos="l" depth="2" NCoef="0" IVar="-1" Cut="0.0000000000000000e+00" cType="1" res="-1.1283991625532508e-03" rms="4.5170268416404724e-01" purity="5.5849462747573853e-01" nType="-99"/>
          <Node pos="r" depth="2" NCoef="0" IVar="-1" Cut="0.0000000000000000e+00" cType="1" res="1.7702898185234517e-04" rms="4.5525807142257690e-01" purity="4.8097398877143860e-01" nType="-99"/>
        </Node>
        <Node pos="r" depth="1" NCoef="0" IVar="-1" Cut="0.0000000000000000e+00" cType="1" res="2.7439408004283905e-03" rms="4.4717228412628174e-01" purity="4.6090433001518250e-01" nType="-99"/>
      </Node>
    </BinaryTree>
    <BinaryTree type="DecisionTree" boostWeight="1.0000000000000000e+00" itree="592">
      <Node pos="s" depth="0" NCoef="0" IVar="0" Cut="1.9823013544082642e+00" cType="1" res="-6.7124230554327369e-04" rms="4.5261874794960022e-01" purity="4.9815064668655396e-01" nType="0">
        <Node pos="l" depth="1" NCoef="0" IVar="4" Cut="5.1280015707015991e-01" cType="1" res="-1.5191148966550827e-02" rms="4.3844622373580933e-01" purity="3.1288963556289673e-01" nType="0">
          <Node pos="l" depth="2" NCoef="0" IVar="-1" Cut="0.0000000000000000e+00" cType="1" res="-1.6713473014533520e-03" rms="4.2878493666648865e-01" purity="2.8726398944854736e-01" nType="-99"/>
          <Node pos="r" depth="2" NCoef="0" IVar="-1" Cut="0.0000000000000000e+00" cType="1" res="3.6679429467767477e-04" rms="4.6017411351203918e-01" purity="3.7452718615531921e-01" nType="-99"/>
        </Node>
        <Node pos="r" depth="1" NCoef="0" IVar="8" Cut="1.4477669000625610e+00" cType="1" res="5.2525633946061134e-03" rms="4.5814281702041626e-01" purity="5.7373309135437012e-01" nType="0">
          <Node pos="l" depth="2" NCoef="0" IVar="-1" Cut="0.0000000000000000e+00" cType="1" res="7.8879680950194597e-04" rms="4.5765858888626099e-01" purity="5.9775394201278687e-01" nType="-99"/>
          <Node pos="r" depth="2" NCoef="0" IVar="-1" Cut="0.0000000000000000e+00" cType="1" res="-1.6040145419538021e-03" rms="4.5879715681076050e-01" purity="4.7326922416687012e-01" nType="-99"/>
        </Node>
      </Node>
    </BinaryTree>
    <BinaryTree type="DecisionTree" boostWeight="1.0000000000000000e+00" itree="593">
      <Node pos="s" depth="0" NCoef="0" IVar="6" Cut="2.8768231868743896e+00" cType="1" res="-2.5683110579848289e-03" rms="4.5297840237617493e-01" purity="4.9531382322311401e-01" nType="0">
        <Node pos="l" depth="1" NCoef="0" IVar="6" Cut="2.3808917999267578e+00" cType="1" res="-3.5326299257576466e-04" rms="4.5611146092414856e-01" purity="5.1220059394836426e-01" nType="0">
          <Node pos="l" depth="2" NCoef="0" IVar="-1" Cut="0.0000000000000000e+00" cType="1" res="-3.3745294786058366e-04" rms="4.5497703552246094e-01" purity="5.4135221242904663e-01" nType="-99"/>
          <Node pos="r" depth="2" NCoef="0" IVar="-1" Cut="0.0000000000000000e+00" cType="1" res="9.1647275257855654e-04" rms="4.5906037092208862e-01" purity="4.2780205607414246e-01" nType="-99"/>
        </Node>
        <Node pos="r" depth="1" NCoef="0" IVar="-1" Cut="0.0000000000000000e+00" cType="1" res="-3.0706829857081175e-03" rms="3.9546349644660950e-01" purity="2.1452376246452332e-01" nType="-99"/>
      </Node>
    </BinaryTree>
    <BinaryTree type="DecisionTree" boostWeight="1.0000000000000000e+00" itree="594">
      <Node pos="s" depth="0" NCoef="0" IVar="0" Cut="4.3957185745239258e+00" cType="1" res="-2.2681774571537971e-03" rms="4.5323780179023743e-01" purity="4.9451017379760742e-01" nType="0">
        <Node pos="l" depth="1" NCoef="0" IVar="0" Cut="1.5056568384170532e+00" cType="1" res="-5.4446225985884666e-03" rms="4.6092915534973145e-01" purity="4.4386801123619080e-01" nType="0">
          <Node pos="l" depth="2" NCoef="0" IVar="-1" Cut="0.0000000000000000e+00" cType="1" res="8.2976667908951640e-04" rms="4.4074398279190063e-01" purity="3.1065130233764648e-01" nType="-99"/>
          <Node pos="r" depth="2" NCoef="0" IVar="-1" Cut="0.0000000000000000e+00" cType="1" res="-5.9253588551655412e-04" rms="4.6604129672050476e-01" purity="4.7926580905914307e-01" nType="-99"/>
        </Node>
        <Node pos="r" depth="1" NCoef="0" IVar="1" Cut="6.5379699707031250e+02" cType="1" res="1.3884614221751690e-02" rms="4.1153064370155334e-01" purity="7.5203454494476318e-01" nType="0">
          <Node pos="l" depth="2" NCoef="0" IVar="-1" Cut="0.0000000000000000e+00" cType="1" res="2.0498307421803474e-03" rms="4.1287356615066528e-01" purity="7.4595713615417480e-01" nType="-99"/>
          <Node pos="r" depth="2" NCoef="0" IVar="-1" Cut="0.0000000000000000e+00" cType="1" res="-1.5688615385442972e-03" rms="4.0666240453720093e-01" purity="7.6472961902618408e-01" nType="-99"/>
        </Node>
      </Node>
    </BinaryTree>
    <BinaryTree type="DecisionTree" boostWeight="1.0000000000000000e+00" itree="595">
      <Node pos="s" depth="0" NCoef="0" IVar="5" Cut="9.2646402120590210e-01" cType="1" res="5.1460633985698223e-03" rms="4.5559969544410706e-01" purity="5.0827825069427490e-01" nType="0">
        <Node pos="l" depth="1" NCoef="0" IVar="9" Cut="3.9937567710876465e-01" cType="1" res="-1.7570378258824348e-02" rms="4.3827846646308899e-01" purity="3.0966255068778992e-01" nType="0">
          <Node pos="l" depth="2" NCoef="0" IVar="-1" Cut="0.0000000000000000e+00" cType="1" res="-4.6430588699877262e-03" rms="4.3477547168731689e-01" purity="2.8075963258743286e-01" nType="-99"/>
          <Node pos="r" depth="2" NCoef="0" IVar="-1" Cut="0.0000000000000000e+00" cType="1" res="6.4095394918695092e-04" rms="4.3720299005508423e-01" purity="3.2302206754684448e-01" nType="-99"/>
        </Node>
        <Node pos="r" depth="1" NCoef="0" IVar="6" Cut="2.4631381034851074e+00" cType="1" res="9.9429357796907425e-03" rms="4.5903003215789795e-01" purity="5.5021852254867554e-01" nType="0">
          <Node pos="l" depth="2" NCoef="0" IVar="-1" Cut="0.0000000000000000e+00" cType="1" res="2.3330355179496109e-04" rms="4.5809119939804077e-01" purity="5.8759713172912598e-01" nType="-99"/>
          <Node pos="r" depth="2" NCoef="0" IVar="-1" Cut="0.0000000000000000e+00" cType="1" res="2.0410190336406231e-03" rms="4.6164160966873169e-01" purity="4.1969946026802063e-01" nType="-99"/>
        </Node>
      </Node>
    </BinaryTree>
    <BinaryTree type="DecisionTree" boostWeight="1.0000000000000000e+00" itree="596">
      <Node pos="s" depth="0" NCoef="0" IVar="1" Cut="6.1152819824218750e+02" cType="1" res="-9.5198774943128228e-04" rms="4.5244535803794861e-01" purity="4.9708548188209534e-01" nType="0">
        <Node pos="l" depth="1" NCoef="0" IVar="8" Cut="1.0894066095352173e+00" cType="1" res="-6.8397340364754200e-03" rms="4.5168784260749817e-01" purity="4.4585430622100830e-01" nType="0">
          <Node pos="l" depth="2" NCoef="0" IVar="-1" Cut="0.0000000000000000e+00" cType="1" res="3.9307816768996418e-04" rms="4.5415714383125305e-01" purity="4.9324852228164673e-01" nType="-99"/>
          <Node pos="r" depth="2" NCoef="0" IVar="-1" Cut="0.0000000000000000e+00" cType="1" res="-1.2215153547003865e-03" rms="4.4908797740936279e-01" purity="4.0266397595405579e-01" nType="-99"/>
        </Node>
        <Node pos="r" depth="1" NCoef="0" IVar="5" Cut="9.7940695285797119e-01" cType="1" res="1.1290126480162144e-02" rms="4.5377185940742493e-01" purity="6.0360807180404663e-01" nType="0">
          <Node pos="l" depth="2" NCoef="0" IVar="-1" Cut="0.0000000000000000e+00" cType="1" res="2.5479591568000615e-04" rms="4.6943268179893494e-01" purity="5.5878955125808716e-01" nType="-99"/>
          <Node pos="r" depth="2" NCoef="0" IVar="-1" Cut="0.0000000000000000e+00" cType="1" res="3.8071107119321823e-03" rms="3.6412230134010315e-01" purity="8.2635772228240967e-01" nType="-99"/>
        </Node>
      </Node>
    </BinaryTree>
    <BinaryTree type="DecisionTree" boostWeight="1.0000000000000000e+00" itree="597">
      <Node pos="s" depth="0" NCoef="0" IVar="4" Cut="1.1937192082405090e-01" cType="1" res="-6.0212421230971813e-03" rms="4.5334893465042114e-01" purity="4.9493223428726196e-01" nType="0">
        <Node pos="l" depth="1" NCoef="0" IVar="-1" Cut="0.0000000000000000e+00" cType="1" res="-2.7690124697983265e-03" rms="4.3625658750534058e-01" purity="3.3911803364753723e-01" nType="-99"/>
        <Node pos="r" depth="1" NCoef="0" IVar="2" Cut="5.1782470703125000e+01" cType="1" res="-3.7316710222512484e-03" rms="4.5433694124221802e-01" purity="5.0500661134719849e-01" nType="0">
          <Node pos="l" depth="2" NCoef="0" IVar="-1" Cut="0.0000000000000000e+00" cType="1" res="-1.4713599812239408e-03" rms="4.6344283223152161e-01" purity="4.5617374777793884e-01" nType="-99"/>
          <Node pos="r" depth="2" NCoef="0" IVar="-1" Cut="0.0000000000000000e+00" cType="1" res="-6.0715883591910824e-05" rms="4.5299720764160156e-01" purity="5.1174044609069824e-01" nType="-99"/>
        </Node>
      </Node>
    </BinaryTree>
    <BinaryTree type="DecisionTree" boostWeight="1.0000000000000000e+00" itree="598">
      <Node pos="s" depth="0" NCoef="0" IVar="8" Cut="9.6316242218017578e-01" cType="1" res="3.2849664421519265e-05" rms="4.5581576228141785e-01" purity="4.9680283665657043e-01" nType="0">
        <Node pos="l" depth="1" NCoef="0" IVar="2" Cut="1.3537031555175781e+02" cType="1" res="-1.1244130320847034e-02" rms="4.5825856924057007e-01" purity="5.2383291721343994e-01" nType="0">
          <Node pos="l" depth="2" NCoef="0" IVar="-1" Cut="0.0000000000000000e+00" cType="1" res="-1.6610346210654825e-04" rms="4.5867604017257690e-01" purity="5.2375894784927368e-01" nType="-99"/>
          <Node pos="r" depth="2" NCoef="0" IVar="-1" Cut="0.0000000000000000e+00" cType="1" res="-2.3900244850665331e-03" rms="4.5600828528404236e-01" purity="5.2405703067779541e-01" nType="-99"/>
        </Node>
        <Node pos="r" depth="1" NCoef="0" IVar="0" Cut="1.4491293430328369e+00" cType="1" res="8.0260820686817169e-03" rms="4.5390668511390686e-01" purity="4.7764357924461365e-01" nType="0">
          <Node pos="l" depth="2" NCoef="0" IVar="-1" Cut="0.0000000000000000e+00" cType="1" res="2.6289874222129583e-03" rms="4.3705779314041138e-01" purity="3.1486847996711731e-01" nType="-99"/>
          <Node pos="r" depth="2" NCoef="0" IVar="-1" Cut="0.0000000000000000e+00" cType="1" res="1.7076895164791495e-04" rms="4.5688718557357788e-01" purity="5.0893121957778931e-01" nType="-99"/>
        </Node>
      </Node>
    </BinaryTree>
    <BinaryTree type="DecisionTree" boostWeight="1.0000000000000000e+00" itree="599">
      <Node pos="s" depth="0" NCoef="0" IVar="7" Cut="4.6751960754394531e+01" cType="1" res="1.4837509952485561e-03" rms="4.5315352082252502e-01" purity="4.9994370341300964e-01" nType="0">
        <Node pos="l" depth="1" NCoef="0" IVar="9" Cut="5.5458986759185791e-01" cType="1" res="-2.5963993743062019e-02" rms="4.3099769949913025e-01" purity="3.1713142991065979e-01" nType="0">
          <Node pos="l" depth="2" NCoef="0" IVar="-1" Cut="0.0000000000000000e+00" cType="1" res="-4.4799856841564178e-03" rms="4.2752906680107117e-01" purity="3.0010613799095154e-01" nType="-99"/>
          <Node pos="r" depth="2" NCoef="0" IVar="-1" Cut="0.0000000000000000e+00" cType="1" res="9.7862852271646261e-04" rms="4.3057179450988770e-01" purity="3.3351960778236389e-01" nType="-99"/>
        </Node>
        <Node pos="r" depth="1" NCoef="0" IVar="7" Cut="5.4473251342773438e+01" cType="1" res="5.2541345357894897e-03" rms="4.5598387718200684e-01" purity="5.2505588531494141e-01" nType="0">
          <Node pos="l" depth="2" NCoef="0" IVar="-1" Cut="0.0000000000000000e+00" cType="1" res="1.5913503011688590e-03" rms="4.5547524094581604e-01" purity="4.4581860303878784e-01" nType="-99"/>
          <Node pos="r" depth="2" NCoef="0" IVar="-1" Cut="0.0000000000000000e+00" cType="1" res="9.8287760920356959e-05" rms="4.5598405599594116e-01" purity="5.3979372978210449e-01" nType="-99"/>
        </Node>
      </Node>
    </BinaryTree>
    <BinaryTree type="DecisionTree" boostWeight="1.0000000000000000e+00" itree="600">
      <Node pos="s" depth="0" NCoef="0" IVar="4" Cut="5.5066043138504028e-01" cType="1" res="-4.9072513356804848e-03" rms="4.5414945483207703e-01" purity="4.9480518698692322e-01" nType="0">
        <Node pos="l" depth="1" NCoef="0" IVar="3" Cut="-3.1650967895984650e-02" cType="1" res="-1.2067738920450211e-02" rms="4.5514518022537231e-01" purity="4.6869984269142151e-01" nType="0">
          <Node pos="l" depth="2" NCoef="0" IVar="-1" Cut="0.0000000000000000e+00" cType="1" res="-3.4509855322539806e-03" rms="4.5696598291397095e-01" purity="4.7683924436569214e-01" nType="-99"/>
          <Node pos="r" depth="2" NCoef="0" IVar="-1" Cut="0.0000000000000000e+00" cType="1" res="-3.7453646655194461e-04" rms="4.5455452799797058e-01" purity="4.6753719449043274e-01" nType="-99"/>
        </Node>
        <Node pos="r" depth="1" NCoef="0" IVar="9" Cut="6.6474974155426025e-01" cType="1" res="1.8175240606069565e-02" rms="4.5014992356300354e-01" purity="5.7895821332931519e-01" nType="0">
          <Node pos="l" depth="2" NCoef="0" IVar="-1" Cut="0.0000000000000000e+00" cType="1" res="1.6900586197152734e-03" rms="4.4256344437599182e-01" purity="6.0038912296295166e-01" nType="-99"/>
          <Node pos="r" depth="2" NCoef="0" IVar="-1" Cut="0.0000000000000000e+00" cType="1" res="-7.3695473838597536e-04" rms="4.7452744841575623e-01" purity="5.0392395257949829e-01" nType="-99"/>
        </Node>
      </Node>
    </BinaryTree>
    <BinaryTree type="DecisionTree" boostWeight="1.0000000000000000e+00" itree="601">
      <Node pos="s" depth="0" NCoef="0" IVar="0" Cut="3.3032512664794922e+00" cType="1" res="4.7137066721916199e-03" rms="4.5714560151100159e-01" purity="5.0367236137390137e-01" nType="0">
        <Node pos="l" depth="1" NCoef="0" IVar="1" Cut="7.0188757324218750e+02" cType="1" res="1.1400906369090080e-02" rms="4.6319231390953064e-01" purity="4.1277411580085754e-01" nType="0">
          <Node pos="l" depth="2" NCoef="0" IVar="-1" Cut="0.0000000000000000e+00" cType="1" res="1.0268181795254350e-03" rms="4.5927339792251587e-01" purity="3.9239418506622314e-01" nType="-99"/>
          <Node pos="r" depth="2" NCoef="0" IVar="-1" Cut="0.0000000000000000e+00" cType="1" res="-6.1482406454160810e-04" rms="4.7976642847061157e-01" purity="5.0419175624847412e-01" nType="-99"/>
        </Node>
        <Node pos="r" depth="1" NCoef="0" IVar="5" Cut="9.4803345203399658e-01" cType="1" res="-6.6202795132994652e-03" rms="4.4648161530494690e-01" purity="6.5773367881774902e-01" nType="0">
          <Node pos="l" depth="2" NCoef="0" IVar="-1" Cut="0.0000000000000000e+00" cType="1" res="1.2536540161818266e-03" rms="4.6991679072380066e-01" purity="5.7304209470748901e-01" nType="-99"/>
          <Node pos="r" depth="2" NCoef="0" IVar="-1" Cut="0.0000000000000000e+00" cType="1" res="-1.0068190749734640e-03" rms="4.3923723697662354e-01" purity="6.8179321289062500e-01" nType="-99"/>
        </Node>
      </Node>
    </BinaryTree>
    <BinaryTree type="DecisionTree" boostWeight="1.0000000000000000e+00" itree="602">
      <Node pos="s" depth="0" NCoef="0" IVar="6" Cut="2.8332409858703613e+00" cType="1" res="-4.6590575948357582e-03" rms="4.5177465677261353e-01" purity="4.9403277039527893e-01" nType="0">
        <Node pos="l" depth="1" NCoef="0" IVar="4" Cut="6.8832713365554810e-01" cType="1" res="-2.1312229800969362e-03" rms="4.5532321929931641e-01" purity="5.1396292448043823e-01" nType="0">
          <Node pos="l" depth="2" NCoef="0" IVar="-1" Cut="0.0000000000000000e+00" cType="1" res="2.1013416699133813e-05" rms="4.5578101277351379e-01" purity="5.1034897565841675e-01" nType="-99"/>
          <Node pos="r" depth="2" NCoef="0" IVar="-1" Cut="0.0000000000000000e+00" cType="1" res="-1.8954655388370156e-03" rms="4.4924429059028625e-01" purity="5.5439883470535278e-01" nType="-99"/>
        </Node>
        <Node pos="r" depth="1" NCoef="0" IVar="-1" Cut="0.0000000000000000e+00" cType="1" res="-3.1384332105517387e-03" rms="3.9591526985168457e-01" purity="2.0947992801666260e-01" nType="-99"/>
      </Node>
    </BinaryTree>
    <BinaryTree type="DecisionTree" boostWeight="1.0000000000000000e+00" itree="603">
      <Node pos="s" depth="0" NCoef="0" IVar="2" Cut="1.9172851562500000e+02" cType="1" res="4.0107714012265205e-03" rms="4.5318630337715149e-01" purity="5.0423401594161987e-01" nType="0">
        <Node pos="l" depth="1" NCoef="0" IVar="2" Cut="4.1356864929199219e+01" cType="1" res="1.5942147001624107e-03" rms="4.5315405726432800e-01" purity="5.0141686201095581e-01" nType="0">
          <Node pos="l" depth="2" NCoef="0" IVar="-1" Cut="0.0000000000000000e+00" cType="1" res="-2.0219585858285427e-03" rms="4.5846208930015564e-01" purity="4.3291708827018738e-01" nType="-99"/>
          <Node pos="r" depth="2" NCoef="0" IVar="-1" Cut="0.0000000000000000e+00" cType="1" res="2.2954352607484907e-04" rms="4.5275321602821350e-01" purity="5.0548642873764038e-01" nType="-99"/>
        </Node>
        <Node pos="r" depth="1" NCoef="0" IVar="-1" Cut="0.0000000000000000e+00" cType="1" res="2.3342391941696405e-03" rms="4.5240122079849243e-01" purity="5.4146951436996460e-01" nType="-99"/>
      </Node>
    </BinaryTree>
    <BinaryTree type="DecisionTree" boostWeight="1.0000000000000000e+00" itree="604">
      <Node pos="s" depth="0" NCoef="0" IVar="8" Cut="1.6866978406906128e+00" cType="1" res="1.6012197593227029e-03" rms="4.5236265659332275e-01" purity="4.9932557344436646e-01" nType="0">
        <Node pos="l" depth="1" NCoef="0" IVar="1" Cut="5.4658636474609375e+02" cType="1" res="5.3070015273988247e-03" rms="4.5362654328346252e-01" purity="5.1108616590499878e-01" nType="0">
          <Node pos="l" depth="2" NCoef="0" IVar="-1" Cut="0.0000000000000000e+00" cType="1" res="8.4435677854344249e-04" rms="4.5241472125053406e-01" purity="4.4869968295097351e-01" nType="-99"/>
          <Node pos="r" depth="2" NCoef="0" IVar="-1" Cut="0.0000000000000000e+00" cType="1" res="-2.2790672664996237e-04" rms="4.5480182766914368e-01" purity="5.8040058612823486e-01" nType="-99"/>
        </Node>
        <Node pos="r" depth="1" NCoef="0" IVar="-1" Cut="0.0000000000000000e+00" cType="1" res="-2.1190245170146227e-03" rms="4.3900826573371887e-01" purity="3.9046001434326172e-01" nType="-99"/>
      </Node>
    </BinaryTree>
    <BinaryTree type="DecisionTree" boostWeight="1.0000000000000000e+00" itree="605">
      <Node pos="s" depth="0" NCoef="0" IVar="4" Cut="7.1147203445434570e-01" cType="1" res="2.9922032263129950e-03" rms="4.5506373047828674e-01" purity="5.0254738330841064e-01" nType="0">
        <Node pos="l" depth="1" NCoef="0" IVar="4" Cut="6.1642479896545410e-01" cType="1" res="1.2986118672415614e-03" rms="4.5539546012878418e-01" purity="4.9739816784858704e-01" nType="0">
          <Node pos="l" depth="2" NCoef="0" IVar="-1" Cut="0.0000000000000000e+00" cType="1" res="2.4026844766922295e-04" rms="4.5499446988105774e-01" purity="4.9381217360496521e-01" nType="-99"/>
          <Node pos="r" depth="2" NCoef="0" IVar="-1" Cut="0.0000000000000000e+00" cType="1" res="-1.3337080599740148e-03" rms="4.5836761593818665e-01" purity="5.2972316741943359e-01" nType="-99"/>
        </Node>
        <Node pos="r" depth="1" NCoef="0" IVar="-1" Cut="0.0000000000000000e+00" cType="1" res="1.9691444467753172e-03" rms="4.4856029748916626e-01" purity="5.8834820985794067e-01" nType="-99"/>
      </Node>
    </BinaryTree>
    <BinaryTree type="DecisionTree" boostWeight="1.0000000000000000e+00" itree="606">
      <Node pos="s" depth="0" NCoef="0" IVar="9" Cut="4.0069192647933960e-01" cType="1" res="1.9386247731745243e-03" rms="4.5561558008193970e-01" purity="5.0024276971817017e-01" nType="0">
        <Node pos="l" depth="1" NCoef="0" IVar="4" Cut="6.4537435770034790e-01" cType="1" res="-1.0635959915816784e-02" rms="4.5206809043884277e-01" purity="5.3915435075759888e-01" nType="0">
          <Node pos="l" depth="2" NCoef="0" IVar="-1" Cut="0.0000000000000000e+00" cType="1" res="-1.2552924454212189e-03" rms="4.5460709929466248e-01" purity="5.2483755350112915e-01" nType="-99"/>
          <Node pos="r" depth="2" NCoef="0" IVar="-1" Cut="0.0000000000000000e+00" cType="1" res="2.6838413905352354e-03" rms="4.3384802341461182e-01" purity="6.1935049295425415e-01" nType="-99"/>
        </Node>
        <Node pos="r" depth="1" NCoef="0" IVar="4" Cut="1.6023488342761993e-01" cType="1" res="8.3243455737829208e-03" rms="4.5727419853210449e-01" purity="4.8048236966133118e-01" nType="0">
          <Node pos="l" depth="2" NCoef="0" IVar="-1" Cut="0.0000000000000000e+00" cType="1" res="2.0631437655538321e-03" rms="4.4207590818405151e-01" purity="4.0728932619094849e-01" nType="-99"/>
          <Node pos="r" depth="2" NCoef="0" IVar="-1" Cut="0.0000000000000000e+00" cType="1" res="3.0408948077820241e-04" rms="4.5946711301803589e-01" purity="4.9173018336296082e-01" nType="-99"/>
        </Node>
      </Node>
    </BinaryTree>
    <BinaryTree type="DecisionTree" boostWeight="1.0000000000000000e+00" itree="607">
      <Node pos="s" depth="0" NCoef="0" IVar="8" Cut="1.5259121656417847e+00" cType="1" res="-5.6042703799903393e-03" rms="4.5231339335441589e-01" purity="4.9060851335525513e-01" nType="0">
        <Node pos="l" depth="1" NCoef="0" IVar="9" Cut="5.8102124929428101e-01" cType="1" res="-2.6424237876199186e-04" rms="4.5472073554992676e-01" purity="5.1102089881896973e-01" nType="0">
          <Node pos="l" depth="2" NCoef="0" IVar="-1" Cut="0.0000000000000000e+00" cType="1" res="-5.0903565715998411e-04" rms="4.5300292968750000e-01" purity="5.3913360834121704e-01" nType="-99"/>
          <Node pos="r" depth="2" NCoef="0" IVar="-1" Cut="0.0000000000000000e+00" cType="1" res="6.7163695348426700e-04" rms="4.5689338445663452e-01" purity="4.7157967090606689e-01" nType="-99"/>
        </Node>
        <Node pos="r" depth="1" NCoef="0" IVar="1" Cut="5.2443701171875000e+02" cType="1" res="-3.3107273280620575e-02" rms="4.3867766857147217e-01" purity="3.8547766208648682e-01" nType="0">
          <Node pos="l" depth="2" NCoef="0" IVar="-1" Cut="0.0000000000000000e+00" cType="1" res="-3.4170150756835938e-03" rms="4.3046629428863525e-01" purity="3.0988857150077820e-01" nType="-99"/>
          <Node pos="r" depth="2" NCoef="0" IVar="-1" Cut="0.0000000000000000e+00" cType="1" res="-2.0844161917921156e-04" rms="4.5114248991012573e-01" purity="5.1764279603958130e-01" nType="-99"/>
        </Node>
      </Node>
    </BinaryTree>
    <BinaryTree type="DecisionTree" boostWeight="1.0000000000000000e+00" itree="608">
      <Node pos="s" depth="0" NCoef="0" IVar="6" Cut="2.9119369983673096e+00" cType="1" res="4.9813012592494488e-03" rms="4.5343741774559021e-01" purity="5.0434523820877075e-01" nType="0">
        <Node pos="l" depth="1" NCoef="0" IVar="3" Cut="2.4246167391538620e-02" cType="1" res="7.8420070931315422e-03" rms="4.5665833353996277e-01" purity="5.2123123407363892e-01" nType="0">
          <Node pos="l" depth="2" NCoef="0" IVar="-1" Cut="0.0000000000000000e+00" cType="1" res="-4.2247720557497814e-05" rms="4.5877864956855774e-01" purity="5.3803235292434692e-01" nType="-99"/>
          <Node pos="r" depth="2" NCoef="0" IVar="-1" Cut="0.0000000000000000e+00" cType="1" res="1.0608262382447720e-03" rms="4.5417854189872742e-01" purity="5.0309109687805176e-01" nType="-99"/>
        </Node>
        <Node pos="r" depth="1" NCoef="0" IVar="-1" Cut="0.0000000000000000e+00" cType="1" res="-3.6664134822785854e-03" rms="3.8647243380546570e-01" purity="1.9684082269668579e-01" nType="-99"/>
      </Node>
    </BinaryTree>
    <BinaryTree type="DecisionTree" boostWeight="1.0000000000000000e+00" itree="609">
      <Node pos="s" depth="0" NCoef="0" IVar="9" Cut="1.0279005765914917e+00" cType="1" res="-5.2912458777427673e-03" rms="4.5502126216888428e-01" purity="4.9374729394912720e-01" nType="0">
        <Node pos="l" depth="1" NCoef="0" IVar="3" Cut="1.5301875770092010e-01" cType="1" res="-1.7286716029047966e-03" rms="4.5627307891845703e-01" purity="5.0655364990234375e-01" nType="0">
          <Node pos="l" depth="2" NCoef="0" IVar="-1" Cut="0.0000000000000000e+00" cType="1" res="-3.8022000808268785e-04" rms="4.5640641450881958e-01" purity="5.1009052991867065e-01" nType="-99"/>
          <Node pos="r" depth="2" NCoef="0" IVar="-1" Cut="0.0000000000000000e+00" cType="1" res="2.5428798981010914e-03" rms="4.5294880867004395e-01" purity="4.7302994132041931e-01" nType="-99"/>
        </Node>
        <Node pos="r" depth="1" NCoef="0" IVar="-1" Cut="0.0000000000000000e+00" cType="1" res="-3.6401289980858564e-03" rms="4.3460527062416077e-01" purity="3.1848868727684021e-01" nType="-99"/>
      </Node>
    </BinaryTree>
    <BinaryTree type="DecisionTree" boostWeight="1.0000000000000000e+00" itree="610">
      <Node pos="s" depth="0" NCoef="0" IVar="5" Cut="9.2925548553466797e-01" cType="1" res="1.8810654291883111e-03" rms="4.5270314812660217e-01" purity="5.0622117519378662e-01" nType="0">
        <Node pos="l" depth="1" NCoef="0" IVar="7" Cut="7.3709014892578125e+01" cType="1" res="-2.0352374762296677e-02" rms="4.3710187077522278e-01" purity="3.0961042642593384e-01" nType="0">
          <Node pos="l" depth="2" NCoef="0" IVar="-1" Cut="0.0000000000000000e+00" cType="1" res="-4.6652858145534992e-04" rms="4.2022818326950073e-01" purity="2.7350479364395142e-01" nType="-99"/>
          <Node pos="r" depth="2" NCoef="0" IVar="-1" Cut="0.0000000000000000e+00" cType="1" res="-2.5201349053531885e-03" rms="4.6305331587791443e-01" purity="3.6998045444488525e-01" nType="-99"/>
        </Node>
        <Node pos="r" depth="1" NCoef="0" IVar="4" Cut="4.4157782196998596e-01" cType="1" res="7.3357261717319489e-03" rms="4.5628377795219421e-01" purity="5.5445683002471924e-01" nType="0">
          <Node pos="l" depth="2" NCoef="0" IVar="-1" Cut="0.0000000000000000e+00" cType="1" res="2.5496776288491674e-05" rms="4.6012797951698303e-01" purity="5.1724690198898315e-01" nType="-99"/>
          <Node pos="r" depth="2" NCoef="0" IVar="-1" Cut="0.0000000000000000e+00" cType="1" res="1.0777153074741364e-03" rms="4.5064508914947510e-01" purity="6.0675817728042603e-01" nType="-99"/>
        </Node>
      </Node>
    </BinaryTree>
    <BinaryTree type="DecisionTree" boostWeight="1.0000000000000000e+00" itree="611">
      <Node pos="s" depth="0" NCoef="0" IVar="9" Cut="2.9467704892158508e-01" cType="1" res="-4.1512115858495235e-03" rms="4.5429134368896484e-01" purity="4.9261841177940369e-01" nType="0">
        <Node pos="l" depth="1" NCoef="0" IVar="7" Cut="9.0397865295410156e+01" cType="1" res="-1.9039461389183998e-02" rms="4.5134967565536499e-01" purity="5.2832436561584473e-01" nType="0">
          <Node pos="l" depth="2" NCoef="0" IVar="-1" Cut="0.0000000000000000e+00" cType="1" res="-2.0392043516039848e-03" rms="4.5236465334892273e-01" purity="4.7953903675079346e-01" nType="-99"/>
          <Node pos="r" depth="2" NCoef="0" IVar="-1" Cut="0.0000000000000000e+00" cType="1" res="1.3673785142600536e-03" rms="4.4599530100822449e-01" purity="6.7002373933792114e-01" nType="-99"/>
        </Node>
        <Node pos="r" depth="1" NCoef="0" IVar="9" Cut="7.9697281122207642e-01" cType="1" res="-4.3632666347548366e-04" rms="4.5494642853736877e-01" purity="4.8370912671089172e-01" nType="0">
          <Node pos="l" depth="2" NCoef="0" IVar="-1" Cut="0.0000000000000000e+00" cType="1" res="2.7897852123714983e-04" rms="4.5639237761497498e-01" purity="5.1324683427810669e-01" nType="-99"/>
          <Node pos="r" depth="2" NCoef="0" IVar="-1" Cut="0.0000000000000000e+00" cType="1" res="-9.0715836267918348e-04" rms="4.5060721039772034e-01" purity="4.0130537748336792e-01" nType="-99"/>
        </Node>
      </Node>
    </BinaryTree>
    <BinaryTree type="DecisionTree" boostWeight="1.0000000000000000e+00" itree="612">
      <Node pos="s" depth="0" NCoef="0" IVar="4" Cut="3.6267244815826416e-01" cType="1" res="1.0294016683474183e-03" rms="4.5288896560668945e-01" purity="5.0082033872604370e-01" nType="0">
        <Node pos="l" depth="1" NCoef="0" IVar="1" Cut="7.6472583007812500e+02" cType="1" res="-1.2124449014663696e-02" rms="4.4980874657630920e-01" purity="4.4653180241584778e-01" nType="0">
          <Node pos="l" depth="2" NCoef="0" IVar="-1" Cut="0.0000000000000000e+00" cType="1" res="-1.1964261066168547e-03" rms="4.4818991422653198e-01" purity="4.0751498937606812e-01" nType="-99"/>
          <Node pos="r" depth="2" NCoef="0" IVar="-1" Cut="0.0000000000000000e+00" cType="1" res="9.5996353775262833e-04" rms="4.5541545748710632e-01" purity="6.0777443647384644e-01" nType="-99"/>
        </Node>
        <Node pos="r" depth="1" NCoef="0" IVar="9" Cut="3.7404656410217285e-01" cType="1" res="1.2600026093423367e-02" rms="4.5526713132858276e-01" purity="5.4857450723648071e-01" nType="0">
          <Node pos="l" depth="2" NCoef="0" IVar="-1" Cut="0.0000000000000000e+00" cType="1" res="-4.9972935812547803e-04" rms="4.5002669095993042e-01" purity="5.5948126316070557e-01" nType="-99"/>
          <Node pos="r" depth="2" NCoef="0" IVar="-1" Cut="0.0000000000000000e+00" cType="1" res="1.4420028310269117e-03" rms="4.5762336254119873e-01" purity="5.4285901784896851e-01" nType="-99"/>
        </Node>
      </Node>
    </BinaryTree>
    <BinaryTree type="DecisionTree" boostWeight="1.0000000000000000e+00" itree="613">
      <Node pos="s" depth="0" NCoef="0" IVar="2" Cut="1.1612017059326172e+02" cType="1" res="-2.8646115679293871e-03" rms="4.5513764023780823e-01" purity="4.9611854553222656e-01" nType="0">
        <Node pos="l" depth="1" NCoef="0" IVar="8" Cut="1.0653264522552490e+00" cType="1" res="-8.8677294552326202e-03" rms="4.5689648389816284e-01" purity="4.7514176368713379e-01" nType="0">
          <Node pos="l" depth="2" NCoef="0" IVar="-1" Cut="0.0000000000000000e+00" cType="1" res="-1.2637658510357141e-03" rms="4.6148326992988586e-01" purity="5.0181287527084351e-01" nType="-99"/>
          <Node pos="r" depth="2" NCoef="0" IVar="-1" Cut="0.0000000000000000e+00" cType="1" res="1.2910946679767221e-04" rms="4.5225283503532410e-01" purity="4.4995921850204468e-01" nType="-99"/>
        </Node>
        <Node pos="r" depth="1" NCoef="0" IVar="6" Cut="2.1730177402496338e+00" cType="1" res="8.1263137981295586e-03" rms="4.5169299840927124e-01" purity="5.3452420234680176e-01" nType="0">
          <Node pos="l" depth="2" NCoef="0" IVar="-1" Cut="0.0000000000000000e+00" cType="1" res="2.4388774763792753e-03" rms="4.3170064687728882e-01" purity="6.9999235868453979e-01" nType="-99"/>
          <Node pos="r" depth="2" NCoef="0" IVar="-1" Cut="0.0000000000000000e+00" cType="1" res="-1.6445650544483215e-04" rms="4.5834472775459290e-01" purity="4.7380965948104858e-01" nType="-99"/>
        </Node>
      </Node>
    </BinaryTree>
    <BinaryTree type="DecisionTree" boostWeight="1.0000000000000000e+00" itree="614">
      <Node pos="s" depth="0" NCoef="0" IVar="3" Cut="-2.3730153217911720e-02" cType="1" res="2.5450899265706539e-03" rms="4.5382869243621826e-01" purity="5.0131314992904663e-01" nType="0">
        <Node pos="l" depth="1" NCoef="0" IVar="4" Cut="4.1749936342239380e-01" cType="1" res="-9.6283955499529839e-03" rms="4.5853412151336670e-01" purity="5.3867310285568237e-01" nType="0">
          <Node pos="l" depth="2" NCoef="0" IVar="-1" Cut="0.0000000000000000e+00" cType="1" res="-3.5492507740855217e-03" rms="4.5017540454864502e-01" purity="4.5289415121078491e-01" nType="-99"/>
          <Node pos="r" depth="2" NCoef="0" IVar="-1" Cut="0.0000000000000000e+00" cType="1" res="3.3512341906316578e-04" rms="4.6018052101135254e-01" purity="5.6614297628402710e-01" nType="-99"/>
        </Node>
        <Node pos="r" depth="1" NCoef="0" IVar="7" Cut="1.0883866119384766e+02" cType="1" res="6.7974296398460865e-03" rms="4.5209622383117676e-01" purity="4.8826283216476440e-01" nType="0">
          <Node pos="l" depth="2" NCoef="0" IVar="-1" Cut="0.0000000000000000e+00" cType="1" res="1.8036381516139954e-04" rms="4.5322695374488831e-01" purity="4.6744188666343689e-01" nType="-99"/>
          <Node pos="r" depth="2" NCoef="0" IVar="-1" Cut="0.0000000000000000e+00" cType="1" res="2.2604742553085089e-03" rms="4.4274887442588806e-01" purity="6.3951879739761353e-01" nType="-99"/>
        </Node>
      </Node>
    </BinaryTree>
    <BinaryTree type="DecisionTree" boostWeight="1.0000000000000000e+00" itree="615">
      <Node pos="s" depth="0" NCoef="0" IVar="8" Cut="1.6071330308914185e+00" cType="1" res="2.7708867564797401e-03" rms="4.5137140154838562e-01" purity="5.0383490324020386e-01" nType="0">
        <Node pos="l" depth="1" NCoef="0" IVar="6" Cut="1.5132313966751099e+00" cType="1" res="6.1286292038857937e-03" rms="4.5355826616287231e-01" purity="5.1866209506988525e-01" nType="0">
          <Node pos="l" depth="2" NCoef="0" IVar="-1" Cut="0.0000000000000000e+00" cType="1" res="2.3144516162574291e-03" rms="4.4046708941459656e-01" purity="6.4732503890991211e-01" nType="-99"/>
          <Node pos="r" depth="2" NCoef="0" IVar="-1" Cut="0.0000000000000000e+00" cType="1" res="2.4292986199725419e-04" rms="4.5442962646484375e-01" purity="5.0914269685745239e-01" nType="-99"/>
        </Node>
        <Node pos="r" depth="1" NCoef="0" IVar="3" Cut="3.2978564500808716e-02" cType="1" res="-2.0913584157824516e-02" rms="4.3489843606948853e-01" purity="3.9924874901771545e-01" nType="0">
          <Node pos="l" depth="2" NCoef="0" IVar="-1" Cut="0.0000000000000000e+00" cType="1" res="2.2693267965223640e-04" rms="4.4801634550094604e-01" purity="4.6833935379981995e-01" nType="-99"/>
          <Node pos="r" depth="2" NCoef="0" IVar="-1" Cut="0.0000000000000000e+00" cType="1" res="-2.9247396159917116e-03" rms="4.2108827829360962e-01" purity="3.3515313267707825e-01" nType="-99"/>
        </Node>
      </Node>
    </BinaryTree>
    <BinaryTree type="DecisionTree" boostWeight="1.0000000000000000e+00" itree="616">
      <Node pos="s" depth="0" NCoef="0" IVar="0" Cut="3.9956388473510742e+00" cType="1" res="-4.5727393589913845e-03" rms="4.5226222276687622e-01" purity="4.9429032206535339e-01" nType="0">
        <Node pos="l" depth="1" NCoef="0" IVar="5" Cut="9.2915481328964233e-01" cType="1" res="-9.5071075484156609e-03" rms="4.6077460050582886e-01" purity="4.2526543140411377e-01" nType="0">
          <Node pos="l" depth="2" NCoef="0" IVar="-1" Cut="0.0000000000000000e+00" cType="1" res="6.3259713351726532e-04" rms="4.3965217471122742e-01" purity="3.1659829616546631e-01" nType="-99"/>
          <Node pos="r" depth="2" NCoef="0" IVar="-1" Cut="0.0000000000000000e+00" cType="1" res="-9.4974564854055643e-04" rms="4.6729803085327148e-01" purity="4.6075963973999023e-01" nType="-99"/>
        </Node>
        <Node pos="r" depth="1" NCoef="0" IVar="1" Cut="4.8268267822265625e+02" cType="1" res="1.1787816882133484e-02" rms="4.2240175604820251e-01" purity="7.2315150499343872e-01" nType="0">
          <Node pos="l" depth="2" NCoef="0" IVar="-1" Cut="0.0000000000000000e+00" cType="1" res="-7.8204093733802438e-04" rms="4.5326706767082214e-01" purity="6.2777513265609741e-01" nType="-99"/>
          <Node pos="r" depth="2" NCoef="0" IVar="-1" Cut="0.0000000000000000e+00" cType="1" res="1.6491933492943645e-03" rms="4.0733826160430908e-01" purity="7.6587754487991333e-01" nType="-99"/>
        </Node>
      </Node>
    </BinaryTree>
    <BinaryTree type="DecisionTree" boostWeight="1.0000000000000000e+00" itree="617">
      <Node pos="s" depth="0" NCoef="0" IVar="4" Cut="5.7771146297454834e-01" cType="1" res="-5.7125696912407875e-04" rms="4.5601388812065125e-01" purity="4.9694561958312988e-01" nType="0">
        <Node pos="l" depth="1" NCoef="0" IVar="8" Cut="9.6344411373138428e-01" cType="1" res="3.8282622117549181e-03" rms="4.5525029301643372e-01" purity="4.8845240473747253e-01" nType="0">
          <Node pos="l" depth="2" NCoef="0" IVar="-1" Cut="0.0000000000000000e+00" cType="1" res="-4.6734674833714962e-04" rms="4.5776885747909546e-01" purity="5.1983159780502319e-01" nType="-99"/>
          <Node pos="r" depth="2" NCoef="0" IVar="-1" Cut="0.0000000000000000e+00" cType="1" res="7.4047228554263711e-04" rms="4.5332524180412292e-01" purity="4.6663221716880798e-01" nType="-99"/>
        </Node>
        <Node pos="r" depth="1" NCoef="0" IVar="2" Cut="1.1406735229492188e+02" cType="1" res="-1.8694555386900902e-02" rms="4.5870128273963928e-01" purity="5.3193223476409912e-01" nType="0">
          <Node pos="l" depth="2" NCoef="0" IVar="-1" Cut="0.0000000000000000e+00" cType="1" res="-1.9401400350034237e-03" rms="4.6329775452613831e-01" purity="4.9253284931182861e-01" nType="-99"/>
          <Node pos="r" depth="2" NCoef="0" IVar="-1" Cut="0.0000000000000000e+00" cType="1" res="5.1704561337828636e-04" rms="4.4766044616699219e-01" purity="6.1529088020324707e-01" nType="-99"/>
        </Node>
      </Node>
    </BinaryTree>
    <BinaryTree type="DecisionTree" boostWeight="1.0000000000000000e+00" itree="618">
      <Node pos="s" depth="0" NCoef="0" IVar="3" Cut="1.5847456455230713e-01" cType="1" res="3.4555967431515455e-03" rms="4.5391404628753662e-01" purity="5.0236654281616211e-01" nType="0">
        <Node pos="l" depth="1" NCoef="0" IVar="4" Cut="2.8868359327316284e-01" cType="1" res="8.2257069880142808e-04" rms="4.5434325933456421e-01" purity="5.0703251361846924e-01" nType="0">
          <Node pos="l" depth="2" NCoef="0" IVar="-1" Cut="0.0000000000000000e+00" cType="1" res="-1.2562562478706241e-03" rms="4.4941288232803345e-01" purity="4.2532855272293091e-01" nType="-99"/>
          <Node pos="r" depth="2" NCoef="0" IVar="-1" Cut="0.0000000000000000e+00" cType="1" res="5.3112627938389778e-04" rms="4.5592734217643738e-01" purity="5.3742092847824097e-01" nType="-99"/>
        </Node>
        <Node pos="r" depth="1" NCoef="0" IVar="-1" Cut="0.0000000000000000e+00" cType="1" res="2.0116572268307209e-03" rms="4.4849491119384766e-01" purity="4.5372080802917480e-01" nType="-99"/>
      </Node>
    </BinaryTree>
    <BinaryTree type="DecisionTree" boostWeight="1.0000000000000000e+00" itree="619">
      <Node pos="s" depth="0" NCoef="0" IVar="9" Cut="5.5843144655227661e-01" cType="1" res="1.5001189894974232e-03" rms="4.5294827222824097e-01" purity="4.9915754795074463e-01" nType="0">
        <Node pos="l" depth="1" NCoef="0" IVar="9" Cut="3.0369615554809570e-01" cType="1" res="1.2504505924880505e-02" rms="4.5201832056045532e-01" purity="5.4839569330215454e-01" nType="0">
          <Node pos="l" depth="2" NCoef="0" IVar="-1" Cut="0.0000000000000000e+00" cType="1" res="-2.5281330454163253e-04" rms="4.5292338728904724e-01" purity="5.4131013154983521e-01" nType="-99"/>
          <Node pos="r" depth="2" NCoef="0" IVar="-1" Cut="0.0000000000000000e+00" cType="1" res="1.4676764840260148e-03" rms="4.5110091567039490e-01" purity="5.5301386117935181e-01" nType="-99"/>
        </Node>
        <Node pos="r" depth="1" NCoef="0" IVar="4" Cut="6.0292661190032959e-01" cType="1" res="-1.1823966167867184e-02" rms="4.5371460914611816e-01" purity="4.3954011797904968e-01" nType="0">
          <Node pos="l" depth="2" NCoef="0" IVar="-1" Cut="0.0000000000000000e+00" cType="1" res="-4.0288825402967632e-04" rms="4.5313027501106262e-01" purity="4.3404614925384521e-01" nType="-99"/>
          <Node pos="r" depth="2" NCoef="0" IVar="-1" Cut="0.0000000000000000e+00" cType="1" res="-3.1534559093415737e-03" rms="4.5590540766716003e-01" purity="4.7813633084297180e-01" nType="-99"/>
        </Node>
      </Node>
    </BinaryTree>
    <BinaryTree type="DecisionTree" boostWeight="1.0000000000000000e+00" itree="620">
      <Node pos="s" depth="0" NCoef="0" IVar="8" Cut="8.6469542980194092e-01" cType="1" res="2.5510941632091999e-03" rms="4.5288565754890442e-01" purity="5.0182670354843140e-01" nType="0">
        <Node pos="l" depth="1" NCoef="0" IVar="5" Cut="9.6500056982040405e-01" cType="1" res="1.5870759263634682e-02" rms="4.5416155457496643e-01" purity="5.6372761726379395e-01" nType="0">
          <Node pos="l" depth="2" NCoef="0" IVar="-1" Cut="0.0000000000000000e+00" cType="1" res="1.5993239358067513e-03" rms="4.6430572867393494e-01" purity="4.9790650606155396e-01" nType="-99"/>
          <Node pos="r" depth="2" NCoef="0" IVar="-1" Cut="0.0000000000000000e+00" cType="1" res="-4.6543660573661327e-04" rms="4.3220248818397522e-01" purity="6.9591319561004639e-01" nType="-99"/>
        </Node>
        <Node pos="r" depth="1" NCoef="0" IVar="8" Cut="1.7723622322082520e+00" cType="1" res="-3.7944400683045387e-03" rms="4.5213860273361206e-01" purity="4.7233682870864868e-01" nType="0">
          <Node pos="l" depth="2" NCoef="0" IVar="-1" Cut="0.0000000000000000e+00" cType="1" res="-4.5181642053648829e-04" rms="4.5353132486343384e-01" purity="4.7556647658348083e-01" nType="-99"/>
          <Node pos="r" depth="2" NCoef="0" IVar="-1" Cut="0.0000000000000000e+00" cType="1" res="1.7546520102769136e-03" rms="4.3815168738365173e-01" purity="4.4309854507446289e-01" nType="-99"/>
        </Node>
      </Node>
    </BinaryTree>
    <BinaryTree type="DecisionTree" boostWeight="1.0000000000000000e+00" itree="621">
      <Node pos="s" depth="0" NCoef="0" IVar="5" Cut="9.4915187358856201e-01" cType="1" res="-2.9950588941574097e-03" rms="4.5539951324462891e-01" purity="4.9631938338279724e-01" nType="0">
        <Node pos="l" depth="1" NCoef="0" IVar="0" Cut="1.5968084335327148e+00" cType="1" res="9.6543813124299049e-03" rms="4.5313596725463867e-01" purity="3.8423937559127808e-01" nType="0">
          <Node pos="l" depth="2" NCoef="0" IVar="-1" Cut="0.0000000000000000e+00" cType="1" res="-1.4335782034322619e-03" rms="4.2065265774726868e-01" purity="2.6129460334777832e-01" nType="-99"/>
          <Node pos="r" depth="2" NCoef="0" IVar="-1" Cut="0.0000000000000000e+00" cType="1" res="1.4746856177225709e-03" rms="4.6890282630920410e-01" purity="4.5025265216827393e-01" nType="-99"/>
        </Node>
        <Node pos="r" depth="1" NCoef="0" IVar="0" Cut="4.9368662834167480e+00" cType="1" res="-1.3044277206063271e-02" rms="4.5694023370742798e-01" purity="5.8536010980606079e-01" nType="0">
          <Node pos="l" depth="2" NCoef="0" IVar="-1" Cut="0.0000000000000000e+00" cType="1" res="-1.1679333401843905e-03" rms="4.6948608756065369e-01" purity="5.4258465766906738e-01" nType="-99"/>
          <Node pos="r" depth="2" NCoef="0" IVar="-1" Cut="0.0000000000000000e+00" cType="1" res="1.3160628732293844e-03" rms="3.8806587457656860e-01" purity="7.9568845033645630e-01" nType="-99"/>
        </Node>
      </Node>
    </BinaryTree>
    <BinaryTree type="DecisionTree" boostWeight="1.0000000000000000e+00" itree="622">
      <Node pos="s" depth="0" NCoef="0" IVar="3" Cut="6.2922678887844086e-02" cType="1" res="3.0590277165174484e-03" rms="4.5426169037818909e-01" purity="5.0289529561996460e-01" nType="0">
        <Node pos="l" depth="1" NCoef="0" IVar="5" Cut="9.7972828149795532e-01" cType="1" res="-3.9434521459043026e-03" rms="4.5462861657142639e-01" purity="5.1940917968750000e-01" nType="0">
          <Node pos="l" depth="2" NCoef="0" IVar="-1" Cut="0.0000000000000000e+00" cType="1" res="-5.4955336963757873e-04" rms="4.6466010808944702e-01" purity="4.6949398517608643e-01" nType="-99"/>
          <Node pos="r" depth="2" NCoef="0" IVar="-1" Cut="0.0000000000000000e+00" cType="1" res="1.6052825376391411e-03" rms="4.0067431330680847e-01" purity="7.6504200696945190e-01" nType="-99"/>
        </Node>
        <Node pos="r" depth="1" NCoef="0" IVar="7" Cut="7.6051979064941406e+01" cType="1" res="1.7472142353653908e-02" rms="4.5316508412361145e-01" purity="4.6890491247177124e-01" nType="0">
          <Node pos="l" depth="2" NCoef="0" IVar="-1" Cut="0.0000000000000000e+00" cType="1" res="3.7850855733267963e-04" rms="4.4504770636558533e-01" purity="3.9998230338096619e-01" nType="-99"/>
          <Node pos="r" depth="2" NCoef="0" IVar="-1" Cut="0.0000000000000000e+00" cType="1" res="2.1004325244575739e-03" rms="4.6425899863243103e-01" purity="5.6977570056915283e-01" nType="-99"/>
        </Node>
      </Node>
    </BinaryTree>
    <BinaryTree type="DecisionTree" boostWeight="1.0000000000000000e+00" itree="623">
      <Node pos="s" depth="0" NCoef="0" IVar="8" Cut="1.4610739946365356e+00" cType="1" res="4.6276771463453770e-03" rms="4.5519429445266724e-01" purity="5.0734603404998779e-01" nType="0">
        <Node pos="l" depth="1" NCoef="0" IVar="9" Cut="6.5216886997222900e-01" cType="1" res="-1.5975364658515900e-04" rms="4.5726796984672546e-01" purity="5.1810842752456665e-01" nType="0">
          <Node pos="l" depth="2" NCoef="0" IVar="-1" Cut="0.0000000000000000e+00" cType="1" res="-5.4844800615683198e-04" rms="4.5665556192398071e-01" purity="5.4069387912750244e-01" nType="-99"/>
          <Node pos="r" depth="2" NCoef="0" IVar="-1" Cut="0.0000000000000000e+00" cType="1" res="1.0332264937460423e-03" rms="4.5798924565315247e-01" purity="4.7463837265968323e-01" nType="-99"/>
        </Node>
        <Node pos="r" depth="1" NCoef="0" IVar="4" Cut="3.8140937685966492e-01" cType="1" res="2.4654764682054520e-02" rms="4.4585806131362915e-01" purity="4.6232399344444275e-01" nType="0">
          <Node pos="l" depth="2" NCoef="0" IVar="-1" Cut="0.0000000000000000e+00" cType="1" res="1.0883663344429806e-04" rms="4.3623629212379456e-01" purity="3.8382023572921753e-01" nType="-99"/>
          <Node pos="r" depth="2" NCoef="0" IVar="-1" Cut="0.0000000000000000e+00" cType="1" res="2.9167097527533770e-03" rms="4.5391303300857544e-01" purity="5.3876656293869019e-01" nType="-99"/>
        </Node>
      </Node>
    </BinaryTree>
    <BinaryTree type="DecisionTree" boostWeight="1.0000000000000000e+00" itree="624">
      <Node pos="s" depth="0" NCoef="0" IVar="5" Cut="9.4147235155105591e-01" cType="1" res="4.7241286374628544e-03" rms="4.5746788382530212e-01" purity="5.0472176074981689e-01" nType="0">
        <Node pos="l" depth="1" NCoef="0" IVar="5" Cut="9.0717428922653198e-01" cType="1" res="2.1702898666262627e-02" rms="4.5643401145935059e-01" purity="3.8239741325378418e-01" nType="0">
          <Node pos="l" depth="2" NCoef="0" IVar="-1" Cut="0.0000000000000000e+00" cType="1" res="-7.2948925662785769e-04" rms="4.3354865908622742e-01" purity="2.9153528809547424e-01" nType="-99"/>
          <Node pos="r" depth="2" NCoef="0" IVar="-1" Cut="0.0000000000000000e+00" cType="1" res="1.7660253215581179e-03" rms="4.6060538291931152e-01" purity="4.0062662959098816e-01" nType="-99"/>
        </Node>
        <Node pos="r" depth="1" NCoef="0" IVar="9" Cut="8.7878572940826416e-01" cType="1" res="-3.7320547271519899e-03" rms="4.5774704217910767e-01" purity="5.6564474105834961e-01" nType="0">
          <Node pos="l" depth="2" NCoef="0" IVar="-1" Cut="0.0000000000000000e+00" cType="1" res="-6.0304260114207864e-04" rms="4.5594954490661621e-01" purity="5.7550257444381714e-01" nType="-99"/>
          <Node pos="r" depth="2" NCoef="0" IVar="-1" Cut="0.0000000000000000e+00" cType="1" res="2.0098385866731405e-03" rms="4.6723851561546326e-01" purity="5.0378179550170898e-01" nType="-99"/>
        </Node>
      </Node>
    </BinaryTree>
    <BinaryTree type="DecisionTree" boostWeight="1.0000000000000000e+00" itree="625">
      <Node pos="s" depth="0" NCoef="0" IVar="6" Cut="2.8847210407257080e+00" cType="1" res="1.3094478053972125e-03" rms="4.5191442966461182e-01" purity="5.0154662132263184e-01" nType="0">
        <Node pos="l" depth="1" NCoef="0" IVar="9" Cut="8.6540520191192627e-01" cType="1" res="3.9287414401769638e-03" rms="4.5567673444747925e-01" purity="5.1918244361877441e-01" nType="0">
          <Node pos="l" depth="2" NCoef="0" IVar="-1" Cut="0.0000000000000000e+00" cType="1" res="4.6430964721366763e-04" rms="4.5465776324272156e-01" purity="5.3706151247024536e-01" nType="-99"/>
          <Node pos="r" depth="2" NCoef="0" IVar="-1" Cut="0.0000000000000000e+00" cType="1" res="-1.0405289940536022e-03" rms="4.6099686622619629e-01" purity="4.1575884819030762e-01" nType="-99"/>
        </Node>
        <Node pos="r" depth="1" NCoef="0" IVar="-1" Cut="0.0000000000000000e+00" cType="1" res="-3.3857284579426050e-03" rms="3.7923899292945862e-01" purity="2.0050132274627686e-01" nType="-99"/>
      </Node>
    </BinaryTree>
    <BinaryTree type="DecisionTree" boostWeight="1.0000000000000000e+00" itree="626">
      <Node pos="s" depth="0" NCoef="0" IVar="9" Cut="5.4149627685546875e-01" cType="1" res="-3.8050818257033825e-03" rms="4.5278885960578918e-01" purity="4.9589079618453979e-01" nType="0">
        <Node pos="l" depth="1" NCoef="0" IVar="9" Cut="3.0909323692321777e-01" cType="1" res="6.7496849223971367e-03" rms="4.5496168732643127e-01" purity="5.4895406961441040e-01" nType="0">
          <Node pos="l" depth="2" NCoef="0" IVar="-1" Cut="0.0000000000000000e+00" cType="1" res="-4.4371624244377017e-04" rms="4.5649939775466919e-01" purity="5.4482042789459229e-01" nType="-99"/>
          <Node pos="r" depth="2" NCoef="0" IVar="-1" Cut="0.0000000000000000e+00" cType="1" res="1.0414944263175130e-03" rms="4.5360580086708069e-01" purity="5.5190044641494751e-01" nType="-99"/>
        </Node>
        <Node pos="r" depth="1" NCoef="0" IVar="9" Cut="9.4374752044677734e-01" cType="1" res="-1.5335664153099060e-02" rms="4.5012038946151733e-01" purity="4.3792176246643066e-01" nType="0">
          <Node pos="l" depth="2" NCoef="0" IVar="-1" Cut="0.0000000000000000e+00" cType="1" res="-1.4242045581340790e-03" rms="4.4948279857635498e-01" purity="4.5000606775283813e-01" nType="-99"/>
          <Node pos="r" depth="2" NCoef="0" IVar="-1" Cut="0.0000000000000000e+00" cType="1" res="6.0504506109282374e-04" rms="4.5137080550193787e-01" purity="3.9769867062568665e-01" nType="-99"/>
        </Node>
      </Node>
    </BinaryTree>
    <BinaryTree type="DecisionTree" boostWeight="1.0000000000000000e+00" itree="627">
      <Node pos="s" depth="0" NCoef="0" IVar="5" Cut="9.6030580997467041e-01" cType="1" res="5.2527198567986488e-03" rms="4.5484328269958496e-01" purity="5.0433701276779175e-01" nType="0">
        <Node pos="l" depth="1" NCoef="0" IVar="2" Cut="1.4942335510253906e+02" cType="1" res="1.5341565012931824e-02" rms="4.5898905396461487e-01" purity="4.2561116814613342e-01" nType="0">
          <Node pos="l" depth="2" NCoef="0" IVar="-1" Cut="0.0000000000000000e+00" cType="1" res="5.7581387227401137e-04" rms="4.5888867974281311e-01" purity="4.1582208871841431e-01" nType="-99"/>
          <Node pos="r" depth="2" NCoef="0" IVar="-1" Cut="0.0000000000000000e+00" cType="1" res="2.9488308355212212e-03" rms="4.5822492241859436e-01" purity="4.7827422618865967e-01" nType="-99"/>
        </Node>
        <Node pos="r" depth="1" NCoef="0" IVar="5" Cut="9.6765321493148804e-01" cType="1" res="-1.0493839159607887e-02" rms="4.4784203171730042e-01" purity="6.2721157073974609e-01" nType="0">
          <Node pos="l" depth="2" NCoef="0" IVar="-1" Cut="0.0000000000000000e+00" cType="1" res="-2.1779388189315796e-03" rms="4.7186282277107239e-01" purity="5.1041597127914429e-01" nType="-99"/>
          <Node pos="r" depth="2" NCoef="0" IVar="-1" Cut="0.0000000000000000e+00" cType="1" res="-1.3723318988922983e-04" rms="4.3937250971794128e-01" purity="6.6539633274078369e-01" nType="-99"/>
        </Node>
      </Node>
    </BinaryTree>
    <BinaryTree type="DecisionTree" boostWeight="1.0000000000000000e+00" itree="628">
      <Node pos="s" depth="0" NCoef="0" IVar="5" Cut="9.1760748624801636e-01" cType="1" res="-3.3788073342293501e-03" rms="4.5307070016860962e-01" purity="4.9617975950241089e-01" nType="0">
        <Node pos="l" depth="1" NCoef="0" IVar="9" Cut="5.0373071432113647e-01" cType="1" res="-3.6467194557189941e-02" rms="4.2298638820648193e-01" purity="2.7004793286323547e-01" nType="0">
          <Node pos="l" depth="2" NCoef="0" IVar="-1" Cut="0.0000000000000000e+00" cType="1" res="-3.1266268342733383e-03" rms="4.3115282058715820e-01" purity="2.8157922625541687e-01" nType="-99"/>
          <Node pos="r" depth="2" NCoef="0" IVar="-1" Cut="0.0000000000000000e+00" cType="1" res="-1.7218922730535269e-03" rms="4.1577932238578796e-01" purity="2.6052260398864746e-01" nType="-99"/>
        </Node>
        <Node pos="r" depth="1" NCoef="0" IVar="3" Cut="1.3632284104824066e-01" cType="1" res="9.2398398555815220e-04" rms="4.5666119456291199e-01" purity="5.2558577060699463e-01" nType="0">
          <Node pos="l" depth="2" NCoef="0" IVar="-1" Cut="0.0000000000000000e+00" cType="1" res="-1.4010790619067848e-04" rms="4.5659151673316956e-01" purity="5.3288930654525757e-01" nType="-99"/>
          <Node pos="r" depth="2" NCoef="0" IVar="-1" Cut="0.0000000000000000e+00" cType="1" res="1.4849468134343624e-03" rms="4.5653015375137329e-01" purity="4.7387391328811646e-01" nType="-99"/>
        </Node>
      </Node>
    </BinaryTree>
    <BinaryTree type="DecisionTree" boostWeight="1.0000000000000000e+00" itree="629">
      <Node pos="s" depth="0" NCoef="0" IVar="6" Cut="2.3849046230316162e+00" cType="1" res="2.7649349067360163e-03" rms="4.5233637094497681e-01" purity="5.0192320346832275e-01" nType="0">
        <Node pos="l" depth="1" NCoef="0" IVar="3" Cut="1.5575495362281799e-01" cType="1" res="8.5599571466445923e-03" rms="4.5523276925086975e-01" purity="5.5805999040603638e-01" nType="0">
          <Node pos="l" depth="2" NCoef="0" IVar="-1" Cut="0.0000000000000000e+00" cType="1" res="3.7726096343249083e-04" rms="4.5435467362403870e-01" purity="5.5911618471145630e-01" nType="-99"/>
          <Node pos="r" depth="2" NCoef="0" IVar="-1" Cut="0.0000000000000000e+00" cType="1" res="2.2755300160497427e-03" rms="4.6448060870170593e-01" purity="5.4557424783706665e-01" nType="-99"/>
        </Node>
        <Node pos="r" depth="1" NCoef="0" IVar="3" Cut="7.3574356734752655e-02" cType="1" res="-1.1238194070756435e-02" rms="4.4494828581809998e-01" purity="3.6627382040023804e-01" nType="0">
          <Node pos="l" depth="2" NCoef="0" IVar="-1" Cut="0.0000000000000000e+00" cType="1" res="2.7668572147376835e-04" rms="4.6002203226089478e-01" purity="4.1029691696166992e-01" nType="-99"/>
          <Node pos="r" depth="2" NCoef="0" IVar="-1" Cut="0.0000000000000000e+00" cType="1" res="-2.4541420862078667e-03" rms="4.1946277022361755e-01" purity="2.9824057221412659e-01" nType="-99"/>
        </Node>
      </Node>
    </BinaryTree>
    <BinaryTree type="DecisionTree" boostWeight="1.0000000000000000e+00" itree="630">
      <Node pos="s" depth="0" NCoef="0" IVar="4" Cut="2.5985443592071533e-01" cType="1" res="4.6758670359849930e-03" rms="4.5400518178939819e-01" purity="5.0274419784545898e-01" nType="0">
        <Node pos="l" depth="1" NCoef="0" IVar="8" Cut="7.2483366727828979e-01" cType="1" res="1.8149985000491142e-02" rms="4.5533615350723267e-01" purity="4.4868895411491394e-01" nType="0">
          <Node pos="l" depth="2" NCoef="0" IVar="-1" Cut="0.0000000000000000e+00" cType="1" res="3.7315187510102987e-03" rms="4.6161800622940063e-01" purity="5.5701833963394165e-01" nType="-99"/>
          <Node pos="r" depth="2" NCoef="0" IVar="-1" Cut="0.0000000000000000e+00" cType="1" res="4.5175966806709766e-04" rms="4.5301714539527893e-01" purity="4.2015027999877930e-01" nType="-99"/>
        </Node>
        <Node pos="r" depth="1" NCoef="0" IVar="5" Cut="9.8760646581649780e-01" cType="1" res="-3.9002503035590053e-04" rms="4.5340022444725037e-01" purity="5.2306747436523438e-01" nType="0">
          <Node pos="l" depth="2" NCoef="0" IVar="-1" Cut="0.0000000000000000e+00" cType="1" res="-2.2651202743873000e-04" rms="4.6003451943397522e-01" purity="4.9498963356018066e-01" nType="-99"/>
          <Node pos="r" depth="2" NCoef="0" IVar="-1" Cut="0.0000000000000000e+00" cType="1" res="2.6303930208086967e-03" rms="3.7847143411636353e-01" purity="8.0623883008956909e-01" nType="-99"/>
        </Node>
      </Node>
    </BinaryTree>
    <BinaryTree type="DecisionTree" boostWeight="1.0000000000000000e+00" itree="631">
      <Node pos="s" depth="0" NCoef="0" IVar="5" Cut="9.7589880228042603e-01" cType="1" res="3.9120945148169994e-03" rms="4.5380499958992004e-01" purity="5.0154262781143188e-01" nType="0">
        <Node pos="l" depth="1" NCoef="0" IVar="4" Cut="6.9074320793151855e-01" cType="1" res="8.9582595974206924e-03" rms="4.5787146687507629e-01" purity="4.5597359538078308e-01" nType="0">
          <Node pos="l" depth="2" NCoef="0" IVar="-1" Cut="0.0000000000000000e+00" cType="1" res="3.8498896174132824e-04" rms="4.5755225419998169e-01" purity="4.4903519749641418e-01" nType="-99"/>
          <Node pos="r" depth="2" NCoef="0" IVar="-1" Cut="0.0000000000000000e+00" cType="1" res="2.7963207103312016e-03" rms="4.6067664027214050e-01" purity="5.5340546369552612e-01" nType="-99"/>
        </Node>
        <Node pos="r" depth="1" NCoef="0" IVar="2" Cut="8.1210937500000000e+01" cType="1" res="-1.7149506136775017e-02" rms="4.3579307198524475e-01" purity="6.9173777103424072e-01" nType="0">
          <Node pos="l" depth="2" NCoef="0" IVar="-1" Cut="0.0000000000000000e+00" cType="1" res="-3.1151829753071070e-03" rms="4.5678323507308960e-01" purity="6.5175431966781616e-01" nType="-99"/>
          <Node pos="r" depth="2" NCoef="0" IVar="-1" Cut="0.0000000000000000e+00" cType="1" res="-1.1609528883127496e-04" rms="4.2271992564201355e-01" purity="7.1425652503967285e-01" nType="-99"/>
        </Node>
      </Node>
    </BinaryTree>
    <BinaryTree type="DecisionTree" boostWeight="1.0000000000000000e+00" itree="632">
      <Node pos="s" depth="0" NCoef="0" IVar="6" Cut="1.8561952114105225e+00" cType="1" res="-4.3635331094264984e-03" rms="4.5396178960800171e-01" purity="4.9537661671638489e-01" nType="0">
        <Node pos="l" depth="1" NCoef="0" IVar="2" Cut="7.9103721618652344e+01" cType="1" res="1.2075100094079971e-02" rms="4.4911301136016846e-01" purity="5.9047043323516846e-01" nType="0">
          <Node pos="l" depth="2" NCoef="0" IVar="-1" Cut="0.0000000000000000e+00" cType="1" res="-1.9876593432854861e-04" rms="4.5662808418273926e-01" purity="5.3535205125808716e-01" nType="-99"/>
          <Node pos="r" depth="2" NCoef="0" IVar="-1" Cut="0.0000000000000000e+00" cType="1" res="2.5314593221992254e-03" rms="4.3429115414619446e-01" purity="6.8723702430725098e-01" nType="-99"/>
        </Node>
        <Node pos="r" depth="1" NCoef="0" IVar="1" Cut="4.0923263549804688e+02" cType="1" res="-8.3570964634418488e-03" rms="4.5504230260848999e-01" purity="4.7227469086647034e-01" nType="0">
          <Node pos="l" depth="2" NCoef="0" IVar="-1" Cut="0.0000000000000000e+00" cType="1" res="9.3159376410767436e-04" rms="4.3344357609748840e-01" purity="3.4173899888992310e-01" nType="-99"/>
          <Node pos="r" depth="2" NCoef="0" IVar="-1" Cut="0.0000000000000000e+00" cType="1" res="-7.9124531475827098e-04" rms="4.5919185876846313e-01" purity="4.9885746836662292e-01" nType="-99"/>
        </Node>
      </Node>
    </BinaryTree>
    <BinaryTree type="DecisionTree" boostWeight="1.0000000000000000e+00" itree="633">
      <Node pos="s" depth="0" NCoef="0" IVar="9" Cut="3.8786748051643372e-01" cType="1" res="-5.7641189778223634e-04" rms="4.5339992642402649e-01" purity="4.9859398603439331e-01" nType="0">
        <Node pos="l" depth="1" NCoef="0" IVar="5" Cut="9.8032307624816895e-01" cType="1" res="-1.5571743249893188e-02" rms="4.5465826988220215e-01" purity="5.3034865856170654e-01" nType="0">
          <Node pos="l" depth="2" NCoef="0" IVar="-1" Cut="0.0000000000000000e+00" cType="1" res="-1.3711169594898820e-03" rms="4.6607726812362671e-01" purity="4.7958868741989136e-01" nType="-99"/>
          <Node pos="r" depth="2" NCoef="0" IVar="-1" Cut="0.0000000000000000e+00" cType="1" res="1.6984419198706746e-03" rms="3.8804006576538086e-01" purity="7.9362928867340088e-01" nType="-99"/>
        </Node>
        <Node pos="r" depth="1" NCoef="0" IVar="9" Cut="4.5250096917152405e-01" cType="1" res="6.6427327692508698e-03" rms="4.5261576771736145e-01" purity="4.8330649733543396e-01" nType="0">
          <Node pos="l" depth="2" NCoef="0" IVar="-1" Cut="0.0000000000000000e+00" cType="1" res="2.1872546058148146e-03" rms="4.5714828372001648e-01" purity="5.7277667522430420e-01" nType="-99"/>
          <Node pos="r" depth="2" NCoef="0" IVar="-1" Cut="0.0000000000000000e+00" cType="1" res="1.5536513819824904e-04" rms="4.5178455114364624e-01" purity="4.6992933750152588e-01" nType="-99"/>
        </Node>
      </Node>
    </BinaryTree>
    <BinaryTree type="DecisionTree" boostWeight="1.0000000000000000e+00" itree="634">
      <Node pos="s" depth="0" NCoef="0" IVar="9" Cut="9.4997161626815796e-01" cType="1" res="-5.0323186442255974e-03" rms="4.5653265714645386e-01" purity="4.9417495727539062e-01" nType="0">
        <Node pos="l" depth="1" NCoef="0" IVar="3" Cut="3.6043461412191391e-02" cType="1" res="-9.2440145090222359e-03" rms="4.5609512925148010e-01" purity="5.0219875574111938e-01" nType="0">
          <Node pos="l" depth="2" NCoef="0" IVar="-1" Cut="0.0000000000000000e+00" cType="1" res="7.8907098213676363e-05" rms="4.5955944061279297e-01" purity="5.4348474740982056e-01" nType="-99"/>
          <Node pos="r" depth="2" NCoef="0" IVar="-1" Cut="0.0000000000000000e+00" cType="1" res="-1.4727450907230377e-03" rms="4.5103985071182251e-01" purity="4.4700124859809875e-01" nType="-99"/>
        </Node>
        <Node pos="r" depth="1" NCoef="0" IVar="3" Cut="3.6400929093360901e-02" cType="1" res="3.1709287315607071e-02" rms="4.5869481563568115e-01" purity="4.2417758703231812e-01" nType="0">
          <Node pos="l" depth="2" NCoef="0" IVar="-1" Cut="0.0000000000000000e+00" cType="1" res="4.9682159442454576e-04" rms="4.6376228332519531e-01" purity="4.2742225527763367e-01" nType="-99"/>
          <Node pos="r" depth="2" NCoef="0" IVar="-1" Cut="0.0000000000000000e+00" cType="1" res="3.7341264542192221e-03" rms="4.5221608877182007e-01" purity="4.2089203000068665e-01" nType="-99"/>
        </Node>
      </Node>
    </BinaryTree>
    <BinaryTree type="DecisionTree" boostWeight="1.0000000000000000e+00" itree="635">
      <Node pos="s" depth="0" NCoef="0" IVar="0" Cut="2.7918460369110107e+00" cType="1" res="1.9536332692950964e-03" rms="4.5506763458251953e-01" purity="5.0296849012374878e-01" nType="0">
        <Node pos="l" depth="1" NCoef="0" IVar="9" Cut="8.2632327079772949e-01" cType="1" res="1.0048281401395798e-02" rms="4.5559647679328918e-01" purity="3.8332465291023254e-01" nType="0">
          <Node pos="l" depth="2" NCoef="0" IVar="-1" Cut="0.0000000000000000e+00" cType="1" res="9.8162051290273666e-04" rms="4.6149212121963501e-01" purity="4.0687891840934753e-01" nType="-99"/>
          <Node pos="r" depth="2" NCoef="0" IVar="-1" Cut="0.0000000000000000e+00" cType="1" res="-8.4944342961534858e-04" rms="4.3101942539215088e-01" purity="2.9106774926185608e-01" nType="-99"/>
        </Node>
        <Node pos="r" depth="1" NCoef="0" IVar="6" Cut="2.5936183929443359e+00" cType="1" res="-6.1062690801918507e-03" rms="4.5439720153808594e-01" purity="6.2209880352020264e-01" nType="0">
          <Node pos="l" depth="2" NCoef="0" IVar="-1" Cut="0.0000000000000000e+00" cType="1" res="-7.0420204428955913e-04" rms="4.5053914189338684e-01" purity="6.5061575174331665e-01" nType="-99"/>
          <Node pos="r" depth="2" NCoef="0" IVar="-1" Cut="0.0000000000000000e+00" cType="1" res="1.4724439242854714e-03" rms="4.7608155012130737e-01" purity="4.4813743233680725e-01" nType="-99"/>
        </Node>
      </Node>
    </BinaryTree>
    <BinaryTree type="DecisionTree" boostWeight="1.0000000000000000e+00" itree="636">
      <Node pos="s" depth="0" NCoef="0" IVar="2" Cut="1.4826228332519531e+02" cType="1" res="4.1816765442490578e-03" rms="4.5494467020034790e-01" purity="5.0337082147598267e-01" nType="0">
        <Node pos="l" depth="1" NCoef="0" IVar="0" Cut="9.4799089431762695e-01" cType="1" res="3.4929165849462152e-04" rms="4.5468276739120483e-01" purity="4.9658927321434021e-01" nType="0">
          <Node pos="l" depth="2" NCoef="0" IVar="-1" Cut="0.0000000000000000e+00" cType="1" res="2.2000614553689957e-03" rms="4.4274097681045532e-01" purity="3.0707240104675293e-01" nType="-99"/>
          <Node pos="r" depth="2" NCoef="0" IVar="-1" Cut="0.0000000000000000e+00" cType="1" res="-1.1337856994941831e-04" rms="4.5549261569976807e-01" purity="5.1081901788711548e-01" nType="-99"/>
        </Node>
        <Node pos="r" depth="1" NCoef="0" IVar="9" Cut="6.4046347141265869e-01" cType="1" res="2.4413406848907471e-02" rms="4.5579102635383606e-01" purity="5.3917127847671509e-01" nType="0">
          <Node pos="l" depth="2" NCoef="0" IVar="-1" Cut="0.0000000000000000e+00" cType="1" res="3.4186248667538166e-03" rms="4.5154222846031189e-01" purity="6.2847018241882324e-01" nType="-99"/>
          <Node pos="r" depth="2" NCoef="0" IVar="-1" Cut="0.0000000000000000e+00" cType="1" res="-6.5598153742030263e-04" rms="4.5842123031616211e-01" purity="4.3275219202041626e-01" nType="-99"/>
        </Node>
      </Node>
    </BinaryTree>
    <BinaryTree type="DecisionTree" boostWeight="1.0000000000000000e+00" itree="637">
      <Node pos="s" depth="0" NCoef="0" IVar="0" Cut="2.6012902259826660e+00" cType="1" res="-3.3260446798522025e-05" rms="4.5597624778747559e-01" purity="4.9845221638679504e-01" nType="0">
        <Node pos="l" depth="1" NCoef="0" IVar="6" Cut="2.3224012851715088e+00" cType="1" res="9.3264495953917503e-03" rms="4.5662879943847656e-01" purity="3.7031194567680359e-01" nType="0">
          <Node pos="l" depth="2" NCoef="0" IVar="-1" Cut="0.0000000000000000e+00" cType="1" res="-1.8856209862860851e-05" rms="4.6725729107856750e-01" purity="4.0888908505439758e-01" nType="-99"/>
          <Node pos="r" depth="2" NCoef="0" IVar="-1" Cut="0.0000000000000000e+00" cType="1" res="1.8334174528717995e-03" rms="4.3787655234336853e-01" purity="3.0603471398353577e-01" nType="-99"/>
        </Node>
        <Node pos="r" depth="1" NCoef="0" IVar="6" Cut="2.5454175472259521e+00" cType="1" res="-7.9842265695333481e-03" rms="4.5527002215385437e-01" purity="6.0730594396591187e-01" nType="0">
          <Node pos="l" depth="2" NCoef="0" IVar="-1" Cut="0.0000000000000000e+00" cType="1" res="-8.3999737398698926e-04" rms="4.5238646864891052e-01" purity="6.3923877477645874e-01" nType="-99"/>
          <Node pos="r" depth="2" NCoef="0" IVar="-1" Cut="0.0000000000000000e+00" cType="1" res="1.1680911993607879e-03" rms="4.6857401728630066e-01" purity="4.4643351435661316e-01" nType="-99"/>
        </Node>
      </Node>
    </BinaryTree>
    <BinaryTree type="DecisionTree" boostWeight="1.0000000000000000e+00" itree="638">
      <Node pos="s" depth="0" NCoef="0" IVar="8" Cut="1.5261281728744507e+00" cType="1" res="-1.1771473102271557e-02" rms="4.5275133848190308e-01" purity="4.8726102709770203e-01" nType="0">
        <Node pos="l" depth="1" NCoef="0" IVar="1" Cut="5.4333850097656250e+02" cType="1" res="-1.6145898029208183e-02" rms="4.5478501915931702e-01" purity="4.9667102098464966e-01" nType="0">
          <Node pos="l" depth="2" NCoef="0" IVar="-1" Cut="0.0000000000000000e+00" cType="1" res="-3.8491978193633258e-04" rms="4.5125985145568848e-01" purity="4.3686833977699280e-01" nType="-99"/>
          <Node pos="r" depth="2" NCoef="0" IVar="-1" Cut="0.0000000000000000e+00" cType="1" res="-1.6438092570751905e-03" rms="4.5810052752494812e-01" purity="5.5723202228546143e-01" nType="-99"/>
        </Node>
        <Node pos="r" depth="1" NCoef="0" IVar="1" Cut="5.2292712402343750e+02" cType="1" res="1.0886665433645248e-02" rms="4.4137451052665710e-01" purity="4.3852001428604126e-01" nType="0">
          <Node pos="l" depth="2" NCoef="0" IVar="-1" Cut="0.0000000000000000e+00" cType="1" res="-1.1023253900930285e-03" rms="4.3039566278457642e-01" purity="3.5262355208396912e-01" nType="-99"/>
          <Node pos="r" depth="2" NCoef="0" IVar="-1" Cut="0.0000000000000000e+00" cType="1" res="3.3930228091776371e-03" rms="4.5528495311737061e-01" purity="5.7974004745483398e-01" nType="-99"/>
        </Node>
      </Node>
    </BinaryTree>
    <BinaryTree type="DecisionTree" boostWeight="1.0000000000000000e+00" itree="639">
      <Node pos="s" depth="0" NCoef="0" IVar="5" Cut="9.7231954336166382e-01" cType="1" res="2.9942523688077927e-03" rms="4.5384627580642700e-01" purity="5.0017058849334717e-01" nType="0">
        <Node pos="l" depth="1" NCoef="0" IVar="1" Cut="5.0676495361328125e+02" cType="1" res="-1.4886567369103432e-03" rms="4.6133679151535034e-01" purity="4.3743091821670532e-01" nType="0">
          <Node pos="l" depth="2" NCoef="0" IVar="-1" Cut="0.0000000000000000e+00" cType="1" res="6.2947731930762529e-04" rms="4.4684502482414246e-01" purity="3.6047008633613586e-01" nType="-99"/>
          <Node pos="r" depth="2" NCoef="0" IVar="-1" Cut="0.0000000000000000e+00" cType="1" res="-6.2786031048744917e-04" rms="4.7266855835914612e-01" purity="5.0041592121124268e-01" nType="-99"/>
        </Node>
        <Node pos="r" depth="1" NCoef="0" IVar="1" Cut="5.9188140869140625e+02" cType="1" res="1.7636518925428391e-02" rms="4.2814207077026367e-01" purity="7.0509344339370728e-01" nType="0">
          <Node pos="l" depth="2" NCoef="0" IVar="-1" Cut="0.0000000000000000e+00" cType="1" res="4.7531921882182360e-04" rms="4.4661933183670044e-01" purity="6.5632605552673340e-01" nType="-99"/>
          <Node pos="r" depth="2" NCoef="0" IVar="-1" Cut="0.0000000000000000e+00" cType="1" res="2.6329567190259695e-03" rms="3.9550021290779114e-01" purity="7.8480887413024902e-01" nType="-99"/>
        </Node>
      </Node>
    </BinaryTree>
    <BinaryTree type="DecisionTree" boostWeight="1.0000000000000000e+00" itree="640">
      <Node pos="s" depth="0" NCoef="0" IVar="9" Cut="4.6093460917472839e-01" cType="1" res="-3.2891083974391222e-03" rms="4.5515117049217224e-01" purity="4.9503755569458008e-01" nType="0">
        <Node pos="l" depth="1" NCoef="0" IVar="4" Cut="5.0885701179504395e-01" cType="1" res="-1.2270405888557434e-02" rms="4.5736381411552429e-01" purity="5.2679944038391113e-01" nType="0">
          <Node pos="l" depth="2" NCoef="0" IVar="-1" Cut="0.0000000000000000e+00" cType="1" res="-1.3567386195063591e-03" rms="4.5969644188880920e-01" purity="5.0123262405395508e-01" nType="-99"/>
          <Node pos="r" depth="2" NCoef="0" IVar="-1" Cut="0.0000000000000000e+00" cType="1" res="3.1226157443597913e-04" rms="4.5257240533828735e-01" purity="5.7344013452529907e-01" nType="-99"/>
        </Node>
        <Node pos="r" depth="1" NCoef="0" IVar="8" Cut="1.5287542343139648e+00" cType="1" res="3.3830041065812111e-03" rms="4.5338523387908936e-01" purity="4.7144201397895813e-01" nType="0">
          <Node pos="l" depth="2" NCoef="0" IVar="-1" Cut="0.0000000000000000e+00" cType="1" res="6.1870308127254248e-04" rms="4.5737841725349426e-01" purity="4.9256762862205505e-01" nType="-99"/>
          <Node pos="r" depth="2" NCoef="0" IVar="-1" Cut="0.0000000000000000e+00" cType="1" res="-1.7927223816514015e-03" rms="4.3282875418663025e-01" purity="3.7213924527168274e-01" nType="-99"/>
        </Node>
      </Node>
    </BinaryTree>
    <BinaryTree type="DecisionTree" boostWeight="1.0000000000000000e+00" itree="641">
      <Node pos="s" depth="0" NCoef="0" IVar="6" Cut="2.5265004634857178e+00" cType="1" res="-1.5995432622730732e-03" rms="4.5280653238296509e-01" purity="4.9657520651817322e-01" nType="0">
        <Node pos="l" depth="1" NCoef="0" IVar="4" Cut="3.6226698756217957e-01" cType="1" res="3.0363502446562052e-03" rms="4.5720878243446350e-01" purity="5.3915351629257202e-01" nType="0">
          <Node pos="l" depth="2" NCoef="0" IVar="-1" Cut="0.0000000000000000e+00" cType="1" res="9.4513432122766972e-04" rms="4.5701047778129578e-01" purity="5.2280503511428833e-01" nType="-99"/>
          <Node pos="r" depth="2" NCoef="0" IVar="-1" Cut="0.0000000000000000e+00" cType="1" res="-4.0309538599103689e-04" rms="4.5713251829147339e-01" purity="5.5161541700363159e-01" nType="-99"/>
        </Node>
        <Node pos="r" depth="1" NCoef="0" IVar="1" Cut="4.6444323730468750e+02" cType="1" res="-2.1545702591538429e-02" rms="4.3278959393501282e-01" purity="3.1338012218475342e-01" nType="0">
          <Node pos="l" depth="2" NCoef="0" IVar="-1" Cut="0.0000000000000000e+00" cType="1" res="9.0960395755246282e-04" rms="4.0962463617324829e-01" purity="2.5555837154388428e-01" nType="-99"/>
          <Node pos="r" depth="2" NCoef="0" IVar="-1" Cut="0.0000000000000000e+00" cType="1" res="-2.5587403215467930e-03" rms="4.4451436400413513e-01" purity="3.4673732519149780e-01" nType="-99"/>
        </Node>
      </Node>
    </BinaryTree>
    <BinaryTree type="DecisionTree" boostWeight="1.0000000000000000e+00" itree="642">
      <Node pos="s" depth="0" NCoef="0" IVar="2" Cut="1.9172851562500000e+02" cType="1" res="-5.5328785674646497e-04" rms="4.5363453030586243e-01" purity="4.9901685118675232e-01" nType="0">
        <Node pos="l" depth="1" NCoef="0" IVar="5" Cut="9.7617852687835693e-01" cType="1" res="-2.7352354954928160e-03" rms="4.5374685525894165e-01" purity="4.9613347649574280e-01" nType="0">
          <Node pos="l" depth="2" NCoef="0" IVar="-1" Cut="0.0000000000000000e+00" cType="1" res="-4.2456557275727391e-04" rms="4.6081286668777466e-01" purity="4.4256582856178284e-01" nType="-99"/>
          <Node pos="r" depth="2" NCoef="0" IVar="-1" Cut="0.0000000000000000e+00" cType="1" res="1.0935453465208411e-03" rms="4.2154797911643982e-01" purity="7.2642397880554199e-01" nType="-99"/>
        </Node>
        <Node pos="r" depth="1" NCoef="0" IVar="-1" Cut="0.0000000000000000e+00" cType="1" res="1.8456716788932681e-03" rms="4.5108053088188171e-01" purity="5.3797698020935059e-01" nType="-99"/>
      </Node>
    </BinaryTree>
    <BinaryTree type="DecisionTree" boostWeight="1.0000000000000000e+00" itree="643">
      <Node pos="s" depth="0" NCoef="0" IVar="1" Cut="5.2736230468750000e+02" cType="1" res="-4.9542458727955818e-03" rms="4.5373287796974182e-01" purity="4.9429661035537720e-01" nType="0">
        <Node pos="l" depth="1" NCoef="0" IVar="7" Cut="4.6366062164306641e+01" cType="1" res="4.7723008319735527e-03" rms="4.5026329159736633e-01" purity="4.2864573001861572e-01" nType="0">
          <Node pos="l" depth="2" NCoef="0" IVar="-1" Cut="0.0000000000000000e+00" cType="1" res="-1.4370538992807269e-03" rms="4.2475539445877075e-01" purity="3.1184488534927368e-01" nType="-99"/>
          <Node pos="r" depth="2" NCoef="0" IVar="-1" Cut="0.0000000000000000e+00" cType="1" res="7.3132297256961465e-04" rms="4.5663428306579590e-01" purity="4.6003997325897217e-01" nType="-99"/>
        </Node>
        <Node pos="r" depth="1" NCoef="0" IVar="6" Cut="1.8269569873809814e+00" cType="1" res="-1.4686676673591137e-02" rms="4.5697104930877686e-01" purity="5.5998724699020386e-01" nType="0">
          <Node pos="l" depth="2" NCoef="0" IVar="-1" Cut="0.0000000000000000e+00" cType="1" res="8.1106577999889851e-04" rms="4.4355401396751404e-01" purity="6.6951918601989746e-01" nType="-99"/>
          <Node pos="r" depth="2" NCoef="0" IVar="-1" Cut="0.0000000000000000e+00" cType="1" res="-1.3107231352478266e-03" rms="4.5984974503517151e-01" purity="5.3405731916427612e-01" nType="-99"/>
        </Node>
      </Node>
    </BinaryTree>
    <BinaryTree type="DecisionTree" boostWeight="1.0000000000000000e+00" itree="644">
      <Node pos="s" depth="0" NCoef="0" IVar="3" Cut="-5.0201997160911560e-02" cType="1" res="3.6834241473115981e-04" rms="4.5461395382881165e-01" purity="4.9958515167236328e-01" nType="0">
        <Node pos="l" depth="1" NCoef="0" IVar="1" Cut="4.8975213623046875e+02" cType="1" res="2.0217377692461014e-02" rms="4.4393649697303772e-01" purity="5.8892613649368286e-01" nType="0">
          <Node pos="l" depth="2" NCoef="0" IVar="-1" Cut="0.0000000000000000e+00" cType="1" res="-5.9390132082626224e-04" rms="4.5863541960716248e-01" purity="4.8055317997932434e-01" nType="-99"/>
          <Node pos="r" depth="2" NCoef="0" IVar="-1" Cut="0.0000000000000000e+00" cType="1" res="2.9500287491828203e-03" rms="4.2900133132934570e-01" purity="6.8352776765823364e-01" nType="-99"/>
        </Node>
        <Node pos="r" depth="1" NCoef="0" IVar="4" Cut="6.3514095544815063e-01" cType="1" res="-2.5322632864117622e-03" rms="4.5608103275299072e-01" purity="4.8652943968772888e-01" nType="0">
          <Node pos="l" depth="2" NCoef="0" IVar="-1" Cut="0.0000000000000000e+00" cType="1" res="1.4144986380415503e-05" rms="4.5571294426918030e-01" purity="4.8391941189765930e-01" nType="-99"/>
          <Node pos="r" depth="2" NCoef="0" IVar="-1" Cut="0.0000000000000000e+00" cType="1" res="-2.0640182774513960e-03" rms="4.5900982618331909e-01" purity="5.1511061191558838e-01" nType="-99"/>
        </Node>
      </Node>
    </BinaryTree>
    <BinaryTree type="DecisionTree" boostWeight="1.0000000000000000e+00" itree="645">
      <Node pos="s" depth="0" NCoef="0" IVar="3" Cut="1.0603285580873489e-01" cType="1" res="1.2585406657308340e-03" rms="4.5480567216873169e-01" purity="5.0030791759490967e-01" nType="0">
        <Node pos="l" depth="1" NCoef="0" IVar="8" Cut="1.4741731882095337e+00" cType="1" res="-3.2709222286939621e-03" rms="4.5615875720977783e-01" purity="5.1125007867813110e-01" nType="0">
          <Node pos="l" depth="2" NCoef="0" IVar="-1" Cut="0.0000000000000000e+00" cType="1" res="-4.9691559979692101e-04" rms="4.5863825082778931e-01" purity="5.2002036571502686e-01" nType="-99"/>
          <Node pos="r" depth="2" NCoef="0" IVar="-1" Cut="0.0000000000000000e+00" cType="1" res="1.1530794436112046e-03" rms="4.4402754306793213e-01" purity="4.7119179368019104e-01" nType="-99"/>
        </Node>
        <Node pos="r" depth="1" NCoef="0" IVar="8" Cut="1.3826215267181396e+00" cType="1" res="1.9851177930831909e-02" rms="4.4872999191284180e-01" purity="4.5539206266403198e-01" nType="0">
          <Node pos="l" depth="2" NCoef="0" IVar="-1" Cut="0.0000000000000000e+00" cType="1" res="2.2902460768818855e-03" rms="4.5383813977241516e-01" purity="4.9717980623245239e-01" nType="-99"/>
          <Node pos="r" depth="2" NCoef="0" IVar="-1" Cut="0.0000000000000000e+00" cType="1" res="-1.6449113609269261e-03" rms="4.3142303824424744e-01" purity="3.4148377180099487e-01" nType="-99"/>
        </Node>
      </Node>
    </BinaryTree>
    <BinaryTree type="DecisionTree" boostWeight="1.0000000000000000e+00" itree="646">
      <Node pos="s" depth="0" NCoef="0" IVar="8" Cut="1.2043409347534180e+00" cType="1" res="-1.3542850501835346e-04" rms="4.5577529072761536e-01" purity="5.0050884485244751e-01" nType="0">
        <Node pos="l" depth="1" NCoef="0" IVar="6" Cut="2.1499722003936768e+00" cType="1" res="-8.0430712550878525e-03" rms="4.5678648352622986e-01" purity="5.2025341987609863e-01" nType="0">
          <Node pos="l" depth="2" NCoef="0" IVar="-1" Cut="0.0000000000000000e+00" cType="1" res="2.3436646733898669e-04" rms="4.5576587319374084e-01" purity="5.9672290086746216e-01" nType="-99"/>
          <Node pos="r" depth="2" NCoef="0" IVar="-1" Cut="0.0000000000000000e+00" cType="1" res="-1.0129754664376378e-03" rms="4.5730912685394287e-01" purity="4.6773827075958252e-01" nType="-99"/>
        </Node>
        <Node pos="r" depth="1" NCoef="0" IVar="4" Cut="5.9985274076461792e-01" cType="1" res="1.3220127671957016e-02" rms="4.5374950766563416e-01" purity="4.6716132760047913e-01" nType="0">
          <Node pos="l" depth="2" NCoef="0" IVar="-1" Cut="0.0000000000000000e+00" cType="1" res="4.3017885764129460e-04" rms="4.5394960045814514e-01" purity="4.4456034898757935e-01" nType="-99"/>
          <Node pos="r" depth="2" NCoef="0" IVar="-1" Cut="0.0000000000000000e+00" cType="1" res="2.6221605949103832e-03" rms="4.5176047086715698e-01" purity="5.6642192602157593e-01" nType="-99"/>
        </Node>
      </Node>
    </BinaryTree>
    <BinaryTree type="DecisionTree" boostWeight="1.0000000000000000e+00" itree="647">
      <Node pos="s" depth="0" NCoef="0" IVar="7" Cut="1.3103948974609375e+02" cType="1" res="1.4880257658660412e-03" rms="4.5254319906234741e-01" purity="5.0203156471252441e-01" nType="0">
        <Node pos="l" depth="1" NCoef="0" IVar="0" Cut="5.2943716049194336e+00" cType="1" res="3.9276243187487125e-03" rms="4.5192155241966248e-01" purity="4.9673762917518616e-01" nType="0">
          <Node pos="l" depth="2" NCoef="0" IVar="-1" Cut="0.0000000000000000e+00" cType="1" res="7.9826066212262958e-05" rms="4.5725587010383606e-01" purity="4.7296905517578125e-01" nType="-99"/>
          <Node pos="r" depth="2" NCoef="0" IVar="-1" Cut="0.0000000000000000e+00" cType="1" res="3.2801451161503792e-03" rms="3.6851173639297485e-01" purity="8.2513958215713501e-01" nType="-99"/>
        </Node>
        <Node pos="r" depth="1" NCoef="0" IVar="-1" Cut="0.0000000000000000e+00" cType="1" res="-2.6671905070543289e-03" rms="4.6108844876289368e-01" purity="5.9307789802551270e-01" nType="-99"/>
      </Node>
    </BinaryTree>
    <BinaryTree type="DecisionTree" boostWeight="1.0000000000000000e+00" itree="648">
      <Node pos="s" depth="0" NCoef="0" IVar="5" Cut="9.6419566869735718e-01" cType="1" res="2.2594789043068886e-03" rms="4.5547097921371460e-01" purity="5.0167638063430786e-01" nType="0">
        <Node pos="l" depth="1" NCoef="0" IVar="3" Cut="3.4915234893560410e-02" cType="1" res="8.2819946110248566e-03" rms="4.6001625061035156e-01" purity="4.2914405465126038e-01" nType="0">
          <Node pos="l" depth="2" NCoef="0" IVar="-1" Cut="0.0000000000000000e+00" cType="1" res="-1.3658292300533503e-04" rms="4.6387660503387451e-01" purity="4.4682058691978455e-01" nType="-99"/>
          <Node pos="r" depth="2" NCoef="0" IVar="-1" Cut="0.0000000000000000e+00" cType="1" res="1.2977108126506209e-03" rms="4.5513883233070374e-01" purity="4.0843120217323303e-01" nType="-99"/>
        </Node>
        <Node pos="r" depth="1" NCoef="0" IVar="7" Cut="8.3862838745117188e+01" cType="1" res="-9.7782239317893982e-03" rms="4.4600355625152588e-01" purity="6.4665281772613525e-01" nType="0">
          <Node pos="l" depth="2" NCoef="0" IVar="-1" Cut="0.0000000000000000e+00" cType="1" res="1.6782581224106252e-04" rms="4.4855746626853943e-01" purity="6.2435692548751831e-01" nType="-99"/>
          <Node pos="r" depth="2" NCoef="0" IVar="-1" Cut="0.0000000000000000e+00" cType="1" res="-2.8527544345706701e-03" rms="4.3872743844985962e-01" purity="6.9806402921676636e-01" nType="-99"/>
        </Node>
      </Node>
    </BinaryTree>
    <BinaryTree type="DecisionTree" boostWeight="1.0000000000000000e+00" itree="649">
      <Node pos="s" depth="0" NCoef="0" IVar="0" Cut="5.1412830352783203e+00" cType="1" res="-2.1323524415493011e-03" rms="4.5348837971687317e-01" purity="4.9673342704772949e-01" nType="0">
        <Node pos="l" depth="1" NCoef="0" IVar="3" Cut="-1.9293956458568573e-02" cType="1" res="-4.8534921370446682e-03" rms="4.5934820175170898e-01" purity="4.6978443861007690e-01" nType="0">
          <Node pos="l" depth="2" NCoef="0" IVar="-1" Cut="0.0000000000000000e+00" cType="1" res="-1.2026558397337794e-03" rms="4.5950120687484741e-01" purity="5.0348764657974243e-01" nType="-99"/>
          <Node pos="r" depth="2" NCoef="0" IVar="-1" Cut="0.0000000000000000e+00" cType="1" res="4.8961119318846613e-05" rms="4.5916432142257690e-01" purity="4.5689937472343445e-01" nType="-99"/>
        </Node>
        <Node pos="r" depth="1" NCoef="0" IVar="-1" Cut="0.0000000000000000e+00" cType="1" res="2.3994480725377798e-03" rms="3.7666040658950806e-01" purity="8.1249701976776123e-01" nType="-99"/>
      </Node>
    </BinaryTree>
    <BinaryTree type="DecisionTree" boostWeight="1.0000000000000000e+00" itree="650">
      <Node pos="s" depth="0" NCoef="0" IVar="8" Cut="7.8140419721603394e-01" cType="1" res="5.5144554935395718e-03" rms="4.5466092228889465e-01" purity="5.0526237487792969e-01" nType="0">
        <Node pos="l" depth="1" NCoef="0" IVar="8" Cut="6.3850730657577515e-01" cType="1" res="-6.8507278338074684e-03" rms="4.5350110530853271e-01" purity="5.4133939743041992e-01" nType="0">
          <Node pos="l" depth="2" NCoef="0" IVar="-1" Cut="0.0000000000000000e+00" cType="1" res="1.0625100694596767e-03" rms="4.4463211297988892e-01" purity="5.7963049411773682e-01" nType="-99"/>
          <Node pos="r" depth="2" NCoef="0" IVar="-1" Cut="0.0000000000000000e+00" cType="1" res="-1.7891182797029614e-03" rms="4.6052208542823792e-01" purity="5.0574731826782227e-01" nType="-99"/>
        </Node>
        <Node pos="r" depth="1" NCoef="0" IVar="1" Cut="4.0984744262695312e+02" cType="1" res="9.5020281150937080e-03" rms="4.5496267080307007e-01" purity="4.9362814426422119e-01" nType="0">
          <Node pos="l" depth="2" NCoef="0" IVar="-1" Cut="0.0000000000000000e+00" cType="1" res="-5.8257603086531162e-04" rms="4.3737152218818665e-01" purity="3.3238241076469421e-01" nType="-99"/>
          <Node pos="r" depth="2" NCoef="0" IVar="-1" Cut="0.0000000000000000e+00" cType="1" res="8.4401608910411596e-04" rms="4.5882624387741089e-01" purity="5.3082668781280518e-01" nType="-99"/>
        </Node>
      </Node>
    </BinaryTree>
    <BinaryTree type="DecisionTree" boostWeight="1.0000000000000000e+00" itree="651">
      <Node pos="s" depth="0" NCoef="0" IVar="4" Cut="1.1239655315876007e-01" cType="1" res="2.3612005170434713e-03" rms="4.5330363512039185e-01" purity="5.0288003683090210e-01" nType="0">
        <Node pos="l" depth="1" NCoef="0" IVar="-1" Cut="0.0000000000000000e+00" cType="1" res="-3.6854762583971024e-03" rms="4.3001046776771545e-01" purity="3.1142586469650269e-01" nType="-99"/>
        <Node pos="r" depth="1" NCoef="0" IVar="8" Cut="9.1195499897003174e-01" cType="1" res="5.6873820722103119e-03" rms="4.5438781380653381e-01" purity="5.1392489671707153e-01" nType="0">
          <Node pos="l" depth="2" NCoef="0" IVar="-1" Cut="0.0000000000000000e+00" cType="1" res="1.0204507270827889e-03" rms="4.5585933327674866e-01" purity="5.6989914178848267e-01" nType="-99"/>
          <Node pos="r" depth="2" NCoef="0" IVar="-1" Cut="0.0000000000000000e+00" cType="1" res="-2.5495439331280068e-05" rms="4.5342832803726196e-01" purity="4.8177486658096313e-01" nType="-99"/>
        </Node>
      </Node>
    </BinaryTree>
    <BinaryTree type="DecisionTree" boostWeight="1.0000000000000000e+00" itree="652">
      <Node pos="s" depth="0" NCoef="0" IVar="9" Cut="9.0684872865676880e-01" cType="1" res="-7.6297851046547294e-04" rms="4.5442759990692139e-01" purity="4.9917355179786682e-01" nType="0">
        <Node pos="l" depth="1" NCoef="0" IVar="1" Cut="4.1822552490234375e+02" cType="1" res="-3.9480160921812057e-03" rms="4.5390415191650391e-01" purity="5.1081877946853638e-01" nType="0">
          <Node pos="l" depth="2" NCoef="0" IVar="-1" Cut="0.0000000000000000e+00" cType="1" res="-1.2239321367815137e-03" rms="4.3727067112922668e-01" purity="3.4659811854362488e-01" nType="-99"/>
          <Node pos="r" depth="2" NCoef="0" IVar="-1" Cut="0.0000000000000000e+00" cType="1" res="-4.0617596823722124e-05" rms="4.5757615566253662e-01" purity="5.4854124784469604e-01" nType="-99"/>
        </Node>
        <Node pos="r" depth="1" NCoef="0" IVar="5" Cut="9.5410901308059692e-01" cType="1" res="2.0456682890653610e-02" rms="4.5733401179313660e-01" purity="4.2158970236778259e-01" nType="0">
          <Node pos="l" depth="2" NCoef="0" IVar="-1" Cut="0.0000000000000000e+00" cType="1" res="2.6710440870374441e-03" rms="4.4929382205009460e-01" purity="3.5825777053833008e-01" nType="-99"/>
          <Node pos="r" depth="2" NCoef="0" IVar="-1" Cut="0.0000000000000000e+00" cType="1" res="-2.7516315458342433e-04" rms="4.6622899174690247e-01" purity="5.0254154205322266e-01" nType="-99"/>
        </Node>
      </Node>
    </BinaryTree>
    <BinaryTree type="DecisionTree" boostWeight="1.0000000000000000e+00" itree="653">
      <Node pos="s" depth="0" NCoef="0" IVar="7" Cut="7.9910781860351562e+01" cType="1" res="1.6526181716471910e-03" rms="4.5624679327011108e-01" purity="4.9705415964126587e-01" nType="0">
        <Node pos="l" depth="1" NCoef="0" IVar="8" Cut="7.5014251470565796e-01" cType="1" res="8.8286614045500755e-03" rms="4.5532676577568054e-01" purity="4.5986011624336243e-01" nType="0">
          <Node pos="l" depth="2" NCoef="0" IVar="-1" Cut="0.0000000000000000e+00" cType="1" res="2.0097491797059774e-03" rms="4.6107062697410583e-01" purity="5.3325062990188599e-01" nType="-99"/>
          <Node pos="r" depth="2" NCoef="0" IVar="-1" Cut="0.0000000000000000e+00" cType="1" res="2.4058257986325771e-04" rms="4.5392572879791260e-01" purity="4.4410684704780579e-01" nType="-99"/>
        </Node>
        <Node pos="r" depth="1" NCoef="0" IVar="3" Cut="6.8728327751159668e-02" cType="1" res="-1.3210956938564777e-02" rms="4.5778894424438477e-01" purity="5.7409340143203735e-01" nType="0">
          <Node pos="l" depth="2" NCoef="0" IVar="-1" Cut="0.0000000000000000e+00" cType="1" res="-1.7018592916429043e-03" rms="4.5543187856674194e-01" purity="5.8809161186218262e-01" nType="-99"/>
          <Node pos="r" depth="2" NCoef="0" IVar="-1" Cut="0.0000000000000000e+00" cType="1" res="8.1958761438727379e-04" rms="4.6117907762527466e-01" purity="5.4692637920379639e-01" nType="-99"/>
        </Node>
      </Node>
    </BinaryTree>
    <BinaryTree type="DecisionTree" boostWeight="1.0000000000000000e+00" itree="654">
      <Node pos="s" depth="0" NCoef="0" IVar="9" Cut="9.8523962497711182e-01" cType="1" res="-2.8969792183488607e-03" rms="4.5271441340446472e-01" purity="4.9616375565528870e-01" nType="0">
        <Node pos="l" depth="1" NCoef="0" IVar="5" Cut="9.4531238079071045e-01" cType="1" res="5.7629839284345508e-04" rms="4.5325317978858948e-01" purity="5.1155567169189453e-01" nType="0">
          <Node pos="l" depth="2" NCoef="0" IVar="-1" Cut="0.0000000000000000e+00" cType="1" res="6.8570912117138505e-04" rms="4.5428919792175293e-01" purity="3.8408601284027100e-01" nType="-99"/>
          <Node pos="r" depth="2" NCoef="0" IVar="-1" Cut="0.0000000000000000e+00" cType="1" res="-3.6987118073739111e-04" rms="4.5250216126441956e-01" purity="5.8917194604873657e-01" nType="-99"/>
        </Node>
        <Node pos="r" depth="1" NCoef="0" IVar="-1" Cut="0.0000000000000000e+00" cType="1" res="-2.4990187957882881e-03" rms="4.4575414061546326e-01" purity="3.4129634499549866e-01" nType="-99"/>
      </Node>
    </BinaryTree>
    <BinaryTree type="DecisionTree" boostWeight="1.0000000000000000e+00" itree="655">
      <Node pos="s" depth="0" NCoef="0" IVar="0" Cut="1.4379200935363770e+00" cType="1" res="-4.5679928734898567e-03" rms="4.5783829689025879e-01" purity="4.9432966113090515e-01" nType="0">
        <Node pos="l" depth="1" NCoef="0" IVar="8" Cut="1.2541618347167969e+00" cType="1" res="1.9067857414484024e-02" rms="4.4372940063476562e-01" purity="3.1683254241943359e-01" nType="0">
          <Node pos="l" depth="2" NCoef="0" IVar="-1" Cut="0.0000000000000000e+00" cType="1" res="2.1826045121997595e-04" rms="4.4673529267311096e-01" purity="3.2110443711280823e-01" nType="-99"/>
          <Node pos="r" depth="2" NCoef="0" IVar="-1" Cut="0.0000000000000000e+00" cType="1" res="3.5607211757451296e-03" rms="4.3721300363540649e-01" purity="3.0953800678253174e-01" nType="-99"/>
        </Node>
        <Node pos="r" depth="1" NCoef="0" IVar="3" Cut="1.0185316205024719e-01" cType="1" res="-8.9972428977489471e-03" rms="4.6029913425445557e-01" purity="5.2759182453155518e-01" nType="0">
          <Node pos="l" depth="2" NCoef="0" IVar="-1" Cut="0.0000000000000000e+00" cType="1" res="-8.5945456521585584e-04" rms="4.6079352498054504e-01" purity="5.4211759567260742e-01" nType="-99"/>
          <Node pos="r" depth="2" NCoef="0" IVar="-1" Cut="0.0000000000000000e+00" cType="1" res="6.1690807342529297e-04" rms="4.5792749524116516e-01" purity="4.7238659858703613e-01" nType="-99"/>
        </Node>
      </Node>
    </BinaryTree>
    <BinaryTree type="DecisionTree" boostWeight="1.0000000000000000e+00" itree="656">
      <Node pos="s" depth="0" NCoef="0" IVar="7" Cut="8.0516883850097656e+01" cType="1" res="-6.1691473238170147e-03" rms="4.5519250631332397e-01" purity="4.9172282218933105e-01" nType="0">
        <Node pos="l" depth="1" NCoef="0" IVar="0" Cut="1.0267132520675659e+00" cType="1" res="-1.1168391210958362e-03" rms="4.5246067643165588e-01" purity="4.5370131731033325e-01" nType="0">
          <Node pos="l" depth="2" NCoef="0" IVar="-1" Cut="0.0000000000000000e+00" cType="1" res="-2.7251844294369221e-03" rms="3.9459410309791565e-01" purity="2.0979517698287964e-01" nType="-99"/>
          <Node pos="r" depth="2" NCoef="0" IVar="-1" Cut="0.0000000000000000e+00" cType="1" res="1.0519965144339949e-04" rms="4.5702537894248962e-01" purity="4.7485309839248657e-01" nType="-99"/>
        </Node>
        <Node pos="r" depth="1" NCoef="0" IVar="9" Cut="8.3361309766769409e-01" cType="1" res="-1.7093965783715248e-02" rms="4.6085503697395325e-01" purity="5.7393819093704224e-01" nType="0">
          <Node pos="l" depth="2" NCoef="0" IVar="-1" Cut="0.0000000000000000e+00" cType="1" res="-6.1134021962061524e-04" rms="4.5930761098861694e-01" purity="6.0007202625274658e-01" nType="-99"/>
          <Node pos="r" depth="2" NCoef="0" IVar="-1" Cut="0.0000000000000000e+00" cType="1" res="-3.4601208753883839e-03" rms="4.6696913242340088e-01" purity="4.3661233782768250e-01" nType="-99"/>
        </Node>
      </Node>
    </BinaryTree>
    <BinaryTree type="DecisionTree" boostWeight="1.0000000000000000e+00" itree="657">
      <Node pos="s" depth="0" NCoef="0" IVar="7" Cut="4.7036994934082031e+01" cType="1" res="3.4438038710504770e-04" rms="4.5405572652816772e-01" purity="4.9894717335700989e-01" nType="0">
        <Node pos="l" depth="1" NCoef="0" IVar="9" Cut="5.9802663326263428e-01" cType="1" res="-2.5490149855613708e-02" rms="4.3530043959617615e-01" purity="3.2266542315483093e-01" nType="0">
          <Node pos="l" depth="2" NCoef="0" IVar="-1" Cut="0.0000000000000000e+00" cType="1" res="-3.3526604529470205e-03" rms="4.3428328633308411e-01" purity="3.2664576172828674e-01" nType="-99"/>
          <Node pos="r" depth="2" NCoef="0" IVar="-1" Cut="0.0000000000000000e+00" cType="1" res="1.8126769282389432e-04" rms="4.3475902080535889e-01" purity="3.1813240051269531e-01" nType="-99"/>
        </Node>
        <Node pos="r" depth="1" NCoef="0" IVar="7" Cut="7.0232864379882812e+01" cType="1" res="4.2242011986672878e-03" rms="4.5667967200279236e-01" purity="5.2542120218276978e-01" nType="0">
          <Node pos="l" depth="2" NCoef="0" IVar="-1" Cut="0.0000000000000000e+00" cType="1" res="1.1671957327052951e-03" rms="4.5690968632698059e-01" purity="4.7900524735450745e-01" nType="-99"/>
          <Node pos="r" depth="2" NCoef="0" IVar="-1" Cut="0.0000000000000000e+00" cType="1" res="-5.5936689022928476e-04" rms="4.5607048273086548e-01" purity="5.6737536191940308e-01" nType="-99"/>
        </Node>
      </Node>
    </BinaryTree>
    <BinaryTree type="DecisionTree" boostWeight="1.0000000000000000e+00" itree="658">
      <Node pos="s" depth="0" NCoef="0" IVar="8" Cut="1.7313312292098999e+00" cType="1" res="5.2674463950097561e-03" rms="4.5370823144912720e-01" purity="5.0445908308029175e-01" nType="0">
        <Node pos="l" depth="1" NCoef="0" IVar="8" Cut="1.1556853055953979e+00" cType="1" res="3.4588577691465616e-03" rms="4.5483404397964478e-01" purity="5.0971788167953491e-01" nType="0">
          <Node pos="l" depth="2" NCoef="0" IVar="-1" Cut="0.0000000000000000e+00" cType="1" res="5.3738523274660110e-04" rms="4.5568245649337769e-01" purity="5.3767418861389160e-01" nType="-99"/>
          <Node pos="r" depth="2" NCoef="0" IVar="-1" Cut="0.0000000000000000e+00" cType="1" res="-3.6066121538169682e-04" rms="4.5317673683166504e-01" purity="4.5997643470764160e-01" nType="-99"/>
        </Node>
        <Node pos="r" depth="1" NCoef="0" IVar="-1" Cut="0.0000000000000000e+00" cType="1" res="1.6605324344709516e-03" rms="4.4047847390174866e-01" purity="4.4590941071510315e-01" nType="-99"/>
      </Node>
    </BinaryTree>
    <BinaryTree type="DecisionTree" boostWeight="1.0000000000000000e+00" itree="659">
      <Node pos="s" depth="0" NCoef="0" IVar="4" Cut="3.0807632207870483e-01" cType="1" res="-3.9436598308384418e-03" rms="4.5556348562240601e-01" purity="4.9540451169013977e-01" nType="0">
        <Node pos="l" depth="1" NCoef="0" IVar="3" Cut="-1.7508002929389477e-03" cType="1" res="8.8386600837111473e-03" rms="4.5356392860412598e-01" purity="4.5370596647262573e-01" nType="0">
          <Node pos="l" depth="2" NCoef="0" IVar="-1" Cut="0.0000000000000000e+00" cType="1" res="-1.9971553701907396e-03" rms="4.4801357388496399e-01" purity="4.4811719655990601e-01" nType="-99"/>
          <Node pos="r" depth="2" NCoef="0" IVar="-1" Cut="0.0000000000000000e+00" cType="1" res="1.0042799403890967e-03" rms="4.5412302017211914e-01" purity="4.5463648438453674e-01" nType="-99"/>
        </Node>
        <Node pos="r" depth="1" NCoef="0" IVar="0" Cut="2.1721010208129883e+00" cType="1" res="-1.1133775115013123e-02" rms="4.5652714371681213e-01" purity="5.1886010169982910e-01" nType="0">
          <Node pos="l" depth="2" NCoef="0" IVar="-1" Cut="0.0000000000000000e+00" cType="1" res="2.3294620041269809e-04" rms="4.5803326368331909e-01" purity="3.6689898371696472e-01" nType="-99"/>
          <Node pos="r" depth="2" NCoef="0" IVar="-1" Cut="0.0000000000000000e+00" cType="1" res="-1.1637344723567367e-03" rms="4.5556542277336121e-01" purity="5.9686547517776489e-01" nType="-99"/>
        </Node>
      </Node>
    </BinaryTree>
    <BinaryTree type="DecisionTree" boostWeight="1.0000000000000000e+00" itree="660">
      <Node pos="s" depth="0" NCoef="0" IVar="5" Cut="9.1781371831893921e-01" cType="1" res="-2.3126516025513411e-03" rms="4.5263132452964783e-01" purity="4.9709540605545044e-01" nType="0">
        <Node pos="l" depth="1" NCoef="0" IVar="6" Cut="2.2746884822845459e+00" cType="1" res="2.2184558212757111e-02" rms="4.3759295344352722e-01" purity="3.2650893926620483e-01" nType="0">
          <Node pos="l" depth="2" NCoef="0" IVar="-1" Cut="0.0000000000000000e+00" cType="1" res="3.3338139764964581e-03" rms="4.6333834528923035e-01" purity="4.0235885977745056e-01" nType="-99"/>
          <Node pos="r" depth="2" NCoef="0" IVar="-1" Cut="0.0000000000000000e+00" cType="1" res="-1.7020775703713298e-03" rms="3.9606064558029175e-01" purity="2.2484043240547180e-01" nType="-99"/>
        </Node>
        <Node pos="r" depth="1" NCoef="0" IVar="8" Cut="1.2847337722778320e+00" cType="1" res="-5.5576581507921219e-03" rms="4.5448702573776245e-01" purity="5.1969200372695923e-01" nType="0">
          <Node pos="l" depth="2" NCoef="0" IVar="-1" Cut="0.0000000000000000e+00" cType="1" res="7.6126540079712868e-05" rms="4.5562765002250671e-01" purity="5.4784113168716431e-01" nType="-99"/>
          <Node pos="r" depth="2" NCoef="0" IVar="-1" Cut="0.0000000000000000e+00" cType="1" res="-1.3102513039484620e-03" rms="4.5154595375061035e-01" purity="4.5650717616081238e-01" nType="-99"/>
        </Node>
      </Node>
    </BinaryTree>
    <BinaryTree type="DecisionTree" boostWeight="1.0000000000000000e+00" itree="661">
      <Node pos="s" depth="0" NCoef="0" IVar="4" Cut="1.0892605781555176e-01" cType="1" res="1.7761380877345800e-03" rms="4.5450559258460999e-01" purity="5.0031256675720215e-01" nType="0">
        <Node pos="l" depth="1" NCoef="0" IVar="-1" Cut="0.0000000000000000e+00" cType="1" res="-2.5311554782092571e-03" rms="4.3159723281860352e-01" purity="3.3646306395530701e-01" nType="-99"/>
        <Node pos="r" depth="1" NCoef="0" IVar="0" Cut="4.1185545921325684e+00" cType="1" res="3.8848652038723230e-03" rms="4.5560625195503235e-01" purity="5.0910311937332153e-01" nType="0">
          <Node pos="l" depth="2" NCoef="0" IVar="-1" Cut="0.0000000000000000e+00" cType="1" res="5.0065765390172601e-04" rms="4.6117442846298218e-01" purity="4.5391282439231873e-01" nType="-99"/>
          <Node pos="r" depth="2" NCoef="0" IVar="-1" Cut="0.0000000000000000e+00" cType="1" res="-8.6384674068540335e-04" rms="4.3372914195060730e-01" purity="7.1586239337921143e-01" nType="-99"/>
        </Node>
      </Node>
    </BinaryTree>
    <BinaryTree type="DecisionTree" boostWeight="1.0000000000000000e+00" itree="662">
      <Node pos="s" depth="0" NCoef="0" IVar="7" Cut="9.7637474060058594e+01" cType="1" res="4.3230778537690639e-03" rms="4.5435369014739990e-01" purity="5.0339484214782715e-01" nType="0">
        <Node pos="l" depth="1" NCoef="0" IVar="2" Cut="1.6094218444824219e+02" cType="1" res="8.6211375892162323e-03" rms="4.5383083820343018e-01" purity="4.8542004823684692e-01" nType="0">
          <Node pos="l" depth="2" NCoef="0" IVar="-1" Cut="0.0000000000000000e+00" cType="1" res="3.6456694942899048e-04" rms="4.5365986227989197e-01" purity="4.8346853256225586e-01" nType="-99"/>
          <Node pos="r" depth="2" NCoef="0" IVar="-1" Cut="0.0000000000000000e+00" cType="1" res="2.2898209281265736e-03" rms="4.5459872484207153e-01" purity="5.0478893518447876e-01" nType="-99"/>
        </Node>
        <Node pos="r" depth="1" NCoef="0" IVar="3" Cut="7.3005624115467072e-02" cType="1" res="-1.7512336373329163e-02" rms="4.5637598633766174e-01" purity="5.9471195936203003e-01" nType="0">
          <Node pos="l" depth="2" NCoef="0" IVar="-1" Cut="0.0000000000000000e+00" cType="1" res="-1.9309496274217963e-03" rms="4.5625132322311401e-01" purity="6.0970443487167358e-01" nType="-99"/>
          <Node pos="r" depth="2" NCoef="0" IVar="-1" Cut="0.0000000000000000e+00" cType="1" res="4.8335309838876128e-04" rms="4.5557630062103271e-01" purity="5.6429785490036011e-01" nType="-99"/>
        </Node>
      </Node>
    </BinaryTree>
    <BinaryTree type="DecisionTree" boostWeight="1.0000000000000000e+00" itree="663">
      <Node pos="s" depth="0" NCoef="0" IVar="8" Cut="9.4042307138442993e-01" cType="1" res="8.5663446225225925e-04" rms="4.5582941174507141e-01" purity="4.9882709980010986e-01" nType="0">
        <Node pos="l" depth="1" NCoef="0" IVar="5" Cut="9.5494884252548218e-01" cType="1" res="-1.3693735003471375e-02" rms="4.5717364549636841e-01" purity="5.2703899145126343e-01" nType="0">
          <Node pos="l" depth="2" NCoef="0" IVar="-1" Cut="0.0000000000000000e+00" cType="1" res="-1.6069314442574978e-03" rms="4.6418693661689758e-01" purity="4.1152378916740417e-01" nType="-99"/>
          <Node pos="r" depth="2" NCoef="0" IVar="-1" Cut="0.0000000000000000e+00" cType="1" res="1.1089919280493632e-04" rms="4.4835945963859558e-01" purity="6.6189932823181152e-01" nType="-99"/>
        </Node>
        <Node pos="r" depth="1" NCoef="0" IVar="8" Cut="1.0642880201339722e+00" cType="1" res="1.0141455568373203e-02" rms="4.5472630858421326e-01" purity="4.8082464933395386e-01" nType="0">
          <Node pos="l" depth="2" NCoef="0" IVar="-1" Cut="0.0000000000000000e+00" cType="1" res="2.0945663563907146e-03" rms="4.5802083611488342e-01" purity="5.5088782310485840e-01" nType="-99"/>
          <Node pos="r" depth="2" NCoef="0" IVar="-1" Cut="0.0000000000000000e+00" cType="1" res="2.9130841721780598e-04" rms="4.5376178622245789e-01" purity="4.6415853500366211e-01" nType="-99"/>
        </Node>
      </Node>
    </BinaryTree>
    <BinaryTree type="DecisionTree" boostWeight="1.0000000000000000e+00" itree="664">
      <Node pos="s" depth="0" NCoef="0" IVar="9" Cut="2.5418427586555481e-01" cType="1" res="-2.1456473041325808e-03" rms="4.5296627283096313e-01" purity="4.9812990427017212e-01" nType="0">
        <Node pos="l" depth="1" NCoef="0" IVar="6" Cut="1.9888836145401001e+00" cType="1" res="1.5600658953189850e-02" rms="4.4426962733268738e-01" purity="5.6667023897171021e-01" nType="0">
          <Node pos="l" depth="2" NCoef="0" IVar="-1" Cut="0.0000000000000000e+00" cType="1" res="2.9259552247822285e-03" rms="4.3567463755607605e-01" purity="6.4192402362823486e-01" nType="-99"/>
          <Node pos="r" depth="2" NCoef="0" IVar="-1" Cut="0.0000000000000000e+00" cType="1" res="-4.8611844249535352e-05" rms="4.4777813553810120e-01" purity="5.2771139144897461e-01" nType="-99"/>
        </Node>
        <Node pos="r" depth="1" NCoef="0" IVar="5" Cut="9.3068832159042358e-01" cType="1" res="-5.4221348837018013e-03" rms="4.5447796583175659e-01" purity="4.8547536134719849e-01" nType="0">
          <Node pos="l" depth="2" NCoef="0" IVar="-1" Cut="0.0000000000000000e+00" cType="1" res="-1.2171446578577161e-03" rms="4.3879115581512451e-01" purity="3.0271723866462708e-01" nType="-99"/>
          <Node pos="r" depth="2" NCoef="0" IVar="-1" Cut="0.0000000000000000e+00" cType="1" res="-1.1812953016487882e-04" rms="4.5854765176773071e-01" purity="5.3470391035079956e-01" nType="-99"/>
        </Node>
      </Node>
    </BinaryTree>
    <BinaryTree type="DecisionTree" boostWeight="1.0000000000000000e+00" itree="665">
      <Node pos="s" depth="0" NCoef="0" IVar="0" Cut="5.0804023742675781e+00" cType="1" res="2.8720842674374580e-03" rms="4.5445343852043152e-01" purity="5.0235426425933838e-01" nType="0">
        <Node pos="l" depth="1" NCoef="0" IVar="6" Cut="1.5492720603942871e+00" cType="1" res="5.9803633484989405e-04" rms="4.6008664369583130e-01" purity="4.7442111372947693e-01" nType="0">
          <Node pos="l" depth="2" NCoef="0" IVar="-1" Cut="0.0000000000000000e+00" cType="1" res="1.3897091848775744e-03" rms="4.5062512159347534e-01" purity="6.0878598690032959e-01" nType="-99"/>
          <Node pos="r" depth="2" NCoef="0" IVar="-1" Cut="0.0000000000000000e+00" cType="1" res="-8.9631474111229181e-05" rms="4.6089965105056763e-01" purity="4.6197649836540222e-01" nType="-99"/>
        </Node>
        <Node pos="r" depth="1" NCoef="0" IVar="-1" Cut="0.0000000000000000e+00" cType="1" res="2.2546576801687479e-03" rms="3.8602146506309509e-01" purity="8.1048232316970825e-01" nType="-99"/>
      </Node>
    </BinaryTree>
    <BinaryTree type="DecisionTree" boostWeight="1.0000000000000000e+00" itree="666">
      <Node pos="s" depth="0" NCoef="0" IVar="9" Cut="5.5939978361129761e-01" cType="1" res="5.9172683395445347e-03" rms="4.5400008559226990e-01" purity="5.0342220067977905e-01" nType="0">
        <Node pos="l" depth="1" NCoef="0" IVar="8" Cut="1.6432003974914551e+00" cType="1" res="1.4377255924046040e-02" rms="4.5478406548500061e-01" purity="5.5107259750366211e-01" nType="0">
          <Node pos="l" depth="2" NCoef="0" IVar="-1" Cut="0.0000000000000000e+00" cType="1" res="6.8988505518063903e-04" rms="4.5468330383300781e-01" purity="5.5675292015075684e-01" nType="-99"/>
          <Node pos="r" depth="2" NCoef="0" IVar="-1" Cut="0.0000000000000000e+00" cType="1" res="2.9286406934261322e-03" rms="4.5453232526779175e-01" purity="4.9759370088577271e-01" nType="-99"/>
        </Node>
        <Node pos="r" depth="1" NCoef="0" IVar="5" Cut="9.7570979595184326e-01" cType="1" res="-4.2773648165166378e-03" rms="4.5284360647201538e-01" purity="4.4600155949592590e-01" nType="0">
          <Node pos="l" depth="2" NCoef="0" IVar="-1" Cut="0.0000000000000000e+00" cType="1" res="1.8591551634017378e-04" rms="4.5142501592636108e-01" purity="4.0526309609413147e-01" nType="-99"/>
          <Node pos="r" depth="2" NCoef="0" IVar="-1" Cut="0.0000000000000000e+00" cType="1" res="-2.4784088600426912e-03" rms="4.5776802301406860e-01" purity="6.2970149517059326e-01" nType="-99"/>
        </Node>
      </Node>
    </BinaryTree>
    <BinaryTree type="DecisionTree" boostWeight="1.0000000000000000e+00" itree="667">
      <Node pos="s" depth="0" NCoef="0" IVar="9" Cut="4.7574192285537720e-01" cType="1" res="4.0632155723869801e-03" rms="4.5295479893684387e-01" purity="5.0318300724029541e-01" nType="0">
        <Node pos="l" depth="1" NCoef="0" IVar="0" Cut="1.2877788543701172e+00" cType="1" res="1.6655987128615379e-02" rms="4.5044949650764465e-01" purity="5.6167954206466675e-01" nType="0">
          <Node pos="l" depth="2" NCoef="0" IVar="-1" Cut="0.0000000000000000e+00" cType="1" res="-1.1508789611980319e-03" rms="4.4577392935752869e-01" purity="3.0993619561195374e-01" nType="-99"/>
          <Node pos="r" depth="2" NCoef="0" IVar="-1" Cut="0.0000000000000000e+00" cType="1" res="1.3166245771571994e-03" rms="4.5087432861328125e-01" purity="5.9496557712554932e-01" nType="-99"/>
        </Node>
        <Node pos="r" depth="1" NCoef="0" IVar="8" Cut="7.8761541843414307e-01" cType="1" res="-5.9272879734635353e-03" rms="4.5468455553054810e-01" purity="4.5677468180656433e-01" nType="0">
          <Node pos="l" depth="2" NCoef="0" IVar="-1" Cut="0.0000000000000000e+00" cType="1" res="1.1786110699176788e-03" rms="4.5795807242393494e-01" purity="5.3998172283172607e-01" nType="-99"/>
          <Node pos="r" depth="2" NCoef="0" IVar="-1" Cut="0.0000000000000000e+00" cType="1" res="-8.6286541773006320e-04" rms="4.5339095592498779e-01" purity="4.3096783757209778e-01" nType="-99"/>
        </Node>
      </Node>
    </BinaryTree>
    <BinaryTree type="DecisionTree" boostWeight="1.0000000000000000e+00" itree="668">
      <Node pos="s" depth="0" NCoef="0" IVar="8" Cut="1.0446467399597168e+00" cType="1" res="-1.2014977633953094e-02" rms="4.5276391506195068e-01" purity="4.8675999045372009e-01" nType="0">
        <Node pos="l" depth="1" NCoef="0" IVar="0" Cut="2.5583748817443848e+00" cType="1" res="-3.9879111573100090e-03" rms="4.5341134071350098e-01" purity="5.3138369321823120e-01" nType="0">
          <Node pos="l" depth="2" NCoef="0" IVar="-1" Cut="0.0000000000000000e+00" cType="1" res="-9.1884552966803312e-04" rms="4.6061250567436218e-01" purity="3.7705129384994507e-01" nType="-99"/>
          <Node pos="r" depth="2" NCoef="0" IVar="-1" Cut="0.0000000000000000e+00" cType="1" res="2.9407159308902919e-04" rms="4.4742307066917419e-01" purity="6.5391492843627930e-01" nType="-99"/>
        </Node>
        <Node pos="r" depth="1" NCoef="0" IVar="2" Cut="1.3569775390625000e+02" cType="1" res="-1.9920302554965019e-02" rms="4.5198607444763184e-01" purity="4.4281312823295593e-01" nType="0">
          <Node pos="l" depth="2" NCoef="0" IVar="-1" Cut="0.0000000000000000e+00" cType="1" res="-8.2990882219746709e-04" rms="4.5088714361190796e-01" purity="4.4821262359619141e-01" nType="-99"/>
          <Node pos="r" depth="2" NCoef="0" IVar="-1" Cut="0.0000000000000000e+00" cType="1" res="-3.1583881936967373e-03" rms="4.5543247461318970e-01" purity="4.2007863521575928e-01" nType="-99"/>
        </Node>
      </Node>
    </BinaryTree>
    <BinaryTree type="DecisionTree" boostWeight="1.0000000000000000e+00" itree="669">
      <Node pos="s" depth="0" NCoef="0" IVar="8" Cut="1.2064157724380493e+00" cType="1" res="8.9307373855262995e-04" rms="4.5447713136672974e-01" purity="4.9978286027908325e-01" nType="0">
        <Node pos="l" depth="1" NCoef="0" IVar="6" Cut="2.0426478385925293e+00" cType="1" res="-6.0063251294195652e-03" rms="4.5480135083198547e-01" purity="5.2050286531448364e-01" nType="0">
          <Node pos="l" depth="2" NCoef="0" IVar="-1" Cut="0.0000000000000000e+00" cType="1" res="1.3001327170059085e-03" rms="4.5008945465087891e-01" purity="6.1430037021636963e-01" nType="-99"/>
          <Node pos="r" depth="2" NCoef="0" IVar="-1" Cut="0.0000000000000000e+00" cType="1" res="-1.0095395846292377e-03" rms="4.5614168047904968e-01" purity="4.8539686203002930e-01" nType="-99"/>
        </Node>
        <Node pos="r" depth="1" NCoef="0" IVar="1" Cut="4.3101174926757812e+02" cType="1" res="1.2833541259169579e-02" rms="4.5366764068603516e-01" purity="4.6392372250556946e-01" nType="0">
          <Node pos="l" depth="2" NCoef="0" IVar="-1" Cut="0.0000000000000000e+00" cType="1" res="-4.5893719652667642e-04" rms="4.3092045187950134e-01" purity="3.2772526144981384e-01" nType="-99"/>
          <Node pos="r" depth="2" NCoef="0" IVar="-1" Cut="0.0000000000000000e+00" cType="1" res="1.2736627832055092e-03" rms="4.6225684881210327e-01" purity="5.1861178874969482e-01" nType="-99"/>
        </Node>
      </Node>
    </BinaryTree>
    <BinaryTree type="DecisionTree" boostWeight="1.0000000000000000e+00" itree="670">
      <Node pos="s" depth="0" NCoef="0" IVar="5" Cut="9.0734314918518066e-01" cType="1" res="-4.1382005438208580e-03" rms="4.5295956730842590e-01" purity="4.9478489160537720e-01" nType="0">
        <Node pos="l" depth="1" NCoef="0" IVar="-1" Cut="0.0000000000000000e+00" cType="1" res="-2.3828367702662945e-03" rms="4.1892632842063904e-01" purity="2.6570433378219604e-01" nType="-99"/>
        <Node pos="r" depth="1" NCoef="0" IVar="4" Cut="5.7810348272323608e-01" cType="1" res="-2.0691151730716228e-03" rms="4.5494624972343445e-01" purity="5.0926572084426880e-01" nType="0">
          <Node pos="l" depth="2" NCoef="0" IVar="-1" Cut="0.0000000000000000e+00" cType="1" res="1.1070982873206958e-04" rms="4.5497697591781616e-01" purity="4.9692586064338684e-01" nType="-99"/>
          <Node pos="r" depth="2" NCoef="0" IVar="-1" Cut="0.0000000000000000e+00" cType="1" res="-1.0927190305665135e-03" rms="4.5451200008392334e-01" purity="5.5777573585510254e-01" nType="-99"/>
        </Node>
      </Node>
    </BinaryTree>
    <BinaryTree type="DecisionTree" boostWeight="1.0000000000000000e+00" itree="671">
      <Node pos="s" depth="0" NCoef="0" IVar="2" Cut="1.4660421752929688e+02" cType="1" res="-3.4582400694489479e-03" rms="4.5433083176612854e-01" purity="4.9491286277770996e-01" nType="0">
        <Node pos="l" depth="1" NCoef="0" IVar="3" Cut="1.0892093181610107e-01" cType="1" res="-7.3818843811750412e-03" rms="4.5402061939239502e-01" purity="4.8828309774398804e-01" nType="0">
          <Node pos="l" depth="2" NCoef="0" IVar="-1" Cut="0.0000000000000000e+00" cType="1" res="-2.1664933592546731e-04" rms="4.5598536729812622e-01" purity="5.0449675321578979e-01" nType="-99"/>
          <Node pos="r" depth="2" NCoef="0" IVar="-1" Cut="0.0000000000000000e+00" cType="1" res="-1.5907072229310870e-03" rms="4.4475510716438293e-01" purity="4.1613516211509705e-01" nType="-99"/>
        </Node>
        <Node pos="r" depth="1" NCoef="0" IVar="9" Cut="4.5257994532585144e-01" cType="1" res="1.5390551649034023e-02" rms="4.5534712076187134e-01" purity="5.2676135301589966e-01" nType="0">
          <Node pos="l" depth="2" NCoef="0" IVar="-1" Cut="0.0000000000000000e+00" cType="1" res="2.9437930788844824e-03" rms="4.5242360234260559e-01" purity="6.3871121406555176e-01" nType="-99"/>
          <Node pos="r" depth="2" NCoef="0" IVar="-1" Cut="0.0000000000000000e+00" cType="1" res="8.8989116193260998e-05" rms="4.5598816871643066e-01" purity="4.7570809721946716e-01" nType="-99"/>
        </Node>
      </Node>
    </BinaryTree>
    <BinaryTree type="DecisionTree" boostWeight="1.0000000000000000e+00" itree="672">
      <Node pos="s" depth="0" NCoef="0" IVar="9" Cut="1.0317317247390747e+00" cType="1" res="-5.9109684079885483e-03" rms="4.5475262403488159e-01" purity="4.9383240938186646e-01" nType="0">
        <Node pos="l" depth="1" NCoef="0" IVar="2" Cut="1.5932534790039062e+02" cType="1" res="-3.6858227103948593e-03" rms="4.5493611693382263e-01" purity="5.0451260805130005e-01" nType="0">
          <Node pos="l" depth="2" NCoef="0" IVar="-1" Cut="0.0000000000000000e+00" cType="1" res="-4.3635210022330284e-04" rms="4.5344933867454529e-01" purity="4.9785304069519043e-01" nType="-99"/>
          <Node pos="r" depth="2" NCoef="0" IVar="-1" Cut="0.0000000000000000e+00" cType="1" res="1.2990938266739249e-03" rms="4.6481639146804810e-01" purity="5.5251598358154297e-01" nType="-99"/>
        </Node>
        <Node pos="r" depth="1" NCoef="0" IVar="-1" Cut="0.0000000000000000e+00" cType="1" res="-2.4603686761111021e-03" rms="4.5097720623016357e-01" purity="3.4283155202865601e-01" nType="-99"/>
      </Node>
    </BinaryTree>
    <BinaryTree type="DecisionTree" boostWeight="1.0000000000000000e+00" itree="673">
      <Node pos="s" depth="0" NCoef="0" IVar="8" Cut="1.0835695266723633e+00" cType="1" res="1.6066216630861163e-03" rms="4.5438179373741150e-01" purity="5.0162816047668457e-01" nType="0">
        <Node pos="l" depth="1" NCoef="0" IVar="0" Cut="1.7799297571182251e+00" cType="1" res="1.0974842123687267e-02" rms="4.5766562223434448e-01" purity="5.4403370618820190e-01" nType="0">
          <Node pos="l" depth="2" NCoef="0" IVar="-1" Cut="0.0000000000000000e+00" cType="1" res="2.3837769404053688e-03" rms="4.6572422981262207e-01" purity="3.8628512620925903e-01" nType="-99"/>
          <Node pos="r" depth="2" NCoef="0" IVar="-1" Cut="0.0000000000000000e+00" cType="1" res="2.0917678193654865e-04" rms="4.5498871803283691e-01" purity="5.9044790267944336e-01" nType="-99"/>
        </Node>
        <Node pos="r" depth="1" NCoef="0" IVar="5" Cut="9.7615104913711548e-01" cType="1" res="-8.8875750079751015e-03" rms="4.5044353604316711e-01" purity="4.5412576198577881e-01" nType="0">
          <Node pos="l" depth="2" NCoef="0" IVar="-1" Cut="0.0000000000000000e+00" cType="1" res="-8.5639912867918611e-04" rms="4.5397847890853882e-01" purity="4.0169686079025269e-01" nType="-99"/>
          <Node pos="r" depth="2" NCoef="0" IVar="-1" Cut="0.0000000000000000e+00" cType="1" res="8.1182242138311267e-04" rms="4.3413290381431580e-01" purity="6.8192875385284424e-01" nType="-99"/>
        </Node>
      </Node>
    </BinaryTree>
    <BinaryTree type="DecisionTree" boostWeight="1.0000000000000000e+00" itree="674">
      <Node pos="s" depth="0" NCoef="0" IVar="8" Cut="1.4623398780822754e+00" cType="1" res="-1.7438080394640565e-03" rms="4.5428714156150818e-01" purity="4.9782198667526245e-01" nType="0">
        <Node pos="l" depth="1" NCoef="0" IVar="3" Cut="-1.3957241550087929e-02" cType="1" res="2.7412965428084135e-03" rms="4.5674455165863037e-01" purity="5.1820367574691772e-01" nType="0">
          <Node pos="l" depth="2" NCoef="0" IVar="-1" Cut="0.0000000000000000e+00" cType="1" res="-8.0350355710834265e-04" rms="4.5647037029266357e-01" purity="5.4299712181091309e-01" nType="-99"/>
          <Node pos="r" depth="2" NCoef="0" IVar="-1" Cut="0.0000000000000000e+00" cType="1" res="6.2902079662308097e-04" rms="4.5669096708297729e-01" purity="5.0650388002395630e-01" nType="-99"/>
        </Node>
        <Node pos="r" depth="1" NCoef="0" IVar="3" Cut="4.4935911893844604e-02" cType="1" res="-2.0232351496815681e-02" rms="4.4353514909744263e-01" purity="4.1380444169044495e-01" nType="0">
          <Node pos="l" depth="2" NCoef="0" IVar="-1" Cut="0.0000000000000000e+00" cType="1" res="2.9128932510502636e-04" rms="4.5824348926544189e-01" purity="4.7562980651855469e-01" nType="-99"/>
          <Node pos="r" depth="2" NCoef="0" IVar="-1" Cut="0.0000000000000000e+00" cType="1" res="-3.4863685723394156e-03" rms="4.2195680737495422e-01" purity="3.3509135246276855e-01" nType="-99"/>
        </Node>
      </Node>
    </BinaryTree>
    <BinaryTree type="DecisionTree" boostWeight="1.0000000000000000e+00" itree="675">
      <Node pos="s" depth="0" NCoef="0" IVar="9" Cut="3.7607401609420776e-01" cType="1" res="-1.1510167678352445e-04" rms="4.5340561866760254e-01" purity="4.9876376986503601e-01" nType="0">
        <Node pos="l" depth="1" NCoef="0" IVar="8" Cut="7.0434427261352539e-01" cType="1" res="-1.4887287281453609e-02" rms="4.5489853620529175e-01" purity="5.3848427534103394e-01" nType="0">
          <Node pos="l" depth="2" NCoef="0" IVar="-1" Cut="0.0000000000000000e+00" cType="1" res="-3.1817012932151556e-03" rms="4.4716987013816833e-01" purity="5.6408643722534180e-01" nType="-99"/>
          <Node pos="r" depth="2" NCoef="0" IVar="-1" Cut="0.0000000000000000e+00" cType="1" res="-4.3748691678047180e-04" rms="4.5627957582473755e-01" purity="5.3264409303665161e-01" nType="-99"/>
        </Node>
        <Node pos="r" depth="1" NCoef="0" IVar="2" Cut="1.3331697082519531e+02" cType="1" res="6.4395796507596970e-03" rms="4.5258718729019165e-01" purity="4.8113906383514404e-01" nType="0">
          <Node pos="l" depth="2" NCoef="0" IVar="-1" Cut="0.0000000000000000e+00" cType="1" res="8.5008505266159773e-04" rms="4.5275223255157471e-01" purity="4.8640108108520508e-01" nType="-99"/>
          <Node pos="r" depth="2" NCoef="0" IVar="-1" Cut="0.0000000000000000e+00" cType="1" res="-9.1813644394278526e-04" rms="4.5145058631896973e-01" purity="4.6558183431625366e-01" nType="-99"/>
        </Node>
      </Node>
    </BinaryTree>
    <BinaryTree type="DecisionTree" boostWeight="1.0000000000000000e+00" itree="676">
      <Node pos="s" depth="0" NCoef="0" IVar="0" Cut="3.5641639232635498e+00" cType="1" res="4.1889613494277000e-03" rms="4.5505797863006592e-01" purity="5.0638478994369507e-01" nType="0">
        <Node pos="l" depth="1" NCoef="0" IVar="2" Cut="1.4978987121582031e+02" cType="1" res="8.8859125971794128e-03" rms="4.6132525801658630e-01" purity="4.2271912097930908e-01" nType="0">
          <Node pos="l" depth="2" NCoef="0" IVar="-1" Cut="0.0000000000000000e+00" cType="1" res="2.4387224402744323e-04" rms="4.6157321333885193e-01" purity="4.1518735885620117e-01" nType="-99"/>
          <Node pos="r" depth="2" NCoef="0" IVar="-1" Cut="0.0000000000000000e+00" cType="1" res="2.2463209461420774e-03" rms="4.5905646681785583e-01" purity="4.6358090639114380e-01" nType="-99"/>
        </Node>
        <Node pos="r" depth="1" NCoef="0" IVar="8" Cut="9.9302357435226440e-01" cType="1" res="-5.5189444683492184e-03" rms="4.4166445732116699e-01" purity="6.7930930852890015e-01" nType="0">
          <Node pos="l" depth="2" NCoef="0" IVar="-1" Cut="0.0000000000000000e+00" cType="1" res="8.2623190246522427e-04" rms="4.1818475723266602e-01" purity="7.3837554454803467e-01" nType="-99"/>
          <Node pos="r" depth="2" NCoef="0" IVar="-1" Cut="0.0000000000000000e+00" cType="1" res="-1.3140453957021236e-03" rms="4.6081423759460449e-01" purity="6.2728708982467651e-01" nType="-99"/>
        </Node>
      </Node>
    </BinaryTree>
    <BinaryTree type="DecisionTree" boostWeight="1.0000000000000000e+00" itree="677">
      <Node pos="s" depth="0" NCoef="0" IVar="0" Cut="1.4288102388381958e+00" cType="1" res="-3.4320168197154999e-03" rms="4.5355123281478882e-01" purity="4.9661865830421448e-01" nType="0">
        <Node pos="l" depth="1" NCoef="0" IVar="3" Cut="-5.8973850682377815e-03" cType="1" res="-2.5367775931954384e-02" rms="4.2606848478317261e-01" purity="2.7450671792030334e-01" nType="0">
          <Node pos="l" depth="2" NCoef="0" IVar="-1" Cut="0.0000000000000000e+00" cType="1" res="-3.8018727209419012e-03" rms="4.2744854092597961e-01" purity="2.7374821901321411e-01" nType="-99"/>
          <Node pos="r" depth="2" NCoef="0" IVar="-1" Cut="0.0000000000000000e+00" cType="1" res="-5.2432162920013070e-04" rms="4.2418017983436584e-01" purity="2.7496054768562317e-01" nType="-99"/>
        </Node>
        <Node pos="r" depth="1" NCoef="0" IVar="3" Cut="1.3628348708152771e-01" cType="1" res="6.5387971699237823e-04" rms="4.5837241411209106e-01" purity="5.3799062967300415e-01" nType="0">
          <Node pos="l" depth="2" NCoef="0" IVar="-1" Cut="0.0000000000000000e+00" cType="1" res="-1.4879702939651906e-04" rms="4.5810270309448242e-01" purity="5.4683530330657959e-01" nType="-99"/>
          <Node pos="r" depth="2" NCoef="0" IVar="-1" Cut="0.0000000000000000e+00" cType="1" res="1.3631905894726515e-03" rms="4.5966923236846924e-01" purity="4.7706165909767151e-01" nType="-99"/>
        </Node>
      </Node>
    </BinaryTree>
    <BinaryTree type="DecisionTree" boostWeight="1.0000000000000000e+00" itree="678">
      <Node pos="s" depth="0" NCoef="0" IVar="6" Cut="2.9327299594879150e+00" cType="1" res="1.8942068563774228e-03" rms="4.5385429263114929e-01" purity="4.9941360950469971e-01" nType="0">
        <Node pos="l" depth="1" NCoef="0" IVar="8" Cut="1.6021261215209961e+00" cType="1" res="4.1621858254075050e-03" rms="4.5750284194946289e-01" purity="5.1554578542709351e-01" nType="0">
          <Node pos="l" depth="2" NCoef="0" IVar="-1" Cut="0.0000000000000000e+00" cType="1" res="4.9719004891812801e-05" rms="4.5793369412422180e-01" purity="5.2170217037200928e-01" nType="-99"/>
          <Node pos="r" depth="2" NCoef="0" IVar="-1" Cut="0.0000000000000000e+00" cType="1" res="1.7639753641560674e-03" rms="4.5374622941017151e-01" purity="4.7214311361312866e-01" nType="-99"/>
        </Node>
        <Node pos="r" depth="1" NCoef="0" IVar="-1" Cut="0.0000000000000000e+00" cType="1" res="-3.3200059551745653e-03" rms="3.7523180246353149e-01" purity="1.9265872240066528e-01" nType="-99"/>
      </Node>
    </BinaryTree>
    <BinaryTree type="DecisionTree" boostWeight="1.0000000000000000e+00" itree="679">
      <Node pos="s" depth="0" NCoef="0" IVar="8" Cut="8.5956674814224243e-01" cType="1" res="3.5205741878598928e-03" rms="4.5541048049926758e-01" purity="5.0343298912048340e-01" nType="0">
        <Node pos="l" depth="1" NCoef="0" IVar="6" Cut="2.0411136150360107e+00" cType="1" res="1.6660327091813087e-02" rms="4.5343807339668274e-01" purity="5.6624889373779297e-01" nType="0">
          <Node pos="l" depth="2" NCoef="0" IVar="-1" Cut="0.0000000000000000e+00" cType="1" res="2.6322838384658098e-03" rms="4.4144853949546814e-01" purity="6.5417242050170898e-01" nType="-99"/>
          <Node pos="r" depth="2" NCoef="0" IVar="-1" Cut="0.0000000000000000e+00" cType="1" res="4.2994908289983869e-04" rms="4.5754280686378479e-01" purity="5.3277027606964111e-01" nType="-99"/>
        </Node>
        <Node pos="r" depth="1" NCoef="0" IVar="5" Cut="9.1547507047653198e-01" cType="1" res="-2.5032814592123032e-03" rms="4.5618537068367004e-01" purity="4.7463536262512207e-01" nType="0">
          <Node pos="l" depth="2" NCoef="0" IVar="-1" Cut="0.0000000000000000e+00" cType="1" res="-2.0667456556111574e-03" rms="4.2531359195709229e-01" purity="2.5613436102867126e-01" nType="-99"/>
          <Node pos="r" depth="2" NCoef="0" IVar="-1" Cut="0.0000000000000000e+00" cType="1" res="3.3230280678253621e-05" rms="4.5931604504585266e-01" purity="4.9840024113655090e-01" nType="-99"/>
        </Node>
      </Node>
    </BinaryTree>
    <BinaryTree type="DecisionTree" boostWeight="1.0000000000000000e+00" itree="680">
      <Node pos="s" depth="0" NCoef="0" IVar="5" Cut="9.8399513959884644e-01" cType="1" res="3.8548989687114954e-04" rms="4.5457157492637634e-01" purity="4.9696773290634155e-01" nType="0">
        <Node pos="l" depth="1" NCoef="0" IVar="4" Cut="3.8901782035827637e-01" cType="1" res="3.5851057618856430e-03" rms="4.5846080780029297e-01" purity="4.6728613972663879e-01" nType="0">
          <Node pos="l" depth="2" NCoef="0" IVar="-1" Cut="0.0000000000000000e+00" cType="1" res="-2.9881834052503109e-04" rms="4.5539799332618713e-01" purity="4.2375248670578003e-01" nType="-99"/>
          <Node pos="r" depth="2" NCoef="0" IVar="-1" Cut="0.0000000000000000e+00" cType="1" res="7.7393848914653063e-04" rms="4.6164557337760925e-01" purity="5.1537823677062988e-01" nType="-99"/>
        </Node>
        <Node pos="r" depth="1" NCoef="0" IVar="1" Cut="5.2751129150390625e+02" cType="1" res="-2.4320429190993309e-02" rms="4.2252427339553833e-01" purity="7.2615462541580200e-01" nType="0">
          <Node pos="l" depth="2" NCoef="0" IVar="-1" Cut="0.0000000000000000e+00" cType="1" res="-3.2648826017975807e-03" rms="4.4946435093879700e-01" purity="6.5921556949615479e-01" nType="-99"/>
          <Node pos="r" depth="2" NCoef="0" IVar="-1" Cut="0.0000000000000000e+00" cType="1" res="-4.9144431250169873e-04" rms="3.9735481142997742e-01" purity="7.8284919261932373e-01" nType="-99"/>
        </Node>
      </Node>
    </BinaryTree>
    <BinaryTree type="DecisionTree" boostWeight="1.0000000000000000e+00" itree="681">
      <Node pos="s" depth="0" NCoef="0" IVar="5" Cut="9.8760259151458740e-01" cType="1" res="-6.7137228325009346e-04" rms="4.5377755165100098e-01" purity="4.9647083878517151e-01" nType="0">
        <Node pos="l" depth="1" NCoef="0" IVar="3" Cut="-5.0281416624784470e-02" cType="1" res="-3.7523875944316387e-03" rms="4.5894211530685425e-01" purity="4.7007849812507629e-01" nType="0">
          <Node pos="l" depth="2" NCoef="0" IVar="-1" Cut="0.0000000000000000e+00" cType="1" res="1.3335454277694225e-03" rms="4.6396100521087646e-01" purity="5.5911016464233398e-01" nType="-99"/>
          <Node pos="r" depth="2" NCoef="0" IVar="-1" Cut="0.0000000000000000e+00" cType="1" res="-4.6369340270757675e-04" rms="4.5809161663055420e-01" purity="4.5716166496276855e-01" nType="-99"/>
        </Node>
        <Node pos="r" depth="1" NCoef="0" IVar="-1" Cut="0.0000000000000000e+00" cType="1" res="2.6163740549236536e-03" rms="3.8991129398345947e-01" purity="7.9094946384429932e-01" nType="-99"/>
      </Node>
    </BinaryTree>
    <BinaryTree type="DecisionTree" boostWeight="1.0000000000000000e+00" itree="682">
      <Node pos="s" depth="0" NCoef="0" IVar="8" Cut="1.1513603925704956e+00" cType="1" res="-1.6351895174011588e-03" rms="4.5646795630455017e-01" purity="4.9767616391181946e-01" nType="0">
        <Node pos="l" depth="1" NCoef="0" IVar="1" Cut="4.9805792236328125e+02" cType="1" res="7.3757357895374298e-03" rms="4.5847049355506897e-01" purity="5.3759062290191650e-01" nType="0">
          <Node pos="l" depth="2" NCoef="0" IVar="-1" Cut="0.0000000000000000e+00" cType="1" res="1.5095674898475409e-03" rms="4.5563206076622009e-01" purity="4.6777179837226868e-01" nType="-99"/>
          <Node pos="r" depth="2" NCoef="0" IVar="-1" Cut="0.0000000000000000e+00" cType="1" res="-1.0866115189855918e-04" rms="4.5977666974067688e-01" purity="5.7617104053497314e-01" nType="-99"/>
        </Node>
        <Node pos="r" depth="1" NCoef="0" IVar="0" Cut="2.8468971252441406e+00" cType="1" res="-1.4494192786514759e-02" rms="4.5328482985496521e-01" purity="4.4071653485298157e-01" nType="0">
          <Node pos="l" depth="2" NCoef="0" IVar="-1" Cut="0.0000000000000000e+00" cType="1" res="1.5774698113091290e-04" rms="4.4528046250343323e-01" purity="3.4404104948043823e-01" nType="-99"/>
          <Node pos="r" depth="2" NCoef="0" IVar="-1" Cut="0.0000000000000000e+00" cType="1" res="-2.0281719043850899e-03" rms="4.6143284440040588e-01" purity="5.5010259151458740e-01" nType="-99"/>
        </Node>
      </Node>
    </BinaryTree>
    <BinaryTree type="DecisionTree" boostWeight="1.0000000000000000e+00" itree="683">
      <Node pos="s" depth="0" NCoef="0" IVar="0" Cut="1.6633062362670898e+00" cType="1" res="3.6872192868031561e-04" rms="4.5372718572616577e-01" purity="4.9999842047691345e-01" nType="0">
        <Node pos="l" depth="1" NCoef="0" IVar="2" Cut="8.1007865905761719e+01" cType="1" res="1.5613906085491180e-02" rms="4.4423669576644897e-01" purity="3.2751831412315369e-01" nType="0">
          <Node pos="l" depth="2" NCoef="0" IVar="-1" Cut="0.0000000000000000e+00" cType="1" res="3.3323315437883139e-03" rms="4.5003581047058105e-01" purity="3.3805146813392639e-01" nType="-99"/>
          <Node pos="r" depth="2" NCoef="0" IVar="-1" Cut="0.0000000000000000e+00" cType="1" res="-3.3252465073019266e-04" rms="4.3922606110572815e-01" purity="3.2067710161209106e-01" nType="-99"/>
        </Node>
        <Node pos="r" depth="1" NCoef="0" IVar="3" Cut="-4.0904365479946136e-02" cType="1" res="-3.6725027021020651e-03" rms="4.5612442493438721e-01" purity="5.4571986198425293e-01" nType="0">
          <Node pos="l" depth="2" NCoef="0" IVar="-1" Cut="0.0000000000000000e+00" cType="1" res="1.2131184339523315e-03" rms="4.4865846633911133e-01" purity="6.3925004005432129e-01" nType="-99"/>
          <Node pos="r" depth="2" NCoef="0" IVar="-1" Cut="0.0000000000000000e+00" cType="1" res="-5.0948595162481070e-04" rms="4.5748963952064514e-01" purity="5.2669370174407959e-01" nType="-99"/>
        </Node>
      </Node>
    </BinaryTree>
    <BinaryTree type="DecisionTree" boostWeight="1.0000000000000000e+00" itree="684">
      <Node pos="s" depth="0" NCoef="0" IVar="9" Cut="2.1304249763488770e-01" cType="1" res="-2.1069329523015767e-04" rms="4.5325064659118652e-01" purity="4.9934786558151245e-01" nType="0">
        <Node pos="l" depth="1" NCoef="0" IVar="4" Cut="4.0289250016212463e-01" cType="1" res="2.5709390640258789e-02" rms="4.4460630416870117e-01" purity="5.7878822088241577e-01" nType="0">
          <Node pos="l" depth="2" NCoef="0" IVar="-1" Cut="0.0000000000000000e+00" cType="1" res="4.8261089250445366e-04" rms="4.5516720414161682e-01" purity="5.3237277269363403e-01" nType="-99"/>
          <Node pos="r" depth="2" NCoef="0" IVar="-1" Cut="0.0000000000000000e+00" cType="1" res="2.5561663787811995e-03" rms="4.3545407056808472e-01" purity="6.1588883399963379e-01" nType="-99"/>
        </Node>
        <Node pos="r" depth="1" NCoef="0" IVar="5" Cut="9.3314003944396973e-01" cType="1" res="-3.5368292592465878e-03" rms="4.5424091815948486e-01" purity="4.8915377259254456e-01" nType="0">
          <Node pos="l" depth="2" NCoef="0" IVar="-1" Cut="0.0000000000000000e+00" cType="1" res="5.8079144218936563e-04" rms="4.4887247681617737e-01" purity="3.4173944592475891e-01" nType="-99"/>
          <Node pos="r" depth="2" NCoef="0" IVar="-1" Cut="0.0000000000000000e+00" cType="1" res="-4.7458327026106417e-04" rms="4.5589056611061096e-01" purity="5.3686153888702393e-01" nType="-99"/>
        </Node>
      </Node>
    </BinaryTree>
    <BinaryTree type="DecisionTree" boostWeight="1.0000000000000000e+00" itree="685">
      <Node pos="s" depth="0" NCoef="0" IVar="0" Cut="1.5965552330017090e+00" cType="1" res="2.3500306997448206e-04" rms="4.5581096410751343e-01" purity="5.0012880563735962e-01" nType="0">
        <Node pos="l" depth="1" NCoef="0" IVar="6" Cut="2.3865568637847900e+00" cType="1" res="-1.5624693594872952e-02" rms="4.3432867527008057e-01" purity="2.9276049137115479e-01" nType="0">
          <Node pos="l" depth="2" NCoef="0" IVar="-1" Cut="0.0000000000000000e+00" cType="1" res="-1.7576054669916630e-03" rms="4.4907331466674805e-01" purity="3.2323151826858521e-01" nType="-99"/>
          <Node pos="r" depth="2" NCoef="0" IVar="-1" Cut="0.0000000000000000e+00" cType="1" res="6.4274237956851721e-04" rms="4.0162599086761475e-01" purity="2.3068231344223022e-01" nType="-99"/>
        </Node>
        <Node pos="r" depth="1" NCoef="0" IVar="9" Cut="6.1994349956512451e-01" cType="1" res="3.9757261984050274e-03" rms="4.6065232157707214e-01" purity="5.4903942346572876e-01" nType="0">
          <Node pos="l" depth="2" NCoef="0" IVar="-1" Cut="0.0000000000000000e+00" cType="1" res="-2.0258306176401675e-04" rms="4.5704677700996399e-01" purity="5.7642519474029541e-01" nType="-99"/>
          <Node pos="r" depth="2" NCoef="0" IVar="-1" Cut="0.0000000000000000e+00" cType="1" res="9.9031231366097927e-04" rms="4.6642363071441650e-01" purity="5.0277495384216309e-01" nType="-99"/>
        </Node>
      </Node>
    </BinaryTree>
    <BinaryTree type="DecisionTree" boostWeight="1.0000000000000000e+00" itree="686">
      <Node pos="s" depth="0" NCoef="0" IVar="9" Cut="2.6119533181190491e-01" cType="1" res="-3.9090733043849468e-03" rms="4.5300495624542236e-01" purity="4.9573332071304321e-01" nType="0">
        <Node pos="l" depth="1" NCoef="0" IVar="3" Cut="-2.0960489287972450e-02" cType="1" res="1.8842078745365143e-02" rms="4.4467264413833618e-01" purity="5.7551097869873047e-01" nType="0">
          <Node pos="l" depth="2" NCoef="0" IVar="-1" Cut="0.0000000000000000e+00" cType="1" res="-1.8617943860590458e-03" rms="4.4684287905693054e-01" purity="5.5628198385238647e-01" nType="-99"/>
          <Node pos="r" depth="2" NCoef="0" IVar="-1" Cut="0.0000000000000000e+00" cType="1" res="2.5813875254243612e-03" rms="4.4183605909347534e-01" purity="5.8463239669799805e-01" nType="-99"/>
        </Node>
        <Node pos="r" depth="1" NCoef="0" IVar="8" Cut="6.2497943639755249e-01" cType="1" res="-8.3363950252532959e-03" rms="4.5447629690170288e-01" purity="4.8020875453948975e-01" nType="0">
          <Node pos="l" depth="2" NCoef="0" IVar="-1" Cut="0.0000000000000000e+00" cType="1" res="1.0277985129505396e-03" rms="4.5537772774696350e-01" purity="5.6371349096298218e-01" nType="-99"/>
          <Node pos="r" depth="2" NCoef="0" IVar="-1" Cut="0.0000000000000000e+00" cType="1" res="-7.0637185126543045e-04" rms="4.5428565144538879e-01" purity="4.7054308652877808e-01" nType="-99"/>
        </Node>
      </Node>
    </BinaryTree>
    <BinaryTree type="DecisionTree" boostWeight="1.0000000000000000e+00" itree="687">
      <Node pos="s" depth="0" NCoef="0" IVar="4" Cut="3.6334806680679321e-01" cType="1" res="-2.3488880833610892e-04" rms="4.5191952586174011e-01" purity="4.9799412488937378e-01" nType="0">
        <Node pos="l" depth="1" NCoef="0" IVar="5" Cut="9.7256493568420410e-01" cType="1" res="-9.0666906908154488e-03" rms="4.5118764042854309e-01" purity="4.4493827223777771e-01" nType="0">
          <Node pos="l" depth="2" NCoef="0" IVar="-1" Cut="0.0000000000000000e+00" cType="1" res="-1.0427878005430102e-03" rms="4.5232784748077393e-01" purity="3.8581615686416626e-01" nType="-99"/>
          <Node pos="r" depth="2" NCoef="0" IVar="-1" Cut="0.0000000000000000e+00" cType="1" res="1.2813545763492584e-03" rms="4.4569376111030579e-01" purity="6.6904687881469727e-01" nType="-99"/>
        </Node>
        <Node pos="r" depth="1" NCoef="0" IVar="9" Cut="8.1412553787231445e-01" cType="1" res="7.4722748249769211e-03" rms="4.5241639018058777e-01" purity="5.4429382085800171e-01" nType="0">
          <Node pos="l" depth="2" NCoef="0" IVar="-1" Cut="0.0000000000000000e+00" cType="1" res="8.2531489897519350e-04" rms="4.5195779204368591e-01" purity="5.6181889772415161e-01" nType="-99"/>
          <Node pos="r" depth="2" NCoef="0" IVar="-1" Cut="0.0000000000000000e+00" cType="1" res="-1.5515428967773914e-03" rms="4.5367982983589172e-01" purity="4.4341287016868591e-01" nType="-99"/>
        </Node>
      </Node>
    </BinaryTree>
    <BinaryTree type="DecisionTree" boostWeight="1.0000000000000000e+00" itree="688">
      <Node pos="s" depth="0" NCoef="0" IVar="8" Cut="1.2470463514328003e+00" cType="1" res="4.9786624731495976e-04" rms="4.5381438732147217e-01" purity="4.9855124950408936e-01" nType="0">
        <Node pos="l" depth="1" NCoef="0" IVar="1" Cut="5.8970086669921875e+02" cType="1" res="-5.9057078324258327e-03" rms="4.5460242033004761e-01" purity="5.1860874891281128e-01" nType="0">
          <Node pos="l" depth="2" NCoef="0" IVar="-1" Cut="0.0000000000000000e+00" cType="1" res="1.6605338896624744e-04" rms="4.5369493961334229e-01" purity="4.7361424565315247e-01" nType="-99"/>
          <Node pos="r" depth="2" NCoef="0" IVar="-1" Cut="0.0000000000000000e+00" cType="1" res="-1.1278958991169930e-03" rms="4.5559775829315186e-01" purity="5.8139461278915405e-01" nType="-99"/>
        </Node>
        <Node pos="r" depth="1" NCoef="0" IVar="3" Cut="1.0265082865953445e-01" cType="1" res="1.3133235275745392e-02" rms="4.5198941230773926e-01" purity="4.5897430181503296e-01" nType="0">
          <Node pos="l" depth="2" NCoef="0" IVar="-1" Cut="0.0000000000000000e+00" cType="1" res="1.4802397927269340e-03" rms="4.5857557654380798e-01" purity="4.8847723007202148e-01" nType="-99"/>
          <Node pos="r" depth="2" NCoef="0" IVar="-1" Cut="0.0000000000000000e+00" cType="1" res="-1.5677129849791527e-03" rms="4.2583793401718140e-01" purity="3.5436606407165527e-01" nType="-99"/>
        </Node>
      </Node>
    </BinaryTree>
    <BinaryTree type="DecisionTree" boostWeight="1.0000000000000000e+00" itree="689">
      <Node pos="s" depth="0" NCoef="0" IVar="5" Cut="9.7972202301025391e-01" cType="1" res="1.8642182694748044e-03" rms="4.5125186443328857e-01" purity="5.0152945518493652e-01" nType="0">
        <Node pos="l" depth="1" NCoef="0" IVar="3" Cut="-1.8409166485071182e-02" cType="1" res="-2.3287388030439615e-03" rms="4.5912247896194458e-01" purity="4.5275843143463135e-01" nType="0">
          <Node pos="l" depth="2" NCoef="0" IVar="-1" Cut="0.0000000000000000e+00" cType="1" res="-1.1031295871362090e-03" rms="4.6447142958641052e-01" purity="4.8164471983909607e-01" nType="-99"/>
          <Node pos="r" depth="2" NCoef="0" IVar="-1" Cut="0.0000000000000000e+00" cType="1" res="2.5440796162001789e-04" rms="4.5679211616516113e-01" purity="4.4112250208854675e-01" nType="-99"/>
        </Node>
        <Node pos="r" depth="1" NCoef="0" IVar="9" Cut="4.0742945671081543e-01" cType="1" res="2.3293027654290199e-02" rms="4.0799531340599060e-01" purity="7.5078171491622925e-01" nType="0">
          <Node pos="l" depth="2" NCoef="0" IVar="-1" Cut="0.0000000000000000e+00" cType="1" res="3.9392677135765553e-03" rms="3.7708613276481628e-01" purity="8.0909937620162964e-01" nType="-99"/>
          <Node pos="r" depth="2" NCoef="0" IVar="-1" Cut="0.0000000000000000e+00" cType="1" res="4.5487066381610930e-04" rms="4.2527899146080017e-01" purity="7.1437621116638184e-01" nType="-99"/>
        </Node>
      </Node>
    </BinaryTree>
    <BinaryTree type="DecisionTree" boostWeight="1.0000000000000000e+00" itree="690">
      <Node pos="s" depth="0" NCoef="0" IVar="0" Cut="2.1440865993499756e+00" cType="1" res="6.8085938692092896e-03" rms="4.5413818955421448e-01" purity="5.0919902324676514e-01" nType="0">
        <Node pos="l" depth="1" NCoef="0" IVar="8" Cut="1.2832558155059814e+00" cType="1" res="-4.4517568312585354e-03" rms="4.4815585017204285e-01" purity="3.3407324552536011e-01" nType="0">
          <Node pos="l" depth="2" NCoef="0" IVar="-1" Cut="0.0000000000000000e+00" cType="1" res="-1.1758260661736131e-03" rms="4.4844421744346619e-01" purity="3.4037709236145020e-01" nType="-99"/>
          <Node pos="r" depth="2" NCoef="0" IVar="-1" Cut="0.0000000000000000e+00" cType="1" res="1.6867434605956078e-03" rms="4.4624155759811401e-01" purity="3.2122650742530823e-01" nType="-99"/>
        </Node>
        <Node pos="r" depth="1" NCoef="0" IVar="5" Cut="9.4970166683197021e-01" cType="1" res="1.2390825897455215e-02" rms="4.5697197318077087e-01" purity="5.9601622819900513e-01" nType="0">
          <Node pos="l" depth="2" NCoef="0" IVar="-1" Cut="0.0000000000000000e+00" cType="1" res="1.7741725314408541e-03" rms="4.7273486852645874e-01" purity="5.0116723775863647e-01" nType="-99"/>
          <Node pos="r" depth="2" NCoef="0" IVar="-1" Cut="0.0000000000000000e+00" cType="1" res="2.2114661987870932e-04" rms="4.4914945960044861e-01" purity="6.4025968313217163e-01" nType="-99"/>
        </Node>
      </Node>
    </BinaryTree>
    <BinaryTree type="DecisionTree" boostWeight="1.0000000000000000e+00" itree="691">
      <Node pos="s" depth="0" NCoef="0" IVar="2" Cut="1.0560594177246094e+02" cType="1" res="2.1069366484880447e-03" rms="4.5653152465820312e-01" purity="5.0015282630920410e-01" nType="0">
        <Node pos="l" depth="1" NCoef="0" IVar="0" Cut="2.6999073028564453e+00" cType="1" res="-8.7846368551254272e-03" rms="4.5997059345245361e-01" purity="4.6702682971954346e-01" nType="0">
          <Node pos="l" depth="2" NCoef="0" IVar="-1" Cut="0.0000000000000000e+00" cType="1" res="3.6439686664380133e-04" rms="4.5382711291313171e-01" purity="3.5362938046455383e-01" nType="-99"/>
          <Node pos="r" depth="2" NCoef="0" IVar="-1" Cut="0.0000000000000000e+00" cType="1" res="-1.4055913779884577e-03" rms="4.6560043096542358e-01" purity="5.8070617914199829e-01" nType="-99"/>
        </Node>
        <Node pos="r" depth="1" NCoef="0" IVar="8" Cut="1.4088640213012695e+00" cType="1" res="1.5606432221829891e-02" rms="4.5186850428581238e-01" purity="5.4121059179306030e-01" nType="0">
          <Node pos="l" depth="2" NCoef="0" IVar="-1" Cut="0.0000000000000000e+00" cType="1" res="5.1024294225499034e-04" rms="4.5178249478340149e-01" purity="5.4876810312271118e-01" nType="-99"/>
          <Node pos="r" depth="2" NCoef="0" IVar="-1" Cut="0.0000000000000000e+00" cType="1" res="3.1800651922821999e-03" rms="4.5070689916610718e-01" purity="5.0774538516998291e-01" nType="-99"/>
        </Node>
      </Node>
    </BinaryTree>
    <BinaryTree type="DecisionTree" boostWeight="1.0000000000000000e+00" itree="692">
      <Node pos="s" depth="0" NCoef="0" IVar="6" Cut="1.4722890853881836e+00" cType="1" res="7.8391293063759804e-03" rms="4.5406076312065125e-01" purity="5.0590693950653076e-01" nType="0">
        <Node pos="l" depth="1" NCoef="0" IVar="-1" Cut="0.0000000000000000e+00" cType="1" res="2.1770384628325701e-03" rms="4.3474635481834412e-01" purity="6.4255326986312866e-01" nType="-99"/>
        <Node pos="r" depth="1" NCoef="0" IVar="1" Cut="3.5622360229492188e+02" cType="1" res="5.9084487147629261e-03" rms="4.5535784959793091e-01" purity="4.9607527256011963e-01" nType="0">
          <Node pos="l" depth="2" NCoef="0" IVar="-1" Cut="0.0000000000000000e+00" cType="1" res="-1.8697518389672041e-03" rms="4.0411382913589478e-01" purity="2.7086967229843140e-01" nType="-99"/>
          <Node pos="r" depth="2" NCoef="0" IVar="-1" Cut="0.0000000000000000e+00" cType="1" res="4.8710088594816625e-04" rms="4.5814788341522217e-01" purity="5.0942635536193848e-01" nType="-99"/>
        </Node>
      </Node>
    </BinaryTree>
    <BinaryTree type="DecisionTree" boostWeight="1.0000000000000000e+00" itree="693">
      <Node pos="s" depth="0" NCoef="0" IVar="5" Cut="9.2537528276443481e-01" cType="1" res="-1.4519972028210759e-03" rms="4.5325231552124023e-01" purity="4.9949866533279419e-01" nType="0">
        <Node pos="l" depth="1" NCoef="0" IVar="0" Cut="1.2174409627914429e+00" cType="1" res="-2.7776168659329414e-02" rms="4.3128967285156250e-01" purity="2.9553672671318054e-01" nType="0">
          <Node pos="l" depth="2" NCoef="0" IVar="-1" Cut="0.0000000000000000e+00" cType="1" res="-4.1949241422116756e-03" rms="3.7935337424278259e-01" purity="1.9079518318176270e-01" nType="-99"/>
          <Node pos="r" depth="2" NCoef="0" IVar="-1" Cut="0.0000000000000000e+00" cType="1" res="-9.4835873460397124e-04" rms="4.5316037535667419e-01" purity="3.4481143951416016e-01" nType="-99"/>
        </Node>
        <Node pos="r" depth="1" NCoef="0" IVar="3" Cut="5.2263326942920685e-02" cType="1" res="3.8857241161167622e-03" rms="4.5739239454269409e-01" purity="5.4085576534271240e-01" nType="0">
          <Node pos="l" depth="2" NCoef="0" IVar="-1" Cut="0.0000000000000000e+00" cType="1" res="-2.4477348779328167e-04" rms="4.5814967155456543e-01" purity="5.5630719661712646e-01" nType="-99"/>
          <Node pos="r" depth="2" NCoef="0" IVar="-1" Cut="0.0000000000000000e+00" cType="1" res="1.1191103840246797e-03" rms="4.5569783449172974e-01" purity="5.1314103603363037e-01" nType="-99"/>
        </Node>
      </Node>
    </BinaryTree>
    <BinaryTree type="DecisionTree" boostWeight="1.0000000000000000e+00" itree="694">
      <Node pos="s" depth="0" NCoef="0" IVar="4" Cut="6.2810218334197998e-01" cType="1" res="1.4755598967894912e-03" rms="4.5313665270805359e-01" purity="5.0179332494735718e-01" nType="0">
        <Node pos="l" depth="1" NCoef="0" IVar="1" Cut="6.6111315917968750e+02" cType="1" res="4.8814341425895691e-03" rms="4.5386388897895813e-01" purity="4.9566665291786194e-01" nType="0">
          <Node pos="l" depth="2" NCoef="0" IVar="-1" Cut="0.0000000000000000e+00" cType="1" res="1.7189722711918876e-05" rms="4.5393535494804382e-01" purity="4.5116084814071655e-01" nType="-99"/>
          <Node pos="r" depth="2" NCoef="0" IVar="-1" Cut="0.0000000000000000e+00" cType="1" res="1.1102571152150631e-03" rms="4.5342141389846802e-01" purity="6.1893069744110107e-01" nType="-99"/>
        </Node>
        <Node pos="r" depth="1" NCoef="0" IVar="1" Cut="4.5829119873046875e+02" cType="1" res="-2.0066002383828163e-02" rms="4.4791007041931152e-01" purity="5.4054343700408936e-01" nType="0">
          <Node pos="l" depth="2" NCoef="0" IVar="-1" Cut="0.0000000000000000e+00" cType="1" res="-2.9463809914886951e-03" rms="4.4790059328079224e-01" purity="4.1569039225578308e-01" nType="-99"/>
          <Node pos="r" depth="2" NCoef="0" IVar="-1" Cut="0.0000000000000000e+00" cType="1" res="-9.1426903964020312e-05" rms="4.4696643948554993e-01" purity="6.2684214115142822e-01" nType="-99"/>
        </Node>
      </Node>
    </BinaryTree>
    <BinaryTree type="DecisionTree" boostWeight="1.0000000000000000e+00" itree="695">
      <Node pos="s" depth="0" NCoef="0" IVar="7" Cut="5.9335208892822266e+01" cType="1" res="-2.5824743788689375e-03" rms="4.5324170589447021e-01" purity="4.9849259853363037e-01" nType="0">
        <Node pos="l" depth="1" NCoef="0" IVar="7" Cut="4.4489437103271484e+01" cType="1" res="6.8874019198119640e-03" rms="4.5173370838165283e-01" purity="4.1176381707191467e-01" nType="0">
          <Node pos="l" depth="2" NCoef="0" IVar="-1" Cut="0.0000000000000000e+00" cType="1" res="-1.2358385138213634e-03" rms="4.4259721040725708e-01" purity="3.2967513799667358e-01" nType="-99"/>
          <Node pos="r" depth="2" NCoef="0" IVar="-1" Cut="0.0000000000000000e+00" cType="1" res="9.8417850676923990e-04" rms="4.5452234148979187e-01" purity="4.4009765982627869e-01" nType="-99"/>
        </Node>
        <Node pos="r" depth="1" NCoef="0" IVar="0" Cut="3.3917775154113770e+00" cType="1" res="-7.6994569972157478e-03" rms="4.5397225022315979e-01" purity="5.4535591602325439e-01" nType="0">
          <Node pos="l" depth="2" NCoef="0" IVar="-1" Cut="0.0000000000000000e+00" cType="1" res="-1.0694506345316768e-03" rms="4.6972000598907471e-01" purity="4.3824434280395508e-01" nType="-99"/>
          <Node pos="r" depth="2" NCoef="0" IVar="-1" Cut="0.0000000000000000e+00" cType="1" res="6.1914831167086959e-04" rms="4.2659696936607361e-01" purity="7.1949887275695801e-01" nType="-99"/>
        </Node>
      </Node>
    </BinaryTree>
    <BinaryTree type="DecisionTree" boostWeight="1.0000000000000000e+00" itree="696">
      <Node pos="s" depth="0" NCoef="0" IVar="9" Cut="6.6245961189270020e-01" cType="1" res="-3.4607556881383061e-04" rms="4.5443096756935120e-01" purity="4.9758800864219666e-01" nType="0">
        <Node pos="l" depth="1" NCoef="0" IVar="5" Cut="9.8773509263992310e-01" cType="1" res="-8.7040588259696960e-03" rms="4.5419010519981384e-01" purity="5.2226841449737549e-01" nType="0">
          <Node pos="l" depth="2" NCoef="0" IVar="-1" Cut="0.0000000000000000e+00" cType="1" res="-7.3225313099101186e-04" rms="4.6074560284614563e-01" purity="4.9515488743782043e-01" nType="-99"/>
          <Node pos="r" depth="2" NCoef="0" IVar="-1" Cut="0.0000000000000000e+00" cType="1" res="2.1081659942865372e-03" rms="3.7669697403907776e-01" purity="8.0746144056320190e-01" nType="-99"/>
        </Node>
        <Node pos="r" depth="1" NCoef="0" IVar="3" Cut="1.1941526085138321e-01" cType="1" res="1.6187440603971481e-02" rms="4.5445448160171509e-01" purity="4.4876602292060852e-01" nType="0">
          <Node pos="l" depth="2" NCoef="0" IVar="-1" Cut="0.0000000000000000e+00" cType="1" res="1.4484347775578499e-03" rms="4.5618599653244019e-01" purity="4.6718439459800720e-01" nType="-99"/>
          <Node pos="r" depth="2" NCoef="0" IVar="-1" Cut="0.0000000000000000e+00" cType="1" res="-7.9282978549599648e-04" rms="4.4601231813430786e-01" purity="3.7136757373809814e-01" nType="-99"/>
        </Node>
      </Node>
    </BinaryTree>
    <BinaryTree type="DecisionTree" boostWeight="1.0000000000000000e+00" itree="697">
      <Node pos="s" depth="0" NCoef="0" IVar="1" Cut="5.9135162353515625e+02" cType="1" res="8.9713168563321233e-04" rms="4.5074400305747986e-01" purity="5.0029069185256958e-01" nType="0">
        <Node pos="l" depth="1" NCoef="0" IVar="4" Cut="5.1132768392562866e-01" cType="1" res="-6.9116870872676373e-03" rms="4.4969448447227478e-01" purity="4.3933966755867004e-01" nType="0">
          <Node pos="l" depth="2" NCoef="0" IVar="-1" Cut="0.0000000000000000e+00" cType="1" res="-1.0888528777286410e-03" rms="4.4513812661170959e-01" purity="3.9522361755371094e-01" nType="-99"/>
          <Node pos="r" depth="2" NCoef="0" IVar="-1" Cut="0.0000000000000000e+00" cType="1" res="7.9723511589691043e-04" rms="4.5798593759536743e-01" purity="5.2719432115554810e-01" nType="-99"/>
        </Node>
        <Node pos="r" depth="1" NCoef="0" IVar="3" Cut="-3.1631194055080414e-02" cType="1" res="1.4681997708976269e-02" rms="4.5226183533668518e-01" purity="6.0788738727569580e-01" nType="0">
          <Node pos="l" depth="2" NCoef="0" IVar="-1" Cut="0.0000000000000000e+00" cType="1" res="-1.8610549159348011e-03" rms="4.4673237204551697e-01" purity="6.2001740932464600e-01" nType="-99"/>
          <Node pos="r" depth="2" NCoef="0" IVar="-1" Cut="0.0000000000000000e+00" cType="1" res="1.5346794389188290e-03" rms="4.5294973254203796e-01" purity="6.0507172346115112e-01" nType="-99"/>
        </Node>
      </Node>
    </BinaryTree>
    <BinaryTree type="DecisionTree" boostWeight="1.0000000000000000e+00" itree="698">
      <Node pos="s" depth="0" NCoef="0" IVar="1" Cut="4.0255712890625000e+02" cType="1" res="6.2844217754900455e-03" rms="4.5345315337181091e-01" purity="5.0769084692001343e-01" nType="0">
        <Node pos="l" depth="1" NCoef="0" IVar="7" Cut="4.8229766845703125e+01" cType="1" res="-1.0149589739739895e-02" rms="4.2846760153770447e-01" purity="3.2770135998725891e-01" nType="0">
          <Node pos="l" depth="2" NCoef="0" IVar="-1" Cut="0.0000000000000000e+00" cType="1" res="-3.5642690490931273e-03" rms="4.0026330947875977e-01" purity="2.4719563126564026e-01" nType="-99"/>
          <Node pos="r" depth="2" NCoef="0" IVar="-1" Cut="0.0000000000000000e+00" cType="1" res="1.8769875168800354e-03" rms="4.5171445608139038e-01" purity="4.0848365426063538e-01" nType="-99"/>
        </Node>
        <Node pos="r" depth="1" NCoef="0" IVar="9" Cut="8.3134794235229492e-01" cType="1" res="9.1696139425039291e-03" rms="4.5763805508613586e-01" purity="5.3929013013839722e-01" nType="0">
          <Node pos="l" depth="2" NCoef="0" IVar="-1" Cut="0.0000000000000000e+00" cType="1" res="8.0974353477358818e-04" rms="4.5634561777114868e-01" purity="5.6209456920623779e-01" nType="-99"/>
          <Node pos="r" depth="2" NCoef="0" IVar="-1" Cut="0.0000000000000000e+00" cType="1" res="-5.7347555411979556e-04" rms="4.6317571401596069e-01" purity="4.3290027976036072e-01" nType="-99"/>
        </Node>
      </Node>
    </BinaryTree>
    <BinaryTree type="DecisionTree" boostWeight="1.0000000000000000e+00" itree="699">
      <Node pos="s" depth="0" NCoef="0" IVar="9" Cut="1.0788940191268921e+00" cType="1" res="-3.2106882426887751e-03" rms="4.5287066698074341e-01" purity="4.9387863278388977e-01" nType="0">
        <Node pos="l" depth="1" NCoef="0" IVar="9" Cut="9.3355530500411987e-01" cType="1" res="-1.2391905765980482e-03" rms="4.5443725585937500e-01" purity="5.0336617231369019e-01" nType="0">
          <Node pos="l" depth="2" NCoef="0" IVar="-1" Cut="0.0000000000000000e+00" cType="1" res="-2.2340856958180666e-04" rms="4.5326647162437439e-01" purity="5.0846427679061890e-01" nType="-99"/>
          <Node pos="r" depth="2" NCoef="0" IVar="-1" Cut="0.0000000000000000e+00" cType="1" res="1.8552832771092653e-03" rms="4.6844136714935303e-01" purity="4.3663620948791504e-01" nType="-99"/>
        </Node>
        <Node pos="r" depth="1" NCoef="0" IVar="-1" Cut="0.0000000000000000e+00" cType="1" res="-2.7337477076798677e-03" rms="4.2062380909919739e-01" purity="3.1552195549011230e-01" nType="-99"/>
      </Node>
    </BinaryTree>
    <BinaryTree type="DecisionTree" boostWeight="1.0000000000000000e+00" itree="700">
      <Node pos="s" depth="0" NCoef="0" IVar="3" Cut="-5.8720294386148453e-02" cType="1" res="4.5394739136099815e-03" rms="4.5161318778991699e-01" purity="5.0516200065612793e-01" nType="0">
        <Node pos="l" depth="1" NCoef="0" IVar="-1" Cut="0.0000000000000000e+00" cType="1" res="2.8252643533051014e-03" rms="4.4316205382347107e-01" purity="6.2363654375076294e-01" nType="-99"/>
        <Node pos="r" depth="1" NCoef="0" IVar="5" Cut="9.3330472707748413e-01" cType="1" res="2.6450451696291566e-04" rms="4.5228263735771179e-01" purity="4.9267816543579102e-01" nType="0">
          <Node pos="l" depth="2" NCoef="0" IVar="-1" Cut="0.0000000000000000e+00" cType="1" res="-1.0859209578484297e-03" rms="4.3955072760581970e-01" purity="3.1538206338882446e-01" nType="-99"/>
          <Node pos="r" depth="2" NCoef="0" IVar="-1" Cut="0.0000000000000000e+00" cType="1" res="3.5511745954863727e-04" rms="4.5613408088684082e-01" purity="5.4919415712356567e-01" nType="-99"/>
        </Node>
      </Node>
    </BinaryTree>
    <BinaryTree type="DecisionTree" boostWeight="1.0000000000000000e+00" itree="701">
      <Node pos="s" depth="0" NCoef="0" IVar="8" Cut="1.0435552597045898e+00" cType="1" res="-2.6520001702010632e-03" rms="4.5401319861412048e-01" purity="4.9747088551521301e-01" nType="0">
        <Node pos="l" depth="1" NCoef="0" IVar="1" Cut="5.0785638427734375e+02" cType="1" res="-1.0063865222036839e-02" rms="4.5577535033226013e-01" purity="5.2723151445388794e-01" nType="0">
          <Node pos="l" depth="2" NCoef="0" IVar="-1" Cut="0.0000000000000000e+00" cType="1" res="4.5820605009794235e-04" rms="4.5626541972160339e-01" purity="4.5939657092094421e-01" nType="-99"/>
          <Node pos="r" depth="2" NCoef="0" IVar="-1" Cut="0.0000000000000000e+00" cType="1" res="-1.3049609260633588e-03" rms="4.5514026284217834e-01" purity="5.6914722919464111e-01" nType="-99"/>
        </Node>
        <Node pos="r" depth="1" NCoef="0" IVar="0" Cut="1.9474184513092041e+00" cType="1" res="4.5920051634311676e-03" rms="4.5216694474220276e-01" purity="4.6838432550430298e-01" nType="0">
          <Node pos="l" depth="2" NCoef="0" IVar="-1" Cut="0.0000000000000000e+00" cType="1" res="-8.9702708646655083e-04" rms="4.3230277299880981e-01" purity="2.8802484273910522e-01" nType="-99"/>
          <Node pos="r" depth="2" NCoef="0" IVar="-1" Cut="0.0000000000000000e+00" cType="1" res="7.0757447974756360e-04" rms="4.5983326435089111e-01" purity="5.4189527034759521e-01" nType="-99"/>
        </Node>
      </Node>
    </BinaryTree>
    <BinaryTree type="DecisionTree" boostWeight="1.0000000000000000e+00" itree="702">
      <Node pos="s" depth="0" NCoef="0" IVar="1" Cut="5.4658636474609375e+02" cType="1" res="6.6971970954909921e-04" rms="4.5612818002700806e-01" purity="5.0114858150482178e-01" nType="0">
        <Node pos="l" depth="1" NCoef="0" IVar="2" Cut="1.0238645172119141e+02" cType="1" res="1.1599733494222164e-02" rms="4.5424959063529968e-01" purity="4.4415971636772156e-01" nType="0">
          <Node pos="l" depth="2" NCoef="0" IVar="-1" Cut="0.0000000000000000e+00" cType="1" res="1.2447352055460215e-03" rms="4.5606955885887146e-01" purity="4.4823816418647766e-01" nType="-99"/>
          <Node pos="r" depth="2" NCoef="0" IVar="-1" Cut="0.0000000000000000e+00" cType="1" res="-2.4157107691280544e-04" rms="4.5039573311805725e-01" purity="4.3646264076232910e-01" nType="-99"/>
        </Node>
        <Node pos="r" depth="1" NCoef="0" IVar="8" Cut="1.2214323282241821e+00" cType="1" res="-1.2425343506038189e-02" rms="4.5802542567253113e-01" purity="5.6942594051361084e-01" nType="0">
          <Node pos="l" depth="2" NCoef="0" IVar="-1" Cut="0.0000000000000000e+00" cType="1" res="-1.3548728311434388e-03" rms="4.5309931039810181e-01" purity="5.7260704040527344e-01" nType="-99"/>
          <Node pos="r" depth="2" NCoef="0" IVar="-1" Cut="0.0000000000000000e+00" cType="1" res="7.1380753070116043e-04" rms="4.6996781229972839e-01" purity="5.6099957227706909e-01" nType="-99"/>
        </Node>
      </Node>
    </BinaryTree>
    <BinaryTree type="DecisionTree" boostWeight="1.0000000000000000e+00" itree="703">
      <Node pos="s" depth="0" NCoef="0" IVar="7" Cut="5.0712295532226562e+01" cType="1" res="7.3769781738519669e-03" rms="4.5617547631263733e-01" purity="5.0532966852188110e-01" nType="0">
        <Node pos="l" depth="1" NCoef="0" IVar="4" Cut="5.1808977127075195e-01" cType="1" res="2.4585884064435959e-02" rms="4.5362839102745056e-01" purity="3.9306768774986267e-01" nType="0">
          <Node pos="l" depth="2" NCoef="0" IVar="-1" Cut="0.0000000000000000e+00" cType="1" res="3.9127832860685885e-04" rms="4.4619834423065186e-01" purity="3.4717544913291931e-01" nType="-99"/>
          <Node pos="r" depth="2" NCoef="0" IVar="-1" Cut="0.0000000000000000e+00" cType="1" res="4.0112524293363094e-03" rms="4.6636226773262024e-01" purity="4.8942315578460693e-01" nType="-99"/>
        </Node>
        <Node pos="r" depth="1" NCoef="0" IVar="1" Cut="9.2843530273437500e+02" cType="1" res="3.1660583335906267e-03" rms="4.5669782161712646e-01" purity="5.3279948234558105e-01" nType="0">
          <Node pos="l" depth="2" NCoef="0" IVar="-1" Cut="0.0000000000000000e+00" cType="1" res="-5.4013744374969974e-06" rms="4.5799210667610168e-01" purity="5.2144318819046021e-01" nType="-99"/>
          <Node pos="r" depth="2" NCoef="0" IVar="-1" Cut="0.0000000000000000e+00" cType="1" res="2.8607603162527084e-03" rms="4.3802240490913391e-01" purity="6.7572414875030518e-01" nType="-99"/>
        </Node>
      </Node>
    </BinaryTree>
    <BinaryTree type="DecisionTree" boostWeight="1.0000000000000000e+00" itree="704">
      <Node pos="s" depth="0" NCoef="0" IVar="7" Cut="1.0018750000000000e+02" cType="1" res="1.4749717665836215e-03" rms="4.5428451895713806e-01" purity="5.0201702117919922e-01" nType="0">
        <Node pos="l" depth="1" NCoef="0" IVar="5" Cut="9.7196352481842041e-01" cType="1" res="5.0050574354827404e-03" rms="4.5259422063827515e-01" purity="4.8479834198951721e-01" nType="0">
          <Node pos="l" depth="2" NCoef="0" IVar="-1" Cut="0.0000000000000000e+00" cType="1" res="-5.5873188102850690e-06" rms="4.5681428909301758e-01" purity="4.1740551590919495e-01" nType="-99"/>
          <Node pos="r" depth="2" NCoef="0" IVar="-1" Cut="0.0000000000000000e+00" cType="1" res="1.4237518189474940e-03" rms="4.3877166509628296e-01" purity="6.9528734683990479e-01" nType="-99"/>
        </Node>
        <Node pos="r" depth="1" NCoef="0" IVar="0" Cut="2.8382015228271484e+00" cType="1" res="-1.7528759315609932e-02" rms="4.6281564235687256e-01" purity="5.9471124410629272e-01" nType="0">
          <Node pos="l" depth="2" NCoef="0" IVar="-1" Cut="0.0000000000000000e+00" cType="1" res="9.9625240545719862e-04" rms="4.7489660978317261e-01" purity="5.0253623723983765e-01" nType="-99"/>
          <Node pos="r" depth="2" NCoef="0" IVar="-1" Cut="0.0000000000000000e+00" cType="1" res="-3.1243867706507444e-03" rms="4.5097157359123230e-01" purity="6.6882741451263428e-01" nType="-99"/>
        </Node>
      </Node>
    </BinaryTree>
    <BinaryTree type="DecisionTree" boostWeight="1.0000000000000000e+00" itree="705">
      <Node pos="s" depth="0" NCoef="0" IVar="4" Cut="6.6142505407333374e-01" cType="1" res="-5.5806883610785007e-03" rms="4.5287889242172241e-01" purity="4.9489271640777588e-01" nType="0">
        <Node pos="l" depth="1" NCoef="0" IVar="2" Cut="5.0436534881591797e+01" cType="1" res="-8.1805931404232979e-03" rms="4.5390823483467102e-01" purity="4.8427814245223999e-01" nType="0">
          <Node pos="l" depth="2" NCoef="0" IVar="-1" Cut="0.0000000000000000e+00" cType="1" res="-2.2240006364881992e-03" rms="4.6397858858108521e-01" purity="4.2772671580314636e-01" nType="-99"/>
          <Node pos="r" depth="2" NCoef="0" IVar="-1" Cut="0.0000000000000000e+00" cType="1" res="-3.0545514891855419e-04" rms="4.5255756378173828e-01" purity="4.9112665653228760e-01" nType="-99"/>
        </Node>
        <Node pos="r" depth="1" NCoef="0" IVar="-1" Cut="0.0000000000000000e+00" cType="1" res="1.1465890565887094e-03" rms="4.4275489449501038e-01" purity="5.9100782871246338e-01" nType="-99"/>
      </Node>
    </BinaryTree>
    <BinaryTree type="DecisionTree" boostWeight="1.0000000000000000e+00" itree="706">
      <Node pos="s" depth="0" NCoef="0" IVar="3" Cut="-6.2941193580627441e-02" cType="1" res="4.5845443382859230e-03" rms="4.5377016067504883e-01" purity="5.0338780879974365e-01" nType="0">
        <Node pos="l" depth="1" NCoef="0" IVar="-1" Cut="0.0000000000000000e+00" cType="1" res="-1.6375727718695998e-03" rms="4.4637843966484070e-01" purity="5.5927693843841553e-01" nType="-99"/>
        <Node pos="r" depth="1" NCoef="0" IVar="7" Cut="7.5974525451660156e+01" cType="1" res="7.2659929282963276e-03" rms="4.5432984828948975e-01" purity="4.9838355183601379e-01" nType="0">
          <Node pos="l" depth="2" NCoef="0" IVar="-1" Cut="0.0000000000000000e+00" cType="1" res="-1.4466003449342679e-05" rms="4.5462211966514587e-01" purity="4.3844601511955261e-01" nType="-99"/>
          <Node pos="r" depth="2" NCoef="0" IVar="-1" Cut="0.0000000000000000e+00" cType="1" res="1.2274942127987742e-03" rms="4.5357552170753479e-01" purity="5.9740072488784790e-01" nType="-99"/>
        </Node>
      </Node>
    </BinaryTree>
    <BinaryTree type="DecisionTree" boostWeight="1.0000000000000000e+00" itree="707">
      <Node pos="s" depth="0" NCoef="0" IVar="3" Cut="-2.8682300820946693e-02" cType="1" res="-2.5302495341747999e-03" rms="4.5546594262123108e-01" purity="4.9994447827339172e-01" nType="0">
        <Node pos="l" depth="1" NCoef="0" IVar="1" Cut="4.4765234375000000e+02" cType="1" res="-2.0345490425825119e-02" rms="4.5827141404151917e-01" purity="5.3566747903823853e-01" nType="0">
          <Node pos="l" depth="2" NCoef="0" IVar="-1" Cut="0.0000000000000000e+00" cType="1" res="-3.0616049189120531e-03" rms="4.5867195725440979e-01" purity="4.1533824801445007e-01" nType="-99"/>
          <Node pos="r" depth="2" NCoef="0" IVar="-1" Cut="0.0000000000000000e+00" cType="1" res="-5.2415055688470602e-04" rms="4.5757058262825012e-01" purity="5.8698511123657227e-01" nType="-99"/>
        </Node>
        <Node pos="r" depth="1" NCoef="0" IVar="5" Cut="9.4584482908248901e-01" cType="1" res="2.8834384866058826e-03" rms="4.5447164773941040e-01" purity="4.8908901214599609e-01" nType="0">
          <Node pos="l" depth="2" NCoef="0" IVar="-1" Cut="0.0000000000000000e+00" cType="1" res="1.0306091280654073e-03" rms="4.4969853758811951e-01" purity="3.7460213899612427e-01" nType="-99"/>
          <Node pos="r" depth="2" NCoef="0" IVar="-1" Cut="0.0000000000000000e+00" cType="1" res="-3.8069524453021586e-04" rms="4.5742976665496826e-01" purity="5.6588613986968994e-01" nType="-99"/>
        </Node>
      </Node>
    </BinaryTree>
    <BinaryTree type="DecisionTree" boostWeight="1.0000000000000000e+00" itree="708">
      <Node pos="s" depth="0" NCoef="0" IVar="7" Cut="1.3143888854980469e+02" cType="1" res="3.8407924585044384e-03" rms="4.5403954386711121e-01" purity="5.0331187248229980e-01" nType="0">
        <Node pos="l" depth="1" NCoef="0" IVar="9" Cut="2.5994452834129333e-01" cType="1" res="6.5594753250479698e-03" rms="4.5347237586975098e-01" purity="4.9810004234313965e-01" nType="0">
          <Node pos="l" depth="2" NCoef="0" IVar="-1" Cut="0.0000000000000000e+00" cType="1" res="1.8850049236789346e-03" rms="4.4815891981124878e-01" purity="5.7404106855392456e-01" nType="-99"/>
          <Node pos="r" depth="2" NCoef="0" IVar="-1" Cut="0.0000000000000000e+00" cType="1" res="1.3059983029961586e-04" rms="4.5433017611503601e-01" purity="4.8374497890472412e-01" nType="-99"/>
        </Node>
        <Node pos="r" depth="1" NCoef="0" IVar="-1" Cut="0.0000000000000000e+00" cType="1" res="-2.8983338270336390e-03" rms="4.6128755807876587e-01" purity="5.9493374824523926e-01" nType="-99"/>
      </Node>
    </BinaryTree>
    <BinaryTree type="DecisionTree" boostWeight="1.0000000000000000e+00" itree="709">
      <Node pos="s" depth="0" NCoef="0" IVar="3" Cut="-2.2664915770292282e-02" cType="1" res="-2.8829260263592005e-03" rms="4.5401793718338013e-01" purity="4.9748149514198303e-01" nType="0">
        <Node pos="l" depth="1" NCoef="0" IVar="8" Cut="7.8178536891937256e-01" cType="1" res="-1.5648141503334045e-02" rms="4.5318377017974854e-01" purity="5.3478419780731201e-01" nType="0">
          <Node pos="l" depth="2" NCoef="0" IVar="-1" Cut="0.0000000000000000e+00" cType="1" res="-3.3037720713764429e-03" rms="4.4564831256866455e-01" purity="5.4265153408050537e-01" nType="-99"/>
          <Node pos="r" depth="2" NCoef="0" IVar="-1" Cut="0.0000000000000000e+00" cType="1" res="-2.1293232566677034e-04" rms="4.5507970452308655e-01" purity="5.3209781646728516e-01" nType="-99"/>
        </Node>
        <Node pos="r" depth="1" NCoef="0" IVar="9" Cut="5.6306797266006470e-01" cType="1" res="1.7353636212646961e-03" rms="4.5423099398612976e-01" purity="4.8398584127426147e-01" nType="0">
          <Node pos="l" depth="2" NCoef="0" IVar="-1" Cut="0.0000000000000000e+00" cType="1" res="6.9156527752056718e-04" rms="4.5865103602409363e-01" purity="5.3152191638946533e-01" nType="-99"/>
          <Node pos="r" depth="2" NCoef="0" IVar="-1" Cut="0.0000000000000000e+00" cType="1" res="-5.6647340534254909e-04" rms="4.4892686605453491e-01" purity="4.3004351854324341e-01" nType="-99"/>
        </Node>
      </Node>
    </BinaryTree>
    <BinaryTree type="DecisionTree" boostWeight="1.0000000000000000e+00" itree="710">
      <Node pos="s" depth="0" NCoef="0" IVar="9" Cut="9.0883249044418335e-01" cType="1" res="3.9693871513009071e-03" rms="4.5487967133522034e-01" purity="5.0336241722106934e-01" nType="0">
        <Node pos="l" depth="1" NCoef="0" IVar="5" Cut="9.6031337976455688e-01" cType="1" res="8.9684559497982264e-04" rms="4.5424425601959229e-01" purity="5.1576352119445801e-01" nType="0">
          <Node pos="l" depth="2" NCoef="0" IVar="-1" Cut="0.0000000000000000e+00" cType="1" res="-3.6925027961842716e-04" rms="4.6140637993812561e-01" purity="4.1895318031311035e-01" nType="-99"/>
          <Node pos="r" depth="2" NCoef="0" IVar="-1" Cut="0.0000000000000000e+00" cType="1" res="7.7911413973197341e-04" rms="4.4264319539070129e-01" purity="6.6650021076202393e-01" nType="-99"/>
        </Node>
        <Node pos="r" depth="1" NCoef="0" IVar="1" Cut="5.4405749511718750e+02" cType="1" res="2.4585824459791183e-02" rms="4.5858842134475708e-01" purity="4.2015224695205688e-01" nType="0">
          <Node pos="l" depth="2" NCoef="0" IVar="-1" Cut="0.0000000000000000e+00" cType="1" res="3.2790105324238539e-03" rms="4.4771695137023926e-01" purity="3.8636735081672668e-01" nType="-99"/>
          <Node pos="r" depth="2" NCoef="0" IVar="-1" Cut="0.0000000000000000e+00" cType="1" res="-5.4389028809964657e-04" rms="4.7162580490112305e-01" purity="4.6827220916748047e-01" nType="-99"/>
        </Node>
      </Node>
    </BinaryTree>
    <BinaryTree type="DecisionTree" boostWeight="1.0000000000000000e+00" itree="711">
      <Node pos="s" depth="0" NCoef="0" IVar="9" Cut="1.6851991415023804e-01" cType="1" res="4.3255416676402092e-03" rms="4.5411491394042969e-01" purity="5.0435113906860352e-01" nType="0">
        <Node pos="l" depth="1" NCoef="0" IVar="-1" Cut="0.0000000000000000e+00" cType="1" res="2.0348730031400919e-03" rms="4.3844905495643616e-01" purity="6.0303521156311035e-01" nType="-99"/>
        <Node pos="r" depth="1" NCoef="0" IVar="7" Cut="7.1526107788085938e+01" cType="1" res="2.2175051271915436e-03" rms="4.5522993803024292e-01" purity="4.9675631523132324e-01" nType="0">
          <Node pos="l" depth="2" NCoef="0" IVar="-1" Cut="0.0000000000000000e+00" cType="1" res="5.8061548043042421e-04" rms="4.5263165235519409e-01" purity="4.4450560212135315e-01" nType="-99"/>
          <Node pos="r" depth="2" NCoef="0" IVar="-1" Cut="0.0000000000000000e+00" cType="1" res="-4.3451000237837434e-04" rms="4.5847371220588684e-01" purity="5.6568270921707153e-01" nType="-99"/>
        </Node>
      </Node>
    </BinaryTree>
    <BinaryTree type="DecisionTree" boostWeight="1.0000000000000000e+00" itree="712">
      <Node pos="s" depth="0" NCoef="0" IVar="4" Cut="4.5670911669731140e-01" cType="1" res="2.0086655858904123e-03" rms="4.5414090156555176e-01" purity="5.0298321247100830e-01" nType="0">
        <Node pos="l" depth="1" NCoef="0" IVar="8" Cut="1.1260998249053955e+00" cType="1" res="-4.3377797119319439e-03" rms="4.5431634783744812e-01" purity="4.6737205982208252e-01" nType="0">
          <Node pos="l" depth="2" NCoef="0" IVar="-1" Cut="0.0000000000000000e+00" cType="1" res="4.1370803955942392e-04" rms="4.5375353097915649e-01" purity="5.1421910524368286e-01" nType="-99"/>
          <Node pos="r" depth="2" NCoef="0" IVar="-1" Cut="0.0000000000000000e+00" cType="1" res="-1.2312727048993111e-03" rms="4.5465704798698425e-01" purity="4.0433064103126526e-01" nType="-99"/>
        </Node>
        <Node pos="r" depth="1" NCoef="0" IVar="1" Cut="4.1005459594726562e+02" cType="1" res="1.2551622465252876e-02" rms="4.5365312695503235e-01" purity="5.6214189529418945e-01" nType="0">
          <Node pos="l" depth="2" NCoef="0" IVar="-1" Cut="0.0000000000000000e+00" cType="1" res="-9.5551257254555821e-04" rms="4.5325464010238647e-01" purity="3.8949894905090332e-01" nType="-99"/>
          <Node pos="r" depth="2" NCoef="0" IVar="-1" Cut="0.0000000000000000e+00" cType="1" res="1.2053975369781256e-03" rms="4.5349353551864624e-01" purity="6.0498368740081787e-01" nType="-99"/>
        </Node>
      </Node>
    </BinaryTree>
    <BinaryTree type="DecisionTree" boostWeight="1.0000000000000000e+00" itree="713">
      <Node pos="s" depth="0" NCoef="0" IVar="9" Cut="9.9658727645874023e-01" cType="1" res="-3.4030894748866558e-03" rms="4.5899537205696106e-01" purity="4.9722996354103088e-01" nType="0">
        <Node pos="l" depth="1" NCoef="0" IVar="4" Cut="7.0671629905700684e-01" cType="1" res="-6.1959596350789070e-03" rms="4.5853421092033386e-01" purity="5.0475811958312988e-01" nType="0">
          <Node pos="l" depth="2" NCoef="0" IVar="-1" Cut="0.0000000000000000e+00" cType="1" res="-2.3618502018507570e-04" rms="4.5865893363952637e-01" purity="5.0318080186843872e-01" nType="-99"/>
          <Node pos="r" depth="2" NCoef="0" IVar="-1" Cut="0.0000000000000000e+00" cType="1" res="-2.6738725136965513e-03" rms="4.5519849658012390e-01" purity="5.2795970439910889e-01" nType="-99"/>
        </Node>
        <Node pos="r" depth="1" NCoef="0" IVar="-1" Cut="0.0000000000000000e+00" cType="1" res="1.9530032295733690e-03" rms="4.6313601732254028e-01" purity="4.0827727317810059e-01" nType="-99"/>
      </Node>
    </BinaryTree>
    <BinaryTree type="DecisionTree" boostWeight="1.0000000000000000e+00" itree="714">
      <Node pos="s" depth="0" NCoef="0" IVar="9" Cut="7.9369109869003296e-01" cType="1" res="1.9077231409028172e-03" rms="4.5325428247451782e-01" purity="5.0109714269638062e-01" nType="0">
        <Node pos="l" depth="1" NCoef="0" IVar="3" Cut="4.0919274091720581e-02" cType="1" res="8.2295015454292297e-03" rms="4.5437371730804443e-01" purity="5.3040891885757446e-01" nType="0">
          <Node pos="l" depth="2" NCoef="0" IVar="-1" Cut="0.0000000000000000e+00" cType="1" res="1.1091186897829175e-03" rms="4.5550787448883057e-01" purity="5.6567478179931641e-01" nType="-99"/>
          <Node pos="r" depth="2" NCoef="0" IVar="-1" Cut="0.0000000000000000e+00" cType="1" res="-4.3865878251381218e-04" rms="4.5217373967170715e-01" purity="4.7509407997131348e-01" nType="-99"/>
        </Node>
        <Node pos="r" depth="1" NCoef="0" IVar="6" Cut="2.4782686233520508e+00" cType="1" res="-2.1765109151601791e-02" rms="4.4824635982513428e-01" purity="3.9133492112159729e-01" nType="0">
          <Node pos="l" depth="2" NCoef="0" IVar="-1" Cut="0.0000000000000000e+00" cType="1" res="-2.7789210435003042e-03" rms="4.5692527294158936e-01" purity="4.3305289745330811e-01" nType="-99"/>
          <Node pos="r" depth="2" NCoef="0" IVar="-1" Cut="0.0000000000000000e+00" cType="1" res="4.4636198435910046e-04" rms="4.3566292524337769e-01" purity="3.3996787667274475e-01" nType="-99"/>
        </Node>
      </Node>
    </BinaryTree>
    <BinaryTree type="DecisionTree" boostWeight="1.0000000000000000e+00" itree="715">
      <Node pos="s" depth="0" NCoef="0" IVar="1" Cut="8.4580303955078125e+02" cType="1" res="-4.0281872497871518e-04" rms="4.5152947306632996e-01" purity="5.0151109695434570e-01" nType="0">
        <Node pos="l" depth="1" NCoef="0" IVar="0" Cut="5.3197379112243652e+00" cType="1" res="-3.7513554561883211e-03" rms="4.5305484533309937e-01" purity="4.8423868417739868e-01" nType="0">
          <Node pos="l" depth="2" NCoef="0" IVar="-1" Cut="0.0000000000000000e+00" cType="1" res="-3.6335614277049899e-04" rms="4.5823702216148376e-01" purity="4.6068859100341797e-01" nType="-99"/>
          <Node pos="r" depth="2" NCoef="0" IVar="-1" Cut="0.0000000000000000e+00" cType="1" res="2.0706574432551861e-03" rms="3.7177613377571106e-01" purity="8.1401985883712769e-01" nType="-99"/>
        </Node>
        <Node pos="r" depth="1" NCoef="0" IVar="-1" Cut="0.0000000000000000e+00" cType="1" res="1.9366550259292126e-03" rms="4.3633484840393066e-01" purity="6.5764713287353516e-01" nType="-99"/>
      </Node>
    </BinaryTree>
    <BinaryTree type="DecisionTree" boostWeight="1.0000000000000000e+00" itree="716">
      <Node pos="s" depth="0" NCoef="0" IVar="6" Cut="2.0205211639404297e+00" cType="1" res="-1.7518700042273849e-04" rms="4.5501226186752319e-01" purity="5.0210303068161011e-01" nType="0">
        <Node pos="l" depth="1" NCoef="0" IVar="4" Cut="2.3346924781799316e-01" cType="1" res="1.3368844985961914e-02" rms="4.5345267653465271e-01" purity="5.8553314208984375e-01" nType="0">
          <Node pos="l" depth="2" NCoef="0" IVar="-1" Cut="0.0000000000000000e+00" cType="1" res="-1.5693993773311377e-03" rms="4.6902984380722046e-01" purity="5.0954574346542358e-01" nType="-99"/>
          <Node pos="r" depth="2" NCoef="0" IVar="-1" Cut="0.0000000000000000e+00" cType="1" res="1.4607667690142989e-03" rms="4.4879463315010071e-01" purity="6.0508877038955688e-01" nType="-99"/>
        </Node>
        <Node pos="r" depth="1" NCoef="0" IVar="4" Cut="5.3683787584304810e-01" cType="1" res="-5.4568243212997913e-03" rms="4.5550987124443054e-01" purity="4.6956866979598999e-01" nType="0">
          <Node pos="l" depth="2" NCoef="0" IVar="-1" Cut="0.0000000000000000e+00" cType="1" res="2.2251119662541896e-04" rms="4.5158311724662781e-01" purity="4.5894557237625122e-01" nType="-99"/>
          <Node pos="r" depth="2" NCoef="0" IVar="-1" Cut="0.0000000000000000e+00" cType="1" res="-2.1015151869505644e-03" rms="4.6650305390357971e-01" purity="5.0289976596832275e-01" nType="-99"/>
        </Node>
      </Node>
    </BinaryTree>
    <BinaryTree type="DecisionTree" boostWeight="1.0000000000000000e+00" itree="717">
      <Node pos="s" depth="0" NCoef="0" IVar="9" Cut="2.5312587618827820e-01" cType="1" res="-2.9420212376862764e-03" rms="4.5430216193199158e-01" purity="4.9675771594047546e-01" nType="0">
        <Node pos="l" depth="1" NCoef="0" IVar="9" Cut="1.4594186842441559e-01" cType="1" res="2.5588976219296455e-02" rms="4.4702130556106567e-01" purity="5.8386540412902832e-01" nType="0">
          <Node pos="l" depth="2" NCoef="0" IVar="-1" Cut="0.0000000000000000e+00" cType="1" res="2.5576216285116971e-04" rms="4.4109064340591431e-01" purity="5.7397043704986572e-01" nType="-99"/>
          <Node pos="r" depth="2" NCoef="0" IVar="-1" Cut="0.0000000000000000e+00" cType="1" res="2.3168029729276896e-03" rms="4.4970613718032837e-01" purity="5.8909624814987183e-01" nType="-99"/>
        </Node>
        <Node pos="r" depth="1" NCoef="0" IVar="4" Cut="2.1382044255733490e-01" cType="1" res="-8.0540142953395844e-03" rms="4.5540559291839600e-01" purity="4.8115035891532898e-01" nType="0">
          <Node pos="l" depth="2" NCoef="0" IVar="-1" Cut="0.0000000000000000e+00" cType="1" res="9.8647281993180513e-04" rms="4.4824036955833435e-01" purity="4.3052726984024048e-01" nType="-99"/>
          <Node pos="r" depth="2" NCoef="0" IVar="-1" Cut="0.0000000000000000e+00" cType="1" res="-8.7304558837786317e-04" rms="4.5699656009674072e-01" purity="4.9383294582366943e-01" nType="-99"/>
        </Node>
      </Node>
    </BinaryTree>
    <BinaryTree type="DecisionTree" boostWeight="1.0000000000000000e+00" itree="718">
      <Node pos="s" depth="0" NCoef="0" IVar="6" Cut="2.1474173069000244e+00" cType="1" res="-4.1147381998598576e-03" rms="4.5428955554962158e-01" purity="4.9671679735183716e-01" nType="0">
        <Node pos="l" depth="1" NCoef="0" IVar="8" Cut="1.5243921279907227e+00" cType="1" res="-1.3634797185659409e-02" rms="4.5537197589874268e-01" purity="5.5413067340850830e-01" nType="0">
          <Node pos="l" depth="2" NCoef="0" IVar="-1" Cut="0.0000000000000000e+00" cType="1" res="-4.5263778883963823e-04" rms="4.5642003417015076e-01" purity="5.7389664649963379e-01" nType="-99"/>
          <Node pos="r" depth="2" NCoef="0" IVar="-1" Cut="0.0000000000000000e+00" cType="1" res="-2.7030939236283302e-03" rms="4.4919884204864502e-01" purity="4.6127569675445557e-01" nType="-99"/>
        </Node>
        <Node pos="r" depth="1" NCoef="0" IVar="5" Cut="9.4491547346115112e-01" cType="1" res="2.5720247067511082e-03" rms="4.5340821146965027e-01" purity="4.5639011263847351e-01" nType="0">
          <Node pos="l" depth="2" NCoef="0" IVar="-1" Cut="0.0000000000000000e+00" cType="1" res="9.5527945086359978e-04" rms="4.4374170899391174e-01" purity="3.4481352567672729e-01" nType="-99"/>
          <Node pos="r" depth="2" NCoef="0" IVar="-1" Cut="0.0000000000000000e+00" cType="1" res="-3.0626493389718235e-04" rms="4.5925068855285645e-01" purity="5.2685958147048950e-01" nType="-99"/>
        </Node>
      </Node>
    </BinaryTree>
    <BinaryTree type="DecisionTree" boostWeight="1.0000000000000000e+00" itree="719">
      <Node pos="s" depth="0" NCoef="0" IVar="3" Cut="-1.4306312426924706e-02" cType="1" res="2.9394049197435379e-03" rms="4.5434159040451050e-01" purity="5.0409448146820068e-01" nType="0">
        <Node pos="l" depth="1" NCoef="0" IVar="6" Cut="2.4231595993041992e+00" cType="1" res="-9.5207085832953453e-03" rms="4.5463806390762329e-01" purity="5.3544789552688599e-01" nType="0">
          <Node pos="l" depth="2" NCoef="0" IVar="-1" Cut="0.0000000000000000e+00" cType="1" res="-1.1287180241197348e-03" rms="4.5467662811279297e-01" purity="5.5029660463333130e-01" nType="-99"/>
          <Node pos="r" depth="2" NCoef="0" IVar="-1" Cut="0.0000000000000000e+00" cType="1" res="2.0848182030022144e-03" rms="4.5209881663322449e-01" purity="4.6085894107818604e-01" nType="-99"/>
        </Node>
        <Node pos="r" depth="1" NCoef="0" IVar="5" Cut="9.1101396083831787e-01" cType="1" res="8.5368361324071884e-03" rms="4.5409706234931946e-01" purity="4.9000963568687439e-01" nType="0">
          <Node pos="l" depth="2" NCoef="0" IVar="-1" Cut="0.0000000000000000e+00" cType="1" res="-2.2197428625077009e-03" rms="4.1363424062728882e-01" purity="2.5404047966003418e-01" nType="-99"/>
          <Node pos="r" depth="2" NCoef="0" IVar="-1" Cut="0.0000000000000000e+00" cType="1" res="7.4306753231212497e-04" rms="4.5703855156898499e-01" purity="5.0900083780288696e-01" nType="-99"/>
        </Node>
      </Node>
    </BinaryTree>
    <BinaryTree type="DecisionTree" boostWeight="1.0000000000000000e+00" itree="720">
      <Node pos="s" depth="0" NCoef="0" IVar="4" Cut="7.0756840705871582e-01" cType="1" res="-4.5018084347248077e-03" rms="4.5423772931098938e-01" purity="4.9636334180831909e-01" nType="0">
        <Node pos="l" depth="1" NCoef="0" IVar="8" Cut="1.6071330308914185e+00" cType="1" res="-2.0678003784269094e-03" rms="4.5448049902915955e-01" purity="4.9468839168548584e-01" nType="0">
          <Node pos="l" depth="2" NCoef="0" IVar="-1" Cut="0.0000000000000000e+00" cType="1" res="5.9040805354015902e-05" rms="4.5635885000228882e-01" purity="5.0937360525131226e-01" nType="-99"/>
          <Node pos="r" depth="2" NCoef="0" IVar="-1" Cut="0.0000000000000000e+00" cType="1" res="-1.5165783697739244e-03" rms="4.4054940342903137e-01" purity="3.9201205968856812e-01" nType="-99"/>
        </Node>
        <Node pos="r" depth="1" NCoef="0" IVar="-1" Cut="0.0000000000000000e+00" cType="1" res="-2.8056807350367308e-03" rms="4.4851282238960266e-01" purity="5.2327018976211548e-01" nType="-99"/>
      </Node>
    </BinaryTree>
    <BinaryTree type="DecisionTree" boostWeight="1.0000000000000000e+00" itree="721">
      <Node pos="s" depth="0" NCoef="0" IVar="9" Cut="2.1730354428291321e-01" cType="1" res="5.5772047489881516e-03" rms="4.5542258024215698e-01" purity="5.0601798295974731e-01" nType="0">
        <Node pos="l" depth="1" NCoef="0" IVar="1" Cut="5.3189135742187500e+02" cType="1" res="-2.2797042503952980e-02" rms="4.5071837306022644e-01" purity="5.3855258226394653e-01" nType="0">
          <Node pos="l" depth="2" NCoef="0" IVar="-1" Cut="0.0000000000000000e+00" cType="1" res="-3.2141685951501131e-03" rms="4.5288521051406860e-01" purity="4.2563781142234802e-01" nType="-99"/>
          <Node pos="r" depth="2" NCoef="0" IVar="-1" Cut="0.0000000000000000e+00" cType="1" res="8.8348715507891029e-05" rms="4.4746372103691101e-01" purity="6.3310527801513672e-01" nType="-99"/>
        </Node>
        <Node pos="r" depth="1" NCoef="0" IVar="9" Cut="2.9111933708190918e-01" cType="1" res="9.2469733208417892e-03" rms="4.5589849352836609e-01" purity="5.0181007385253906e-01" nType="0">
          <Node pos="l" depth="2" NCoef="0" IVar="-1" Cut="0.0000000000000000e+00" cType="1" res="2.9455409385263920e-03" rms="4.5549282431602478e-01" purity="5.8399438858032227e-01" nType="-99"/>
          <Node pos="r" depth="2" NCoef="0" IVar="-1" Cut="0.0000000000000000e+00" cType="1" res="3.3440947299823165e-04" rms="4.5575457811355591e-01" purity="4.9343365430831909e-01" nType="-99"/>
        </Node>
      </Node>
    </BinaryTree>
    <BinaryTree type="DecisionTree" boostWeight="1.0000000000000000e+00" itree="722">
      <Node pos="s" depth="0" NCoef="0" IVar="8" Cut="1.7932609319686890e+00" cType="1" res="6.3668778166174889e-03" rms="4.5358654856681824e-01" purity="5.0680607557296753e-01" nType="0">
        <Node pos="l" depth="1" NCoef="0" IVar="4" Cut="6.2015068531036377e-01" cType="1" res="3.9020471740514040e-03" rms="4.5407676696777344e-01" purity="5.0961869955062866e-01" nType="0">
          <Node pos="l" depth="2" NCoef="0" IVar="-1" Cut="0.0000000000000000e+00" cType="1" res="4.5507241156883538e-04" rms="4.5429354906082153e-01" purity="5.0162732601165771e-01" nType="-99"/>
          <Node pos="r" depth="2" NCoef="0" IVar="-1" Cut="0.0000000000000000e+00" cType="1" res="-1.0137684876099229e-03" rms="4.5227542519569397e-01" purity="5.5723065137863159e-01" nType="-99"/>
        </Node>
        <Node pos="r" depth="1" NCoef="0" IVar="-1" Cut="0.0000000000000000e+00" cType="1" res="2.6874565519392490e-03" rms="4.4505858421325684e-01" purity="4.6671423316001892e-01" nType="-99"/>
      </Node>
    </BinaryTree>
    <BinaryTree type="DecisionTree" boostWeight="1.0000000000000000e+00" itree="723">
      <Node pos="s" depth="0" NCoef="0" IVar="1" Cut="4.0500665283203125e+02" cType="1" res="-4.6820561401546001e-03" rms="4.5324748754501343e-01" purity="4.9519968032836914e-01" nType="0">
        <Node pos="l" depth="1" NCoef="0" IVar="2" Cut="8.0569221496582031e+01" cType="1" res="-2.3799756541848183e-02" rms="4.2868325114250183e-01" purity="3.1788322329521179e-01" nType="0">
          <Node pos="l" depth="2" NCoef="0" IVar="-1" Cut="0.0000000000000000e+00" cType="1" res="-5.8116600848734379e-04" rms="4.3694546818733215e-01" purity="3.4541520476341248e-01" nType="-99"/>
          <Node pos="r" depth="2" NCoef="0" IVar="-1" Cut="0.0000000000000000e+00" cType="1" res="-3.1721107661724091e-03" rms="4.1659712791442871e-01" purity="2.8132107853889465e-01" nType="-99"/>
        </Node>
        <Node pos="r" depth="1" NCoef="0" IVar="4" Cut="2.6110091805458069e-01" cType="1" res="-1.1472172336652875e-03" rms="4.5755749940872192e-01" purity="5.2798527479171753e-01" nType="0">
          <Node pos="l" depth="2" NCoef="0" IVar="-1" Cut="0.0000000000000000e+00" cType="1" res="-1.2320023961365223e-03" rms="4.5451983809471130e-01" purity="4.3832808732986450e-01" nType="-99"/>
          <Node pos="r" depth="2" NCoef="0" IVar="-1" Cut="0.0000000000000000e+00" cType="1" res="4.0228906436823308e-04" rms="4.5858791470527649e-01" purity="5.6498515605926514e-01" nType="-99"/>
        </Node>
      </Node>
    </BinaryTree>
    <BinaryTree type="DecisionTree" boostWeight="1.0000000000000000e+00" itree="724">
      <Node pos="s" depth="0" NCoef="0" IVar="3" Cut="1.4092238247394562e-01" cType="1" res="6.9759367033839226e-04" rms="4.5245650410652161e-01" purity="5.0022220611572266e-01" nType="0">
        <Node pos="l" depth="1" NCoef="0" IVar="5" Cut="9.7972828149795532e-01" cType="1" res="3.7833277601748705e-03" rms="4.5382544398307800e-01" purity="5.1320070028305054e-01" nType="0">
          <Node pos="l" depth="2" NCoef="0" IVar="-1" Cut="0.0000000000000000e+00" cType="1" res="4.8257894377456978e-05" rms="4.6108937263488770e-01" purity="4.6820384263992310e-01" nType="-99"/>
          <Node pos="r" depth="2" NCoef="0" IVar="-1" Cut="0.0000000000000000e+00" cType="1" res="1.4522277051582932e-03" rms="4.1328352689743042e-01" purity="7.4923288822174072e-01" nType="-99"/>
        </Node>
        <Node pos="r" depth="1" NCoef="0" IVar="8" Cut="1.1260998249053955e+00" cType="1" res="-2.2523658350110054e-02" rms="4.4132700562477112e-01" purity="4.0255394577980042e-01" nType="0">
          <Node pos="l" depth="2" NCoef="0" IVar="-1" Cut="0.0000000000000000e+00" cType="1" res="2.5827458011917770e-04" rms="4.6090999245643616e-01" purity="4.7238099575042725e-01" nType="-99"/>
          <Node pos="r" depth="2" NCoef="0" IVar="-1" Cut="0.0000000000000000e+00" cType="1" res="-3.4392108209431171e-03" rms="4.1738215088844299e-01" purity="3.2751393318176270e-01" nType="-99"/>
        </Node>
      </Node>
    </BinaryTree>
    <BinaryTree type="DecisionTree" boostWeight="1.0000000000000000e+00" itree="725">
      <Node pos="s" depth="0" NCoef="0" IVar="2" Cut="1.9011921691894531e+02" cType="1" res="4.2672934941947460e-03" rms="4.5318871736526489e-01" purity="5.0593525171279907e-01" nType="0">
        <Node pos="l" depth="1" NCoef="0" IVar="4" Cut="1.5792839229106903e-01" cType="1" res="6.8574049510061741e-03" rms="4.5248526334762573e-01" purity="5.0817549228668213e-01" nType="0">
          <Node pos="l" depth="2" NCoef="0" IVar="-1" Cut="0.0000000000000000e+00" cType="1" res="-1.4406606787815690e-03" rms="4.4454643130302429e-01" purity="3.8175460696220398e-01" nType="-99"/>
          <Node pos="r" depth="2" NCoef="0" IVar="-1" Cut="0.0000000000000000e+00" cType="1" res="6.4165971707552671e-04" rms="4.5329186320304871e-01" purity="5.2308386564254761e-01" nType="-99"/>
        </Node>
        <Node pos="r" depth="1" NCoef="0" IVar="-1" Cut="0.0000000000000000e+00" cType="1" res="-1.9639509264379740e-03" rms="4.6112293004989624e-01" purity="4.7585827112197876e-01" nType="-99"/>
      </Node>
    </BinaryTree>
    <BinaryTree type="DecisionTree" boostWeight="1.0000000000000000e+00" itree="726">
      <Node pos="s" depth="0" NCoef="0" IVar="2" Cut="1.1636914062500000e+02" cType="1" res="-5.7462374679744244e-03" rms="4.5250234007835388e-01" purity="4.9531811475753784e-01" nType="0">
        <Node pos="l" depth="1" NCoef="0" IVar="1" Cut="4.9085528564453125e+02" cType="1" res="-1.1925986036658287e-02" rms="4.5463904738426208e-01" purity="4.7648671269416809e-01" nType="0">
          <Node pos="l" depth="2" NCoef="0" IVar="-1" Cut="0.0000000000000000e+00" cType="1" res="-1.4566876052413136e-04" rms="4.4970229268074036e-01" purity="4.0995925664901733e-01" nType="-99"/>
          <Node pos="r" depth="2" NCoef="0" IVar="-1" Cut="0.0000000000000000e+00" cType="1" res="-1.2911697849631310e-03" rms="4.5918485522270203e-01" purity="5.4105174541473389e-01" nType="-99"/>
        </Node>
        <Node pos="r" depth="1" NCoef="0" IVar="6" Cut="2.7113616466522217e+00" cType="1" res="5.7614846155047417e-03" rms="4.4826936721801758e-01" purity="5.3038549423217773e-01" nType="0">
          <Node pos="l" depth="2" NCoef="0" IVar="-1" Cut="0.0000000000000000e+00" cType="1" res="8.1381335621699691e-04" rms="4.5321947336196899e-01" purity="5.8978897333145142e-01" nType="-99"/>
          <Node pos="r" depth="2" NCoef="0" IVar="-1" Cut="0.0000000000000000e+00" cType="1" res="-1.6561822267249227e-03" rms="4.2588999867439270e-01" purity="2.8466662764549255e-01" nType="-99"/>
        </Node>
      </Node>
    </BinaryTree>
    <BinaryTree type="DecisionTree" boostWeight="1.0000000000000000e+00" itree="727">
      <Node pos="s" depth="0" NCoef="0" IVar="4" Cut="2.1031515300273895e-01" cType="1" res="-7.6978729339316487e-04" rms="4.5475873351097107e-01" purity="4.9889850616455078e-01" nType="0">
        <Node pos="l" depth="1" NCoef="0" IVar="4" Cut="1.5534056723117828e-01" cType="1" res="2.4605307728052139e-02" rms="4.5278391242027283e-01" purity="4.4437655806541443e-01" nType="0">
          <Node pos="l" depth="2" NCoef="0" IVar="-1" Cut="0.0000000000000000e+00" cType="1" res="7.3058210546150804e-04" rms="4.4559884071350098e-01" purity="4.1251000761985779e-01" nType="-99"/>
          <Node pos="r" depth="2" NCoef="0" IVar="-1" Cut="0.0000000000000000e+00" cType="1" res="2.6688512880355120e-03" rms="4.6143507957458496e-01" purity="4.8614498972892761e-01" nType="-99"/>
        </Node>
        <Node pos="r" depth="1" NCoef="0" IVar="0" Cut="2.0774650573730469e+00" cType="1" res="-6.6398344933986664e-03" rms="4.5501285791397095e-01" purity="5.1151114702224731e-01" nType="0">
          <Node pos="l" depth="2" NCoef="0" IVar="-1" Cut="0.0000000000000000e+00" cType="1" res="-1.3380062300711870e-03" rms="4.4979286193847656e-01" purity="3.2576107978820801e-01" nType="-99"/>
          <Node pos="r" depth="2" NCoef="0" IVar="-1" Cut="0.0000000000000000e+00" cType="1" res="-2.0612254957086407e-05" rms="4.5723882317543030e-01" purity="5.9636014699935913e-01" nType="-99"/>
        </Node>
      </Node>
    </BinaryTree>
    <BinaryTree type="DecisionTree" boostWeight="1.0000000000000000e+00" itree="728">
      <Node pos="s" depth="0" NCoef="0" IVar="7" Cut="4.1631557464599609e+01" cType="1" res="-1.4846061822026968e-03" rms="4.5265409350395203e-01" purity="4.9571666121482849e-01" nType="0">
        <Node pos="l" depth="1" NCoef="0" IVar="-1" Cut="0.0000000000000000e+00" cType="1" res="-2.6858758646994829e-03" rms="4.2029216885566711e-01" purity="2.7752688527107239e-01" nType="-99"/>
        <Node pos="r" depth="1" NCoef="0" IVar="6" Cut="2.1979422569274902e+00" cType="1" res="7.3288363637402654e-04" rms="4.5445966720581055e-01" purity="5.0902712345123291e-01" nType="0">
          <Node pos="l" depth="2" NCoef="0" IVar="-1" Cut="0.0000000000000000e+00" cType="1" res="6.5364764304831624e-04" rms="4.5655569434165955e-01" purity="5.8326983451843262e-01" nType="-99"/>
          <Node pos="r" depth="2" NCoef="0" IVar="-1" Cut="0.0000000000000000e+00" cType="1" res="-5.5392959620803595e-04" rms="4.5223310589790344e-01" purity="4.3757307529449463e-01" nType="-99"/>
        </Node>
      </Node>
    </BinaryTree>
    <BinaryTree type="DecisionTree" boostWeight="1.0000000000000000e+00" itree="729">
      <Node pos="s" depth="0" NCoef="0" IVar="4" Cut="7.0783281326293945e-01" cType="1" res="-2.8014774434268475e-03" rms="4.5522084832191467e-01" purity="4.9739333987236023e-01" nType="0">
        <Node pos="l" depth="1" NCoef="0" IVar="4" Cut="6.5110391378402710e-01" cType="1" res="-8.8509882334619761e-04" rms="4.5482277870178223e-01" purity="4.9516567587852478e-01" nType="0">
          <Node pos="l" depth="2" NCoef="0" IVar="-1" Cut="0.0000000000000000e+00" cType="1" res="-1.6601946845185012e-04" rms="4.5483598113059998e-01" purity="4.8973676562309265e-01" nType="-99"/>
          <Node pos="r" depth="2" NCoef="0" IVar="-1" Cut="0.0000000000000000e+00" cType="1" res="1.7798710614442825e-03" rms="4.5363032817840576e-01" purity="5.8567267656326294e-01" nType="-99"/>
        </Node>
        <Node pos="r" depth="1" NCoef="0" IVar="-1" Cut="0.0000000000000000e+00" cType="1" res="-2.1890883799642324e-03" rms="4.6057882905006409e-01" purity="5.3405821323394775e-01" nType="-99"/>
      </Node>
    </BinaryTree>
    <BinaryTree type="DecisionTree" boostWeight="1.0000000000000000e+00" itree="730">
      <Node pos="s" depth="0" NCoef="0" IVar="9" Cut="9.5620977878570557e-01" cType="1" res="-4.7870958223938942e-04" rms="4.5440739393234253e-01" purity="4.9916249513626099e-01" nType="0">
        <Node pos="l" depth="1" NCoef="0" IVar="6" Cut="2.6282653808593750e+00" cType="1" res="-4.3965023942291737e-03" rms="4.5413196086883545e-01" purity="5.0793933868408203e-01" nType="0">
          <Node pos="l" depth="2" NCoef="0" IVar="-1" Cut="0.0000000000000000e+00" cType="1" res="1.0263723197567742e-05" rms="4.5832291245460510e-01" purity="5.3834933042526245e-01" nType="-99"/>
          <Node pos="r" depth="2" NCoef="0" IVar="-1" Cut="0.0000000000000000e+00" cType="1" res="-2.8803644236177206e-03" rms="4.1728901863098145e-01" purity="2.6454985141754150e-01" nType="-99"/>
        </Node>
        <Node pos="r" depth="1" NCoef="0" IVar="8" Cut="1.1228083372116089e+00" cType="1" res="3.2697536051273346e-02" rms="4.5538380742073059e-01" purity="4.2483904957771301e-01" nType="0">
          <Node pos="l" depth="2" NCoef="0" IVar="-1" Cut="0.0000000000000000e+00" cType="1" res="3.8592230994254351e-03" rms="4.6628129482269287e-01" purity="4.8539546132087708e-01" nType="-99"/>
          <Node pos="r" depth="2" NCoef="0" IVar="-1" Cut="0.0000000000000000e+00" cType="1" res="2.1533078688662499e-04" rms="4.4203048944473267e-01" purity="3.6296394467353821e-01" nType="-99"/>
        </Node>
      </Node>
    </BinaryTree>
    <BinaryTree type="DecisionTree" boostWeight="1.0000000000000000e+00" itree="731">
      <Node pos="s" depth="0" NCoef="0" IVar="6" Cut="2.4604868888854980e+00" cType="1" res="2.5625892449170351e-03" rms="4.5324188470840454e-01" purity="5.0383555889129639e-01" nType="0">
        <Node pos="l" depth="1" NCoef="0" IVar="2" Cut="6.0812961578369141e+01" cType="1" res="9.5904059708118439e-03" rms="4.5631822943687439e-01" purity="5.5427873134613037e-01" nType="0">
          <Node pos="l" depth="2" NCoef="0" IVar="-1" Cut="0.0000000000000000e+00" cType="1" res="1.8474700627848506e-03" rms="4.6040153503417969e-01" purity="5.1848906278610229e-01" nType="-99"/>
          <Node pos="r" depth="2" NCoef="0" IVar="-1" Cut="0.0000000000000000e+00" cType="1" res="2.0498811500146985e-04" rms="4.5487490296363831e-01" purity="5.6523954868316650e-01" nType="-99"/>
        </Node>
        <Node pos="r" depth="1" NCoef="0" IVar="9" Cut="9.0870845317840576e-01" cType="1" res="-2.0194742828607559e-02" rms="4.4236820936203003e-01" purity="3.4049123525619507e-01" nType="0">
          <Node pos="l" depth="2" NCoef="0" IVar="-1" Cut="0.0000000000000000e+00" cType="1" res="-2.2412596736103296e-03" rms="4.4047051668167114e-01" purity="3.3399885892868042e-01" nType="-99"/>
          <Node pos="r" depth="2" NCoef="0" IVar="-1" Cut="0.0000000000000000e+00" cType="1" res="7.4182869866490364e-04" rms="4.4523108005523682e-01" purity="3.5570818185806274e-01" nType="-99"/>
        </Node>
      </Node>
    </BinaryTree>
    <BinaryTree type="DecisionTree" boostWeight="1.0000000000000000e+00" itree="732">
      <Node pos="s" depth="0" NCoef="0" IVar="9" Cut="1.7115966975688934e-01" cType="1" res="4.2136907577514648e-03" rms="4.5408317446708679e-01" purity="5.0478756427764893e-01" nType="0">
        <Node pos="l" depth="1" NCoef="0" IVar="-1" Cut="0.0000000000000000e+00" cType="1" res="2.0506125874817371e-03" rms="4.4232621788978577e-01" purity="6.0240036249160767e-01" nType="-99"/>
        <Node pos="r" depth="1" NCoef="0" IVar="7" Cut="7.1379188537597656e+01" cType="1" res="1.8552101682871580e-03" rms="4.5497173070907593e-01" purity="4.9663764238357544e-01" nType="0">
          <Node pos="l" depth="2" NCoef="0" IVar="-1" Cut="0.0000000000000000e+00" cType="1" res="6.7422568099573255e-04" rms="4.5209810137748718e-01" purity="4.4872936606407166e-01" nType="-99"/>
          <Node pos="r" depth="2" NCoef="0" IVar="-1" Cut="0.0000000000000000e+00" cType="1" res="-5.8120570611208677e-04" rms="4.5838597416877747e-01" purity="5.5805730819702148e-01" nType="-99"/>
        </Node>
      </Node>
    </BinaryTree>
    <BinaryTree type="DecisionTree" boostWeight="1.0000000000000000e+00" itree="733">
      <Node pos="s" depth="0" NCoef="0" IVar="0" Cut="3.2801389694213867e+00" cType="1" res="2.5649825111031532e-03" rms="4.5491370558738708e-01" purity="5.0563514232635498e-01" nType="0">
        <Node pos="l" depth="1" NCoef="0" IVar="9" Cut="7.7217692136764526e-01" cType="1" res="9.3630291521549225e-03" rms="4.6129834651947021e-01" purity="4.1158911585807800e-01" nType="0">
          <Node pos="l" depth="2" NCoef="0" IVar="-1" Cut="0.0000000000000000e+00" cType="1" res="8.2873547216877341e-04" rms="4.6520626544952393e-01" purity="4.3910038471221924e-01" nType="-99"/>
          <Node pos="r" depth="2" NCoef="0" IVar="-1" Cut="0.0000000000000000e+00" cType="1" res="-2.6422704104334116e-04" rms="4.4851875305175781e-01" purity="3.2501211762428284e-01" nType="-99"/>
        </Node>
        <Node pos="r" depth="1" NCoef="0" IVar="8" Cut="1.3732200860977173e+00" cType="1" res="-8.5745677351951599e-03" rms="4.4402825832366943e-01" purity="6.5974259376525879e-01" nType="0">
          <Node pos="l" depth="2" NCoef="0" IVar="-1" Cut="0.0000000000000000e+00" cType="1" res="1.3597986253444105e-05" rms="4.3544378876686096e-01" purity="6.8718981742858887e-01" nType="-99"/>
          <Node pos="r" depth="2" NCoef="0" IVar="-1" Cut="0.0000000000000000e+00" cType="1" res="-2.2165258415043354e-03" rms="4.6918946504592896e-01" purity="5.7248401641845703e-01" nType="-99"/>
        </Node>
      </Node>
    </BinaryTree>
    <BinaryTree type="DecisionTree" boostWeight="1.0000000000000000e+00" itree="734">
      <Node pos="s" depth="0" NCoef="0" IVar="2" Cut="5.1742595672607422e+01" cType="1" res="-2.5204021949321032e-03" rms="4.5384451746940613e-01" purity="5.0072652101516724e-01" nType="0">
        <Node pos="l" depth="1" NCoef="0" IVar="6" Cut="1.8261356353759766e+00" cType="1" res="-2.9261784628033638e-02" rms="4.6093794703483582e-01" purity="4.4772425293922424e-01" nType="0">
          <Node pos="l" depth="2" NCoef="0" IVar="-1" Cut="0.0000000000000000e+00" cType="1" res="-4.1096531786024570e-03" rms="4.6481037139892578e-01" purity="4.5417401194572449e-01" nType="-99"/>
          <Node pos="r" depth="2" NCoef="0" IVar="-1" Cut="0.0000000000000000e+00" cType="1" res="2.1430755441542715e-04" rms="4.5503661036491394e-01" purity="4.4213661551475525e-01" nType="-99"/>
        </Node>
        <Node pos="r" depth="1" NCoef="0" IVar="6" Cut="2.8847210407257080e+00" cType="1" res="1.1658517178148031e-03" rms="4.5273411273956299e-01" purity="5.0803279876708984e-01" nType="0">
          <Node pos="l" depth="2" NCoef="0" IVar="-1" Cut="0.0000000000000000e+00" cType="1" res="2.4633941939100623e-04" rms="4.5683708786964417e-01" purity="5.2893513441085815e-01" nType="-99"/>
          <Node pos="r" depth="2" NCoef="0" IVar="-1" Cut="0.0000000000000000e+00" cType="1" res="-3.0285548418760300e-03" rms="3.8654002547264099e-01" purity="2.0640116930007935e-01" nType="-99"/>
        </Node>
      </Node>
    </BinaryTree>
    <BinaryTree type="DecisionTree" boostWeight="1.0000000000000000e+00" itree="735">
      <Node pos="s" depth="0" NCoef="0" IVar="4" Cut="3.3097562193870544e-01" cType="1" res="2.9527947772294283e-03" rms="4.5440909266471863e-01" purity="5.0442349910736084e-01" nType="0">
        <Node pos="l" depth="1" NCoef="0" IVar="2" Cut="1.2772756958007812e+02" cType="1" res="1.4881720766425133e-02" rms="4.5509138703346252e-01" purity="4.6490696072578430e-01" nType="0">
          <Node pos="l" depth="2" NCoef="0" IVar="-1" Cut="0.0000000000000000e+00" cType="1" res="1.4209720538929105e-03" rms="4.5705664157867432e-01" purity="4.6655634045600891e-01" nType="-99"/>
          <Node pos="r" depth="2" NCoef="0" IVar="-1" Cut="0.0000000000000000e+00" cType="1" res="-2.4051665968727320e-04" rms="4.4973018765449524e-01" purity="4.6088886260986328e-01" nType="-99"/>
        </Node>
        <Node pos="r" depth="1" NCoef="0" IVar="6" Cut="2.3982598781585693e+00" cType="1" res="-5.0293863750994205e-03" rms="4.5377686619758606e-01" purity="5.3086590766906738e-01" nType="0">
          <Node pos="l" depth="2" NCoef="0" IVar="-1" Cut="0.0000000000000000e+00" cType="1" res="6.6351727582514286e-05" rms="4.5201858878135681e-01" purity="5.6815493106842041e-01" nType="-99"/>
          <Node pos="r" depth="2" NCoef="0" IVar="-1" Cut="0.0000000000000000e+00" cType="1" res="-1.6596108907833695e-03" rms="4.5921224355697632e-01" purity="4.0115013718605042e-01" nType="-99"/>
        </Node>
      </Node>
    </BinaryTree>
    <BinaryTree type="DecisionTree" boostWeight="1.0000000000000000e+00" itree="736">
      <Node pos="s" depth="0" NCoef="0" IVar="8" Cut="1.6274185180664062e+00" cType="1" res="2.9548264574259520e-03" rms="4.5182535052299500e-01" purity="5.0069016218185425e-01" nType="0">
        <Node pos="l" depth="1" NCoef="0" IVar="4" Cut="5.3566879034042358e-01" cType="1" res="-6.1182152421679348e-05" rms="4.5324522256851196e-01" purity="5.0782579183578491e-01" nType="0">
          <Node pos="l" depth="2" NCoef="0" IVar="-1" Cut="0.0000000000000000e+00" cType="1" res="3.0768537544645369e-04" rms="4.5337975025177002e-01" purity="4.9403700232505798e-01" nType="-99"/>
          <Node pos="r" depth="2" NCoef="0" IVar="-1" Cut="0.0000000000000000e+00" cType="1" res="-8.9965300867334008e-04" rms="4.5255655050277710e-01" purity="5.4756754636764526e-01" nType="-99"/>
        </Node>
        <Node pos="r" depth="1" NCoef="0" IVar="4" Cut="3.9374929666519165e-01" cType="1" res="2.5996949523687363e-02" rms="4.4014513492584229e-01" purity="4.4617399573326111e-01" nType="0">
          <Node pos="l" depth="2" NCoef="0" IVar="-1" Cut="0.0000000000000000e+00" cType="1" res="3.9266466046683490e-04" rms="4.3470814824104309e-01" purity="3.7643602490425110e-01" nType="-99"/>
          <Node pos="r" depth="2" NCoef="0" IVar="-1" Cut="0.0000000000000000e+00" cType="1" res="3.1134672462940216e-03" rms="4.4519194960594177e-01" purity="5.2637165784835815e-01" nType="-99"/>
        </Node>
      </Node>
    </BinaryTree>
    <BinaryTree type="DecisionTree" boostWeight="1.0000000000000000e+00" itree="737">
      <Node pos="s" depth="0" NCoef="0" IVar="4" Cut="7.1931082010269165e-01" cType="1" res="1.6053519211709499e-03" rms="4.5458254218101501e-01" purity="5.0107288360595703e-01" nType="0">
        <Node pos="l" depth="1" NCoef="0" IVar="3" Cut="-5.7769723236560822e-02" cType="1" res="3.6860506515949965e-03" rms="4.5512080192565918e-01" purity="4.9973991513252258e-01" nType="0">
          <Node pos="l" depth="2" NCoef="0" IVar="-1" Cut="0.0000000000000000e+00" cType="1" res="1.9345951732248068e-03" rms="4.5094817876815796e-01" purity="5.8926975727081299e-01" nType="-99"/>
          <Node pos="r" depth="2" NCoef="0" IVar="-1" Cut="0.0000000000000000e+00" cType="1" res="8.2188074884470552e-05" rms="4.5540413260459900e-01" purity="4.9194973707199097e-01" nType="-99"/>
        </Node>
        <Node pos="r" depth="1" NCoef="0" IVar="-1" Cut="0.0000000000000000e+00" cType="1" res="-2.3437689524143934e-03" rms="4.4299325346946716e-01" purity="5.2528709173202515e-01" nType="-99"/>
      </Node>
    </BinaryTree>
    <BinaryTree type="DecisionTree" boostWeight="1.0000000000000000e+00" itree="738">
      <Node pos="s" depth="0" NCoef="0" IVar="1" Cut="4.9723596191406250e+02" cType="1" res="1.5326918801292777e-03" rms="4.5494517683982849e-01" purity="5.0313949584960938e-01" nType="0">
        <Node pos="l" depth="1" NCoef="0" IVar="3" Cut="3.8898859173059464e-02" cType="1" res="1.5193356201052666e-02" rms="4.4930562376976013e-01" purity="4.2379319667816162e-01" nType="0">
          <Node pos="l" depth="2" NCoef="0" IVar="-1" Cut="0.0000000000000000e+00" cType="1" res="1.7242026515305042e-03" rms="4.5536196231842041e-01" purity="4.7316282987594604e-01" nType="-99"/>
          <Node pos="r" depth="2" NCoef="0" IVar="-1" Cut="0.0000000000000000e+00" cType="1" res="-2.0130522898398340e-04" rms="4.3956694006919861e-01" purity="3.5076549649238586e-01" nType="-99"/>
        </Node>
        <Node pos="r" depth="1" NCoef="0" IVar="4" Cut="6.1843389272689819e-01" cType="1" res="-8.3581162616610527e-03" rms="4.5873132348060608e-01" purity="5.6058907508850098e-01" nType="0">
          <Node pos="l" depth="2" NCoef="0" IVar="-1" Cut="0.0000000000000000e+00" cType="1" res="-2.6219227584078908e-04" rms="4.5846015214920044e-01" purity="5.5438160896301270e-01" nType="-99"/>
          <Node pos="r" depth="2" NCoef="0" IVar="-1" Cut="0.0000000000000000e+00" cType="1" res="-2.5999015197157860e-03" rms="4.5958191156387329e-01" purity="6.0806745290756226e-01" nType="-99"/>
        </Node>
      </Node>
    </BinaryTree>
    <BinaryTree type="DecisionTree" boostWeight="1.0000000000000000e+00" itree="739">
      <Node pos="s" depth="0" NCoef="0" IVar="8" Cut="6.2466019392013550e-01" cType="1" res="-4.9577874597162008e-04" rms="4.5421573519706726e-01" purity="4.9616998434066772e-01" nType="0">
        <Node pos="l" depth="1" NCoef="0" IVar="8" Cut="5.5188924074172974e-01" cType="1" res="2.5558153167366982e-02" rms="4.4680994749069214e-01" purity="5.8656930923461914e-01" nType="0">
          <Node pos="l" depth="2" NCoef="0" IVar="-1" Cut="0.0000000000000000e+00" cType="1" res="1.8095093546435237e-03" rms="4.4512298703193665e-01" purity="5.9851253032684326e-01" nType="-99"/>
          <Node pos="r" depth="2" NCoef="0" IVar="-1" Cut="0.0000000000000000e+00" cType="1" res="1.4106122544035316e-03" rms="4.4842278957366943e-01" purity="5.7494956254959106e-01" nType="-99"/>
        </Node>
        <Node pos="r" depth="1" NCoef="0" IVar="1" Cut="8.8187347412109375e+02" cType="1" res="-3.4387628547847271e-03" rms="4.5495092868804932e-01" purity="4.8595869541168213e-01" nType="0">
          <Node pos="l" depth="2" NCoef="0" IVar="-1" Cut="0.0000000000000000e+00" cType="1" res="-5.9822381444973871e-05" rms="4.5433509349822998e-01" purity="4.7930476069450378e-01" nType="-99"/>
          <Node pos="r" depth="2" NCoef="0" IVar="-1" Cut="0.0000000000000000e+00" cType="1" res="-2.5741409044712782e-03" rms="4.6239846944808960e-01" purity="5.8430880308151245e-01" nType="-99"/>
        </Node>
      </Node>
    </BinaryTree>
    <BinaryTree type="DecisionTree" boostWeight="1.0000000000000000e+00" itree="740">
      <Node pos="s" depth="0" NCoef="0" IVar="8" Cut="1.0891437530517578e+00" cType="1" res="-1.7131209606304765e-03" rms="4.5610603690147400e-01" purity="4.9919196963310242e-01" nType="0">
        <Node pos="l" depth="1" NCoef="0" IVar="2" Cut="8.6216453552246094e+01" cType="1" res="-1.2663211673498154e-02" rms="4.5760530233383179e-01" purity="5.2322077751159668e-01" nType="0">
          <Node pos="l" depth="2" NCoef="0" IVar="-1" Cut="0.0000000000000000e+00" cType="1" res="-1.7406838014721870e-03" rms="4.5938706398010254e-01" purity="4.8390331864356995e-01" nType="-99"/>
          <Node pos="r" depth="2" NCoef="0" IVar="-1" Cut="0.0000000000000000e+00" cType="1" res="-2.4654340813867748e-04" rms="4.5636194944381714e-01" purity="5.4541927576065063e-01" nType="-99"/>
        </Node>
        <Node pos="r" depth="1" NCoef="0" IVar="1" Cut="5.3876293945312500e+02" cType="1" res="1.0558369569480419e-02" rms="4.5410633087158203e-01" purity="4.7226345539093018e-01" nType="0">
          <Node pos="l" depth="2" NCoef="0" IVar="-1" Cut="0.0000000000000000e+00" cType="1" res="5.2661798690678552e-05" rms="4.4967299699783325e-01" purity="4.0045490860939026e-01" nType="-99"/>
          <Node pos="r" depth="2" NCoef="0" IVar="-1" Cut="0.0000000000000000e+00" cType="1" res="1.5420279232785106e-03" rms="4.6027484536170959e-01" purity="5.7971489429473877e-01" nType="-99"/>
        </Node>
      </Node>
    </BinaryTree>
    <BinaryTree type="DecisionTree" boostWeight="1.0000000000000000e+00" itree="741">
      <Node pos="s" depth="0" NCoef="0" IVar="7" Cut="5.9335208892822266e+01" cType="1" res="-5.2736685611307621e-03" rms="4.5716518163681030e-01" purity="4.9816158413887024e-01" nType="0">
        <Node pos="l" depth="1" NCoef="0" IVar="5" Cut="9.3421810865402222e-01" cType="1" res="6.9772689603269100e-03" rms="4.5312565565109253e-01" purity="4.1405954957008362e-01" nType="0">
          <Node pos="l" depth="2" NCoef="0" IVar="-1" Cut="0.0000000000000000e+00" cType="1" res="2.4273279123008251e-03" rms="4.2563068866729736e-01" purity="2.8184288740158081e-01" nType="-99"/>
          <Node pos="r" depth="2" NCoef="0" IVar="-1" Cut="0.0000000000000000e+00" cType="1" res="-1.5814097423572093e-04" rms="4.6248999238014221e-01" purity="4.6281802654266357e-01" nType="-99"/>
        </Node>
        <Node pos="r" depth="1" NCoef="0" IVar="9" Cut="4.1657689213752747e-01" cType="1" res="-1.1901091784238815e-02" rms="4.5919942855834961e-01" purity="5.4365855455398560e-01" nType="0">
          <Node pos="l" depth="2" NCoef="0" IVar="-1" Cut="0.0000000000000000e+00" cType="1" res="-1.5284699620679021e-03" rms="4.5579630136489868e-01" purity="5.7516306638717651e-01" nType="-99"/>
          <Node pos="r" depth="2" NCoef="0" IVar="-1" Cut="0.0000000000000000e+00" cType="1" res="-2.5299398112110794e-04" rms="4.6113765239715576e-01" purity="5.2399873733520508e-01" nType="-99"/>
        </Node>
      </Node>
    </BinaryTree>
    <BinaryTree type="DecisionTree" boostWeight="1.0000000000000000e+00" itree="742">
      <Node pos="s" depth="0" NCoef="0" IVar="0" Cut="3.1019239425659180e+00" cType="1" res="7.1243295678868890e-04" rms="4.5681026577949524e-01" purity="5.0242048501968384e-01" nType="0">
        <Node pos="l" depth="1" NCoef="0" IVar="2" Cut="5.1665908813476562e+01" cType="1" res="8.3293290808796883e-03" rms="4.6260765194892883e-01" purity="4.0038803219795227e-01" nType="0">
          <Node pos="l" depth="2" NCoef="0" IVar="-1" Cut="0.0000000000000000e+00" cType="1" res="2.3516071960330009e-03" rms="4.6759989857673645e-01" purity="4.0675631165504456e-01" nType="-99"/>
          <Node pos="r" depth="2" NCoef="0" IVar="-1" Cut="0.0000000000000000e+00" cType="1" res="2.5653486954979599e-04" rms="4.6172311902046204e-01" purity="3.9946180582046509e-01" nType="-99"/>
        </Node>
        <Node pos="r" depth="1" NCoef="0" IVar="9" Cut="2.8217521309852600e-01" cType="1" res="-9.8236370831727982e-03" rms="4.4845435023307800e-01" purity="6.4355683326721191e-01" nType="0">
          <Node pos="l" depth="2" NCoef="0" IVar="-1" Cut="0.0000000000000000e+00" cType="1" res="-2.4379591923207045e-03" rms="4.3907549977302551e-01" purity="6.6713351011276245e-01" nType="-99"/>
          <Node pos="r" depth="2" NCoef="0" IVar="-1" Cut="0.0000000000000000e+00" cType="1" res="-2.2370707301888615e-04" rms="4.5043334364891052e-01" purity="6.3793903589248657e-01" nType="-99"/>
        </Node>
      </Node>
    </BinaryTree>
    <BinaryTree type="DecisionTree" boostWeight="1.0000000000000000e+00" itree="743">
      <Node pos="s" depth="0" NCoef="0" IVar="9" Cut="4.2017224431037903e-01" cType="1" res="3.2810762058943510e-03" rms="4.5451453328132629e-01" purity="5.0209516286849976e-01" nType="0">
        <Node pos="l" depth="1" NCoef="0" IVar="7" Cut="5.1728485107421875e+01" cType="1" res="-9.3516055494546890e-03" rms="4.5285981893539429e-01" purity="5.3490710258483887e-01" nType="0">
          <Node pos="l" depth="2" NCoef="0" IVar="-1" Cut="0.0000000000000000e+00" cType="1" res="-2.6440774090588093e-03" rms="4.4845098257064819e-01" purity="3.5451444983482361e-01" nType="-99"/>
          <Node pos="r" depth="2" NCoef="0" IVar="-1" Cut="0.0000000000000000e+00" cType="1" res="-1.2691380106844008e-04" rms="4.5356857776641846e-01" purity="5.7693845033645630e-01" nType="-99"/>
        </Node>
        <Node pos="r" depth="1" NCoef="0" IVar="4" Cut="6.5257281064987183e-01" cType="1" res="1.0416801087558270e-02" rms="4.5529165863990784e-01" purity="4.8356100916862488e-01" nType="0">
          <Node pos="l" depth="2" NCoef="0" IVar="-1" Cut="0.0000000000000000e+00" cType="1" res="3.8625442539341748e-04" rms="4.5472130179405212e-01" purity="4.7108229994773865e-01" nType="-99"/>
          <Node pos="r" depth="2" NCoef="0" IVar="-1" Cut="0.0000000000000000e+00" cType="1" res="3.2297549769282341e-03" rms="4.5866492390632629e-01" purity="6.0257911682128906e-01" nType="-99"/>
        </Node>
      </Node>
    </BinaryTree>
    <BinaryTree type="DecisionTree" boostWeight="1.0000000000000000e+00" itree="744">
      <Node pos="s" depth="0" NCoef="0" IVar="6" Cut="1.4742257595062256e+00" cType="1" res="1.7361590871587396e-03" rms="4.5433917641639709e-01" purity="5.0142103433609009e-01" nType="0">
        <Node pos="l" depth="1" NCoef="0" IVar="-1" Cut="0.0000000000000000e+00" cType="1" res="1.9103578524664044e-03" rms="4.3587803840637207e-01" purity="6.3805431127548218e-01" nType="-99"/>
        <Node pos="r" depth="1" NCoef="0" IVar="8" Cut="1.7158805131912231e+00" cType="1" res="-2.4948650388978422e-04" rms="4.5553183555603027e-01" purity="4.9189633131027222e-01" nType="0">
          <Node pos="l" depth="2" NCoef="0" IVar="-1" Cut="0.0000000000000000e+00" cType="1" res="1.4393698074854910e-04" rms="4.5754432678222656e-01" purity="5.0128442049026489e-01" nType="-99"/>
          <Node pos="r" depth="2" NCoef="0" IVar="-1" Cut="0.0000000000000000e+00" cType="1" res="-2.0388253033161163e-03" rms="4.2940399050712585e-01" purity="3.7894833087921143e-01" nType="-99"/>
        </Node>
      </Node>
    </BinaryTree>
    <BinaryTree type="DecisionTree" boostWeight="1.0000000000000000e+00" itree="745">
      <Node pos="s" depth="0" NCoef="0" IVar="6" Cut="2.3604078292846680e+00" cType="1" res="-8.9324126020073891e-04" rms="4.5328062772750854e-01" purity="5.0282442569732666e-01" nType="0">
        <Node pos="l" depth="1" NCoef="0" IVar="3" Cut="-2.8682300820946693e-02" cType="1" res="-7.1566770784556866e-03" rms="4.5598047971725464e-01" purity="5.4877996444702148e-01" nType="0">
          <Node pos="l" depth="2" NCoef="0" IVar="-1" Cut="0.0000000000000000e+00" cType="1" res="-1.7966886516660452e-03" rms="4.4788065552711487e-01" purity="5.5839753150939941e-01" nType="-99"/>
          <Node pos="r" depth="2" NCoef="0" IVar="-1" Cut="0.0000000000000000e+00" cType="1" res="3.3804757549660280e-05" rms="4.5865631103515625e-01" purity="5.4527318477630615e-01" nType="-99"/>
        </Node>
        <Node pos="r" depth="1" NCoef="0" IVar="9" Cut="9.9872887134552002e-01" cType="1" res="1.2662849389016628e-02" rms="4.4708105921745300e-01" purity="4.0336194634437561e-01" nType="0">
          <Node pos="l" depth="2" NCoef="0" IVar="-1" Cut="0.0000000000000000e+00" cType="1" res="1.4154384844005108e-03" rms="4.4786223769187927e-01" purity="4.2222213745117188e-01" nType="-99"/>
          <Node pos="r" depth="2" NCoef="0" IVar="-1" Cut="0.0000000000000000e+00" cType="1" res="-1.8605993827804923e-03" rms="4.4148793816566467e-01" purity="3.2153636217117310e-01" nType="-99"/>
        </Node>
      </Node>
    </BinaryTree>
    <BinaryTree type="DecisionTree" boostWeight="1.0000000000000000e+00" itree="746">
      <Node pos="s" depth="0" NCoef="0" IVar="5" Cut="9.3430393934249878e-01" cType="1" res="5.2418760024011135e-03" rms="4.5496299862861633e-01" purity="5.0411891937255859e-01" nType="0">
        <Node pos="l" depth="1" NCoef="0" IVar="9" Cut="4.5730221271514893e-01" cType="1" res="2.1294381469488144e-02" rms="4.5316702127456665e-01" purity="3.5957723855972290e-01" nType="0">
          <Node pos="l" depth="2" NCoef="0" IVar="-1" Cut="0.0000000000000000e+00" cType="1" res="-3.6923892912454903e-04" rms="4.6292912960052490e-01" purity="3.6786490678787231e-01" nType="-99"/>
          <Node pos="r" depth="2" NCoef="0" IVar="-1" Cut="0.0000000000000000e+00" cType="1" res="2.4890308268368244e-03" rms="4.4637292623519897e-01" purity="3.5458377003669739e-01" nType="-99"/>
        </Node>
        <Node pos="r" depth="1" NCoef="0" IVar="5" Cut="9.7271800041198730e-01" cType="1" res="-1.4301038754638284e-04" rms="4.5543718338012695e-01" purity="5.5260610580444336e-01" nType="0">
          <Node pos="l" depth="2" NCoef="0" IVar="-1" Cut="0.0000000000000000e+00" cType="1" res="-4.3463669135235250e-04" rms="4.6598654985427856e-01" purity="4.8316863179206848e-01" nType="-99"/>
          <Node pos="r" depth="2" NCoef="0" IVar="-1" Cut="0.0000000000000000e+00" cType="1" res="1.1307199019938707e-03" rms="4.2993128299713135e-01" purity="7.1122515201568604e-01" nType="-99"/>
        </Node>
      </Node>
    </BinaryTree>
    <BinaryTree type="DecisionTree" boostWeight="1.0000000000000000e+00" itree="747">
      <Node pos="s" depth="0" NCoef="0" IVar="8" Cut="1.3189555406570435e+00" cType="1" res="7.5124989962205291e-04" rms="4.5498475432395935e-01" purity="4.9779123067855835e-01" nType="0">
        <Node pos="l" depth="1" NCoef="0" IVar="5" Cut="9.3399137258529663e-01" cType="1" res="-5.2283243276178837e-03" rms="4.5584064722061157e-01" purity="5.1454836130142212e-01" nType="0">
          <Node pos="l" depth="2" NCoef="0" IVar="-1" Cut="0.0000000000000000e+00" cType="1" res="-1.4515384100377560e-03" rms="4.4788020849227905e-01" purity="3.3134236931800842e-01" nType="-99"/>
          <Node pos="r" depth="2" NCoef="0" IVar="-1" Cut="0.0000000000000000e+00" cType="1" res="3.5788878449238837e-05" rms="4.5823022723197937e-01" purity="5.7368159294128418e-01" nType="-99"/>
        </Node>
        <Node pos="r" depth="1" NCoef="0" IVar="9" Cut="8.3539545536041260e-01" cType="1" res="1.5625951811671257e-02" rms="4.5250603556632996e-01" purity="4.5610651373863220e-01" nType="0">
          <Node pos="l" depth="2" NCoef="0" IVar="-1" Cut="0.0000000000000000e+00" cType="1" res="1.5795022482052445e-03" rms="4.5536991953849792e-01" purity="4.8880299925804138e-01" nType="-99"/>
          <Node pos="r" depth="2" NCoef="0" IVar="-1" Cut="0.0000000000000000e+00" cType="1" res="-1.3189688324928284e-03" rms="4.4006827473640442e-01" purity="3.3581224083900452e-01" nType="-99"/>
        </Node>
      </Node>
    </BinaryTree>
    <BinaryTree type="DecisionTree" boostWeight="1.0000000000000000e+00" itree="748">
      <Node pos="s" depth="0" NCoef="0" IVar="0" Cut="3.3603889942169189e+00" cType="1" res="5.1936823874711990e-03" rms="4.5589712262153625e-01" purity="5.0392276048660278e-01" nType="0">
        <Node pos="l" depth="1" NCoef="0" IVar="6" Cut="1.6501808166503906e+00" cType="1" res="1.4134612865746021e-02" rms="4.6091189980506897e-01" purity="4.1968041658401489e-01" nType="0">
          <Node pos="l" depth="2" NCoef="0" IVar="-1" Cut="0.0000000000000000e+00" cType="1" res="2.6466378476470709e-03" rms="4.6454674005508423e-01" purity="5.5716371536254883e-01" nType="-99"/>
          <Node pos="r" depth="2" NCoef="0" IVar="-1" Cut="0.0000000000000000e+00" cType="1" res="6.4537650905549526e-04" rms="4.6032056212425232e-01" purity="4.0300276875495911e-01" nType="-99"/>
        </Node>
        <Node pos="r" depth="1" NCoef="0" IVar="5" Cut="9.7401118278503418e-01" cType="1" res="-1.0894587263464928e-02" rms="4.4628089666366577e-01" purity="6.5550804138183594e-01" nType="0">
          <Node pos="l" depth="2" NCoef="0" IVar="-1" Cut="0.0000000000000000e+00" cType="1" res="9.0136818471364677e-05" rms="4.5734182000160217e-01" purity="6.1299908161163330e-01" nType="-99"/>
          <Node pos="r" depth="2" NCoef="0" IVar="-1" Cut="0.0000000000000000e+00" cType="1" res="-2.1614378783851862e-03" rms="4.2920351028442383e-01" purity="7.1678650379180908e-01" nType="-99"/>
        </Node>
      </Node>
    </BinaryTree>
    <BinaryTree type="DecisionTree" boostWeight="1.0000000000000000e+00" itree="749">
      <Node pos="s" depth="0" NCoef="0" IVar="2" Cut="8.3009468078613281e+01" cType="1" res="1.2597459135577083e-03" rms="4.5411977171897888e-01" purity="4.9716901779174805e-01" nType="0">
        <Node pos="l" depth="1" NCoef="0" IVar="0" Cut="3.7905352115631104e+00" cType="1" res="1.3432378880679607e-02" rms="4.5481353998184204e-01" purity="4.8309478163719177e-01" nType="0">
          <Node pos="l" depth="2" NCoef="0" IVar="-1" Cut="0.0000000000000000e+00" cType="1" res="3.3650765544734895e-04" rms="4.6443000435829163e-01" purity="4.0565946698188782e-01" nType="-99"/>
          <Node pos="r" depth="2" NCoef="0" IVar="-1" Cut="0.0000000000000000e+00" cType="1" res="2.4322266690433025e-03" rms="4.2311033606529236e-01" purity="7.2000515460968018e-01" nType="-99"/>
        </Node>
        <Node pos="r" depth="1" NCoef="0" IVar="8" Cut="1.3577951192855835e+00" cType="1" res="-5.9050433337688446e-03" rms="4.5355823636054993e-01" purity="5.0545305013656616e-01" nType="0">
          <Node pos="l" depth="2" NCoef="0" IVar="-1" Cut="0.0000000000000000e+00" cType="1" res="-8.1423349911347032e-04" rms="4.5730018615722656e-01" purity="5.1673352718353271e-01" nType="-99"/>
          <Node pos="r" depth="2" NCoef="0" IVar="-1" Cut="0.0000000000000000e+00" cType="1" res="1.1008437722921371e-03" rms="4.4020184874534607e-01" purity="4.6819341182708740e-01" nType="-99"/>
        </Node>
      </Node>
    </BinaryTree>
    <BinaryTree type="DecisionTree" boostWeight="1.0000000000000000e+00" itree="750">
      <Node pos="s" depth="0" NCoef="0" IVar="7" Cut="1.3159648132324219e+02" cType="1" res="-4.4830609112977982e-03" rms="4.5640054345130920e-01" purity="4.9622926115989685e-01" nType="0">
        <Node pos="l" depth="1" NCoef="0" IVar="7" Cut="5.8109523773193359e+01" cType="1" res="-2.4213804863393307e-03" rms="4.5572274923324585e-01" purity="4.9109280109405518e-01" nType="0">
          <Node pos="l" depth="2" NCoef="0" IVar="-1" Cut="0.0000000000000000e+00" cType="1" res="5.0090148579329252e-04" rms="4.4686761498451233e-01" purity="4.0988996624946594e-01" nType="-99"/>
          <Node pos="r" depth="2" NCoef="0" IVar="-1" Cut="0.0000000000000000e+00" cType="1" res="-4.8713147407397628e-04" rms="4.6032568812370300e-01" purity="5.3479599952697754e-01" nType="-99"/>
        </Node>
        <Node pos="r" depth="1" NCoef="0" IVar="-1" Cut="0.0000000000000000e+00" cType="1" res="-2.7754798065871000e-03" rms="4.6702128648757935e-01" purity="5.9016788005828857e-01" nType="-99"/>
      </Node>
    </BinaryTree>
    <BinaryTree type="DecisionTree" boostWeight="1.0000000000000000e+00" itree="751">
      <Node pos="s" depth="0" NCoef="0" IVar="9" Cut="3.0355089902877808e-01" cType="1" res="-2.4191221746150404e-04" rms="4.5403769612312317e-01" purity="5.0140732526779175e-01" nType="0">
        <Node pos="l" depth="1" NCoef="0" IVar="1" Cut="6.6652935791015625e+02" cType="1" res="-1.9249381497502327e-02" rms="4.5509013533592224e-01" purity="5.3217154741287231e-01" nType="0">
          <Node pos="l" depth="2" NCoef="0" IVar="-1" Cut="0.0000000000000000e+00" cType="1" res="-2.2273454815149307e-03" rms="4.5773345232009888e-01" purity="4.7797071933746338e-01" nType="-99"/>
          <Node pos="r" depth="2" NCoef="0" IVar="-1" Cut="0.0000000000000000e+00" cType="1" res="1.6140468651428819e-03" rms="4.4499236345291138e-01" purity="6.7690175771713257e-01" nType="-99"/>
        </Node>
        <Node pos="r" depth="1" NCoef="0" IVar="3" Cut="-9.4754658639431000e-03" cType="1" res="4.9599907360970974e-03" rms="4.5361045002937317e-01" purity="4.9298787117004395e-01" nType="0">
          <Node pos="l" depth="2" NCoef="0" IVar="-1" Cut="0.0000000000000000e+00" cType="1" res="1.1104806326329708e-03" rms="4.5015558600425720e-01" purity="5.5424898862838745e-01" nType="-99"/>
          <Node pos="r" depth="2" NCoef="0" IVar="-1" Cut="0.0000000000000000e+00" cType="1" res="-6.0932678024983034e-05" rms="4.5509317517280579e-01" purity="4.6439468860626221e-01" nType="-99"/>
        </Node>
      </Node>
    </BinaryTree>
    <BinaryTree type="DecisionTree" boostWeight="1.0000000000000000e+00" itree="752">
      <Node pos="s" depth="0" NCoef="0" IVar="2" Cut="6.2162849426269531e+01" cType="1" res="-5.5481970775872469e-04" rms="4.5764946937561035e-01" purity="4.9951145052909851e-01" nType="0">
        <Node pos="l" depth="1" NCoef="0" IVar="6" Cut="1.7331765890121460e+00" cType="1" res="1.5605670399963856e-02" rms="4.6540197730064392e-01" purity="4.9529224634170532e-01" nType="0">
          <Node pos="l" depth="2" NCoef="0" IVar="-1" Cut="0.0000000000000000e+00" cType="1" res="-1.1933069908991456e-03" rms="4.6736809611320496e-01" purity="5.1813381910324097e-01" nType="-99"/>
          <Node pos="r" depth="2" NCoef="0" IVar="-1" Cut="0.0000000000000000e+00" cType="1" res="2.0855632610619068e-03" rms="4.6333521604537964e-01" purity="4.8351153731346130e-01" nType="-99"/>
        </Node>
        <Node pos="r" depth="1" NCoef="0" IVar="8" Cut="1.5998103618621826e+00" cType="1" res="-4.6512247063219547e-03" rms="4.5557233691215515e-01" purity="5.0058096647262573e-01" nType="0">
          <Node pos="l" depth="2" NCoef="0" IVar="-1" Cut="0.0000000000000000e+00" cType="1" res="-4.9865909386426210e-04" rms="4.5750832557678223e-01" purity="5.0629627704620361e-01" nType="-99"/>
          <Node pos="r" depth="2" NCoef="0" IVar="-1" Cut="0.0000000000000000e+00" cType="1" res="1.3157509965822101e-03" rms="4.3961587548255920e-01" purity="4.5664206147193909e-01" nType="-99"/>
        </Node>
      </Node>
    </BinaryTree>
    <BinaryTree type="DecisionTree" boostWeight="1.0000000000000000e+00" itree="753">
      <Node pos="s" depth="0" NCoef="0" IVar="9" Cut="1.0334018468856812e+00" cType="1" res="2.4575605057179928e-03" rms="4.5104977488517761e-01" purity="5.0326198339462280e-01" nType="0">
        <Node pos="l" depth="1" NCoef="0" IVar="4" Cut="2.3790183663368225e-01" cType="1" res="4.9945935606956482e-03" rms="4.5166465640068054e-01" purity="5.1508104801177979e-01" nType="0">
          <Node pos="l" depth="2" NCoef="0" IVar="-1" Cut="0.0000000000000000e+00" cType="1" res="1.4115268131718040e-03" rms="4.5060095191001892e-01" purity="4.6424928307533264e-01" nType="-99"/>
          <Node pos="r" depth="2" NCoef="0" IVar="-1" Cut="0.0000000000000000e+00" cType="1" res="-5.6139475645977654e-07" rms="4.5185220241546631e-01" purity="5.2992236614227295e-01" nType="-99"/>
        </Node>
        <Node pos="r" depth="1" NCoef="0" IVar="-1" Cut="0.0000000000000000e+00" cType="1" res="-2.3237769491970539e-03" rms="4.4045132398605347e-01" purity="3.3262509107589722e-01" nType="-99"/>
      </Node>
    </BinaryTree>
    <BinaryTree type="DecisionTree" boostWeight="1.0000000000000000e+00" itree="754">
      <Node pos="s" depth="0" NCoef="0" IVar="4" Cut="2.1384966373443604e-01" cType="1" res="1.3251675991341472e-03" rms="4.5391547679901123e-01" purity="5.0101876258850098e-01" nType="0">
        <Node pos="l" depth="1" NCoef="0" IVar="4" Cut="1.2272240966558456e-01" cType="1" res="1.5702629461884499e-02" rms="4.5088276267051697e-01" purity="4.4328910112380981e-01" nType="0">
          <Node pos="l" depth="2" NCoef="0" IVar="-1" Cut="0.0000000000000000e+00" cType="1" res="-7.0469488855451345e-04" rms="4.4064444303512573e-01" purity="3.6344584822654724e-01" nType="-99"/>
          <Node pos="r" depth="2" NCoef="0" IVar="-1" Cut="0.0000000000000000e+00" cType="1" res="1.7675289418548346e-03" rms="4.5504525303840637e-01" purity="4.8036041855812073e-01" nType="-99"/>
        </Node>
        <Node pos="r" depth="1" NCoef="0" IVar="1" Cut="6.3662475585937500e+02" cType="1" res="-2.1582969930022955e-03" rms="4.5457878708839417e-01" purity="5.1500588655471802e-01" nType="0">
          <Node pos="l" depth="2" NCoef="0" IVar="-1" Cut="0.0000000000000000e+00" cType="1" res="-3.9971165824681520e-04" rms="4.5682486891746521e-01" purity="4.7065201401710510e-01" nType="-99"/>
          <Node pos="r" depth="2" NCoef="0" IVar="-1" Cut="0.0000000000000000e+00" cType="1" res="6.3364719972014427e-04" rms="4.4785964488983154e-01" purity="6.4206677675247192e-01" nType="-99"/>
        </Node>
      </Node>
    </BinaryTree>
    <BinaryTree type="DecisionTree" boostWeight="1.0000000000000000e+00" itree="755">
      <Node pos="s" depth="0" NCoef="0" IVar="6" Cut="2.3397576808929443e+00" cType="1" res="-1.7067061271518469e-03" rms="4.5429444313049316e-01" purity="4.9884140491485596e-01" nType="0">
        <Node pos="l" depth="1" NCoef="0" IVar="1" Cut="8.7644689941406250e+02" cType="1" res="-7.0853461511433125e-03" rms="4.5511168241500854e-01" purity="5.4835879802703857e-01" nType="0">
          <Node pos="l" depth="2" NCoef="0" IVar="-1" Cut="0.0000000000000000e+00" cType="1" res="-2.4385022697970271e-04" rms="4.5513707399368286e-01" purity="5.3964751958847046e-01" nType="-99"/>
          <Node pos="r" depth="2" NCoef="0" IVar="-1" Cut="0.0000000000000000e+00" cType="1" res="-2.6544898282736540e-03" rms="4.5354893803596497e-01" purity="6.3932907581329346e-01" nType="-99"/>
        </Node>
        <Node pos="r" depth="1" NCoef="0" IVar="1" Cut="4.1641058349609375e+02" cType="1" res="8.6950259283185005e-03" rms="4.5252844691276550e-01" purity="4.0307986736297607e-01" nType="0">
          <Node pos="l" depth="2" NCoef="0" IVar="-1" Cut="0.0000000000000000e+00" cType="1" res="2.9944742564111948e-03" rms="4.2327696084976196e-01" purity="3.0125087499618530e-01" nType="-99"/>
          <Node pos="r" depth="2" NCoef="0" IVar="-1" Cut="0.0000000000000000e+00" cType="1" res="7.6169417297933251e-05" rms="4.5942786335945129e-01" purity="4.2917945981025696e-01" nType="-99"/>
        </Node>
      </Node>
    </BinaryTree>
    <BinaryTree type="DecisionTree" boostWeight="1.0000000000000000e+00" itree="756">
      <Node pos="s" depth="0" NCoef="0" IVar="6" Cut="2.1744506359100342e+00" cType="1" res="-1.7579216510057449e-03" rms="4.5513528585433960e-01" purity="4.9637007713317871e-01" nType="0">
        <Node pos="l" depth="1" NCoef="0" IVar="3" Cut="7.5149483978748322e-02" cType="1" res="-1.2856408953666687e-02" rms="4.5767259597778320e-01" purity="5.4992920160293579e-01" nType="0">
          <Node pos="l" depth="2" NCoef="0" IVar="-1" Cut="0.0000000000000000e+00" cType="1" res="-1.2103446060791612e-03" rms="4.5935735106468201e-01" purity="5.5417174100875854e-01" nType="-99"/>
          <Node pos="r" depth="2" NCoef="0" IVar="-1" Cut="0.0000000000000000e+00" cType="1" res="3.7713613710366189e-04" rms="4.5209544897079468e-01" purity="5.3733402490615845e-01" nType="-99"/>
        </Node>
        <Node pos="r" depth="1" NCoef="0" IVar="2" Cut="1.5386442565917969e+02" cType="1" res="7.4043525382876396e-03" rms="4.5282498002052307e-01" purity="4.5215472579002380e-01" nType="0">
          <Node pos="l" depth="2" NCoef="0" IVar="-1" Cut="0.0000000000000000e+00" cType="1" res="5.1291808631503955e-05" rms="4.5154315233230591e-01" purity="4.3756508827209473e-01" nType="-99"/>
          <Node pos="r" depth="2" NCoef="0" IVar="-1" Cut="0.0000000000000000e+00" cType="1" res="1.9664794672280550e-03" rms="4.5661288499832153e-01" purity="5.0454753637313843e-01" nType="-99"/>
        </Node>
      </Node>
    </BinaryTree>
    <BinaryTree type="DecisionTree" boostWeight="1.0000000000000000e+00" itree="757">
      <Node pos="s" depth="0" NCoef="0" IVar="4" Cut="1.5952938795089722e-01" cType="1" res="3.1690113246440887e-03" rms="4.5324790477752686e-01" purity="5.0335639715194702e-01" nType="0">
        <Node pos="l" depth="1" NCoef="0" IVar="3" Cut="1.2776628136634827e-01" cType="1" res="-1.9655190408229828e-02" rms="4.4948777556419373e-01" purity="3.7623032927513123e-01" nType="0">
          <Node pos="l" depth="2" NCoef="0" IVar="-1" Cut="0.0000000000000000e+00" cType="1" res="-3.2877242192625999e-03" rms="4.4489398598670959e-01" purity="3.5786941647529602e-01" nType="-99"/>
          <Node pos="r" depth="2" NCoef="0" IVar="-1" Cut="0.0000000000000000e+00" cType="1" res="1.0399642633274198e-03" rms="4.5221984386444092e-01" purity="3.9762666821479797e-01" nType="-99"/>
        </Node>
        <Node pos="r" depth="1" NCoef="0" IVar="4" Cut="4.1487389802932739e-01" cType="1" res="6.0446197167038918e-03" rms="4.5363798737525940e-01" purity="5.1937294006347656e-01" nType="0">
          <Node pos="l" depth="2" NCoef="0" IVar="-1" Cut="0.0000000000000000e+00" cType="1" res="1.0687647154554725e-03" rms="4.5127934217453003e-01" purity="4.9743390083312988e-01" nType="-99"/>
          <Node pos="r" depth="2" NCoef="0" IVar="-1" Cut="0.0000000000000000e+00" cType="1" res="-3.0356625211425126e-04" rms="4.5572707056999207e-01" purity="5.4132884740829468e-01" nType="-99"/>
        </Node>
      </Node>
    </BinaryTree>
    <BinaryTree type="DecisionTree" boostWeight="1.0000000000000000e+00" itree="758">
      <Node pos="s" depth="0" NCoef="0" IVar="0" Cut="1.9642342329025269e+00" cType="1" res="-1.7833807505667210e-03" rms="4.5258334279060364e-01" purity="5.0010895729064941e-01" nType="0">
        <Node pos="l" depth="1" NCoef="0" IVar="2" Cut="6.5350204467773438e+01" cType="1" res="-1.3879452832043171e-02" rms="4.4236338138580322e-01" purity="3.1249636411666870e-01" nType="0">
          <Node pos="l" depth="2" NCoef="0" IVar="-1" Cut="0.0000000000000000e+00" cType="1" res="1.6627107979729772e-03" rms="4.5889720320701599e-01" purity="3.2979604601860046e-01" nType="-99"/>
          <Node pos="r" depth="2" NCoef="0" IVar="-1" Cut="0.0000000000000000e+00" cType="1" res="-1.6847347142174840e-03" rms="4.3681937456130981e-01" purity="3.0746859312057495e-01" nType="-99"/>
        </Node>
        <Node pos="r" depth="1" NCoef="0" IVar="5" Cut="9.5591944456100464e-01" cType="1" res="3.0722152441740036e-03" rms="4.5653137564659119e-01" purity="5.7542032003402710e-01" nType="0">
          <Node pos="l" depth="2" NCoef="0" IVar="-1" Cut="0.0000000000000000e+00" cType="1" res="8.2562805619090796e-04" rms="4.6813872456550598e-01" purity="4.8647907376289368e-01" nType="-99"/>
          <Node pos="r" depth="2" NCoef="0" IVar="-1" Cut="0.0000000000000000e+00" cType="1" res="-3.4504919312894344e-04" rms="4.4766461849212646e-01" purity="6.4049643278121948e-01" nType="-99"/>
        </Node>
      </Node>
    </BinaryTree>
    <BinaryTree type="DecisionTree" boostWeight="1.0000000000000000e+00" itree="759">
      <Node pos="s" depth="0" NCoef="0" IVar="5" Cut="9.8364609479904175e-01" cType="1" res="-1.0825010947883129e-02" rms="4.5285496115684509e-01" purity="4.8999080061912537e-01" nType="0">
        <Node pos="l" depth="1" NCoef="0" IVar="5" Cut="9.5946782827377319e-01" cType="1" res="-1.3520509004592896e-02" rms="4.5894858241081238e-01" purity="4.5405718684196472e-01" nType="0">
          <Node pos="l" depth="2" NCoef="0" IVar="-1" Cut="0.0000000000000000e+00" cType="1" res="-3.5380001645535231e-04" rms="4.5590701699256897e-01" purity="4.0381571650505066e-01" nType="-99"/>
          <Node pos="r" depth="2" NCoef="0" IVar="-1" Cut="0.0000000000000000e+00" cType="1" res="-1.8920542206615210e-03" rms="4.6502232551574707e-01" purity="5.6287074089050293e-01" nType="-99"/>
        </Node>
        <Node pos="r" depth="1" NCoef="0" IVar="9" Cut="5.1763451099395752e-01" cType="1" res="9.2757157981395721e-03" rms="4.0396299958229065e-01" purity="7.5795316696166992e-01" nType="0">
          <Node pos="l" depth="2" NCoef="0" IVar="-1" Cut="0.0000000000000000e+00" cType="1" res="1.7138158436864614e-03" rms="3.8073340058326721e-01" purity="7.9508835077285767e-01" nType="-99"/>
          <Node pos="r" depth="2" NCoef="0" IVar="-1" Cut="0.0000000000000000e+00" cType="1" res="-4.3015100527554750e-04" rms="4.3184489011764526e-01" purity="7.0964151620864868e-01" nType="-99"/>
        </Node>
      </Node>
    </BinaryTree>
    <BinaryTree type="DecisionTree" boostWeight="1.0000000000000000e+00" itree="760">
      <Node pos="s" depth="0" NCoef="0" IVar="8" Cut="1.0128903388977051e+00" cType="1" res="4.6780975535511971e-03" rms="4.5360481739044189e-01" purity="5.0471264123916626e-01" nType="0">
        <Node pos="l" depth="1" NCoef="0" IVar="3" Cut="-3.3077932894229889e-02" cType="1" res="1.5300047583878040e-02" rms="4.5385822653770447e-01" purity="5.5252295732498169e-01" nType="0">
          <Node pos="l" depth="2" NCoef="0" IVar="-1" Cut="0.0000000000000000e+00" cType="1" res="-6.7831290652975440e-04" rms="4.4539234042167664e-01" purity="5.7935869693756104e-01" nType="-99"/>
          <Node pos="r" depth="2" NCoef="0" IVar="-1" Cut="0.0000000000000000e+00" cType="1" res="1.3884535292163491e-03" rms="4.5584890246391296e-01" purity="5.4532903432846069e-01" nType="-99"/>
        </Node>
        <Node pos="r" depth="1" NCoef="0" IVar="0" Cut="4.4941163063049316e+00" cType="1" res="-4.6978089958429337e-03" rms="4.5317420363426208e-01" purity="4.6251088380813599e-01" nType="0">
          <Node pos="l" depth="2" NCoef="0" IVar="-1" Cut="0.0000000000000000e+00" cType="1" res="-6.0503266286104918e-04" rms="4.5875665545463562e-01" purity="4.1644644737243652e-01" nType="-99"/>
          <Node pos="r" depth="2" NCoef="0" IVar="-1" Cut="0.0000000000000000e+00" cType="1" res="1.7693419940769672e-03" rms="4.1637116670608521e-01" purity="7.4241530895233154e-01" nType="-99"/>
        </Node>
      </Node>
    </BinaryTree>
    <BinaryTree type="DecisionTree" boostWeight="1.0000000000000000e+00" itree="761">
      <Node pos="s" depth="0" NCoef="0" IVar="2" Cut="8.9154373168945312e+01" cType="1" res="-6.2172124162316322e-03" rms="4.5367351174354553e-01" purity="4.9252602458000183e-01" nType="0">
        <Node pos="l" depth="1" NCoef="0" IVar="1" Cut="4.7374899291992188e+02" cType="1" res="-1.9289942458271980e-02" rms="4.5650947093963623e-01" purity="4.5677343010902405e-01" nType="0">
          <Node pos="l" depth="2" NCoef="0" IVar="-1" Cut="0.0000000000000000e+00" cType="1" res="-3.0972875538282096e-04" rms="4.4613489508628845e-01" purity="3.9687633514404297e-01" nType="-99"/>
          <Node pos="r" depth="2" NCoef="0" IVar="-1" Cut="0.0000000000000000e+00" cType="1" res="-2.0215755794197321e-03" rms="4.6594151854515076e-01" purity="5.1502031087875366e-01" nType="-99"/>
        </Node>
        <Node pos="r" depth="1" NCoef="0" IVar="6" Cut="2.1483266353607178e+00" cType="1" res="3.3211128320544958e-03" rms="4.5135420560836792e-01" purity="5.1861250400543213e-01" nType="0">
          <Node pos="l" depth="2" NCoef="0" IVar="-1" Cut="0.0000000000000000e+00" cType="1" res="1.4925261493772268e-03" rms="4.4799759984016418e-01" purity="6.5235793590545654e-01" nType="-99"/>
          <Node pos="r" depth="2" NCoef="0" IVar="-1" Cut="0.0000000000000000e+00" cType="1" res="-2.7758229407481849e-04" rms="4.5240917801856995e-01" purity="4.6694788336753845e-01" nType="-99"/>
        </Node>
      </Node>
    </BinaryTree>
    <BinaryTree type="DecisionTree" boostWeight="1.0000000000000000e+00" itree="762">
      <Node pos="s" depth="0" NCoef="0" IVar="9" Cut="9.0001457929611206e-01" cType="1" res="4.4498099014163017e-03" rms="4.5475465059280396e-01" purity="5.0224930047988892e-01" nType="0">
        <Node pos="l" depth="1" NCoef="0" IVar="6" Cut="2.3975205421447754e+00" cType="1" res="1.5019747661426663e-03" rms="4.5436471700668335e-01" purity="5.1540428400039673e-01" nType="0">
          <Node pos="l" depth="2" NCoef="0" IVar="-1" Cut="0.0000000000000000e+00" cType="1" res="3.5116224898956716e-04" rms="4.5619213581085205e-01" purity="5.5828976631164551e-01" nType="-99"/>
          <Node pos="r" depth="2" NCoef="0" IVar="-1" Cut="0.0000000000000000e+00" cType="1" res="-8.0841337330639362e-04" rms="4.4798693060874939e-01" purity="3.7346604466438293e-01" nType="-99"/>
        </Node>
        <Node pos="r" depth="1" NCoef="0" IVar="7" Cut="6.9717559814453125e+01" cType="1" res="2.4447286501526833e-02" rms="4.5688930153846741e-01" purity="4.1300895810127258e-01" nType="0">
          <Node pos="l" depth="2" NCoef="0" IVar="-1" Cut="0.0000000000000000e+00" cType="1" res="2.8604967519640923e-03" rms="4.5779210329055786e-01" purity="3.9149296283721924e-01" nType="-99"/>
          <Node pos="r" depth="2" NCoef="0" IVar="-1" Cut="0.0000000000000000e+00" cType="1" res="-2.3389323905576020e-04" rms="4.5403277873992920e-01" purity="4.4690731167793274e-01" nType="-99"/>
        </Node>
      </Node>
    </BinaryTree>
    <BinaryTree type="DecisionTree" boostWeight="1.0000000000000000e+00" itree="763">
      <Node pos="s" depth="0" NCoef="0" IVar="8" Cut="8.8276958465576172e-01" cType="1" res="-5.1445206627249718e-03" rms="4.5538309216499329e-01" purity="4.9397945404052734e-01" nType="0">
        <Node pos="l" depth="1" NCoef="0" IVar="8" Cut="6.4810299873352051e-01" cType="1" res="6.6986843012273312e-03" rms="4.5618090033531189e-01" purity="5.5340635776519775e-01" nType="0">
          <Node pos="l" depth="2" NCoef="0" IVar="-1" Cut="0.0000000000000000e+00" cType="1" res="-8.8125362526625395e-04" rms="4.6117025613784790e-01" purity="5.5085992813110352e-01" nType="-99"/>
          <Node pos="r" depth="2" NCoef="0" IVar="-1" Cut="0.0000000000000000e+00" cType="1" res="1.1793560115620494e-03" rms="4.5277684926986694e-01" purity="5.5490517616271973e-01" nType="-99"/>
        </Node>
        <Node pos="r" depth="1" NCoef="0" IVar="4" Cut="6.4513003826141357e-01" cType="1" res="-1.1232103221118450e-02" rms="4.5485249161720276e-01" purity="4.6343308687210083e-01" nType="0">
          <Node pos="l" depth="2" NCoef="0" IVar="-1" Cut="0.0000000000000000e+00" cType="1" res="-9.8785175941884518e-04" rms="4.5402422547340393e-01" purity="4.5077171921730042e-01" nType="-99"/>
          <Node pos="r" depth="2" NCoef="0" IVar="-1" Cut="0.0000000000000000e+00" cType="1" res="1.2122351909056306e-03" rms="4.5946133136749268e-01" purity="5.5195987224578857e-01" nType="-99"/>
        </Node>
      </Node>
    </BinaryTree>
    <BinaryTree type="DecisionTree" boostWeight="1.0000000000000000e+00" itree="764">
      <Node pos="s" depth="0" NCoef="0" IVar="4" Cut="6.2938570976257324e-01" cType="1" res="-5.0426619127392769e-03" rms="4.5505762100219727e-01" purity="4.9292775988578796e-01" nType="0">
        <Node pos="l" depth="1" NCoef="0" IVar="7" Cut="1.0055149078369141e+02" cType="1" res="7.3295313632115722e-04" rms="4.5425778627395630e-01" purity="4.8857647180557251e-01" nType="0">
          <Node pos="l" depth="2" NCoef="0" IVar="-1" Cut="0.0000000000000000e+00" cType="1" res="2.8196943458169699e-04" rms="4.5330065488815308e-01" purity="4.7078502178192139e-01" nType="-99"/>
          <Node pos="r" depth="2" NCoef="0" IVar="-1" Cut="0.0000000000000000e+00" cType="1" res="-1.1919219978153706e-03" rms="4.5867523550987244e-01" purity="5.8035147190093994e-01" nType="-99"/>
        </Node>
        <Node pos="r" depth="1" NCoef="0" IVar="3" Cut="-4.5300718396902084e-02" cType="1" res="-4.1817754507064819e-02" rms="4.5841431617736816e-01" purity="5.2063381671905518e-01" nType="0">
          <Node pos="l" depth="2" NCoef="0" IVar="-1" Cut="0.0000000000000000e+00" cType="1" res="-1.1840238003060222e-03" rms="4.5874574780464172e-01" purity="5.6929713487625122e-01" nType="-99"/>
          <Node pos="r" depth="2" NCoef="0" IVar="-1" Cut="0.0000000000000000e+00" cType="1" res="-3.8783699274063110e-03" rms="4.5718815922737122e-01" purity="4.7909608483314514e-01" nType="-99"/>
        </Node>
      </Node>
    </BinaryTree>
    <BinaryTree type="DecisionTree" boostWeight="1.0000000000000000e+00" itree="765">
      <Node pos="s" depth="0" NCoef="0" IVar="9" Cut="1.0278521776199341e+00" cType="1" res="-7.7744713053107262e-04" rms="4.5280656218528748e-01" purity="5.0095510482788086e-01" nType="0">
        <Node pos="l" depth="1" NCoef="0" IVar="2" Cut="1.7979194641113281e+02" cType="1" res="1.3217643136158586e-03" rms="4.5345452427864075e-01" purity="5.1202726364135742e-01" nType="0">
          <Node pos="l" depth="2" NCoef="0" IVar="-1" Cut="0.0000000000000000e+00" cType="1" res="-1.1409731814637780e-04" rms="4.5268648862838745e-01" purity="5.0822293758392334e-01" nType="-99"/>
          <Node pos="r" depth="2" NCoef="0" IVar="-1" Cut="0.0000000000000000e+00" cType="1" res="2.2762827575206757e-03" rms="4.6040299534797668e-01" purity="5.5382126569747925e-01" nType="-99"/>
        </Node>
        <Node pos="r" depth="1" NCoef="0" IVar="-1" Cut="0.0000000000000000e+00" cType="1" res="-2.0918434020131826e-03" rms="4.4225218892097473e-01" purity="3.4130588173866272e-01" nType="-99"/>
      </Node>
    </BinaryTree>
    <BinaryTree type="DecisionTree" boostWeight="1.0000000000000000e+00" itree="766">
      <Node pos="s" depth="0" NCoef="0" IVar="3" Cut="1.6920444369316101e-01" cType="1" res="5.7324925437569618e-03" rms="4.5337492227554321e-01" purity="5.0738364458084106e-01" nType="0">
        <Node pos="l" depth="1" NCoef="0" IVar="4" Cut="7.0798212289810181e-01" cType="1" res="7.6996372081339359e-03" rms="4.5450690388679504e-01" purity="5.1425898075103760e-01" nType="0">
          <Node pos="l" depth="2" NCoef="0" IVar="-1" Cut="0.0000000000000000e+00" cType="1" res="3.7622044328600168e-04" rms="4.5462125539779663e-01" purity="5.0851392745971680e-01" nType="-99"/>
          <Node pos="r" depth="2" NCoef="0" IVar="-1" Cut="0.0000000000000000e+00" cType="1" res="2.2176348138600588e-03" rms="4.5185044407844543e-01" purity="6.0424679517745972e-01" nType="-99"/>
        </Node>
        <Node pos="r" depth="1" NCoef="0" IVar="-1" Cut="0.0000000000000000e+00" cType="1" res="-1.2469780631363392e-03" rms="4.3796879053115845e-01" purity="4.2002490162849426e-01" nType="-99"/>
      </Node>
    </BinaryTree>
    <BinaryTree type="DecisionTree" boostWeight="1.0000000000000000e+00" itree="767">
      <Node pos="s" depth="0" NCoef="0" IVar="9" Cut="5.4246467351913452e-01" cType="1" res="1.5614571748301387e-03" rms="4.5653748512268066e-01" purity="5.0211995840072632e-01" nType="0">
        <Node pos="l" depth="1" NCoef="0" IVar="5" Cut="9.3085873126983643e-01" cType="1" res="-7.3622958734631538e-03" rms="4.5723327994346619e-01" purity="5.3174406290054321e-01" nType="0">
          <Node pos="l" depth="2" NCoef="0" IVar="-1" Cut="0.0000000000000000e+00" cType="1" res="1.1560618877410889e-03" rms="4.6074202656745911e-01" purity="3.7498736381530762e-01" nType="-99"/>
          <Node pos="r" depth="2" NCoef="0" IVar="-1" Cut="0.0000000000000000e+00" cType="1" res="-8.9452927932143211e-04" rms="4.5607268810272217e-01" purity="5.7243114709854126e-01" nType="-99"/>
        </Node>
        <Node pos="r" depth="1" NCoef="0" IVar="9" Cut="8.3715403079986572e-01" cType="1" res="1.1404014192521572e-02" rms="4.5556610822677612e-01" purity="4.6944573521614075e-01" nType="0">
          <Node pos="l" depth="2" NCoef="0" IVar="-1" Cut="0.0000000000000000e+00" cType="1" res="1.5841674758121371e-03" rms="4.5619502663612366e-01" purity="5.1001256704330444e-01" nType="-99"/>
          <Node pos="r" depth="2" NCoef="0" IVar="-1" Cut="0.0000000000000000e+00" cType="1" res="-7.9031189670786262e-04" rms="4.5351749658584595e-01" purity="4.0026491880416870e-01" nType="-99"/>
        </Node>
      </Node>
    </BinaryTree>
    <BinaryTree type="DecisionTree" boostWeight="1.0000000000000000e+00" itree="768">
      <Node pos="s" depth="0" NCoef="0" IVar="6" Cut="2.2963974475860596e+00" cType="1" res="-3.9031943306326866e-03" rms="4.5405623316764832e-01" purity="4.9714738130569458e-01" nType="0">
        <Node pos="l" depth="1" NCoef="0" IVar="3" Cut="2.3150745779275894e-02" cType="1" res="-8.7999077513813972e-03" rms="4.5754417777061462e-01" purity="5.4824423789978027e-01" nType="0">
          <Node pos="l" depth="2" NCoef="0" IVar="-1" Cut="0.0000000000000000e+00" cType="1" res="-1.0470208944752812e-03" rms="4.5448371767997742e-01" purity="5.5687749385833740e-01" nType="-99"/>
          <Node pos="r" depth="2" NCoef="0" IVar="-1" Cut="0.0000000000000000e+00" cType="1" res="3.7467169022420421e-05" rms="4.6107482910156250e-01" purity="5.3771442174911499e-01" nType="-99"/>
        </Node>
        <Node pos="r" depth="1" NCoef="0" IVar="2" Cut="1.9555110168457031e+02" cType="1" res="3.9332485757768154e-03" rms="4.4830653071403503e-01" purity="4.1537472605705261e-01" nType="0">
          <Node pos="l" depth="2" NCoef="0" IVar="-1" Cut="0.0000000000000000e+00" cType="1" res="6.5276288660243154e-04" rms="4.4760718941688538e-01" purity="4.1760325431823730e-01" nType="-99"/>
          <Node pos="r" depth="2" NCoef="0" IVar="-1" Cut="0.0000000000000000e+00" cType="1" res="-2.2459945175796747e-03" rms="4.5075699687004089e-01" purity="4.0122863650321960e-01" nType="-99"/>
        </Node>
      </Node>
    </BinaryTree>
    <BinaryTree type="DecisionTree" boostWeight="1.0000000000000000e+00" itree="769">
      <Node pos="s" depth="0" NCoef="0" IVar="0" Cut="5.3963952064514160e+00" cType="1" res="-7.0539130829274654e-03" rms="4.5132577419281006e-01" purity="4.9200361967086792e-01" nType="0">
        <Node pos="l" depth="1" NCoef="0" IVar="1" Cut="9.0368835449218750e+02" cType="1" res="-9.6755092963576317e-03" rms="4.5605286955833435e-01" purity="4.7170576453208923e-01" nType="0">
          <Node pos="l" depth="2" NCoef="0" IVar="-1" Cut="0.0000000000000000e+00" cType="1" res="-7.7492283890023828e-04" rms="4.5678859949111938e-01" purity="4.5858806371688843e-01" nType="-99"/>
          <Node pos="r" depth="2" NCoef="0" IVar="-1" Cut="0.0000000000000000e+00" cType="1" res="1.6523078083992004e-03" rms="4.4489666819572449e-01" purity="6.4105516672134399e-01" nType="-99"/>
        </Node>
        <Node pos="r" depth="1" NCoef="0" IVar="-1" Cut="0.0000000000000000e+00" cType="1" res="3.0942270532250404e-03" rms="3.6042422056198120e-01" purity="8.3154898881912231e-01" nType="-99"/>
      </Node>
    </BinaryTree>
    <BinaryTree type="DecisionTree" boostWeight="1.0000000000000000e+00" itree="770">
      <Node pos="s" depth="0" NCoef="0" IVar="3" Cut="-1.9293956458568573e-02" cType="1" res="7.4021460022777319e-04" rms="4.5469802618026733e-01" purity="5.0131940841674805e-01" nType="0">
        <Node pos="l" depth="1" NCoef="0" IVar="5" Cut="9.5702588558197021e-01" cType="1" res="-1.1399391107261181e-02" rms="4.5518651604652405e-01" purity="5.3531205654144287e-01" nType="0">
          <Node pos="l" depth="2" NCoef="0" IVar="-1" Cut="0.0000000000000000e+00" cType="1" res="-1.8697517225518823e-03" rms="4.6528434753417969e-01" purity="4.1063293814659119e-01" nType="-99"/>
          <Node pos="r" depth="2" NCoef="0" IVar="-1" Cut="0.0000000000000000e+00" cType="1" res="6.8031466798856854e-04" rms="4.4293379783630371e-01" purity="6.7095869779586792e-01" nType="-99"/>
        </Node>
        <Node pos="r" depth="1" NCoef="0" IVar="3" Cut="1.0131482966244221e-02" cType="1" res="5.5115334689617157e-03" rms="4.5441710948944092e-01" purity="4.8795905709266663e-01" nType="0">
          <Node pos="l" depth="2" NCoef="0" IVar="-1" Cut="0.0000000000000000e+00" cType="1" res="1.5655591851100326e-03" rms="4.6177622675895691e-01" purity="5.4708367586135864e-01" nType="-99"/>
          <Node pos="r" depth="2" NCoef="0" IVar="-1" Cut="0.0000000000000000e+00" cType="1" res="3.9737949464324629e-07" rms="4.5218130946159363e-01" purity="4.7139880061149597e-01" nType="-99"/>
        </Node>
      </Node>
    </BinaryTree>
    <BinaryTree type="DecisionTree" boostWeight="1.0000000000000000e+00" itree="771">
      <Node pos="s" depth="0" NCoef="0" IVar="8" Cut="6.4191037416458130e-01" cType="1" res="4.1616032831370831e-03" rms="4.5590221881866455e-01" purity="5.0362575054168701e-01" nType="0">
        <Node pos="l" depth="1" NCoef="0" IVar="6" Cut="2.2196846008300781e+00" cType="1" res="-2.6954161003232002e-02" rms="4.5448914170265198e-01" purity="5.3691130876541138e-01" nType="0">
          <Node pos="l" depth="2" NCoef="0" IVar="-1" Cut="0.0000000000000000e+00" cType="1" res="-6.6785071976482868e-04" rms="4.4969096779823303e-01" purity="6.0580670833587646e-01" nType="-99"/>
          <Node pos="r" depth="2" NCoef="0" IVar="-1" Cut="0.0000000000000000e+00" cType="1" res="-2.9399320483207703e-03" rms="4.5933404564857483e-01" purity="4.5521375536918640e-01" nType="-99"/>
        </Node>
        <Node pos="r" depth="1" NCoef="0" IVar="1" Cut="4.4688555908203125e+02" cType="1" res="8.5081709548830986e-03" rms="4.5593026280403137e-01" purity="4.9897605180740356e-01" nType="0">
          <Node pos="l" depth="2" NCoef="0" IVar="-1" Cut="0.0000000000000000e+00" cType="1" res="1.4300354523584247e-03" rms="4.4957953691482544e-01" purity="3.9288353919982910e-01" nType="-99"/>
          <Node pos="r" depth="2" NCoef="0" IVar="-1" Cut="0.0000000000000000e+00" cType="1" res="2.0818841585423797e-04" rms="4.5835733413696289e-01" purity="5.4161775112152100e-01" nType="-99"/>
        </Node>
      </Node>
    </BinaryTree>
    <BinaryTree type="DecisionTree" boostWeight="1.0000000000000000e+00" itree="772">
      <Node pos="s" depth="0" NCoef="0" IVar="7" Cut="8.1092727661132812e+01" cType="1" res="-1.9036834128201008e-03" rms="4.5498564839363098e-01" purity="4.9896967411041260e-01" nType="0">
        <Node pos="l" depth="1" NCoef="0" IVar="9" Cut="4.6093460917472839e-01" cType="1" res="5.0184889696538448e-03" rms="4.5300906896591187e-01" purity="4.6489894390106201e-01" nType="0">
          <Node pos="l" depth="2" NCoef="0" IVar="-1" Cut="0.0000000000000000e+00" cType="1" res="-4.8597168643027544e-04" rms="4.5395183563232422e-01" purity="4.9307659268379211e-01" nType="-99"/>
          <Node pos="r" depth="2" NCoef="0" IVar="-1" Cut="0.0000000000000000e+00" cType="1" res="8.7711104424670339e-04" rms="4.5216059684753418e-01" purity="4.4583174586296082e-01" nType="-99"/>
        </Node>
        <Node pos="r" depth="1" NCoef="0" IVar="1" Cut="6.2070233154296875e+02" cType="1" res="-1.7716893926262856e-02" rms="4.5907768607139587e-01" purity="5.7680189609527588e-01" nType="0">
          <Node pos="l" depth="2" NCoef="0" IVar="-1" Cut="0.0000000000000000e+00" cType="1" res="-3.6788741126656532e-03" rms="4.6317788958549500e-01" purity="4.8636326193809509e-01" nType="-99"/>
          <Node pos="r" depth="2" NCoef="0" IVar="-1" Cut="0.0000000000000000e+00" cType="1" res="1.5473706298507750e-05" rms="4.5613852143287659e-01" purity="6.1530888080596924e-01" nType="-99"/>
        </Node>
      </Node>
    </BinaryTree>
    <BinaryTree type="DecisionTree" boostWeight="1.0000000000000000e+00" itree="773">
      <Node pos="s" depth="0" NCoef="0" IVar="6" Cut="2.0484356880187988e+00" cType="1" res="4.9957110604736954e-05" rms="4.5217767357826233e-01" purity="4.9895560741424561e-01" nType="0">
        <Node pos="l" depth="1" NCoef="0" IVar="5" Cut="9.6116846799850464e-01" cType="1" res="1.1499995365738869e-02" rms="4.4976061582565308e-01" purity="5.8346736431121826e-01" nType="0">
          <Node pos="l" depth="2" NCoef="0" IVar="-1" Cut="0.0000000000000000e+00" cType="1" res="-1.1418313079047948e-04" rms="4.6745213866233826e-01" purity="4.8441943526268005e-01" nType="-99"/>
          <Node pos="r" depth="2" NCoef="0" IVar="-1" Cut="0.0000000000000000e+00" cType="1" res="2.3251005914062262e-03" rms="4.1882771253585815e-01" purity="7.4281710386276245e-01" nType="-99"/>
        </Node>
        <Node pos="r" depth="1" NCoef="0" IVar="6" Cut="2.1539459228515625e+00" cType="1" res="-4.6511916443705559e-03" rms="4.5308256149291992e-01" purity="4.6425682306289673e-01" nType="0">
          <Node pos="l" depth="2" NCoef="0" IVar="-1" Cut="0.0000000000000000e+00" cType="1" res="-1.6523618251085281e-03" rms="4.5678704977035522e-01" purity="5.3234314918518066e-01" nType="-99"/>
          <Node pos="r" depth="2" NCoef="0" IVar="-1" Cut="0.0000000000000000e+00" cType="1" res="1.7519099856144749e-05" rms="4.5208978652954102e-01" purity="4.4874632358551025e-01" nType="-99"/>
        </Node>
      </Node>
    </BinaryTree>
    <BinaryTree type="DecisionTree" boostWeight="1.0000000000000000e+00" itree="774">
      <Node pos="s" depth="0" NCoef="0" IVar="4" Cut="2.1488945186138153e-01" cType="1" res="-1.4558444672729820e-04" rms="4.5407876372337341e-01" purity="4.9771121144294739e-01" nType="0">
        <Node pos="l" depth="1" NCoef="0" IVar="0" Cut="3.2118008136749268e+00" cType="1" res="1.6581291332840919e-02" rms="4.5444595813751221e-01" purity="4.3828260898590088e-01" nType="0">
          <Node pos="l" depth="2" NCoef="0" IVar="-1" Cut="0.0000000000000000e+00" cType="1" res="2.3530321195721626e-03" rms="4.4943210482597351e-01" purity="3.5321590304374695e-01" nType="-99"/>
          <Node pos="r" depth="2" NCoef="0" IVar="-1" Cut="0.0000000000000000e+00" cType="1" res="-5.6023790966719389e-04" rms="4.6063280105590820e-01" purity="5.6564521789550781e-01" nType="-99"/>
        </Node>
        <Node pos="r" depth="1" NCoef="0" IVar="3" Cut="1.3449224829673767e-01" cType="1" res="-4.1458993218839169e-03" rms="4.5389956235885620e-01" purity="5.1192384958267212e-01" nType="0">
          <Node pos="l" depth="2" NCoef="0" IVar="-1" Cut="0.0000000000000000e+00" cType="1" res="-1.8026321413344704e-05" rms="4.5443040132522583e-01" purity="5.1927649974822998e-01" nType="-99"/>
          <Node pos="r" depth="2" NCoef="0" IVar="-1" Cut="0.0000000000000000e+00" cType="1" res="-3.9910259656608105e-03" rms="4.4168397784233093e-01" purity="4.0057879686355591e-01" nType="-99"/>
        </Node>
      </Node>
    </BinaryTree>
    <BinaryTree type="DecisionTree" boostWeight="1.0000000000000000e+00" itree="775">
      <Node pos="s" depth="0" NCoef="0" IVar="5" Cut="9.1392493247985840e-01" cType="1" res="6.3118757680058479e-03" rms="4.5658898353576660e-01" purity="5.0580102205276489e-01" nType="0">
        <Node pos="l" depth="1" NCoef="0" IVar="-1" Cut="0.0000000000000000e+00" cType="1" res="2.3867804557085037e-03" rms="4.4272872805595398e-01" purity="3.3263087272644043e-01" nType="-99"/>
        <Node pos="r" depth="1" NCoef="0" IVar="1" Cut="5.2952062988281250e+02" cType="1" res="3.3914276864379644e-03" rms="4.5782560110092163e-01" purity="5.2283388376235962e-01" nType="0">
          <Node pos="l" depth="2" NCoef="0" IVar="-1" Cut="0.0000000000000000e+00" cType="1" res="8.5591606330126524e-04" rms="4.5392102003097534e-01" purity="4.6031957864761353e-01" nType="-99"/>
          <Node pos="r" depth="2" NCoef="0" IVar="-1" Cut="0.0000000000000000e+00" cType="1" res="-4.0898390579968691e-04" rms="4.6141663193702698e-01" purity="5.8431965112686157e-01" nType="-99"/>
        </Node>
      </Node>
    </BinaryTree>
    <BinaryTree type="DecisionTree" boostWeight="1.0000000000000000e+00" itree="776">
      <Node pos="s" depth="0" NCoef="0" IVar="9" Cut="7.7333402633666992e-01" cType="1" res="-5.1551749929785728e-03" rms="4.5448240637779236e-01" purity="4.9215501546859741e-01" nType="0">
        <Node pos="l" depth="1" NCoef="0" IVar="6" Cut="2.5020012855529785e+00" cType="1" res="-9.7625628113746643e-03" rms="4.5405012369155884e-01" purity="5.1111453771591187e-01" nType="0">
          <Node pos="l" depth="2" NCoef="0" IVar="-1" Cut="0.0000000000000000e+00" cType="1" res="-3.6546462797559798e-04" rms="4.5621070265769958e-01" purity="5.4209423065185547e-01" nType="-99"/>
          <Node pos="r" depth="2" NCoef="0" IVar="-1" Cut="0.0000000000000000e+00" cType="1" res="-2.2832900285720825e-03" rms="4.3978911638259888e-01" purity="3.2089528441429138e-01" nType="-99"/>
        </Node>
        <Node pos="r" depth="1" NCoef="0" IVar="6" Cut="2.2303519248962402e+00" cType="1" res="1.0267782025039196e-02" rms="4.5558744668960571e-01" purity="4.2868927121162415e-01" nType="0">
          <Node pos="l" depth="2" NCoef="0" IVar="-1" Cut="0.0000000000000000e+00" cType="1" res="-1.0757168056443334e-03" rms="4.6796253323554993e-01" purity="4.9601253867149353e-01" nType="-99"/>
          <Node pos="r" depth="2" NCoef="0" IVar="-1" Cut="0.0000000000000000e+00" cType="1" res="1.3497141189873219e-03" rms="4.5054250955581665e-01" purity="4.0405976772308350e-01" nType="-99"/>
        </Node>
      </Node>
    </BinaryTree>
    <BinaryTree type="DecisionTree" boostWeight="1.0000000000000000e+00" itree="777">
      <Node pos="s" depth="0" NCoef="0" IVar="2" Cut="1.4660421752929688e+02" cType="1" res="1.1093460489064455e-03" rms="4.5515507459640503e-01" purity="5.0011968612670898e-01" nType="0">
        <Node pos="l" depth="1" NCoef="0" IVar="4" Cut="1.3224287331104279e-01" cType="1" res="-2.8855018317699432e-03" rms="4.5578312873840332e-01" purity="4.9400451779365540e-01" nType="0">
          <Node pos="l" depth="2" NCoef="0" IVar="-1" Cut="0.0000000000000000e+00" cType="1" res="2.4551874957978725e-03" rms="4.5231691002845764e-01" purity="4.2650061845779419e-01" nType="-99"/>
          <Node pos="r" depth="2" NCoef="0" IVar="-1" Cut="0.0000000000000000e+00" cType="1" res="-3.7648010766133666e-04" rms="4.5589759945869446e-01" purity="4.9918153882026672e-01" nType="-99"/>
        </Node>
        <Node pos="r" depth="1" NCoef="0" IVar="9" Cut="4.8515072464942932e-01" cType="1" res="2.1437875926494598e-02" rms="4.5139825344085693e-01" purity="5.3123801946640015e-01" nType="0">
          <Node pos="l" depth="2" NCoef="0" IVar="-1" Cut="0.0000000000000000e+00" cType="1" res="4.9752239137887955e-03" rms="4.3347612023353577e-01" purity="6.6060870885848999e-01" nType="-99"/>
          <Node pos="r" depth="2" NCoef="0" IVar="-1" Cut="0.0000000000000000e+00" cType="1" res="-5.2925513591617346e-04" rms="4.5797181129455566e-01" purity="4.6186363697052002e-01" nType="-99"/>
        </Node>
      </Node>
    </BinaryTree>
    <BinaryTree type="DecisionTree" boostWeight="1.0000000000000000e+00" itree="778">
      <Node pos="s" depth="0" NCoef="0" IVar="4" Cut="3.6449235677719116e-01" cType="1" res="-5.0546252168715000e-04" rms="4.5310816168785095e-01" purity="4.9804162979125977e-01" nType="0">
        <Node pos="l" depth="1" NCoef="0" IVar="2" Cut="1.0422218322753906e+02" cType="1" res="-9.7753321751952171e-03" rms="4.5167988538742065e-01" purity="4.4493576884269714e-01" nType="0">
          <Node pos="l" depth="2" NCoef="0" IVar="-1" Cut="0.0000000000000000e+00" cType="1" res="-1.2504805345088243e-03" rms="4.5148020982742310e-01" purity="4.1824004054069519e-01" nType="-99"/>
          <Node pos="r" depth="2" NCoef="0" IVar="-1" Cut="0.0000000000000000e+00" cType="1" res="1.2911247904412448e-04" rms="4.5162954926490784e-01" purity="4.7627425193786621e-01" nType="-99"/>
        </Node>
        <Node pos="r" depth="1" NCoef="0" IVar="4" Cut="4.2648309469223022e-01" cType="1" res="7.6467236503958702e-03" rms="4.5420420169830322e-01" purity="5.4474443197250366e-01" nType="0">
          <Node pos="l" depth="2" NCoef="0" IVar="-1" Cut="0.0000000000000000e+00" cType="1" res="1.9690042827278376e-03" rms="4.4825878739356995e-01" purity="5.4142767190933228e-01" nType="-99"/>
          <Node pos="r" depth="2" NCoef="0" IVar="-1" Cut="0.0000000000000000e+00" cType="1" res="8.4605460870079696e-05" rms="4.5554673671722412e-01" purity="5.4561698436737061e-01" nType="-99"/>
        </Node>
      </Node>
    </BinaryTree>
    <BinaryTree type="DecisionTree" boostWeight="1.0000000000000000e+00" itree="779">
      <Node pos="s" depth="0" NCoef="0" IVar="5" Cut="9.4147235155105591e-01" cType="1" res="4.1777789592742920e-03" rms="4.5585471391677856e-01" purity="5.0432556867599487e-01" nType="0">
        <Node pos="l" depth="1" NCoef="0" IVar="7" Cut="9.5716728210449219e+01" cType="1" res="1.4754404313862324e-02" rms="4.5543548464775085e-01" purity="3.7538412213325500e-01" nType="0">
          <Node pos="l" depth="2" NCoef="0" IVar="-1" Cut="0.0000000000000000e+00" cType="1" res="1.4227046631276608e-03" rms="4.5123553276062012e-01" purity="3.5623908042907715e-01" nType="-99"/>
          <Node pos="r" depth="2" NCoef="0" IVar="-1" Cut="0.0000000000000000e+00" cType="1" res="-1.0675144148990512e-03" rms="4.7255536913871765e-01" purity="4.6199506521224976e-01" nType="-99"/>
        </Node>
        <Node pos="r" depth="1" NCoef="0" IVar="5" Cut="9.4770741462707520e-01" cType="1" res="-1.0706259636208415e-03" rms="4.5597153902053833e-01" purity="5.6830978393554688e-01" nType="0">
          <Node pos="l" depth="2" NCoef="0" IVar="-1" Cut="0.0000000000000000e+00" cType="1" res="-1.9043060019612312e-03" rms="4.5753008127212524e-01" purity="3.9974021911621094e-01" nType="-99"/>
          <Node pos="r" depth="2" NCoef="0" IVar="-1" Cut="0.0000000000000000e+00" cType="1" res="2.3264519404619932e-04" rms="4.5554575324058533e-01" purity="5.9448474645614624e-01" nType="-99"/>
        </Node>
      </Node>
    </BinaryTree>
    <BinaryTree type="DecisionTree" boostWeight="1.0000000000000000e+00" itree="780">
      <Node pos="s" depth="0" NCoef="0" IVar="0" Cut="2.1222014427185059e+00" cType="1" res="7.0406002923846245e-03" rms="4.5297738909721375e-01" purity="5.0522726774215698e-01" nType="0">
        <Node pos="l" depth="1" NCoef="0" IVar="3" Cut="-1.8915876746177673e-02" cType="1" res="-6.5325354225933552e-03" rms="4.4235095381736755e-01" purity="3.2601141929626465e-01" nType="0">
          <Node pos="l" depth="2" NCoef="0" IVar="-1" Cut="0.0000000000000000e+00" cType="1" res="-2.4212494026869535e-03" rms="4.4599026441574097e-01" purity="3.2875570654869080e-01" nType="-99"/>
          <Node pos="r" depth="2" NCoef="0" IVar="-1" Cut="0.0000000000000000e+00" cType="1" res="3.8368062814697623e-04" rms="4.4034388661384583e-01" purity="3.2495623826980591e-01" nType="-99"/>
        </Node>
        <Node pos="r" depth="1" NCoef="0" IVar="5" Cut="9.3448984622955322e-01" cType="1" res="1.3659781776368618e-02" rms="4.5792424678802490e-01" purity="5.9262508153915405e-01" nType="0">
          <Node pos="l" depth="2" NCoef="0" IVar="-1" Cut="0.0000000000000000e+00" cType="1" res="2.6493261102586985e-03" rms="4.7723340988159180e-01" purity="4.7509664297103882e-01" nType="-99"/>
          <Node pos="r" depth="2" NCoef="0" IVar="-1" Cut="0.0000000000000000e+00" cType="1" res="4.7975071356631815e-04" rms="4.5411369204521179e-01" purity="6.1371660232543945e-01" nType="-99"/>
        </Node>
      </Node>
    </BinaryTree>
    <BinaryTree type="DecisionTree" boostWeight="1.0000000000000000e+00" itree="781">
      <Node pos="s" depth="0" NCoef="0" IVar="5" Cut="9.1372227668762207e-01" cType="1" res="-1.7464178381487727e-03" rms="4.5351547002792358e-01" purity="4.9752625823020935e-01" nType="0">
        <Node pos="l" depth="1" NCoef="0" IVar="-1" Cut="0.0000000000000000e+00" cType="1" res="1.6793544637039304e-03" rms="4.3664470314979553e-01" purity="3.2615536451339722e-01" nType="-99"/>
        <Node pos="r" depth="1" NCoef="0" IVar="9" Cut="1.7685116827487946e-01" cType="1" res="-4.3937703594565392e-03" rms="4.5506727695465088e-01" purity="5.1450252532958984e-01" nType="0">
          <Node pos="l" depth="2" NCoef="0" IVar="-1" Cut="0.0000000000000000e+00" cType="1" res="1.9095708848908544e-03" rms="4.3870073556900024e-01" purity="6.1415147781372070e-01" nType="-99"/>
          <Node pos="r" depth="2" NCoef="0" IVar="-1" Cut="0.0000000000000000e+00" cType="1" res="-4.6641542576253414e-04" rms="4.5635622739791870e-01" purity="5.0570875406265259e-01" nType="-99"/>
        </Node>
      </Node>
    </BinaryTree>
    <BinaryTree type="DecisionTree" boostWeight="1.0000000000000000e+00" itree="782">
      <Node pos="s" depth="0" NCoef="0" IVar="9" Cut="3.7404656410217285e-01" cType="1" res="-2.4376157671213150e-03" rms="4.5558494329452515e-01" purity="4.9711793661117554e-01" nType="0">
        <Node pos="l" depth="1" NCoef="0" IVar="5" Cut="9.7615104913711548e-01" cType="1" res="-1.7617143690586090e-02" rms="4.5512667298316956e-01" purity="5.2833038568496704e-01" nType="0">
          <Node pos="l" depth="2" NCoef="0" IVar="-1" Cut="0.0000000000000000e+00" cType="1" res="-1.5425995225086808e-03" rms="4.6721652150154114e-01" purity="4.6787488460540771e-01" nType="-99"/>
          <Node pos="r" depth="2" NCoef="0" IVar="-1" Cut="0.0000000000000000e+00" cType="1" res="1.0801450116559863e-03" rms="4.0345922112464905e-01" purity="7.6200371980667114e-01" nType="-99"/>
        </Node>
        <Node pos="r" depth="1" NCoef="0" IVar="2" Cut="1.0540042877197266e+02" cType="1" res="4.1924486868083477e-03" rms="4.5562630891799927e-01" purity="4.8348504304885864e-01" nType="0">
          <Node pos="l" depth="2" NCoef="0" IVar="-1" Cut="0.0000000000000000e+00" cType="1" res="9.4975053798407316e-04" rms="4.5892462134361267e-01" purity="4.7339430451393127e-01" nType="-99"/>
          <Node pos="r" depth="2" NCoef="0" IVar="-1" Cut="0.0000000000000000e+00" cType="1" res="-5.0474843010306358e-04" rms="4.5162492990493774e-01" purity="4.9469587206840515e-01" nType="-99"/>
        </Node>
      </Node>
    </BinaryTree>
    <BinaryTree type="DecisionTree" boostWeight="1.0000000000000000e+00" itree="783">
      <Node pos="s" depth="0" NCoef="0" IVar="8" Cut="7.2606176137924194e-01" cType="1" res="4.8883301205933094e-03" rms="4.5462170243263245e-01" purity="5.0553601980209351e-01" nType="0">
        <Node pos="l" depth="1" NCoef="0" IVar="1" Cut="7.8287451171875000e+02" cType="1" res="2.2280134260654449e-02" rms="4.5314139127731323e-01" purity="5.7825326919555664e-01" nType="0">
          <Node pos="l" depth="2" NCoef="0" IVar="-1" Cut="0.0000000000000000e+00" cType="1" res="2.1519623696804047e-03" rms="4.5402890443801880e-01" purity="5.6142234802246094e-01" nType="-99"/>
          <Node pos="r" depth="2" NCoef="0" IVar="-1" Cut="0.0000000000000000e+00" cType="1" res="-8.6241157259792089e-04" rms="4.4870421290397644e-01" purity="6.2639439105987549e-01" nType="-99"/>
        </Node>
        <Node pos="r" depth="1" NCoef="0" IVar="9" Cut="9.5077198743820190e-01" cType="1" res="6.7063589813187718e-04" rms="4.5487982034683228e-01" purity="4.8790130019187927e-01" nType="0">
          <Node pos="l" depth="2" NCoef="0" IVar="-1" Cut="0.0000000000000000e+00" cType="1" res="-1.7099798424169421e-04" rms="4.5438924431800842e-01" purity="4.9867126345634460e-01" nType="-99"/>
          <Node pos="r" depth="2" NCoef="0" IVar="-1" Cut="0.0000000000000000e+00" cType="1" res="1.9141670782119036e-03" rms="4.5797210931777954e-01" purity="3.9812833070755005e-01" nType="-99"/>
        </Node>
      </Node>
    </BinaryTree>
    <BinaryTree type="DecisionTree" boostWeight="1.0000000000000000e+00" itree="784">
      <Node pos="s" depth="0" NCoef="0" IVar="1" Cut="4.0454425048828125e+02" cType="1" res="-1.0501978249521926e-04" rms="4.5689657330513000e-01" purity="5.0113385915756226e-01" nType="0">
        <Node pos="l" depth="1" NCoef="0" IVar="4" Cut="5.3295880556106567e-01" cType="1" res="-1.8678717315196991e-02" rms="4.3595716357231140e-01" purity="3.2792001962661743e-01" nType="0">
          <Node pos="l" depth="2" NCoef="0" IVar="-1" Cut="0.0000000000000000e+00" cType="1" res="-2.5654162745922804e-03" rms="4.2588785290718079e-01" purity="2.7833640575408936e-01" nType="-99"/>
          <Node pos="r" depth="2" NCoef="0" IVar="-1" Cut="0.0000000000000000e+00" cType="1" res="1.0261907009407878e-03" rms="4.5389679074287415e-01" purity="4.2948985099792480e-01" nType="-99"/>
        </Node>
        <Node pos="r" depth="1" NCoef="0" IVar="7" Cut="5.1699531555175781e+01" cType="1" res="3.3305182587355375e-03" rms="4.6058329939842224e-01" purity="5.3317290544509888e-01" nType="0">
          <Node pos="l" depth="2" NCoef="0" IVar="-1" Cut="0.0000000000000000e+00" cType="1" res="2.0538584794849157e-03" rms="4.6191999316215515e-01" purity="4.6031850576400757e-01" nType="-99"/>
          <Node pos="r" depth="2" NCoef="0" IVar="-1" Cut="0.0000000000000000e+00" cType="1" res="-7.4835843406617641e-05" rms="4.6021032333374023e-01" purity="5.4426419734954834e-01" nType="-99"/>
        </Node>
      </Node>
    </BinaryTree>
    <BinaryTree type="DecisionTree" boostWeight="1.0000000000000000e+00" itree="785">
      <Node pos="s" depth="0" NCoef="0" IVar="8" Cut="1.3841096162796021e+00" cType="1" res="8.8770594447851181e-04" rms="4.5170816779136658e-01" purity="4.9987819790840149e-01" nType="0">
        <Node pos="l" depth="1" NCoef="0" IVar="3" Cut="9.9265329539775848e-02" cType="1" res="6.8350881338119507e-03" rms="4.5405909419059753e-01" purity="5.2486884593963623e-01" nType="0">
          <Node pos="l" depth="2" NCoef="0" IVar="-1" Cut="0.0000000000000000e+00" cType="1" res="1.1718261521309614e-04" rms="4.5525589585304260e-01" purity="5.3332662582397461e-01" nType="-99"/>
          <Node pos="r" depth="2" NCoef="0" IVar="-1" Cut="0.0000000000000000e+00" cType="1" res="1.6518351621925831e-03" rms="4.4883823394775391e-01" purity="4.9188065528869629e-01" nType="-99"/>
        </Node>
        <Node pos="r" depth="1" NCoef="0" IVar="3" Cut="9.4213798642158508e-02" cType="1" res="-1.7400855198502541e-02" rms="4.4390201568603516e-01" purity="4.2303055524826050e-01" nType="0">
          <Node pos="l" depth="2" NCoef="0" IVar="-1" Cut="0.0000000000000000e+00" cType="1" res="2.2471850388683379e-04" rms="4.5216178894042969e-01" purity="4.7048166394233704e-01" nType="-99"/>
          <Node pos="r" depth="2" NCoef="0" IVar="-1" Cut="0.0000000000000000e+00" cType="1" res="-5.2330885082483292e-03" rms="4.1411817073822021e-01" purity="2.8948181867599487e-01" nType="-99"/>
        </Node>
      </Node>
    </BinaryTree>
    <BinaryTree type="DecisionTree" boostWeight="1.0000000000000000e+00" itree="786">
      <Node pos="s" depth="0" NCoef="0" IVar="3" Cut="4.0797602385282516e-02" cType="1" res="-2.6079011149704456e-04" rms="4.5472958683967590e-01" purity="4.9768692255020142e-01" nType="0">
        <Node pos="l" depth="1" NCoef="0" IVar="6" Cut="1.7014802694320679e+00" cType="1" res="8.0696437507867813e-03" rms="4.5863035321235657e-01" purity="5.3699028491973877e-01" nType="0">
          <Node pos="l" depth="2" NCoef="0" IVar="-1" Cut="0.0000000000000000e+00" cType="1" res="-1.9503813236951828e-03" rms="4.5564430952072144e-01" purity="5.8133167028427124e-01" nType="-99"/>
          <Node pos="r" depth="2" NCoef="0" IVar="-1" Cut="0.0000000000000000e+00" cType="1" res="8.8244385551661253e-04" rms="4.5881012082099915e-01" purity="5.3000396490097046e-01" nType="-99"/>
        </Node>
        <Node pos="r" depth="1" NCoef="0" IVar="1" Cut="7.6151556396484375e+02" cType="1" res="-1.1792583391070366e-02" rms="4.4901889562606812e-01" purity="4.4327938556671143e-01" nType="0">
          <Node pos="l" depth="2" NCoef="0" IVar="-1" Cut="0.0000000000000000e+00" cType="1" res="-1.3927706750109792e-03" rms="4.4829541444778442e-01" purity="4.0499874949455261e-01" nType="-99"/>
          <Node pos="r" depth="2" NCoef="0" IVar="-1" Cut="0.0000000000000000e+00" cType="1" res="2.2648477461189032e-03" rms="4.4944617152214050e-01" purity="6.2804585695266724e-01" nType="-99"/>
        </Node>
      </Node>
    </BinaryTree>
    <BinaryTree type="DecisionTree" boostWeight="1.0000000000000000e+00" itree="787">
      <Node pos="s" depth="0" NCoef="0" IVar="5" Cut="9.0687173604965210e-01" cType="1" res="-1.1770438868552446e-03" rms="4.5315134525299072e-01" purity="5.0107598304748535e-01" nType="0">
        <Node pos="l" depth="1" NCoef="0" IVar="-1" Cut="0.0000000000000000e+00" cType="1" res="-2.5472478009760380e-03" rms="4.1626992821693420e-01" purity="2.5857111811637878e-01" nType="-99"/>
        <Node pos="r" depth="1" NCoef="0" IVar="4" Cut="1.2923836708068848e-01" cType="1" res="1.0392346885055304e-03" rms="4.5518946647644043e-01" purity="5.1572906970977783e-01" nType="0">
          <Node pos="l" depth="2" NCoef="0" IVar="-1" Cut="0.0000000000000000e+00" cType="1" res="-2.3914277553558350e-03" rms="4.5026919245719910e-01" purity="3.6163127422332764e-01" nType="-99"/>
          <Node pos="r" depth="2" NCoef="0" IVar="-1" Cut="0.0000000000000000e+00" cType="1" res="2.3655324184801430e-04" rms="4.5542687177658081e-01" purity="5.2699613571166992e-01" nType="-99"/>
        </Node>
      </Node>
    </BinaryTree>
    <BinaryTree type="DecisionTree" boostWeight="1.0000000000000000e+00" itree="788">
      <Node pos="s" depth="0" NCoef="0" IVar="5" Cut="9.9137532711029053e-01" cType="1" res="-9.6549215959385037e-04" rms="4.5207047462463379e-01" purity="5.0093591213226318e-01" nType="0">
        <Node pos="l" depth="1" NCoef="0" IVar="8" Cut="5.5517357587814331e-01" cType="1" res="-3.2903742976486683e-03" rms="4.5633751153945923e-01" purity="4.8288157582283020e-01" nType="0">
          <Node pos="l" depth="2" NCoef="0" IVar="-1" Cut="0.0000000000000000e+00" cType="1" res="2.2651683539152145e-03" rms="4.6294772624969482e-01" purity="5.9356451034545898e-01" nType="-99"/>
          <Node pos="r" depth="2" NCoef="0" IVar="-1" Cut="0.0000000000000000e+00" cType="1" res="-3.5863262019120157e-04" rms="4.5581847429275513e-01" purity="4.7612601518630981e-01" nType="-99"/>
        </Node>
        <Node pos="r" depth="1" NCoef="0" IVar="-1" Cut="0.0000000000000000e+00" cType="1" res="3.1378879211843014e-03" rms="3.6802840232849121e-01" purity="8.1395661830902100e-01" nType="-99"/>
      </Node>
    </BinaryTree>
    <BinaryTree type="DecisionTree" boostWeight="1.0000000000000000e+00" itree="789">
      <Node pos="s" depth="0" NCoef="0" IVar="4" Cut="6.0330843925476074e-01" cType="1" res="4.9935835413634777e-03" rms="4.5309552550315857e-01" purity="5.0279563665390015e-01" nType="0">
        <Node pos="l" depth="1" NCoef="0" IVar="5" Cut="9.1101396083831787e-01" cType="1" res="9.3501750379800797e-03" rms="4.5121034979820251e-01" purity="4.9495017528533936e-01" nType="0">
          <Node pos="l" depth="2" NCoef="0" IVar="-1" Cut="0.0000000000000000e+00" cType="1" res="-1.7987692262977362e-03" rms="4.2181628942489624e-01" purity="2.6249691843986511e-01" nType="-99"/>
          <Node pos="r" depth="2" NCoef="0" IVar="-1" Cut="0.0000000000000000e+00" cType="1" res="7.6737732160836458e-04" rms="4.5339253544807434e-01" purity="5.1385718584060669e-01" nType="-99"/>
        </Node>
        <Node pos="r" depth="1" NCoef="0" IVar="4" Cut="6.5557998418807983e-01" cType="1" res="-1.6941398382186890e-02" rms="4.6184650063514709e-01" purity="5.4229658842086792e-01" nType="0">
          <Node pos="l" depth="2" NCoef="0" IVar="-1" Cut="0.0000000000000000e+00" cType="1" res="-2.7008384931832552e-03" rms="4.6621882915496826e-01" purity="5.1579356193542480e-01" nType="-99"/>
          <Node pos="r" depth="2" NCoef="0" IVar="-1" Cut="0.0000000000000000e+00" cType="1" res="-1.3654616486746818e-04" rms="4.5866274833679199e-01" purity="5.5752652883529663e-01" nType="-99"/>
        </Node>
      </Node>
    </BinaryTree>
    <BinaryTree type="DecisionTree" boostWeight="1.0000000000000000e+00" itree="790">
      <Node pos="s" depth="0" NCoef="0" IVar="8" Cut="1.3289781808853149e+00" cType="1" res="2.0888121798634529e-03" rms="4.5378714799880981e-01" purity="5.0544333457946777e-01" nType="0">
        <Node pos="l" depth="1" NCoef="0" IVar="3" Cut="-5.0237663090229034e-02" cType="1" res="-3.5461075603961945e-03" rms="4.5369675755500793e-01" purity="5.2347910404205322e-01" nType="0">
          <Node pos="l" depth="2" NCoef="0" IVar="-1" Cut="0.0000000000000000e+00" cType="1" res="1.3364059850573540e-03" rms="4.4328555464744568e-01" purity="6.1575227975845337e-01" nType="-99"/>
          <Node pos="r" depth="2" NCoef="0" IVar="-1" Cut="0.0000000000000000e+00" cType="1" res="-4.5411897008307278e-04" rms="4.5512932538986206e-01" purity="5.0958698987960815e-01" nType="-99"/>
        </Node>
        <Node pos="r" depth="1" NCoef="0" IVar="9" Cut="6.4013159275054932e-01" cType="1" res="1.6470748931169510e-02" rms="4.5370057225227356e-01" purity="4.5941072702407837e-01" nType="0">
          <Node pos="l" depth="2" NCoef="0" IVar="-1" Cut="0.0000000000000000e+00" cType="1" res="2.3182167205959558e-03" rms="4.5977431535720825e-01" purity="5.1061826944351196e-01" nType="-99"/>
          <Node pos="r" depth="2" NCoef="0" IVar="-1" Cut="0.0000000000000000e+00" cType="1" res="-8.9342927094548941e-04" rms="4.4285282492637634e-01" purity="3.8367909193038940e-01" nType="-99"/>
        </Node>
      </Node>
    </BinaryTree>
    <BinaryTree type="DecisionTree" boostWeight="1.0000000000000000e+00" itree="791">
      <Node pos="s" depth="0" NCoef="0" IVar="4" Cut="7.1817278861999512e-01" cType="1" res="-4.6380269341170788e-03" rms="4.5264315605163574e-01" purity="4.9609959125518799e-01" nType="0">
        <Node pos="l" depth="1" NCoef="0" IVar="1" Cut="7.7088653564453125e+02" cType="1" res="-6.6427686251699924e-03" rms="4.5315778255462646e-01" purity="4.9028062820434570e-01" nType="0">
          <Node pos="l" depth="2" NCoef="0" IVar="-1" Cut="0.0000000000000000e+00" cType="1" res="-6.5898394677788019e-04" rms="4.5420670509338379e-01" purity="4.6458852291107178e-01" nType="-99"/>
          <Node pos="r" depth="2" NCoef="0" IVar="-1" Cut="0.0000000000000000e+00" cType="1" res="9.5816235989332199e-04" rms="4.4665724039077759e-01" purity="6.3330847024917603e-01" nType="-99"/>
        </Node>
        <Node pos="r" depth="1" NCoef="0" IVar="-1" Cut="0.0000000000000000e+00" cType="1" res="2.1155299618840218e-03" rms="4.4107526540756226e-01" purity="6.0623544454574585e-01" nType="-99"/>
      </Node>
    </BinaryTree>
    <BinaryTree type="DecisionTree" boostWeight="1.0000000000000000e+00" itree="792">
      <Node pos="s" depth="0" NCoef="0" IVar="8" Cut="1.3299192190170288e+00" cType="1" res="-3.4772497601807117e-03" rms="4.5461285114288330e-01" purity="4.9562603235244751e-01" nType="0">
        <Node pos="l" depth="1" NCoef="0" IVar="8" Cut="1.2292709350585938e+00" cType="1" res="1.8550716340541840e-03" rms="4.5736348628997803e-01" purity="5.2282172441482544e-01" nType="0">
          <Node pos="l" depth="2" NCoef="0" IVar="-1" Cut="0.0000000000000000e+00" cType="1" res="-2.0551335182972252e-04" rms="4.5729860663414001e-01" purity="5.2365905046463013e-01" nType="-99"/>
          <Node pos="r" depth="2" NCoef="0" IVar="-1" Cut="0.0000000000000000e+00" cType="1" res="2.7215718291699886e-03" rms="4.5573243498802185e-01" purity="5.1596951484680176e-01" nType="-99"/>
        </Node>
        <Node pos="r" depth="1" NCoef="0" IVar="9" Cut="2.9566594958305359e-01" cType="1" res="-1.7424356192350388e-02" rms="4.4703775644302368e-01" purity="4.2449343204498291e-01" nType="0">
          <Node pos="l" depth="2" NCoef="0" IVar="-1" Cut="0.0000000000000000e+00" cType="1" res="-3.2068369910120964e-03" rms="4.5529589056968689e-01" purity="4.3409091234207153e-01" nType="-99"/>
          <Node pos="r" depth="2" NCoef="0" IVar="-1" Cut="0.0000000000000000e+00" cType="1" res="-6.3389306887984276e-04" rms="4.4482704997062683e-01" purity="4.2236062884330750e-01" nType="-99"/>
        </Node>
      </Node>
    </BinaryTree>
    <BinaryTree type="DecisionTree" boostWeight="1.0000000000000000e+00" itree="793">
      <Node pos="s" depth="0" NCoef="0" IVar="9" Cut="7.9369109869003296e-01" cType="1" res="-1.0529846185818315e-03" rms="4.5284011960029602e-01" purity="5.0034254789352417e-01" nType="0">
        <Node pos="l" depth="1" NCoef="0" IVar="0" Cut="2.3630564212799072e+00" cType="1" res="3.3064251765608788e-03" rms="4.5355340838432312e-01" purity="5.2934998273849487e-01" nType="0">
          <Node pos="l" depth="2" NCoef="0" IVar="-1" Cut="0.0000000000000000e+00" cType="1" res="9.3507685232907534e-04" rms="4.5912632346153259e-01" purity="3.8279682397842407e-01" nType="-99"/>
          <Node pos="r" depth="2" NCoef="0" IVar="-1" Cut="0.0000000000000000e+00" cType="1" res="-2.3239533766172826e-04" rms="4.4994246959686279e-01" purity="6.1962616443634033e-01" nType="-99"/>
        </Node>
        <Node pos="r" depth="1" NCoef="0" IVar="8" Cut="8.5186314582824707e-01" cType="1" res="-1.7063401639461517e-02" rms="4.4984847307205200e-01" purity="3.9380961656570435e-01" nType="0">
          <Node pos="l" depth="2" NCoef="0" IVar="-1" Cut="0.0000000000000000e+00" cType="1" res="-3.9188791997730732e-03" rms="4.4969397783279419e-01" purity="3.9772796630859375e-01" nType="-99"/>
          <Node pos="r" depth="2" NCoef="0" IVar="-1" Cut="0.0000000000000000e+00" cType="1" res="-2.7656633392325602e-05" rms="4.4875562191009521e-01" purity="3.9237427711486816e-01" nType="-99"/>
        </Node>
      </Node>
    </BinaryTree>
    <BinaryTree type="DecisionTree" boostWeight="1.0000000000000000e+00" itree="794">
      <Node pos="s" depth="0" NCoef="0" IVar="6" Cut="1.9868590831756592e+00" cType="1" res="1.7424947582185268e-03" rms="4.5359635353088379e-01" purity="5.0092095136642456e-01" nType="0">
        <Node pos="l" depth="1" NCoef="0" IVar="8" Cut="1.1785585880279541e+00" cType="1" res="1.8819043412804604e-02" rms="4.5248976349830627e-01" purity="5.9329825639724731e-01" nType="0">
          <Node pos="l" depth="2" NCoef="0" IVar="-1" Cut="0.0000000000000000e+00" cType="1" res="2.5149332359433174e-03" rms="4.4381779432296753e-01" purity="6.4717793464660645e-01" nType="-99"/>
          <Node pos="r" depth="2" NCoef="0" IVar="-1" Cut="0.0000000000000000e+00" cType="1" res="-4.9351097550243139e-04" rms="4.6174860000610352e-01" purity="5.2564078569412231e-01" nType="-99"/>
        </Node>
        <Node pos="r" depth="1" NCoef="0" IVar="3" Cut="1.1781713366508484e-01" cType="1" res="-4.2264740914106369e-03" rms="4.5383098721504211e-01" purity="4.6863123774528503e-01" nType="0">
          <Node pos="l" depth="2" NCoef="0" IVar="-1" Cut="0.0000000000000000e+00" cType="1" res="-5.6255829986184835e-04" rms="4.5404118299484253e-01" purity="4.7773084044456482e-01" nType="-99"/>
          <Node pos="r" depth="2" NCoef="0" IVar="-1" Cut="0.0000000000000000e+00" cType="1" res="1.1717958841472864e-03" rms="4.5220234990119934e-01" purity="4.2613607645034790e-01" nType="-99"/>
        </Node>
      </Node>
    </BinaryTree>
    <BinaryTree type="DecisionTree" boostWeight="1.0000000000000000e+00" itree="795">
      <Node pos="s" depth="0" NCoef="0" IVar="5" Cut="9.4164788722991943e-01" cType="1" res="-4.9291661707684398e-04" rms="4.5604065060615540e-01" purity="5.0073534250259399e-01" nType="0">
        <Node pos="l" depth="1" NCoef="0" IVar="5" Cut="9.3028819561004639e-01" cType="1" res="1.1179193854331970e-02" rms="4.5530307292938232e-01" purity="3.7253978848457336e-01" nType="0">
          <Node pos="l" depth="2" NCoef="0" IVar="-1" Cut="0.0000000000000000e+00" cType="1" res="-1.9299158884678036e-04" rms="4.4648382067680359e-01" purity="3.2765877246856689e-01" nType="-99"/>
          <Node pos="r" depth="2" NCoef="0" IVar="-1" Cut="0.0000000000000000e+00" cType="1" res="2.1256413310766220e-03" rms="4.6881341934204102e-01" purity="4.4812119007110596e-01" nType="-99"/>
        </Node>
        <Node pos="r" depth="1" NCoef="0" IVar="3" Cut="3.3338747918605804e-02" cType="1" res="-6.2210997566580772e-03" rms="4.5629295706748962e-01" purity="5.6364834308624268e-01" nType="0">
          <Node pos="l" depth="2" NCoef="0" IVar="-1" Cut="0.0000000000000000e+00" cType="1" res="-1.0938593186438084e-03" rms="4.5913884043693542e-01" purity="5.7943576574325562e-01" nType="-99"/>
          <Node pos="r" depth="2" NCoef="0" IVar="-1" Cut="0.0000000000000000e+00" cType="1" res="5.5629113921895623e-04" rms="4.5194637775421143e-01" purity="5.4211878776550293e-01" nType="-99"/>
        </Node>
      </Node>
    </BinaryTree>
    <BinaryTree type="DecisionTree" boostWeight="1.0000000000000000e+00" itree="796">
      <Node pos="s" depth="0" NCoef="0" IVar="8" Cut="1.3292129039764404e+00" cType="1" res="-2.4920755531638861e-03" rms="4.5589262247085571e-01" purity="4.9845120310783386e-01" nType="0">
        <Node pos="l" depth="1" NCoef="0" IVar="8" Cut="5.7640326023101807e-01" cType="1" res="4.0040668100118637e-03" rms="4.5799770951271057e-01" purity="5.2747166156768799e-01" nType="0">
          <Node pos="l" depth="2" NCoef="0" IVar="-1" Cut="0.0000000000000000e+00" cType="1" res="-2.2746433969587088e-03" rms="4.6109774708747864e-01" purity="5.4305934906005859e-01" nType="-99"/>
          <Node pos="r" depth="2" NCoef="0" IVar="-1" Cut="0.0000000000000000e+00" cType="1" res="5.0445104716345668e-04" rms="4.5748227834701538e-01" purity="5.2586841583251953e-01" nType="-99"/>
        </Node>
        <Node pos="r" depth="1" NCoef="0" IVar="5" Cut="9.7576874494552612e-01" cType="1" res="-1.9532864913344383e-02" rms="4.4987818598747253e-01" purity="4.2232403159141541e-01" nType="0">
          <Node pos="l" depth="2" NCoef="0" IVar="-1" Cut="0.0000000000000000e+00" cType="1" res="-1.6440728213638067e-03" rms="4.5078906416893005e-01" purity="3.6831530928611755e-01" nType="-99"/>
          <Node pos="r" depth="2" NCoef="0" IVar="-1" Cut="0.0000000000000000e+00" cType="1" res="5.7513482170179486e-04" rms="4.4478577375411987e-01" purity="6.5799349546432495e-01" nType="-99"/>
        </Node>
      </Node>
    </BinaryTree>
    <BinaryTree type="DecisionTree" boostWeight="1.0000000000000000e+00" itree="797">
      <Node pos="s" depth="0" NCoef="0" IVar="8" Cut="7.8731501102447510e-01" cType="1" res="4.0477039292454720e-03" rms="4.5507586002349854e-01" purity="5.0598269701004028e-01" nType="0">
        <Node pos="l" depth="1" NCoef="0" IVar="4" Cut="5.6072407960891724e-01" cType="1" res="-8.8006546720862389e-03" rms="4.5496785640716553e-01" purity="5.4586893320083618e-01" nType="0">
          <Node pos="l" depth="2" NCoef="0" IVar="-1" Cut="0.0000000000000000e+00" cType="1" res="-1.0562507668510079e-03" rms="4.5546445250511169e-01" purity="5.2448463439941406e-01" nType="-99"/>
          <Node pos="r" depth="2" NCoef="0" IVar="-1" Cut="0.0000000000000000e+00" cType="1" res="1.3668434694409370e-03" rms="4.5174264907836914e-01" purity="6.2811678647994995e-01" nType="-99"/>
        </Node>
        <Node pos="r" depth="1" NCoef="0" IVar="3" Cut="-5.0952024757862091e-02" cType="1" res="8.3213737234473228e-03" rms="4.5503136515617371e-01" purity="4.9271553754806519e-01" nType="0">
          <Node pos="l" depth="2" NCoef="0" IVar="-1" Cut="0.0000000000000000e+00" cType="1" res="1.8687845440581441e-03" rms="4.4739723205566406e-01" purity="5.7782226800918579e-01" nType="-99"/>
          <Node pos="r" depth="2" NCoef="0" IVar="-1" Cut="0.0000000000000000e+00" cType="1" res="3.2949214801192284e-04" rms="4.5604789257049561e-01" purity="4.8032844066619873e-01" nType="-99"/>
        </Node>
      </Node>
    </BinaryTree>
    <BinaryTree type="DecisionTree" boostWeight="1.0000000000000000e+00" itree="798">
      <Node pos="s" depth="0" NCoef="0" IVar="6" Cut="2.5537247657775879e+00" cType="1" res="-5.2468292415142059e-04" rms="4.5464816689491272e-01" purity="4.9855634570121765e-01" nType="0">
        <Node pos="l" depth="1" NCoef="0" IVar="6" Cut="1.4773590564727783e+00" cType="1" res="-5.1580774597823620e-03" rms="4.5679873228073120e-01" purity="5.2978891134262085e-01" nType="0">
          <Node pos="l" depth="2" NCoef="0" IVar="-1" Cut="0.0000000000000000e+00" cType="1" res="1.5773988561704755e-03" rms="4.4364157319068909e-01" purity="6.3935232162475586e-01" nType="-99"/>
          <Node pos="r" depth="2" NCoef="0" IVar="-1" Cut="0.0000000000000000e+00" cType="1" res="-4.8521801363676786e-04" rms="4.5785301923751831e-01" purity="5.2005833387374878e-01" nType="-99"/>
        </Node>
        <Node pos="r" depth="1" NCoef="0" IVar="3" Cut="7.8903697431087494e-02" cType="1" res="2.2436661645770073e-02" rms="4.4312271475791931e-01" purity="3.4377923607826233e-01" nType="0">
          <Node pos="l" depth="2" NCoef="0" IVar="-1" Cut="0.0000000000000000e+00" cType="1" res="2.6019420474767685e-03" rms="4.5946335792541504e-01" purity="3.9334651827812195e-01" nType="-99"/>
          <Node pos="r" depth="2" NCoef="0" IVar="-1" Cut="0.0000000000000000e+00" cType="1" res="1.0366070637246594e-04" rms="4.2031258344650269e-01" purity="2.8023695945739746e-01" nType="-99"/>
        </Node>
      </Node>
    </BinaryTree>
    <BinaryTree type="DecisionTree" boostWeight="1.0000000000000000e+00" itree="799">
      <Node pos="s" depth="0" NCoef="0" IVar="3" Cut="-5.7782348245382309e-02" cType="1" res="4.5240772888064384e-03" rms="4.5284810662269592e-01" purity="5.0253480672836304e-01" nType="0">
        <Node pos="l" depth="1" NCoef="0" IVar="-1" Cut="0.0000000000000000e+00" cType="1" res="2.0079768728464842e-03" rms="4.4683969020843506e-01" purity="5.9942770004272461e-01" nType="-99"/>
        <Node pos="r" depth="1" NCoef="0" IVar="3" Cut="1.7668458819389343e-01" cType="1" res="1.5418896218761802e-03" rms="4.5339867472648621e-01" purity="4.9197003245353699e-01" nType="0">
          <Node pos="l" depth="2" NCoef="0" IVar="-1" Cut="0.0000000000000000e+00" cType="1" res="-5.6142416724469513e-05" rms="4.5415905117988586e-01" purity="4.9486535787582397e-01" nType="-99"/>
          <Node pos="r" depth="2" NCoef="0" IVar="-1" Cut="0.0000000000000000e+00" cType="1" res="2.2336500696837902e-03" rms="4.4195634126663208e-01" purity="4.5365852117538452e-01" nType="-99"/>
        </Node>
      </Node>
    </BinaryTree>
    <BinaryTree type="DecisionTree" boostWeight="1.0000000000000000e+00" itree="800">
      <Node pos="s" depth="0" NCoef="0" IVar="1" Cut="8.7644689941406250e+02" cType="1" res="1.9112415611743927e-03" rms="4.5405966043472290e-01" purity="5.0233864784240723e-01" nType="0">
        <Node pos="l" depth="1" NCoef="0" IVar="4" Cut="2.9106262326240540e-01" cType="1" res="-9.8091410472989082e-04" rms="4.5528352260589600e-01" purity="4.8776605725288391e-01" nType="0">
          <Node pos="l" depth="2" NCoef="0" IVar="-1" Cut="0.0000000000000000e+00" cType="1" res="-1.0180773679167032e-03" rms="4.5027211308479309e-01" purity="4.0427908301353455e-01" nType="-99"/>
          <Node pos="r" depth="2" NCoef="0" IVar="-1" Cut="0.0000000000000000e+00" cType="1" res="3.7242763210088015e-04" rms="4.5743015408515930e-01" purity="5.2659332752227783e-01" nType="-99"/>
        </Node>
        <Node pos="r" depth="1" NCoef="0" IVar="-1" Cut="0.0000000000000000e+00" cType="1" res="2.3172902874648571e-03" rms="4.3816214799880981e-01" purity="6.7195183038711548e-01" nType="-99"/>
      </Node>
    </BinaryTree>
    <BinaryTree type="DecisionTree" boostWeight="1.0000000000000000e+00" itree="801">
      <Node pos="s" depth="0" NCoef="0" IVar="5" Cut="9.6047532558441162e-01" cType="1" res="5.4970728233456612e-03" rms="4.5412221550941467e-01" purity="5.0623083114624023e-01" nType="0">
        <Node pos="l" depth="1" NCoef="0" IVar="0" Cut="2.3516161441802979e+00" cType="1" res="1.2884682044386864e-02" rms="4.5981606841087341e-01" purity="4.2474564909934998e-01" nType="0">
          <Node pos="l" depth="2" NCoef="0" IVar="-1" Cut="0.0000000000000000e+00" cType="1" res="1.4735273907717783e-05" rms="4.4936946034431458e-01" purity="3.3505073189735413e-01" nType="-99"/>
          <Node pos="r" depth="2" NCoef="0" IVar="-1" Cut="0.0000000000000000e+00" cType="1" res="1.6008628299459815e-03" rms="4.7197672724723816e-01" purity="5.3595668077468872e-01" nType="-99"/>
        </Node>
        <Node pos="r" depth="1" NCoef="0" IVar="5" Cut="9.7085332870483398e-01" cType="1" res="-6.5164132975041866e-03" rms="4.4444531202316284e-01" purity="6.3873934745788574e-01" nType="0">
          <Node pos="l" depth="2" NCoef="0" IVar="-1" Cut="0.0000000000000000e+00" cType="1" res="-1.8168076639994979e-03" rms="4.6476504206657410e-01" purity="5.3219449520111084e-01" nType="-99"/>
          <Node pos="r" depth="2" NCoef="0" IVar="-1" Cut="0.0000000000000000e+00" cType="1" res="4.0213589090853930e-04" rms="4.3281361460685730e-01" purity="6.9506728649139404e-01" nType="-99"/>
        </Node>
      </Node>
    </BinaryTree>
    <BinaryTree type="DecisionTree" boostWeight="1.0000000000000000e+00" itree="802">
      <Node pos="s" depth="0" NCoef="0" IVar="8" Cut="9.6316242218017578e-01" cType="1" res="1.2948733055964112e-03" rms="4.5260274410247803e-01" purity="5.0111329555511475e-01" nType="0">
        <Node pos="l" depth="1" NCoef="0" IVar="0" Cut="2.3269996643066406e+00" cType="1" res="-1.0968375951051712e-02" rms="4.5195528864860535e-01" purity="5.3219008445739746e-01" nType="0">
          <Node pos="l" depth="2" NCoef="0" IVar="-1" Cut="0.0000000000000000e+00" cType="1" res="-2.0820121280848980e-03" rms="4.4844353199005127e-01" purity="3.4871345758438110e-01" nType="-99"/>
          <Node pos="r" depth="2" NCoef="0" IVar="-1" Cut="0.0000000000000000e+00" cType="1" res="1.2983448687009513e-04" rms="4.5350429415702820e-01" purity="6.4018797874450684e-01" nType="-99"/>
        </Node>
        <Node pos="r" depth="1" NCoef="0" IVar="3" Cut="2.7774628251791000e-02" cType="1" res="9.5276869833469391e-03" rms="4.5285061001777649e-01" purity="4.8025023937225342e-01" nType="0">
          <Node pos="l" depth="2" NCoef="0" IVar="-1" Cut="0.0000000000000000e+00" cType="1" res="-1.6786523337941617e-04" rms="4.5607027411460876e-01" purity="5.0497144460678101e-01" nType="-99"/>
          <Node pos="r" depth="2" NCoef="0" IVar="-1" Cut="0.0000000000000000e+00" cType="1" res="1.4616554835811257e-03" rms="4.4892346858978271e-01" purity="4.5320948958396912e-01" nType="-99"/>
        </Node>
      </Node>
    </BinaryTree>
    <BinaryTree type="DecisionTree" boostWeight="1.0000000000000000e+00" itree="803">
      <Node pos="s" depth="0" NCoef="0" IVar="6" Cut="2.2277653217315674e+00" cType="1" res="-4.9003595486283302e-03" rms="4.5219904184341431e-01" purity="4.9340933561325073e-01" nType="0">
        <Node pos="l" depth="1" NCoef="0" IVar="4" Cut="2.8375750780105591e-01" cType="1" res="2.6138951070606709e-03" rms="4.5500570535659790e-01" purity="5.6214106082916260e-01" nType="0">
          <Node pos="l" depth="2" NCoef="0" IVar="-1" Cut="0.0000000000000000e+00" cType="1" res="1.6893221763893962e-03" rms="4.5981299877166748e-01" purity="5.4705637693405151e-01" nType="-99"/>
          <Node pos="r" depth="2" NCoef="0" IVar="-1" Cut="0.0000000000000000e+00" cType="1" res="-4.2082654545083642e-04" rms="4.5286053419113159e-01" purity="5.6771463155746460e-01" nType="-99"/>
        </Node>
        <Node pos="r" depth="1" NCoef="0" IVar="2" Cut="8.2403015136718750e+01" cType="1" res="-1.3505364768207073e-02" rms="4.4880893826484680e-01" purity="4.1470065712928772e-01" nType="0">
          <Node pos="l" depth="2" NCoef="0" IVar="-1" Cut="0.0000000000000000e+00" cType="1" res="-2.8289845213294029e-03" rms="4.3929946422576904e-01" purity="3.2561036944389343e-01" nType="-99"/>
          <Node pos="r" depth="2" NCoef="0" IVar="-1" Cut="0.0000000000000000e+00" cType="1" res="-3.7660574889741838e-04" rms="4.5091083645820618e-01" purity="4.3761500716209412e-01" nType="-99"/>
        </Node>
      </Node>
    </BinaryTree>
    <BinaryTree type="DecisionTree" boostWeight="1.0000000000000000e+00" itree="804">
      <Node pos="s" depth="0" NCoef="0" IVar="6" Cut="2.7244384288787842e+00" cType="1" res="-1.0877616005018353e-03" rms="4.5582890510559082e-01" purity="4.9860301613807678e-01" nType="0">
        <Node pos="l" depth="1" NCoef="0" IVar="5" Cut="9.4965302944183350e-01" cType="1" res="-4.0206750854849815e-03" rms="4.5797428488731384e-01" purity="5.1949536800384521e-01" nType="0">
          <Node pos="l" depth="2" NCoef="0" IVar="-1" Cut="0.0000000000000000e+00" cType="1" res="3.8872211007401347e-04" rms="4.5841154456138611e-01" purity="4.0830963850021362e-01" nType="-99"/>
          <Node pos="r" depth="2" NCoef="0" IVar="-1" Cut="0.0000000000000000e+00" cType="1" res="-7.8661175211891532e-04" rms="4.5745286345481873e-01" purity="6.0839462280273438e-01" nType="-99"/>
        </Node>
        <Node pos="r" depth="1" NCoef="0" IVar="-1" Cut="0.0000000000000000e+00" cType="1" res="1.9165035337209702e-03" rms="4.3452915549278259e-01" purity="3.0520468950271606e-01" nType="-99"/>
      </Node>
    </BinaryTree>
    <BinaryTree type="DecisionTree" boostWeight="1.0000000000000000e+00" itree="805">
      <Node pos="s" depth="0" NCoef="0" IVar="6" Cut="1.4909123182296753e+00" cType="1" res="-2.7135275304317474e-03" rms="4.5462659001350403e-01" purity="4.9866136908531189e-01" nType="0">
        <Node pos="l" depth="1" NCoef="0" IVar="-1" Cut="0.0000000000000000e+00" cType="1" res="-2.7102448511868715e-03" rms="4.5253238081932068e-01" purity="5.6381058692932129e-01" nType="-99"/>
        <Node pos="r" depth="1" NCoef="0" IVar="3" Cut="1.6691933572292328e-01" cType="1" res="4.3334413203410804e-04" rms="4.5463970303535461e-01" purity="4.9356821179389954e-01" nType="0">
          <Node pos="l" depth="2" NCoef="0" IVar="-1" Cut="0.0000000000000000e+00" cType="1" res="-9.9371325632091612e-05" rms="4.5465999841690063e-01" purity="4.9725443124771118e-01" nType="-99"/>
          <Node pos="r" depth="2" NCoef="0" IVar="-1" Cut="0.0000000000000000e+00" cType="1" res="1.7039051745086908e-03" rms="4.5359832048416138e-01" purity="4.4651594758033752e-01" nType="-99"/>
        </Node>
      </Node>
    </BinaryTree>
    <BinaryTree type="DecisionTree" boostWeight="1.0000000000000000e+00" itree="806">
      <Node pos="s" depth="0" NCoef="0" IVar="3" Cut="1.3863059878349304e-01" cType="1" res="2.7686648536473513e-03" rms="4.5422393083572388e-01" purity="5.0166964530944824e-01" nType="0">
        <Node pos="l" depth="1" NCoef="0" IVar="1" Cut="5.7680139160156250e+02" cType="1" res="5.5810594931244850e-03" rms="4.5448565483093262e-01" purity="5.1424467563629150e-01" nType="0">
          <Node pos="l" depth="2" NCoef="0" IVar="-1" Cut="0.0000000000000000e+00" cType="1" res="-1.5280312800314277e-04" rms="4.5518422126770020e-01" purity="4.5319131016731262e-01" nType="-99"/>
          <Node pos="r" depth="2" NCoef="0" IVar="-1" Cut="0.0000000000000000e+00" cType="1" res="1.1692659463733435e-03" rms="4.5303878188133240e-01" purity="6.1387509107589722e-01" nType="-99"/>
        </Node>
        <Node pos="r" depth="1" NCoef="0" IVar="1" Cut="5.7671752929687500e+02" cType="1" res="-1.7990143969655037e-02" rms="4.5174625515937805e-01" purity="4.0885093808174133e-01" nType="0">
          <Node pos="l" depth="2" NCoef="0" IVar="-1" Cut="0.0000000000000000e+00" cType="1" res="6.7591761762741953e-05" rms="4.4268727302551270e-01" purity="3.5737797617912292e-01" nType="-99"/>
          <Node pos="r" depth="2" NCoef="0" IVar="-1" Cut="0.0000000000000000e+00" cType="1" res="-2.6989581529051065e-03" rms="4.6246361732482910e-01" purity="4.7836840152740479e-01" nType="-99"/>
        </Node>
      </Node>
    </BinaryTree>
    <BinaryTree type="DecisionTree" boostWeight="1.0000000000000000e+00" itree="807">
      <Node pos="s" depth="0" NCoef="0" IVar="3" Cut="1.6798481345176697e-01" cType="1" res="-2.6664137840270996e-04" rms="4.5393592119216919e-01" purity="5.0213003158569336e-01" nType="0">
        <Node pos="l" depth="1" NCoef="0" IVar="6" Cut="2.3612318038940430e+00" cType="1" res="-3.1633961480110884e-03" rms="4.5394569635391235e-01" purity="5.0528317689895630e-01" nType="0">
          <Node pos="l" depth="2" NCoef="0" IVar="-1" Cut="0.0000000000000000e+00" cType="1" res="-4.9751275219023228e-04" rms="4.5530050992965698e-01" purity="5.4923272132873535e-01" nType="-99"/>
          <Node pos="r" depth="2" NCoef="0" IVar="-1" Cut="0.0000000000000000e+00" cType="1" res="5.2942143520340323e-04" rms="4.5054799318313599e-01" purity="4.0216928720474243e-01" nType="-99"/>
        </Node>
        <Node pos="r" depth="1" NCoef="0" IVar="-1" Cut="0.0000000000000000e+00" cType="1" res="2.4073305539786816e-03" rms="4.5213490724563599e-01" purity="4.6127954125404358e-01" nType="-99"/>
      </Node>
    </BinaryTree>
    <BinaryTree type="DecisionTree" boostWeight="1.0000000000000000e+00" itree="808">
      <Node pos="s" depth="0" NCoef="0" IVar="7" Cut="1.2958198547363281e+02" cType="1" res="8.5477053653448820e-04" rms="4.5600804686546326e-01" purity="5.0134235620498657e-01" nType="0">
        <Node pos="l" depth="1" NCoef="0" IVar="1" Cut="4.0644970703125000e+02" cType="1" res="3.1870678067207336e-03" rms="4.5620122551918030e-01" purity="4.9538820981979370e-01" nType="0">
          <Node pos="l" depth="2" NCoef="0" IVar="-1" Cut="0.0000000000000000e+00" cType="1" res="-9.1807736316695809e-04" rms="4.2903751134872437e-01" purity="3.3266508579254150e-01" nType="-99"/>
          <Node pos="r" depth="2" NCoef="0" IVar="-1" Cut="0.0000000000000000e+00" cType="1" res="4.1178095852956176e-04" rms="4.6156910061836243e-01" purity="5.2919346094131470e-01" nType="-99"/>
        </Node>
        <Node pos="r" depth="1" NCoef="0" IVar="-1" Cut="0.0000000000000000e+00" cType="1" res="-2.4116628337651491e-03" rms="4.5130461454391479e-01" purity="5.9608459472656250e-01" nType="-99"/>
      </Node>
    </BinaryTree>
    <BinaryTree type="DecisionTree" boostWeight="1.0000000000000000e+00" itree="809">
      <Node pos="s" depth="0" NCoef="0" IVar="3" Cut="2.9063588008284569e-03" cType="1" res="3.7838488351553679e-03" rms="4.5389047265052795e-01" purity="5.0559353828430176e-01" nType="0">
        <Node pos="l" depth="1" NCoef="0" IVar="8" Cut="1.5646569728851318e+00" cType="1" res="1.3807478360831738e-02" rms="4.5071607828140259e-01" purity="5.5587297677993774e-01" nType="0">
          <Node pos="l" depth="2" NCoef="0" IVar="-1" Cut="0.0000000000000000e+00" cType="1" res="4.8035735380835831e-04" rms="4.5017096400260925e-01" purity="5.5831700563430786e-01" nType="-99"/>
          <Node pos="r" depth="2" NCoef="0" IVar="-1" Cut="0.0000000000000000e+00" cType="1" res="3.4140211064368486e-03" rms="4.5219025015830994e-01" purity="5.3954094648361206e-01" nType="-99"/>
        </Node>
        <Node pos="r" depth="1" NCoef="0" IVar="5" Cut="9.7981423139572144e-01" cType="1" res="-3.1512444838881493e-03" rms="4.5594489574432373e-01" purity="4.7080653905868530e-01" nType="0">
          <Node pos="l" depth="2" NCoef="0" IVar="-1" Cut="0.0000000000000000e+00" cType="1" res="1.1846146662719548e-04" rms="4.5738390088081360e-01" purity="4.3696334958076477e-01" nType="-99"/>
          <Node pos="r" depth="2" NCoef="0" IVar="-1" Cut="0.0000000000000000e+00" cType="1" res="-2.3993263021111488e-03" rms="4.4599318504333496e-01" purity="6.7421597242355347e-01" nType="-99"/>
        </Node>
      </Node>
    </BinaryTree>
    <BinaryTree type="DecisionTree" boostWeight="1.0000000000000000e+00" itree="810">
      <Node pos="s" depth="0" NCoef="0" IVar="3" Cut="3.9830082096159458e-03" cType="1" res="-2.5197025388479233e-03" rms="4.5159623026847839e-01" purity="4.9721455574035645e-01" nType="0">
        <Node pos="l" depth="1" NCoef="0" IVar="0" Cut="2.5117900371551514e+00" cType="1" res="-1.4605202712118626e-02" rms="4.5235806703567505e-01" purity="5.2558374404907227e-01" nType="0">
          <Node pos="l" depth="2" NCoef="0" IVar="-1" Cut="0.0000000000000000e+00" cType="1" res="-2.1864327136427164e-03" rms="4.5773276686668396e-01" purity="3.5473597049713135e-01" nType="-99"/>
          <Node pos="r" depth="2" NCoef="0" IVar="-1" Cut="0.0000000000000000e+00" cType="1" res="1.0218664829153568e-04" rms="4.4742763042449951e-01" purity="6.5966272354125977e-01" nType="-99"/>
        </Node>
        <Node pos="r" depth="1" NCoef="0" IVar="7" Cut="7.1526107788085938e+01" cType="1" res="5.7213171385228634e-03" rms="4.5089030265808105e-01" purity="4.7786974906921387e-01" nType="0">
          <Node pos="l" depth="2" NCoef="0" IVar="-1" Cut="0.0000000000000000e+00" cType="1" res="-3.6549745709635317e-04" rms="4.4621545076370239e-01" purity="4.0032687783241272e-01" nType="-99"/>
          <Node pos="r" depth="2" NCoef="0" IVar="-1" Cut="0.0000000000000000e+00" cType="1" res="1.2367450399324298e-03" rms="4.5625296235084534e-01" purity="5.7451879978179932e-01" nType="-99"/>
        </Node>
      </Node>
    </BinaryTree>
    <BinaryTree type="DecisionTree" boostWeight="1.0000000000000000e+00" itree="811">
      <Node pos="s" depth="0" NCoef="0" IVar="4" Cut="1.5589511394500732e-01" cType="1" res="1.9680238328874111e-03" rms="4.5461252331733704e-01" purity="5.0041687488555908e-01" nType="0">
        <Node pos="l" depth="1" NCoef="0" IVar="0" Cut="2.8019201755523682e+00" cType="1" res="-3.1611457467079163e-02" rms="4.4455528259277344e-01" purity="3.6211195588111877e-01" nType="0">
          <Node pos="l" depth="2" NCoef="0" IVar="-1" Cut="0.0000000000000000e+00" cType="1" res="-7.4924889486283064e-04" rms="4.3192112445831299e-01" purity="2.7285885810852051e-01" nType="-99"/>
          <Node pos="r" depth="2" NCoef="0" IVar="-1" Cut="0.0000000000000000e+00" cType="1" res="-3.2144063152372837e-03" rms="4.5655399560928345e-01" purity="4.5745700597763062e-01" nType="-99"/>
        </Node>
        <Node pos="r" depth="1" NCoef="0" IVar="4" Cut="6.6916632652282715e-01" cType="1" res="6.1028660275042057e-03" rms="4.5566451549530029e-01" purity="5.1744717359542847e-01" nType="0">
          <Node pos="l" depth="2" NCoef="0" IVar="-1" Cut="0.0000000000000000e+00" cType="1" res="5.8039528084918857e-04" rms="4.5686003565788269e-01" purity="5.1377397775650024e-01" nType="-99"/>
          <Node pos="r" depth="2" NCoef="0" IVar="-1" Cut="0.0000000000000000e+00" cType="1" res="-1.3799562584608793e-03" rms="4.4408729672431946e-01" purity="5.4965949058532715e-01" nType="-99"/>
        </Node>
      </Node>
    </BinaryTree>
    <BinaryTree type="DecisionTree" boostWeight="1.0000000000000000e+00" itree="812">
      <Node pos="s" depth="0" NCoef="0" IVar="1" Cut="9.1999981689453125e+02" cType="1" res="-4.4879745692014694e-03" rms="4.5420411229133606e-01" purity="4.9683323502540588e-01" nType="0">
        <Node pos="l" depth="1" NCoef="0" IVar="2" Cut="1.5519409179687500e+02" cType="1" res="-2.4110781960189342e-03" rms="4.5391997694969177e-01" purity="4.8886635899543762e-01" nType="0">
          <Node pos="l" depth="2" NCoef="0" IVar="-1" Cut="0.0000000000000000e+00" cType="1" res="-3.7748241447843611e-04" rms="4.5417341589927673e-01" purity="4.8610886931419373e-01" nType="-99"/>
          <Node pos="r" depth="2" NCoef="0" IVar="-1" Cut="0.0000000000000000e+00" cType="1" res="1.4153561787679791e-03" rms="4.5144370198249817e-01" purity="5.0757944583892822e-01" nType="-99"/>
        </Node>
        <Node pos="r" depth="1" NCoef="0" IVar="-1" Cut="0.0000000000000000e+00" cType="1" res="-2.1383401472121477e-03" rms="4.5713114738464355e-01" purity="6.0605007410049438e-01" nType="-99"/>
      </Node>
    </BinaryTree>
    <BinaryTree type="DecisionTree" boostWeight="1.0000000000000000e+00" itree="813">
      <Node pos="s" depth="0" NCoef="0" IVar="2" Cut="1.1558240509033203e+02" cType="1" res="-1.8395532388240099e-03" rms="4.5111745595932007e-01" purity="4.9859836697578430e-01" nType="0">
        <Node pos="l" depth="1" NCoef="0" IVar="7" Cut="9.2544654846191406e+01" cType="1" res="-9.9359657615423203e-03" rms="4.5323476195335388e-01" purity="4.7766983509063721e-01" nType="0">
          <Node pos="l" depth="2" NCoef="0" IVar="-1" Cut="0.0000000000000000e+00" cType="1" res="-2.9242382152006030e-04" rms="4.5066696405410767e-01" purity="4.6594679355621338e-01" nType="-99"/>
          <Node pos="r" depth="2" NCoef="0" IVar="-1" Cut="0.0000000000000000e+00" cType="1" res="-2.9217109549790621e-03" rms="4.6923354268074036e-01" purity="5.6009864807128906e-01" nType="-99"/>
        </Node>
        <Node pos="r" depth="1" NCoef="0" IVar="1" Cut="6.7910272216796875e+02" cType="1" res="1.2377807870507240e-02" rms="4.4702050089836121e-01" purity="5.3534907102584839e-01" nType="0">
          <Node pos="l" depth="2" NCoef="0" IVar="-1" Cut="0.0000000000000000e+00" cType="1" res="2.6352308850619011e-05" rms="4.4981378316879272e-01" purity="4.7360467910766602e-01" nType="-99"/>
          <Node pos="r" depth="2" NCoef="0" IVar="-1" Cut="0.0000000000000000e+00" cType="1" res="2.1411669440567493e-03" rms="4.4139832258224487e-01" purity="6.4186400175094604e-01" nType="-99"/>
        </Node>
      </Node>
    </BinaryTree>
    <BinaryTree type="DecisionTree" boostWeight="1.0000000000000000e+00" itree="814">
      <Node pos="s" depth="0" NCoef="0" IVar="9" Cut="2.5994452834129333e-01" cType="1" res="-2.3015600163489580e-03" rms="4.5273748040199280e-01" purity="4.9940237402915955e-01" nType="0">
        <Node pos="l" depth="1" NCoef="0" IVar="7" Cut="6.5458374023437500e+01" cType="1" res="2.3262193426489830e-02" rms="4.4364774227142334e-01" purity="5.8015561103820801e-01" nType="0">
          <Node pos="l" depth="2" NCoef="0" IVar="-1" Cut="0.0000000000000000e+00" cType="1" res="-1.2348681048024446e-04" rms="4.4747427105903625e-01" purity="4.6590664982795715e-01" nType="-99"/>
          <Node pos="r" depth="2" NCoef="0" IVar="-1" Cut="0.0000000000000000e+00" cType="1" res="2.5711797643452883e-03" rms="4.4008627533912659e-01" purity="6.6019690036773682e-01" nType="-99"/>
        </Node>
        <Node pos="r" depth="1" NCoef="0" IVar="3" Cut="-3.6395732313394547e-02" cType="1" res="-7.3172356933355331e-03" rms="4.5433083176612854e-01" purity="4.8355835676193237e-01" nType="0">
          <Node pos="l" depth="2" NCoef="0" IVar="-1" Cut="0.0000000000000000e+00" cType="1" res="-2.1679322235286236e-03" rms="4.5669341087341309e-01" purity="5.1539134979248047e-01" nType="-99"/>
          <Node pos="r" depth="2" NCoef="0" IVar="-1" Cut="0.0000000000000000e+00" cType="1" res="-8.0455196439288557e-05" rms="4.5357900857925415e-01" purity="4.7641107439994812e-01" nType="-99"/>
        </Node>
      </Node>
    </BinaryTree>
    <BinaryTree type="DecisionTree" boostWeight="1.0000000000000000e+00" itree="815">
      <Node pos="s" depth="0" NCoef="0" IVar="5" Cut="9.6088826656341553e-01" cType="1" res="5.8247293345630169e-03" rms="4.5578607916831970e-01" purity="5.0643122196197510e-01" nType="0">
        <Node pos="l" depth="1" NCoef="0" IVar="1" Cut="7.4905847167968750e+02" cType="1" res="1.3040282763540745e-02" rms="4.6064171195030212e-01" purity="4.2461606860160828e-01" nType="0">
          <Node pos="l" depth="2" NCoef="0" IVar="-1" Cut="0.0000000000000000e+00" cType="1" res="1.1628128122538328e-03" rms="4.5803743600845337e-01" purity="4.0641087293624878e-01" nType="-99"/>
          <Node pos="r" depth="2" NCoef="0" IVar="-1" Cut="0.0000000000000000e+00" cType="1" res="-1.1412057792767882e-03" rms="4.7386240959167480e-01" purity="5.2806657552719116e-01" nType="-99"/>
        </Node>
        <Node pos="r" depth="1" NCoef="0" IVar="2" Cut="1.0802818298339844e+02" cType="1" res="-5.8318632654845715e-03" rms="4.4758504629135132e-01" purity="6.3860207796096802e-01" nType="0">
          <Node pos="l" depth="2" NCoef="0" IVar="-1" Cut="0.0000000000000000e+00" cType="1" res="-1.2369134929031134e-03" rms="4.5555692911148071e-01" purity="6.1152768135070801e-01" nType="-99"/>
          <Node pos="r" depth="2" NCoef="0" IVar="-1" Cut="0.0000000000000000e+00" cType="1" res="7.9101382289081812e-04" rms="4.3632677197456360e-01" purity="6.7402267456054688e-01" nType="-99"/>
        </Node>
      </Node>
    </BinaryTree>
    <BinaryTree type="DecisionTree" boostWeight="1.0000000000000000e+00" itree="816">
      <Node pos="s" depth="0" NCoef="0" IVar="8" Cut="1.6118181943893433e+00" cType="1" res="-4.0403846651315689e-04" rms="4.5349621772766113e-01" purity="5.0172775983810425e-01" nType="0">
        <Node pos="l" depth="1" NCoef="0" IVar="8" Cut="1.3505152463912964e+00" cType="1" res="2.5243586860597134e-03" rms="4.5462739467620850e-01" purity="5.1433318853378296e-01" nType="0">
          <Node pos="l" depth="2" NCoef="0" IVar="-1" Cut="0.0000000000000000e+00" cType="1" res="-7.1591071900911629e-05" rms="4.5440751314163208e-01" purity="5.2026933431625366e-01" nType="-99"/>
          <Node pos="r" depth="2" NCoef="0" IVar="-1" Cut="0.0000000000000000e+00" cType="1" res="1.3365712948143482e-03" rms="4.5528557896614075e-01" purity="4.8439642786979675e-01" nType="-99"/>
        </Node>
        <Node pos="r" depth="1" NCoef="0" IVar="3" Cut="2.1021215245127678e-02" cType="1" res="-2.0914182066917419e-02" rms="4.4495332241058350e-01" purity="4.1344052553176880e-01" nType="0">
          <Node pos="l" depth="2" NCoef="0" IVar="-1" Cut="0.0000000000000000e+00" cType="1" res="-2.5157199706882238e-04" rms="4.5215180516242981e-01" purity="4.7219088673591614e-01" nType="-99"/>
          <Node pos="r" depth="2" NCoef="0" IVar="-1" Cut="0.0000000000000000e+00" cType="1" res="-2.2301326971501112e-03" rms="4.3891060352325439e-01" purity="3.6838272213935852e-01" nType="-99"/>
        </Node>
      </Node>
    </BinaryTree>
    <BinaryTree type="DecisionTree" boostWeight="1.0000000000000000e+00" itree="817">
      <Node pos="s" depth="0" NCoef="0" IVar="4" Cut="6.8606352806091309e-01" cType="1" res="-2.9454294126480818e-03" rms="4.5371451973915100e-01" purity="4.9800992012023926e-01" nType="0">
        <Node pos="l" depth="1" NCoef="0" IVar="3" Cut="-6.2677457928657532e-02" cType="1" res="-5.5292770266532898e-03" rms="4.5424965023994446e-01" purity="4.9058574438095093e-01" nType="0">
          <Node pos="l" depth="2" NCoef="0" IVar="-1" Cut="0.0000000000000000e+00" cType="1" res="-2.9866704717278481e-03" rms="4.6370512247085571e-01" purity="5.1046413183212280e-01" nType="-99"/>
          <Node pos="r" depth="2" NCoef="0" IVar="-1" Cut="0.0000000000000000e+00" cType="1" res="-1.8324973643757403e-04" rms="4.5352393388748169e-01" purity="4.8934563994407654e-01" nType="-99"/>
        </Node>
        <Node pos="r" depth="1" NCoef="0" IVar="-1" Cut="0.0000000000000000e+00" cType="1" res="1.8176783341914415e-03" rms="4.4586583971977234e-01" purity="5.8923768997192383e-01" nType="-99"/>
      </Node>
    </BinaryTree>
    <BinaryTree type="DecisionTree" boostWeight="1.0000000000000000e+00" itree="818">
      <Node pos="s" depth="0" NCoef="0" IVar="7" Cut="7.0499580383300781e+01" cType="1" res="3.3187891822308302e-03" rms="4.5388171076774597e-01" purity="5.0356107950210571e-01" nType="0">
        <Node pos="l" depth="1" NCoef="0" IVar="3" Cut="-2.9960577376186848e-03" cType="1" res="-6.3752518035471439e-03" rms="4.5149981975555420e-01" purity="4.3204107880592346e-01" nType="0">
          <Node pos="l" depth="2" NCoef="0" IVar="-1" Cut="0.0000000000000000e+00" cType="1" res="9.5480447635054588e-04" rms="4.6057385206222534e-01" purity="5.0049775838851929e-01" nType="-99"/>
          <Node pos="r" depth="2" NCoef="0" IVar="-1" Cut="0.0000000000000000e+00" cType="1" res="-1.2797971721738577e-03" rms="4.4522264599800110e-01" purity="3.8937765359878540e-01" nType="-99"/>
        </Node>
        <Node pos="r" depth="1" NCoef="0" IVar="8" Cut="7.0225912332534790e-01" cType="1" res="1.5128841623663902e-02" rms="4.5648863911628723e-01" purity="5.9069246053695679e-01" nType="0">
          <Node pos="l" depth="2" NCoef="0" IVar="-1" Cut="0.0000000000000000e+00" cType="1" res="-1.0487225372344255e-03" rms="4.5045962929725647e-01" purity="5.9373974800109863e-01" nType="-99"/>
          <Node pos="r" depth="2" NCoef="0" IVar="-1" Cut="0.0000000000000000e+00" cType="1" res="1.4798678457736969e-03" rms="4.5773717761039734e-01" purity="5.8986335992813110e-01" nType="-99"/>
        </Node>
      </Node>
    </BinaryTree>
    <BinaryTree type="DecisionTree" boostWeight="1.0000000000000000e+00" itree="819">
      <Node pos="s" depth="0" NCoef="0" IVar="5" Cut="9.8015779256820679e-01" cType="1" res="-7.3517393320798874e-03" rms="4.5184084773063660e-01" purity="4.9140650033950806e-01" nType="0">
        <Node pos="l" depth="1" NCoef="0" IVar="5" Cut="9.6701914072036743e-01" cType="1" res="-1.1363163590431213e-02" rms="4.5808270573616028e-01" purity="4.4631305336952209e-01" nType="0">
          <Node pos="l" depth="2" NCoef="0" IVar="-1" Cut="0.0000000000000000e+00" cType="1" res="-3.6024954169988632e-04" rms="4.5698526501655579e-01" purity="4.2188736796379089e-01" nType="-99"/>
          <Node pos="r" depth="2" NCoef="0" IVar="-1" Cut="0.0000000000000000e+00" cType="1" res="-2.3378233890980482e-03" rms="4.6235916018486023e-01" purity="5.6191658973693848e-01" nType="-99"/>
        </Node>
        <Node pos="r" depth="1" NCoef="0" IVar="0" Cut="4.3942909240722656e+00" cType="1" res="1.5474707819521427e-02" rms="4.1379764676094055e-01" purity="7.4800419807434082e-01" nType="0">
          <Node pos="l" depth="2" NCoef="0" IVar="-1" Cut="0.0000000000000000e+00" cType="1" res="2.1958369761705399e-03" rms="4.3239539861679077e-01" purity="7.0973569154739380e-01" nType="-99"/>
          <Node pos="r" depth="2" NCoef="0" IVar="-1" Cut="0.0000000000000000e+00" cType="1" res="-6.1071373056620359e-04" rms="3.8651445508003235e-01" purity="7.9895955324172974e-01" nType="-99"/>
        </Node>
      </Node>
    </BinaryTree>
    <BinaryTree type="DecisionTree" boostWeight="1.0000000000000000e+00" itree="820">
      <Node pos="s" depth="0" NCoef="0" IVar="0" Cut="2.5817158222198486e+00" cType="1" res="1.8810803303495049e-03" rms="4.5420056581497192e-01" purity="5.0336933135986328e-01" nType="0">
        <Node pos="l" depth="1" NCoef="0" IVar="0" Cut="2.0527255535125732e+00" cType="1" res="1.0880040936172009e-02" rms="4.5259231328964233e-01" purity="3.7245967984199524e-01" nType="0">
          <Node pos="l" depth="2" NCoef="0" IVar="-1" Cut="0.0000000000000000e+00" cType="1" res="5.8734199228638317e-06" rms="4.4467699527740479e-01" purity="3.2935050129890442e-01" nType="-99"/>
          <Node pos="r" depth="2" NCoef="0" IVar="-1" Cut="0.0000000000000000e+00" cType="1" res="1.9999798387289047e-03" rms="4.6826887130737305e-01" purity="4.6484628319740295e-01" nType="-99"/>
        </Node>
        <Node pos="r" depth="1" NCoef="0" IVar="4" Cut="2.3140253126621246e-01" cType="1" res="-5.5364370346069336e-03" rms="4.5538824796676636e-01" purity="6.1127346754074097e-01" nType="0">
          <Node pos="l" depth="2" NCoef="0" IVar="-1" Cut="0.0000000000000000e+00" cType="1" res="-2.1731301676481962e-03" rms="4.6501255035400391e-01" purity="4.9471592903137207e-01" nType="-99"/>
          <Node pos="r" depth="2" NCoef="0" IVar="-1" Cut="0.0000000000000000e+00" cType="1" res="2.1063296298962086e-04" rms="4.5218017697334290e-01" purity="6.4496952295303345e-01" nType="-99"/>
        </Node>
      </Node>
    </BinaryTree>
    <BinaryTree type="DecisionTree" boostWeight="1.0000000000000000e+00" itree="821">
      <Node pos="s" depth="0" NCoef="0" IVar="9" Cut="1.6815701127052307e-01" cType="1" res="1.0167006403207779e-03" rms="4.5371356606483459e-01" purity="5.0120329856872559e-01" nType="0">
        <Node pos="l" depth="1" NCoef="0" IVar="-1" Cut="0.0000000000000000e+00" cType="1" res="2.1774631459265947e-03" rms="4.3299806118011475e-01" purity="5.9067225456237793e-01" nType="-99"/>
        <Node pos="r" depth="1" NCoef="0" IVar="1" Cut="4.5983178710937500e+02" cType="1" res="-1.5369650209322572e-03" rms="4.5516163110733032e-01" purity="4.9434661865234375e-01" nType="0">
          <Node pos="l" depth="2" NCoef="0" IVar="-1" Cut="0.0000000000000000e+00" cType="1" res="8.2043861038982868e-04" rms="4.4799146056175232e-01" purity="3.9716485142707825e-01" nType="-99"/>
          <Node pos="r" depth="2" NCoef="0" IVar="-1" Cut="0.0000000000000000e+00" cType="1" res="-5.0050567369908094e-04" rms="4.5830962061882019e-01" purity="5.3952056169509888e-01" nType="-99"/>
        </Node>
      </Node>
    </BinaryTree>
    <BinaryTree type="DecisionTree" boostWeight="1.0000000000000000e+00" itree="822">
      <Node pos="s" depth="0" NCoef="0" IVar="3" Cut="-4.0055491030216217e-02" cType="1" res="-6.4258286729454994e-03" rms="4.5527583360671997e-01" purity="4.9349382519721985e-01" nType="0">
        <Node pos="l" depth="1" NCoef="0" IVar="9" Cut="5.8022755384445190e-01" cType="1" res="-2.1860776469111443e-02" rms="4.5541873574256897e-01" purity="5.4167300462722778e-01" nType="0">
          <Node pos="l" depth="2" NCoef="0" IVar="-1" Cut="0.0000000000000000e+00" cType="1" res="-2.5284145958721638e-03" rms="4.5682969689369202e-01" purity="5.4413932561874390e-01" nType="-99"/>
          <Node pos="r" depth="2" NCoef="0" IVar="-1" Cut="0.0000000000000000e+00" cType="1" res="7.8059005318209529e-04" rms="4.5070794224739075e-01" purity="5.3692460060119629e-01" nType="-99"/>
        </Node>
        <Node pos="r" depth="1" NCoef="0" IVar="4" Cut="5.4196190834045410e-01" cType="1" res="-3.1496414449065924e-03" rms="4.5517817139625549e-01" purity="4.8326736688613892e-01" nType="0">
          <Node pos="l" depth="2" NCoef="0" IVar="-1" Cut="0.0000000000000000e+00" cType="1" res="2.5490904590697028e-05" rms="4.5400583744049072e-01" purity="4.7622665762901306e-01" nType="-99"/>
          <Node pos="r" depth="2" NCoef="0" IVar="-1" Cut="0.0000000000000000e+00" cType="1" res="-1.2739968951791525e-03" rms="4.6041715145111084e-01" purity="5.1730608940124512e-01" nType="-99"/>
        </Node>
      </Node>
    </BinaryTree>
    <BinaryTree type="DecisionTree" boostWeight="1.0000000000000000e+00" itree="823">
      <Node pos="s" depth="0" NCoef="0" IVar="4" Cut="6.8819254636764526e-01" cType="1" res="1.6524723032489419e-03" rms="4.5324909687042236e-01" purity="5.0268888473510742e-01" nType="0">
        <Node pos="l" depth="1" NCoef="0" IVar="1" Cut="4.5620101928710938e+02" cType="1" res="-7.6510407961905003e-04" rms="4.5346593856811523e-01" purity="4.9450913071632385e-01" nType="0">
          <Node pos="l" depth="2" NCoef="0" IVar="-1" Cut="0.0000000000000000e+00" cType="1" res="-1.0172695619985461e-03" rms="4.3548211455345154e-01" purity="3.5579496622085571e-01" nType="-99"/>
          <Node pos="r" depth="2" NCoef="0" IVar="-1" Cut="0.0000000000000000e+00" cType="1" res="3.1718768877908587e-04" rms="4.6044060587882996e-01" purity="5.5086344480514526e-01" nType="-99"/>
        </Node>
        <Node pos="r" depth="1" NCoef="0" IVar="-1" Cut="0.0000000000000000e+00" cType="1" res="1.9945371896028519e-03" rms="4.4952163100242615e-01" purity="6.0308080911636353e-01" nType="-99"/>
      </Node>
    </BinaryTree>
    <BinaryTree type="DecisionTree" boostWeight="1.0000000000000000e+00" itree="824">
      <Node pos="s" depth="0" NCoef="0" IVar="4" Cut="5.1367396116256714e-01" cType="1" res="4.0490896208211780e-04" rms="4.5229369401931763e-01" purity="5.0000447034835815e-01" nType="0">
        <Node pos="l" depth="1" NCoef="0" IVar="8" Cut="1.6873314380645752e+00" cType="1" res="-5.8771185576915741e-03" rms="4.5141881704330444e-01" purity="4.7072488069534302e-01" nType="0">
          <Node pos="l" depth="2" NCoef="0" IVar="-1" Cut="0.0000000000000000e+00" cType="1" res="-1.2663520465139300e-04" rms="4.5410674810409546e-01" purity="4.8357704281806946e-01" nType="-99"/>
          <Node pos="r" depth="2" NCoef="0" IVar="-1" Cut="0.0000000000000000e+00" cType="1" res="-2.6209719944745302e-03" rms="4.2579793930053711e-01" purity="3.5877475142478943e-01" nType="-99"/>
        </Node>
        <Node pos="r" depth="1" NCoef="0" IVar="0" Cut="3.3389475345611572e+00" cType="1" res="1.5950970351696014e-02" rms="4.5407792925834656e-01" purity="5.7246226072311401e-01" nType="0">
          <Node pos="l" depth="2" NCoef="0" IVar="-1" Cut="0.0000000000000000e+00" cType="1" res="1.9471424166113138e-03" rms="4.6625325083732605e-01" purity="4.8799848556518555e-01" nType="-99"/>
          <Node pos="r" depth="2" NCoef="0" IVar="-1" Cut="0.0000000000000000e+00" cType="1" res="-8.3149003330618143e-04" rms="4.3172049522399902e-01" purity="7.1231764554977417e-01" nType="-99"/>
        </Node>
      </Node>
    </BinaryTree>
    <BinaryTree type="DecisionTree" boostWeight="1.0000000000000000e+00" itree="825">
      <Node pos="s" depth="0" NCoef="0" IVar="0" Cut="1.0415322780609131e+00" cType="1" res="4.5484486036002636e-03" rms="4.5664706826210022e-01" purity="5.0345951318740845e-01" nType="0">
        <Node pos="l" depth="1" NCoef="0" IVar="-1" Cut="0.0000000000000000e+00" cType="1" res="2.2316472604870796e-03" rms="4.4231808185577393e-01" purity="3.1101188063621521e-01" nType="-99"/>
        <Node pos="r" depth="1" NCoef="0" IVar="6" Cut="2.5206325054168701e+00" cType="1" res="2.3676124401390553e-03" rms="4.5779880881309509e-01" purity="5.2008789777755737e-01" nType="0">
          <Node pos="l" depth="2" NCoef="0" IVar="-1" Cut="0.0000000000000000e+00" cType="1" res="-1.0397339792689309e-04" rms="4.5929154753684998e-01" purity="5.5525660514831543e-01" nType="-99"/>
          <Node pos="r" depth="2" NCoef="0" IVar="-1" Cut="0.0000000000000000e+00" cType="1" res="1.3091500150039792e-03" rms="4.5094761252403259e-01" purity="3.6970403790473938e-01" nType="-99"/>
        </Node>
      </Node>
    </BinaryTree>
    <BinaryTree type="DecisionTree" boostWeight="1.0000000000000000e+00" itree="826">
      <Node pos="s" depth="0" NCoef="0" IVar="5" Cut="9.8708242177963257e-01" cType="1" res="3.8894759491086006e-03" rms="4.5467785000801086e-01" purity="5.0598227977752686e-01" nType="0">
        <Node pos="l" depth="1" NCoef="0" IVar="8" Cut="1.4455193281173706e+00" cType="1" res="6.7554139532148838e-03" rms="4.5833748579025269e-01" purity="4.8260080814361572e-01" nType="0">
          <Node pos="l" depth="2" NCoef="0" IVar="-1" Cut="0.0000000000000000e+00" cType="1" res="7.1438844315707684e-04" rms="4.6219730377197266e-01" purity="5.0546336174011230e-01" nType="-99"/>
          <Node pos="r" depth="2" NCoef="0" IVar="-1" Cut="0.0000000000000000e+00" cType="1" res="-7.6705904211848974e-04" rms="4.4274696707725525e-01" purity="3.9503443241119385e-01" nType="-99"/>
        </Node>
        <Node pos="r" depth="1" NCoef="0" IVar="-1" Cut="0.0000000000000000e+00" cType="1" res="-1.9732345826923847e-03" rms="4.1518095135688782e-01" purity="7.4006384611129761e-01" nType="-99"/>
      </Node>
    </BinaryTree>
    <BinaryTree type="DecisionTree" boostWeight="1.0000000000000000e+00" itree="827">
      <Node pos="s" depth="0" NCoef="0" IVar="0" Cut="1.2114025354385376e+00" cType="1" res="-2.2363201715052128e-03" rms="4.5607823133468628e-01" purity="4.9814951419830322e-01" nType="0">
        <Node pos="l" depth="1" NCoef="0" IVar="6" Cut="2.2093648910522461e+00" cType="1" res="2.7367802336812019e-02" rms="4.4199660420417786e-01" purity="3.2071703672409058e-01" nType="0">
          <Node pos="l" depth="2" NCoef="0" IVar="-1" Cut="0.0000000000000000e+00" cType="1" res="3.4344121813774109e-03" rms="4.6462041139602661e-01" purity="3.9708343148231506e-01" nType="-99"/>
          <Node pos="r" depth="2" NCoef="0" IVar="-1" Cut="0.0000000000000000e+00" cType="1" res="2.7001270791515708e-04" rms="4.1820436716079712e-01" purity="2.4896062910556793e-01" nType="-99"/>
        </Node>
        <Node pos="r" depth="1" NCoef="0" IVar="2" Cut="5.1269557952880859e+01" cType="1" res="-5.8774743229150772e-03" rms="4.5764803886413574e-01" purity="5.1997286081314087e-01" nType="0">
          <Node pos="l" depth="2" NCoef="0" IVar="-1" Cut="0.0000000000000000e+00" cType="1" res="-1.6178308287635446e-03" rms="4.6876010298728943e-01" purity="4.7181561589241028e-01" nType="-99"/>
          <Node pos="r" depth="2" NCoef="0" IVar="-1" Cut="0.0000000000000000e+00" cType="1" res="-1.9454544235486537e-04" rms="4.5608666539192200e-01" purity="5.2634412050247192e-01" nType="-99"/>
        </Node>
      </Node>
    </BinaryTree>
    <BinaryTree type="DecisionTree" boostWeight="1.0000000000000000e+00" itree="828">
      <Node pos="s" depth="0" NCoef="0" IVar="4" Cut="7.0798212289810181e-01" cType="1" res="-1.4922460541129112e-03" rms="4.5100322365760803e-01" purity="4.9576580524444580e-01" nType="0">
        <Node pos="l" depth="1" NCoef="0" IVar="6" Cut="2.5780618190765381e+00" cType="1" res="5.0823326455429196e-04" rms="4.5129665732383728e-01" purity="4.9319785833358765e-01" nType="0">
          <Node pos="l" depth="2" NCoef="0" IVar="-1" Cut="0.0000000000000000e+00" cType="1" res="3.1764490995556116e-04" rms="4.5618799328804016e-01" purity="5.3407758474349976e-01" nType="-99"/>
          <Node pos="r" depth="2" NCoef="0" IVar="-1" Cut="0.0000000000000000e+00" cType="1" res="-1.5624638181179762e-03" rms="4.2581680417060852e-01" purity="2.9308629035949707e-01" nType="-99"/>
        </Node>
        <Node pos="r" depth="1" NCoef="0" IVar="-1" Cut="0.0000000000000000e+00" cType="1" res="-2.2976910695433617e-03" rms="4.4462382793426514e-01" purity="5.3934401273727417e-01" nType="-99"/>
      </Node>
    </BinaryTree>
    <BinaryTree type="DecisionTree" boostWeight="1.0000000000000000e+00" itree="829">
      <Node pos="s" depth="0" NCoef="0" IVar="8" Cut="5.6388795375823975e-01" cType="1" res="-4.9219245556741953e-04" rms="4.5451074838638306e-01" purity="5.0026750564575195e-01" nType="0">
        <Node pos="l" depth="1" NCoef="0" IVar="-1" Cut="0.0000000000000000e+00" cType="1" res="-2.7109233196824789e-03" rms="4.6455147862434387e-01" purity="5.1931613683700562e-01" nType="-99"/>
        <Node pos="r" depth="1" NCoef="0" IVar="4" Cut="1.3393937051296234e-01" cType="1" res="2.2916097659617662e-03" rms="4.5371299982070923e-01" purity="4.9903517961502075e-01" nType="0">
          <Node pos="l" depth="2" NCoef="0" IVar="-1" Cut="0.0000000000000000e+00" cType="1" res="-2.3930014576762915e-03" rms="4.3030190467834473e-01" purity="3.4158304333686829e-01" nType="-99"/>
          <Node pos="r" depth="2" NCoef="0" IVar="-1" Cut="0.0000000000000000e+00" cType="1" res="3.3368039294146001e-04" rms="4.5537620782852173e-01" purity="5.1149475574493408e-01" nType="-99"/>
        </Node>
      </Node>
    </BinaryTree>
    <BinaryTree type="DecisionTree" boostWeight="1.0000000000000000e+00" itree="830">
      <Node pos="s" depth="0" NCoef="0" IVar="4" Cut="1.3393937051296234e-01" cType="1" res="2.4575873976573348e-04" rms="4.5480784773826599e-01" purity="4.9887493252754211e-01" nType="0">
        <Node pos="l" depth="1" NCoef="0" IVar="-1" Cut="0.0000000000000000e+00" cType="1" res="2.0985004957765341e-03" rms="4.5628398656845093e-01" purity="4.1655609011650085e-01" nType="-99"/>
        <Node pos="r" depth="1" NCoef="0" IVar="9" Cut="1.7115966975688934e-01" cType="1" res="-2.5000036694109440e-03" rms="4.5457568764686584e-01" purity="5.0601589679718018e-01" nType="0">
          <Node pos="l" depth="2" NCoef="0" IVar="-1" Cut="0.0000000000000000e+00" cType="1" res="1.8330224556848407e-03" rms="4.4466149806976318e-01" purity="5.9755563735961914e-01" nType="-99"/>
          <Node pos="r" depth="2" NCoef="0" IVar="-1" Cut="0.0000000000000000e+00" cType="1" res="-3.1858772854320705e-04" rms="4.5528456568717957e-01" purity="4.9850350618362427e-01" nType="-99"/>
        </Node>
      </Node>
    </BinaryTree>
    <BinaryTree type="DecisionTree" boostWeight="1.0000000000000000e+00" itree="831">
      <Node pos="s" depth="0" NCoef="0" IVar="5" Cut="9.5358270406723022e-01" cType="1" res="2.6882493402808905e-03" rms="4.5358699560165405e-01" purity="5.0135701894760132e-01" nType="0">
        <Node pos="l" depth="1" NCoef="0" IVar="6" Cut="1.9550768136978149e+00" cType="1" res="-5.9871808625757694e-03" rms="4.5542970299720764e-01" purity="3.8739597797393799e-01" nType="0">
          <Node pos="l" depth="2" NCoef="0" IVar="-1" Cut="0.0000000000000000e+00" cType="1" res="-1.4057868393138051e-03" rms="4.6648186445236206e-01" purity="4.4750693440437317e-01" nType="-99"/>
          <Node pos="r" depth="2" NCoef="0" IVar="-1" Cut="0.0000000000000000e+00" cType="1" res="-2.5908275347319432e-05" rms="4.5187044143676758e-01" purity="3.6913204193115234e-01" nType="-99"/>
        </Node>
        <Node pos="r" depth="1" NCoef="0" IVar="2" Cut="1.4830366516113281e+02" cType="1" res="1.2030702084302902e-02" rms="4.5140781998634338e-01" purity="6.2408012151718140e-01" nType="0">
          <Node pos="l" depth="2" NCoef="0" IVar="-1" Cut="0.0000000000000000e+00" cType="1" res="1.2815137160941958e-03" rms="4.5038720965385437e-01" purity="6.3099777698516846e-01" nType="-99"/>
          <Node pos="r" depth="2" NCoef="0" IVar="-1" Cut="0.0000000000000000e+00" cType="1" res="-1.8429682822898030e-03" rms="4.5432832837104797e-01" purity="5.8980494737625122e-01" nType="-99"/>
        </Node>
      </Node>
    </BinaryTree>
    <BinaryTree type="DecisionTree" boostWeight="1.0000000000000000e+00" itree="832">
      <Node pos="s" depth="0" NCoef="0" IVar="9" Cut="6.6926312446594238e-01" cType="1" res="5.8841155841946602e-03" rms="4.5488393306732178e-01" purity="5.0863897800445557e-01" nType="0">
        <Node pos="l" depth="1" NCoef="0" IVar="5" Cut="9.5699352025985718e-01" cType="1" res="2.9922535759396851e-04" rms="4.5379468798637390e-01" purity="5.3459060192108154e-01" nType="0">
          <Node pos="l" depth="2" NCoef="0" IVar="-1" Cut="0.0000000000000000e+00" cType="1" res="4.7124375123530626e-04" rms="4.6072006225585938e-01" purity="4.4154083728790283e-01" nType="-99"/>
          <Node pos="r" depth="2" NCoef="0" IVar="-1" Cut="0.0000000000000000e+00" cType="1" res="-6.0132658109068871e-04" rms="4.4493788480758667e-01" purity="6.4920639991760254e-01" nType="-99"/>
        </Node>
        <Node pos="r" depth="1" NCoef="0" IVar="9" Cut="8.8126730918884277e-01" cType="1" res="1.7261479049921036e-02" rms="4.5688369870185852e-01" purity="4.5577105879783630e-01" nType="0">
          <Node pos="l" depth="2" NCoef="0" IVar="-1" Cut="0.0000000000000000e+00" cType="1" res="2.3131088819354773e-03" rms="4.5567861199378967e-01" purity="5.0218391418457031e-01" nType="-99"/>
          <Node pos="r" depth="2" NCoef="0" IVar="-1" Cut="0.0000000000000000e+00" cType="1" res="-5.0034956075251102e-04" rms="4.5717978477478027e-01" purity="3.9719575643539429e-01" nType="-99"/>
        </Node>
      </Node>
    </BinaryTree>
    <BinaryTree type="DecisionTree" boostWeight="1.0000000000000000e+00" itree="833">
      <Node pos="s" depth="0" NCoef="0" IVar="5" Cut="9.6031123399734497e-01" cType="1" res="-5.5139075266197324e-04" rms="4.5280387997627258e-01" purity="5.0082504749298096e-01" nType="0">
        <Node pos="l" depth="1" NCoef="0" IVar="1" Cut="4.8261840820312500e+02" cType="1" res="-7.7209961600601673e-03" rms="4.5624542236328125e-01" purity="4.0730711817741394e-01" nType="0">
          <Node pos="l" depth="2" NCoef="0" IVar="-1" Cut="0.0000000000000000e+00" cType="1" res="4.4392226845957339e-04" rms="4.3894830346107483e-01" purity="3.2464256882667542e-01" nType="-99"/>
          <Node pos="r" depth="2" NCoef="0" IVar="-1" Cut="0.0000000000000000e+00" cType="1" res="-1.0041591012850404e-03" rms="4.6701332926750183e-01" purity="4.6158292889595032e-01" nType="-99"/>
        </Node>
        <Node pos="r" depth="1" NCoef="0" IVar="0" Cut="3.5883271694183350e+00" cType="1" res="1.0900682769715786e-02" rms="4.4701328873634338e-01" purity="6.5020209550857544e-01" nType="0">
          <Node pos="l" depth="2" NCoef="0" IVar="-1" Cut="0.0000000000000000e+00" cType="1" res="1.7706196522340178e-03" rms="4.6777787804603577e-01" purity="5.7375121116638184e-01" nType="-99"/>
          <Node pos="r" depth="2" NCoef="0" IVar="-1" Cut="0.0000000000000000e+00" cType="1" res="-5.3027563262730837e-04" rms="4.2457538843154907e-01" purity="7.2622138261795044e-01" nType="-99"/>
        </Node>
      </Node>
    </BinaryTree>
    <BinaryTree type="DecisionTree" boostWeight="1.0000000000000000e+00" itree="834">
      <Node pos="s" depth="0" NCoef="0" IVar="9" Cut="9.4220030307769775e-01" cType="1" res="-3.6062018480151892e-03" rms="4.5235997438430786e-01" purity="4.9845629930496216e-01" nType="0">
        <Node pos="l" depth="1" NCoef="0" IVar="1" Cut="4.0255712890625000e+02" cType="1" res="-7.1078175678849220e-03" rms="4.5141047239303589e-01" purity="5.0798594951629639e-01" nType="0">
          <Node pos="l" depth="2" NCoef="0" IVar="-1" Cut="0.0000000000000000e+00" cType="1" res="-2.0569555927067995e-03" rms="4.3083637952804565e-01" purity="3.1922706961631775e-01" nType="-99"/>
          <Node pos="r" depth="2" NCoef="0" IVar="-1" Cut="0.0000000000000000e+00" cType="1" res="-2.0606191537808627e-04" rms="4.5461764931678772e-01" purity="5.3925150632858276e-01" nType="-99"/>
        </Node>
        <Node pos="r" depth="1" NCoef="0" IVar="3" Cut="4.0659628808498383e-02" cType="1" res="2.4584701284766197e-02" rms="4.5896041393280029e-01" purity="4.2173475027084351e-01" nType="0">
          <Node pos="l" depth="2" NCoef="0" IVar="-1" Cut="0.0000000000000000e+00" cType="1" res="2.6103359414264560e-04" rms="4.7090056538581848e-01" purity="4.2442837357521057e-01" nType="-99"/>
          <Node pos="r" depth="2" NCoef="0" IVar="-1" Cut="0.0000000000000000e+00" cType="1" res="3.1204319093376398e-03" rms="4.4457751512527466e-01" purity="4.1881275177001953e-01" nType="-99"/>
        </Node>
      </Node>
    </BinaryTree>
    <BinaryTree type="DecisionTree" boostWeight="1.0000000000000000e+00" itree="835">
      <Node pos="s" depth="0" NCoef="0" IVar="1" Cut="3.5741687011718750e+02" cType="1" res="2.9210811480879784e-03" rms="4.5647883415222168e-01" purity="5.0414490699768066e-01" nType="0">
        <Node pos="l" depth="1" NCoef="0" IVar="-1" Cut="0.0000000000000000e+00" cType="1" res="3.5044576507061720e-03" rms="4.5102965831756592e-01" purity="3.6399275064468384e-01" nType="-99"/>
        <Node pos="r" depth="1" NCoef="0" IVar="2" Cut="1.5887165832519531e+02" cType="1" res="1.0208052844973281e-04" rms="4.5665949583053589e-01" purity="5.1272451877593994e-01" nType="0">
          <Node pos="l" depth="2" NCoef="0" IVar="-1" Cut="0.0000000000000000e+00" cType="1" res="-2.6395218446850777e-04" rms="4.5593646168708801e-01" purity="5.0738948583602905e-01" nType="-99"/>
          <Node pos="r" depth="2" NCoef="0" IVar="-1" Cut="0.0000000000000000e+00" cType="1" res="1.7744265496730804e-03" rms="4.6026015281677246e-01" purity="5.4647707939147949e-01" nType="-99"/>
        </Node>
      </Node>
    </BinaryTree>
    <BinaryTree type="DecisionTree" boostWeight="1.0000000000000000e+00" itree="836">
      <Node pos="s" depth="0" NCoef="0" IVar="7" Cut="5.3277065277099609e+01" cType="1" res="-1.8065155018121004e-03" rms="4.5454040169715881e-01" purity="4.9663573503494263e-01" nType="0">
        <Node pos="l" depth="1" NCoef="0" IVar="6" Cut="2.2680776119232178e+00" cType="1" res="1.4774880371987820e-02" rms="4.4813847541809082e-01" purity="3.9159899950027466e-01" nType="0">
          <Node pos="l" depth="2" NCoef="0" IVar="-1" Cut="0.0000000000000000e+00" cType="1" res="1.5831419659662060e-06" rms="4.5404842495918274e-01" purity="4.2508378624916077e-01" nType="-99"/>
          <Node pos="r" depth="2" NCoef="0" IVar="-1" Cut="0.0000000000000000e+00" cType="1" res="2.5074796285480261e-03" rms="4.3907904624938965e-01" purity="3.4557977318763733e-01" nType="-99"/>
        </Node>
        <Node pos="r" depth="1" NCoef="0" IVar="8" Cut="8.8544660806655884e-01" cType="1" res="-7.1769771166145802e-03" rms="4.5646551251411438e-01" purity="5.3065556287765503e-01" nType="0">
          <Node pos="l" depth="2" NCoef="0" IVar="-1" Cut="0.0000000000000000e+00" cType="1" res="4.0182293741963804e-04" rms="4.5079743862152100e-01" purity="5.8045727014541626e-01" nType="-99"/>
          <Node pos="r" depth="2" NCoef="0" IVar="-1" Cut="0.0000000000000000e+00" cType="1" res="-9.3136401847004890e-04" rms="4.5952552556991577e-01" purity="5.0188064575195312e-01" nType="-99"/>
        </Node>
      </Node>
    </BinaryTree>
    <BinaryTree type="DecisionTree" boostWeight="1.0000000000000000e+00" itree="837">
      <Node pos="s" depth="0" NCoef="0" IVar="6" Cut="2.2233483791351318e+00" cType="1" res="5.8366470038890839e-03" rms="4.5269396901130676e-01" purity="5.0368714332580566e-01" nType="0">
        <Node pos="l" depth="1" NCoef="0" IVar="7" Cut="7.0918518066406250e+01" cType="1" res="1.6186801716685295e-02" rms="4.5343714952468872e-01" purity="5.7881391048431396e-01" nType="0">
          <Node pos="l" depth="2" NCoef="0" IVar="-1" Cut="0.0000000000000000e+00" cType="1" res="1.5423042932525277e-03" rms="4.5676371455192566e-01" purity="5.2210938930511475e-01" nType="-99"/>
          <Node pos="r" depth="2" NCoef="0" IVar="-1" Cut="0.0000000000000000e+00" cType="1" res="3.6165004712529480e-04" rms="4.4930735230445862e-01" purity="6.4481866359710693e-01" nType="-99"/>
        </Node>
        <Node pos="r" depth="1" NCoef="0" IVar="1" Cut="8.0609289550781250e+02" cType="1" res="-5.4994220845401287e-03" rms="4.5160645246505737e-01" purity="4.2140415310859680e-01" nType="0">
          <Node pos="l" depth="2" NCoef="0" IVar="-1" Cut="0.0000000000000000e+00" cType="1" res="-6.7694927565753460e-04" rms="4.5028772950172424e-01" purity="4.0243679285049438e-01" nType="-99"/>
          <Node pos="r" depth="2" NCoef="0" IVar="-1" Cut="0.0000000000000000e+00" cType="1" res="2.1330267190933228e-03" rms="4.6024927496910095e-01" purity="5.7693862915039062e-01" nType="-99"/>
        </Node>
      </Node>
    </BinaryTree>
    <BinaryTree type="DecisionTree" boostWeight="1.0000000000000000e+00" itree="838">
      <Node pos="s" depth="0" NCoef="0" IVar="5" Cut="9.1001033782958984e-01" cType="1" res="-3.7424983456730843e-03" rms="4.5309463143348694e-01" purity="4.9974012374877930e-01" nType="0">
        <Node pos="l" depth="1" NCoef="0" IVar="-1" Cut="0.0000000000000000e+00" cType="1" res="-1.9707600586116314e-03" rms="4.2305907607078552e-01" purity="2.6693731546401978e-01" nType="-99"/>
        <Node pos="r" depth="1" NCoef="0" IVar="2" Cut="2.0692643737792969e+02" cType="1" res="-1.9097845070064068e-03" rms="4.5509865880012512e-01" purity="5.1628893613815308e-01" nType="0">
          <Node pos="l" depth="2" NCoef="0" IVar="-1" Cut="0.0000000000000000e+00" cType="1" res="-1.5805822840775363e-05" rms="4.5490682125091553e-01" purity="5.1802057027816772e-01" nType="-99"/>
          <Node pos="r" depth="2" NCoef="0" IVar="-1" Cut="0.0000000000000000e+00" cType="1" res="-1.9193836487829685e-03" rms="4.5739883184432983e-01" purity="4.8744210600852966e-01" nType="-99"/>
        </Node>
      </Node>
    </BinaryTree>
    <BinaryTree type="DecisionTree" boostWeight="1.0000000000000000e+00" itree="839">
      <Node pos="s" depth="0" NCoef="0" IVar="6" Cut="1.6369075775146484e+00" cType="1" res="-3.4893078263849020e-03" rms="4.5465636253356934e-01" purity="4.9689999222755432e-01" nType="0">
        <Node pos="l" depth="1" NCoef="0" IVar="0" Cut="2.9429917335510254e+00" cType="1" res="3.1426128000020981e-02" rms="4.4220396876335144e-01" purity="6.2784057855606079e-01" nType="0">
          <Node pos="l" depth="2" NCoef="0" IVar="-1" Cut="0.0000000000000000e+00" cType="1" res="3.6668106913566589e-03" rms="4.5821884274482727e-01" purity="5.4212075471878052e-01" nType="-99"/>
          <Node pos="r" depth="2" NCoef="0" IVar="-1" Cut="0.0000000000000000e+00" cType="1" res="-2.5919725885614753e-04" rms="4.2101988196372986e-01" purity="7.2258615493774414e-01" nType="-99"/>
        </Node>
        <Node pos="r" depth="1" NCoef="0" IVar="4" Cut="2.9055193066596985e-01" cType="1" res="-7.8281406313180923e-03" rms="4.5599332451820374e-01" purity="4.8062840104103088e-01" nType="0">
          <Node pos="l" depth="2" NCoef="0" IVar="-1" Cut="0.0000000000000000e+00" cType="1" res="-1.4742339262738824e-03" rms="4.4485321640968323e-01" purity="4.0164777636528015e-01" nType="-99"/>
          <Node pos="r" depth="2" NCoef="0" IVar="-1" Cut="0.0000000000000000e+00" cType="1" res="-2.7088564820587635e-05" rms="4.6119973063468933e-01" purity="5.1951467990875244e-01" nType="-99"/>
        </Node>
      </Node>
    </BinaryTree>
    <BinaryTree type="DecisionTree" boostWeight="1.0000000000000000e+00" itree="840">
      <Node pos="s" depth="0" NCoef="0" IVar="9" Cut="8.9955931901931763e-01" cType="1" res="7.9298671334981918e-03" rms="4.5490393042564392e-01" purity="5.0822597742080688e-01" nType="0">
        <Node pos="l" depth="1" NCoef="0" IVar="9" Cut="8.0271136760711670e-01" cType="1" res="4.5786416158080101e-03" rms="4.5365810394287109e-01" purity="5.2123278379440308e-01" nType="0">
          <Node pos="l" depth="2" NCoef="0" IVar="-1" Cut="0.0000000000000000e+00" cType="1" res="4.7272781375795603e-04" rms="4.5354011654853821e-01" purity="5.3084862232208252e-01" nType="-99"/>
          <Node pos="r" depth="2" NCoef="0" IVar="-1" Cut="0.0000000000000000e+00" cType="1" res="-1.9350403454154730e-03" rms="4.5359784364700317e-01" purity="4.0833204984664917e-01" nType="-99"/>
        </Node>
        <Node pos="r" depth="1" NCoef="0" IVar="9" Cut="1.0472645759582520e+00" cType="1" res="2.8805447742342949e-02" rms="4.6204203367233276e-01" purity="4.2720291018486023e-01" nType="0">
          <Node pos="l" depth="2" NCoef="0" IVar="-1" Cut="0.0000000000000000e+00" cType="1" res="3.4227385185658932e-03" rms="4.6397426724433899e-01" purity="4.7667491436004639e-01" nType="-99"/>
          <Node pos="r" depth="2" NCoef="0" IVar="-1" Cut="0.0000000000000000e+00" cType="1" res="-7.0827562012709677e-05" rms="4.5791140198707581e-01" purity="3.6705422401428223e-01" nType="-99"/>
        </Node>
      </Node>
    </BinaryTree>
    <BinaryTree type="DecisionTree" boostWeight="1.0000000000000000e+00" itree="841">
      <Node pos="s" depth="0" NCoef="0" IVar="8" Cut="1.3674656152725220e+00" cType="1" res="2.2903017234057188e-03" rms="4.5186752080917358e-01" purity="5.0281316041946411e-01" nType="0">
        <Node pos="l" depth="1" NCoef="0" IVar="0" Cut="1.6065596342086792e+00" cType="1" res="8.3013614639639854e-03" rms="4.5356646180152893e-01" purity="5.2686077356338501e-01" nType="0">
          <Node pos="l" depth="2" NCoef="0" IVar="-1" Cut="0.0000000000000000e+00" cType="1" res="-8.9436286361888051e-04" rms="4.3950179219245911e-01" purity="3.1026294827461243e-01" nType="-99"/>
          <Node pos="r" depth="2" NCoef="0" IVar="-1" Cut="0.0000000000000000e+00" cType="1" res="8.1924645928665996e-04" rms="4.5665425062179565e-01" purity="5.7759922742843628e-01" nType="-99"/>
        </Node>
        <Node pos="r" depth="1" NCoef="0" IVar="3" Cut="-1.0653904639184475e-02" cType="1" res="-1.5746366232633591e-02" rms="4.4624516367912292e-01" purity="4.3065631389617920e-01" nType="0">
          <Node pos="l" depth="2" NCoef="0" IVar="-1" Cut="0.0000000000000000e+00" cType="1" res="-2.9627091716974974e-03" rms="4.4838336110115051e-01" purity="4.5592164993286133e-01" nType="-99"/>
          <Node pos="r" depth="2" NCoef="0" IVar="-1" Cut="0.0000000000000000e+00" cType="1" res="-1.9589618023019284e-04" rms="4.4473597407341003e-01" purity="4.2018258571624756e-01" nType="-99"/>
        </Node>
      </Node>
    </BinaryTree>
    <BinaryTree type="DecisionTree" boostWeight="1.0000000000000000e+00" itree="842">
      <Node pos="s" depth="0" NCoef="0" IVar="3" Cut="6.1242368072271347e-02" cType="1" res="-5.4732947610318661e-03" rms="4.5227995514869690e-01" purity="4.9792489409446716e-01" nType="0">
        <Node pos="l" depth="1" NCoef="0" IVar="4" Cut="2.4472598731517792e-01" cType="1" res="-1.2162809260189533e-02" rms="4.5394751429557800e-01" purity="5.1358753442764282e-01" nType="0">
          <Node pos="l" depth="2" NCoef="0" IVar="-1" Cut="0.0000000000000000e+00" cType="1" res="-2.8972520958632231e-03" rms="4.5578318834304810e-01" purity="4.0197929739952087e-01" nType="-99"/>
          <Node pos="r" depth="2" NCoef="0" IVar="-1" Cut="0.0000000000000000e+00" cType="1" res="-4.7265700413845479e-04" rms="4.5349845290184021e-01" purity="5.2887231111526489e-01" nType="-99"/>
        </Node>
        <Node pos="r" depth="1" NCoef="0" IVar="5" Cut="9.2307424545288086e-01" cType="1" res="8.1469872966408730e-03" rms="4.4855734705924988e-01" purity="4.6603474020957947e-01" nType="0">
          <Node pos="l" depth="2" NCoef="0" IVar="-1" Cut="0.0000000000000000e+00" cType="1" res="-2.0224477630108595e-03" rms="4.1813313961029053e-01" purity="2.5947141647338867e-01" nType="-99"/>
          <Node pos="r" depth="2" NCoef="0" IVar="-1" Cut="0.0000000000000000e+00" cType="1" res="9.8196207545697689e-04" rms="4.5417737960815430e-01" purity="5.0838822126388550e-01" nType="-99"/>
        </Node>
      </Node>
    </BinaryTree>
    <BinaryTree type="DecisionTree" boostWeight="1.0000000000000000e+00" itree="843">
      <Node pos="s" depth="0" NCoef="0" IVar="3" Cut="8.2231983542442322e-03" cType="1" res="1.5635740710422397e-03" rms="4.5079743862152100e-01" purity="5.0719010829925537e-01" nType="0">
        <Node pos="l" depth="1" NCoef="0" IVar="9" Cut="6.1633104085922241e-01" cType="1" res="1.2850997038185596e-02" rms="4.5174527168273926e-01" purity="5.5763220787048340e-01" nType="0">
          <Node pos="l" depth="2" NCoef="0" IVar="-1" Cut="0.0000000000000000e+00" cType="1" res="1.5070976223796606e-03" rms="4.4675576686859131e-01" purity="5.9709966182708740e-01" nType="-99"/>
          <Node pos="r" depth="2" NCoef="0" IVar="-1" Cut="0.0000000000000000e+00" cType="1" res="-5.6957540800794959e-04" rms="4.6067065000534058e-01" purity="4.7953075170516968e-01" nType="-99"/>
        </Node>
        <Node pos="r" depth="1" NCoef="0" IVar="2" Cut="8.2181449890136719e+01" cType="1" res="-7.2400164790451527e-03" rms="4.4986027479171753e-01" purity="4.6784797310829163e-01" nType="0">
          <Node pos="l" depth="2" NCoef="0" IVar="-1" Cut="0.0000000000000000e+00" cType="1" res="-1.5235746977850795e-03" rms="4.5038294792175293e-01" purity="4.3101224303245544e-01" nType="-99"/>
          <Node pos="r" depth="2" NCoef="0" IVar="-1" Cut="0.0000000000000000e+00" cType="1" res="1.5538276056759059e-04" rms="4.4927659630775452e-01" purity="4.8873922228813171e-01" nType="-99"/>
        </Node>
      </Node>
    </BinaryTree>
    <BinaryTree type="DecisionTree" boostWeight="1.0000000000000000e+00" itree="844">
      <Node pos="s" depth="0" NCoef="0" IVar="0" Cut="1.5132720470428467e+00" cType="1" res="2.5493816938251257e-03" rms="4.5656660199165344e-01" purity="5.0399672985076904e-01" nType="0">
        <Node pos="l" depth="1" NCoef="0" IVar="1" Cut="5.3834283447265625e+02" cType="1" res="3.1656604260206223e-02" rms="4.4548505544662476e-01" purity="3.3474332094192505e-01" nType="0">
          <Node pos="l" depth="2" NCoef="0" IVar="-1" Cut="0.0000000000000000e+00" cType="1" res="1.0076432954519987e-03" rms="4.2317321896553040e-01" purity="2.5583618879318237e-01" nType="-99"/>
          <Node pos="r" depth="2" NCoef="0" IVar="-1" Cut="0.0000000000000000e+00" cType="1" res="3.5735424607992172e-03" rms="4.7296601533889771e-01" purity="4.4223529100418091e-01" nType="-99"/>
        </Node>
        <Node pos="r" depth="1" NCoef="0" IVar="4" Cut="6.1954391002655029e-01" cType="1" res="-3.6109590437263250e-03" rms="4.5864084362983704e-01" purity="5.3981804847717285e-01" nType="0">
          <Node pos="l" depth="2" NCoef="0" IVar="-1" Cut="0.0000000000000000e+00" cType="1" res="2.1089121219119988e-05" rms="4.5873016119003296e-01" purity="5.3224992752075195e-01" nType="-99"/>
          <Node pos="r" depth="2" NCoef="0" IVar="-1" Cut="0.0000000000000000e+00" cType="1" res="-1.6375489067286253e-03" rms="4.5747050642967224e-01" purity="5.8316844701766968e-01" nType="-99"/>
        </Node>
      </Node>
    </BinaryTree>
    <BinaryTree type="DecisionTree" boostWeight="1.0000000000000000e+00" itree="845">
      <Node pos="s" depth="0" NCoef="0" IVar="8" Cut="6.9890642166137695e-01" cType="1" res="-1.2770781759172678e-03" rms="4.5411863923072815e-01" purity="4.9784693121910095e-01" nType="0">
        <Node pos="l" depth="1" NCoef="0" IVar="9" Cut="6.4236986637115479e-01" cType="1" res="-2.3331860080361366e-02" rms="4.5393019914627075e-01" purity="5.3036475181579590e-01" nType="0">
          <Node pos="l" depth="2" NCoef="0" IVar="-1" Cut="0.0000000000000000e+00" cType="1" res="-2.4343214463442564e-03" rms="4.5214265584945679e-01" purity="5.3975325822830200e-01" nType="-99"/>
          <Node pos="r" depth="2" NCoef="0" IVar="-1" Cut="0.0000000000000000e+00" cType="1" res="5.3735263645648956e-04" rms="4.5600104331970215e-01" purity="5.1072776317596436e-01" nType="-99"/>
        </Node>
        <Node pos="r" depth="1" NCoef="0" IVar="2" Cut="1.3653125000000000e+02" cType="1" res="3.0452345963567495e-03" rms="4.5403003692626953e-01" purity="4.9147403240203857e-01" nType="0">
          <Node pos="l" depth="2" NCoef="0" IVar="-1" Cut="0.0000000000000000e+00" cType="1" res="4.6048854710534215e-04" rms="4.5414867997169495e-01" purity="4.9310567975044250e-01" nType="-99"/>
          <Node pos="r" depth="2" NCoef="0" IVar="-1" Cut="0.0000000000000000e+00" cType="1" res="-8.7488861754536629e-04" rms="4.5318377017974854e-01" purity="4.8511523008346558e-01" nType="-99"/>
        </Node>
      </Node>
    </BinaryTree>
    <BinaryTree type="DecisionTree" boostWeight="1.0000000000000000e+00" itree="846">
      <Node pos="s" depth="0" NCoef="0" IVar="3" Cut="-7.0311643183231354e-02" cType="1" res="-4.2579940054565668e-04" rms="4.5654517412185669e-01" purity="4.9815863370895386e-01" nType="0">
        <Node pos="l" depth="1" NCoef="0" IVar="-1" Cut="0.0000000000000000e+00" cType="1" res="2.4854578077793121e-03" rms="4.5210254192352295e-01" purity="6.2033504247665405e-01" nType="-99"/>
        <Node pos="r" depth="1" NCoef="0" IVar="2" Cut="1.3611077880859375e+02" cType="1" res="-2.9394053854048252e-03" rms="4.5671355724334717e-01" purity="4.9032959342002869e-01" nType="0">
          <Node pos="l" depth="2" NCoef="0" IVar="-1" Cut="0.0000000000000000e+00" cType="1" res="1.2140313629060984e-04" rms="4.5673540234565735e-01" purity="4.9102705717086792e-01" nType="-99"/>
          <Node pos="r" depth="2" NCoef="0" IVar="-1" Cut="0.0000000000000000e+00" cType="1" res="-1.3678409159183502e-03" rms="4.5616909861564636e-01" purity="4.8771920800209045e-01" nType="-99"/>
        </Node>
      </Node>
    </BinaryTree>
    <BinaryTree type="DecisionTree" boostWeight="1.0000000000000000e+00" itree="847">
      <Node pos="s" depth="0" NCoef="0" IVar="8" Cut="1.5613261461257935e+00" cType="1" res="-2.1915684919804335e-03" rms="4.5347526669502258e-01" purity="4.9977728724479675e-01" nType="0">
        <Node pos="l" depth="1" NCoef="0" IVar="8" Cut="1.3417500257492065e+00" cType="1" res="1.1293250136077404e-03" rms="4.5596712827682495e-01" purity="5.1646798849105835e-01" nType="0">
          <Node pos="l" depth="2" NCoef="0" IVar="-1" Cut="0.0000000000000000e+00" cType="1" res="-1.8476427067071199e-04" rms="4.5617020130157471e-01" purity="5.1990735530853271e-01" nType="-99"/>
          <Node pos="r" depth="2" NCoef="0" IVar="-1" Cut="0.0000000000000000e+00" cType="1" res="1.5852707438170910e-03" rms="4.5401349663734436e-01" purity="4.9611517786979675e-01" nType="-99"/>
        </Node>
        <Node pos="r" depth="1" NCoef="0" IVar="2" Cut="8.9575202941894531e+01" cType="1" res="-2.2350141778588295e-02" rms="4.3750447034835815e-01" purity="3.9846110343933105e-01" nType="0">
          <Node pos="l" depth="2" NCoef="0" IVar="-1" Cut="0.0000000000000000e+00" cType="1" res="-2.9296542052179575e-03" rms="4.2801338434219360e-01" purity="3.6288985610008240e-01" nType="-99"/>
          <Node pos="r" depth="2" NCoef="0" IVar="-1" Cut="0.0000000000000000e+00" cType="1" res="1.3282502186484635e-04" rms="4.4627669453620911e-01" purity="4.3697783350944519e-01" nType="-99"/>
        </Node>
      </Node>
    </BinaryTree>
    <BinaryTree type="DecisionTree" boostWeight="1.0000000000000000e+00" itree="848">
      <Node pos="s" depth="0" NCoef="0" IVar="7" Cut="1.2712259674072266e+02" cType="1" res="-3.6819882225245237e-03" rms="4.5454981923103333e-01" purity="4.9762678146362305e-01" nType="0">
        <Node pos="l" depth="1" NCoef="0" IVar="4" Cut="2.1950420737266541e-01" cType="1" res="-1.1992740910500288e-03" rms="4.5409056544303894e-01" purity="4.9125313758850098e-01" nType="0">
          <Node pos="l" depth="2" NCoef="0" IVar="-1" Cut="0.0000000000000000e+00" cType="1" res="1.4104392612352967e-03" rms="4.4691717624664307e-01" purity="4.3171638250350952e-01" nType="-99"/>
          <Node pos="r" depth="2" NCoef="0" IVar="-1" Cut="0.0000000000000000e+00" cType="1" res="-4.2931648204103112e-04" rms="4.5567461848258972e-01" purity="5.0601917505264282e-01" nType="-99"/>
        </Node>
        <Node pos="r" depth="1" NCoef="0" IVar="-1" Cut="0.0000000000000000e+00" cType="1" res="-2.7362152468413115e-03" rms="4.5985180139541626e-01" purity="5.9516692161560059e-01" nType="-99"/>
      </Node>
    </BinaryTree>
    <BinaryTree type="DecisionTree" boostWeight="1.0000000000000000e+00" itree="849">
      <Node pos="s" depth="0" NCoef="0" IVar="3" Cut="1.8629924952983856e-01" cType="1" res="-3.2390486449003220e-03" rms="4.5279917120933533e-01" purity="4.9656105041503906e-01" nType="0">
        <Node pos="l" depth="1" NCoef="0" IVar="3" Cut="1.2887787818908691e-01" cType="1" res="-5.6655234657227993e-03" rms="4.5262831449508667e-01" purity="4.9767538905143738e-01" nType="0">
          <Node pos="l" depth="2" NCoef="0" IVar="-1" Cut="0.0000000000000000e+00" cType="1" res="-1.1580984573811293e-04" rms="4.5292523503303528e-01" purity="5.0813555717468262e-01" nType="-99"/>
          <Node pos="r" depth="2" NCoef="0" IVar="-1" Cut="0.0000000000000000e+00" cType="1" res="-2.7932897210121155e-03" rms="4.4796010851860046e-01" purity="3.9480516314506531e-01" nType="-99"/>
        </Node>
        <Node pos="r" depth="1" NCoef="0" IVar="-1" Cut="0.0000000000000000e+00" cType="1" res="2.5752794463187456e-03" rms="4.5365330576896667e-01" purity="4.7656768560409546e-01" nType="-99"/>
      </Node>
    </BinaryTree>
    <BinaryTree type="DecisionTree" boostWeight="1.0000000000000000e+00" itree="850">
      <Node pos="s" depth="0" NCoef="0" IVar="2" Cut="2.0654537963867188e+02" cType="1" res="-1.6930399578996003e-04" rms="4.5445513725280762e-01" purity="4.9985438585281372e-01" nType="0">
        <Node pos="l" depth="1" NCoef="0" IVar="2" Cut="1.6082167053222656e+02" cType="1" res="1.4964767033234239e-03" rms="4.5406404137611389e-01" purity="5.0227218866348267e-01" nType="0">
          <Node pos="l" depth="2" NCoef="0" IVar="-1" Cut="0.0000000000000000e+00" cType="1" res="-4.7049619752215222e-05" rms="4.5412462949752808e-01" purity="4.9776527285575867e-01" nType="-99"/>
          <Node pos="r" depth="2" NCoef="0" IVar="-1" Cut="0.0000000000000000e+00" cType="1" res="1.9044441869482398e-03" rms="4.5242065191268921e-01" purity="5.5739653110504150e-01" nType="-99"/>
        </Node>
        <Node pos="r" depth="1" NCoef="0" IVar="-1" Cut="0.0000000000000000e+00" cType="1" res="-1.9884079229086637e-03" rms="4.6044093370437622e-01" purity="4.5604905486106873e-01" nType="-99"/>
      </Node>
    </BinaryTree>
    <BinaryTree type="DecisionTree" boostWeight="1.0000000000000000e+00" itree="851">
      <Node pos="s" depth="0" NCoef="0" IVar="5" Cut="9.3702238798141479e-01" cType="1" res="4.1644484736025333e-03" rms="4.5193192362785339e-01" purity="5.0616437196731567e-01" nType="0">
        <Node pos="l" depth="1" NCoef="0" IVar="4" Cut="3.9270430803298950e-01" cType="1" res="-1.5536806546151638e-02" rms="4.4279748201370239e-01" purity="3.3417531847953796e-01" nType="0">
          <Node pos="l" depth="2" NCoef="0" IVar="-1" Cut="0.0000000000000000e+00" cType="1" res="-1.7557652899995446e-03" rms="4.3218642473220825e-01" purity="3.0051738023757935e-01" nType="-99"/>
          <Node pos="r" depth="2" NCoef="0" IVar="-1" Cut="0.0000000000000000e+00" cType="1" res="-1.3706812751479447e-04" rms="4.5484066009521484e-01" purity="3.7453609704971313e-01" nType="-99"/>
        </Node>
        <Node pos="r" depth="1" NCoef="0" IVar="3" Cut="1.1395346373319626e-01" cType="1" res="1.1694950982928276e-02" rms="4.5514979958534241e-01" purity="5.7190454006195068e-01" nType="0">
          <Node pos="l" depth="2" NCoef="0" IVar="-1" Cut="0.0000000000000000e+00" cType="1" res="9.6989562734961510e-04" rms="4.5429754257202148e-01" purity="5.8764195442199707e-01" nType="-99"/>
          <Node pos="r" depth="2" NCoef="0" IVar="-1" Cut="0.0000000000000000e+00" cType="1" res="-4.8673557466827333e-04" rms="4.5912060141563416e-01" purity="4.8908555507659912e-01" nType="-99"/>
        </Node>
      </Node>
    </BinaryTree>
    <BinaryTree type="DecisionTree" boostWeight="1.0000000000000000e+00" itree="852">
      <Node pos="s" depth="0" NCoef="0" IVar="4" Cut="5.5847620964050293e-01" cType="1" res="-3.9275437593460083e-03" rms="4.5335125923156738e-01" purity="4.9466344714164734e-01" nType="0">
        <Node pos="l" depth="1" NCoef="0" IVar="2" Cut="1.0096253204345703e+02" cType="1" res="-1.0536479763686657e-02" rms="4.5277601480484009e-01" purity="4.7151809930801392e-01" nType="0">
          <Node pos="l" depth="2" NCoef="0" IVar="-1" Cut="0.0000000000000000e+00" cType="1" res="-1.2490010121837258e-03" rms="4.5404949784278870e-01" purity="4.4102066755294800e-01" nType="-99"/>
          <Node pos="r" depth="2" NCoef="0" IVar="-1" Cut="0.0000000000000000e+00" cType="1" res="-1.9138860807288438e-05" rms="4.5115751028060913e-01" purity="5.0485497713088989e-01" nType="-99"/>
        </Node>
        <Node pos="r" depth="1" NCoef="0" IVar="4" Cut="6.0940945148468018e-01" cType="1" res="1.9746411591768265e-02" rms="4.5461809635162354e-01" purity="5.7757258415222168e-01" nType="0">
          <Node pos="l" depth="2" NCoef="0" IVar="-1" Cut="0.0000000000000000e+00" cType="1" res="3.0712084844708443e-03" rms="4.4354069232940674e-01" purity="5.9525203704833984e-01" nType="-99"/>
          <Node pos="r" depth="2" NCoef="0" IVar="-1" Cut="0.0000000000000000e+00" cType="1" res="4.3912872206419706e-04" rms="4.5869612693786621e-01" purity="5.6998544931411743e-01" nType="-99"/>
        </Node>
      </Node>
    </BinaryTree>
    <BinaryTree type="DecisionTree" boostWeight="1.0000000000000000e+00" itree="853">
      <Node pos="s" depth="0" NCoef="0" IVar="8" Cut="5.5488640069961548e-01" cType="1" res="-1.3035523006692529e-03" rms="4.5292380452156067e-01" purity="5.0206357240676880e-01" nType="0">
        <Node pos="l" depth="1" NCoef="0" IVar="-1" Cut="0.0000000000000000e+00" cType="1" res="2.1773648913949728e-03" rms="4.4370737671852112e-01" purity="5.9654653072357178e-01" nType="-99"/>
        <Node pos="r" depth="1" NCoef="0" IVar="3" Cut="-6.4742155373096466e-02" cType="1" res="-3.4543252550065517e-03" rms="4.5337754487991333e-01" purity="4.9642330408096313e-01" nType="0">
          <Node pos="l" depth="2" NCoef="0" IVar="-1" Cut="0.0000000000000000e+00" cType="1" res="1.4999851118773222e-03" rms="4.4700440764427185e-01" purity="6.1222773790359497e-01" nType="-99"/>
          <Node pos="r" depth="2" NCoef="0" IVar="-1" Cut="0.0000000000000000e+00" cType="1" res="-3.5741593455895782e-04" rms="4.5381930470466614e-01" purity="4.8703107237815857e-01" nType="-99"/>
        </Node>
      </Node>
    </BinaryTree>
    <BinaryTree type="DecisionTree" boostWeight="1.0000000000000000e+00" itree="854">
      <Node pos="s" depth="0" NCoef="0" IVar="5" Cut="9.1372650861740112e-01" cType="1" res="-1.3453221181407571e-03" rms="4.5384728908538818e-01" purity="5.0007677078247070e-01" nType="0">
        <Node pos="l" depth="1" NCoef="0" IVar="-1" Cut="0.0000000000000000e+00" cType="1" res="1.6668059397488832e-03" rms="4.4449406862258911e-01" purity="3.2572093605995178e-01" nType="-99"/>
        <Node pos="r" depth="1" NCoef="0" IVar="4" Cut="3.6267244815826416e-01" cType="1" res="-3.9137592539191246e-03" rms="4.5465478301048279e-01" purity="5.1685887575149536e-01" nType="0">
          <Node pos="l" depth="2" NCoef="0" IVar="-1" Cut="0.0000000000000000e+00" cType="1" res="-8.1278162542730570e-04" rms="4.5519298315048218e-01" purity="4.6358361840248108e-01" nType="-99"/>
          <Node pos="r" depth="2" NCoef="0" IVar="-1" Cut="0.0000000000000000e+00" cType="1" res="2.2312183864414692e-04" rms="4.5406958460807800e-01" purity="5.6135588884353638e-01" nType="-99"/>
        </Node>
      </Node>
    </BinaryTree>
    <BinaryTree type="DecisionTree" boostWeight="1.0000000000000000e+00" itree="855">
      <Node pos="s" depth="0" NCoef="0" IVar="3" Cut="1.6104522347450256e-01" cType="1" res="7.2840498760342598e-03" rms="4.5121797919273376e-01" purity="5.0753474235534668e-01" nType="0">
        <Node pos="l" depth="1" NCoef="0" IVar="6" Cut="1.8706885576248169e+00" cType="1" res="4.2958492413163185e-03" rms="4.5119822025299072e-01" purity="5.1162356138229370e-01" nType="0">
          <Node pos="l" depth="2" NCoef="0" IVar="-1" Cut="0.0000000000000000e+00" cType="1" res="1.4619909925386310e-03" rms="4.4286361336708069e-01" purity="6.1417233943939209e-01" nType="-99"/>
          <Node pos="r" depth="2" NCoef="0" IVar="-1" Cut="0.0000000000000000e+00" cType="1" res="-2.5662609914434142e-05" rms="4.5310088992118835e-01" purity="4.8640400171279907e-01" nType="-99"/>
        </Node>
        <Node pos="r" depth="1" NCoef="0" IVar="-1" Cut="0.0000000000000000e+00" cType="1" res="2.5579608045518398e-03" rms="4.5015305280685425e-01" purity="4.6305778622627258e-01" nType="-99"/>
      </Node>
    </BinaryTree>
    <BinaryTree type="DecisionTree" boostWeight="1.0000000000000000e+00" itree="856">
      <Node pos="s" depth="0" NCoef="0" IVar="1" Cut="4.1130044555664062e+02" cType="1" res="-1.5838041435927153e-03" rms="4.5528960227966309e-01" purity="4.9951890110969543e-01" nType="0">
        <Node pos="l" depth="1" NCoef="0" IVar="0" Cut="2.3635885715484619e+00" cType="1" res="2.1731743589043617e-02" rms="4.4283425807952881e-01" purity="3.7080088257789612e-01" nType="0">
          <Node pos="l" depth="2" NCoef="0" IVar="-1" Cut="0.0000000000000000e+00" cType="1" res="7.2722432378213853e-05" rms="4.0961703658103943e-01" purity="2.2815763950347900e-01" nType="-99"/>
          <Node pos="r" depth="2" NCoef="0" IVar="-1" Cut="0.0000000000000000e+00" cType="1" res="2.3538100067526102e-03" rms="4.6902966499328613e-01" purity="4.9468207359313965e-01" nType="-99"/>
        </Node>
        <Node pos="r" depth="1" NCoef="0" IVar="6" Cut="2.0125279426574707e+00" cType="1" res="-6.5612294711172581e-03" rms="4.5775088667869568e-01" purity="5.2699780464172363e-01" nType="0">
          <Node pos="l" depth="2" NCoef="0" IVar="-1" Cut="0.0000000000000000e+00" cType="1" res="7.6918577542528510e-04" rms="4.5201203227043152e-01" purity="6.1903667449951172e-01" nType="-99"/>
          <Node pos="r" depth="2" NCoef="0" IVar="-1" Cut="0.0000000000000000e+00" cType="1" res="-8.5199769819155335e-04" rms="4.5969176292419434e-01" purity="4.9231737852096558e-01" nType="-99"/>
        </Node>
      </Node>
    </BinaryTree>
    <BinaryTree type="DecisionTree" boostWeight="1.0000000000000000e+00" itree="857">
      <Node pos="s" depth="0" NCoef="0" IVar="8" Cut="1.2053571939468384e+00" cType="1" res="5.7140359422191978e-04" rms="4.5217901468276978e-01" purity="5.0191974639892578e-01" nType="0">
        <Node pos="l" depth="1" NCoef="0" IVar="3" Cut="4.8543635755777359e-02" cType="1" res="-5.9136594645678997e-03" rms="4.5406049489974976e-01" purity="5.2753973007202148e-01" nType="0">
          <Node pos="l" depth="2" NCoef="0" IVar="-1" Cut="0.0000000000000000e+00" cType="1" res="-1.0065407259389758e-03" rms="4.5675277709960938e-01" purity="5.3806650638580322e-01" nType="-99"/>
          <Node pos="r" depth="2" NCoef="0" IVar="-1" Cut="0.0000000000000000e+00" cType="1" res="7.3656736640259624e-04" rms="4.4879764318466187e-01" purity="5.0922715663909912e-01" nType="-99"/>
        </Node>
        <Node pos="r" depth="1" NCoef="0" IVar="1" Cut="5.7188256835937500e+02" cType="1" res="1.1656526476144791e-02" rms="4.4872769713401794e-01" purity="4.5812672376632690e-01" nType="0">
          <Node pos="l" depth="2" NCoef="0" IVar="-1" Cut="0.0000000000000000e+00" cType="1" res="7.0362228143494576e-05" rms="4.4290006160736084e-01" purity="4.0280044078826904e-01" nType="-99"/>
          <Node pos="r" depth="2" NCoef="0" IVar="-1" Cut="0.0000000000000000e+00" cType="1" res="2.2748084738850594e-03" rms="4.6149817109107971e-01" purity="5.9171694517135620e-01" nType="-99"/>
        </Node>
      </Node>
    </BinaryTree>
    <BinaryTree type="DecisionTree" boostWeight="1.0000000000000000e+00" itree="858">
      <Node pos="s" depth="0" NCoef="0" IVar="6" Cut="1.6665661334991455e+00" cType="1" res="9.4015238573774695e-05" rms="4.5275822281837463e-01" purity="5.0072735548019409e-01" nType="0">
        <Node pos="l" depth="1" NCoef="0" IVar="4" Cut="4.3317982554435730e-01" cType="1" res="2.6892635971307755e-02" rms="4.4061169028282166e-01" purity="6.2958532571792603e-01" nType="0">
          <Node pos="l" depth="2" NCoef="0" IVar="-1" Cut="0.0000000000000000e+00" cType="1" res="2.8066884260624647e-03" rms="4.3886199593544006e-01" purity="6.3132524490356445e-01" nType="-99"/>
          <Node pos="r" depth="2" NCoef="0" IVar="-1" Cut="0.0000000000000000e+00" cType="1" res="2.5981772341765463e-04" rms="4.4163367152214050e-01" purity="6.2748730182647705e-01" nType="-99"/>
        </Node>
        <Node pos="r" depth="1" NCoef="0" IVar="9" Cut="9.4528454542160034e-01" cType="1" res="-3.6520932335406542e-03" rms="4.5430439710617065e-01" purity="4.8271462321281433e-01" nType="0">
          <Node pos="l" depth="2" NCoef="0" IVar="-1" Cut="0.0000000000000000e+00" cType="1" res="-4.7146700671873987e-04" rms="4.5374834537506104e-01" purity="4.9230214953422546e-01" nType="-99"/>
          <Node pos="r" depth="2" NCoef="0" IVar="-1" Cut="0.0000000000000000e+00" cType="1" res="1.6476792516186833e-03" rms="4.5743468403816223e-01" purity="4.1064512729644775e-01" nType="-99"/>
        </Node>
      </Node>
    </BinaryTree>
    <BinaryTree type="DecisionTree" boostWeight="1.0000000000000000e+00" itree="859">
      <Node pos="s" depth="0" NCoef="0" IVar="3" Cut="-1.2775597162544727e-02" cType="1" res="-5.6522842496633530e-03" rms="4.5363807678222656e-01" purity="4.9804463982582092e-01" nType="0">
        <Node pos="l" depth="1" NCoef="0" IVar="4" Cut="4.1128730773925781e-01" cType="1" res="6.4667086116969585e-03" rms="4.5538207888603210e-01" purity="5.5341184139251709e-01" nType="0">
          <Node pos="l" depth="2" NCoef="0" IVar="-1" Cut="0.0000000000000000e+00" cType="1" res="-2.1039110142737627e-03" rms="4.6301618218421936e-01" purity="4.6317142248153687e-01" nType="-99"/>
          <Node pos="r" depth="2" NCoef="0" IVar="-1" Cut="0.0000000000000000e+00" cType="1" res="1.2138350866734982e-03" rms="4.5217674970626831e-01" purity="5.8206337690353394e-01" nType="-99"/>
        </Node>
        <Node pos="r" depth="1" NCoef="0" IVar="0" Cut="3.8058555126190186e+00" cType="1" res="-1.1451015248894691e-02" rms="4.5268648862838745e-01" purity="4.7155240178108215e-01" nType="0">
          <Node pos="l" depth="2" NCoef="0" IVar="-1" Cut="0.0000000000000000e+00" cType="1" res="-1.0752218076959252e-03" rms="4.5697665214538574e-01" purity="3.9402747154235840e-01" nType="-99"/>
          <Node pos="r" depth="2" NCoef="0" IVar="-1" Cut="0.0000000000000000e+00" cType="1" res="2.7692673029378057e-04" rms="4.4046112895011902e-01" purity="6.8180203437805176e-01" nType="-99"/>
        </Node>
      </Node>
    </BinaryTree>
    <BinaryTree type="DecisionTree" boostWeight="1.0000000000000000e+00" itree="860">
      <Node pos="s" depth="0" NCoef="0" IVar="5" Cut="9.5266675949096680e-01" cType="1" res="3.1219928059726954e-03" rms="4.5433935523033142e-01" purity="5.0330317020416260e-01" nType="0">
        <Node pos="l" depth="1" NCoef="0" IVar="4" Cut="2.8282415866851807e-01" cType="1" res="-6.3085192814469337e-03" rms="4.5782837271690369e-01" purity="3.8531765341758728e-01" nType="0">
          <Node pos="l" depth="2" NCoef="0" IVar="-1" Cut="0.0000000000000000e+00" cType="1" res="7.3764577973634005e-04" rms="4.5238247513771057e-01" purity="3.5417789220809937e-01" nType="-99"/>
          <Node pos="r" depth="2" NCoef="0" IVar="-1" Cut="0.0000000000000000e+00" cType="1" res="-9.2610425781458616e-04" rms="4.6035119891166687e-01" purity="4.0137779712677002e-01" nType="-99"/>
        </Node>
        <Node pos="r" depth="1" NCoef="0" IVar="0" Cut="3.7091457843780518e+00" cType="1" res="1.2611487880349159e-02" rms="4.5060211420059204e-01" purity="6.2202668190002441e-01" nType="0">
          <Node pos="l" depth="2" NCoef="0" IVar="-1" Cut="0.0000000000000000e+00" cType="1" res="1.4637355925515294e-03" rms="4.7000211477279663e-01" purity="5.5070692300796509e-01" nType="-99"/>
          <Node pos="r" depth="2" NCoef="0" IVar="-1" Cut="0.0000000000000000e+00" cType="1" res="-2.6413367595523596e-04" rms="4.2174643278121948e-01" purity="7.2071111202239990e-01" nType="-99"/>
        </Node>
      </Node>
    </BinaryTree>
    <BinaryTree type="DecisionTree" boostWeight="1.0000000000000000e+00" itree="861">
      <Node pos="s" depth="0" NCoef="0" IVar="8" Cut="1.7691785097122192e+00" cType="1" res="-3.3074410166591406e-03" rms="4.5278507471084595e-01" purity="4.9702277779579163e-01" nType="0">
        <Node pos="l" depth="1" NCoef="0" IVar="0" Cut="3.1596348285675049e+00" cType="1" res="-5.2321855910122395e-03" rms="4.5366051793098450e-01" purity="5.0100880861282349e-01" nType="0">
          <Node pos="l" depth="2" NCoef="0" IVar="-1" Cut="0.0000000000000000e+00" cType="1" res="-7.0974230766296387e-04" rms="4.5918455719947815e-01" purity="3.9080220460891724e-01" nType="-99"/>
          <Node pos="r" depth="2" NCoef="0" IVar="-1" Cut="0.0000000000000000e+00" cType="1" res="2.4130471865646541e-04" rms="4.4524568319320679e-01" purity="6.6334211826324463e-01" nType="-99"/>
        </Node>
        <Node pos="r" depth="1" NCoef="0" IVar="-1" Cut="0.0000000000000000e+00" cType="1" res="1.3836560538038611e-03" rms="4.4084611535072327e-01" purity="4.4663804769515991e-01" nType="-99"/>
      </Node>
    </BinaryTree>
    <BinaryTree type="DecisionTree" boostWeight="1.0000000000000000e+00" itree="862">
      <Node pos="s" depth="0" NCoef="0" IVar="3" Cut="-5.0237663090229034e-02" cType="1" res="-3.6264874506741762e-03" rms="4.5485252141952515e-01" purity="4.9717208743095398e-01" nType="0">
        <Node pos="l" depth="1" NCoef="0" IVar="3" Cut="-7.0841461420059204e-02" cType="1" res="2.0572669804096222e-02" rms="4.5050895214080811e-01" purity="5.9101808071136475e-01" nType="0">
          <Node pos="l" depth="2" NCoef="0" IVar="-1" Cut="0.0000000000000000e+00" cType="1" res="7.3432187491562217e-05" rms="4.5469373464584351e-01" purity="5.8381062746047974e-01" nType="-99"/>
          <Node pos="r" depth="2" NCoef="0" IVar="-1" Cut="0.0000000000000000e+00" cType="1" res="2.1605775691568851e-03" rms="4.4683024287223816e-01" purity="5.9637081623077393e-01" nType="-99"/>
        </Node>
        <Node pos="r" depth="1" NCoef="0" IVar="3" Cut="-7.6599740423262119e-03" cType="1" res="-7.2854906320571899e-03" rms="4.5539376139640808e-01" purity="4.8298221826553345e-01" nType="0">
          <Node pos="l" depth="2" NCoef="0" IVar="-1" Cut="0.0000000000000000e+00" cType="1" res="-1.4184530591592193e-03" rms="4.5566073060035706e-01" purity="5.0695073604583740e-01" nType="-99"/>
          <Node pos="r" depth="2" NCoef="0" IVar="-1" Cut="0.0000000000000000e+00" cType="1" res="-1.4201030717231333e-04" rms="4.5519319176673889e-01" purity="4.7514134645462036e-01" nType="-99"/>
        </Node>
      </Node>
    </BinaryTree>
    <BinaryTree type="DecisionTree" boostWeight="1.0000000000000000e+00" itree="863">
      <Node pos="s" depth="0" NCoef="0" IVar="3" Cut="1.7435638606548309e-01" cType="1" res="4.5254146680235863e-03" rms="4.5547395944595337e-01" purity="5.0385093688964844e-01" nType="0">
        <Node pos="l" depth="1" NCoef="0" IVar="1" Cut="4.8874246215820312e+02" cType="1" res="6.9059086963534355e-03" rms="4.5651564002037048e-01" purity="5.1082009077072144e-01" nType="0">
          <Node pos="l" depth="2" NCoef="0" IVar="-1" Cut="0.0000000000000000e+00" cType="1" res="1.0684550506994128e-03" rms="4.5593369007110596e-01" purity="4.2733696103096008e-01" nType="-99"/>
          <Node pos="r" depth="2" NCoef="0" IVar="-1" Cut="0.0000000000000000e+00" cType="1" res="2.0367629986139946e-05" rms="4.5679357647895813e-01" purity="5.6754368543624878e-01" nType="-99"/>
        </Node>
        <Node pos="r" depth="1" NCoef="0" IVar="-1" Cut="0.0000000000000000e+00" cType="1" res="-1.9854770507663488e-03" rms="4.3812781572341919e-01" purity="3.9999017119407654e-01" nType="-99"/>
      </Node>
    </BinaryTree>
    <BinaryTree type="DecisionTree" boostWeight="1.0000000000000000e+00" itree="864">
      <Node pos="s" depth="0" NCoef="0" IVar="7" Cut="7.0732765197753906e+01" cType="1" res="6.2504890374839306e-03" rms="4.5385035872459412e-01" purity="5.0435322523117065e-01" nType="0">
        <Node pos="l" depth="1" NCoef="0" IVar="1" Cut="6.0064624023437500e+02" cType="1" res="-2.9925929848104715e-03" rms="4.5391395688056946e-01" purity="4.3348830938339233e-01" nType="0">
          <Node pos="l" depth="2" NCoef="0" IVar="-1" Cut="0.0000000000000000e+00" cType="1" res="1.2175218580523506e-04" rms="4.5089590549468994e-01" purity="4.2333173751831055e-01" nType="-99"/>
          <Node pos="r" depth="2" NCoef="0" IVar="-1" Cut="0.0000000000000000e+00" cType="1" res="-2.3667837958782911e-03" rms="4.7410988807678223e-01" purity="5.0874865055084229e-01" nType="-99"/>
        </Node>
        <Node pos="r" depth="1" NCoef="0" IVar="9" Cut="7.8101122379302979e-01" cType="1" res="1.7913181334733963e-02" rms="4.5350137352943420e-01" purity="5.9376877546310425e-01" nType="0">
          <Node pos="l" depth="2" NCoef="0" IVar="-1" Cut="0.0000000000000000e+00" cType="1" res="1.6000419855117798e-03" rms="4.5018035173416138e-01" purity="6.2498730421066284e-01" nType="-99"/>
          <Node pos="r" depth="2" NCoef="0" IVar="-1" Cut="0.0000000000000000e+00" cType="1" res="-7.4531213613227010e-04" rms="4.6519327163696289e-01" purity="4.7027853131294250e-01" nType="-99"/>
        </Node>
      </Node>
    </BinaryTree>
    <BinaryTree type="DecisionTree" boostWeight="1.0000000000000000e+00" itree="865">
      <Node pos="s" depth="0" NCoef="0" IVar="2" Cut="6.2162849426269531e+01" cType="1" res="2.5403783656656742e-03" rms="4.5332899689674377e-01" purity="5.0074005126953125e-01" nType="0">
        <Node pos="l" depth="1" NCoef="0" IVar="4" Cut="3.3100256323814392e-01" cType="1" res="2.1321116015315056e-02" rms="4.5770540833473206e-01" purity="4.9843624234199524e-01" nType="0">
          <Node pos="l" depth="2" NCoef="0" IVar="-1" Cut="0.0000000000000000e+00" cType="1" res="3.2093923073261976e-03" rms="4.7120770812034607e-01" purity="4.8347491025924683e-01" nType="-99"/>
          <Node pos="r" depth="2" NCoef="0" IVar="-1" Cut="0.0000000000000000e+00" cType="1" res="2.2736802930012345e-04" rms="4.4882026314735413e-01" purity="5.0702673196792603e-01" nType="-99"/>
        </Node>
        <Node pos="r" depth="1" NCoef="0" IVar="6" Cut="2.0388135910034180e+00" cType="1" res="-2.1469546481966972e-03" rms="4.5210850238800049e-01" purity="5.0131505727767944e-01" nType="0">
          <Node pos="l" depth="2" NCoef="0" IVar="-1" Cut="0.0000000000000000e+00" cType="1" res="-1.1187972268089652e-03" rms="4.5103344321250916e-01" purity="5.9385031461715698e-01" nType="-99"/>
          <Node pos="r" depth="2" NCoef="0" IVar="-1" Cut="0.0000000000000000e+00" cType="1" res="1.3135054905433208e-04" rms="4.5230832695960999e-01" purity="4.7616359591484070e-01" nType="-99"/>
        </Node>
      </Node>
    </BinaryTree>
    <BinaryTree type="DecisionTree" boostWeight="1.0000000000000000e+00" itree="866">
      <Node pos="s" depth="0" NCoef="0" IVar="8" Cut="5.6447303295135498e-01" cType="1" res="1.2617298634722829e-03" rms="4.5212316513061523e-01" purity="5.0341403484344482e-01" nType="0">
        <Node pos="l" depth="1" NCoef="0" IVar="-1" Cut="0.0000000000000000e+00" cType="1" res="2.2880055475980043e-03" rms="4.5142832398414612e-01" purity="5.9659725427627563e-01" nType="-99"/>
        <Node pos="r" depth="1" NCoef="0" IVar="8" Cut="1.8558121919631958e+00" cType="1" res="-9.1276952298358083e-04" rms="4.5207682251930237e-01" purity="4.9762842059135437e-01" nType="0">
          <Node pos="l" depth="2" NCoef="0" IVar="-1" Cut="0.0000000000000000e+00" cType="1" res="-1.7905746062751859e-04" rms="4.5357656478881836e-01" purity="5.0003439188003540e-01" nType="-99"/>
          <Node pos="r" depth="2" NCoef="0" IVar="-1" Cut="0.0000000000000000e+00" cType="1" res="2.0190163049846888e-03" rms="4.2629370093345642e-01" purity="4.5930123329162598e-01" nType="-99"/>
        </Node>
      </Node>
    </BinaryTree>
    <BinaryTree type="DecisionTree" boostWeight="1.0000000000000000e+00" itree="867">
      <Node pos="s" depth="0" NCoef="0" IVar="6" Cut="1.7627363204956055e+00" cType="1" res="-3.0803349800407887e-03" rms="4.5625078678131104e-01" purity="4.9826619029045105e-01" nType="0">
        <Node pos="l" depth="1" NCoef="0" IVar="5" Cut="9.5383745431900024e-01" cType="1" res="-2.1812619641423225e-02" rms="4.5442336797714233e-01" purity="5.7413864135742188e-01" nType="0">
          <Node pos="l" depth="2" NCoef="0" IVar="-1" Cut="0.0000000000000000e+00" cType="1" res="-2.2411912214010954e-03" rms="4.7195598483085632e-01" purity="4.5164313912391663e-01" nType="-99"/>
          <Node pos="r" depth="2" NCoef="0" IVar="-1" Cut="0.0000000000000000e+00" cType="1" res="-2.7276074979454279e-04" rms="4.3475481867790222e-01" purity="7.0129680633544922e-01" nType="-99"/>
        </Node>
        <Node pos="r" depth="1" NCoef="0" IVar="0" Cut="3.3413832187652588e+00" cType="1" res="3.2962852856144309e-04" rms="4.5649996399879456e-01" purity="4.8445463180541992e-01" nType="0">
          <Node pos="l" depth="2" NCoef="0" IVar="-1" Cut="0.0000000000000000e+00" cType="1" res="4.1563864215277135e-04" rms="4.5898419618606567e-01" purity="3.9687579870223999e-01" nType="-99"/>
          <Node pos="r" depth="2" NCoef="0" IVar="-1" Cut="0.0000000000000000e+00" cType="1" res="-6.7447609035298228e-04" rms="4.5190113782882690e-01" purity="6.3806325197219849e-01" nType="-99"/>
        </Node>
      </Node>
    </BinaryTree>
    <BinaryTree type="DecisionTree" boostWeight="1.0000000000000000e+00" itree="868">
      <Node pos="s" depth="0" NCoef="0" IVar="2" Cut="1.7916773986816406e+02" cType="1" res="2.7664767112582922e-03" rms="4.5325967669487000e-01" purity="5.0464498996734619e-01" nType="0">
        <Node pos="l" depth="1" NCoef="0" IVar="4" Cut="4.6480208635330200e-01" cType="1" res="2.0970216428395361e-04" rms="4.5304360985755920e-01" purity="5.0200694799423218e-01" nType="0">
          <Node pos="l" depth="2" NCoef="0" IVar="-1" Cut="0.0000000000000000e+00" cType="1" res="-4.3751634075306356e-04" rms="4.5184761285781860e-01" purity="4.6777966618537903e-01" nType="-99"/>
          <Node pos="r" depth="2" NCoef="0" IVar="-1" Cut="0.0000000000000000e+00" cType="1" res="7.6638971222564578e-04" rms="4.5480322837829590e-01" purity="5.5979281663894653e-01" nType="-99"/>
        </Node>
        <Node pos="r" depth="1" NCoef="0" IVar="-1" Cut="0.0000000000000000e+00" cType="1" res="1.9235609797760844e-03" rms="4.5466354489326477e-01" purity="5.3274798393249512e-01" nType="-99"/>
      </Node>
    </BinaryTree>
    <BinaryTree type="DecisionTree" boostWeight="1.0000000000000000e+00" itree="869">
      <Node pos="s" depth="0" NCoef="0" IVar="3" Cut="9.9503599107265472e-02" cType="1" res="5.4227863438427448e-04" rms="4.5451670885086060e-01" purity="5.0277626514434814e-01" nType="0">
        <Node pos="l" depth="1" NCoef="0" IVar="5" Cut="9.1355025768280029e-01" cType="1" res="-4.0058149024844170e-03" rms="4.5607054233551025e-01" purity="5.1506537199020386e-01" nType="0">
          <Node pos="l" depth="2" NCoef="0" IVar="-1" Cut="0.0000000000000000e+00" cType="1" res="2.0091529004275799e-03" rms="4.4587707519531250e-01" purity="3.4604141116142273e-01" nType="-99"/>
          <Node pos="r" depth="2" NCoef="0" IVar="-1" Cut="0.0000000000000000e+00" cType="1" res="-4.4413405703380704e-04" rms="4.5682588219642639e-01" purity="5.2989166975021362e-01" nType="-99"/>
        </Node>
        <Node pos="r" depth="1" NCoef="0" IVar="7" Cut="8.6985000610351562e+01" cType="1" res="1.7733525484800339e-02" rms="4.4817796349525452e-01" purity="4.5632463693618774e-01" nType="0">
          <Node pos="l" depth="2" NCoef="0" IVar="-1" Cut="0.0000000000000000e+00" cType="1" res="2.5631900643929839e-04" rms="4.4219020009040833e-01" purity="4.0200802683830261e-01" nType="-99"/>
          <Node pos="r" depth="2" NCoef="0" IVar="-1" Cut="0.0000000000000000e+00" cType="1" res="3.2694232650101185e-03" rms="4.6119093894958496e-01" purity="5.9446650743484497e-01" nType="-99"/>
        </Node>
      </Node>
    </BinaryTree>
    <BinaryTree type="DecisionTree" boostWeight="1.0000000000000000e+00" itree="870">
      <Node pos="s" depth="0" NCoef="0" IVar="6" Cut="2.3834502696990967e+00" cType="1" res="-3.4042003098875284e-03" rms="4.5551446080207825e-01" purity="4.9532884359359741e-01" nType="0">
        <Node pos="l" depth="1" NCoef="0" IVar="1" Cut="4.6477410888671875e+02" cType="1" res="-1.0170999914407730e-02" rms="4.5854306221008301e-01" purity="5.3740608692169189e-01" nType="0">
          <Node pos="l" depth="2" NCoef="0" IVar="-1" Cut="0.0000000000000000e+00" cType="1" res="-1.3909020926803350e-03" rms="4.5891010761260986e-01" purity="4.0636560320854187e-01" nType="-99"/>
          <Node pos="r" depth="2" NCoef="0" IVar="-1" Cut="0.0000000000000000e+00" cType="1" res="-2.9550521867349744e-04" rms="4.5827695727348328e-01" purity="5.9553647041320801e-01" nType="-99"/>
        </Node>
        <Node pos="r" depth="1" NCoef="0" IVar="3" Cut="1.1834472417831421e-01" cType="1" res="1.3097027316689491e-02" rms="4.4761461019515991e-01" purity="3.9272117614746094e-01" nType="0">
          <Node pos="l" depth="2" NCoef="0" IVar="-1" Cut="0.0000000000000000e+00" cType="1" res="1.4860964147374034e-03" rms="4.5473110675811768e-01" purity="4.1995468735694885e-01" nType="-99"/>
          <Node pos="r" depth="2" NCoef="0" IVar="-1" Cut="0.0000000000000000e+00" cType="1" res="-1.4943988062441349e-03" rms="4.2032366991043091e-01" purity="2.9872024059295654e-01" nType="-99"/>
        </Node>
      </Node>
    </BinaryTree>
    <BinaryTree type="DecisionTree" boostWeight="1.0000000000000000e+00" itree="871">
      <Node pos="s" depth="0" NCoef="0" IVar="2" Cut="9.0716201782226562e+01" cType="1" res="-2.3999204859137535e-03" rms="4.5319196581840515e-01" purity="4.9837967753410339e-01" nType="0">
        <Node pos="l" depth="1" NCoef="0" IVar="1" Cut="5.8391204833984375e+02" cType="1" res="-9.5922974869608879e-03" rms="4.5434528589248657e-01" purity="4.6848839521408081e-01" nType="0">
          <Node pos="l" depth="2" NCoef="0" IVar="-1" Cut="0.0000000000000000e+00" cType="1" res="1.6154894547071308e-04" rms="4.5186895132064819e-01" purity="4.4714361429214478e-01" nType="-99"/>
          <Node pos="r" depth="2" NCoef="0" IVar="-1" Cut="0.0000000000000000e+00" cType="1" res="-2.9826597310602665e-03" rms="4.6004223823547363e-01" purity="5.3705757856369019e-01" nType="-99"/>
        </Node>
        <Node pos="r" depth="1" NCoef="0" IVar="4" Cut="6.1843389272689819e-01" cType="1" res="3.1515571754425764e-03" rms="4.5222157239913940e-01" purity="5.2145147323608398e-01" nType="0">
          <Node pos="l" depth="2" NCoef="0" IVar="-1" Cut="0.0000000000000000e+00" cType="1" res="-1.0182164987782016e-04" rms="4.5211020112037659e-01" purity="5.0454211235046387e-01" nType="-99"/>
          <Node pos="r" depth="2" NCoef="0" IVar="-1" Cut="0.0000000000000000e+00" cType="1" res="2.1869954653084278e-03" rms="4.5171841979026794e-01" purity="6.3174259662628174e-01" nType="-99"/>
        </Node>
      </Node>
    </BinaryTree>
    <BinaryTree type="DecisionTree" boostWeight="1.0000000000000000e+00" itree="872">
      <Node pos="s" depth="0" NCoef="0" IVar="4" Cut="4.3977040052413940e-01" cType="1" res="-2.3295914288610220e-03" rms="4.5326519012451172e-01" purity="4.9761795997619629e-01" nType="0">
        <Node pos="l" depth="1" NCoef="0" IVar="4" Cut="1.1368335783481598e-01" cType="1" res="6.1930706724524498e-03" rms="4.5333436131477356e-01" purity="4.7471389174461365e-01" nType="0">
          <Node pos="l" depth="2" NCoef="0" IVar="-1" Cut="0.0000000000000000e+00" cType="1" res="-1.8634389853104949e-03" rms="4.4422605633735657e-01" purity="3.5035696625709534e-01" nType="-99"/>
          <Node pos="r" depth="2" NCoef="0" IVar="-1" Cut="0.0000000000000000e+00" cType="1" res="5.9423170750960708e-04" rms="4.5405653119087219e-01" purity="4.8651379346847534e-01" nType="-99"/>
        </Node>
        <Node pos="r" depth="1" NCoef="0" IVar="2" Cut="9.3448066711425781e+01" cType="1" res="-1.4857841655611992e-02" rms="4.5287242531776428e-01" purity="5.3128671646118164e-01" nType="0">
          <Node pos="l" depth="2" NCoef="0" IVar="-1" Cut="0.0000000000000000e+00" cType="1" res="-1.7162522999569774e-03" rms="4.5459452271461487e-01" purity="4.7967383265495300e-01" nType="-99"/>
          <Node pos="r" depth="2" NCoef="0" IVar="-1" Cut="0.0000000000000000e+00" cType="1" res="-1.5908472414594144e-04" rms="4.5089215040206909e-01" purity="5.7999998331069946e-01" nType="-99"/>
        </Node>
      </Node>
    </BinaryTree>
    <BinaryTree type="DecisionTree" boostWeight="1.0000000000000000e+00" itree="873">
      <Node pos="s" depth="0" NCoef="0" IVar="4" Cut="4.3409913778305054e-01" cType="1" res="1.9326230976730585e-03" rms="4.5384147763252258e-01" purity="5.0425130128860474e-01" nType="0">
        <Node pos="l" depth="1" NCoef="0" IVar="3" Cut="1.7061243951320648e-01" cType="1" res="8.1354193389415741e-03" rms="4.5358368754386902e-01" purity="4.7788605093955994e-01" nType="0">
          <Node pos="l" depth="2" NCoef="0" IVar="-1" Cut="0.0000000000000000e+00" cType="1" res="7.3788338340818882e-04" rms="4.5465075969696045e-01" purity="4.8570582270622253e-01" nType="-99"/>
          <Node pos="r" depth="2" NCoef="0" IVar="-1" Cut="0.0000000000000000e+00" cType="1" res="-1.1465552961453795e-03" rms="4.4479885697364807e-01" purity="4.2036673426628113e-01" nType="-99"/>
        </Node>
        <Node pos="r" depth="1" NCoef="0" IVar="7" Cut="9.4159744262695312e+01" cType="1" res="-6.6271862015128136e-03" rms="4.5405784249305725e-01" purity="5.4063516855239868e-01" nType="0">
          <Node pos="l" depth="2" NCoef="0" IVar="-1" Cut="0.0000000000000000e+00" cType="1" res="-1.6095484170364216e-05" rms="4.5474699139595032e-01" purity="5.2270293235778809e-01" nType="-99"/>
          <Node pos="r" depth="2" NCoef="0" IVar="-1" Cut="0.0000000000000000e+00" cType="1" res="-2.5699890684336424e-03" rms="4.4917571544647217e-01" purity="6.3131493330001831e-01" nType="-99"/>
        </Node>
      </Node>
    </BinaryTree>
    <BinaryTree type="DecisionTree" boostWeight="1.0000000000000000e+00" itree="874">
      <Node pos="s" depth="0" NCoef="0" IVar="3" Cut="1.4851027727127075e-01" cType="1" res="1.0660216212272644e-03" rms="4.5267382264137268e-01" purity="5.0254714488983154e-01" nType="0">
        <Node pos="l" depth="1" NCoef="0" IVar="5" Cut="9.8759984970092773e-01" cType="1" res="-1.9959448836743832e-03" rms="4.5321637392044067e-01" purity="5.0769108533859253e-01" nType="0">
          <Node pos="l" depth="2" NCoef="0" IVar="-1" Cut="0.0000000000000000e+00" cType="1" res="-2.9140699189156294e-04" rms="4.5912191271781921e-01" purity="4.8055443167686462e-01" nType="-99"/>
          <Node pos="r" depth="2" NCoef="0" IVar="-1" Cut="0.0000000000000000e+00" cType="1" res="2.1956868004053831e-03" rms="3.8242429494857788e-01" purity="8.0088251829147339e-01" nType="-99"/>
        </Node>
        <Node pos="r" depth="1" NCoef="0" IVar="4" Cut="1.6842560470104218e-01" cType="1" res="2.6410380378365517e-02" rms="4.4735383987426758e-01" purity="4.5996972918510437e-01" nType="0">
          <Node pos="l" depth="2" NCoef="0" IVar="-1" Cut="0.0000000000000000e+00" cType="1" res="3.1237618532031775e-03" rms="4.4888880848884583e-01" purity="4.4640550017356873e-01" nType="-99"/>
          <Node pos="r" depth="2" NCoef="0" IVar="-1" Cut="0.0000000000000000e+00" cType="1" res="4.9956474686041474e-04" rms="4.4515502452850342e-01" purity="4.7216838598251343e-01" nType="-99"/>
        </Node>
      </Node>
    </BinaryTree>
    <BinaryTree type="DecisionTree" boostWeight="1.0000000000000000e+00" itree="875">
      <Node pos="s" depth="0" NCoef="0" IVar="2" Cut="1.8988899230957031e+02" cType="1" res="-4.1764294728636742e-03" rms="4.5281165838241577e-01" purity="4.9726250767707825e-01" nType="0">
        <Node pos="l" depth="1" NCoef="0" IVar="0" Cut="5.1169056892395020e+00" cType="1" res="-1.6288899350911379e-03" rms="4.5204773545265198e-01" purity="4.9975594878196716e-01" nType="0">
          <Node pos="l" depth="2" NCoef="0" IVar="-1" Cut="0.0000000000000000e+00" cType="1" res="-2.7814373606815934e-04" rms="4.5845976471900940e-01" purity="4.7131249308586121e-01" nType="-99"/>
          <Node pos="r" depth="2" NCoef="0" IVar="-1" Cut="0.0000000000000000e+00" cType="1" res="2.5103017687797546e-03" rms="3.7034335732460022e-01" purity="8.2153785228729248e-01" nType="-99"/>
        </Node>
        <Node pos="r" depth="1" NCoef="0" IVar="-1" Cut="0.0000000000000000e+00" cType="1" res="-2.3918179795145988e-03" rms="4.6124124526977539e-01" purity="4.6532937884330750e-01" nType="-99"/>
      </Node>
    </BinaryTree>
    <BinaryTree type="DecisionTree" boostWeight="1.0000000000000000e+00" itree="876">
      <Node pos="s" depth="0" NCoef="0" IVar="6" Cut="1.5437766313552856e+00" cType="1" res="-1.4916461659595370e-03" rms="4.5318540930747986e-01" purity="5.0237411260604858e-01" nType="0">
        <Node pos="l" depth="1" NCoef="0" IVar="-1" Cut="0.0000000000000000e+00" cType="1" res="-1.5647794352844357e-03" rms="4.5648279786109924e-01" purity="5.8406561613082886e-01" nType="-99"/>
        <Node pos="r" depth="1" NCoef="0" IVar="6" Cut="2.5979185104370117e+00" cType="1" res="7.9085561446845531e-04" rms="4.5280054211616516e-01" purity="4.9448955059051514e-01" nType="0">
          <Node pos="l" depth="2" NCoef="0" IVar="-1" Cut="0.0000000000000000e+00" cType="1" res="2.6160676497966051e-04" rms="4.5798456668853760e-01" purity="5.3205800056457520e-01" nType="-99"/>
          <Node pos="r" depth="2" NCoef="0" IVar="-1" Cut="0.0000000000000000e+00" cType="1" res="-1.2271726736798882e-03" rms="4.2382112145423889e-01" purity="2.9546698927879333e-01" nType="-99"/>
        </Node>
      </Node>
    </BinaryTree>
    <BinaryTree type="DecisionTree" boostWeight="1.0000000000000000e+00" itree="877">
      <Node pos="s" depth="0" NCoef="0" IVar="6" Cut="2.9167788028717041e+00" cType="1" res="-1.2884538155049086e-03" rms="4.5367452502250671e-01" purity="4.9874445796012878e-01" nType="0">
        <Node pos="l" depth="1" NCoef="0" IVar="9" Cut="9.7567766904830933e-01" cType="1" res="1.4290525577962399e-03" rms="4.5733073353767395e-01" purity="5.1537710428237915e-01" nType="0">
          <Node pos="l" depth="2" NCoef="0" IVar="-1" Cut="0.0000000000000000e+00" cType="1" res="-6.8919645855203271e-05" rms="4.5578053593635559e-01" purity="5.2257329225540161e-01" nType="-99"/>
          <Node pos="r" depth="2" NCoef="0" IVar="-1" Cut="0.0000000000000000e+00" cType="1" res="1.8207569373771548e-03" rms="4.7279766201972961e-01" purity="4.3812841176986694e-01" nType="-99"/>
        </Node>
        <Node pos="r" depth="1" NCoef="0" IVar="-1" Cut="0.0000000000000000e+00" cType="1" res="-4.1842903010547161e-03" rms="3.7455621361732483e-01" purity="1.8531586229801178e-01" nType="-99"/>
      </Node>
    </BinaryTree>
    <BinaryTree type="DecisionTree" boostWeight="1.0000000000000000e+00" itree="878">
      <Node pos="s" depth="0" NCoef="0" IVar="3" Cut="-7.0311643183231354e-02" cType="1" res="1.2153282295912504e-03" rms="4.5358109474182129e-01" purity="5.0274747610092163e-01" nType="0">
        <Node pos="l" depth="1" NCoef="0" IVar="-1" Cut="0.0000000000000000e+00" cType="1" res="2.1943310275673866e-03" rms="4.5404547452926636e-01" purity="6.0692584514617920e-01" nType="-99"/>
        <Node pos="r" depth="1" NCoef="0" IVar="0" Cut="5.4401903152465820e+00" cType="1" res="-7.5177010148763657e-04" rms="4.5347717404365540e-01" purity="4.9659076333045959e-01" nType="0">
          <Node pos="l" depth="2" NCoef="0" IVar="-1" Cut="0.0000000000000000e+00" cType="1" res="-1.6467188834212720e-04" rms="4.5841589570045471e-01" purity="4.7685652971267700e-01" nType="-99"/>
          <Node pos="r" depth="2" NCoef="0" IVar="-1" Cut="0.0000000000000000e+00" cType="1" res="2.7344108093529940e-03" rms="3.5682412981987000e-01" purity="8.3485412597656250e-01" nType="-99"/>
        </Node>
      </Node>
    </BinaryTree>
    <BinaryTree type="DecisionTree" boostWeight="1.0000000000000000e+00" itree="879">
      <Node pos="s" depth="0" NCoef="0" IVar="3" Cut="1.5796910226345062e-01" cType="1" res="2.9463567771017551e-03" rms="4.5612940192222595e-01" purity="5.0474190711975098e-01" nType="0">
        <Node pos="l" depth="1" NCoef="0" IVar="6" Cut="1.9044885635375977e+00" cType="1" res="-6.0350412968546152e-04" rms="4.5617827773094177e-01" purity="5.0787550210952759e-01" nType="0">
          <Node pos="l" depth="2" NCoef="0" IVar="-1" Cut="0.0000000000000000e+00" cType="1" res="1.3587172143161297e-03" rms="4.4828984141349792e-01" purity="6.0752856731414795e-01" nType="-99"/>
          <Node pos="r" depth="2" NCoef="0" IVar="-1" Cut="0.0000000000000000e+00" cType="1" res="-4.2314868187531829e-04" rms="4.5811164379119873e-01" purity="4.8074451088905334e-01" nType="-99"/>
        </Node>
        <Node pos="r" depth="1" NCoef="0" IVar="-1" Cut="0.0000000000000000e+00" cType="1" res="2.5080461055040359e-03" rms="4.5412090420722961e-01" purity="4.7344532608985901e-01" nType="-99"/>
      </Node>
    </BinaryTree>
    <BinaryTree type="DecisionTree" boostWeight="1.0000000000000000e+00" itree="880">
      <Node pos="s" depth="0" NCoef="0" IVar="1" Cut="5.8445983886718750e+02" cType="1" res="-2.7268046978861094e-03" rms="4.5331308245658875e-01" purity="4.9867150187492371e-01" nType="0">
        <Node pos="l" depth="1" NCoef="0" IVar="5" Cut="9.1484111547470093e-01" cType="1" res="-9.7339749336242676e-03" rms="4.5254737138748169e-01" purity="4.3682929873466492e-01" nType="0">
          <Node pos="l" depth="2" NCoef="0" IVar="-1" Cut="0.0000000000000000e+00" cType="1" res="1.4307253295555711e-03" rms="4.2323786020278931e-01" purity="2.6962634921073914e-01" nType="-99"/>
          <Node pos="r" depth="2" NCoef="0" IVar="-1" Cut="0.0000000000000000e+00" cType="1" res="-7.9836149234324694e-04" rms="4.5532771944999695e-01" purity="4.5391762256622314e-01" nType="-99"/>
        </Node>
        <Node pos="r" depth="1" NCoef="0" IVar="7" Cut="7.6465812683105469e+01" cType="1" res="8.7250368669629097e-03" rms="4.5432913303375244e-01" purity="5.9974056482315063e-01" nType="0">
          <Node pos="l" depth="2" NCoef="0" IVar="-1" Cut="0.0000000000000000e+00" cType="1" res="-4.1579810203984380e-04" rms="4.5695507526397705e-01" purity="5.4430299997329712e-01" nType="-99"/>
          <Node pos="r" depth="2" NCoef="0" IVar="-1" Cut="0.0000000000000000e+00" cType="1" res="9.5184048404917121e-04" rms="4.5310887694358826e-01" purity="6.2218058109283447e-01" nType="-99"/>
        </Node>
      </Node>
    </BinaryTree>
    <BinaryTree type="DecisionTree" boostWeight="1.0000000000000000e+00" itree="881">
      <Node pos="s" depth="0" NCoef="0" IVar="5" Cut="9.6068966388702393e-01" cType="1" res="-3.6155674606561661e-03" rms="4.5120474696159363e-01" purity="4.9727189540863037e-01" nType="0">
        <Node pos="l" depth="1" NCoef="0" IVar="8" Cut="6.2169927358627319e-01" cType="1" res="-1.1035580188035965e-02" rms="4.5749694108963013e-01" purity="4.0187487006187439e-01" nType="0">
          <Node pos="l" depth="2" NCoef="0" IVar="-1" Cut="0.0000000000000000e+00" cType="1" res="1.4283043565228581e-03" rms="4.7586661577224731e-01" purity="5.0260698795318604e-01" nType="-99"/>
          <Node pos="r" depth="2" NCoef="0" IVar="-1" Cut="0.0000000000000000e+00" cType="1" res="-9.2144007794559002e-04" rms="4.5526790618896484e-01" purity="3.9081567525863647e-01" nType="-99"/>
        </Node>
        <Node pos="r" depth="1" NCoef="0" IVar="8" Cut="9.4492769241333008e-01" cType="1" res="8.4743592888116837e-03" rms="4.4049239158630371e-01" purity="6.5270876884460449e-01" nType="0">
          <Node pos="l" depth="2" NCoef="0" IVar="-1" Cut="0.0000000000000000e+00" cType="1" res="1.6375953564420342e-03" rms="4.2592093348503113e-01" purity="7.0977038145065308e-01" nType="-99"/>
          <Node pos="r" depth="2" NCoef="0" IVar="-1" Cut="0.0000000000000000e+00" cType="1" res="-1.3119996583554894e-04" rms="4.5002460479736328e-01" purity="6.1312556266784668e-01" nType="-99"/>
        </Node>
      </Node>
    </BinaryTree>
    <BinaryTree type="DecisionTree" boostWeight="1.0000000000000000e+00" itree="882">
      <Node pos="s" depth="0" NCoef="0" IVar="5" Cut="9.3762785196304321e-01" cType="1" res="1.9950377754867077e-03" rms="4.5650190114974976e-01" purity="5.0303071737289429e-01" nType="0">
        <Node pos="l" depth="1" NCoef="0" IVar="6" Cut="2.0119857788085938e+00" cType="1" res="1.7451910302042961e-02" rms="4.5408827066421509e-01" purity="3.6768421530723572e-01" nType="0">
          <Node pos="l" depth="2" NCoef="0" IVar="-1" Cut="0.0000000000000000e+00" cType="1" res="-9.7172969253733754e-04" rms="4.6200874447822571e-01" purity="4.1192665696144104e-01" nType="-99"/>
          <Node pos="r" depth="2" NCoef="0" IVar="-1" Cut="0.0000000000000000e+00" cType="1" res="1.9403500482439995e-03" rms="4.5066395401954651e-01" purity="3.5224431753158569e-01" nType="-99"/>
        </Node>
        <Node pos="r" depth="1" NCoef="0" IVar="9" Cut="4.7574192285537720e-01" cType="1" res="-4.1404371149837971e-03" rms="4.5731160044670105e-01" purity="5.5675530433654785e-01" nType="0">
          <Node pos="l" depth="2" NCoef="0" IVar="-1" Cut="0.0000000000000000e+00" cType="1" res="4.1755737038329244e-04" rms="4.4992312788963318e-01" purity="6.0996633768081665e-01" nType="-99"/>
          <Node pos="r" depth="2" NCoef="0" IVar="-1" Cut="0.0000000000000000e+00" cType="1" res="-8.1514113117009401e-04" rms="4.6320551633834839e-01" purity="5.1229411363601685e-01" nType="-99"/>
        </Node>
      </Node>
    </BinaryTree>
    <BinaryTree type="DecisionTree" boostWeight="1.0000000000000000e+00" itree="883">
      <Node pos="s" depth="0" NCoef="0" IVar="2" Cut="1.5887165832519531e+02" cType="1" res="-4.1048001730814576e-04" rms="4.5185288786888123e-01" purity="5.0339519977569580e-01" nType="0">
        <Node pos="l" depth="1" NCoef="0" IVar="0" Cut="3.6431412696838379e+00" cType="1" res="-4.5467442832887173e-03" rms="4.5252335071563721e-01" purity="4.9662590026855469e-01" nType="0">
          <Node pos="l" depth="2" NCoef="0" IVar="-1" Cut="0.0000000000000000e+00" cType="1" res="-6.4199499320238829e-04" rms="4.6025860309600830e-01" purity="4.1068926453590393e-01" nType="-99"/>
          <Node pos="r" depth="2" NCoef="0" IVar="-1" Cut="0.0000000000000000e+00" cType="1" res="6.0801155632361770e-04" rms="4.3359827995300293e-01" purity="6.9746613502502441e-01" nType="-99"/>
        </Node>
        <Node pos="r" depth="1" NCoef="0" IVar="6" Cut="2.5020318031311035e+00" cType="1" res="2.6260549202561378e-02" rms="4.4658657908439636e-01" purity="5.4704403877258301e-01" nType="0">
          <Node pos="l" depth="2" NCoef="0" IVar="-1" Cut="0.0000000000000000e+00" cType="1" res="3.0193373095244169e-03" rms="4.3829599022865295e-01" purity="6.8606597185134888e-01" nType="-99"/>
          <Node pos="r" depth="2" NCoef="0" IVar="-1" Cut="0.0000000000000000e+00" cType="1" res="2.5291615747846663e-04" rms="4.5445060729980469e-01" purity="3.9469224214553833e-01" nType="-99"/>
        </Node>
      </Node>
    </BinaryTree>
    <BinaryTree type="DecisionTree" boostWeight="1.0000000000000000e+00" itree="884">
      <Node pos="s" depth="0" NCoef="0" IVar="5" Cut="9.7231608629226685e-01" cType="1" res="1.2384714791551232e-03" rms="4.5412632822990417e-01" purity="5.0119096040725708e-01" nType="0">
        <Node pos="l" depth="1" NCoef="0" IVar="0" Cut="4.2458705902099609e+00" cType="1" res="6.1247642152011395e-03" rms="4.5713746547698975e-01" purity="4.4786223769187927e-01" nType="0">
          <Node pos="l" depth="2" NCoef="0" IVar="-1" Cut="0.0000000000000000e+00" cType="1" res="1.9130954751744866e-04" rms="4.5987591147422791e-01" purity="4.1190665960311890e-01" nType="-99"/>
          <Node pos="r" depth="2" NCoef="0" IVar="-1" Cut="0.0000000000000000e+00" cType="1" res="1.6788480570539832e-03" rms="4.3711331486701965e-01" purity="6.9716179370880127e-01" nType="-99"/>
        </Node>
        <Node pos="r" depth="1" NCoef="0" IVar="0" Cut="3.3406751155853271e+00" cType="1" res="-1.4779616147279739e-02" rms="4.4373497366905212e-01" purity="6.7601156234741211e-01" nType="0">
          <Node pos="l" depth="2" NCoef="0" IVar="-1" Cut="0.0000000000000000e+00" cType="1" res="4.4306539348326623e-04" rms="4.6835502982139587e-01" purity="5.9021568298339844e-01" nType="-99"/>
          <Node pos="r" depth="2" NCoef="0" IVar="-1" Cut="0.0000000000000000e+00" cType="1" res="-1.8313969485461712e-03" rms="4.3155375123023987e-01" purity="7.1552878618240356e-01" nType="-99"/>
        </Node>
      </Node>
    </BinaryTree>
    <BinaryTree type="DecisionTree" boostWeight="1.0000000000000000e+00" itree="885">
      <Node pos="s" depth="0" NCoef="0" IVar="1" Cut="7.4905847167968750e+02" cType="1" res="2.9084156267344952e-03" rms="4.5359784364700317e-01" purity="5.0554364919662476e-01" nType="0">
        <Node pos="l" depth="1" NCoef="0" IVar="3" Cut="-1.3957241550087929e-02" cType="1" res="6.7628086544573307e-03" rms="4.5179191231727600e-01" purity="4.8680126667022705e-01" nType="0">
          <Node pos="l" depth="2" NCoef="0" IVar="-1" Cut="0.0000000000000000e+00" cType="1" res="1.2260624207556248e-03" rms="4.4831296801567078e-01" purity="5.5614417791366577e-01" nType="-99"/>
          <Node pos="r" depth="2" NCoef="0" IVar="-1" Cut="0.0000000000000000e+00" cType="1" res="4.3117335735587403e-05" rms="4.5329707860946655e-01" purity="4.5407593250274658e-01" nType="-99"/>
        </Node>
        <Node pos="r" depth="1" NCoef="0" IVar="4" Cut="4.1623798012733459e-01" cType="1" res="-1.6938645392656326e-02" rms="4.6227687597274780e-01" purity="6.0205215215682983e-01" nType="0">
          <Node pos="l" depth="2" NCoef="0" IVar="-1" Cut="0.0000000000000000e+00" cType="1" res="5.1720580086112022e-04" rms="4.5593783259391785e-01" purity="6.0246133804321289e-01" nType="-99"/>
          <Node pos="r" depth="2" NCoef="0" IVar="-1" Cut="0.0000000000000000e+00" cType="1" res="-4.9350503832101822e-03" rms="4.7118708491325378e-01" purity="6.0115325450897217e-01" nType="-99"/>
        </Node>
      </Node>
    </BinaryTree>
    <BinaryTree type="DecisionTree" boostWeight="1.0000000000000000e+00" itree="886">
      <Node pos="s" depth="0" NCoef="0" IVar="0" Cut="2.0001306533813477e+00" cType="1" res="-1.9169962033629417e-03" rms="4.4991418719291687e-01" purity="5.0035065412521362e-01" nType="0">
        <Node pos="l" depth="1" NCoef="0" IVar="9" Cut="4.4279700517654419e-01" cType="1" res="-1.6315056011080742e-02" rms="4.3892723321914673e-01" purity="3.1245657801628113e-01" nType="0">
          <Node pos="l" depth="2" NCoef="0" IVar="-1" Cut="0.0000000000000000e+00" cType="1" res="-2.3200672585517168e-03" rms="4.4886443018913269e-01" purity="3.3601450920104980e-01" nType="-99"/>
          <Node pos="r" depth="2" NCoef="0" IVar="-1" Cut="0.0000000000000000e+00" cType="1" res="-2.8257558005861938e-04" rms="4.3237653374671936e-01" purity="2.9829078912734985e-01" nType="-99"/>
        </Node>
        <Node pos="r" depth="1" NCoef="0" IVar="4" Cut="6.1719882488250732e-01" cType="1" res="4.1115144267678261e-03" rms="4.5430004596710205e-01" purity="5.7902252674102783e-01" nType="0">
          <Node pos="l" depth="2" NCoef="0" IVar="-1" Cut="0.0000000000000000e+00" cType="1" res="4.8668371164239943e-04" rms="4.5453557372093201e-01" purity="5.7095503807067871e-01" nType="-99"/>
          <Node pos="r" depth="2" NCoef="0" IVar="-1" Cut="0.0000000000000000e+00" cType="1" res="-1.1679279850795865e-03" rms="4.5231249928474426e-01" purity="6.2517225742340088e-01" nType="-99"/>
        </Node>
      </Node>
    </BinaryTree>
    <BinaryTree type="DecisionTree" boostWeight="1.0000000000000000e+00" itree="887">
      <Node pos="s" depth="0" NCoef="0" IVar="6" Cut="2.3882701396942139e+00" cType="1" res="-2.5860144523903728e-04" rms="4.5424008369445801e-01" purity="4.9870944023132324e-01" nType="0">
        <Node pos="l" depth="1" NCoef="0" IVar="9" Cut="5.4467850923538208e-01" cType="1" res="-5.0129299052059650e-03" rms="4.5731508731842041e-01" purity="5.4302710294723511e-01" nType="0">
          <Node pos="l" depth="2" NCoef="0" IVar="-1" Cut="0.0000000000000000e+00" cType="1" res="2.3769214749336243e-04" rms="4.5599693059921265e-01" purity="5.6991875171661377e-01" nType="-99"/>
          <Node pos="r" depth="2" NCoef="0" IVar="-1" Cut="0.0000000000000000e+00" cType="1" res="-1.1983597651124001e-03" rms="4.5909923315048218e-01" purity="4.9903362989425659e-01" nType="-99"/>
        </Node>
        <Node pos="r" depth="1" NCoef="0" IVar="5" Cut="9.3745261430740356e-01" cType="1" res="1.1079546995460987e-02" rms="4.4661718606948853e-01" purity="3.9302045106887817e-01" nType="0">
          <Node pos="l" depth="2" NCoef="0" IVar="-1" Cut="0.0000000000000000e+00" cType="1" res="-1.2516943970695138e-03" rms="4.0728616714477539e-01" purity="2.3760028183460236e-01" nType="-99"/>
          <Node pos="r" depth="2" NCoef="0" IVar="-1" Cut="0.0000000000000000e+00" cType="1" res="1.4750838745385408e-03" rms="4.6272417902946472e-01" purity="4.6312180161476135e-01" nType="-99"/>
        </Node>
      </Node>
    </BinaryTree>
    <BinaryTree type="DecisionTree" boostWeight="1.0000000000000000e+00" itree="888">
      <Node pos="s" depth="0" NCoef="0" IVar="9" Cut="7.0215374231338501e-01" cType="1" res="-3.4389274660497904e-03" rms="4.5505157113075256e-01" purity="4.9811473488807678e-01" nType="0">
        <Node pos="l" depth="1" NCoef="0" IVar="4" Cut="6.8635731935501099e-01" cType="1" res="-1.0210830718278885e-02" rms="4.5595321059226990e-01" purity="5.2098554372787476e-01" nType="0">
          <Node pos="l" depth="2" NCoef="0" IVar="-1" Cut="0.0000000000000000e+00" cType="1" res="-8.3138269837945700e-04" rms="4.5666733384132385e-01" purity="5.1220792531967163e-01" nType="-99"/>
          <Node pos="r" depth="2" NCoef="0" IVar="-1" Cut="0.0000000000000000e+00" cType="1" res="1.3192257611081004e-03" rms="4.4766139984130859e-01" purity="6.0802632570266724e-01" nType="-99"/>
        </Node>
        <Node pos="r" depth="1" NCoef="0" IVar="4" Cut="1.7632021009922028e-01" cType="1" res="1.2594085186719894e-02" rms="4.5250588655471802e-01" purity="4.4396623969078064e-01" nType="0">
          <Node pos="l" depth="2" NCoef="0" IVar="-1" Cut="0.0000000000000000e+00" cType="1" res="-1.1903778649866581e-03" rms="4.4058498740196228e-01" purity="3.3236783742904663e-01" nType="-99"/>
          <Node pos="r" depth="2" NCoef="0" IVar="-1" Cut="0.0000000000000000e+00" cType="1" res="1.2461352162063122e-03" rms="4.5511528849601746e-01" purity="4.7168952226638794e-01" nType="-99"/>
        </Node>
      </Node>
    </BinaryTree>
    <BinaryTree type="DecisionTree" boostWeight="1.0000000000000000e+00" itree="889">
      <Node pos="s" depth="0" NCoef="0" IVar="0" Cut="4.8140220642089844e+00" cType="1" res="-2.2829910740256310e-03" rms="4.5478519797325134e-01" purity="4.9516016244888306e-01" nType="0">
        <Node pos="l" depth="1" NCoef="0" IVar="5" Cut="9.3017083406448364e-01" cType="1" res="1.1645782506093383e-03" rms="4.5833641290664673e-01" purity="4.6524444222450256e-01" nType="0">
          <Node pos="l" depth="2" NCoef="0" IVar="-1" Cut="0.0000000000000000e+00" cType="1" res="-1.1985242599621415e-03" rms="4.3384286761283875e-01" purity="3.0534040927886963e-01" nType="-99"/>
          <Node pos="r" depth="2" NCoef="0" IVar="-1" Cut="0.0000000000000000e+00" cType="1" res="4.4174096547067165e-04" rms="4.6551787853240967e-01" purity="5.1493328809738159e-01" nType="-99"/>
        </Node>
        <Node pos="r" depth="1" NCoef="0" IVar="1" Cut="5.6779998779296875e+02" cType="1" res="-3.0365834012627602e-02" rms="4.2371001839637756e-01" purity="7.3884457349777222e-01" nType="0">
          <Node pos="l" depth="2" NCoef="0" IVar="-1" Cut="0.0000000000000000e+00" cType="1" res="-4.6355949598364532e-04" rms="4.2472440004348755e-01" purity="7.3042327165603638e-01" nType="-99"/>
          <Node pos="r" depth="2" NCoef="0" IVar="-1" Cut="0.0000000000000000e+00" cType="1" res="-4.6121859923005104e-03" rms="4.2135700583457947e-01" purity="7.4723351001739502e-01" nType="-99"/>
        </Node>
      </Node>
    </BinaryTree>
    <BinaryTree type="DecisionTree" boostWeight="1.0000000000000000e+00" itree="890">
      <Node pos="s" depth="0" NCoef="0" IVar="8" Cut="1.0970996618270874e+00" cType="1" res="5.7752975262701511e-03" rms="4.5396667718887329e-01" purity="5.0379723310470581e-01" nType="0">
        <Node pos="l" depth="1" NCoef="0" IVar="6" Cut="1.7265316247940063e+00" cType="1" res="-1.3655003858730197e-03" rms="4.5574694871902466e-01" purity="5.3285431861877441e-01" nType="0">
          <Node pos="l" depth="2" NCoef="0" IVar="-1" Cut="0.0000000000000000e+00" cType="1" res="-1.5400723787024617e-03" rms="4.5505997538566589e-01" purity="6.0353428125381470e-01" nType="-99"/>
          <Node pos="r" depth="2" NCoef="0" IVar="-1" Cut="0.0000000000000000e+00" cType="1" res="1.0531441512284800e-04" rms="4.5575180649757385e-01" purity="5.2344548702239990e-01" nType="-99"/>
        </Node>
        <Node pos="r" depth="1" NCoef="0" IVar="3" Cut="8.8377751410007477e-02" cType="1" res="1.4125691726803780e-02" rms="4.5173278450965881e-01" purity="4.6981811523437500e-01" nType="0">
          <Node pos="l" depth="2" NCoef="0" IVar="-1" Cut="0.0000000000000000e+00" cType="1" res="1.3535199686884880e-03" rms="4.5494881272315979e-01" purity="5.0208902359008789e-01" nType="-99"/>
          <Node pos="r" depth="2" NCoef="0" IVar="-1" Cut="0.0000000000000000e+00" cType="1" res="-4.3097056914120913e-04" rms="4.4192391633987427e-01" purity="3.7924411892890930e-01" nType="-99"/>
        </Node>
      </Node>
    </BinaryTree>
    <BinaryTree type="DecisionTree" boostWeight="1.0000000000000000e+00" itree="891">
      <Node pos="s" depth="0" NCoef="0" IVar="4" Cut="5.5704683065414429e-01" cType="1" res="-3.8272095844149590e-04" rms="4.5385748147964478e-01" purity="4.9887490272521973e-01" nType="0">
        <Node pos="l" depth="1" NCoef="0" IVar="4" Cut="4.2352446913719177e-01" cType="1" res="-4.4655865058302879e-03" rms="4.5401126146316528e-01" purity="4.7836336493492126e-01" nType="0">
          <Node pos="l" depth="2" NCoef="0" IVar="-1" Cut="0.0000000000000000e+00" cType="1" res="8.3724175055976957e-05" rms="4.5231670141220093e-01" purity="4.6590715646743774e-01" nType="-99"/>
          <Node pos="r" depth="2" NCoef="0" IVar="-1" Cut="0.0000000000000000e+00" cType="1" res="-1.2686580885201693e-03" rms="4.5825752615928650e-01" purity="5.1257067918777466e-01" nType="-99"/>
        </Node>
        <Node pos="r" depth="1" NCoef="0" IVar="9" Cut="3.8940539956092834e-01" cType="1" res="1.4153717085719109e-02" rms="4.5301094651222229e-01" purity="5.7190328836441040e-01" nType="0">
          <Node pos="l" depth="2" NCoef="0" IVar="-1" Cut="0.0000000000000000e+00" cType="1" res="2.4298147764056921e-05" rms="4.4862142205238342e-01" purity="5.7976931333541870e-01" nType="-99"/>
          <Node pos="r" depth="2" NCoef="0" IVar="-1" Cut="0.0000000000000000e+00" cType="1" res="1.4033167390152812e-03" rms="4.5554316043853760e-01" purity="5.6694328784942627e-01" nType="-99"/>
        </Node>
      </Node>
    </BinaryTree>
    <BinaryTree type="DecisionTree" boostWeight="1.0000000000000000e+00" itree="892">
      <Node pos="s" depth="0" NCoef="0" IVar="2" Cut="1.9418675231933594e+02" cType="1" res="-3.7608281709253788e-03" rms="4.5600149035453796e-01" purity="5.0020605325698853e-01" nType="0">
        <Node pos="l" depth="1" NCoef="0" IVar="8" Cut="1.7528336048126221e+00" cType="1" res="-1.0218659881502390e-03" rms="4.5627236366271973e-01" purity="5.0369095802307129e-01" nType="0">
          <Node pos="l" depth="2" NCoef="0" IVar="-1" Cut="0.0000000000000000e+00" cType="1" res="-2.2045300283934921e-04" rms="4.5760440826416016e-01" purity="5.0779515504837036e-01" nType="-99"/>
          <Node pos="r" depth="2" NCoef="0" IVar="-1" Cut="0.0000000000000000e+00" cType="1" res="1.8089648801833391e-03" rms="4.3941837549209595e-01" purity="4.5587641000747681e-01" nType="-99"/>
        </Node>
        <Node pos="r" depth="1" NCoef="0" IVar="-1" Cut="0.0000000000000000e+00" cType="1" res="-2.7819697279483080e-03" rms="4.5016595721244812e-01" purity="4.4953364133834839e-01" nType="-99"/>
      </Node>
    </BinaryTree>
    <BinaryTree type="DecisionTree" boostWeight="1.0000000000000000e+00" itree="893">
      <Node pos="s" depth="0" NCoef="0" IVar="6" Cut="2.5653564929962158e+00" cType="1" res="-2.8745578601956367e-03" rms="4.5343714952468872e-01" purity="5.0034505128860474e-01" nType="0">
        <Node pos="l" depth="1" NCoef="0" IVar="6" Cut="1.4822018146514893e+00" cType="1" res="-6.9217300042510033e-03" rms="4.5558622479438782e-01" purity="5.3101706504821777e-01" nType="0">
          <Node pos="l" depth="2" NCoef="0" IVar="-1" Cut="0.0000000000000000e+00" cType="1" res="1.5344767598435283e-03" rms="4.4393327832221985e-01" purity="6.3783633708953857e-01" nType="-99"/>
          <Node pos="r" depth="2" NCoef="0" IVar="-1" Cut="0.0000000000000000e+00" cType="1" res="-6.0900347307324409e-04" rms="4.5653957128524780e-01" purity="5.2117437124252319e-01" nType="-99"/>
        </Node>
        <Node pos="r" depth="1" NCoef="0" IVar="1" Cut="5.5869409179687500e+02" cType="1" res="1.8130239099264145e-02" rms="4.4152021408081055e-01" purity="3.4115758538246155e-01" nType="0">
          <Node pos="l" depth="2" NCoef="0" IVar="-1" Cut="0.0000000000000000e+00" cType="1" res="-2.6731187972472981e-05" rms="4.1898074746131897e-01" purity="2.8367039561271667e-01" nType="-99"/>
          <Node pos="r" depth="2" NCoef="0" IVar="-1" Cut="0.0000000000000000e+00" cType="1" res="3.1144167296588421e-03" rms="4.7605288028717041e-01" purity="4.3980008363723755e-01" nType="-99"/>
        </Node>
      </Node>
    </BinaryTree>
    <BinaryTree type="DecisionTree" boostWeight="1.0000000000000000e+00" itree="894">
      <Node pos="s" depth="0" NCoef="0" IVar="0" Cut="4.6030726432800293e+00" cType="1" res="1.5614453004673123e-03" rms="4.5057711005210876e-01" purity="5.0323587656021118e-01" nType="0">
        <Node pos="l" depth="1" NCoef="0" IVar="9" Cut="3.4798288345336914e-01" cType="1" res="-2.6551275514066219e-03" rms="4.5885971188545227e-01" purity="4.5734828710556030e-01" nType="0">
          <Node pos="l" depth="2" NCoef="0" IVar="-1" Cut="0.0000000000000000e+00" cType="1" res="9.6574728377163410e-04" rms="4.6158456802368164e-01" purity="5.2394241094589233e-01" nType="-99"/>
          <Node pos="r" depth="2" NCoef="0" IVar="-1" Cut="0.0000000000000000e+00" cType="1" res="-5.8065471239387989e-04" rms="4.5769366621971130e-01" purity="4.3347668647766113e-01" nType="-99"/>
        </Node>
        <Node pos="r" depth="1" NCoef="0" IVar="3" Cut="-4.2285658419132233e-03" cType="1" res="2.6936775073409081e-02" rms="3.9615419507026672e-01" purity="7.7938735485076904e-01" nType="0">
          <Node pos="l" depth="2" NCoef="0" IVar="-1" Cut="0.0000000000000000e+00" cType="1" res="-3.5574851790443063e-04" rms="3.9784538745880127e-01" purity="7.8203034400939941e-01" nType="-99"/>
          <Node pos="r" depth="2" NCoef="0" IVar="-1" Cut="0.0000000000000000e+00" cType="1" res="3.3524676691740751e-03" rms="3.9381352066993713e-01" purity="7.7772629261016846e-01" nType="-99"/>
        </Node>
      </Node>
    </BinaryTree>
    <BinaryTree type="DecisionTree" boostWeight="1.0000000000000000e+00" itree="895">
      <Node pos="s" depth="0" NCoef="0" IVar="2" Cut="6.1329830169677734e+01" cType="1" res="-3.0183540657162666e-03" rms="4.5380380749702454e-01" purity="4.9875169992446899e-01" nType="0">
        <Node pos="l" depth="1" NCoef="0" IVar="0" Cut="2.8468971252441406e+00" cType="1" res="1.8898099660873413e-02" rms="4.6096026897430420e-01" purity="5.0141459703445435e-01" nType="0">
          <Node pos="l" depth="2" NCoef="0" IVar="-1" Cut="0.0000000000000000e+00" cType="1" res="2.5174664333462715e-03" rms="4.6129161119461060e-01" purity="4.0059608221054077e-01" nType="-99"/>
          <Node pos="r" depth="2" NCoef="0" IVar="-1" Cut="0.0000000000000000e+00" cType="1" res="-2.8312255744822323e-04" rms="4.5944195985794067e-01" purity="6.1356443166732788e-01" nType="-99"/>
        </Node>
        <Node pos="r" depth="1" NCoef="0" IVar="8" Cut="1.0435552597045898e+00" cType="1" res="-8.0103101208806038e-03" rms="4.5200935006141663e-01" purity="4.9814516305923462e-01" nType="0">
          <Node pos="l" depth="2" NCoef="0" IVar="-1" Cut="0.0000000000000000e+00" cType="1" res="3.3216256269952282e-05" rms="4.5289209485054016e-01" purity="5.4551428556442261e-01" nType="-99"/>
          <Node pos="r" depth="2" NCoef="0" IVar="-1" Cut="0.0000000000000000e+00" cType="1" res="-1.0649953037500381e-03" rms="4.5095691084861755e-01" purity="4.5050781965255737e-01" nType="-99"/>
        </Node>
      </Node>
    </BinaryTree>
    <BinaryTree type="DecisionTree" boostWeight="1.0000000000000000e+00" itree="896">
      <Node pos="s" depth="0" NCoef="0" IVar="9" Cut="9.8484128713607788e-01" cType="1" res="-5.9870318509638309e-03" rms="4.5428705215454102e-01" purity="4.9503895640373230e-01" nType="0">
        <Node pos="l" depth="1" NCoef="0" IVar="0" Cut="4.2970752716064453e+00" cType="1" res="-3.4651418682187796e-03" rms="4.5542079210281372e-01" purity="5.0875848531723022e-01" nType="0">
          <Node pos="l" depth="2" NCoef="0" IVar="-1" Cut="0.0000000000000000e+00" cType="1" res="-2.2457505110651255e-05" rms="4.6162456274032593e-01" purity="4.6020215749740601e-01" nType="-99"/>
          <Node pos="r" depth="2" NCoef="0" IVar="-1" Cut="0.0000000000000000e+00" cType="1" res="-1.2503933394327760e-03" rms="4.2642846703529358e-01" purity="7.2498029470443726e-01" nType="-99"/>
        </Node>
        <Node pos="r" depth="1" NCoef="0" IVar="-1" Cut="0.0000000000000000e+00" cType="1" res="-2.1567277144640684e-03" rms="4.4126909971237183e-01" purity="3.5026982426643372e-01" nType="-99"/>
      </Node>
    </BinaryTree>
    <BinaryTree type="DecisionTree" boostWeight="1.0000000000000000e+00" itree="897">
      <Node pos="s" depth="0" NCoef="0" IVar="6" Cut="2.1734707355499268e+00" cType="1" res="-3.5987766459584236e-03" rms="4.5508381724357605e-01" purity="4.9763378500938416e-01" nType="0">
        <Node pos="l" depth="1" NCoef="0" IVar="2" Cut="8.3734321594238281e+01" cType="1" res="-1.6378322616219521e-02" rms="4.5498657226562500e-01" purity="5.5449640750885010e-01" nType="0">
          <Node pos="l" depth="2" NCoef="0" IVar="-1" Cut="0.0000000000000000e+00" cType="1" res="-1.8079454312101007e-03" rms="4.5995360612869263e-01" purity="4.9250036478042603e-01" nType="-99"/>
          <Node pos="r" depth="2" NCoef="0" IVar="-1" Cut="0.0000000000000000e+00" cType="1" res="-1.0135551565326750e-04" rms="4.4881737232208252e-01" purity="6.2493938207626343e-01" nType="-99"/>
        </Node>
        <Node pos="r" depth="1" NCoef="0" IVar="5" Cut="9.8371142148971558e-01" cType="1" res="6.8614352494478226e-03" rms="4.5489627122879028e-01" purity="4.5109099149703979e-01" nType="0">
          <Node pos="l" depth="2" NCoef="0" IVar="-1" Cut="0.0000000000000000e+00" cType="1" res="7.2366045787930489e-04" rms="4.5594799518585205e-01" purity="4.2409786581993103e-01" nType="-99"/>
          <Node pos="r" depth="2" NCoef="0" IVar="-1" Cut="0.0000000000000000e+00" cType="1" res="-2.1616865415126085e-03" rms="4.4451045989990234e-01" purity="6.7019939422607422e-01" nType="-99"/>
        </Node>
      </Node>
    </BinaryTree>
    <BinaryTree type="DecisionTree" boostWeight="1.0000000000000000e+00" itree="898">
      <Node pos="s" depth="0" NCoef="0" IVar="7" Cut="4.1631557464599609e+01" cType="1" res="3.8990939501672983e-03" rms="4.5340055227279663e-01" purity="5.0468391180038452e-01" nType="0">
        <Node pos="l" depth="1" NCoef="0" IVar="-1" Cut="0.0000000000000000e+00" cType="1" res="-2.5183348916471004e-03" rms="4.2095664143562317e-01" purity="2.8653794527053833e-01" nType="-99"/>
        <Node pos="r" depth="1" NCoef="0" IVar="8" Cut="1.7932609319686890e+00" cType="1" res="6.3079874962568283e-03" rms="4.5518496632575989e-01" purity="5.1793122291564941e-01" nType="0">
          <Node pos="l" depth="2" NCoef="0" IVar="-1" Cut="0.0000000000000000e+00" cType="1" res="2.3845396935939789e-04" rms="4.5644140243530273e-01" purity="5.1909524202346802e-01" nType="-99"/>
          <Node pos="r" depth="2" NCoef="0" IVar="-1" Cut="0.0000000000000000e+00" cType="1" res="2.8266948647797108e-03" rms="4.3410190939903259e-01" purity="5.0041663646697998e-01" nType="-99"/>
        </Node>
      </Node>
    </BinaryTree>
    <BinaryTree type="DecisionTree" boostWeight="1.0000000000000000e+00" itree="899">
      <Node pos="s" depth="0" NCoef="0" IVar="9" Cut="2.9432013630867004e-01" cType="1" res="7.1799359284341335e-04" rms="4.5284256339073181e-01" purity="5.0092256069183350e-01" nType="0">
        <Node pos="l" depth="1" NCoef="0" IVar="9" Cut="2.4741411209106445e-01" cType="1" res="-1.5965424478054047e-02" rms="4.5376667380332947e-01" purity="5.3355330228805542e-01" nType="0">
          <Node pos="l" depth="2" NCoef="0" IVar="-1" Cut="0.0000000000000000e+00" cType="1" res="-2.8377774287946522e-04" rms="4.5345935225486755e-01" purity="5.4809558391571045e-01" nType="-99"/>
          <Node pos="r" depth="2" NCoef="0" IVar="-1" Cut="0.0000000000000000e+00" cType="1" res="-2.9247314669191837e-03" rms="4.5317590236663818e-01" purity="4.9479478597640991e-01" nType="-99"/>
        </Node>
        <Node pos="r" depth="1" NCoef="0" IVar="3" Cut="-3.1631194055080414e-02" cType="1" res="4.9782427959144115e-03" rms="4.5250770449638367e-01" purity="4.9258998036384583e-01" nType="0">
          <Node pos="l" depth="2" NCoef="0" IVar="-1" Cut="0.0000000000000000e+00" cType="1" res="1.7610616050660610e-03" rms="4.4819271564483643e-01" purity="5.8041638135910034e-01" nType="-99"/>
          <Node pos="r" depth="2" NCoef="0" IVar="-1" Cut="0.0000000000000000e+00" cType="1" res="-7.0636524469591677e-05" rms="4.5343512296676636e-01" purity="4.6956917643547058e-01" nType="-99"/>
        </Node>
      </Node>
    </BinaryTree>
    <BinaryTree type="DecisionTree" boostWeight="1.0000000000000000e+00" itree="900">
      <Node pos="s" depth="0" NCoef="0" IVar="5" Cut="9.6815413236618042e-01" cType="1" res="1.8410712946206331e-03" rms="4.5233732461929321e-01" purity="5.0211805105209351e-01" nType="0">
        <Node pos="l" depth="1" NCoef="0" IVar="0" Cut="2.1012668609619141e+00" cType="1" res="-5.2041443996131420e-03" rms="4.6094238758087158e-01" purity="4.2487406730651855e-01" nType="0">
          <Node pos="l" depth="2" NCoef="0" IVar="-1" Cut="0.0000000000000000e+00" cType="1" res="6.0807674890384078e-04" rms="4.4901961088180542e-01" purity="3.3808702230453491e-01" nType="-99"/>
          <Node pos="r" depth="2" NCoef="0" IVar="-1" Cut="0.0000000000000000e+00" cType="1" res="-9.3784637283533812e-04" rms="4.6971079707145691e-01" purity="4.9242240190505981e-01" nType="-99"/>
        </Node>
        <Node pos="r" depth="1" NCoef="0" IVar="9" Cut="4.3902188539505005e-01" cType="1" res="1.9182059913873672e-02" rms="4.2993322014808655e-01" purity="6.9224518537521362e-01" nType="0">
          <Node pos="l" depth="2" NCoef="0" IVar="-1" Cut="0.0000000000000000e+00" cType="1" res="2.7351372409611940e-03" rms="4.0697154402732849e-01" purity="7.5377094745635986e-01" nType="-99"/>
          <Node pos="r" depth="2" NCoef="0" IVar="-1" Cut="0.0000000000000000e+00" cType="1" res="3.4122975193895400e-04" rms="4.4561386108398438e-01" purity="6.4681297540664673e-01" nType="-99"/>
        </Node>
      </Node>
    </BinaryTree>
    <BinaryTree type="DecisionTree" boostWeight="1.0000000000000000e+00" itree="901">
      <Node pos="s" depth="0" NCoef="0" IVar="7" Cut="1.2050823974609375e+02" cType="1" res="-1.9010590622201562e-03" rms="4.5426341891288757e-01" purity="4.9726450443267822e-01" nType="0">
        <Node pos="l" depth="1" NCoef="0" IVar="7" Cut="6.4882972717285156e+01" cType="1" res="-4.4449651613831520e-03" rms="4.5488965511322021e-01" purity="4.8448467254638672e-01" nType="0">
          <Node pos="l" depth="2" NCoef="0" IVar="-1" Cut="0.0000000000000000e+00" cType="1" res="2.4642155040055513e-04" rms="4.4846397638320923e-01" purity="4.2821812629699707e-01" nType="-99"/>
          <Node pos="r" depth="2" NCoef="0" IVar="-1" Cut="0.0000000000000000e+00" cType="1" res="-7.7942101052030921e-04" rms="4.6092575788497925e-01" purity="5.3935229778289795e-01" nType="-99"/>
        </Node>
        <Node pos="r" depth="1" NCoef="0" IVar="-1" Cut="0.0000000000000000e+00" cType="1" res="1.9750129431486130e-03" rms="4.4502857327461243e-01" purity="6.5866988897323608e-01" nType="-99"/>
      </Node>
    </BinaryTree>
    <BinaryTree type="DecisionTree" boostWeight="1.0000000000000000e+00" itree="902">
      <Node pos="s" depth="0" NCoef="0" IVar="0" Cut="2.8820028305053711e+00" cType="1" res="-1.1712114792317152e-03" rms="4.5648026466369629e-01" purity="4.9868610501289368e-01" nType="0">
        <Node pos="l" depth="1" NCoef="0" IVar="0" Cut="2.4654107093811035e+00" cType="1" res="7.1460641920566559e-03" rms="4.5844981074333191e-01" purity="3.8623604178428650e-01" nType="0">
          <Node pos="l" depth="2" NCoef="0" IVar="-1" Cut="0.0000000000000000e+00" cType="1" res="2.4553130060667172e-05" rms="4.5274126529693604e-01" purity="3.5529574751853943e-01" nType="-99"/>
          <Node pos="r" depth="2" NCoef="0" IVar="-1" Cut="0.0000000000000000e+00" cType="1" res="1.9723540171980858e-03" rms="4.7937682271003723e-01" purity="5.0829315185546875e-01" nType="-99"/>
        </Node>
        <Node pos="r" depth="1" NCoef="0" IVar="9" Cut="6.8009424209594727e-01" cType="1" res="-1.0584786534309387e-02" rms="4.5405703783035278e-01" purity="6.2595826387405396e-01" nType="0">
          <Node pos="l" depth="2" NCoef="0" IVar="-1" Cut="0.0000000000000000e+00" cType="1" res="-1.3088446576148272e-03" rms="4.5019185543060303e-01" purity="6.4350014925003052e-01" nType="-99"/>
          <Node pos="r" depth="2" NCoef="0" IVar="-1" Cut="0.0000000000000000e+00" cType="1" res="7.6917628757655621e-04" rms="4.6238625049591064e-01" purity="5.8373701572418213e-01" nType="-99"/>
        </Node>
      </Node>
    </BinaryTree>
    <BinaryTree type="DecisionTree" boostWeight="1.0000000000000000e+00" itree="903">
      <Node pos="s" depth="0" NCoef="0" IVar="5" Cut="9.1486978530883789e-01" cType="1" res="5.4889745078980923e-03" rms="4.5438140630722046e-01" purity="5.0236499309539795e-01" nType="0">
        <Node pos="l" depth="1" NCoef="0" IVar="-1" Cut="0.0000000000000000e+00" cType="1" res="2.2339145652949810e-03" rms="4.4496595859527588e-01" purity="3.2698640227317810e-01" nType="-99"/>
        <Node pos="r" depth="1" NCoef="0" IVar="4" Cut="6.5307843685150146e-01" cType="1" res="2.5146373081952333e-03" rms="4.5527338981628418e-01" purity="5.2107119560241699e-01" nType="0">
          <Node pos="l" depth="2" NCoef="0" IVar="-1" Cut="0.0000000000000000e+00" cType="1" res="-4.2590872908476740e-05" rms="4.5589199662208557e-01" purity="5.0850540399551392e-01" nType="-99"/>
          <Node pos="r" depth="2" NCoef="0" IVar="-1" Cut="0.0000000000000000e+00" cType="1" res="1.8180928891524673e-03" rms="4.4936871528625488e-01" purity="6.2326252460479736e-01" nType="-99"/>
        </Node>
      </Node>
    </BinaryTree>
    <BinaryTree type="DecisionTree" boostWeight="1.0000000000000000e+00" itree="904">
      <Node pos="s" depth="0" NCoef="0" IVar="4" Cut="1.8406224250793457e-01" cType="1" res="-2.8620278462767601e-03" rms="4.5098996162414551e-01" purity="4.9716657400131226e-01" nType="0">
        <Node pos="l" depth="1" NCoef="0" IVar="2" Cut="9.0529815673828125e+01" cType="1" res="-2.6944134384393692e-02" rms="4.3939647078514099e-01" purity="3.8537126779556274e-01" nType="0">
          <Node pos="l" depth="2" NCoef="0" IVar="-1" Cut="0.0000000000000000e+00" cType="1" res="-3.6670935805886984e-03" rms="4.2824262380599976e-01" purity="3.4132266044616699e-01" nType="-99"/>
          <Node pos="r" depth="2" NCoef="0" IVar="-1" Cut="0.0000000000000000e+00" cType="1" res="-4.7504183021374047e-04" rms="4.4552999734878540e-01" purity="4.1452062129974365e-01" nType="-99"/>
        </Node>
        <Node pos="r" depth="1" NCoef="0" IVar="8" Cut="8.9428228139877319e-01" cType="1" res="1.2126170331612229e-03" rms="4.5279553532600403e-01" purity="5.1608210802078247e-01" nType="0">
          <Node pos="l" depth="2" NCoef="0" IVar="-1" Cut="0.0000000000000000e+00" cType="1" res="8.9157902402803302e-04" rms="4.5089393854141235e-01" purity="5.7305800914764404e-01" nType="-99"/>
          <Node pos="r" depth="2" NCoef="0" IVar="-1" Cut="0.0000000000000000e+00" cType="1" res="-3.5897552152164280e-04" rms="4.5364978909492493e-01" purity="4.8585280776023865e-01" nType="-99"/>
        </Node>
      </Node>
    </BinaryTree>
    <BinaryTree type="DecisionTree" boostWeight="1.0000000000000000e+00" itree="905">
      <Node pos="s" depth="0" NCoef="0" IVar="3" Cut="1.4751863479614258e-01" cType="1" res="3.8094623014330864e-03" rms="4.5573931932449341e-01" purity="5.0404739379882812e-01" nType="0">
        <Node pos="l" depth="1" NCoef="0" IVar="0" Cut="2.8926250934600830e+00" cType="1" res="7.8519741073250771e-03" rms="4.5677241683006287e-01" purity="5.1583230495452881e-01" nType="0">
          <Node pos="l" depth="2" NCoef="0" IVar="-1" Cut="0.0000000000000000e+00" cType="1" res="1.1737355962395668e-03" rms="4.6351939439773560e-01" purity="4.0793973207473755e-01" nType="-99"/>
          <Node pos="r" depth="2" NCoef="0" IVar="-1" Cut="0.0000000000000000e+00" cType="1" res="-2.8083688812330365e-04" rms="4.4872984290122986e-01" purity="6.3739991188049316e-01" nType="-99"/>
        </Node>
        <Node pos="r" depth="1" NCoef="0" IVar="9" Cut="5.5320978164672852e-01" cType="1" res="-3.1396120786666870e-02" rms="4.4509169459342957e-01" purity="4.0141463279724121e-01" nType="0">
          <Node pos="l" depth="2" NCoef="0" IVar="-1" Cut="0.0000000000000000e+00" cType="1" res="-1.9607810827437788e-04" rms="4.5394644141197205e-01" purity="4.7138297557830811e-01" nType="-99"/>
          <Node pos="r" depth="2" NCoef="0" IVar="-1" Cut="0.0000000000000000e+00" cType="1" res="-3.9441525004804134e-03" rms="4.3429046869277954e-01" purity="3.3190816640853882e-01" nType="-99"/>
        </Node>
      </Node>
    </BinaryTree>
    <BinaryTree type="DecisionTree" boostWeight="1.0000000000000000e+00" itree="906">
      <Node pos="s" depth="0" NCoef="0" IVar="3" Cut="1.7891912162303925e-01" cType="1" res="3.9898697286844254e-03" rms="4.5247402787208557e-01" purity="5.0439459085464478e-01" nType="0">
        <Node pos="l" depth="1" NCoef="0" IVar="7" Cut="4.2522689819335938e+01" cType="1" res="6.1121229082345963e-03" rms="4.5312908291816711e-01" purity="5.1201605796813965e-01" nType="0">
          <Node pos="l" depth="2" NCoef="0" IVar="-1" Cut="0.0000000000000000e+00" cType="1" res="-1.1433063773438334e-03" rms="4.3198952078819275e-01" purity="3.1230688095092773e-01" nType="-99"/>
          <Node pos="r" depth="2" NCoef="0" IVar="-1" Cut="0.0000000000000000e+00" cType="1" res="4.7719758003950119e-04" rms="4.5446735620498657e-01" purity="5.2536684274673462e-01" nType="-99"/>
        </Node>
        <Node pos="r" depth="1" NCoef="0" IVar="-1" Cut="0.0000000000000000e+00" cType="1" res="-1.8828931497409940e-03" rms="4.4086679816246033e-01" purity="3.8602906465530396e-01" nType="-99"/>
      </Node>
    </BinaryTree>
    <BinaryTree type="DecisionTree" boostWeight="1.0000000000000000e+00" itree="907">
      <Node pos="s" depth="0" NCoef="0" IVar="7" Cut="7.0499580383300781e+01" cType="1" res="-2.9769635875709355e-04" rms="4.5470875501632690e-01" purity="5.0103604793548584e-01" nType="0">
        <Node pos="l" depth="1" NCoef="0" IVar="7" Cut="4.7755237579345703e+01" cType="1" res="8.5986349731683731e-03" rms="4.5422634482383728e-01" purity="4.4764190912246704e-01" nType="0">
          <Node pos="l" depth="2" NCoef="0" IVar="-1" Cut="0.0000000000000000e+00" cType="1" res="-9.2481734463945031e-04" rms="4.4170650839805603e-01" purity="3.3791255950927734e-01" nType="-99"/>
          <Node pos="r" depth="2" NCoef="0" IVar="-1" Cut="0.0000000000000000e+00" cType="1" res="9.9848606623709202e-04" rms="4.5813199877738953e-01" purity="4.8469549417495728e-01" nType="-99"/>
        </Node>
        <Node pos="r" depth="1" NCoef="0" IVar="9" Cut="5.7884520292282104e-01" cType="1" res="-1.1147855781018734e-02" rms="4.5506107807159424e-01" purity="5.6615656614303589e-01" nType="0">
          <Node pos="l" depth="2" NCoef="0" IVar="-1" Cut="0.0000000000000000e+00" cType="1" res="-8.7855099991429597e-05" rms="4.5083305239677429e-01" purity="6.1080521345138550e-01" nType="-99"/>
          <Node pos="r" depth="2" NCoef="0" IVar="-1" Cut="0.0000000000000000e+00" cType="1" res="-1.6239741817116737e-03" rms="4.6116542816162109e-01" purity="4.9652627110481262e-01" nType="-99"/>
        </Node>
      </Node>
    </BinaryTree>
    <BinaryTree type="DecisionTree" boostWeight="1.0000000000000000e+00" itree="908">
      <Node pos="s" depth="0" NCoef="0" IVar="9" Cut="9.0115469694137573e-01" cType="1" res="-3.0156266875565052e-03" rms="4.5509588718414307e-01" purity="4.9849388003349304e-01" nType="0">
        <Node pos="l" depth="1" NCoef="0" IVar="9" Cut="5.6308782100677490e-01" cType="1" res="-6.7209154367446899e-03" rms="4.5479676127433777e-01" purity="5.1088416576385498e-01" nType="0">
          <Node pos="l" depth="2" NCoef="0" IVar="-1" Cut="0.0000000000000000e+00" cType="1" res="7.1858172304928303e-05" rms="4.5467320084571838e-01" purity="5.4151666164398193e-01" nType="-99"/>
          <Node pos="r" depth="2" NCoef="0" IVar="-1" Cut="0.0000000000000000e+00" cType="1" res="-1.2752135517075658e-03" rms="4.5469129085540771e-01" purity="4.5818647742271423e-01" nType="-99"/>
        </Node>
        <Node pos="r" depth="1" NCoef="0" IVar="1" Cut="5.2345617675781250e+02" cType="1" res="2.0851261913776398e-02" rms="4.5629748702049255e-01" purity="4.1868427395820618e-01" nType="0">
          <Node pos="l" depth="2" NCoef="0" IVar="-1" Cut="0.0000000000000000e+00" cType="1" res="3.0300694052129984e-03" rms="4.4690346717834473e-01" purity="3.8381388783454895e-01" nType="-99"/>
          <Node pos="r" depth="2" NCoef="0" IVar="-1" Cut="0.0000000000000000e+00" cType="1" res="-4.8989738570526242e-04" rms="4.6587237715721130e-01" purity="4.6118181943893433e-01" nType="-99"/>
        </Node>
      </Node>
    </BinaryTree>
    <BinaryTree type="DecisionTree" boostWeight="1.0000000000000000e+00" itree="909">
      <Node pos="s" depth="0" NCoef="0" IVar="5" Cut="9.6800273656845093e-01" cType="1" res="-2.4153817503247410e-04" rms="4.5488187670707703e-01" purity="4.9969434738159180e-01" nType="0">
        <Node pos="l" depth="1" NCoef="0" IVar="9" Cut="9.1837584972381592e-01" cType="1" res="5.5224592797458172e-03" rms="4.5996138453483582e-01" purity="4.3661299347877502e-01" nType="0">
          <Node pos="l" depth="2" NCoef="0" IVar="-1" Cut="0.0000000000000000e+00" cType="1" res="5.7805381948128343e-04" rms="4.6272933483123779e-01" purity="4.5457196235656738e-01" nType="-99"/>
          <Node pos="r" depth="2" NCoef="0" IVar="-1" Cut="0.0000000000000000e+00" cType="1" res="-1.4905745629221201e-03" rms="4.3937948346138000e-01" purity="3.1269419193267822e-01" nType="-99"/>
        </Node>
        <Node pos="r" depth="1" NCoef="0" IVar="4" Cut="3.5294470191001892e-01" cType="1" res="-1.5006196685135365e-02" rms="4.4126081466674805e-01" purity="6.6127926111221313e-01" nType="0">
          <Node pos="l" depth="2" NCoef="0" IVar="-1" Cut="0.0000000000000000e+00" cType="1" res="2.7905436581932008e-04" rms="4.4714123010635376e-01" purity="6.3318711519241333e-01" nType="-99"/>
          <Node pos="r" depth="2" NCoef="0" IVar="-1" Cut="0.0000000000000000e+00" cType="1" res="-2.0519106183201075e-03" rms="4.3667778372764587e-01" purity="6.8059849739074707e-01" nType="-99"/>
        </Node>
      </Node>
    </BinaryTree>
    <BinaryTree type="DecisionTree" boostWeight="1.0000000000000000e+00" itree="910">
      <Node pos="s" depth="0" NCoef="0" IVar="8" Cut="8.6498647928237915e-01" cType="1" res="-2.6071940083056688e-03" rms="4.5292720198631287e-01" purity="4.9786579608917236e-01" nType="0">
        <Node pos="l" depth="1" NCoef="0" IVar="4" Cut="5.5748349428176880e-01" cType="1" res="-1.5710946172475815e-02" rms="4.5339947938919067e-01" purity="5.3275775909423828e-01" nType="0">
          <Node pos="l" depth="2" NCoef="0" IVar="-1" Cut="0.0000000000000000e+00" cType="1" res="-1.5475092222914100e-03" rms="4.5545706152915955e-01" purity="5.0878155231475830e-01" nType="-99"/>
          <Node pos="r" depth="2" NCoef="0" IVar="-1" Cut="0.0000000000000000e+00" cType="1" res="1.0920189088210464e-03" rms="4.4409838318824768e-01" purity="6.2204802036285400e-01" nType="-99"/>
        </Node>
        <Node pos="r" depth="1" NCoef="0" IVar="8" Cut="1.7077131271362305e+00" cType="1" res="3.5879153292626143e-03" rms="4.5257169008255005e-01" purity="4.8136979341506958e-01" nType="0">
          <Node pos="l" depth="2" NCoef="0" IVar="-1" Cut="0.0000000000000000e+00" cType="1" res="4.4576849904842675e-04" rms="4.5470458269119263e-01" purity="4.9353083968162537e-01" nType="-99"/>
          <Node pos="r" depth="2" NCoef="0" IVar="-1" Cut="0.0000000000000000e+00" cType="1" res="-1.2110077077522874e-03" rms="4.3829542398452759e-01" purity="4.0492305159568787e-01" nType="-99"/>
        </Node>
      </Node>
    </BinaryTree>
    <BinaryTree type="DecisionTree" boostWeight="1.0000000000000000e+00" itree="911">
      <Node pos="s" depth="0" NCoef="0" IVar="9" Cut="2.6094207167625427e-01" cType="1" res="-4.3468200601637363e-03" rms="4.5371595025062561e-01" purity="4.9733623862266541e-01" nType="0">
        <Node pos="l" depth="1" NCoef="0" IVar="7" Cut="7.7958915710449219e+01" cType="1" res="1.9456651061773300e-02" rms="4.5224121212959290e-01" purity="5.7610434293746948e-01" nType="0">
          <Node pos="l" depth="2" NCoef="0" IVar="-1" Cut="0.0000000000000000e+00" cType="1" res="2.0121027773711830e-04" rms="4.6190181374549866e-01" purity="5.0692516565322876e-01" nType="-99"/>
          <Node pos="r" depth="2" NCoef="0" IVar="-1" Cut="0.0000000000000000e+00" cType="1" res="2.8894890565425158e-03" rms="4.3505632877349854e-01" purity="6.8694370985031128e-01" nType="-99"/>
        </Node>
        <Node pos="r" depth="1" NCoef="0" IVar="7" Cut="8.2336784362792969e+01" cType="1" res="-9.0096518397331238e-03" rms="4.5385807752609253e-01" purity="4.8190641403198242e-01" nType="0">
          <Node pos="l" depth="2" NCoef="0" IVar="-1" Cut="0.0000000000000000e+00" cType="1" res="-2.1818028471898288e-04" rms="4.5115110278129578e-01" purity="4.5035541057586670e-01" nType="-99"/>
          <Node pos="r" depth="2" NCoef="0" IVar="-1" Cut="0.0000000000000000e+00" cType="1" res="-1.4587835175916553e-03" rms="4.6034294366836548e-01" purity="5.6184583902359009e-01" nType="-99"/>
        </Node>
      </Node>
    </BinaryTree>
    <BinaryTree type="DecisionTree" boostWeight="1.0000000000000000e+00" itree="912">
      <Node pos="s" depth="0" NCoef="0" IVar="3" Cut="-4.1832674294710159e-02" cType="1" res="3.9992961683310568e-04" rms="4.5365503430366516e-01" purity="5.0080335140228271e-01" nType="0">
        <Node pos="l" depth="1" NCoef="0" IVar="0" Cut="2.4742403030395508e+00" cType="1" res="-1.7127918079495430e-02" rms="4.5328700542449951e-01" purity="5.4978191852569580e-01" nType="0">
          <Node pos="l" depth="2" NCoef="0" IVar="-1" Cut="0.0000000000000000e+00" cType="1" res="-2.8478717431426048e-03" rms="4.6225708723068237e-01" purity="3.6525937914848328e-01" nType="-99"/>
          <Node pos="r" depth="2" NCoef="0" IVar="-1" Cut="0.0000000000000000e+00" cType="1" res="2.2050688858143985e-04" rms="4.4576150178909302e-01" purity="6.7867416143417358e-01" nType="-99"/>
        </Node>
        <Node pos="r" depth="1" NCoef="0" IVar="3" Cut="8.5611782968044281e-02" cType="1" res="3.9755627512931824e-03" rms="4.5364692807197571e-01" purity="4.9081182479858398e-01" nType="0">
          <Node pos="l" depth="2" NCoef="0" IVar="-1" Cut="0.0000000000000000e+00" cType="1" res="7.1565288817510009e-04" rms="4.5485901832580566e-01" purity="5.1714485883712769e-01" nType="-99"/>
          <Node pos="r" depth="2" NCoef="0" IVar="-1" Cut="0.0000000000000000e+00" cType="1" res="-8.3436717977747321e-04" rms="4.5040354132652283e-01" purity="4.3057861924171448e-01" nType="-99"/>
        </Node>
      </Node>
    </BinaryTree>
    <BinaryTree type="DecisionTree" boostWeight="1.0000000000000000e+00" itree="913">
      <Node pos="s" depth="0" NCoef="0" IVar="2" Cut="6.0140712738037109e+01" cType="1" res="4.9480069428682327e-03" rms="4.5477190613746643e-01" purity="5.0772440433502197e-01" nType="0">
        <Node pos="l" depth="1" NCoef="0" IVar="2" Cut="5.2990493774414062e+01" cType="1" res="2.6180101558566093e-02" rms="4.5479461550712585e-01" purity="5.0610822439193726e-01" nType="0">
          <Node pos="l" depth="2" NCoef="0" IVar="-1" Cut="0.0000000000000000e+00" cType="1" res="2.4958278518170118e-03" rms="4.5780432224273682e-01" purity="5.1487660408020020e-01" nType="-99"/>
          <Node pos="r" depth="2" NCoef="0" IVar="-1" Cut="0.0000000000000000e+00" cType="1" res="-6.2209024326875806e-04" rms="4.4494539499282837e-01" purity="4.8360446095466614e-01" nType="-99"/>
        </Node>
        <Node pos="r" depth="1" NCoef="0" IVar="4" Cut="6.1153739690780640e-01" cType="1" res="2.0838380442000926e-04" rms="4.5463147759437561e-01" purity="5.0808513164520264e-01" nType="0">
          <Node pos="l" depth="2" NCoef="0" IVar="-1" Cut="0.0000000000000000e+00" cType="1" res="2.5074847508221865e-04" rms="4.5303729176521301e-01" purity="4.9950456619262695e-01" nType="-99"/>
          <Node pos="r" depth="2" NCoef="0" IVar="-1" Cut="0.0000000000000000e+00" cType="1" res="-1.3325097970664501e-03" rms="4.6297150850296021e-01" purity="5.5662125349044800e-01" nType="-99"/>
        </Node>
      </Node>
    </BinaryTree>
    <BinaryTree type="DecisionTree" boostWeight="1.0000000000000000e+00" itree="914">
      <Node pos="s" depth="0" NCoef="0" IVar="9" Cut="9.6063184738159180e-01" cType="1" res="3.2655859831720591e-03" rms="4.5279219746589661e-01" purity="5.0706392526626587e-01" nType="0">
        <Node pos="l" depth="1" NCoef="0" IVar="8" Cut="8.6073356866836548e-01" cType="1" res="9.1874637291766703e-05" rms="4.5349714159965515e-01" purity="5.1652556657791138e-01" nType="0">
          <Node pos="l" depth="2" NCoef="0" IVar="-1" Cut="0.0000000000000000e+00" cType="1" res="7.8655401011928916e-04" rms="4.5363426208496094e-01" purity="5.7471960783004761e-01" nType="-99"/>
          <Node pos="r" depth="2" NCoef="0" IVar="-1" Cut="0.0000000000000000e+00" cType="1" res="-3.6771199665963650e-04" rms="4.5330983400344849e-01" purity="4.8848140239715576e-01" nType="-99"/>
        </Node>
        <Node pos="r" depth="1" NCoef="0" IVar="-1" Cut="0.0000000000000000e+00" cType="1" res="2.1286508999764919e-03" rms="4.4515439867973328e-01" purity="4.1961339116096497e-01" nType="-99"/>
      </Node>
    </BinaryTree>
    <BinaryTree type="DecisionTree" boostWeight="1.0000000000000000e+00" itree="915">
      <Node pos="s" depth="0" NCoef="0" IVar="2" Cut="6.1329830169677734e+01" cType="1" res="2.2580647782888263e-04" rms="4.5444491505622864e-01" purity="4.9994432926177979e-01" nType="0">
        <Node pos="l" depth="1" NCoef="0" IVar="8" Cut="9.8774582147598267e-01" cType="1" res="2.0973179489374161e-02" rms="4.6184656023979187e-01" purity="4.9204805493354797e-01" nType="0">
          <Node pos="l" depth="2" NCoef="0" IVar="-1" Cut="0.0000000000000000e+00" cType="1" res="-5.9098703786730766e-04" rms="4.6541634202003479e-01" purity="4.9012768268585205e-01" nType="-99"/>
          <Node pos="r" depth="2" NCoef="0" IVar="-1" Cut="0.0000000000000000e+00" cType="1" res="2.4396164808422327e-03" rms="4.5880538225173950e-01" purity="4.9316692352294922e-01" nType="-99"/>
        </Node>
        <Node pos="r" depth="1" NCoef="0" IVar="0" Cut="1.1156454086303711e+00" cType="1" res="-4.8769554123282433e-03" rms="4.5246019959449768e-01" purity="5.0188642740249634e-01" nType="0">
          <Node pos="l" depth="2" NCoef="0" IVar="-1" Cut="0.0000000000000000e+00" cType="1" res="-2.8641291428357363e-03" rms="4.1184648871421814e-01" purity="2.4781224131584167e-01" nType="-99"/>
          <Node pos="r" depth="2" NCoef="0" IVar="-1" Cut="0.0000000000000000e+00" cType="1" res="-1.0136382479686290e-04" rms="4.5612773299217224e-01" purity="5.2685898542404175e-01" nType="-99"/>
        </Node>
      </Node>
    </BinaryTree>
    <BinaryTree type="DecisionTree" boostWeight="1.0000000000000000e+00" itree="916">
      <Node pos="s" depth="0" NCoef="0" IVar="9" Cut="9.7883039712905884e-01" cType="1" res="-3.7524923682212830e-03" rms="4.5518139004707336e-01" purity="4.9678528308868408e-01" nType="0">
        <Node pos="l" depth="1" NCoef="0" IVar="4" Cut="5.0885701179504395e-01" cType="1" res="-6.7672445438802242e-03" rms="4.5494806766510010e-01" purity="5.0466430187225342e-01" nType="0">
          <Node pos="l" depth="2" NCoef="0" IVar="-1" Cut="0.0000000000000000e+00" cType="1" res="-7.8366464003920555e-04" rms="4.5380347967147827e-01" purity="4.7761473059654236e-01" nType="-99"/>
          <Node pos="r" depth="2" NCoef="0" IVar="-1" Cut="0.0000000000000000e+00" cType="1" res="3.8854833110235631e-04" rms="4.5727744698524475e-01" purity="5.6623971462249756e-01" nType="-99"/>
        </Node>
        <Node pos="r" depth="1" NCoef="0" IVar="-1" Cut="0.0000000000000000e+00" cType="1" res="1.8401935230940580e-03" rms="4.5642313361167908e-01" purity="4.1420081257820129e-01" nType="-99"/>
      </Node>
    </BinaryTree>
    <BinaryTree type="DecisionTree" boostWeight="1.0000000000000000e+00" itree="917">
      <Node pos="s" depth="0" NCoef="0" IVar="4" Cut="3.5800200700759888e-01" cType="1" res="2.1137885050848126e-04" rms="4.5210170745849609e-01" purity="5.0048440694808960e-01" nType="0">
        <Node pos="l" depth="1" NCoef="0" IVar="6" Cut="2.2257101535797119e+00" cType="1" res="1.2884925119578838e-02" rms="4.5126798748970032e-01" purity="4.6603506803512573e-01" nType="0">
          <Node pos="l" depth="2" NCoef="0" IVar="-1" Cut="0.0000000000000000e+00" cType="1" res="1.7414712347090244e-03" rms="4.5884135365486145e-01" purity="5.6080424785614014e-01" nType="-99"/>
          <Node pos="r" depth="2" NCoef="0" IVar="-1" Cut="0.0000000000000000e+00" cType="1" res="-5.3007923270342872e-05" rms="4.4415071606636047e-01" purity="3.8396030664443970e-01" nType="-99"/>
        </Node>
        <Node pos="r" depth="1" NCoef="0" IVar="0" Cut="2.8926250934600830e+00" cType="1" res="-1.0555418208241463e-02" rms="4.5253002643585205e-01" purity="5.2975076436996460e-01" nType="0">
          <Node pos="l" depth="2" NCoef="0" IVar="-1" Cut="0.0000000000000000e+00" cType="1" res="-1.2419272679835558e-03" rms="4.6145945787429810e-01" purity="3.9297440648078918e-01" nType="-99"/>
          <Node pos="r" depth="2" NCoef="0" IVar="-1" Cut="0.0000000000000000e+00" cType="1" res="-6.3289048739534337e-06" rms="4.4245764613151550e-01" purity="6.7729431390762329e-01" nType="-99"/>
        </Node>
      </Node>
    </BinaryTree>
    <BinaryTree type="DecisionTree" boostWeight="1.0000000000000000e+00" itree="918">
      <Node pos="s" depth="0" NCoef="0" IVar="8" Cut="1.8489435911178589e+00" cType="1" res="-1.0727286571636796e-03" rms="4.5429739356040955e-01" purity="4.9963110685348511e-01" nType="0">
        <Node pos="l" depth="1" NCoef="0" IVar="8" Cut="1.1064935922622681e+00" cType="1" res="-3.4571313299238682e-03" rms="4.5500159263610840e-01" purity="5.0146043300628662e-01" nType="0">
          <Node pos="l" depth="2" NCoef="0" IVar="-1" Cut="0.0000000000000000e+00" cType="1" res="1.6529987624380738e-04" rms="4.5441329479217529e-01" purity="5.3891456127166748e-01" nType="-99"/>
          <Node pos="r" depth="2" NCoef="0" IVar="-1" Cut="0.0000000000000000e+00" cType="1" res="-7.3455908568575978e-04" rms="4.5566412806510925e-01" purity="4.5103770494461060e-01" nType="-99"/>
        </Node>
        <Node pos="r" depth="1" NCoef="0" IVar="-1" Cut="0.0000000000000000e+00" cType="1" res="2.6570858899503946e-03" rms="4.3974021077156067e-01" purity="4.6768727898597717e-01" nType="-99"/>
      </Node>
    </BinaryTree>
    <BinaryTree type="DecisionTree" boostWeight="1.0000000000000000e+00" itree="919">
      <Node pos="s" depth="0" NCoef="0" IVar="1" Cut="4.5720578002929688e+02" cType="1" res="-4.6476004645228386e-03" rms="4.5229443907737732e-01" purity="4.9517804384231567e-01" nType="0">
        <Node pos="l" depth="1" NCoef="0" IVar="4" Cut="3.5094529390335083e-01" cType="1" res="-1.5672238543629646e-02" rms="4.3953981995582581e-01" purity="3.6852347850799561e-01" nType="0">
          <Node pos="l" depth="2" NCoef="0" IVar="-1" Cut="0.0000000000000000e+00" cType="1" res="5.3303025197237730e-04" rms="4.2930817604064941e-01" purity="3.3550789952278137e-01" nType="-99"/>
          <Node pos="r" depth="2" NCoef="0" IVar="-1" Cut="0.0000000000000000e+00" cType="1" res="-1.8930232618004084e-03" rms="4.4502991437911987e-01" purity="3.8851302862167358e-01" nType="-99"/>
        </Node>
        <Node pos="r" depth="1" NCoef="0" IVar="9" Cut="1.6965758800506592e-01" cType="1" res="1.7641957674641162e-04" rms="4.5768016576766968e-01" purity="5.5059796571731567e-01" nType="0">
          <Node pos="l" depth="2" NCoef="0" IVar="-1" Cut="0.0000000000000000e+00" cType="1" res="2.5757371913641691e-03" rms="4.3188577890396118e-01" purity="6.5019732713699341e-01" nType="-99"/>
          <Node pos="r" depth="2" NCoef="0" IVar="-1" Cut="0.0000000000000000e+00" cType="1" res="-2.0255806157365441e-04" rms="4.5963528752326965e-01" purity="5.4215341806411743e-01" nType="-99"/>
        </Node>
      </Node>
    </BinaryTree>
    <BinaryTree type="DecisionTree" boostWeight="1.0000000000000000e+00" itree="920">
      <Node pos="s" depth="0" NCoef="0" IVar="3" Cut="1.3066346943378448e-01" cType="1" res="-9.8683003670885228e-06" rms="4.5362135767936707e-01" purity="4.9827426671981812e-01" nType="0">
        <Node pos="l" depth="1" NCoef="0" IVar="3" Cut="2.9115745797753334e-02" cType="1" res="-4.2162369936704636e-03" rms="4.5456755161285400e-01" purity="5.0589632987976074e-01" nType="0">
          <Node pos="l" depth="2" NCoef="0" IVar="-1" Cut="0.0000000000000000e+00" cType="1" res="2.1388781897258013e-04" rms="4.5577919483184814e-01" purity="5.3512758016586304e-01" nType="-99"/>
          <Node pos="r" depth="2" NCoef="0" IVar="-1" Cut="0.0000000000000000e+00" cType="1" res="-1.0723902378231287e-03" rms="4.5227903127670288e-01" purity="4.5765161514282227e-01" nType="-99"/>
        </Node>
        <Node pos="r" depth="1" NCoef="0" IVar="0" Cut="3.0474081039428711e+00" cType="1" res="2.6072779670357704e-02" rms="4.4682648777961731e-01" purity="4.5101177692413330e-01" nType="0">
          <Node pos="l" depth="2" NCoef="0" IVar="-1" Cut="0.0000000000000000e+00" cType="1" res="5.8633892331272364e-04" rms="4.4854810833930969e-01" purity="3.2961010932922363e-01" nType="-99"/>
          <Node pos="r" depth="2" NCoef="0" IVar="-1" Cut="0.0000000000000000e+00" cType="1" res="2.9684796463698149e-03" rms="4.4341656565666199e-01" purity="6.1401289701461792e-01" nType="-99"/>
        </Node>
      </Node>
    </BinaryTree>
    <BinaryTree type="DecisionTree" boostWeight="1.0000000000000000e+00" itree="921">
      <Node pos="s" depth="0" NCoef="0" IVar="0" Cut="2.9738481044769287e+00" cType="1" res="-3.5570377949625254e-03" rms="4.5205038785934448e-01" purity="4.9631032347679138e-01" nType="0">
        <Node pos="l" depth="1" NCoef="0" IVar="9" Cut="9.5052164793014526e-01" cType="1" res="-1.0718636214733124e-02" rms="4.5458239316940308e-01" purity="3.7323734164237976e-01" nType="0">
          <Node pos="l" depth="2" NCoef="0" IVar="-1" Cut="0.0000000000000000e+00" cType="1" res="-4.0249270386993885e-04" rms="4.5921331644058228e-01" purity="3.8862296938896179e-01" nType="-99"/>
          <Node pos="r" depth="2" NCoef="0" IVar="-1" Cut="0.0000000000000000e+00" cType="1" res="-3.2518710941076279e-03" rms="4.1346019506454468e-01" purity="2.4839605391025543e-01" nType="-99"/>
        </Node>
        <Node pos="r" depth="1" NCoef="0" IVar="6" Cut="1.8941493034362793e+00" cType="1" res="5.1004393026232719e-03" rms="4.4881790876388550e-01" purity="6.4509022235870361e-01" nType="0">
          <Node pos="l" depth="2" NCoef="0" IVar="-1" Cut="0.0000000000000000e+00" cType="1" res="-1.2454598909243941e-03" rms="4.3853145837783813e-01" purity="6.9156718254089355e-01" nType="-99"/>
          <Node pos="r" depth="2" NCoef="0" IVar="-1" Cut="0.0000000000000000e+00" cType="1" res="7.4499164475128055e-04" rms="4.5155161619186401e-01" purity="6.3146960735321045e-01" nType="-99"/>
        </Node>
      </Node>
    </BinaryTree>
    <BinaryTree type="DecisionTree" boostWeight="1.0000000000000000e+00" itree="922">
      <Node pos="s" depth="0" NCoef="0" IVar="5" Cut="9.9137133359909058e-01" cType="1" res="-5.3745741024613380e-03" rms="4.5328211784362793e-01" purity="4.9303016066551208e-01" nType="0">
        <Node pos="l" depth="1" NCoef="0" IVar="2" Cut="1.5303689575195312e+02" cType="1" res="-7.2538685053586960e-03" rms="4.5674642920494080e-01" purity="4.7587311267852783e-01" nType="0">
          <Node pos="l" depth="2" NCoef="0" IVar="-1" Cut="0.0000000000000000e+00" cType="1" res="-6.5907207317650318e-04" rms="4.5729419589042664e-01" purity="4.7025653719902039e-01" nType="-99"/>
          <Node pos="r" depth="2" NCoef="0" IVar="-1" Cut="0.0000000000000000e+00" cType="1" res="7.8542792471125722e-04" rms="4.5310732722282410e-01" purity="5.0809192657470703e-01" nType="-99"/>
        </Node>
        <Node pos="r" depth="1" NCoef="0" IVar="-1" Cut="0.0000000000000000e+00" cType="1" res="2.2841028403490782e-03" rms="3.8342896103858948e-01" purity="8.0442559719085693e-01" nType="-99"/>
      </Node>
    </BinaryTree>
    <BinaryTree type="DecisionTree" boostWeight="1.0000000000000000e+00" itree="923">
      <Node pos="s" depth="0" NCoef="0" IVar="8" Cut="1.2515977621078491e+00" cType="1" res="-2.7751468587666750e-03" rms="4.5082736015319824e-01" purity="5.0114476680755615e-01" nType="0">
        <Node pos="l" depth="1" NCoef="0" IVar="1" Cut="7.4905847167968750e+02" cType="1" res="4.1732927784323692e-03" rms="4.5129987597465515e-01" purity="5.3363978862762451e-01" nType="0">
          <Node pos="l" depth="2" NCoef="0" IVar="-1" Cut="0.0000000000000000e+00" cType="1" res="6.0423469403758645e-04" rms="4.5142158865928650e-01" purity="5.1600921154022217e-01" nType="-99"/>
          <Node pos="r" depth="2" NCoef="0" IVar="-1" Cut="0.0000000000000000e+00" cType="1" res="-1.1920055840164423e-03" rms="4.5007747411727905e-01" purity="6.0663646459579468e-01" nType="-99"/>
        </Node>
        <Node pos="r" depth="1" NCoef="0" IVar="0" Cut="4.0981650352478027e+00" cType="1" res="-1.6829743981361389e-02" rms="4.4954189658164978e-01" purity="4.3541714549064636e-01" nType="0">
          <Node pos="l" depth="2" NCoef="0" IVar="-1" Cut="0.0000000000000000e+00" cType="1" res="-4.1372547275386751e-04" rms="4.4913148880004883e-01" purity="3.8687282800674438e-01" nType="-99"/>
          <Node pos="r" depth="2" NCoef="0" IVar="-1" Cut="0.0000000000000000e+00" cType="1" res="-3.5562834236770868e-03" rms="4.4898030161857605e-01" purity="6.1617785692214966e-01" nType="-99"/>
        </Node>
      </Node>
    </BinaryTree>
    <BinaryTree type="DecisionTree" boostWeight="1.0000000000000000e+00" itree="924">
      <Node pos="s" depth="0" NCoef="0" IVar="9" Cut="3.8972449302673340e-01" cType="1" res="-1.7498447559773922e-03" rms="4.5369160175323486e-01" purity="4.9759420752525330e-01" nType="0">
        <Node pos="l" depth="1" NCoef="0" IVar="4" Cut="3.8534525036811829e-01" cType="1" res="-1.6033865511417389e-02" rms="4.5231094956398010e-01" purity="5.3447163105010986e-01" nType="0">
          <Node pos="l" depth="2" NCoef="0" IVar="-1" Cut="0.0000000000000000e+00" cType="1" res="7.8699667938053608e-05" rms="4.5374596118927002e-01" purity="5.2099633216857910e-01" nType="-99"/>
          <Node pos="r" depth="2" NCoef="0" IVar="-1" Cut="0.0000000000000000e+00" cType="1" res="-1.8308945000171661e-03" rms="4.5087227225303650e-01" purity="5.4412806034088135e-01" nType="-99"/>
        </Node>
        <Node pos="r" depth="1" NCoef="0" IVar="9" Cut="4.8658904433250427e-01" cType="1" res="5.3310692310333252e-03" rms="4.5420795679092407e-01" purity="4.7931316494941711e-01" nType="0">
          <Node pos="l" depth="2" NCoef="0" IVar="-1" Cut="0.0000000000000000e+00" cType="1" res="1.7885179258882999e-03" rms="4.5789641141891479e-01" purity="5.6243139505386353e-01" nType="-99"/>
          <Node pos="r" depth="2" NCoef="0" IVar="-1" Cut="0.0000000000000000e+00" cType="1" res="-1.1591198017413262e-05" rms="4.5315888524055481e-01" purity="4.5973560214042664e-01" nType="-99"/>
        </Node>
      </Node>
    </BinaryTree>
    <BinaryTree type="DecisionTree" boostWeight="1.0000000000000000e+00" itree="925">
      <Node pos="s" depth="0" NCoef="0" IVar="0" Cut="1.0562009811401367e+00" cType="1" res="8.9544855291023850e-04" rms="4.5363441109657288e-01" purity="4.9984827637672424e-01" nType="0">
        <Node pos="l" depth="1" NCoef="0" IVar="-1" Cut="0.0000000000000000e+00" cType="1" res="-2.2604840341955423e-03" rms="4.1295176744461060e-01" purity="2.5229406356811523e-01" nType="-99"/>
        <Node pos="r" depth="1" NCoef="0" IVar="3" Cut="1.6454514861106873e-01" cType="1" res="3.6639568861573935e-03" rms="4.5698434114456177e-01" purity="5.2192556858062744e-01" nType="0">
          <Node pos="l" depth="2" NCoef="0" IVar="-1" Cut="0.0000000000000000e+00" cType="1" res="5.3564868721878156e-05" rms="4.5754215121269226e-01" purity="5.2557814121246338e-01" nType="-99"/>
          <Node pos="r" depth="2" NCoef="0" IVar="-1" Cut="0.0000000000000000e+00" cType="1" res="2.3252721875905991e-03" rms="4.4915738701820374e-01" purity="4.7942459583282471e-01" nType="-99"/>
        </Node>
      </Node>
    </BinaryTree>
    <BinaryTree type="DecisionTree" boostWeight="1.0000000000000000e+00" itree="926">
      <Node pos="s" depth="0" NCoef="0" IVar="3" Cut="-2.6351520791649818e-02" cType="1" res="5.0016324967145920e-03" rms="4.5554795861244202e-01" purity="5.0215560197830200e-01" nType="0">
        <Node pos="l" depth="1" NCoef="0" IVar="3" Cut="-5.0704110413789749e-02" cType="1" res="-9.5899263396859169e-03" rms="4.5462235808372498e-01" purity="5.4055029153823853e-01" nType="0">
          <Node pos="l" depth="2" NCoef="0" IVar="-1" Cut="0.0000000000000000e+00" cType="1" res="1.1068327585235238e-03" rms="4.4656762480735779e-01" purity="5.9118121862411499e-01" nType="-99"/>
          <Node pos="r" depth="2" NCoef="0" IVar="-1" Cut="0.0000000000000000e+00" cType="1" res="-2.4355375207960606e-03" rms="4.6130701899528503e-01" purity="4.8656094074249268e-01" nType="-99"/>
        </Node>
        <Node pos="r" depth="1" NCoef="0" IVar="5" Cut="9.5685303211212158e-01" cType="1" res="9.6493111923336983e-03" rms="4.5574429631233215e-01" purity="4.8992618918418884e-01" nType="0">
          <Node pos="l" depth="2" NCoef="0" IVar="-1" Cut="0.0000000000000000e+00" cType="1" res="1.0166449937969446e-03" rms="4.5854875445365906e-01" purity="4.0421041846275330e-01" nType="-99"/>
          <Node pos="r" depth="2" NCoef="0" IVar="-1" Cut="0.0000000000000000e+00" cType="1" res="3.8175825466169044e-05" rms="4.5175224542617798e-01" purity="6.0627090930938721e-01" nType="-99"/>
        </Node>
      </Node>
    </BinaryTree>
    <BinaryTree type="DecisionTree" boostWeight="1.0000000000000000e+00" itree="927">
      <Node pos="s" depth="0" NCoef="0" IVar="1" Cut="9.0527807617187500e+02" cType="1" res="1.1955502122873440e-04" rms="4.5299661159515381e-01" purity="4.9912169575691223e-01" nType="0">
        <Node pos="l" depth="1" NCoef="0" IVar="2" Cut="8.6629539489746094e+01" cType="1" res="-2.7581581380218267e-03" rms="4.5409643650054932e-01" purity="4.8529773950576782e-01" nType="0">
          <Node pos="l" depth="2" NCoef="0" IVar="-1" Cut="0.0000000000000000e+00" cType="1" res="-1.0119014186784625e-03" rms="4.5577794313430786e-01" purity="4.4905042648315430e-01" nType="-99"/>
          <Node pos="r" depth="2" NCoef="0" IVar="-1" Cut="0.0000000000000000e+00" cType="1" res="4.2069051414728165e-04" rms="4.5268246531486511e-01" purity="5.1061379909515381e-01" nType="-99"/>
        </Node>
        <Node pos="r" depth="1" NCoef="0" IVar="-1" Cut="0.0000000000000000e+00" cType="1" res="2.3427102714776993e-03" rms="4.3720239400863647e-01" purity="6.7410773038864136e-01" nType="-99"/>
      </Node>
    </BinaryTree>
    <BinaryTree type="DecisionTree" boostWeight="1.0000000000000000e+00" itree="928">
      <Node pos="s" depth="0" NCoef="0" IVar="9" Cut="2.6094207167625427e-01" cType="1" res="1.7377506010234356e-03" rms="4.5301657915115356e-01" purity="5.0074511766433716e-01" nType="0">
        <Node pos="l" depth="1" NCoef="0" IVar="2" Cut="8.0940261840820312e+01" cType="1" res="2.0354349166154861e-02" rms="4.4844612479209900e-01" purity="5.7785791158676147e-01" nType="0">
          <Node pos="l" depth="2" NCoef="0" IVar="-1" Cut="0.0000000000000000e+00" cType="1" res="-3.7997643812559545e-04" rms="4.5565724372863770e-01" purity="5.0567805767059326e-01" nType="-99"/>
          <Node pos="r" depth="2" NCoef="0" IVar="-1" Cut="0.0000000000000000e+00" cType="1" res="2.4805155117064714e-03" rms="4.4243144989013672e-01" purity="6.2801867723464966e-01" nType="-99"/>
        </Node>
        <Node pos="r" depth="1" NCoef="0" IVar="9" Cut="6.8941557407379150e-01" cType="1" res="-1.9074960146099329e-03" rms="4.5381671190261841e-01" purity="4.8564592003822327e-01" nType="0">
          <Node pos="l" depth="2" NCoef="0" IVar="-1" Cut="0.0000000000000000e+00" cType="1" res="-6.9685431662946939e-04" rms="4.5351010560989380e-01" purity="5.0798696279525757e-01" nType="-99"/>
          <Node pos="r" depth="2" NCoef="0" IVar="-1" Cut="0.0000000000000000e+00" cType="1" res="9.0362806804478168e-04" rms="4.5390331745147705e-01" purity="4.4652795791625977e-01" nType="-99"/>
        </Node>
      </Node>
    </BinaryTree>
    <BinaryTree type="DecisionTree" boostWeight="1.0000000000000000e+00" itree="929">
      <Node pos="s" depth="0" NCoef="0" IVar="4" Cut="3.1720921397209167e-01" cType="1" res="-8.2780388765968382e-05" rms="4.5309376716613770e-01" purity="5.0269085168838501e-01" nType="0">
        <Node pos="l" depth="1" NCoef="0" IVar="6" Cut="1.9868590831756592e+00" cType="1" res="-1.1040234938263893e-02" rms="4.5305043458938599e-01" purity="4.3718048930168152e-01" nType="0">
          <Node pos="l" depth="2" NCoef="0" IVar="-1" Cut="0.0000000000000000e+00" cType="1" res="1.5919338911771774e-03" rms="4.6585932374000549e-01" purity="5.8138126134872437e-01" nType="-99"/>
          <Node pos="r" depth="2" NCoef="0" IVar="-1" Cut="0.0000000000000000e+00" cType="1" res="-1.4402159722521901e-03" rms="4.4862830638885498e-01" purity="3.9483666419982910e-01" nType="-99"/>
        </Node>
        <Node pos="r" depth="1" NCoef="0" IVar="1" Cut="5.2342102050781250e+02" cType="1" res="6.4336196519434452e-03" rms="4.5299386978149414e-01" purity="5.4164981842041016e-01" nType="0">
          <Node pos="l" depth="2" NCoef="0" IVar="-1" Cut="0.0000000000000000e+00" cType="1" res="-2.6453321333974600e-04" rms="4.5632591843605042e-01" purity="4.5549347996711731e-01" nType="-99"/>
          <Node pos="r" depth="2" NCoef="0" IVar="-1" Cut="0.0000000000000000e+00" cType="1" res="1.1451405007392168e-03" rms="4.4902050495147705e-01" purity="6.3613700866699219e-01" nType="-99"/>
        </Node>
      </Node>
    </BinaryTree>
    <BinaryTree type="DecisionTree" boostWeight="1.0000000000000000e+00" itree="930">
      <Node pos="s" depth="0" NCoef="0" IVar="2" Cut="1.2566668701171875e+02" cType="1" res="-2.8473727870732546e-03" rms="4.5468455553054810e-01" purity="4.9762117862701416e-01" nType="0">
        <Node pos="l" depth="1" NCoef="0" IVar="4" Cut="3.6372965574264526e-01" cType="1" res="3.2370162662118673e-03" rms="4.5408192276954651e-01" purity="4.9421256780624390e-01" nType="0">
          <Node pos="l" depth="2" NCoef="0" IVar="-1" Cut="0.0000000000000000e+00" cType="1" res="9.2957471497356892e-04" rms="4.5303794741630554e-01" purity="4.6675619482994080e-01" nType="-99"/>
          <Node pos="r" depth="2" NCoef="0" IVar="-1" Cut="0.0000000000000000e+00" cType="1" res="-3.9676364394836128e-04" rms="4.5472672581672668e-01" purity="5.1711142063140869e-01" nType="-99"/>
        </Node>
        <Node pos="r" depth="1" NCoef="0" IVar="0" Cut="4.0291266441345215e+00" cType="1" res="-1.8273482099175453e-02" rms="4.5584505796432495e-01" purity="5.0626331567764282e-01" nType="0">
          <Node pos="l" depth="2" NCoef="0" IVar="-1" Cut="0.0000000000000000e+00" cType="1" res="-3.0222797067835927e-04" rms="4.5814555883407593e-01" purity="4.5635801553726196e-01" nType="-99"/>
          <Node pos="r" depth="2" NCoef="0" IVar="-1" Cut="0.0000000000000000e+00" cType="1" res="-4.2626052163541317e-03" rms="4.4599860906600952e-01" purity="6.6188752651214600e-01" nType="-99"/>
        </Node>
      </Node>
    </BinaryTree>
    <BinaryTree type="DecisionTree" boostWeight="1.0000000000000000e+00" itree="931">
      <Node pos="s" depth="0" NCoef="0" IVar="9" Cut="3.3597499132156372e-01" cType="1" res="-3.5766598302870989e-03" rms="4.5498514175415039e-01" purity="4.9768117070198059e-01" nType="0">
        <Node pos="l" depth="1" NCoef="0" IVar="1" Cut="6.3081555175781250e+02" cType="1" res="-2.0939068868756294e-02" rms="4.5444622635841370e-01" purity="5.2805393934249878e-01" nType="0">
          <Node pos="l" depth="2" NCoef="0" IVar="-1" Cut="0.0000000000000000e+00" cType="1" res="-2.0352008286863565e-03" rms="4.5631346106529236e-01" purity="4.7224062681198120e-01" nType="-99"/>
          <Node pos="r" depth="2" NCoef="0" IVar="-1" Cut="0.0000000000000000e+00" cType="1" res="2.6792939752340317e-04" rms="4.4939500093460083e-01" purity="6.4762961864471436e-01" nType="-99"/>
        </Node>
        <Node pos="r" depth="1" NCoef="0" IVar="7" Cut="9.9914939880371094e+01" cType="1" res="2.5402384344488382e-03" rms="4.5501706004142761e-01" purity="4.8698064684867859e-01" nType="0">
          <Node pos="l" depth="2" NCoef="0" IVar="-1" Cut="0.0000000000000000e+00" cType="1" res="4.7870160778984427e-04" rms="4.5445314049720764e-01" purity="4.7390326857566833e-01" nType="-99"/>
          <Node pos="r" depth="2" NCoef="0" IVar="-1" Cut="0.0000000000000000e+00" cType="1" res="-1.6792721580713987e-03" rms="4.5717385411262512e-01" purity="5.6224769353866577e-01" nType="-99"/>
        </Node>
      </Node>
    </BinaryTree>
    <BinaryTree type="DecisionTree" boostWeight="1.0000000000000000e+00" itree="932">
      <Node pos="s" depth="0" NCoef="0" IVar="6" Cut="2.1147711277008057e+00" cType="1" res="4.5886081643402576e-03" rms="4.5248928666114807e-01" purity="5.0390678644180298e-01" nType="0">
        <Node pos="l" depth="1" NCoef="0" IVar="8" Cut="1.2535957098007202e+00" cType="1" res="-9.2383902519941330e-03" rms="4.5317864418029785e-01" purity="5.5901896953582764e-01" nType="0">
          <Node pos="l" depth="2" NCoef="0" IVar="-1" Cut="0.0000000000000000e+00" cType="1" res="7.4700154073070735e-05" rms="4.4895523786544800e-01" purity="5.9559202194213867e-01" nType="-99"/>
          <Node pos="r" depth="2" NCoef="0" IVar="-1" Cut="0.0000000000000000e+00" cType="1" res="-1.6593576874583960e-03" rms="4.5976129174232483e-01" purity="4.9649563431739807e-01" nType="-99"/>
        </Node>
        <Node pos="r" depth="1" NCoef="0" IVar="4" Cut="1.5456224977970123e-01" cType="1" res="1.2418163940310478e-02" rms="4.5191091299057007e-01" purity="4.7269940376281738e-01" nType="0">
          <Node pos="l" depth="2" NCoef="0" IVar="-1" Cut="0.0000000000000000e+00" cType="1" res="-1.0747699998319149e-03" rms="4.2398685216903687e-01" purity="3.3387589454650879e-01" nType="-99"/>
          <Node pos="r" depth="2" NCoef="0" IVar="-1" Cut="0.0000000000000000e+00" cType="1" res="1.0069510899484158e-03" rms="4.5511424541473389e-01" purity="4.8980367183685303e-01" nType="-99"/>
        </Node>
      </Node>
    </BinaryTree>
    <BinaryTree type="DecisionTree" boostWeight="1.0000000000000000e+00" itree="933">
      <Node pos="s" depth="0" NCoef="0" IVar="6" Cut="2.0132761001586914e+00" cType="1" res="4.0036155842244625e-03" rms="4.5293661952018738e-01" purity="5.0142914056777954e-01" nType="0">
        <Node pos="l" depth="1" NCoef="0" IVar="3" Cut="6.2897391617298126e-02" cType="1" res="2.0569182932376862e-02" rms="4.4958239793777466e-01" purity="5.9415268898010254e-01" nType="0">
          <Node pos="l" depth="2" NCoef="0" IVar="-1" Cut="0.0000000000000000e+00" cType="1" res="6.8675330840051174e-04" rms="4.4727581739425659e-01" purity="5.9362077713012695e-01" nType="-99"/>
          <Node pos="r" depth="2" NCoef="0" IVar="-1" Cut="0.0000000000000000e+00" cType="1" res="2.7000701520591974e-03" rms="4.5436367392539978e-01" purity="5.9546607732772827e-01" nType="-99"/>
        </Node>
        <Node pos="r" depth="1" NCoef="0" IVar="3" Cut="1.3604485988616943e-01" cType="1" res="-2.0076788496226072e-03" rms="4.5399823784828186e-01" purity="4.6778175234794617e-01" nType="0">
          <Node pos="l" depth="2" NCoef="0" IVar="-1" Cut="0.0000000000000000e+00" cType="1" res="-3.8627377944067121e-04" rms="4.5516568422317505e-01" purity="4.7563114762306213e-01" nType="-99"/>
          <Node pos="r" depth="2" NCoef="0" IVar="-1" Cut="0.0000000000000000e+00" cType="1" res="1.6337644774466753e-03" rms="4.4550824165344238e-01" purity="4.1728419065475464e-01" nType="-99"/>
        </Node>
      </Node>
    </BinaryTree>
    <BinaryTree type="DecisionTree" boostWeight="1.0000000000000000e+00" itree="934">
      <Node pos="s" depth="0" NCoef="0" IVar="6" Cut="1.5081791877746582e+00" cType="1" res="-1.0498480405658484e-03" rms="4.5223870873451233e-01" purity="4.9662145972251892e-01" nType="0">
        <Node pos="l" depth="1" NCoef="0" IVar="-1" Cut="0.0000000000000000e+00" cType="1" res="1.7113657668232918e-03" rms="4.3803492188453674e-01" purity="6.3312113285064697e-01" nType="-99"/>
        <Node pos="r" depth="1" NCoef="0" IVar="0" Cut="3.6040441989898682e+00" cType="1" res="-3.3868933096528053e-03" rms="4.5331156253814697e-01" purity="4.8536062240600586e-01" nType="0">
          <Node pos="l" depth="2" NCoef="0" IVar="-1" Cut="0.0000000000000000e+00" cType="1" res="-5.8111728867515922e-04" rms="4.5777434110641479e-01" purity="3.9843881130218506e-01" nType="-99"/>
          <Node pos="r" depth="2" NCoef="0" IVar="-1" Cut="0.0000000000000000e+00" cType="1" res="6.5705383894965053e-04" rms="4.4260200858116150e-01" purity="6.8486243486404419e-01" nType="-99"/>
        </Node>
      </Node>
    </BinaryTree>
    <BinaryTree type="DecisionTree" boostWeight="1.0000000000000000e+00" itree="935">
      <Node pos="s" depth="0" NCoef="0" IVar="0" Cut="1.1943142414093018e+00" cType="1" res="4.6153715811669827e-03" rms="4.5388391613960266e-01" purity="5.0566482543945312e-01" nType="0">
        <Node pos="l" depth="1" NCoef="0" IVar="7" Cut="6.5508705139160156e+01" cType="1" res="-2.6960913091897964e-02" rms="4.1780987381935120e-01" purity="2.6332753896713257e-01" nType="0">
          <Node pos="l" depth="2" NCoef="0" IVar="-1" Cut="0.0000000000000000e+00" cType="1" res="-4.4556991197168827e-03" rms="3.6746209859848022e-01" purity="1.7419642210006714e-01" nType="-99"/>
          <Node pos="r" depth="2" NCoef="0" IVar="-1" Cut="0.0000000000000000e+00" cType="1" res="-1.4078494859859347e-04" rms="4.5980948209762573e-01" purity="3.4925574064254761e-01" nType="-99"/>
        </Node>
        <Node pos="r" depth="1" NCoef="0" IVar="7" Cut="8.0702903747558594e+01" cType="1" res="8.2797529175877571e-03" rms="4.5774522423744202e-01" purity="5.3378778696060181e-01" nType="0">
          <Node pos="l" depth="2" NCoef="0" IVar="-1" Cut="0.0000000000000000e+00" cType="1" res="9.4540225109085441e-04" rms="4.5975083112716675e-01" purity="4.9936634302139282e-01" nType="-99"/>
          <Node pos="r" depth="2" NCoef="0" IVar="-1" Cut="0.0000000000000000e+00" cType="1" res="-4.2608717922121286e-04" rms="4.5308393239974976e-01" purity="6.0699486732482910e-01" nType="-99"/>
        </Node>
      </Node>
    </BinaryTree>
    <BinaryTree type="DecisionTree" boostWeight="1.0000000000000000e+00" itree="936">
      <Node pos="s" depth="0" NCoef="0" IVar="7" Cut="5.0222537994384766e+01" cType="1" res="-3.8612342905253172e-03" rms="4.5150628685951233e-01" purity="4.9601760506629944e-01" nType="0">
        <Node pos="l" depth="1" NCoef="0" IVar="0" Cut="3.4378292560577393e+00" cType="1" res="-2.4158716201782227e-02" rms="4.4015234708786011e-01" purity="3.3949112892150879e-01" nType="0">
          <Node pos="l" depth="2" NCoef="0" IVar="-1" Cut="0.0000000000000000e+00" cType="1" res="-5.4350163554772735e-04" rms="4.2378380894660950e-01" purity="2.8254494071006775e-01" nType="-99"/>
          <Node pos="r" depth="2" NCoef="0" IVar="-1" Cut="0.0000000000000000e+00" cType="1" res="-3.8545515853911638e-03" rms="4.7635930776596069e-01" purity="4.8283109068870544e-01" nType="-99"/>
        </Node>
        <Node pos="r" depth="1" NCoef="0" IVar="5" Cut="9.6428722143173218e-01" cType="1" res="6.1207712860777974e-04" rms="4.5384830236434937e-01" purity="5.3051412105560303e-01" nType="0">
          <Node pos="l" depth="2" NCoef="0" IVar="-1" Cut="0.0000000000000000e+00" cType="1" res="-4.3943963828496635e-04" rms="4.6400064229965210e-01" purity="4.4284018874168396e-01" nType="-99"/>
          <Node pos="r" depth="2" NCoef="0" IVar="-1" Cut="0.0000000000000000e+00" cType="1" res="1.0654281359165907e-03" rms="4.3372201919555664e-01" purity="6.9535827636718750e-01" nType="-99"/>
        </Node>
      </Node>
    </BinaryTree>
    <BinaryTree type="DecisionTree" boostWeight="1.0000000000000000e+00" itree="937">
      <Node pos="s" depth="0" NCoef="0" IVar="5" Cut="9.0733802318572998e-01" cType="1" res="-1.0026744566857815e-03" rms="4.5136478543281555e-01" purity="5.0052523612976074e-01" nType="0">
        <Node pos="l" depth="1" NCoef="0" IVar="-1" Cut="0.0000000000000000e+00" cType="1" res="-2.6406792458146811e-03" rms="4.1189810633659363e-01" purity="2.5752744078636169e-01" nType="-99"/>
        <Node pos="r" depth="1" NCoef="0" IVar="8" Cut="9.6575307846069336e-01" cType="1" res="1.2329855235293508e-03" rms="4.5346224308013916e-01" purity="5.1470774412155151e-01" nType="0">
          <Node pos="l" depth="2" NCoef="0" IVar="-1" Cut="0.0000000000000000e+00" cType="1" res="-5.6412274716421962e-04" rms="4.5070171356201172e-01" purity="5.4729586839675903e-01" nType="-99"/>
          <Node pos="r" depth="2" NCoef="0" IVar="-1" Cut="0.0000000000000000e+00" cType="1" res="5.2844808669760823e-04" rms="4.5525127649307251e-01" purity="4.9186378717422485e-01" nType="-99"/>
        </Node>
      </Node>
    </BinaryTree>
    <BinaryTree type="DecisionTree" boostWeight="1.0000000000000000e+00" itree="938">
      <Node pos="s" depth="0" NCoef="0" IVar="8" Cut="1.3189555406570435e+00" cType="1" res="-9.9813996348530054e-04" rms="4.5556387305259705e-01" purity="4.9816703796386719e-01" nType="0">
        <Node pos="l" depth="1" NCoef="0" IVar="9" Cut="9.0841579437255859e-01" cType="1" res="-6.7465011961758137e-03" rms="4.5682370662689209e-01" purity="5.1446586847305298e-01" nType="0">
          <Node pos="l" depth="2" NCoef="0" IVar="-1" Cut="0.0000000000000000e+00" cType="1" res="-1.7185832257382572e-04" rms="4.5821282267570496e-01" purity="5.3200680017471313e-01" nType="-99"/>
          <Node pos="r" depth="2" NCoef="0" IVar="-1" Cut="0.0000000000000000e+00" cType="1" res="-2.3904773406684399e-03" rms="4.4493994116783142e-01" purity="3.8101553916931152e-01" nType="-99"/>
        </Node>
        <Node pos="r" depth="1" NCoef="0" IVar="3" Cut="9.7272418439388275e-02" cType="1" res="1.3257027603685856e-02" rms="4.5210921764373779e-01" purity="4.5774790644645691e-01" nType="0">
          <Node pos="l" depth="2" NCoef="0" IVar="-1" Cut="0.0000000000000000e+00" cType="1" res="1.2918969150632620e-03" rms="4.5593363046646118e-01" purity="4.8758664727210999e-01" nType="-99"/>
          <Node pos="r" depth="2" NCoef="0" IVar="-1" Cut="0.0000000000000000e+00" cType="1" res="-5.2588770631700754e-04" rms="4.4008743762969971e-01" purity="3.7072506546974182e-01" nType="-99"/>
        </Node>
      </Node>
    </BinaryTree>
    <BinaryTree type="DecisionTree" boostWeight="1.0000000000000000e+00" itree="939">
      <Node pos="s" depth="0" NCoef="0" IVar="9" Cut="8.3470952510833740e-01" cType="1" res="1.2344970600679517e-03" rms="4.5369639992713928e-01" purity="5.0034397840499878e-01" nType="0">
        <Node pos="l" depth="1" NCoef="0" IVar="2" Cut="1.8146873474121094e+02" cType="1" res="5.1829372532665730e-03" rms="4.5414009690284729e-01" purity="5.2327489852905273e-01" nType="0">
          <Node pos="l" depth="2" NCoef="0" IVar="-1" Cut="0.0000000000000000e+00" cType="1" res="9.7718388133216649e-05" rms="4.5386567711830139e-01" purity="5.1798337697982788e-01" nType="-99"/>
          <Node pos="r" depth="2" NCoef="0" IVar="-1" Cut="0.0000000000000000e+00" cType="1" res="3.2321424223482609e-03" rms="4.5512172579765320e-01" purity="5.8946162462234497e-01" nType="-99"/>
        </Node>
        <Node pos="r" depth="1" NCoef="0" IVar="3" Cut="5.0048373639583588e-02" cType="1" res="-1.7118865624070168e-02" rms="4.5117491483688354e-01" purity="3.9375543594360352e-01" nType="0">
          <Node pos="l" depth="2" NCoef="0" IVar="-1" Cut="0.0000000000000000e+00" cType="1" res="-2.2212190087884665e-03" rms="4.6131721138954163e-01" purity="4.0226253867149353e-01" nType="-99"/>
          <Node pos="r" depth="2" NCoef="0" IVar="-1" Cut="0.0000000000000000e+00" cType="1" res="2.9632495716214180e-04" rms="4.3759772181510925e-01" purity="3.8344034552574158e-01" nType="-99"/>
        </Node>
      </Node>
    </BinaryTree>
    <BinaryTree type="DecisionTree" boostWeight="1.0000000000000000e+00" itree="940">
      <Node pos="s" depth="0" NCoef="0" IVar="6" Cut="2.3600046634674072e+00" cType="1" res="1.4340224443003535e-03" rms="4.5743599534034729e-01" purity="5.0110232830047607e-01" nType="0">
        <Node pos="l" depth="1" NCoef="0" IVar="0" Cut="3.5986042022705078e+00" cType="1" res="-4.6845232136547565e-03" rms="4.6107313036918640e-01" purity="5.4515105485916138e-01" nType="0">
          <Node pos="l" depth="2" NCoef="0" IVar="-1" Cut="0.0000000000000000e+00" cType="1" res="1.6325335309375077e-04" rms="4.7153931856155396e-01" purity="4.6922063827514648e-01" nType="-99"/>
          <Node pos="r" depth="2" NCoef="0" IVar="-1" Cut="0.0000000000000000e+00" cType="1" res="-1.4165842439979315e-03" rms="4.3753641843795776e-01" purity="7.0680767297744751e-01" nType="-99"/>
        </Node>
        <Node pos="r" depth="1" NCoef="0" IVar="5" Cut="9.3797075748443604e-01" cType="1" res="1.4755701646208763e-02" rms="4.4912701845169067e-01" purity="4.0519672632217407e-01" nType="0">
          <Node pos="l" depth="2" NCoef="0" IVar="-1" Cut="0.0000000000000000e+00" cType="1" res="-5.5216165492311120e-04" rms="4.1638508439064026e-01" purity="2.5718784332275391e-01" nType="-99"/>
          <Node pos="r" depth="2" NCoef="0" IVar="-1" Cut="0.0000000000000000e+00" cType="1" res="1.5876180259510875e-03" rms="4.6360579133033752e-01" purity="4.7604057192802429e-01" nType="-99"/>
        </Node>
      </Node>
    </BinaryTree>
    <BinaryTree type="DecisionTree" boostWeight="1.0000000000000000e+00" itree="941">
      <Node pos="s" depth="0" NCoef="0" IVar="6" Cut="1.5768941640853882e+00" cType="1" res="-5.1096355309709907e-04" rms="4.5434427261352539e-01" purity="4.9871271848678589e-01" nType="0">
        <Node pos="l" depth="1" NCoef="0" IVar="-1" Cut="0.0000000000000000e+00" cType="1" res="-1.7954595386981964e-03" rms="4.4610992074012756e-01" purity="5.7156640291213989e-01" nType="-99"/>
        <Node pos="r" depth="1" NCoef="0" IVar="8" Cut="7.0993453264236450e-01" cType="1" res="2.3963910061866045e-03" rms="4.5508673787117004e-01" purity="4.9119079113006592e-01" nType="0">
          <Node pos="l" depth="2" NCoef="0" IVar="-1" Cut="0.0000000000000000e+00" cType="1" res="-1.0774099500849843e-03" rms="4.5370689034461975e-01" purity="5.3546327352523804e-01" nType="-99"/>
          <Node pos="r" depth="2" NCoef="0" IVar="-1" Cut="0.0000000000000000e+00" cType="1" res="4.1808086098171771e-04" rms="4.5527365803718567e-01" purity="4.8164358735084534e-01" nType="-99"/>
        </Node>
      </Node>
    </BinaryTree>
    <BinaryTree type="DecisionTree" boostWeight="1.0000000000000000e+00" itree="942">
      <Node pos="s" depth="0" NCoef="0" IVar="4" Cut="6.6091942787170410e-01" cType="1" res="-1.3292430667206645e-03" rms="4.5370006561279297e-01" purity="4.9799382686614990e-01" nType="0">
        <Node pos="l" depth="1" NCoef="0" IVar="3" Cut="-4.4254720211029053e-02" cType="1" res="-4.6244123950600624e-03" rms="4.5406353473663330e-01" purity="4.8802840709686279e-01" nType="0">
          <Node pos="l" depth="2" NCoef="0" IVar="-1" Cut="0.0000000000000000e+00" cType="1" res="-2.1941238082945347e-03" rms="4.5315802097320557e-01" purity="5.2128159999847412e-01" nType="-99"/>
          <Node pos="r" depth="2" NCoef="0" IVar="-1" Cut="0.0000000000000000e+00" cType="1" res="-4.2238698370056227e-05" rms="4.5403015613555908e-01" purity="4.8372539877891541e-01" nType="-99"/>
        </Node>
        <Node pos="r" depth="1" NCoef="0" IVar="-1" Cut="0.0000000000000000e+00" cType="1" res="1.7904938431456685e-03" rms="4.4931218028068542e-01" purity="5.8796948194503784e-01" nType="-99"/>
      </Node>
    </BinaryTree>
    <BinaryTree type="DecisionTree" boostWeight="1.0000000000000000e+00" itree="943">
      <Node pos="s" depth="0" NCoef="0" IVar="0" Cut="3.9785618782043457e+00" cType="1" res="-2.9653750825673342e-03" rms="4.5451027154922485e-01" purity="4.9985221028327942e-01" nType="0">
        <Node pos="l" depth="1" NCoef="0" IVar="1" Cut="7.3581768798828125e+02" cType="1" res="3.5637859255075455e-03" rms="4.5995625853538513e-01" purity="4.3973630666732788e-01" nType="0">
          <Node pos="l" depth="2" NCoef="0" IVar="-1" Cut="0.0000000000000000e+00" cType="1" res="-9.2277528892736882e-05" rms="4.5823961496353149e-01" purity="4.1308102011680603e-01" nType="-99"/>
          <Node pos="r" depth="2" NCoef="0" IVar="-1" Cut="0.0000000000000000e+00" cType="1" res="1.8558000447228551e-03" rms="4.6829375624656677e-01" purity="5.8600002527236938e-01" nType="-99"/>
        </Node>
        <Node pos="r" depth="1" NCoef="0" IVar="3" Cut="5.5107541382312775e-02" cType="1" res="-2.3696469143033028e-02" rms="4.3612110614776611e-01" purity="6.9072955846786499e-01" nType="0">
          <Node pos="l" depth="2" NCoef="0" IVar="-1" Cut="0.0000000000000000e+00" cType="1" res="-2.9861568473279476e-03" rms="4.3521839380264282e-01" purity="6.9829821586608887e-01" nType="-99"/>
          <Node pos="r" depth="2" NCoef="0" IVar="-1" Cut="0.0000000000000000e+00" cType="1" res="4.9750489415600896e-04" rms="4.3597507476806641e-01" purity="6.7721009254455566e-01" nType="-99"/>
        </Node>
      </Node>
    </BinaryTree>
    <BinaryTree type="DecisionTree" boostWeight="1.0000000000000000e+00" itree="944">
      <Node pos="s" depth="0" NCoef="0" IVar="5" Cut="9.7991746664047241e-01" cType="1" res="-3.2431092113256454e-03" rms="4.5490354299545288e-01" purity="4.9338811635971069e-01" nType="0">
        <Node pos="l" depth="1" NCoef="0" IVar="8" Cut="6.9546151161193848e-01" cType="1" res="7.6107162749394774e-04" rms="4.5918259024620056e-01" purity="4.5606607198715210e-01" nType="0">
          <Node pos="l" depth="2" NCoef="0" IVar="-1" Cut="0.0000000000000000e+00" cType="1" res="-1.3978116912767291e-03" rms="4.6469137072563171e-01" purity="4.9316954612731934e-01" nType="-99"/>
          <Node pos="r" depth="2" NCoef="0" IVar="-1" Cut="0.0000000000000000e+00" cType="1" res="3.4164934186264873e-04" rms="4.5792979001998901e-01" purity="4.4868269562721252e-01" nType="-99"/>
        </Node>
        <Node pos="r" depth="1" NCoef="0" IVar="3" Cut="-1.1510670185089111e-02" cType="1" res="-2.5480534881353378e-02" rms="4.2968752980232239e-01" purity="7.0065778493881226e-01" nType="0">
          <Node pos="l" depth="2" NCoef="0" IVar="-1" Cut="0.0000000000000000e+00" cType="1" res="-1.5719950897619128e-04" rms="4.0298053622245789e-01" purity="7.5714105367660522e-01" nType="-99"/>
          <Node pos="r" depth="2" NCoef="0" IVar="-1" Cut="0.0000000000000000e+00" cType="1" res="-2.7382967527955770e-03" rms="4.4322898983955383e-01" purity="6.6943222284317017e-01" nType="-99"/>
        </Node>
      </Node>
    </BinaryTree>
    <BinaryTree type="DecisionTree" boostWeight="1.0000000000000000e+00" itree="945">
      <Node pos="s" depth="0" NCoef="0" IVar="7" Cut="1.2003984069824219e+02" cType="1" res="-7.5663402676582336e-03" rms="4.5363277196884155e-01" purity="4.9327048659324646e-01" nType="0">
        <Node pos="l" depth="1" NCoef="0" IVar="7" Cut="4.4958171844482422e+01" cType="1" res="-9.7890952602028847e-03" rms="4.5458611845970154e-01" purity="4.8003718256950378e-01" nType="0">
          <Node pos="l" depth="2" NCoef="0" IVar="-1" Cut="0.0000000000000000e+00" cType="1" res="-2.5098007172346115e-03" rms="4.3697941303253174e-01" purity="2.9359391331672668e-01" nType="-99"/>
          <Node pos="r" depth="2" NCoef="0" IVar="-1" Cut="0.0000000000000000e+00" cType="1" res="-4.1863211663439870e-04" rms="4.5650139451026917e-01" purity="5.0184464454650879e-01" nType="-99"/>
        </Node>
        <Node pos="r" depth="1" NCoef="0" IVar="-1" Cut="0.0000000000000000e+00" cType="1" res="1.1732837883755565e-03" rms="4.4163206219673157e-01" purity="6.4648079872131348e-01" nType="-99"/>
      </Node>
    </BinaryTree>
    <BinaryTree type="DecisionTree" boostWeight="1.0000000000000000e+00" itree="946">
      <Node pos="s" depth="0" NCoef="0" IVar="5" Cut="9.7222840785980225e-01" cType="1" res="4.4657409307546914e-04" rms="4.5386791229248047e-01" purity="5.0226557254791260e-01" nType="0">
        <Node pos="l" depth="1" NCoef="0" IVar="0" Cut="3.1283950805664062e+00" cType="1" res="-4.9132737331092358e-03" rms="4.6153753995895386e-01" purity="4.3577337265014648e-01" nType="0">
          <Node pos="l" depth="2" NCoef="0" IVar="-1" Cut="0.0000000000000000e+00" cType="1" res="1.1344903032295406e-04" rms="4.5726391673088074e-01" purity="3.7623947858810425e-01" nType="-99"/>
          <Node pos="r" depth="2" NCoef="0" IVar="-1" Cut="0.0000000000000000e+00" cType="1" res="-1.1713306885212660e-03" rms="4.7075414657592773e-01" purity="5.7113569974899292e-01" nType="-99"/>
        </Node>
        <Node pos="r" depth="1" NCoef="0" IVar="5" Cut="9.9113941192626953e-01" cType="1" res="1.7589285969734192e-02" rms="4.2796641588211060e-01" purity="7.1493142843246460e-01" nType="0">
          <Node pos="l" depth="2" NCoef="0" IVar="-1" Cut="0.0000000000000000e+00" cType="1" res="5.0256098620593548e-04" rms="4.4435864686965942e-01" purity="6.8036985397338867e-01" nType="-99"/>
          <Node pos="r" depth="2" NCoef="0" IVar="-1" Cut="0.0000000000000000e+00" cType="1" res="4.0726033039391041e-03" rms="3.6662915349006653e-01" purity="8.2916885614395142e-01" nType="-99"/>
        </Node>
      </Node>
    </BinaryTree>
    <BinaryTree type="DecisionTree" boostWeight="1.0000000000000000e+00" itree="947">
      <Node pos="s" depth="0" NCoef="0" IVar="3" Cut="-6.2677457928657532e-02" cType="1" res="3.1822570599615574e-03" rms="4.5348003506660461e-01" purity="5.0166374444961548e-01" nType="0">
        <Node pos="l" depth="1" NCoef="0" IVar="-1" Cut="0.0000000000000000e+00" cType="1" res="2.0417775958776474e-03" rms="4.5219007134437561e-01" purity="6.0682278871536255e-01" nType="-99"/>
        <Node pos="r" depth="1" NCoef="0" IVar="8" Cut="1.2847337722778320e+00" cType="1" res="5.9720745775848627e-04" rms="4.5350360870361328e-01" purity="4.9234810471534729e-01" nType="0">
          <Node pos="l" depth="2" NCoef="0" IVar="-1" Cut="0.0000000000000000e+00" cType="1" res="4.1139850509352982e-04" rms="4.5590350031852722e-01" purity="5.2309811115264893e-01" nType="-99"/>
          <Node pos="r" depth="2" NCoef="0" IVar="-1" Cut="0.0000000000000000e+00" cType="1" res="-8.0147740663960576e-04" rms="4.4791465997695923e-01" purity="4.2484399676322937e-01" nType="-99"/>
        </Node>
      </Node>
    </BinaryTree>
    <BinaryTree type="DecisionTree" boostWeight="1.0000000000000000e+00" itree="948">
      <Node pos="s" depth="0" NCoef="0" IVar="5" Cut="9.3442755937576294e-01" cType="1" res="-4.4253114610910416e-03" rms="4.5462331175804138e-01" purity="4.9831500649452209e-01" nType="0">
        <Node pos="l" depth="1" NCoef="0" IVar="9" Cut="7.9174202680587769e-01" cType="1" res="1.1448128148913383e-02" rms="4.5054945349693298e-01" purity="3.5484698414802551e-01" nType="0">
          <Node pos="l" depth="2" NCoef="0" IVar="-1" Cut="0.0000000000000000e+00" cType="1" res="2.0055187633261085e-04" rms="4.5384898781776428e-01" purity="3.6824041604995728e-01" nType="-99"/>
          <Node pos="r" depth="2" NCoef="0" IVar="-1" Cut="0.0000000000000000e+00" cType="1" res="2.5992742739617825e-03" rms="4.3940314650535583e-01" purity="3.1407850980758667e-01" nType="-99"/>
        </Node>
        <Node pos="r" depth="1" NCoef="0" IVar="5" Cut="9.6590852737426758e-01" cType="1" res="-9.6750296652317047e-03" rms="4.5584100484848022e-01" purity="5.4576325416564941e-01" nType="0">
          <Node pos="l" depth="2" NCoef="0" IVar="-1" Cut="0.0000000000000000e+00" cType="1" res="-1.0504195233806968e-03" rms="4.6643456816673279e-01" purity="4.5786374807357788e-01" nType="-99"/>
          <Node pos="r" depth="2" NCoef="0" IVar="-1" Cut="0.0000000000000000e+00" cType="1" res="7.9817138612270355e-05" rms="4.4055727124214172e-01" purity="6.6719537973403931e-01" nType="-99"/>
        </Node>
      </Node>
    </BinaryTree>
    <BinaryTree type="DecisionTree" boostWeight="1.0000000000000000e+00" itree="949">
      <Node pos="s" depth="0" NCoef="0" IVar="7" Cut="1.3219117736816406e+02" cType="1" res="6.6204532049596310e-03" rms="4.5263174176216125e-01" purity="5.0796329975128174e-01" nType="0">
        <Node pos="l" depth="1" NCoef="0" IVar="7" Cut="5.0160762786865234e+01" cType="1" res="9.5345908775925636e-03" rms="4.5213618874549866e-01" purity="5.0349986553192139e-01" nType="0">
          <Node pos="l" depth="2" NCoef="0" IVar="-1" Cut="0.0000000000000000e+00" cType="1" res="1.9012800185009837e-03" rms="4.4205060601234436e-01" purity="3.8865599036216736e-01" nType="-99"/>
          <Node pos="r" depth="2" NCoef="0" IVar="-1" Cut="0.0000000000000000e+00" cType="1" res="3.1456997385248542e-04" rms="4.5442166924476624e-01" purity="5.3119790554046631e-01" nType="-99"/>
        </Node>
        <Node pos="r" depth="1" NCoef="0" IVar="-1" Cut="0.0000000000000000e+00" cType="1" res="-2.9047757852822542e-03" rms="4.5819258689880371e-01" purity="5.8508944511413574e-01" nType="-99"/>
      </Node>
    </BinaryTree>
    <BinaryTree type="DecisionTree" boostWeight="1.0000000000000000e+00" itree="950">
      <Node pos="s" depth="0" NCoef="0" IVar="7" Cut="1.1611493682861328e+02" cType="1" res="-2.4249544367194176e-03" rms="4.5184126496315002e-01" purity="4.9720203876495361e-01" nType="0">
        <Node pos="l" depth="1" NCoef="0" IVar="5" Cut="9.1840344667434692e-01" cType="1" res="-5.1349899731576443e-03" rms="4.5270287990570068e-01" purity="4.8159700632095337e-01" nType="0">
          <Node pos="l" depth="2" NCoef="0" IVar="-1" Cut="0.0000000000000000e+00" cType="1" res="-1.8252239096909761e-03" rms="4.1691967844963074e-01" purity="2.6938843727111816e-01" nType="-99"/>
          <Node pos="r" depth="2" NCoef="0" IVar="-1" Cut="0.0000000000000000e+00" cType="1" res="-1.2720454833470285e-04" rms="4.5733183622360229e-01" purity="5.1086574792861938e-01" nType="-99"/>
        </Node>
        <Node pos="r" depth="1" NCoef="0" IVar="-1" Cut="0.0000000000000000e+00" cType="1" res="1.6049059340730309e-03" rms="4.4223505258560181e-01" purity="6.5303790569305420e-01" nType="-99"/>
      </Node>
    </BinaryTree>
    <BinaryTree type="DecisionTree" boostWeight="1.0000000000000000e+00" itree="951">
      <Node pos="s" depth="0" NCoef="0" IVar="5" Cut="9.3806123733520508e-01" cType="1" res="-7.6967873610556126e-04" rms="4.5312079787254333e-01" purity="4.9671912193298340e-01" nType="0">
        <Node pos="l" depth="1" NCoef="0" IVar="4" Cut="2.5072988867759705e-01" cType="1" res="-1.7087088897824287e-02" rms="4.4106405973434448e-01" purity="3.2882061600685120e-01" nType="0">
          <Node pos="l" depth="2" NCoef="0" IVar="-1" Cut="0.0000000000000000e+00" cType="1" res="-2.8255979996174574e-03" rms="4.1219347715377808e-01" purity="2.6000112295150757e-01" nType="-99"/>
          <Node pos="r" depth="2" NCoef="0" IVar="-1" Cut="0.0000000000000000e+00" cType="1" res="-4.5428340672515333e-04" rms="4.5198220014572144e-01" purity="3.5697421431541443e-01" nType="-99"/>
        </Node>
        <Node pos="r" depth="1" NCoef="0" IVar="9" Cut="7.4399447441101074e-01" cType="1" res="5.9502464719116688e-03" rms="4.5782476663589478e-01" purity="5.6586402654647827e-01" nType="0">
          <Node pos="l" depth="2" NCoef="0" IVar="-1" Cut="0.0000000000000000e+00" cType="1" res="-6.3953928474802524e-05" rms="4.5585286617279053e-01" purity="5.8367651700973511e-01" nType="-99"/>
          <Node pos="r" depth="2" NCoef="0" IVar="-1" Cut="0.0000000000000000e+00" cType="1" res="1.6757813282310963e-03" rms="4.6312150359153748e-01" purity="5.1175689697265625e-01" nType="-99"/>
        </Node>
      </Node>
    </BinaryTree>
    <BinaryTree type="DecisionTree" boostWeight="1.0000000000000000e+00" itree="952">
      <Node pos="s" depth="0" NCoef="0" IVar="7" Cut="8.1092727661132812e+01" cType="1" res="1.7154522356577218e-04" rms="4.5540463924407959e-01" purity="5.0064492225646973e-01" nType="0">
        <Node pos="l" depth="1" NCoef="0" IVar="6" Cut="2.5482468605041504e+00" cType="1" res="-7.3140668682754040e-03" rms="4.5553728938102722e-01" purity="4.5193797349929810e-01" nType="0">
          <Node pos="l" depth="2" NCoef="0" IVar="-1" Cut="0.0000000000000000e+00" cType="1" res="-8.0783624434843659e-04" rms="4.5999065041542053e-01" purity="4.8058629035949707e-01" nType="-99"/>
          <Node pos="r" depth="2" NCoef="0" IVar="-1" Cut="0.0000000000000000e+00" cType="1" res="1.3114248868077993e-03" rms="4.3418675661087036e-01" purity="3.2416883111000061e-01" nType="-99"/>
        </Node>
        <Node pos="r" depth="1" NCoef="0" IVar="6" Cut="1.8894796371459961e+00" cType="1" res="1.6488363966345787e-02" rms="4.5468845963478088e-01" purity="6.0681420564651489e-01" nType="0">
          <Node pos="l" depth="2" NCoef="0" IVar="-1" Cut="0.0000000000000000e+00" cType="1" res="-8.9829409262165427e-04" rms="4.5457425713539124e-01" purity="6.6149824857711792e-01" nType="-99"/>
          <Node pos="r" depth="2" NCoef="0" IVar="-1" Cut="0.0000000000000000e+00" cType="1" res="1.5071125235408545e-03" rms="4.5439660549163818e-01" purity="5.9285545349121094e-01" nType="-99"/>
        </Node>
      </Node>
    </BinaryTree>
    <BinaryTree type="DecisionTree" boostWeight="1.0000000000000000e+00" itree="953">
      <Node pos="s" depth="0" NCoef="0" IVar="7" Cut="5.9456405639648438e+01" cType="1" res="-3.5673363599926233e-03" rms="4.5447078347206116e-01" purity="4.9421516060829163e-01" nType="0">
        <Node pos="l" depth="1" NCoef="0" IVar="9" Cut="5.4149627685546875e-01" cType="1" res="8.7532773613929749e-03" rms="4.4999402761459351e-01" purity="4.0815088152885437e-01" nType="0">
          <Node pos="l" depth="2" NCoef="0" IVar="-1" Cut="0.0000000000000000e+00" cType="1" res="-6.9668673677369952e-04" rms="4.5182651281356812e-01" purity="4.2025893926620483e-01" nType="-99"/>
          <Node pos="r" depth="2" NCoef="0" IVar="-1" Cut="0.0000000000000000e+00" cType="1" res="1.8014960223808885e-03" rms="4.4752225279808044e-01" purity="3.9699178934097290e-01" nType="-99"/>
        </Node>
        <Node pos="r" depth="1" NCoef="0" IVar="0" Cut="1.6633950471878052e+00" cType="1" res="-1.0352279059588909e-02" rms="4.5677551627159119e-01" purity="5.4161059856414795e-01" nType="0">
          <Node pos="l" depth="2" NCoef="0" IVar="-1" Cut="0.0000000000000000e+00" cType="1" res="6.0485891299322248e-04" rms="4.6427658200263977e-01" purity="3.7169155478477478e-01" nType="-99"/>
          <Node pos="r" depth="2" NCoef="0" IVar="-1" Cut="0.0000000000000000e+00" cType="1" res="-9.3253527302294970e-04" rms="4.5484778285026550e-01" purity="5.8200883865356445e-01" nType="-99"/>
        </Node>
      </Node>
    </BinaryTree>
    <BinaryTree type="DecisionTree" boostWeight="1.0000000000000000e+00" itree="954">
      <Node pos="s" depth="0" NCoef="0" IVar="4" Cut="1.3436362147331238e-01" cType="1" res="8.2306429976597428e-04" rms="4.5509263873100281e-01" purity="5.0227642059326172e-01" nType="0">
        <Node pos="l" depth="1" NCoef="0" IVar="-1" Cut="0.0000000000000000e+00" cType="1" res="1.8773187184706330e-03" rms="4.4667121767997742e-01" purity="4.1466262936592102e-01" nType="-99"/>
        <Node pos="r" depth="1" NCoef="0" IVar="6" Cut="1.9843440055847168e+00" cType="1" res="-1.4038605149835348e-03" rms="4.5568621158599854e-01" purity="5.0928610563278198e-01" nType="0">
          <Node pos="l" depth="2" NCoef="0" IVar="-1" Cut="0.0000000000000000e+00" cType="1" res="8.8557339040562510e-04" rms="4.5134785771369934e-01" purity="5.9466570615768433e-01" nType="-99"/>
          <Node pos="r" depth="2" NCoef="0" IVar="-1" Cut="0.0000000000000000e+00" cType="1" res="-4.2476059752516448e-04" rms="4.5704659819602966e-01" purity="4.7992581129074097e-01" nType="-99"/>
        </Node>
      </Node>
    </BinaryTree>
    <BinaryTree type="DecisionTree" boostWeight="1.0000000000000000e+00" itree="955">
      <Node pos="s" depth="0" NCoef="0" IVar="8" Cut="1.3653612136840820e+00" cType="1" res="3.1712886411696672e-03" rms="4.5437109470367432e-01" purity="5.0084280967712402e-01" nType="0">
        <Node pos="l" depth="1" NCoef="0" IVar="5" Cut="9.3313771486282349e-01" cType="1" res="8.6140725761651993e-03" rms="4.5599377155303955e-01" purity="5.2720957994461060e-01" nType="0">
          <Node pos="l" depth="2" NCoef="0" IVar="-1" Cut="0.0000000000000000e+00" cType="1" res="-4.1461194632574916e-04" rms="4.4855222105979919e-01" purity="3.4548768401145935e-01" nType="-99"/>
          <Node pos="r" depth="2" NCoef="0" IVar="-1" Cut="0.0000000000000000e+00" cType="1" res="8.4013305604457855e-04" rms="4.5821166038513184e-01" purity="5.8454817533493042e-01" nType="-99"/>
        </Node>
        <Node pos="r" depth="1" NCoef="0" IVar="4" Cut="2.5439089536666870e-01" cType="1" res="-1.2754613533616066e-02" rms="4.4921082258224487e-01" purity="4.2369231581687927e-01" nType="0">
          <Node pos="l" depth="2" NCoef="0" IVar="-1" Cut="0.0000000000000000e+00" cType="1" res="9.2493591364473104e-04" rms="4.3861806392669678e-01" purity="3.7189692258834839e-01" nType="-99"/>
          <Node pos="r" depth="2" NCoef="0" IVar="-1" Cut="0.0000000000000000e+00" cType="1" res="-1.4422459062188864e-03" rms="4.5272979140281677e-01" purity="4.4314455986022949e-01" nType="-99"/>
        </Node>
      </Node>
    </BinaryTree>
    <BinaryTree type="DecisionTree" boostWeight="1.0000000000000000e+00" itree="956">
      <Node pos="s" depth="0" NCoef="0" IVar="9" Cut="3.3584913611412048e-01" cType="1" res="7.1920908521860838e-04" rms="4.5374783873558044e-01" purity="5.0101810693740845e-01" nType="0">
        <Node pos="l" depth="1" NCoef="0" IVar="4" Cut="3.3306109905242920e-01" cType="1" res="1.6233699396252632e-02" rms="4.5154032111167908e-01" purity="5.6990283727645874e-01" nType="0">
          <Node pos="l" depth="2" NCoef="0" IVar="-1" Cut="0.0000000000000000e+00" cType="1" res="-6.1148533131927252e-04" rms="4.6126589179039001e-01" purity="5.0694495439529419e-01" nType="-99"/>
          <Node pos="r" depth="2" NCoef="0" IVar="-1" Cut="0.0000000000000000e+00" cType="1" res="1.8478642450645566e-03" rms="4.4614142179489136e-01" purity="6.0077059268951416e-01" nType="-99"/>
        </Node>
        <Node pos="r" depth="1" NCoef="0" IVar="7" Cut="9.9702949523925781e+01" cType="1" res="-4.6159503981471062e-03" rms="4.5438212156295776e-01" purity="4.7732982039451599e-01" nType="0">
          <Node pos="l" depth="2" NCoef="0" IVar="-1" Cut="0.0000000000000000e+00" cType="1" res="-7.1291338826995343e-05" rms="4.5357638597488403e-01" purity="4.6149221062660217e-01" nType="-99"/>
          <Node pos="r" depth="2" NCoef="0" IVar="-1" Cut="0.0000000000000000e+00" cType="1" res="-1.5336797805503011e-03" rms="4.5840102434158325e-01" purity="5.6661361455917358e-01" nType="-99"/>
        </Node>
      </Node>
    </BinaryTree>
    <BinaryTree type="DecisionTree" boostWeight="1.0000000000000000e+00" itree="957">
      <Node pos="s" depth="0" NCoef="0" IVar="8" Cut="6.2998974323272705e-01" cType="1" res="1.6583689721301198e-03" rms="4.5474711060523987e-01" purity="5.0014960765838623e-01" nType="0">
        <Node pos="l" depth="1" NCoef="0" IVar="5" Cut="9.5267975330352783e-01" cType="1" res="2.3544013500213623e-02" rms="4.5096740126609802e-01" purity="5.8483231067657471e-01" nType="0">
          <Node pos="l" depth="2" NCoef="0" IVar="-1" Cut="0.0000000000000000e+00" cType="1" res="1.0868522804230452e-03" rms="4.7661080956459045e-01" purity="4.6523159742355347e-01" nType="-99"/>
          <Node pos="r" depth="2" NCoef="0" IVar="-1" Cut="0.0000000000000000e+00" cType="1" res="2.0015563350170851e-03" rms="4.2281097173690796e-01" purity="7.0823371410369873e-01" nType="-99"/>
        </Node>
        <Node pos="r" depth="1" NCoef="0" IVar="3" Cut="-3.8864932954311371e-02" cType="1" res="-8.4788427921012044e-04" rms="4.5511078834533691e-01" purity="4.9045214056968689e-01" nType="0">
          <Node pos="l" depth="2" NCoef="0" IVar="-1" Cut="0.0000000000000000e+00" cType="1" res="1.1908891610801220e-03" rms="4.4885778427124023e-01" purity="5.6907290220260620e-01" nType="-99"/>
          <Node pos="r" depth="2" NCoef="0" IVar="-1" Cut="0.0000000000000000e+00" cType="1" res="-3.2844516681507230e-04" rms="4.5636573433876038e-01" purity="4.7307822108268738e-01" nType="-99"/>
        </Node>
      </Node>
    </BinaryTree>
    <BinaryTree type="DecisionTree" boostWeight="1.0000000000000000e+00" itree="958">
      <Node pos="s" depth="0" NCoef="0" IVar="1" Cut="9.1333135986328125e+02" cType="1" res="-1.2945921625941992e-03" rms="4.5251536369323730e-01" purity="4.9686217308044434e-01" nType="0">
        <Node pos="l" depth="1" NCoef="0" IVar="7" Cut="7.5811408996582031e+01" cType="1" res="-3.4425174817442894e-03" rms="4.5337006449699402e-01" purity="4.8399472236633301e-01" nType="0">
          <Node pos="l" depth="2" NCoef="0" IVar="-1" Cut="0.0000000000000000e+00" cType="1" res="2.7679049526341259e-04" rms="4.5157766342163086e-01" purity="4.5228642225265503e-01" nType="-99"/>
          <Node pos="r" depth="2" NCoef="0" IVar="-1" Cut="0.0000000000000000e+00" cType="1" res="-1.1931405169889331e-03" rms="4.5655408501625061e-01" purity="5.4784405231475830e-01" nType="-99"/>
        </Node>
        <Node pos="r" depth="1" NCoef="0" IVar="-1" Cut="0.0000000000000000e+00" cType="1" res="1.8121597822755575e-03" rms="4.3988427519798279e-01" purity="6.6938203573226929e-01" nType="-99"/>
      </Node>
    </BinaryTree>
    <BinaryTree type="DecisionTree" boostWeight="1.0000000000000000e+00" itree="959">
      <Node pos="s" depth="0" NCoef="0" IVar="6" Cut="2.8122429847717285e+00" cType="1" res="-5.5474643595516682e-03" rms="4.5550087094306946e-01" purity="4.9477747082710266e-01" nType="0">
        <Node pos="l" depth="1" NCoef="0" IVar="9" Cut="2.5328189134597778e-01" cType="1" res="-8.1687364727258682e-03" rms="4.5771822333335876e-01" purity="5.1132100820541382e-01" nType="0">
          <Node pos="l" depth="2" NCoef="0" IVar="-1" Cut="0.0000000000000000e+00" cType="1" res="6.9269433151930571e-04" rms="4.4989427924156189e-01" purity="5.7511174678802490e-01" nType="-99"/>
          <Node pos="r" depth="2" NCoef="0" IVar="-1" Cut="0.0000000000000000e+00" cType="1" res="-7.3293503373861313e-04" rms="4.5908993482589722e-01" purity="4.9927961826324463e-01" nType="-99"/>
        </Node>
        <Node pos="r" depth="1" NCoef="0" IVar="-1" Cut="0.0000000000000000e+00" cType="1" res="2.1723662503063679e-03" rms="4.2439904808998108e-01" purity="2.8127011656761169e-01" nType="-99"/>
      </Node>
    </BinaryTree>
    <BinaryTree type="DecisionTree" boostWeight="1.0000000000000000e+00" itree="960">
      <Node pos="s" depth="0" NCoef="0" IVar="4" Cut="6.4199417829513550e-01" cType="1" res="5.4547685431316495e-04" rms="4.5469239354133606e-01" purity="5.0145232677459717e-01" nType="0">
        <Node pos="l" depth="1" NCoef="0" IVar="7" Cut="9.1618743896484375e+01" cType="1" res="4.5042783021926880e-03" rms="4.5476391911506653e-01" purity="4.9590438604354858e-01" nType="0">
          <Node pos="l" depth="2" NCoef="0" IVar="-1" Cut="0.0000000000000000e+00" cType="1" res="-8.3821840235032141e-05" rms="4.5443099737167358e-01" purity="4.5995995402336121e-01" nType="-99"/>
          <Node pos="r" depth="2" NCoef="0" IVar="-1" Cut="0.0000000000000000e+00" cType="1" res="1.5406066086143255e-03" rms="4.5533782243728638e-01" purity="6.1972564458847046e-01" nType="-99"/>
        </Node>
        <Node pos="r" depth="1" NCoef="0" IVar="3" Cut="-4.8829223960638046e-02" cType="1" res="-2.8037982061505318e-02" rms="4.5315033197402954e-01" purity="5.4150986671447754e-01" nType="0">
          <Node pos="l" depth="2" NCoef="0" IVar="-1" Cut="0.0000000000000000e+00" cType="1" res="-2.9208688647486269e-04" rms="4.3757435679435730e-01" purity="5.9474557638168335e-01" nType="-99"/>
          <Node pos="r" depth="2" NCoef="0" IVar="-1" Cut="0.0000000000000000e+00" cType="1" res="-2.9533675406128168e-03" rms="4.6428415179252625e-01" purity="4.9929615855216980e-01" nType="-99"/>
        </Node>
      </Node>
    </BinaryTree>
    <BinaryTree type="DecisionTree" boostWeight="1.0000000000000000e+00" itree="961">
      <Node pos="s" depth="0" NCoef="0" IVar="6" Cut="2.8159604072570801e+00" cType="1" res="3.4523960202932358e-03" rms="4.5479127764701843e-01" purity="5.0025749206542969e-01" nType="0">
        <Node pos="l" depth="1" NCoef="0" IVar="0" Cut="4.8110637664794922e+00" cType="1" res="6.0963477008044720e-03" rms="4.5898449420928955e-01" purity="5.2119505405426025e-01" nType="0">
          <Node pos="l" depth="2" NCoef="0" IVar="-1" Cut="0.0000000000000000e+00" cType="1" res="5.6997331557795405e-04" rms="4.6418058872222900e-01" purity="4.9133092164993286e-01" nType="-99"/>
          <Node pos="r" depth="2" NCoef="0" IVar="-1" Cut="0.0000000000000000e+00" cType="1" res="-1.6407845541834831e-03" rms="4.1371616721153259e-01" purity="7.6213926076889038e-01" nType="-99"/>
        </Node>
        <Node pos="r" depth="1" NCoef="0" IVar="-1" Cut="0.0000000000000000e+00" cType="1" res="-2.4488756898790598e-03" rms="3.9316061139106750e-01" purity="2.2194959223270416e-01" nType="-99"/>
      </Node>
    </BinaryTree>
    <BinaryTree type="DecisionTree" boostWeight="1.0000000000000000e+00" itree="962">
      <Node pos="s" depth="0" NCoef="0" IVar="3" Cut="-4.9029462039470673e-02" cType="1" res="-3.1713957432657480e-03" rms="4.5098146796226501e-01" purity="4.9623051285743713e-01" nType="0">
        <Node pos="l" depth="1" NCoef="0" IVar="4" Cut="6.4793521165847778e-01" cType="1" res="2.3224111646413803e-02" rms="4.5023691654205322e-01" purity="5.9365397691726685e-01" nType="0">
          <Node pos="l" depth="2" NCoef="0" IVar="-1" Cut="0.0000000000000000e+00" cType="1" res="2.8773845406249166e-04" rms="4.5391952991485596e-01" purity="5.5985730886459351e-01" nType="-99"/>
          <Node pos="r" depth="2" NCoef="0" IVar="-1" Cut="0.0000000000000000e+00" cType="1" res="3.3971248194575310e-03" rms="4.4259548187255859e-01" purity="6.4810824394226074e-01" nType="-99"/>
        </Node>
        <Node pos="r" depth="1" NCoef="0" IVar="1" Cut="9.5251678466796875e+02" cType="1" res="-7.2616171091794968e-03" rms="4.5095849037170410e-01" purity="4.8113390803337097e-01" nType="0">
          <Node pos="l" depth="2" NCoef="0" IVar="-1" Cut="0.0000000000000000e+00" cType="1" res="-6.3152896473184228e-04" rms="4.5217880606651306e-01" purity="4.6915808320045471e-01" nType="-99"/>
          <Node pos="r" depth="2" NCoef="0" IVar="-1" Cut="0.0000000000000000e+00" cType="1" res="2.3872305173426867e-03" rms="4.2846816778182983e-01" purity="6.7314273118972778e-01" nType="-99"/>
        </Node>
      </Node>
    </BinaryTree>
    <BinaryTree type="DecisionTree" boostWeight="1.0000000000000000e+00" itree="963">
      <Node pos="s" depth="0" NCoef="0" IVar="0" Cut="3.3133676052093506e+00" cType="1" res="2.6196097023785114e-03" rms="4.5443537831306458e-01" purity="5.0424891710281372e-01" nType="0">
        <Node pos="l" depth="1" NCoef="0" IVar="6" Cut="2.1970331668853760e+00" cType="1" res="1.1054961942136288e-02" rms="4.5799100399017334e-01" purity="4.1363844275474548e-01" nType="0">
          <Node pos="l" depth="2" NCoef="0" IVar="-1" Cut="0.0000000000000000e+00" cType="1" res="1.7501814290881157e-03" rms="4.6979570388793945e-01" purity="4.9494081735610962e-01" nType="-99"/>
          <Node pos="r" depth="2" NCoef="0" IVar="-1" Cut="0.0000000000000000e+00" cType="1" res="-3.9783547981642187e-04" rms="4.4629701972007751e-01" purity="3.3966863155364990e-01" nType="-99"/>
        </Node>
        <Node pos="r" depth="1" NCoef="0" IVar="5" Cut="9.5427656173706055e-01" cType="1" res="-1.1718330904841423e-02" rms="4.4796267151832581e-01" purity="6.5826356410980225e-01" nType="0">
          <Node pos="l" depth="2" NCoef="0" IVar="-1" Cut="0.0000000000000000e+00" cType="1" res="9.8054122645407915e-04" rms="4.6704185009002686e-01" purity="5.8668249845504761e-01" nType="-99"/>
          <Node pos="r" depth="2" NCoef="0" IVar="-1" Cut="0.0000000000000000e+00" cType="1" res="-1.6960825305432081e-03" rms="4.3885630369186401e-01" purity="6.8922048807144165e-01" nType="-99"/>
        </Node>
      </Node>
    </BinaryTree>
    <BinaryTree type="DecisionTree" boostWeight="1.0000000000000000e+00" itree="964">
      <Node pos="s" depth="0" NCoef="0" IVar="0" Cut="1.3598903417587280e+00" cType="1" res="1.5143343480303884e-03" rms="4.5507118105888367e-01" purity="5.0295388698577881e-01" nType="0">
        <Node pos="l" depth="1" NCoef="0" IVar="1" Cut="5.3834283447265625e+02" cType="1" res="2.5385864078998566e-02" rms="4.3804642558097839e-01" purity="3.1891191005706787e-01" nType="0">
          <Node pos="l" depth="2" NCoef="0" IVar="-1" Cut="0.0000000000000000e+00" cType="1" res="2.7024574228562415e-04" rms="4.1219249367713928e-01" purity="2.3200580477714539e-01" nType="-99"/>
          <Node pos="r" depth="2" NCoef="0" IVar="-1" Cut="0.0000000000000000e+00" cType="1" res="3.3756115008145571e-03" rms="4.6738103032112122e-01" purity="4.2952269315719604e-01" nType="-99"/>
        </Node>
        <Node pos="r" depth="1" NCoef="0" IVar="2" Cut="1.8091000366210938e+02" cType="1" res="-2.1707622800022364e-03" rms="4.5753192901611328e-01" purity="5.3136479854583740e-01" nType="0">
          <Node pos="l" depth="2" NCoef="0" IVar="-1" Cut="0.0000000000000000e+00" cType="1" res="6.2181548855733126e-05" rms="4.5679387450218201e-01" purity="5.3424727916717529e-01" nType="-99"/>
          <Node pos="r" depth="2" NCoef="0" IVar="-1" Cut="0.0000000000000000e+00" cType="1" res="-2.3743829224258661e-03" rms="4.6408361196517944e-01" purity="5.0000596046447754e-01" nType="-99"/>
        </Node>
      </Node>
    </BinaryTree>
    <BinaryTree type="DecisionTree" boostWeight="1.0000000000000000e+00" itree="965">
      <Node pos="s" depth="0" NCoef="0" IVar="5" Cut="9.4968086481094360e-01" cType="1" res="-2.6584160514175892e-03" rms="4.5716652274131775e-01" purity="4.9632635712623596e-01" nType="0">
        <Node pos="l" depth="1" NCoef="0" IVar="0" Cut="3.4183862209320068e+00" cType="1" res="1.0336544364690781e-02" rms="4.5501923561096191e-01" purity="3.9082980155944824e-01" nType="0">
          <Node pos="l" depth="2" NCoef="0" IVar="-1" Cut="0.0000000000000000e+00" cType="1" res="1.4106162416283041e-04" rms="4.5210045576095581e-01" purity="3.4195330739021301e-01" nType="-99"/>
          <Node pos="r" depth="2" NCoef="0" IVar="-1" Cut="0.0000000000000000e+00" cType="1" res="2.6546122971922159e-03" rms="4.6640253067016602e-01" purity="6.1606943607330322e-01" nType="-99"/>
        </Node>
        <Node pos="r" depth="1" NCoef="0" IVar="8" Cut="6.6998165845870972e-01" cType="1" res="-1.3470281846821308e-02" rms="4.5866492390632629e-01" purity="5.8410000801086426e-01" nType="0">
          <Node pos="l" depth="2" NCoef="0" IVar="-1" Cut="0.0000000000000000e+00" cType="1" res="1.5312210889533162e-03" rms="4.3083998560905457e-01" purity="6.8902915716171265e-01" nType="-99"/>
          <Node pos="r" depth="2" NCoef="0" IVar="-1" Cut="0.0000000000000000e+00" cType="1" res="-1.2468367349356413e-03" rms="4.6299415826797485e-01" purity="5.6606578826904297e-01" nType="-99"/>
        </Node>
      </Node>
    </BinaryTree>
    <BinaryTree type="DecisionTree" boostWeight="1.0000000000000000e+00" itree="966">
      <Node pos="s" depth="0" NCoef="0" IVar="8" Cut="1.7670906782150269e+00" cType="1" res="-5.4557188414037228e-03" rms="4.5385724306106567e-01" purity="4.9520424008369446e-01" nType="0">
        <Node pos="l" depth="1" NCoef="0" IVar="8" Cut="8.0668175220489502e-01" cType="1" res="-8.1690074875950813e-03" rms="4.5417314767837524e-01" purity="4.9875521659851074e-01" nType="0">
          <Node pos="l" depth="2" NCoef="0" IVar="-1" Cut="0.0000000000000000e+00" cType="1" res="3.3795935451053083e-04" rms="4.5357421040534973e-01" purity="5.5705130100250244e-01" nType="-99"/>
          <Node pos="r" depth="2" NCoef="0" IVar="-1" Cut="0.0000000000000000e+00" cType="1" res="-8.5813470650464296e-04" rms="4.5430046319961548e-01" purity="4.7530776262283325e-01" nType="-99"/>
        </Node>
        <Node pos="r" depth="1" NCoef="0" IVar="-1" Cut="0.0000000000000000e+00" cType="1" res="1.9814963452517986e-03" rms="4.4809705018997192e-01" purity="4.4811958074569702e-01" nType="-99"/>
      </Node>
    </BinaryTree>
    <BinaryTree type="DecisionTree" boostWeight="1.0000000000000000e+00" itree="967">
      <Node pos="s" depth="0" NCoef="0" IVar="5" Cut="9.9115496873855591e-01" cType="1" res="1.4125630259513855e-03" rms="4.5000511407852173e-01" purity="5.0200647115707397e-01" nType="0">
        <Node pos="l" depth="1" NCoef="0" IVar="9" Cut="1.0322053432464600e+00" cType="1" res="-1.7249929951503873e-03" rms="4.5464333891868591e-01" purity="4.8345956206321716e-01" nType="0">
          <Node pos="l" depth="2" NCoef="0" IVar="-1" Cut="0.0000000000000000e+00" cType="1" res="5.3513020247919485e-05" rms="4.5584031939506531e-01" purity="4.9509733915328979e-01" nType="-99"/>
          <Node pos="r" depth="2" NCoef="0" IVar="-1" Cut="0.0000000000000000e+00" cType="1" res="-2.4170558899641037e-03" rms="4.3692138791084290e-01" purity="3.2835647463798523e-01" nType="-99"/>
        </Node>
        <Node pos="r" depth="1" NCoef="0" IVar="-1" Cut="0.0000000000000000e+00" cType="1" res="4.6005006879568100e-03" rms="3.5274159908294678e-01" purity="8.3252966403961182e-01" nType="-99"/>
      </Node>
    </BinaryTree>
    <BinaryTree type="DecisionTree" boostWeight="1.0000000000000000e+00" itree="968">
      <Node pos="s" depth="0" NCoef="0" IVar="9" Cut="2.9680207371711731e-01" cType="1" res="3.2700275187380612e-04" rms="4.5515102148056030e-01" purity="4.9780264496803284e-01" nType="0">
        <Node pos="l" depth="1" NCoef="0" IVar="0" Cut="2.1508648395538330e+00" cType="1" res="-1.6558213159441948e-02" rms="4.5386689901351929e-01" purity="5.3573828935623169e-01" nType="0">
          <Node pos="l" depth="2" NCoef="0" IVar="-1" Cut="0.0000000000000000e+00" cType="1" res="6.8104558158665895e-04" rms="4.5575726032257080e-01" purity="3.9209491014480591e-01" nType="-99"/>
          <Node pos="r" depth="2" NCoef="0" IVar="-1" Cut="0.0000000000000000e+00" cType="1" res="-1.8337318906560540e-03" rms="4.5246005058288574e-01" purity="6.0089075565338135e-01" nType="-99"/>
        </Node>
        <Node pos="r" depth="1" NCoef="0" IVar="2" Cut="8.5164924621582031e+01" cType="1" res="4.6609765850007534e-03" rms="4.5537906885147095e-01" purity="4.8806563019752502e-01" nType="0">
          <Node pos="l" depth="2" NCoef="0" IVar="-1" Cut="0.0000000000000000e+00" cType="1" res="1.0699987178668380e-03" rms="4.5938715338706970e-01" purity="4.7751420736312866e-01" nType="-99"/>
          <Node pos="r" depth="2" NCoef="0" IVar="-1" Cut="0.0000000000000000e+00" cType="1" res="-1.5530361270066351e-04" rms="4.5290699601173401e-01" purity="4.9412882328033447e-01" nType="-99"/>
        </Node>
      </Node>
    </BinaryTree>
    <BinaryTree type="DecisionTree" boostWeight="1.0000000000000000e+00" itree="969">
      <Node pos="s" depth="0" NCoef="0" IVar="6" Cut="1.8631100654602051e+00" cType="1" res="6.1560313042718917e-05" rms="4.5396083593368530e-01" purity="4.9941101670265198e-01" nType="0">
        <Node pos="l" depth="1" NCoef="0" IVar="9" Cut="5.9296077489852905e-01" cType="1" res="1.5835490077733994e-02" rms="4.4832593202590942e-01" purity="5.9975206851959229e-01" nType="0">
          <Node pos="l" depth="2" NCoef="0" IVar="-1" Cut="0.0000000000000000e+00" cType="1" res="1.9141919910907745e-03" rms="4.4029232859611511e-01" purity="6.2259745597839355e-01" nType="-99"/>
          <Node pos="r" depth="2" NCoef="0" IVar="-1" Cut="0.0000000000000000e+00" cType="1" res="-1.3264805311337113e-03" rms="4.6606224775314331e-01" purity="5.4160845279693604e-01" nType="-99"/>
        </Node>
        <Node pos="r" depth="1" NCoef="0" IVar="8" Cut="8.4177798032760620e-01" cType="1" res="-3.7006086204200983e-03" rms="4.5521378517150879e-01" purity="4.7547912597656250e-01" nType="0">
          <Node pos="l" depth="2" NCoef="0" IVar="-1" Cut="0.0000000000000000e+00" cType="1" res="-9.0074230683967471e-04" rms="4.5546939969062805e-01" purity="5.2038967609405518e-01" nType="-99"/>
          <Node pos="r" depth="2" NCoef="0" IVar="-1" Cut="0.0000000000000000e+00" cType="1" res="6.1207494582049549e-05" rms="4.5502203702926636e-01" purity="4.5544540882110596e-01" nType="-99"/>
        </Node>
      </Node>
    </BinaryTree>
    <BinaryTree type="DecisionTree" boostWeight="1.0000000000000000e+00" itree="970">
      <Node pos="s" depth="0" NCoef="0" IVar="1" Cut="9.1966912841796875e+02" cType="1" res="-5.2072503603994846e-03" rms="4.5137140154838562e-01" purity="4.9461367726325989e-01" nType="0">
        <Node pos="l" depth="1" NCoef="0" IVar="1" Cut="6.9573413085937500e+02" cType="1" res="-7.8204143792390823e-03" rms="4.5194825530052185e-01" purity="4.8237979412078857e-01" nType="0">
          <Node pos="l" depth="2" NCoef="0" IVar="-1" Cut="0.0000000000000000e+00" cType="1" res="-2.6090766186825931e-04" rms="4.5096245408058167e-01" purity="4.6634349226951599e-01" nType="-99"/>
          <Node pos="r" depth="2" NCoef="0" IVar="-1" Cut="0.0000000000000000e+00" cType="1" res="-1.8050892977043986e-03" rms="4.5686674118041992e-01" purity="5.7202893495559692e-01" nType="-99"/>
        </Node>
        <Node pos="r" depth="1" NCoef="0" IVar="-1" Cut="0.0000000000000000e+00" cType="1" res="2.2039972245693207e-03" rms="4.4089740514755249e-01" purity="6.7629402875900269e-01" nType="-99"/>
      </Node>
    </BinaryTree>
    <BinaryTree type="DecisionTree" boostWeight="1.0000000000000000e+00" itree="971">
      <Node pos="s" depth="0" NCoef="0" IVar="4" Cut="4.8708403110504150e-01" cType="1" res="7.8936805948615074e-04" rms="4.5354354381561279e-01" purity="4.9953156709671021e-01" nType="0">
        <Node pos="l" depth="1" NCoef="0" IVar="3" Cut="1.1781713366508484e-01" cType="1" res="8.0500198528170586e-03" rms="4.5215353369712830e-01" purity="4.7905367612838745e-01" nType="0">
          <Node pos="l" depth="2" NCoef="0" IVar="-1" Cut="0.0000000000000000e+00" cType="1" res="2.3312194389291108e-04" rms="4.5241546630859375e-01" purity="4.8723775148391724e-01" nType="-99"/>
          <Node pos="r" depth="2" NCoef="0" IVar="-1" Cut="0.0000000000000000e+00" cType="1" res="1.3990208972245455e-03" rms="4.5107716321945190e-01" purity="4.5371320843696594e-01" nType="-99"/>
        </Node>
        <Node pos="r" depth="1" NCoef="0" IVar="3" Cut="1.5178013592958450e-02" cType="1" res="-1.4022542163729668e-02" rms="4.5600771903991699e-01" purity="5.4130703210830688e-01" nType="0">
          <Node pos="l" depth="2" NCoef="0" IVar="-1" Cut="0.0000000000000000e+00" cType="1" res="-3.0699936905875802e-04" rms="4.5505410432815552e-01" purity="5.6069320440292358e-01" nType="-99"/>
          <Node pos="r" depth="2" NCoef="0" IVar="-1" Cut="0.0000000000000000e+00" cType="1" res="-3.2018842175602913e-03" rms="4.5802140235900879e-01" purity="4.5980516076087952e-01" nType="-99"/>
        </Node>
      </Node>
    </BinaryTree>
    <BinaryTree type="DecisionTree" boostWeight="1.0000000000000000e+00" itree="972">
      <Node pos="s" depth="0" NCoef="0" IVar="7" Cut="1.2920501708984375e+02" cType="1" res="5.0456020981073380e-03" rms="4.5339000225067139e-01" purity="5.0328189134597778e-01" nType="0">
        <Node pos="l" depth="1" NCoef="0" IVar="4" Cut="3.0439352989196777e-01" cType="1" res="7.5849215500056744e-03" rms="4.5312306284904480e-01" purity="4.9779915809631348e-01" nType="0">
          <Node pos="l" depth="2" NCoef="0" IVar="-1" Cut="0.0000000000000000e+00" cType="1" res="1.4397294726222754e-03" rms="4.4878494739532471e-01" purity="4.5321896672248840e-01" nType="-99"/>
          <Node pos="r" depth="2" NCoef="0" IVar="-1" Cut="0.0000000000000000e+00" cType="1" res="-2.1649590053129941e-05" rms="4.5521590113639832e-01" purity="5.2152264118194580e-01" nType="-99"/>
        </Node>
        <Node pos="r" depth="1" NCoef="0" IVar="-1" Cut="0.0000000000000000e+00" cType="1" res="-2.5204976554960012e-03" rms="4.5574349164962769e-01" purity="5.9619832038879395e-01" nType="-99"/>
      </Node>
    </BinaryTree>
    <BinaryTree type="DecisionTree" boostWeight="1.0000000000000000e+00" itree="973">
      <Node pos="s" depth="0" NCoef="0" IVar="0" Cut="2.5493450164794922e+00" cType="1" res="2.2305506281554699e-03" rms="4.5028397440910339e-01" purity="5.0192004442214966e-01" nType="0">
        <Node pos="l" depth="1" NCoef="0" IVar="8" Cut="8.5196489095687866e-01" cType="1" res="-8.3255488425493240e-03" rms="4.5051974058151245e-01" purity="3.5272130370140076e-01" nType="0">
          <Node pos="l" depth="2" NCoef="0" IVar="-1" Cut="0.0000000000000000e+00" cType="1" res="-1.8200607737526298e-03" rms="4.5531830191612244e-01" purity="3.7320980429649353e-01" nType="-99"/>
          <Node pos="r" depth="2" NCoef="0" IVar="-1" Cut="0.0000000000000000e+00" cType="1" res="3.4317836252739653e-05" rms="4.4821679592132568e-01" purity="3.4422382712364197e-01" nType="-99"/>
        </Node>
        <Node pos="r" depth="1" NCoef="0" IVar="8" Cut="6.3126945495605469e-01" cType="1" res="1.0731579735875130e-02" rms="4.4991403818130493e-01" purity="6.2207263708114624e-01" nType="0">
          <Node pos="l" depth="2" NCoef="0" IVar="-1" Cut="0.0000000000000000e+00" cType="1" res="3.1249350868165493e-03" rms="4.2940157651901245e-01" purity="7.2585898637771606e-01" nType="-99"/>
          <Node pos="r" depth="2" NCoef="0" IVar="-1" Cut="0.0000000000000000e+00" cType="1" res="3.7365267053246498e-04" rms="4.5221039652824402e-01" purity="6.0903066396713257e-01" nType="-99"/>
        </Node>
      </Node>
    </BinaryTree>
    <BinaryTree type="DecisionTree" boostWeight="1.0000000000000000e+00" itree="974">
      <Node pos="s" depth="0" NCoef="0" IVar="9" Cut="4.0372085571289062e-01" cType="1" res="4.0073213167488575e-03" rms="4.5456492900848389e-01" purity="5.0393629074096680e-01" nType="0">
        <Node pos="l" depth="1" NCoef="0" IVar="2" Cut="1.1161043548583984e+02" cType="1" res="-9.8144011572003365e-03" rms="4.5094493031501770e-01" purity="5.3709214925765991e-01" nType="0">
          <Node pos="l" depth="2" NCoef="0" IVar="-1" Cut="0.0000000000000000e+00" cType="1" res="-1.2201912468299270e-03" rms="4.5609930157661438e-01" purity="4.9751543998718262e-01" nType="-99"/>
          <Node pos="r" depth="2" NCoef="0" IVar="-1" Cut="0.0000000000000000e+00" cType="1" res="6.6878646612167358e-04" rms="4.3954920768737793e-01" purity="6.1791288852691650e-01" nType="-99"/>
        </Node>
        <Node pos="r" depth="1" NCoef="0" IVar="4" Cut="3.0275985598564148e-01" cType="1" res="1.1481609195470810e-02" rms="4.5633617043495178e-01" purity="4.8600673675537109e-01" nType="0">
          <Node pos="l" depth="2" NCoef="0" IVar="-1" Cut="0.0000000000000000e+00" cType="1" res="-4.2095367098227143e-04" rms="4.4847768545150757e-01" purity="4.1182217001914978e-01" nType="-99"/>
          <Node pos="r" depth="2" NCoef="0" IVar="-1" Cut="0.0000000000000000e+00" cType="1" res="1.4543868601322174e-03" rms="4.6108588576316833e-01" purity="5.3521013259887695e-01" nType="-99"/>
        </Node>
      </Node>
    </BinaryTree>
    <BinaryTree type="DecisionTree" boostWeight="1.0000000000000000e+00" itree="975">
      <Node pos="s" depth="0" NCoef="0" IVar="8" Cut="6.4191037416458130e-01" cType="1" res="-1.5987986989784986e-04" rms="4.5426130294799805e-01" purity="4.9973210692405701e-01" nType="0">
        <Node pos="l" depth="1" NCoef="0" IVar="9" Cut="5.2490049600601196e-01" cType="1" res="-2.6384672150015831e-02" rms="4.5140060782432556e-01" purity="5.3826177120208740e-01" nType="0">
          <Node pos="l" depth="2" NCoef="0" IVar="-1" Cut="0.0000000000000000e+00" cType="1" res="-2.5170615408569574e-03" rms="4.4595563411712646e-01" purity="5.6206673383712769e-01" nType="-99"/>
          <Node pos="r" depth="2" NCoef="0" IVar="-1" Cut="0.0000000000000000e+00" cType="1" res="-7.2543445276096463e-04" rms="4.5745995640754700e-01" purity="5.0944805145263672e-01" nType="-99"/>
        </Node>
        <Node pos="r" depth="1" NCoef="0" IVar="9" Cut="3.4811809659004211e-01" cType="1" res="3.3982277382165194e-03" rms="4.5453149080276489e-01" purity="4.9450451135635376e-01" nType="0">
          <Node pos="l" depth="2" NCoef="0" IVar="-1" Cut="0.0000000000000000e+00" cType="1" res="1.0653514182195067e-03" rms="4.5024451613426208e-01" purity="5.5604755878448486e-01" nType="-99"/>
          <Node pos="r" depth="2" NCoef="0" IVar="-1" Cut="0.0000000000000000e+00" cType="1" res="-1.0570946324151009e-04" rms="4.5601224899291992e-01" purity="4.7160252928733826e-01" nType="-99"/>
        </Node>
      </Node>
    </BinaryTree>
    <BinaryTree type="DecisionTree" boostWeight="1.0000000000000000e+00" itree="976">
      <Node pos="s" depth="0" NCoef="0" IVar="4" Cut="1.5743336081504822e-01" cType="1" res="4.5054936781525612e-03" rms="4.5254719257354736e-01" purity="5.0438892841339111e-01" nType="0">
        <Node pos="l" depth="1" NCoef="0" IVar="1" Cut="5.9934552001953125e+02" cType="1" res="-2.3705331608653069e-02" rms="4.4763749837875366e-01" purity="3.7947055697441101e-01" nType="0">
          <Node pos="l" depth="2" NCoef="0" IVar="-1" Cut="0.0000000000000000e+00" cType="1" res="-1.8990013631992042e-04" rms="4.3881708383560181e-01" purity="3.3122873306274414e-01" nType="-99"/>
          <Node pos="r" depth="2" NCoef="0" IVar="-1" Cut="0.0000000000000000e+00" cType="1" res="-2.7110844384878874e-03" rms="4.5525914430618286e-01" purity="4.2728036642074585e-01" nType="-99"/>
        </Node>
        <Node pos="r" depth="1" NCoef="0" IVar="8" Cut="1.7332049608230591e+00" cType="1" res="7.9062208533287048e-03" rms="4.5301681756973267e-01" purity="5.1944744586944580e-01" nType="0">
          <Node pos="l" depth="2" NCoef="0" IVar="-1" Cut="0.0000000000000000e+00" cType="1" res="3.2592297066003084e-04" rms="4.5396822690963745e-01" purity="5.2295762300491333e-01" nType="-99"/>
          <Node pos="r" depth="2" NCoef="0" IVar="-1" Cut="0.0000000000000000e+00" cType="1" res="2.5476021692156792e-03" rms="4.4041863083839417e-01" purity="4.7814574837684631e-01" nType="-99"/>
        </Node>
      </Node>
    </BinaryTree>
    <BinaryTree type="DecisionTree" boostWeight="1.0000000000000000e+00" itree="977">
      <Node pos="s" depth="0" NCoef="0" IVar="5" Cut="9.6079009771347046e-01" cType="1" res="-1.0656043887138367e-03" rms="4.5657590031623840e-01" purity="5.0011634826660156e-01" nType="0">
        <Node pos="l" depth="1" NCoef="0" IVar="9" Cut="7.0765638351440430e-01" cType="1" res="6.7371106706559658e-03" rms="4.6117332577705383e-01" purity="4.1927468776702881e-01" nType="0">
          <Node pos="l" depth="2" NCoef="0" IVar="-1" Cut="0.0000000000000000e+00" cType="1" res="-1.8198473844677210e-04" rms="4.6281859278678894e-01" purity="4.3363478779792786e-01" nType="-99"/>
          <Node pos="r" depth="2" NCoef="0" IVar="-1" Cut="0.0000000000000000e+00" cType="1" res="1.8890434876084328e-03" rms="4.5652958750724792e-01" purity="3.8594478368759155e-01" nType="-99"/>
        </Node>
        <Node pos="r" depth="1" NCoef="0" IVar="1" Cut="5.8201898193359375e+02" cType="1" res="-1.3691355474293232e-02" rms="4.4874975085258484e-01" purity="6.3092797994613647e-01" nType="0">
          <Node pos="l" depth="2" NCoef="0" IVar="-1" Cut="0.0000000000000000e+00" cType="1" res="-1.7397059127688408e-03" rms="4.6222171187400818e-01" purity="5.7180607318878174e-01" nType="-99"/>
          <Node pos="r" depth="2" NCoef="0" IVar="-1" Cut="0.0000000000000000e+00" cType="1" res="4.5544706517830491e-04" rms="4.2733106017112732e-01" purity="7.1805220842361450e-01" nType="-99"/>
        </Node>
      </Node>
    </BinaryTree>
    <BinaryTree type="DecisionTree" boostWeight="1.0000000000000000e+00" itree="978">
      <Node pos="s" depth="0" NCoef="0" IVar="8" Cut="5.5612403154373169e-01" cType="1" res="1.2453487142920494e-03" rms="4.5267435908317566e-01" purity="4.9863103032112122e-01" nType="0">
        <Node pos="l" depth="1" NCoef="0" IVar="-1" Cut="0.0000000000000000e+00" cType="1" res="2.5279002729803324e-03" rms="4.4671604037284851e-01" purity="6.0949462652206421e-01" nType="-99"/>
        <Node pos="r" depth="1" NCoef="0" IVar="2" Cut="8.8367630004882812e+01" cType="1" res="-1.0813901899382472e-03" rms="4.5291993021965027e-01" purity="4.9203562736511230e-01" nType="0">
          <Node pos="l" depth="2" NCoef="0" IVar="-1" Cut="0.0000000000000000e+00" cType="1" res="-6.7863857839256525e-04" rms="4.5724806189537048e-01" purity="4.5631682872772217e-01" nType="-99"/>
          <Node pos="r" depth="2" NCoef="0" IVar="-1" Cut="0.0000000000000000e+00" cType="1" res="3.7999355117790401e-04" rms="4.4963586330413818e-01" purity="5.1783514022827148e-01" nType="-99"/>
        </Node>
      </Node>
    </BinaryTree>
    <BinaryTree type="DecisionTree" boostWeight="1.0000000000000000e+00" itree="979">
      <Node pos="s" depth="0" NCoef="0" IVar="3" Cut="1.0800283402204514e-02" cType="1" res="4.0319184772670269e-03" rms="4.5322760939598083e-01" purity="5.0329172611236572e-01" nType="0">
        <Node pos="l" depth="1" NCoef="0" IVar="4" Cut="3.6797502636909485e-01" cType="1" res="1.4072941616177559e-02" rms="4.5318743586540222e-01" purity="5.5130702257156372e-01" nType="0">
          <Node pos="l" depth="2" NCoef="0" IVar="-1" Cut="0.0000000000000000e+00" cType="1" res="-6.5417744917795062e-04" rms="4.6007859706878662e-01" purity="4.8062473535537720e-01" nType="-99"/>
          <Node pos="r" depth="2" NCoef="0" IVar="-1" Cut="0.0000000000000000e+00" cType="1" res="1.3043168000876904e-03" rms="4.5102933049201965e-01" purity="5.7083421945571899e-01" nType="-99"/>
        </Node>
        <Node pos="r" depth="1" NCoef="0" IVar="9" Cut="6.0169708728790283e-01" cType="1" res="-4.1535552591085434e-03" rms="4.5309576392173767e-01" purity="4.6414950489997864e-01" nType="0">
          <Node pos="l" depth="2" NCoef="0" IVar="-1" Cut="0.0000000000000000e+00" cType="1" res="-1.2146637309342623e-03" rms="4.5541489124298096e-01" purity="4.8669666051864624e-01" nType="-99"/>
          <Node pos="r" depth="2" NCoef="0" IVar="-1" Cut="0.0000000000000000e+00" cType="1" res="9.9908548872917891e-04" rms="4.4934096932411194e-01" purity="4.3522852659225464e-01" nType="-99"/>
        </Node>
      </Node>
    </BinaryTree>
    <BinaryTree type="DecisionTree" boostWeight="1.0000000000000000e+00" itree="980">
      <Node pos="s" depth="0" NCoef="0" IVar="9" Cut="4.5517104864120483e-01" cType="1" res="8.6481479229405522e-04" rms="4.5302700996398926e-01" purity="4.9974200129508972e-01" nType="0">
        <Node pos="l" depth="1" NCoef="0" IVar="2" Cut="1.3091304016113281e+02" cType="1" res="1.4803490601480007e-02" rms="4.5212903618812561e-01" purity="5.6305950880050659e-01" nType="0">
          <Node pos="l" depth="2" NCoef="0" IVar="-1" Cut="0.0000000000000000e+00" cType="1" res="4.6938611194491386e-04" rms="4.5640644431114197e-01" purity="5.4046821594238281e-01" nType="-99"/>
          <Node pos="r" depth="2" NCoef="0" IVar="-1" Cut="0.0000000000000000e+00" cType="1" res="2.7634720318019390e-03" rms="4.3457579612731934e-01" purity="6.4805704355239868e-01" nType="-99"/>
        </Node>
        <Node pos="r" depth="1" NCoef="0" IVar="8" Cut="8.0358123779296875e-01" cType="1" res="-8.9909331873059273e-03" rms="4.5340231060981750e-01" purity="4.5497155189514160e-01" nType="0">
          <Node pos="l" depth="2" NCoef="0" IVar="-1" Cut="0.0000000000000000e+00" cType="1" res="-1.6399081796407700e-03" rms="4.5659801363945007e-01" purity="4.9649918079376221e-01" nType="-99"/>
          <Node pos="r" depth="2" NCoef="0" IVar="-1" Cut="0.0000000000000000e+00" cType="1" res="-2.1153865964151919e-04" rms="4.5220747590065002e-01" purity="4.4137787818908691e-01" nType="-99"/>
        </Node>
      </Node>
    </BinaryTree>
    <BinaryTree type="DecisionTree" boostWeight="1.0000000000000000e+00" itree="981">
      <Node pos="s" depth="0" NCoef="0" IVar="5" Cut="9.4080817699432373e-01" cType="1" res="3.5273344255983829e-03" rms="4.5175495743751526e-01" purity="5.0515139102935791e-01" nType="0">
        <Node pos="l" depth="1" NCoef="0" IVar="4" Cut="5.5948501825332642e-01" cType="1" res="-7.2447983548045158e-03" rms="4.4685634970664978e-01" purity="3.4737119078636169e-01" nType="0">
          <Node pos="l" depth="2" NCoef="0" IVar="-1" Cut="0.0000000000000000e+00" cType="1" res="-4.4907505071023479e-05" rms="4.4360181689262390e-01" purity="3.4429681301116943e-01" nType="-99"/>
          <Node pos="r" depth="2" NCoef="0" IVar="-1" Cut="0.0000000000000000e+00" cType="1" res="-2.1711685694754124e-03" rms="4.5990481972694397e-01" purity="3.6102309823036194e-01" nType="-99"/>
        </Node>
        <Node pos="r" depth="1" NCoef="0" IVar="0" Cut="1.5916223526000977e+00" cType="1" res="8.6217578500509262e-03" rms="4.5396423339843750e-01" purity="5.7976979017257690e-01" nType="0">
          <Node pos="l" depth="2" NCoef="0" IVar="-1" Cut="0.0000000000000000e+00" cType="1" res="2.7350794989615679e-03" rms="4.6976101398468018e-01" purity="4.1681432723999023e-01" nType="-99"/>
          <Node pos="r" depth="2" NCoef="0" IVar="-1" Cut="0.0000000000000000e+00" cType="1" res="3.2587270834483206e-04" rms="4.5217144489288330e-01" purity="5.9649914503097534e-01" nType="-99"/>
        </Node>
      </Node>
    </BinaryTree>
    <BinaryTree type="DecisionTree" boostWeight="1.0000000000000000e+00" itree="982">
      <Node pos="s" depth="0" NCoef="0" IVar="6" Cut="2.2342770099639893e+00" cType="1" res="2.0161552820354700e-03" rms="4.5506101846694946e-01" purity="5.0062024593353271e-01" nType="0">
        <Node pos="l" depth="1" NCoef="0" IVar="9" Cut="7.9375821352005005e-01" cType="1" res="-8.0906394869089127e-03" rms="4.5429018139839172e-01" purity="5.5185061693191528e-01" nType="0">
          <Node pos="l" depth="2" NCoef="0" IVar="-1" Cut="0.0000000000000000e+00" cType="1" res="-2.1146200015209615e-04" rms="4.5398929715156555e-01" purity="5.6311297416687012e-01" nType="-99"/>
          <Node pos="r" depth="2" NCoef="0" IVar="-1" Cut="0.0000000000000000e+00" cType="1" res="-3.0789589509367943e-03" rms="4.5484456419944763e-01" purity="4.5263284444808960e-01" nType="-99"/>
        </Node>
        <Node pos="r" depth="1" NCoef="0" IVar="5" Cut="9.2239832878112793e-01" cType="1" res="1.3848415575921535e-02" rms="4.5567706227302551e-01" purity="4.4064375758171082e-01" nType="0">
          <Node pos="l" depth="2" NCoef="0" IVar="-1" Cut="0.0000000000000000e+00" cType="1" res="-1.0446694213896990e-03" rms="4.0514576435089111e-01" purity="2.3955956101417542e-01" nType="-99"/>
          <Node pos="r" depth="2" NCoef="0" IVar="-1" Cut="0.0000000000000000e+00" cType="1" res="1.1614960385486484e-03" rms="4.6349567174911499e-01" purity="4.7457799315452576e-01" nType="-99"/>
        </Node>
      </Node>
    </BinaryTree>
    <BinaryTree type="DecisionTree" boostWeight="1.0000000000000000e+00" itree="983">
      <Node pos="s" depth="0" NCoef="0" IVar="5" Cut="9.1867673397064209e-01" cType="1" res="2.5865100324153900e-03" rms="4.5329460501670837e-01" purity="5.0146716833114624e-01" nType="0">
        <Node pos="l" depth="1" NCoef="0" IVar="3" Cut="3.2710213214159012e-02" cType="1" res="2.3553010076284409e-02" rms="4.3567702174186707e-01" purity="3.2826247811317444e-01" nType="0">
          <Node pos="l" depth="2" NCoef="0" IVar="-1" Cut="0.0000000000000000e+00" cType="1" res="2.9479449149221182e-03" rms="4.5040979981422424e-01" purity="3.7167590856552124e-01" nType="-99"/>
          <Node pos="r" depth="2" NCoef="0" IVar="-1" Cut="0.0000000000000000e+00" cType="1" res="-4.5057793613523245e-05" rms="4.1827693581581116e-01" purity="2.8264659643173218e-01" nType="-99"/>
        </Node>
        <Node pos="r" depth="1" NCoef="0" IVar="7" Cut="7.1032585144042969e+01" cType="1" res="-3.3635858562774956e-04" rms="4.5561990141868591e-01" purity="5.2561300992965698e-01" nType="0">
          <Node pos="l" depth="2" NCoef="0" IVar="-1" Cut="0.0000000000000000e+00" cType="1" res="-4.7052861191332340e-04" rms="4.5698341727256775e-01" purity="4.5599699020385742e-01" nType="-99"/>
          <Node pos="r" depth="2" NCoef="0" IVar="-1" Cut="0.0000000000000000e+00" cType="1" res="5.2359112305566669e-04" rms="4.5382291078567505e-01" purity="6.0938596725463867e-01" nType="-99"/>
        </Node>
      </Node>
    </BinaryTree>
    <BinaryTree type="DecisionTree" boostWeight="1.0000000000000000e+00" itree="984">
      <Node pos="s" depth="0" NCoef="0" IVar="8" Cut="8.6737245321273804e-01" cType="1" res="5.9347046772018075e-04" rms="4.5401331782341003e-01" purity="4.9986034631729126e-01" nType="0">
        <Node pos="l" depth="1" NCoef="0" IVar="9" Cut="6.7444956302642822e-01" cType="1" res="-1.2604779563844204e-02" rms="4.5346862077713013e-01" purity="5.3467965126037598e-01" nType="0">
          <Node pos="l" depth="2" NCoef="0" IVar="-1" Cut="0.0000000000000000e+00" cType="1" res="-1.4118849067017436e-03" rms="4.5493784546852112e-01" purity="5.4935759305953979e-01" nType="-99"/>
          <Node pos="r" depth="2" NCoef="0" IVar="-1" Cut="0.0000000000000000e+00" cType="1" res="6.4468343043699861e-04" rms="4.4918736815452576e-01" purity="5.0035792589187622e-01" nType="-99"/>
        </Node>
        <Node pos="r" depth="1" NCoef="0" IVar="6" Cut="1.9550768136978149e+00" cType="1" res="6.7254351451992989e-03" rms="4.5413568615913391e-01" purity="4.8368313908576965e-01" nType="0">
          <Node pos="l" depth="2" NCoef="0" IVar="-1" Cut="0.0000000000000000e+00" cType="1" res="-1.0418848833069205e-03" rms="4.5781922340393066e-01" purity="5.4739695787429810e-01" nType="-99"/>
          <Node pos="r" depth="2" NCoef="0" IVar="-1" Cut="0.0000000000000000e+00" cType="1" res="9.1411994071677327e-04" rms="4.5267251133918762e-01" purity="4.6300685405731201e-01" nType="-99"/>
        </Node>
      </Node>
    </BinaryTree>
    <BinaryTree type="DecisionTree" boostWeight="1.0000000000000000e+00" itree="985">
      <Node pos="s" depth="0" NCoef="0" IVar="6" Cut="2.8759460449218750e+00" cType="1" res="5.4583617020398378e-04" rms="4.5068088173866272e-01" purity="5.0034463405609131e-01" nType="0">
        <Node pos="l" depth="1" NCoef="0" IVar="8" Cut="1.7670906782150269e+00" cType="1" res="3.0731761362403631e-03" rms="4.5424863696098328e-01" purity="5.1905238628387451e-01" nType="0">
          <Node pos="l" depth="2" NCoef="0" IVar="-1" Cut="0.0000000000000000e+00" cType="1" res="6.3674298871774226e-05" rms="4.5545434951782227e-01" purity="5.2227580547332764e-01" nType="-99"/>
          <Node pos="r" depth="2" NCoef="0" IVar="-1" Cut="0.0000000000000000e+00" cType="1" res="1.8880012212321162e-03" rms="4.3753463029861450e-01" purity="4.7746998071670532e-01" nType="-99"/>
        </Node>
        <Node pos="r" depth="1" NCoef="0" IVar="-1" Cut="0.0000000000000000e+00" cType="1" res="-3.1929614488035440e-03" rms="3.8695552945137024e-01" purity="2.0110654830932617e-01" nType="-99"/>
      </Node>
    </BinaryTree>
    <BinaryTree type="DecisionTree" boostWeight="1.0000000000000000e+00" itree="986">
      <Node pos="s" depth="0" NCoef="0" IVar="4" Cut="3.1833529472351074e-01" cType="1" res="5.0353084225207567e-04" rms="4.5176884531974792e-01" purity="5.0041496753692627e-01" nType="0">
        <Node pos="l" depth="1" NCoef="0" IVar="1" Cut="4.8052325439453125e+02" cType="1" res="-9.7107524052262306e-03" rms="4.4931223988533020e-01" purity="4.3404680490493774e-01" nType="0">
          <Node pos="l" depth="2" NCoef="0" IVar="-1" Cut="0.0000000000000000e+00" cType="1" res="6.6582602448761463e-04" rms="4.2894417047500610e-01" purity="3.3733129501342773e-01" nType="-99"/>
          <Node pos="r" depth="2" NCoef="0" IVar="-1" Cut="0.0000000000000000e+00" cType="1" res="-1.1739331530407071e-03" rms="4.5853275060653687e-01" purity="4.8075133562088013e-01" nType="-99"/>
        </Node>
        <Node pos="r" depth="1" NCoef="0" IVar="4" Cut="6.7498010396957397e-01" cType="1" res="6.5557714551687241e-03" rms="4.5310953259468079e-01" purity="5.3973984718322754e-01" nType="0">
          <Node pos="l" depth="2" NCoef="0" IVar="-1" Cut="0.0000000000000000e+00" cType="1" res="6.6824653185904026e-04" rms="4.5248973369598389e-01" purity="5.3874379396438599e-01" nType="-99"/>
          <Node pos="r" depth="2" NCoef="0" IVar="-1" Cut="0.0000000000000000e+00" cType="1" res="-1.1481681140139699e-03" rms="4.5603936910629272e-01" purity="5.4572480916976929e-01" nType="-99"/>
        </Node>
      </Node>
    </BinaryTree>
    <BinaryTree type="DecisionTree" boostWeight="1.0000000000000000e+00" itree="987">
      <Node pos="s" depth="0" NCoef="0" IVar="6" Cut="2.6439464092254639e+00" cType="1" res="-7.1031029801815748e-04" rms="4.5134833455085754e-01" purity="5.0033617019653320e-01" nType="0">
        <Node pos="l" depth="1" NCoef="0" IVar="4" Cut="2.0832511782646179e-01" cType="1" res="3.6864152643829584e-03" rms="4.5625039935112000e-01" purity="5.3401631116867065e-01" nType="0">
          <Node pos="l" depth="2" NCoef="0" IVar="-1" Cut="0.0000000000000000e+00" cType="1" res="1.3891893904656172e-03" rms="4.6597337722778320e-01" purity="5.0180172920227051e-01" nType="-99"/>
          <Node pos="r" depth="2" NCoef="0" IVar="-1" Cut="0.0000000000000000e+00" cType="1" res="-6.6504303504189011e-06" rms="4.5418503880500793e-01" purity="5.4046189785003662e-01" nType="-99"/>
        </Node>
        <Node pos="r" depth="1" NCoef="0" IVar="0" Cut="2.8020002841949463e+00" cType="1" res="-3.1089933589100838e-02" rms="4.1462892293930054e-01" purity="2.6761969923973083e-01" nType="0">
          <Node pos="l" depth="2" NCoef="0" IVar="-1" Cut="0.0000000000000000e+00" cType="1" res="-4.0024737827479839e-03" rms="3.6218580603599548e-01" purity="1.6699732840061188e-01" nType="-99"/>
          <Node pos="r" depth="2" NCoef="0" IVar="-1" Cut="0.0000000000000000e+00" cType="1" res="-7.2523998096585274e-04" rms="4.7135373950004578e-01" purity="3.9336246252059937e-01" nType="-99"/>
        </Node>
      </Node>
    </BinaryTree>
    <BinaryTree type="DecisionTree" boostWeight="1.0000000000000000e+00" itree="988">
      <Node pos="s" depth="0" NCoef="0" IVar="4" Cut="6.9504350423812866e-01" cType="1" res="-3.3966654445976019e-03" rms="4.5186632871627808e-01" purity="4.9409973621368408e-01" nType="0">
        <Node pos="l" depth="1" NCoef="0" IVar="9" Cut="2.6094207167625427e-01" cType="1" res="-5.9527507983148098e-03" rms="4.5245343446731567e-01" purity="4.8559853434562683e-01" nType="0">
          <Node pos="l" depth="2" NCoef="0" IVar="-1" Cut="0.0000000000000000e+00" cType="1" res="8.6208770517259836e-04" rms="4.4699963927268982e-01" purity="5.6536245346069336e-01" nType="-99"/>
          <Node pos="r" depth="2" NCoef="0" IVar="-1" Cut="0.0000000000000000e+00" cType="1" res="-6.0297409072518349e-04" rms="4.5335388183593750e-01" purity="4.7098132967948914e-01" nType="-99"/>
        </Node>
        <Node pos="r" depth="1" NCoef="0" IVar="-1" Cut="0.0000000000000000e+00" cType="1" res="1.9444599747657776e-03" rms="4.4262379407882690e-01" purity="6.0672813653945923e-01" nType="-99"/>
      </Node>
    </BinaryTree>
    <BinaryTree type="DecisionTree" boostWeight="1.0000000000000000e+00" itree="989">
      <Node pos="s" depth="0" NCoef="0" IVar="5" Cut="9.0619778633117676e-01" cType="1" res="-5.2844532765448093e-03" rms="4.5374250411987305e-01" purity="4.9161306023597717e-01" nType="0">
        <Node pos="l" depth="1" NCoef="0" IVar="-1" Cut="0.0000000000000000e+00" cType="1" res="-3.1190582085400820e-03" rms="4.1330146789550781e-01" purity="2.4015086889266968e-01" nType="-99"/>
        <Node pos="r" depth="1" NCoef="0" IVar="8" Cut="1.0074372291564941e+00" cType="1" res="-2.8923172503709793e-03" rms="4.5589643716812134e-01" purity="5.0640285015106201e-01" nType="0">
          <Node pos="l" depth="2" NCoef="0" IVar="-1" Cut="0.0000000000000000e+00" cType="1" res="3.9739834028296173e-04" rms="4.5456728339195251e-01" purity="5.5110377073287964e-01" nType="-99"/>
          <Node pos="r" depth="2" NCoef="0" IVar="-1" Cut="0.0000000000000000e+00" cType="1" res="-6.7285122349858284e-04" rms="4.5686203241348267e-01" purity="4.6894094347953796e-01" nType="-99"/>
        </Node>
      </Node>
    </BinaryTree>
    <BinaryTree type="DecisionTree" boostWeight="1.0000000000000000e+00" itree="990">
      <Node pos="s" depth="0" NCoef="0" IVar="7" Cut="1.3159648132324219e+02" cType="1" res="-6.4531085081398487e-03" rms="4.5597594976425171e-01" purity="4.9088329076766968e-01" nType="0">
        <Node pos="l" depth="1" NCoef="0" IVar="9" Cut="3.0258551239967346e-01" cType="1" res="-4.0464918129146099e-03" rms="4.5598328113555908e-01" purity="4.8555108904838562e-01" nType="0">
          <Node pos="l" depth="2" NCoef="0" IVar="-1" Cut="0.0000000000000000e+00" cType="1" res="-1.4121336862444878e-03" rms="4.5625355839729309e-01" purity="5.2124255895614624e-01" nType="-99"/>
          <Node pos="r" depth="2" NCoef="0" IVar="-1" Cut="0.0000000000000000e+00" cType="1" res="5.3101874073036015e-05" rms="4.5578643679618835e-01" purity="4.7614973783493042e-01" nType="-99"/>
        </Node>
        <Node pos="r" depth="1" NCoef="0" IVar="-1" Cut="0.0000000000000000e+00" cType="1" res="-3.0861832201480865e-03" rms="4.5389297604560852e-01" purity="5.8176553249359131e-01" nType="-99"/>
      </Node>
    </BinaryTree>
    <BinaryTree type="DecisionTree" boostWeight="1.0000000000000000e+00" itree="991">
      <Node pos="s" depth="0" NCoef="0" IVar="7" Cut="9.7874992370605469e+01" cType="1" res="1.6776613192632794e-03" rms="4.5126605033874512e-01" purity="5.0233936309814453e-01" nType="0">
        <Node pos="l" depth="1" NCoef="0" IVar="7" Cut="4.6834114074707031e+01" cType="1" res="5.7445340789854527e-03" rms="4.5179706811904907e-01" purity="4.8278445005416870e-01" nType="0">
          <Node pos="l" depth="2" NCoef="0" IVar="-1" Cut="0.0000000000000000e+00" cType="1" res="-1.7834429163485765e-03" rms="4.3793621659278870e-01" purity="3.1874063611030579e-01" nType="-99"/>
          <Node pos="r" depth="2" NCoef="0" IVar="-1" Cut="0.0000000000000000e+00" cType="1" res="6.9751811679452658e-04" rms="4.5394030213356018e-01" purity="5.1126050949096680e-01" nType="-99"/>
        </Node>
        <Node pos="r" depth="1" NCoef="0" IVar="0" Cut="3.3615739345550537e+00" cType="1" res="-1.8302321434020996e-02" rms="4.4811233878135681e-01" purity="5.9840989112854004e-01" nType="0">
          <Node pos="l" depth="2" NCoef="0" IVar="-1" Cut="0.0000000000000000e+00" cType="1" res="-2.1895302925258875e-03" rms="4.7407338023185730e-01" purity="4.7818708419799805e-01" nType="-99"/>
          <Node pos="r" depth="2" NCoef="0" IVar="-1" Cut="0.0000000000000000e+00" cType="1" res="3.4294422948732972e-04" rms="4.1229307651519775e-01" purity="7.4838358163833618e-01" nType="-99"/>
        </Node>
      </Node>
    </BinaryTree>
    <BinaryTree type="DecisionTree" boostWeight="1.0000000000000000e+00" itree="992">
      <Node pos="s" depth="0" NCoef="0" IVar="8" Cut="1.3106960058212280e+00" cType="1" res="5.0143466796725988e-04" rms="4.5570784807205200e-01" purity="4.9831375479698181e-01" nType="0">
        <Node pos="l" depth="1" NCoef="0" IVar="7" Cut="9.1512649536132812e+01" cType="1" res="-5.7536317035555840e-03" rms="4.5581203699111938e-01" purity="5.1560211181640625e-01" nType="0">
          <Node pos="l" depth="2" NCoef="0" IVar="-1" Cut="0.0000000000000000e+00" cType="1" res="-6.9111667107790709e-04" rms="4.5669603347778320e-01" purity="4.8105946183204651e-01" nType="-99"/>
          <Node pos="r" depth="2" NCoef="0" IVar="-1" Cut="0.0000000000000000e+00" cType="1" res="6.6944834543392062e-04" rms="4.5269516110420227e-01" purity="6.2183243036270142e-01" nType="-99"/>
        </Node>
        <Node pos="r" depth="1" NCoef="0" IVar="6" Cut="2.3506431579589844e+00" cType="1" res="1.5440613031387329e-02" rms="4.5511120557785034e-01" purity="4.5702329277992249e-01" nType="0">
          <Node pos="l" depth="2" NCoef="0" IVar="-1" Cut="0.0000000000000000e+00" cType="1" res="1.3577609206549823e-04" rms="4.5894709229469299e-01" purity="5.0245451927185059e-01" nType="-99"/>
          <Node pos="r" depth="2" NCoef="0" IVar="-1" Cut="0.0000000000000000e+00" cType="1" res="2.6882970705628395e-03" rms="4.4719702005386353e-01" purity="3.7580275535583496e-01" nType="-99"/>
        </Node>
      </Node>
    </BinaryTree>
    <BinaryTree type="DecisionTree" boostWeight="1.0000000000000000e+00" itree="993">
      <Node pos="s" depth="0" NCoef="0" IVar="9" Cut="8.6770820617675781e-01" cType="1" res="3.6389470915310085e-04" rms="4.5056894421577454e-01" purity="5.0115460157394409e-01" nType="0">
        <Node pos="l" depth="1" NCoef="0" IVar="6" Cut="2.3493173122406006e+00" cType="1" res="-2.7883471921086311e-03" rms="4.5132306218147278e-01" purity="5.1779681444168091e-01" nType="0">
          <Node pos="l" depth="2" NCoef="0" IVar="-1" Cut="0.0000000000000000e+00" cType="1" res="2.1661385835614055e-04" rms="4.5423978567123413e-01" purity="5.6338542699813843e-01" nType="-99"/>
          <Node pos="r" depth="2" NCoef="0" IVar="-1" Cut="0.0000000000000000e+00" cType="1" res="-1.3529654825106263e-03" rms="4.4231757521629333e-01" purity="3.8650232553482056e-01" nType="-99"/>
        </Node>
        <Node pos="r" depth="1" NCoef="0" IVar="7" Cut="6.0186305999755859e+01" cType="1" res="1.6986330971121788e-02" rms="4.4620308279991150e-01" purity="4.1339659690856934e-01" nType="0">
          <Node pos="l" depth="2" NCoef="0" IVar="-1" Cut="0.0000000000000000e+00" cType="1" res="-6.9083448033779860e-04" rms="4.2565497756004333e-01" purity="3.1724247336387634e-01" nType="-99"/>
          <Node pos="r" depth="2" NCoef="0" IVar="-1" Cut="0.0000000000000000e+00" cType="1" res="2.2447777446359396e-03" rms="4.5916149020195007e-01" purity="4.8094862699508667e-01" nType="-99"/>
        </Node>
      </Node>
    </BinaryTree>
    <BinaryTree type="DecisionTree" boostWeight="1.0000000000000000e+00" itree="994">
      <Node pos="s" depth="0" NCoef="0" IVar="5" Cut="9.1456073522567749e-01" cType="1" res="1.2830448104068637e-03" rms="4.5219764113426208e-01" purity="4.9949762225151062e-01" nType="0">
        <Node pos="l" depth="1" NCoef="0" IVar="-1" Cut="0.0000000000000000e+00" cType="1" res="1.8972855759784579e-03" rms="4.4412985444068909e-01" purity="3.2801145315170288e-01" nType="-99"/>
        <Node pos="r" depth="1" NCoef="0" IVar="2" Cut="1.3822377014160156e+02" cType="1" res="-1.6328024212270975e-03" rms="4.5295092463493347e-01" purity="5.1776170730590820e-01" nType="0">
          <Node pos="l" depth="2" NCoef="0" IVar="-1" Cut="0.0000000000000000e+00" cType="1" res="1.4622624439653009e-04" rms="4.5286786556243896e-01" purity="5.1830780506134033e-01" nType="-99"/>
          <Node pos="r" depth="2" NCoef="0" IVar="-1" Cut="0.0000000000000000e+00" cType="1" res="-1.0621108813211322e-03" rms="4.5295476913452148e-01" purity="5.1572018861770630e-01" nType="-99"/>
        </Node>
      </Node>
    </BinaryTree>
    <BinaryTree type="DecisionTree" boostWeight="1.0000000000000000e+00" itree="995">
      <Node pos="s" depth="0" NCoef="0" IVar="6" Cut="1.4742257595062256e+00" cType="1" res="4.6062176115810871e-03" rms="4.5323011279106140e-01" purity="5.0466996431350708e-01" nType="0">
        <Node pos="l" depth="1" NCoef="0" IVar="-1" Cut="0.0000000000000000e+00" cType="1" res="2.2300223354250193e-03" rms="4.3117135763168335e-01" purity="6.5059673786163330e-01" nType="-99"/>
        <Node pos="r" depth="1" NCoef="0" IVar="8" Cut="1.8273822069168091e+00" cType="1" res="2.4452544748783112e-03" rms="4.5467245578765869e-01" purity="4.9434626102447510e-01" nType="0">
          <Node pos="l" depth="2" NCoef="0" IVar="-1" Cut="0.0000000000000000e+00" cType="1" res="2.8965642559342086e-04" rms="4.5654684305191040e-01" purity="5.0193077325820923e-01" nType="-99"/>
          <Node pos="r" depth="2" NCoef="0" IVar="-1" Cut="0.0000000000000000e+00" cType="1" res="-2.1764636039733887e-03" rms="4.2133289575576782e-01" purity="3.7051182985305786e-01" nType="-99"/>
        </Node>
      </Node>
    </BinaryTree>
    <BinaryTree type="DecisionTree" boostWeight="1.0000000000000000e+00" itree="996">
      <Node pos="s" depth="0" NCoef="0" IVar="9" Cut="1.7466256022453308e-01" cType="1" res="6.6614826209843159e-03" rms="4.5475301146507263e-01" purity="5.0493133068084717e-01" nType="0">
        <Node pos="l" depth="1" NCoef="0" IVar="-1" Cut="0.0000000000000000e+00" cType="1" res="-1.7147111939266324e-03" rms="4.5113775134086609e-01" purity="5.2973258495330811e-01" nType="-99"/>
        <Node pos="r" depth="1" NCoef="0" IVar="8" Cut="9.4503444433212280e-01" cType="1" res="9.5058521255850792e-03" rms="4.5494475960731506e-01" purity="5.0282716751098633e-01" nType="0">
          <Node pos="l" depth="2" NCoef="0" IVar="-1" Cut="0.0000000000000000e+00" cType="1" res="-5.2319017413537949e-05" rms="4.5703038573265076e-01" purity="5.3220283985137939e-01" nType="-99"/>
          <Node pos="r" depth="2" NCoef="0" IVar="-1" Cut="0.0000000000000000e+00" cType="1" res="1.0338525753468275e-03" rms="4.5343863964080811e-01" purity="4.8349899053573608e-01" nType="-99"/>
        </Node>
      </Node>
    </BinaryTree>
    <BinaryTree type="DecisionTree" boostWeight="1.0000000000000000e+00" itree="997">
      <Node pos="s" depth="0" NCoef="0" IVar="8" Cut="1.2320072650909424e+00" cType="1" res="8.7539991363883018e-04" rms="4.5277687907218933e-01" purity="5.0233948230743408e-01" nType="0">
        <Node pos="l" depth="1" NCoef="0" IVar="7" Cut="9.0927734375000000e+01" cType="1" res="-6.2834136188030243e-03" rms="4.5347300171852112e-01" purity="5.2169400453567505e-01" nType="0">
          <Node pos="l" depth="2" NCoef="0" IVar="-1" Cut="0.0000000000000000e+00" cType="1" res="2.2321692085824907e-05" rms="4.5198476314544678e-01" purity="4.9756264686584473e-01" nType="-99"/>
          <Node pos="r" depth="2" NCoef="0" IVar="-1" Cut="0.0000000000000000e+00" cType="1" res="-1.6188952140510082e-03" rms="4.5714941620826721e-01" purity="5.9026902914047241e-01" nType="-99"/>
        </Node>
        <Node pos="r" depth="1" NCoef="0" IVar="2" Cut="6.2657424926757812e+01" cType="1" res="1.4184542000293732e-02" rms="4.5117810368537903e-01" purity="4.6635693311691284e-01" nType="0">
          <Node pos="l" depth="2" NCoef="0" IVar="-1" Cut="0.0000000000000000e+00" cType="1" res="3.1899171881377697e-03" rms="4.5818841457366943e-01" purity="4.9685555696487427e-01" nType="-99"/>
          <Node pos="r" depth="2" NCoef="0" IVar="-1" Cut="0.0000000000000000e+00" cType="1" res="1.5472169616259634e-04" rms="4.4827735424041748e-01" purity="4.5660713315010071e-01" nType="-99"/>
        </Node>
      </Node>
    </BinaryTree>
    <BinaryTree type="DecisionTree" boostWeight="1.0000000000000000e+00" itree="998">
      <Node pos="s" depth="0" NCoef="0" IVar="1" Cut="7.0857067871093750e+02" cType="1" res="2.0532119087874889e-03" rms="4.5431193709373474e-01" purity="5.0185960531234741e-01" nType="0">
        <Node pos="l" depth="1" NCoef="0" IVar="2" Cut="1.2614185333251953e+02" cType="1" res="6.4574000425636768e-03" rms="4.5413506031036377e-01" purity="4.8078086972236633e-01" nType="0">
          <Node pos="l" depth="2" NCoef="0" IVar="-1" Cut="0.0000000000000000e+00" cType="1" res="8.4396632155403495e-04" rms="4.5627906918525696e-01" purity="4.8565363883972168e-01" nType="-99"/>
          <Node pos="r" depth="2" NCoef="0" IVar="-1" Cut="0.0000000000000000e+00" cType="1" res="-1.0875032749027014e-03" rms="4.4616812467575073e-01" purity="4.6465259790420532e-01" nType="-99"/>
        </Node>
        <Node pos="r" depth="1" NCoef="0" IVar="5" Cut="9.6843165159225464e-01" cType="1" res="-1.6645403578877449e-02" rms="4.5458716154098511e-01" purity="5.9135258197784424e-01" nType="0">
          <Node pos="l" depth="2" NCoef="0" IVar="-1" Cut="0.0000000000000000e+00" cType="1" res="-1.6731048235669732e-03" rms="4.7255271673202515e-01" purity="5.2273404598236084e-01" nType="-99"/>
          <Node pos="r" depth="2" NCoef="0" IVar="-1" Cut="0.0000000000000000e+00" cType="1" res="1.0454993462190032e-03" rms="4.0236923098564148e-01" purity="7.7059048414230347e-01" nType="-99"/>
        </Node>
      </Node>
    </BinaryTree>
    <BinaryTree type="DecisionTree" boostWeight="1.0000000000000000e+00" itree="999">
      <Node pos="s" depth="0" NCoef="0" IVar="0" Cut="1.0565056800842285e+00" cType="1" res="5.0034108571708202e-03" rms="4.5261707901954651e-01" purity="5.0601470470428467e-01" nType="0">
        <Node pos="l" depth="1" NCoef="0" IVar="-1" Cut="0.0000000000000000e+00" cType="1" res="-2.0216687116771936e-03" rms="4.1477009654045105e-01" purity="2.5631690025329590e-01" nType="-99"/>
        <Node pos="r" depth="1" NCoef="0" IVar="4" Cut="6.1101305484771729e-01" cType="1" res="7.7871400862932205e-03" rms="4.5568436384201050e-01" purity="5.2793610095977783e-01" nType="0">
          <Node pos="l" depth="2" NCoef="0" IVar="-1" Cut="0.0000000000000000e+00" cType="1" res="6.6524132853373885e-04" rms="4.5537596940994263e-01" purity="5.1906144618988037e-01" nType="-99"/>
          <Node pos="r" depth="2" NCoef="0" IVar="-1" Cut="0.0000000000000000e+00" cType="1" res="-5.4600561270490289e-04" rms="4.5707795023918152e-01" purity="5.7814460992813110e-01" nType="-99"/>
        </Node>
      </Node>
    </BinaryTree>
    <BinaryTree type="DecisionTree" boostWeight="1.0000000000000000e+00" itree="1000">
      <Node pos="s" depth="0" NCoef="0" IVar="0" Cut="2.4187159538269043e+00" cType="1" res="-1.4384430869540665e-05" rms="4.5676457881927490e-01" purity="4.9934431910514832e-01" nType="0">
        <Node pos="l" depth="1" NCoef="0" IVar="6" Cut="1.9624536037445068e+00" cType="1" res="1.1454379186034203e-02" rms="4.5033165812492371e-01" purity="3.6214604973793030e-01" nType="0">
          <Node pos="l" depth="2" NCoef="0" IVar="-1" Cut="0.0000000000000000e+00" cType="1" res="2.7345113921910524e-03" rms="4.7124102711677551e-01" purity="4.7554183006286621e-01" nType="-99"/>
          <Node pos="r" depth="2" NCoef="0" IVar="-1" Cut="0.0000000000000000e+00" cType="1" res="5.5250577133847401e-05" rms="4.4322520494461060e-01" purity="3.2762980461120605e-01" nType="-99"/>
        </Node>
        <Node pos="r" depth="1" NCoef="0" IVar="6" Cut="2.7174906730651855e+00" cType="1" res="-7.8986706212162971e-03" rms="4.6096941828727722e-01" purity="5.9366232156753540e-01" nType="0">
          <Node pos="l" depth="2" NCoef="0" IVar="-1" Cut="0.0000000000000000e+00" cType="1" res="-7.2838983032852411e-04" rms="4.5990729331970215e-01" purity="6.1517190933227539e-01" nType="-99"/>
          <Node pos="r" depth="2" NCoef="0" IVar="-1" Cut="0.0000000000000000e+00" cType="1" res="1.9460542825981975e-03" rms="4.6962562203407288e-01" purity="3.8008067011833191e-01" nType="-99"/>
        </Node>
      </Node>
    </BinaryTree>
    <BinaryTree type="DecisionTree" boostWeight="1.0000000000000000e+00" itree="1001">
      <Node pos="s" depth="0" NCoef="0" IVar="0" Cut="2.0367610454559326e+00" cType="1" res="7.4674151837825775e-03" rms="4.5077297091484070e-01" purity="5.0954020023345947e-01" nType="0">
        <Node pos="l" depth="1" NCoef="0" IVar="9" Cut="7.8800344467163086e-01" cType="1" res="-9.2524522915482521e-03" rms="4.4082182645797729e-01" purity="3.1967550516128540e-01" nType="0">
          <Node pos="l" depth="2" NCoef="0" IVar="-1" Cut="0.0000000000000000e+00" cType="1" res="-1.2953866098541766e-04" rms="4.5328214764595032e-01" purity="3.4843066334724426e-01" nType="-99"/>
          <Node pos="r" depth="2" NCoef="0" IVar="-1" Cut="0.0000000000000000e+00" cType="1" res="-2.4196787271648645e-03" rms="3.9871773123741150e-01" purity="2.3018613457679749e-01" nType="-99"/>
        </Node>
        <Node pos="r" depth="1" NCoef="0" IVar="5" Cut="9.6240723133087158e-01" cType="1" res="1.4766531065106392e-02" rms="4.5485627651214600e-01" purity="5.9242624044418335e-01" nType="0">
          <Node pos="l" depth="2" NCoef="0" IVar="-1" Cut="0.0000000000000000e+00" cType="1" res="1.5615402953699231e-03" rms="4.6749520301818848e-01" purity="5.2392971515655518e-01" nType="-99"/>
          <Node pos="r" depth="2" NCoef="0" IVar="-1" Cut="0.0000000000000000e+00" cType="1" res="9.8716715001501143e-05" rms="4.4075149297714233e-01" purity="6.6462802886962891e-01" nType="-99"/>
        </Node>
      </Node>
    </BinaryTree>
    <BinaryTree type="DecisionTree" boostWeight="1.0000000000000000e+00" itree="1002">
      <Node pos="s" depth="0" NCoef="0" IVar="0" Cut="8.6577743291854858e-01" cType="1" res="3.6032742355018854e-03" rms="4.5235350728034973e-01" purity="5.0216060876846313e-01" nType="0">
        <Node pos="l" depth="1" NCoef="0" IVar="-1" Cut="0.0000000000000000e+00" cType="1" res="3.1422933097928762e-03" rms="4.4388273358345032e-01" purity="3.1423258781433105e-01" nType="-99"/>
        <Node pos="r" depth="1" NCoef="0" IVar="4" Cut="5.8171468973159790e-01" cType="1" res="1.2514920672401786e-03" rms="4.5277398824691772e-01" purity="5.1390922069549561e-01" nType="0">
          <Node pos="l" depth="2" NCoef="0" IVar="-1" Cut="0.0000000000000000e+00" cType="1" res="3.1559463241137564e-04" rms="4.5395156741142273e-01" purity="5.0185686349868774e-01" nType="-99"/>
          <Node pos="r" depth="2" NCoef="0" IVar="-1" Cut="0.0000000000000000e+00" cType="1" res="-8.8120083091780543e-04" rms="4.4762223958969116e-01" purity="5.6295597553253174e-01" nType="-99"/>
        </Node>
      </Node>
    </BinaryTree>
    <BinaryTree type="DecisionTree" boostWeight="1.0000000000000000e+00" itree="1003">
      <Node pos="s" depth="0" NCoef="0" IVar="0" Cut="3.5921044349670410e+00" cType="1" res="-1.2354295467957854e-03" rms="4.5409390330314636e-01" purity="5.0109016895294189e-01" nType="0">
        <Node pos="l" depth="1" NCoef="0" IVar="7" Cut="1.0234606933593750e+02" cType="1" res="-6.6573219373822212e-03" rms="4.6116974949836731e-01" purity="4.1092407703399658e-01" nType="0">
          <Node pos="l" depth="2" NCoef="0" IVar="-1" Cut="0.0000000000000000e+00" cType="1" res="-1.7090777691919357e-04" rms="4.5993372797966003e-01" purity="3.9822044968605042e-01" nType="-99"/>
          <Node pos="r" depth="2" NCoef="0" IVar="-1" Cut="0.0000000000000000e+00" cType="1" res="-1.9537629559636116e-03" rms="4.6850436925888062e-01" purity="4.9578723311424255e-01" nType="-99"/>
        </Node>
        <Node pos="r" depth="1" NCoef="0" IVar="5" Cut="9.6575564146041870e-01" cType="1" res="1.0475450195372105e-02" rms="4.3819215893745422e-01" purity="6.9584238529205322e-01" nType="0">
          <Node pos="l" depth="2" NCoef="0" IVar="-1" Cut="0.0000000000000000e+00" cType="1" res="1.8000707495957613e-03" rms="4.5998421311378479e-01" purity="6.4072465896606445e-01" nType="-99"/>
          <Node pos="r" depth="2" NCoef="0" IVar="-1" Cut="0.0000000000000000e+00" cType="1" res="-4.0695161442272365e-04" rms="4.1980496048927307e-01" purity="7.3861652612686157e-01" nType="-99"/>
        </Node>
      </Node>
    </BinaryTree>
    <BinaryTree type="DecisionTree" boostWeight="1.0000000000000000e+00" itree="1004">
      <Node pos="s" depth="0" NCoef="0" IVar="4" Cut="1.1467711627483368e-01" cType="1" res="-2.2597971837967634e-03" rms="4.5278826355934143e-01" purity="4.9721956253051758e-01" nType="0">
        <Node pos="l" depth="1" NCoef="0" IVar="-1" Cut="0.0000000000000000e+00" cType="1" res="-3.5264689940959215e-03" rms="4.2481583356857300e-01" purity="3.2018420100212097e-01" nType="-99"/>
        <Node pos="r" depth="1" NCoef="0" IVar="1" Cut="5.3567999267578125e+02" cType="1" res="7.3170423274859786e-04" rms="4.5424047112464905e-01" purity="5.0785720348358154e-01" nType="0">
          <Node pos="l" depth="2" NCoef="0" IVar="-1" Cut="0.0000000000000000e+00" cType="1" res="-3.8212828803807497e-04" rms="4.5257902145385742e-01" purity="4.2816671729087830e-01" nType="-99"/>
          <Node pos="r" depth="2" NCoef="0" IVar="-1" Cut="0.0000000000000000e+00" cType="1" res="5.0683045992627740e-04" rms="4.5595258474349976e-01" purity="5.9587937593460083e-01" nType="-99"/>
        </Node>
      </Node>
    </BinaryTree>
    <BinaryTree type="DecisionTree" boostWeight="1.0000000000000000e+00" itree="1005">
      <Node pos="s" depth="0" NCoef="0" IVar="9" Cut="8.6795604228973389e-01" cType="1" res="-1.2338790111243725e-03" rms="4.5433324575424194e-01" purity="4.9740272760391235e-01" nType="0">
        <Node pos="l" depth="1" NCoef="0" IVar="0" Cut="9.8385614156723022e-01" cType="1" res="-4.8113744705915451e-03" rms="4.5411330461502075e-01" purity="5.1171469688415527e-01" nType="0">
          <Node pos="l" depth="2" NCoef="0" IVar="-1" Cut="0.0000000000000000e+00" cType="1" res="1.9690452609211206e-03" rms="4.3983784317970276e-01" purity="3.2013964653015137e-01" nType="-99"/>
          <Node pos="r" depth="2" NCoef="0" IVar="-1" Cut="0.0000000000000000e+00" cType="1" res="-4.5132380910217762e-04" rms="4.5508733391761780e-01" purity="5.2625405788421631e-01" nType="-99"/>
        </Node>
        <Node pos="r" depth="1" NCoef="0" IVar="3" Cut="6.1612185090780258e-02" cType="1" res="1.7731329426169395e-02" rms="4.5502802729606628e-01" purity="4.2153149843215942e-01" nType="0">
          <Node pos="l" depth="2" NCoef="0" IVar="-1" Cut="0.0000000000000000e+00" cType="1" res="-3.5572779597714543e-04" rms="4.5329681038856506e-01" purity="4.1642385721206665e-01" nType="-99"/>
          <Node pos="r" depth="2" NCoef="0" IVar="-1" Cut="0.0000000000000000e+00" cType="1" res="3.3624996431171894e-03" rms="4.5542445778846741e-01" purity="4.2884260416030884e-01" nType="-99"/>
        </Node>
      </Node>
    </BinaryTree>
    <BinaryTree type="DecisionTree" boostWeight="1.0000000000000000e+00" itree="1006">
      <Node pos="s" depth="0" NCoef="0" IVar="6" Cut="1.4577257633209229e+00" cType="1" res="-3.5517318174242973e-03" rms="4.5394885540008545e-01" purity="4.9924737215042114e-01" nType="0">
        <Node pos="l" depth="1" NCoef="0" IVar="-1" Cut="0.0000000000000000e+00" cType="1" res="2.5428514927625656e-03" rms="4.4065409898757935e-01" purity="6.6139304637908936e-01" nType="-99"/>
        <Node pos="r" depth="1" NCoef="0" IVar="0" Cut="5.3742003440856934e+00" cType="1" res="-6.6233137622475624e-03" rms="4.5471486449241638e-01" purity="4.8780632019042969e-01" nType="0">
          <Node pos="l" depth="2" NCoef="0" IVar="-1" Cut="0.0000000000000000e+00" cType="1" res="-5.7259976165369153e-04" rms="4.5938664674758911e-01" purity="4.6638560295104980e-01" nType="-99"/>
          <Node pos="r" depth="2" NCoef="0" IVar="-1" Cut="0.0000000000000000e+00" cType="1" res="2.8863530606031418e-03" rms="3.7049305438995361e-01" purity="8.2753980159759521e-01" nType="-99"/>
        </Node>
      </Node>
    </BinaryTree>
    <BinaryTree type="DecisionTree" boostWeight="1.0000000000000000e+00" itree="1007">
      <Node pos="s" depth="0" NCoef="0" IVar="4" Cut="4.0495863556861877e-01" cType="1" res="-6.9931061007082462e-03" rms="4.5247206091880798e-01" purity="4.9036416411399841e-01" nType="0">
        <Node pos="l" depth="1" NCoef="0" IVar="9" Cut="3.9052882790565491e-01" cType="1" res="-1.6057573258876801e-02" rms="4.5013785362243652e-01" purity="4.4441261887550354e-01" nType="0">
          <Node pos="l" depth="2" NCoef="0" IVar="-1" Cut="0.0000000000000000e+00" cType="1" res="4.2268031393177807e-04" rms="4.5464947819709778e-01" purity="5.2118945121765137e-01" nType="-99"/>
          <Node pos="r" depth="2" NCoef="0" IVar="-1" Cut="0.0000000000000000e+00" cType="1" res="-1.6236280789598823e-03" rms="4.4798427820205688e-01" purity="4.1355583071708679e-01" nType="-99"/>
        </Node>
        <Node pos="r" depth="1" NCoef="0" IVar="8" Cut="1.3977519273757935e+00" cType="1" res="3.6231661215424538e-03" rms="4.5496109127998352e-01" purity="5.4418241977691650e-01" nType="0">
          <Node pos="l" depth="2" NCoef="0" IVar="-1" Cut="0.0000000000000000e+00" cType="1" res="-2.6038443320430815e-04" rms="4.5393881201744080e-01" purity="5.5274885892868042e-01" nType="-99"/>
          <Node pos="r" depth="2" NCoef="0" IVar="-1" Cut="0.0000000000000000e+00" cType="1" res="1.8435876118019223e-03" rms="4.5739230513572693e-01" purity="5.1578569412231445e-01" nType="-99"/>
        </Node>
      </Node>
    </BinaryTree>
    <BinaryTree type="DecisionTree" boostWeight="1.0000000000000000e+00" itree="1008">
      <Node pos="s" depth="0" NCoef="0" IVar="9" Cut="2.4870841205120087e-01" cType="1" res="-6.1446294421330094e-04" rms="4.5322924852371216e-01" purity="4.9848881363868713e-01" nType="0">
        <Node pos="l" depth="1" NCoef="0" IVar="3" Cut="-2.0431865006685257e-02" cType="1" res="2.1677948534488678e-02" rms="4.5579978823661804e-01" purity="5.8234459161758423e-01" nType="0">
          <Node pos="l" depth="2" NCoef="0" IVar="-1" Cut="0.0000000000000000e+00" cType="1" res="-1.0875257430598140e-03" rms="4.5584169030189514e-01" purity="5.7030493021011353e-01" nType="-99"/>
          <Node pos="r" depth="2" NCoef="0" IVar="-1" Cut="0.0000000000000000e+00" cType="1" res="2.5988759007304907e-03" rms="4.5449310541152954e-01" purity="5.8854681253433228e-01" nType="-99"/>
        </Node>
        <Node pos="r" depth="1" NCoef="0" IVar="5" Cut="9.3314003944396973e-01" cType="1" res="-4.5723533257842064e-03" rms="4.5265656709671021e-01" purity="4.8360073566436768e-01" nType="0">
          <Node pos="l" depth="2" NCoef="0" IVar="-1" Cut="0.0000000000000000e+00" cType="1" res="8.5469632176682353e-04" rms="4.4457441568374634e-01" purity="3.4006726741790771e-01" nType="-99"/>
          <Node pos="r" depth="2" NCoef="0" IVar="-1" Cut="0.0000000000000000e+00" cType="1" res="-6.4967520302161574e-04" rms="4.5512324571609497e-01" purity="5.3059655427932739e-01" nType="-99"/>
        </Node>
      </Node>
    </BinaryTree>
    <BinaryTree type="DecisionTree" boostWeight="1.0000000000000000e+00" itree="1009">
      <Node pos="s" depth="0" NCoef="0" IVar="5" Cut="9.5300102233886719e-01" cType="1" res="4.5113959349691868e-03" rms="4.5084294676780701e-01" purity="5.0450354814529419e-01" nType="0">
        <Node pos="l" depth="1" NCoef="0" IVar="6" Cut="2.4917705059051514e+00" cType="1" res="-3.4184965770691633e-03" rms="4.5483762025833130e-01" purity="3.8514325022697449e-01" nType="0">
          <Node pos="l" depth="2" NCoef="0" IVar="-1" Cut="0.0000000000000000e+00" cType="1" res="-6.3545408193022013e-04" rms="4.6145820617675781e-01" purity="4.1416198015213013e-01" nType="-99"/>
          <Node pos="r" depth="2" NCoef="0" IVar="-1" Cut="0.0000000000000000e+00" cType="1" res="1.5841276617720723e-03" rms="4.3065792322158813e-01" purity="2.8649455308914185e-01" nType="-99"/>
        </Node>
        <Node pos="r" depth="1" NCoef="0" IVar="6" Cut="2.1991519927978516e+00" cType="1" res="1.2589945457875729e-02" rms="4.4659188389778137e-01" purity="6.2610149383544922e-01" nType="0">
          <Node pos="l" depth="2" NCoef="0" IVar="-1" Cut="0.0000000000000000e+00" cType="1" res="1.7029843293130398e-03" rms="4.3246391415596008e-01" purity="6.9801092147827148e-01" nType="-99"/>
          <Node pos="r" depth="2" NCoef="0" IVar="-1" Cut="0.0000000000000000e+00" cType="1" res="-5.7830107834888622e-05" rms="4.6052482724189758e-01" purity="5.5084955692291260e-01" nType="-99"/>
        </Node>
      </Node>
    </BinaryTree>
    <BinaryTree type="DecisionTree" boostWeight="1.0000000000000000e+00" itree="1010">
      <Node pos="s" depth="0" NCoef="0" IVar="9" Cut="7.4017351865768433e-01" cType="1" res="-5.9893066063523293e-03" rms="4.5374101400375366e-01" purity="4.9412754178047180e-01" nType="0">
        <Node pos="l" depth="1" NCoef="0" IVar="5" Cut="9.7583985328674316e-01" cType="1" res="-1.1286905966699123e-02" rms="4.5335596799850464e-01" purity="5.1671046018600464e-01" nType="0">
          <Node pos="l" depth="2" NCoef="0" IVar="-1" Cut="0.0000000000000000e+00" cType="1" res="-9.5998437609523535e-04" rms="4.6292483806610107e-01" purity="4.5828101038932800e-01" nType="-99"/>
          <Node pos="r" depth="2" NCoef="0" IVar="-1" Cut="0.0000000000000000e+00" cType="1" res="4.4205738231539726e-04" rms="4.1440486907958984e-01" purity="7.3946368694305420e-01" nType="-99"/>
        </Node>
        <Node pos="r" depth="1" NCoef="0" IVar="3" Cut="5.4122835397720337e-02" cType="1" res="8.9865559712052345e-03" rms="4.5449382066726685e-01" purity="4.3028753995895386e-01" nType="0">
          <Node pos="l" depth="2" NCoef="0" IVar="-1" Cut="0.0000000000000000e+00" cType="1" res="-5.4260873002931476e-04" rms="4.5973369479179382e-01" purity="4.3423449993133545e-01" nType="-99"/>
          <Node pos="r" depth="2" NCoef="0" IVar="-1" Cut="0.0000000000000000e+00" cType="1" res="2.0409061107784510e-03" rms="4.4677454233169556e-01" purity="4.2528313398361206e-01" nType="-99"/>
        </Node>
      </Node>
    </BinaryTree>
    <BinaryTree type="DecisionTree" boostWeight="1.0000000000000000e+00" itree="1011">
      <Node pos="s" depth="0" NCoef="0" IVar="6" Cut="1.7627363204956055e+00" cType="1" res="-3.5891672596335411e-03" rms="4.5394828915596008e-01" purity="4.9472558498382568e-01" nType="0">
        <Node pos="l" depth="1" NCoef="0" IVar="3" Cut="-7.2649111971259117e-03" cType="1" res="-2.6964232325553894e-02" rms="4.5190495252609253e-01" purity="5.6221938133239746e-01" nType="0">
          <Node pos="l" depth="2" NCoef="0" IVar="-1" Cut="0.0000000000000000e+00" cType="1" res="-3.2435832545161247e-03" rms="4.4610846042633057e-01" purity="5.5422425270080566e-01" nType="-99"/>
          <Node pos="r" depth="2" NCoef="0" IVar="-1" Cut="0.0000000000000000e+00" cType="1" res="-7.6200265903025866e-04" rms="4.5492070913314819e-01" purity="5.6728190183639526e-01" nType="-99"/>
        </Node>
        <Node pos="r" depth="1" NCoef="0" IVar="3" Cut="-2.1664880216121674e-02" cType="1" res="5.0674204248934984e-04" rms="4.5418152213096619e-01" purity="4.8289892077445984e-01" nType="0">
          <Node pos="l" depth="2" NCoef="0" IVar="-1" Cut="0.0000000000000000e+00" cType="1" res="9.7482843557372689e-04" rms="4.5312029123306274e-01" purity="5.5306041240692139e-01" nType="-99"/>
          <Node pos="r" depth="2" NCoef="0" IVar="-1" Cut="0.0000000000000000e+00" cType="1" res="-2.9737802105955780e-04" rms="4.5442956686019897e-01" purity="4.5881089568138123e-01" nType="-99"/>
        </Node>
      </Node>
    </BinaryTree>
    <BinaryTree type="DecisionTree" boostWeight="1.0000000000000000e+00" itree="1012">
      <Node pos="s" depth="0" NCoef="0" IVar="6" Cut="2.7745199203491211e+00" cType="1" res="5.5026561021804810e-03" rms="4.5198455452919006e-01" purity="5.0834023952484131e-01" nType="0">
        <Node pos="l" depth="1" NCoef="0" IVar="3" Cut="-2.6611698791384697e-02" cType="1" res="8.1827435642480850e-03" rms="4.5567339658737183e-01" purity="5.3145599365234375e-01" nType="0">
          <Node pos="l" depth="2" NCoef="0" IVar="-1" Cut="0.0000000000000000e+00" cType="1" res="1.5127961523830891e-03" rms="4.4851833581924438e-01" purity="5.8500003814697266e-01" nType="-99"/>
          <Node pos="r" depth="2" NCoef="0" IVar="-1" Cut="0.0000000000000000e+00" cType="1" res="1.5637397882528603e-04" rms="4.5806795358657837e-01" purity="5.1233685016632080e-01" nType="-99"/>
        </Node>
        <Node pos="r" depth="1" NCoef="0" IVar="-1" Cut="0.0000000000000000e+00" cType="1" res="-1.9661001861095428e-03" rms="4.0494441986083984e-01" purity="2.3743440210819244e-01" nType="-99"/>
      </Node>
    </BinaryTree>
    <BinaryTree type="DecisionTree" boostWeight="1.0000000000000000e+00" itree="1013">
      <Node pos="s" depth="0" NCoef="0" IVar="9" Cut="5.4085844755172729e-01" cType="1" res="1.3179283123463392e-03" rms="4.5491877198219299e-01" purity="5.0163269042968750e-01" nType="0">
        <Node pos="l" depth="1" NCoef="0" IVar="8" Cut="9.9949759244918823e-01" cType="1" res="1.0671707801520824e-02" rms="4.5236995816230774e-01" purity="5.5100101232528687e-01" nType="0">
          <Node pos="l" depth="2" NCoef="0" IVar="-1" Cut="0.0000000000000000e+00" cType="1" res="1.5830192714929581e-03" rms="4.5021915435791016e-01" purity="6.0071516036987305e-01" nType="-99"/>
          <Node pos="r" depth="2" NCoef="0" IVar="-1" Cut="0.0000000000000000e+00" cType="1" res="-1.4053698396310210e-04" rms="4.5387724041938782e-01" purity="5.0693941116333008e-01" nType="-99"/>
        </Node>
        <Node pos="r" depth="1" NCoef="0" IVar="4" Cut="4.3531647324562073e-01" cType="1" res="-9.1171227395534515e-03" rms="4.5751985907554626e-01" purity="4.4655755162239075e-01" nType="0">
          <Node pos="l" depth="2" NCoef="0" IVar="-1" Cut="0.0000000000000000e+00" cType="1" res="1.7439833027310669e-04" rms="4.5535239577293396e-01" purity="4.2827025055885315e-01" nType="-99"/>
          <Node pos="r" depth="2" NCoef="0" IVar="-1" Cut="0.0000000000000000e+00" cType="1" res="-1.9440787145867944e-03" rms="4.6074247360229492e-01" purity="4.8090261220932007e-01" nType="-99"/>
        </Node>
      </Node>
    </BinaryTree>
    <BinaryTree type="DecisionTree" boostWeight="1.0000000000000000e+00" itree="1014">
      <Node pos="s" depth="0" NCoef="0" IVar="5" Cut="9.4866669178009033e-01" cType="1" res="2.2207626607269049e-03" rms="4.5454356074333191e-01" purity="5.0288087129592896e-01" nType="0">
        <Node pos="l" depth="1" NCoef="0" IVar="5" Cut="9.3859338760375977e-01" cType="1" res="9.6382172778248787e-03" rms="4.5452854037284851e-01" purity="3.8647520542144775e-01" nType="0">
          <Node pos="l" depth="2" NCoef="0" IVar="-1" Cut="0.0000000000000000e+00" cType="1" res="-6.5299020207021385e-05" rms="4.4917380809783936e-01" purity="3.4954231977462769e-01" nType="-99"/>
          <Node pos="r" depth="2" NCoef="0" IVar="-1" Cut="0.0000000000000000e+00" cType="1" res="1.9189120503142476e-03" rms="4.6476340293884277e-01" purity="4.6392199397087097e-01" nType="-99"/>
        </Node>
        <Node pos="r" depth="1" NCoef="0" IVar="6" Cut="2.2299578189849854e+00" cType="1" res="-3.5454828757792711e-03" rms="4.5447161793708801e-01" purity="5.9337329864501953e-01" nType="0">
          <Node pos="l" depth="2" NCoef="0" IVar="-1" Cut="0.0000000000000000e+00" cType="1" res="-8.8391226017847657e-04" rms="4.4750997424125671e-01" purity="6.4005994796752930e-01" nType="-99"/>
          <Node pos="r" depth="2" NCoef="0" IVar="-1" Cut="0.0000000000000000e+00" cType="1" res="5.4057425586506724e-04" rms="4.6261906623840332e-01" purity="5.3577935695648193e-01" nType="-99"/>
        </Node>
      </Node>
    </BinaryTree>
    <BinaryTree type="DecisionTree" boostWeight="1.0000000000000000e+00" itree="1015">
      <Node pos="s" depth="0" NCoef="0" IVar="5" Cut="9.4932103157043457e-01" cType="1" res="6.4488402567803860e-03" rms="4.5314383506774902e-01" purity="5.0554209947586060e-01" nType="0">
        <Node pos="l" depth="1" NCoef="0" IVar="3" Cut="-3.3471707254648209e-02" cType="1" res="-4.2615626007318497e-03" rms="4.5426717400550842e-01" purity="3.7595903873443604e-01" nType="0">
          <Node pos="l" depth="2" NCoef="0" IVar="-1" Cut="0.0000000000000000e+00" cType="1" res="-1.8643323564901948e-03" rms="4.6377566456794739e-01" purity="3.8644322752952576e-01" nType="-99"/>
          <Node pos="r" depth="2" NCoef="0" IVar="-1" Cut="0.0000000000000000e+00" cType="1" res="1.3702125579584390e-04" rms="4.5172905921936035e-01" purity="3.7345528602600098e-01" nType="-99"/>
        </Node>
        <Node pos="r" depth="1" NCoef="0" IVar="0" Cut="2.4153409004211426e+00" cType="1" res="1.5232784673571587e-02" rms="4.5203107595443726e-01" purity="6.1181735992431641e-01" nType="0">
          <Node pos="l" depth="2" NCoef="0" IVar="-1" Cut="0.0000000000000000e+00" cType="1" res="2.5572520680725574e-03" rms="4.7328996658325195e-01" purity="4.8289200663566589e-01" nType="-99"/>
          <Node pos="r" depth="2" NCoef="0" IVar="-1" Cut="0.0000000000000000e+00" cType="1" res="4.2630682582966983e-04" rms="4.4451224803924561e-01" purity="6.5401244163513184e-01" nType="-99"/>
        </Node>
      </Node>
    </BinaryTree>
    <BinaryTree type="DecisionTree" boostWeight="1.0000000000000000e+00" itree="1016">
      <Node pos="s" depth="0" NCoef="0" IVar="5" Cut="9.8364347219467163e-01" cType="1" res="2.3356061428785324e-03" rms="4.5353463292121887e-01" purity="5.0356882810592651e-01" nType="0">
        <Node pos="l" depth="1" NCoef="0" IVar="5" Cut="9.4219869375228882e-01" cType="1" res="-8.8448281167075038e-04" rms="4.6044406294822693e-01" purity="4.6653425693511963e-01" nType="0">
          <Node pos="l" depth="2" NCoef="0" IVar="-1" Cut="0.0000000000000000e+00" cType="1" res="6.5794558031484485e-04" rms="4.5092833042144775e-01" purity="3.7055149674415588e-01" nType="-99"/>
          <Node pos="r" depth="2" NCoef="0" IVar="-1" Cut="0.0000000000000000e+00" cType="1" res="-4.8919901018962264e-04" rms="4.6623924374580383e-01" purity="5.2743524312973022e-01" nType="-99"/>
        </Node>
        <Node pos="r" depth="1" NCoef="0" IVar="0" Cut="4.3030824661254883e+00" cType="1" res="2.6212796568870544e-02" rms="3.9776849746704102e-01" purity="7.7818256616592407e-01" nType="0">
          <Node pos="l" depth="2" NCoef="0" IVar="-1" Cut="0.0000000000000000e+00" cType="1" res="3.6043392028659582e-03" rms="4.1811904311180115e-01" purity="7.4600887298583984e-01" nType="-99"/>
          <Node pos="r" depth="2" NCoef="0" IVar="-1" Cut="0.0000000000000000e+00" cType="1" res="-6.8684545112773776e-05" rms="3.7353804707527161e-01" purity="8.1162708997726440e-01" nType="-99"/>
        </Node>
      </Node>
    </BinaryTree>
    <BinaryTree type="DecisionTree" boostWeight="1.0000000000000000e+00" itree="1017">
      <Node pos="s" depth="0" NCoef="0" IVar="6" Cut="1.8269569873809814e+00" cType="1" res="8.5776048945263028e-04" rms="4.5330142974853516e-01" purity="4.9778103828430176e-01" nType="0">
        <Node pos="l" depth="1" NCoef="0" IVar="5" Cut="9.6102225780487061e-01" cType="1" res="-2.0109197124838829e-02" rms="4.5336848497390747e-01" purity="5.6292003393173218e-01" nType="0">
          <Node pos="l" depth="2" NCoef="0" IVar="-1" Cut="0.0000000000000000e+00" cType="1" res="-1.8276338232681155e-03" rms="4.7048285603523254e-01" purity="4.6459016203880310e-01" nType="-99"/>
          <Node pos="r" depth="2" NCoef="0" IVar="-1" Cut="0.0000000000000000e+00" cType="1" res="-6.4703672251198441e-05" rms="4.2326441407203674e-01" purity="7.2333943843841553e-01" nType="-99"/>
        </Node>
        <Node pos="r" depth="1" NCoef="0" IVar="7" Cut="5.3080059051513672e+01" cType="1" res="5.4506463930010796e-03" rms="4.5315724611282349e-01" purity="4.8351210355758667e-01" nType="0">
          <Node pos="l" depth="2" NCoef="0" IVar="-1" Cut="0.0000000000000000e+00" cType="1" res="-7.5855583418160677e-04" rms="4.3934214115142822e-01" purity="3.4621226787567139e-01" nType="-99"/>
          <Node pos="r" depth="2" NCoef="0" IVar="-1" Cut="0.0000000000000000e+00" cType="1" res="6.5219716634601355e-04" rms="4.5716366171836853e-01" purity="5.2534717321395874e-01" nType="-99"/>
        </Node>
      </Node>
    </BinaryTree>
    <BinaryTree type="DecisionTree" boostWeight="1.0000000000000000e+00" itree="1018">
      <Node pos="s" depth="0" NCoef="0" IVar="0" Cut="3.9227657318115234e+00" cType="1" res="-3.1964792869985104e-03" rms="4.5529720187187195e-01" purity="4.9788653850555420e-01" nType="0">
        <Node pos="l" depth="1" NCoef="0" IVar="1" Cut="5.4284790039062500e+02" cType="1" res="1.5806569717824459e-03" rms="4.6104800701141357e-01" purity="4.3386185169219971e-01" nType="0">
          <Node pos="l" depth="2" NCoef="0" IVar="-1" Cut="0.0000000000000000e+00" cType="1" res="-3.8804276846349239e-04" rms="4.5073843002319336e-01" purity="3.6346399784088135e-01" nType="-99"/>
          <Node pos="r" depth="2" NCoef="0" IVar="-1" Cut="0.0000000000000000e+00" cType="1" res="6.6535011865198612e-04" rms="4.7369265556335449e-01" purity="5.2364569902420044e-01" nType="-99"/>
        </Node>
        <Node pos="r" depth="1" NCoef="0" IVar="3" Cut="6.4928904175758362e-02" cType="1" res="-1.7293950542807579e-02" rms="4.3758234381675720e-01" purity="6.8682527542114258e-01" nType="0">
          <Node pos="l" depth="2" NCoef="0" IVar="-1" Cut="0.0000000000000000e+00" cType="1" res="-1.8613495631143451e-03" rms="4.3748030066490173e-01" purity="7.0162075757980347e-01" nType="-99"/>
          <Node pos="r" depth="2" NCoef="0" IVar="-1" Cut="0.0000000000000000e+00" cType="1" res="2.4156496510840952e-04" rms="4.3709337711334229e-01" purity="6.5257579088211060e-01" nType="-99"/>
        </Node>
      </Node>
    </BinaryTree>
    <BinaryTree type="DecisionTree" boostWeight="1.0000000000000000e+00" itree="1019">
      <Node pos="s" depth="0" NCoef="0" IVar="3" Cut="1.7135627567768097e-01" cType="1" res="3.6296886391937733e-03" rms="4.5314988493919373e-01" purity="5.0258904695510864e-01" nType="0">
        <Node pos="l" depth="1" NCoef="0" IVar="4" Cut="2.3638784885406494e-01" cType="1" res="5.8135497383773327e-03" rms="4.5454657077789307e-01" purity="5.0986695289611816e-01" nType="0">
          <Node pos="l" depth="2" NCoef="0" IVar="-1" Cut="0.0000000000000000e+00" cType="1" res="1.6771840164437890e-03" rms="4.5636168122291565e-01" purity="4.5186758041381836e-01" nType="-99"/>
          <Node pos="r" depth="2" NCoef="0" IVar="-1" Cut="0.0000000000000000e+00" cType="1" res="5.7240413298131898e-05" rms="4.5397195219993591e-01" purity="5.2383422851562500e-01" nType="-99"/>
        </Node>
        <Node pos="r" depth="1" NCoef="0" IVar="-1" Cut="0.0000000000000000e+00" cType="1" res="-1.6240923432633281e-03" rms="4.3356454372406006e-01" purity="4.0788456797599792e-01" nType="-99"/>
      </Node>
    </BinaryTree>
    <BinaryTree type="DecisionTree" boostWeight="1.0000000000000000e+00" itree="1020">
      <Node pos="s" depth="0" NCoef="0" IVar="3" Cut="-3.7726528942584991e-02" cType="1" res="-5.2619952475652099e-04" rms="4.5244872570037842e-01" purity="5.0025612115859985e-01" nType="0">
        <Node pos="l" depth="1" NCoef="0" IVar="0" Cut="2.6718153953552246e+00" cType="1" res="-1.7431329935789108e-02" rms="4.5019355416297913e-01" purity="5.4620754718780518e-01" nType="0">
          <Node pos="l" depth="2" NCoef="0" IVar="-1" Cut="0.0000000000000000e+00" cType="1" res="-2.5074367877095938e-03" rms="4.5971220731735229e-01" purity="3.7068486213684082e-01" nType="-99"/>
          <Node pos="r" depth="2" NCoef="0" IVar="-1" Cut="0.0000000000000000e+00" cType="1" res="1.7387673142366111e-04" rms="4.4099354743957520e-01" purity="6.9458895921707153e-01" nType="-99"/>
        </Node>
        <Node pos="r" depth="1" NCoef="0" IVar="6" Cut="1.4742257595062256e+00" cType="1" res="3.3940013963729143e-03" rms="4.5287993550300598e-01" purity="4.8960030078887939e-01" nType="0">
          <Node pos="l" depth="2" NCoef="0" IVar="-1" Cut="0.0000000000000000e+00" cType="1" res="2.2652861662209034e-03" rms="4.4336169958114624e-01" purity="6.3496327400207520e-01" nType="-99"/>
          <Node pos="r" depth="2" NCoef="0" IVar="-1" Cut="0.0000000000000000e+00" cType="1" res="5.7471646869089454e-05" rms="4.5349532365798950e-01" purity="4.7859862446784973e-01" nType="-99"/>
        </Node>
      </Node>
    </BinaryTree>
    <BinaryTree type="DecisionTree" boostWeight="1.0000000000000000e+00" itree="1021">
      <Node pos="s" depth="0" NCoef="0" IVar="3" Cut="3.6043461412191391e-02" cType="1" res="-2.1163551136851311e-03" rms="4.5252716541290283e-01" purity="4.9842625856399536e-01" nType="0">
        <Node pos="l" depth="1" NCoef="0" IVar="6" Cut="2.4209287166595459e+00" cType="1" res="6.2543931417167187e-03" rms="4.5565074682235718e-01" purity="5.3593736886978149e-01" nType="0">
          <Node pos="l" depth="2" NCoef="0" IVar="-1" Cut="0.0000000000000000e+00" cType="1" res="-6.3754923758096993e-05" rms="4.5532923936843872e-01" purity="5.5980503559112549e-01" nType="-99"/>
          <Node pos="r" depth="2" NCoef="0" IVar="-1" Cut="0.0000000000000000e+00" cType="1" res="2.2269594483077526e-03" rms="4.5578411221504211e-01" purity="4.4154843688011169e-01" nType="-99"/>
        </Node>
        <Node pos="r" depth="1" NCoef="0" IVar="5" Cut="9.4579774141311646e-01" cType="1" res="-1.2867677025496960e-02" rms="4.4825407862663269e-01" purity="4.5024731755256653e-01" nType="0">
          <Node pos="l" depth="2" NCoef="0" IVar="-1" Cut="0.0000000000000000e+00" cType="1" res="-1.9244521390646696e-03" rms="4.3246504664421082e-01" purity="3.0834972858428955e-01" nType="-99"/>
          <Node pos="r" depth="2" NCoef="0" IVar="-1" Cut="0.0000000000000000e+00" cType="1" res="-9.2617177870124578e-05" rms="4.5859035849571228e-01" purity="5.4911661148071289e-01" nType="-99"/>
        </Node>
      </Node>
    </BinaryTree>
    <BinaryTree type="DecisionTree" boostWeight="1.0000000000000000e+00" itree="1022">
      <Node pos="s" depth="0" NCoef="0" IVar="2" Cut="1.8367085266113281e+02" cType="1" res="-4.0404070168733597e-03" rms="4.5391294360160828e-01" purity="4.9672862887382507e-01" nType="0">
        <Node pos="l" depth="1" NCoef="0" IVar="2" Cut="4.1645275115966797e+01" cType="1" res="-1.1851681629195809e-03" rms="4.5330092310905457e-01" purity="4.9910023808479309e-01" nType="0">
          <Node pos="l" depth="2" NCoef="0" IVar="-1" Cut="0.0000000000000000e+00" cType="1" res="-1.9029880641028285e-03" rms="4.5103570818901062e-01" purity="4.2133155465126038e-01" nType="-99"/>
          <Node pos="r" depth="2" NCoef="0" IVar="-1" Cut="0.0000000000000000e+00" cType="1" res="4.8243226046906784e-05" rms="4.5338273048400879e-01" purity="5.0423812866210938e-01" nType="-99"/>
        </Node>
        <Node pos="r" depth="1" NCoef="0" IVar="-1" Cut="0.0000000000000000e+00" cType="1" res="-2.3646659683436155e-03" rms="4.5955213904380798e-01" purity="4.6986222267150879e-01" nType="-99"/>
      </Node>
    </BinaryTree>
    <BinaryTree type="DecisionTree" boostWeight="1.0000000000000000e+00" itree="1023">
      <Node pos="s" depth="0" NCoef="0" IVar="9" Cut="9.9621742963790894e-01" cType="1" res="1.5736175701022148e-03" rms="4.5266544818878174e-01" purity="5.0213479995727539e-01" nType="0">
        <Node pos="l" depth="1" NCoef="0" IVar="1" Cut="5.7492779541015625e+02" cType="1" res="4.3603735975921154e-03" rms="4.5355796813964844e-01" purity="5.1473253965377808e-01" nType="0">
          <Node pos="l" depth="2" NCoef="0" IVar="-1" Cut="0.0000000000000000e+00" cType="1" res="-1.1134535452583805e-04" rms="4.5275035500526428e-01" purity="4.5047372579574585e-01" nType="-99"/>
          <Node pos="r" depth="2" NCoef="0" IVar="-1" Cut="0.0000000000000000e+00" cType="1" res="8.3641259698197246e-04" rms="4.5460763573646545e-01" purity="6.1066496372222900e-01" nType="-99"/>
        </Node>
        <Node pos="r" depth="1" NCoef="0" IVar="-1" Cut="0.0000000000000000e+00" cType="1" res="-1.9728185143321753e-03" rms="4.4119855761528015e-01" purity="3.5939159989356995e-01" nType="-99"/>
      </Node>
    </BinaryTree>
    <BinaryTree type="DecisionTree" boostWeight="1.0000000000000000e+00" itree="1024">
      <Node pos="s" depth="0" NCoef="0" IVar="6" Cut="1.4336431026458740e+00" cType="1" res="-1.2837781105190516e-03" rms="4.5114675164222717e-01" purity="4.9995151162147522e-01" nType="0">
        <Node pos="l" depth="1" NCoef="0" IVar="-1" Cut="0.0000000000000000e+00" cType="1" res="2.6275666896253824e-03" rms="4.3050977587699890e-01" purity="6.6592371463775635e-01" nType="-99"/>
        <Node pos="r" depth="1" NCoef="0" IVar="0" Cut="1.0562009811401367e+00" cType="1" res="-3.9248256944119930e-03" rms="4.5228016376495361e-01" purity="4.8953372240066528e-01" nType="0">
          <Node pos="l" depth="2" NCoef="0" IVar="-1" Cut="0.0000000000000000e+00" cType="1" res="-1.9657008815556765e-03" rms="4.1742038726806641e-01" purity="2.5502938032150269e-01" nType="-99"/>
          <Node pos="r" depth="2" NCoef="0" IVar="-1" Cut="0.0000000000000000e+00" cType="1" res="-1.2012883235001937e-04" rms="4.5527151226997375e-01" purity="5.1090019941329956e-01" nType="-99"/>
        </Node>
      </Node>
    </BinaryTree>
    <BinaryTree type="DecisionTree" boostWeight="1.0000000000000000e+00" itree="1025">
      <Node pos="s" depth="0" NCoef="0" IVar="9" Cut="2.5994452834129333e-01" cType="1" res="1.8937387503683567e-03" rms="4.5555919408798218e-01" purity="5.0561642646789551e-01" nType="0">
        <Node pos="l" depth="1" NCoef="0" IVar="0" Cut="2.2874693870544434e+00" cType="1" res="2.0969677716493607e-02" rms="4.5757824182510376e-01" purity="5.7986032962799072e-01" nType="0">
          <Node pos="l" depth="2" NCoef="0" IVar="-1" Cut="0.0000000000000000e+00" cType="1" res="3.1848000362515450e-03" rms="4.6985882520675659e-01" purity="4.4999554753303528e-01" nType="-99"/>
          <Node pos="r" depth="2" NCoef="0" IVar="-1" Cut="0.0000000000000000e+00" cType="1" res="2.6964274002239108e-04" rms="4.4980400800704956e-01" purity="6.5128421783447266e-01" nType="-99"/>
        </Node>
        <Node pos="r" depth="1" NCoef="0" IVar="9" Cut="3.6713135242462158e-01" cType="1" res="-1.6636773943901062e-03" rms="4.5509323477745056e-01" purity="4.9177086353302002e-01" nType="0">
          <Node pos="l" depth="2" NCoef="0" IVar="-1" Cut="0.0000000000000000e+00" cType="1" res="-1.5632325084879994e-03" rms="4.5459461212158203e-01" purity="5.1557779312133789e-01" nType="-99"/>
          <Node pos="r" depth="2" NCoef="0" IVar="-1" Cut="0.0000000000000000e+00" cType="1" res="1.7200490401592106e-04" rms="4.5505467057228088e-01" purity="4.8727416992187500e-01" nType="-99"/>
        </Node>
      </Node>
    </BinaryTree>
    <BinaryTree type="DecisionTree" boostWeight="1.0000000000000000e+00" itree="1026">
      <Node pos="s" depth="0" NCoef="0" IVar="3" Cut="-2.6351520791649818e-02" cType="1" res="-2.7784684789367020e-04" rms="4.5382848381996155e-01" purity="5.0077491998672485e-01" nType="0">
        <Node pos="l" depth="1" NCoef="0" IVar="0" Cut="1.8741543292999268e+00" cType="1" res="1.1949341744184494e-02" rms="4.4981139898300171e-01" purity="5.6221592426300049e-01" nType="0">
          <Node pos="l" depth="2" NCoef="0" IVar="-1" Cut="0.0000000000000000e+00" cType="1" res="-1.1826219270005822e-03" rms="4.5300620794296265e-01" purity="3.4120765328407288e-01" nType="-99"/>
          <Node pos="r" depth="2" NCoef="0" IVar="-1" Cut="0.0000000000000000e+00" cType="1" res="1.4657542342320085e-03" rms="4.4807159900665283e-01" purity="6.4528357982635498e-01" nType="-99"/>
        </Node>
        <Node pos="r" depth="1" NCoef="0" IVar="8" Cut="7.8140419721603394e-01" cType="1" res="-4.2694830335676670e-03" rms="4.5506104826927185e-01" purity="4.8071715235710144e-01" nType="0">
          <Node pos="l" depth="2" NCoef="0" IVar="-1" Cut="0.0000000000000000e+00" cType="1" res="8.8720093481242657e-04" rms="4.5513772964477539e-01" purity="5.5317795276641846e-01" nType="-99"/>
          <Node pos="r" depth="2" NCoef="0" IVar="-1" Cut="0.0000000000000000e+00" cType="1" res="-6.3550972845405340e-04" rms="4.5488566160202026e-01" purity="4.5799690485000610e-01" nType="-99"/>
        </Node>
      </Node>
    </BinaryTree>
    <BinaryTree type="DecisionTree" boostWeight="1.0000000000000000e+00" itree="1027">
      <Node pos="s" depth="0" NCoef="0" IVar="6" Cut="1.8314549922943115e+00" cType="1" res="3.0841603875160217e-03" rms="4.5569854974746704e-01" purity="4.9839293956756592e-01" nType="0">
        <Node pos="l" depth="1" NCoef="0" IVar="9" Cut="5.7205867767333984e-01" cType="1" res="-1.0532269254326820e-02" rms="4.4941902160644531e-01" purity="5.7293260097503662e-01" nType="0">
          <Node pos="l" depth="2" NCoef="0" IVar="-1" Cut="0.0000000000000000e+00" cType="1" res="4.2022904381155968e-05" rms="4.4327592849731445e-01" purity="5.9330910444259644e-01" nType="-99"/>
          <Node pos="r" depth="2" NCoef="0" IVar="-1" Cut="0.0000000000000000e+00" cType="1" res="-2.1874874364584684e-03" rms="4.6183645725250244e-01" purity="5.2753734588623047e-01" nType="-99"/>
        </Node>
        <Node pos="r" depth="1" NCoef="0" IVar="9" Cut="2.9432013630867004e-01" cType="1" res="6.0696057043969631e-03" rms="4.5700958371162415e-01" purity="4.8204991221427917e-01" nType="0">
          <Node pos="l" depth="2" NCoef="0" IVar="-1" Cut="0.0000000000000000e+00" cType="1" res="-8.5940089775249362e-04" rms="4.5594167709350586e-01" purity="5.1976579427719116e-01" nType="-99"/>
          <Node pos="r" depth="2" NCoef="0" IVar="-1" Cut="0.0000000000000000e+00" cType="1" res="6.6506455186754465e-04" rms="4.5713186264038086e-01" purity="4.7359806299209595e-01" nType="-99"/>
        </Node>
      </Node>
    </BinaryTree>
    <BinaryTree type="DecisionTree" boostWeight="1.0000000000000000e+00" itree="1028">
      <Node pos="s" depth="0" NCoef="0" IVar="3" Cut="8.6269192397594452e-02" cType="1" res="-4.5943139120936394e-03" rms="4.5218163728713989e-01" purity="4.9705493450164795e-01" nType="0">
        <Node pos="l" depth="1" NCoef="0" IVar="9" Cut="9.0001457929611206e-01" cType="1" res="-7.9813245974946767e-05" rms="4.5263263583183289e-01" purity="5.2133023738861084e-01" nType="0">
          <Node pos="l" depth="2" NCoef="0" IVar="-1" Cut="0.0000000000000000e+00" cType="1" res="2.1403838763944805e-04" rms="4.5264205336570740e-01" purity="5.4026472568511963e-01" nType="-99"/>
          <Node pos="r" depth="2" NCoef="0" IVar="-1" Cut="0.0000000000000000e+00" cType="1" res="-1.6514845192432404e-03" rms="4.5173367857933044e-01" purity="3.8257187604904175e-01" nType="-99"/>
        </Node>
        <Node pos="r" depth="1" NCoef="0" IVar="5" Cut="9.4697225093841553e-01" cType="1" res="-1.8451271578669548e-02" rms="4.5051208138465881e-01" purity="4.2254361510276794e-01" nType="0">
          <Node pos="l" depth="2" NCoef="0" IVar="-1" Cut="0.0000000000000000e+00" cType="1" res="5.8735127095133066e-04" rms="4.3972650170326233e-01" purity="3.3333119750022888e-01" nType="-99"/>
          <Node pos="r" depth="2" NCoef="0" IVar="-1" Cut="0.0000000000000000e+00" cType="1" res="-2.5557754561305046e-03" rms="4.5795252919197083e-01" purity="4.9552232027053833e-01" nType="-99"/>
        </Node>
      </Node>
    </BinaryTree>
    <BinaryTree type="DecisionTree" boostWeight="1.0000000000000000e+00" itree="1029">
      <Node pos="s" depth="0" NCoef="0" IVar="8" Cut="6.4159113168716431e-01" cType="1" res="-2.8687263838946819e-03" rms="4.5246949791908264e-01" purity="4.9657461047172546e-01" nType="0">
        <Node pos="l" depth="1" NCoef="0" IVar="1" Cut="6.0770336914062500e+02" cType="1" res="-2.7016928419470787e-02" rms="4.5551761984825134e-01" purity="5.3339189291000366e-01" nType="0">
          <Node pos="l" depth="2" NCoef="0" IVar="-1" Cut="0.0000000000000000e+00" cType="1" res="-2.7839613612741232e-03" rms="4.6186497807502747e-01" purity="4.5736703276634216e-01" nType="-99"/>
          <Node pos="r" depth="2" NCoef="0" IVar="-1" Cut="0.0000000000000000e+00" cType="1" res="-5.2912853425368667e-04" rms="4.4792822003364563e-01" purity="6.1380136013031006e-01" nType="-99"/>
        </Node>
        <Node pos="r" depth="1" NCoef="0" IVar="6" Cut="1.4724564552307129e+00" cType="1" res="2.6451720623299479e-04" rms="4.5197793841362000e-01" purity="4.9179756641387939e-01" nType="0">
          <Node pos="l" depth="2" NCoef="0" IVar="-1" Cut="0.0000000000000000e+00" cType="1" res="-1.8870396306738257e-03" rms="4.5792552828788757e-01" purity="5.7477200031280518e-01" nType="-99"/>
          <Node pos="r" depth="2" NCoef="0" IVar="-1" Cut="0.0000000000000000e+00" cType="1" res="1.5365921717602760e-04" rms="4.5147702097892761e-01" purity="4.8594322800636292e-01" nType="-99"/>
        </Node>
      </Node>
    </BinaryTree>
    <BinaryTree type="DecisionTree" boostWeight="1.0000000000000000e+00" itree="1030">
      <Node pos="s" depth="0" NCoef="0" IVar="5" Cut="9.4216489791870117e-01" cType="1" res="1.3097128830850124e-03" rms="4.5148003101348877e-01" purity="5.0186032056808472e-01" nType="0">
        <Node pos="l" depth="1" NCoef="0" IVar="3" Cut="2.9807535931468010e-02" cType="1" res="-9.0686222538352013e-03" rms="4.4944626092910767e-01" purity="3.5443529486656189e-01" nType="0">
          <Node pos="l" depth="2" NCoef="0" IVar="-1" Cut="0.0000000000000000e+00" cType="1" res="2.7328741271048784e-04" rms="4.6449863910675049e-01" purity="3.9900389313697815e-01" nType="-99"/>
          <Node pos="r" depth="2" NCoef="0" IVar="-1" Cut="0.0000000000000000e+00" cType="1" res="-1.5408643521368504e-03" rms="4.3270051479339600e-01" purity="3.0785736441612244e-01" nType="-99"/>
        </Node>
        <Node pos="r" depth="1" NCoef="0" IVar="8" Cut="1.5216503143310547e+00" cType="1" res="6.6308993846178055e-03" rms="4.5242691040039062e-01" purity="5.7744818925857544e-01" nType="0">
          <Node pos="l" depth="2" NCoef="0" IVar="-1" Cut="0.0000000000000000e+00" cType="1" res="6.6528096795082092e-04" rms="4.5215666294097900e-01" purity="5.9454643726348877e-01" nType="-99"/>
          <Node pos="r" depth="2" NCoef="0" IVar="-1" Cut="0.0000000000000000e+00" cType="1" res="-9.0502988314256072e-04" rms="4.5329865813255310e-01" purity="4.8519685864448547e-01" nType="-99"/>
        </Node>
      </Node>
    </BinaryTree>
    <BinaryTree type="DecisionTree" boostWeight="1.0000000000000000e+00" itree="1031">
      <Node pos="s" depth="0" NCoef="0" IVar="8" Cut="6.3039231300354004e-01" cType="1" res="-4.4603366404771805e-03" rms="4.5426103472709656e-01" purity="4.9623203277587891e-01" nType="0">
        <Node pos="l" depth="1" NCoef="0" IVar="5" Cut="9.5063227415084839e-01" cType="1" res="2.1644009277224541e-02" rms="4.5288726687431335e-01" purity="5.8427596092224121e-01" nType="0">
          <Node pos="l" depth="2" NCoef="0" IVar="-1" Cut="0.0000000000000000e+00" cType="1" res="2.4601693730801344e-03" rms="4.6893900632858276e-01" purity="4.8797500133514404e-01" nType="-99"/>
          <Node pos="r" depth="2" NCoef="0" IVar="-1" Cut="0.0000000000000000e+00" cType="1" res="1.8525106133893132e-04" rms="4.3645206093788147e-01" purity="6.7458111047744751e-01" nType="-99"/>
        </Node>
        <Node pos="r" depth="1" NCoef="0" IVar="4" Cut="6.8513369560241699e-01" cType="1" res="-7.5914012268185616e-03" rms="4.5432481169700623e-01" purity="4.8567169904708862e-01" nType="0">
          <Node pos="l" depth="2" NCoef="0" IVar="-1" Cut="0.0000000000000000e+00" cType="1" res="-3.1237641815096140e-04" rms="4.5435762405395508e-01" purity="4.8170921206474304e-01" nType="-99"/>
          <Node pos="r" depth="2" NCoef="0" IVar="-1" Cut="0.0000000000000000e+00" cType="1" res="-2.4273653980344534e-03" rms="4.5285582542419434e-01" purity="5.3097021579742432e-01" nType="-99"/>
        </Node>
      </Node>
    </BinaryTree>
    <BinaryTree type="DecisionTree" boostWeight="1.0000000000000000e+00" itree="1032">
      <Node pos="s" depth="0" NCoef="0" IVar="3" Cut="6.1043813824653625e-02" cType="1" res="-1.1352180736139417e-03" rms="4.5451271533966064e-01" purity="5.0093036890029907e-01" nType="0">
        <Node pos="l" depth="1" NCoef="0" IVar="6" Cut="2.1459834575653076e+00" cType="1" res="-6.6737001761794090e-03" rms="4.5752173662185669e-01" purity="5.1920914649963379e-01" nType="0">
          <Node pos="l" depth="2" NCoef="0" IVar="-1" Cut="0.0000000000000000e+00" cType="1" res="-1.1826107511296868e-03" rms="4.5307308435440063e-01" purity="5.6172865629196167e-01" nType="-99"/>
          <Node pos="r" depth="2" NCoef="0" IVar="-1" Cut="0.0000000000000000e+00" cType="1" res="1.9005789363291115e-04" rms="4.6083265542984009e-01" purity="4.8507088422775269e-01" nType="-99"/>
        </Node>
        <Node pos="r" depth="1" NCoef="0" IVar="5" Cut="9.6040403842926025e-01" cType="1" res="9.9897533655166626e-03" rms="4.4820076227188110e-01" purity="4.6421435475349426e-01" nType="0">
          <Node pos="l" depth="2" NCoef="0" IVar="-1" Cut="0.0000000000000000e+00" cType="1" res="4.4059161155018955e-05" rms="4.4806426763534546e-01" purity="3.7581747770309448e-01" nType="-99"/>
          <Node pos="r" depth="2" NCoef="0" IVar="-1" Cut="0.0000000000000000e+00" cType="1" res="1.7399593489244580e-03" rms="4.4794082641601562e-01" purity="6.2862634658813477e-01" nType="-99"/>
        </Node>
      </Node>
    </BinaryTree>
    <BinaryTree type="DecisionTree" boostWeight="1.0000000000000000e+00" itree="1033">
      <Node pos="s" depth="0" NCoef="0" IVar="2" Cut="4.8680934906005859e+01" cType="1" res="-6.4286512497346848e-05" rms="4.5203363895416260e-01" purity="4.9946683645248413e-01" nType="0">
        <Node pos="l" depth="1" NCoef="0" IVar="-1" Cut="0.0000000000000000e+00" cType="1" res="-2.2979956120252609e-03" rms="4.5844429731369019e-01" purity="4.2622378468513489e-01" nType="-99"/>
        <Node pos="r" depth="1" NCoef="0" IVar="6" Cut="2.3271975517272949e+00" cType="1" res="3.9104777388274670e-03" rms="4.5115661621093750e-01" purity="5.0737160444259644e-01" nType="0">
          <Node pos="l" depth="2" NCoef="0" IVar="-1" Cut="0.0000000000000000e+00" cType="1" res="7.7579542994499207e-04" rms="4.5372638106346130e-01" purity="5.7826149463653564e-01" nType="-99"/>
          <Node pos="r" depth="2" NCoef="0" IVar="-1" Cut="0.0000000000000000e+00" cType="1" res="-6.6176394466310740e-04" rms="4.4652396440505981e-01" purity="3.9034700393676758e-01" nType="-99"/>
        </Node>
      </Node>
    </BinaryTree>
    <BinaryTree type="DecisionTree" boostWeight="1.0000000000000000e+00" itree="1034">
      <Node pos="s" depth="0" NCoef="0" IVar="0" Cut="3.8058555126190186e+00" cType="1" res="2.7088737115263939e-03" rms="4.5379039645195007e-01" purity="5.0308734178543091e-01" nType="0">
        <Node pos="l" depth="1" NCoef="0" IVar="9" Cut="6.6263115406036377e-01" cType="1" res="8.3922110497951508e-03" rms="4.6044349670410156e-01" purity="4.3538510799407959e-01" nType="0">
          <Node pos="l" depth="2" NCoef="0" IVar="-1" Cut="0.0000000000000000e+00" cType="1" res="7.6236166933085769e-05" rms="4.6172302961349487e-01" purity="4.5656520128250122e-01" nType="-99"/>
          <Node pos="r" depth="2" NCoef="0" IVar="-1" Cut="0.0000000000000000e+00" cType="1" res="1.4151335926726460e-03" rms="4.5768201351165771e-01" purity="3.9494764804840088e-01" nType="-99"/>
        </Node>
        <Node pos="r" depth="1" NCoef="0" IVar="5" Cut="9.8658311367034912e-01" cType="1" res="-1.2489981018006802e-02" rms="4.3513450026512146e-01" purity="6.8414241075515747e-01" nType="0">
          <Node pos="l" depth="2" NCoef="0" IVar="-1" Cut="0.0000000000000000e+00" cType="1" res="-1.2563837226480246e-03" rms="4.5247009396553040e-01" purity="6.4371645450592041e-01" nType="-99"/>
          <Node pos="r" depth="2" NCoef="0" IVar="-1" Cut="0.0000000000000000e+00" cType="1" res="1.0010626865550876e-03" rms="3.7128034234046936e-01" purity="8.1741923093795776e-01" nType="-99"/>
        </Node>
      </Node>
    </BinaryTree>
    <BinaryTree type="DecisionTree" boostWeight="1.0000000000000000e+00" itree="1035">
      <Node pos="s" depth="0" NCoef="0" IVar="4" Cut="6.6124254465103149e-01" cType="1" res="-2.1107899956405163e-03" rms="4.5463335514068604e-01" purity="4.9731960892677307e-01" nType="0">
        <Node pos="l" depth="1" NCoef="0" IVar="4" Cut="5.9064060449600220e-01" cType="1" res="-5.3297984413802624e-03" rms="4.5536845922470093e-01" purity="4.8630261421203613e-01" nType="0">
          <Node pos="l" depth="2" NCoef="0" IVar="-1" Cut="0.0000000000000000e+00" cType="1" res="-1.0856676817638800e-04" rms="4.5428746938705444e-01" purity="4.8420310020446777e-01" nType="-99"/>
          <Node pos="r" depth="2" NCoef="0" IVar="-1" Cut="0.0000000000000000e+00" cType="1" res="-2.6202858425676823e-03" rms="4.6469238400459290e-01" purity="5.0781762599945068e-01" nType="-99"/>
        </Node>
        <Node pos="r" depth="1" NCoef="0" IVar="-1" Cut="0.0000000000000000e+00" cType="1" res="1.7376400064677000e-03" rms="4.4680166244506836e-01" purity="5.9782874584197998e-01" nType="-99"/>
      </Node>
    </BinaryTree>
    <BinaryTree type="DecisionTree" boostWeight="1.0000000000000000e+00" itree="1036">
      <Node pos="s" depth="0" NCoef="0" IVar="3" Cut="-2.5056583806872368e-02" cType="1" res="-1.3797824503853917e-03" rms="4.5234268903732300e-01" purity="4.9842029809951782e-01" nType="0">
        <Node pos="l" depth="1" NCoef="0" IVar="2" Cut="1.0467874145507812e+02" cType="1" res="-2.0841203629970551e-02" rms="4.4877105951309204e-01" purity="5.3699672222137451e-01" nType="0">
          <Node pos="l" depth="2" NCoef="0" IVar="-1" Cut="0.0000000000000000e+00" cType="1" res="-2.5928090326488018e-03" rms="4.5578190684318542e-01" purity="4.8363700509071350e-01" nType="-99"/>
          <Node pos="r" depth="2" NCoef="0" IVar="-1" Cut="0.0000000000000000e+00" cType="1" res="3.1248925370164216e-04" rms="4.3871885538101196e-01" purity="6.0198032855987549e-01" nType="-99"/>
        </Node>
        <Node pos="r" depth="1" NCoef="0" IVar="0" Cut="2.8646953105926514e+00" cType="1" res="5.0916033796966076e-03" rms="4.5333904027938843e-01" purity="4.8559275269508362e-01" nType="0">
          <Node pos="l" depth="2" NCoef="0" IVar="-1" Cut="0.0000000000000000e+00" cType="1" res="1.0001030750572681e-03" rms="4.5284241437911987e-01" purity="3.7748390436172485e-01" nType="-99"/>
          <Node pos="r" depth="2" NCoef="0" IVar="-1" Cut="0.0000000000000000e+00" cType="1" res="-4.0499921306036413e-04" rms="4.5361635088920593e-01" purity="6.0731089115142822e-01" nType="-99"/>
        </Node>
      </Node>
    </BinaryTree>
    <BinaryTree type="DecisionTree" boostWeight="1.0000000000000000e+00" itree="1037">
      <Node pos="s" depth="0" NCoef="0" IVar="1" Cut="4.6624725341796875e+02" cType="1" res="6.0078813694417477e-03" rms="4.5609280467033386e-01" purity="5.0442266464233398e-01" nType="0">
        <Node pos="l" depth="1" NCoef="0" IVar="3" Cut="-3.5207241773605347e-02" cType="1" res="1.8128031864762306e-02" rms="4.5018726587295532e-01" purity="4.0503010153770447e-01" nType="0">
          <Node pos="l" depth="2" NCoef="0" IVar="-1" Cut="0.0000000000000000e+00" cType="1" res="-1.7674488481134176e-03" rms="4.5021808147430420e-01" purity="4.3567037582397461e-01" nType="-99"/>
          <Node pos="r" depth="2" NCoef="0" IVar="-1" Cut="0.0000000000000000e+00" cType="1" res="2.0819643978029490e-03" rms="4.4930464029312134e-01" purity="3.9632117748260498e-01" nType="-99"/>
        </Node>
        <Node pos="r" depth="1" NCoef="0" IVar="0" Cut="1.7355053424835205e+00" cType="1" res="2.1509927137230989e-06" rms="4.5887234807014465e-01" purity="5.5367338657379150e-01" nType="0">
          <Node pos="l" depth="2" NCoef="0" IVar="-1" Cut="0.0000000000000000e+00" cType="1" res="1.1361237848177552e-03" rms="4.6803000569343567e-01" purity="3.8574832677841187e-01" nType="-99"/>
          <Node pos="r" depth="2" NCoef="0" IVar="-1" Cut="0.0000000000000000e+00" cType="1" res="-2.9551051557064056e-04" rms="4.5627623796463013e-01" purity="5.9852033853530884e-01" nType="-99"/>
        </Node>
      </Node>
    </BinaryTree>
    <BinaryTree type="DecisionTree" boostWeight="1.0000000000000000e+00" itree="1038">
      <Node pos="s" depth="0" NCoef="0" IVar="7" Cut="5.2832740783691406e+01" cType="1" res="7.7572203008458018e-04" rms="4.5379647612571716e-01" purity="5.0006699562072754e-01" nType="0">
        <Node pos="l" depth="1" NCoef="0" IVar="1" Cut="4.2249688720703125e+02" cType="1" res="1.4934684149920940e-02" rms="4.5060840249061584e-01" purity="3.9342430233955383e-01" nType="0">
          <Node pos="l" depth="2" NCoef="0" IVar="-1" Cut="0.0000000000000000e+00" cType="1" res="-3.9516139077022672e-04" rms="4.3254238367080688e-01" purity="3.1846341490745544e-01" nType="-99"/>
          <Node pos="r" depth="2" NCoef="0" IVar="-1" Cut="0.0000000000000000e+00" cType="1" res="2.4142807815223932e-03" rms="4.6983677148818970e-01" purity="4.8167967796325684e-01" nType="-99"/>
        </Node>
        <Node pos="r" depth="1" NCoef="0" IVar="8" Cut="1.2847337722778320e+00" cType="1" res="-3.6322798114269972e-03" rms="4.5469444990158081e-01" purity="5.3326725959777832e-01" nType="0">
          <Node pos="l" depth="2" NCoef="0" IVar="-1" Cut="0.0000000000000000e+00" cType="1" res="1.1413969332352281e-04" rms="4.5524013042449951e-01" purity="5.5792665481567383e-01" nType="-99"/>
          <Node pos="r" depth="2" NCoef="0" IVar="-1" Cut="0.0000000000000000e+00" cType="1" res="-1.0877395980060101e-03" rms="4.5302093029022217e-01" purity="4.7100910544395447e-01" nType="-99"/>
        </Node>
      </Node>
    </BinaryTree>
    <BinaryTree type="DecisionTree" boostWeight="1.0000000000000000e+00" itree="1039">
      <Node pos="s" depth="0" NCoef="0" IVar="7" Cut="8.6436294555664062e+01" cType="1" res="2.2879864554852247e-03" rms="4.5444405078887939e-01" purity="5.0144618749618530e-01" nType="0">
        <Node pos="l" depth="1" NCoef="0" IVar="1" Cut="6.2999877929687500e+02" cType="1" res="-4.2655793949961662e-03" rms="4.5514547824859619e-01" purity="4.6102377772331238e-01" nType="0">
          <Node pos="l" depth="2" NCoef="0" IVar="-1" Cut="0.0000000000000000e+00" cType="1" res="-3.9538885175716132e-05" rms="4.5421981811523438e-01" purity="4.4641560316085815e-01" nType="-99"/>
          <Node pos="r" depth="2" NCoef="0" IVar="-1" Cut="0.0000000000000000e+00" cType="1" res="-1.6254355432465672e-03" rms="4.6012309193611145e-01" purity="5.5004638433456421e-01" nType="-99"/>
        </Node>
        <Node pos="r" depth="1" NCoef="0" IVar="8" Cut="1.2228977680206299e+00" cType="1" res="2.1490156650543213e-02" rms="4.5183563232421875e-01" purity="6.1988520622253418e-01" nType="0">
          <Node pos="l" depth="2" NCoef="0" IVar="-1" Cut="0.0000000000000000e+00" cType="1" res="7.7401852468028665e-04" rms="4.4790431857109070e-01" purity="6.2145882844924927e-01" nType="-99"/>
          <Node pos="r" depth="2" NCoef="0" IVar="-1" Cut="0.0000000000000000e+00" cType="1" res="2.9901338275521994e-03" rms="4.6179041266441345e-01" purity="6.1540246009826660e-01" nType="-99"/>
        </Node>
      </Node>
    </BinaryTree>
    <BinaryTree type="DecisionTree" boostWeight="1.0000000000000000e+00" itree="1040">
      <Node pos="s" depth="0" NCoef="0" IVar="5" Cut="9.0596354007720947e-01" cType="1" res="7.5191999785602093e-03" rms="4.5305502414703369e-01" purity="5.0868171453475952e-01" nType="0">
        <Node pos="l" depth="1" NCoef="0" IVar="-1" Cut="0.0000000000000000e+00" cType="1" res="-2.2213552147150040e-03" rms="4.1989699006080627e-01" purity="2.5502052903175354e-01" nType="-99"/>
        <Node pos="r" depth="1" NCoef="0" IVar="3" Cut="1.3604485988616943e-01" cType="1" res="9.7395824268460274e-03" rms="4.5471802353858948e-01" purity="5.2273434400558472e-01" nType="0">
          <Node pos="l" depth="2" NCoef="0" IVar="-1" Cut="0.0000000000000000e+00" cType="1" res="3.9801132516004145e-04" rms="4.5520451664924622e-01" purity="5.2944564819335938e-01" nType="-99"/>
          <Node pos="r" depth="2" NCoef="0" IVar="-1" Cut="0.0000000000000000e+00" cType="1" res="2.1252434235066175e-03" rms="4.5069742202758789e-01" purity="4.7697627544403076e-01" nType="-99"/>
        </Node>
      </Node>
    </BinaryTree>
    <BinaryTree type="DecisionTree" boostWeight="1.0000000000000000e+00" itree="1041">
      <Node pos="s" depth="0" NCoef="0" IVar="7" Cut="1.2249376678466797e+02" cType="1" res="-2.6911171153187752e-03" rms="4.5472371578216553e-01" purity="4.9514818191528320e-01" nType="0">
        <Node pos="l" depth="1" NCoef="0" IVar="9" Cut="9.5040726661682129e-01" cType="1" res="-5.6959148496389389e-03" rms="4.5637488365173340e-01" purity="4.8182439804077148e-01" nType="0">
          <Node pos="l" depth="2" NCoef="0" IVar="-1" Cut="0.0000000000000000e+00" cType="1" res="-5.8410118799656630e-04" rms="4.5563462376594543e-01" purity="4.9161982536315918e-01" nType="-99"/>
          <Node pos="r" depth="2" NCoef="0" IVar="-1" Cut="0.0000000000000000e+00" cType="1" res="1.4948864700272679e-03" rms="4.6118950843811035e-01" purity="4.0441587567329407e-01" nType="-99"/>
        </Node>
        <Node pos="r" depth="1" NCoef="0" IVar="-1" Cut="0.0000000000000000e+00" cType="1" res="2.2925732191652060e-03" rms="4.3154960870742798e-01" purity="6.6330546140670776e-01" nType="-99"/>
      </Node>
    </BinaryTree>
    <BinaryTree type="DecisionTree" boostWeight="1.0000000000000000e+00" itree="1042">
      <Node pos="s" depth="0" NCoef="0" IVar="9" Cut="1.6945174336433411e-01" cType="1" res="-2.8319132979959249e-03" rms="4.5219799876213074e-01" purity="5.0151556730270386e-01" nType="0">
        <Node pos="l" depth="1" NCoef="0" IVar="-1" Cut="0.0000000000000000e+00" cType="1" res="2.2320216521620750e-03" rms="4.3838188052177429e-01" purity="6.1969387531280518e-01" nType="-99"/>
        <Node pos="r" depth="1" NCoef="0" IVar="4" Cut="6.9307368993759155e-01" cType="1" res="-5.8683301322162151e-03" rms="4.5314452052116394e-01" purity="4.9208676815032959e-01" nType="0">
          <Node pos="l" depth="2" NCoef="0" IVar="-1" Cut="0.0000000000000000e+00" cType="1" res="-5.1524565787985921e-04" rms="4.5323333144187927e-01" purity="4.8346507549285889e-01" nType="-99"/>
          <Node pos="r" depth="2" NCoef="0" IVar="-1" Cut="0.0000000000000000e+00" cType="1" res="1.5565577195957303e-03" rms="4.5092174410820007e-01" purity="6.0526788234710693e-01" nType="-99"/>
        </Node>
      </Node>
    </BinaryTree>
    <BinaryTree type="DecisionTree" boostWeight="1.0000000000000000e+00" itree="1043">
      <Node pos="s" depth="0" NCoef="0" IVar="5" Cut="9.1007018089294434e-01" cType="1" res="2.4278127239085734e-04" rms="4.5439487695693970e-01" purity="4.9923717975616455e-01" nType="0">
        <Node pos="l" depth="1" NCoef="0" IVar="-1" Cut="0.0000000000000000e+00" cType="1" res="2.6119772810488939e-03" rms="4.4437864422798157e-01" purity="3.3579248189926147e-01" nType="-99"/>
        <Node pos="r" depth="1" NCoef="0" IVar="9" Cut="8.5691833496093750e-01" cType="1" res="-2.5637419894337654e-03" rms="4.5497953891754150e-01" purity="5.1101738214492798e-01" nType="0">
          <Node pos="l" depth="2" NCoef="0" IVar="-1" Cut="0.0000000000000000e+00" cType="1" res="9.1913883807137609e-05" rms="4.5427486300468445e-01" purity="5.3341615200042725e-01" nType="-99"/>
          <Node pos="r" depth="2" NCoef="0" IVar="-1" Cut="0.0000000000000000e+00" cType="1" res="-1.4856327325105667e-03" rms="4.5805299282073975e-01" purity="3.9461192488670349e-01" nType="-99"/>
        </Node>
      </Node>
    </BinaryTree>
    <BinaryTree type="DecisionTree" boostWeight="1.0000000000000000e+00" itree="1044">
      <Node pos="s" depth="0" NCoef="0" IVar="9" Cut="9.0001457929611206e-01" cType="1" res="4.0565277449786663e-03" rms="4.5443525910377502e-01" purity="5.0534349679946899e-01" nType="0">
        <Node pos="l" depth="1" NCoef="0" IVar="6" Cut="2.3871300220489502e+00" cType="1" res="8.7859207997098565e-04" rms="4.5415729284286499e-01" purity="5.1869881153106689e-01" nType="0">
          <Node pos="l" depth="2" NCoef="0" IVar="-1" Cut="0.0000000000000000e+00" cType="1" res="4.2121668229810894e-04" rms="4.5650693774223328e-01" purity="5.6106287240982056e-01" nType="-99"/>
          <Node pos="r" depth="2" NCoef="0" IVar="-1" Cut="0.0000000000000000e+00" cType="1" res="-1.1993648950010538e-03" rms="4.4588768482208252e-01" purity="3.8078817725181580e-01" nType="-99"/>
        </Node>
        <Node pos="r" depth="1" NCoef="0" IVar="6" Cut="2.4371061325073242e+00" cType="1" res="2.3537423461675644e-02" rms="4.5565137267112732e-01" purity="4.2347478866577148e-01" nType="0">
          <Node pos="l" depth="2" NCoef="0" IVar="-1" Cut="0.0000000000000000e+00" cType="1" res="4.0902974433265626e-04" rms="4.6382418274879456e-01" purity="4.8500156402587891e-01" nType="-99"/>
          <Node pos="r" depth="2" NCoef="0" IVar="-1" Cut="0.0000000000000000e+00" cType="1" res="2.4130712263286114e-03" rms="4.4926699995994568e-01" purity="3.7903699278831482e-01" nType="-99"/>
        </Node>
      </Node>
    </BinaryTree>
    <BinaryTree type="DecisionTree" boostWeight="1.0000000000000000e+00" itree="1045">
      <Node pos="s" depth="0" NCoef="0" IVar="2" Cut="1.0695841217041016e+02" cType="1" res="-1.5065682819113135e-03" rms="4.5128995180130005e-01" purity="5.0193077325820923e-01" nType="0">
        <Node pos="l" depth="1" NCoef="0" IVar="5" Cut="9.8022460937500000e-01" cType="1" res="-9.7631560638546944e-03" rms="4.5366129279136658e-01" purity="4.7263523936271667e-01" nType="0">
          <Node pos="l" depth="2" NCoef="0" IVar="-1" Cut="0.0000000000000000e+00" cType="1" res="-9.2478172155097127e-04" rms="4.6000656485557556e-01" purity="4.2384305596351624e-01" nType="-99"/>
          <Node pos="r" depth="2" NCoef="0" IVar="-1" Cut="0.0000000000000000e+00" cType="1" res="1.4915677020326257e-03" rms="4.1530069708824158e-01" purity="7.4416643381118774e-01" nType="-99"/>
        </Node>
        <Node pos="r" depth="1" NCoef="0" IVar="2" Cut="1.2656019592285156e+02" cType="1" res="9.5162410289049149e-03" rms="4.4786739349365234e-01" purity="5.4104125499725342e-01" nType="0">
          <Node pos="l" depth="2" NCoef="0" IVar="-1" Cut="0.0000000000000000e+00" cType="1" res="2.0685098133981228e-03" rms="4.4452643394470215e-01" purity="5.7783049345016479e-01" nType="-99"/>
          <Node pos="r" depth="2" NCoef="0" IVar="-1" Cut="0.0000000000000000e+00" cType="1" res="-1.8204962543677539e-04" rms="4.4916179776191711e-01" purity="5.2132236957550049e-01" nType="-99"/>
        </Node>
      </Node>
    </BinaryTree>
    <BinaryTree type="DecisionTree" boostWeight="1.0000000000000000e+00" itree="1046">
      <Node pos="s" depth="0" NCoef="0" IVar="5" Cut="9.0596354007720947e-01" cType="1" res="-6.4729730365797877e-04" rms="4.5288830995559692e-01" purity="4.9994698166847229e-01" nType="0">
        <Node pos="l" depth="1" NCoef="0" IVar="-1" Cut="0.0000000000000000e+00" cType="1" res="-3.0767861753702164e-03" rms="4.0282642841339111e-01" purity="2.4208575487136841e-01" nType="-99"/>
        <Node pos="r" depth="1" NCoef="0" IVar="3" Cut="-6.3957944512367249e-02" cType="1" res="1.7019899096339941e-03" rms="4.5529371500015259e-01" purity="5.1375037431716919e-01" nType="0">
          <Node pos="l" depth="2" NCoef="0" IVar="-1" Cut="0.0000000000000000e+00" cType="1" res="-1.5943882754072547e-03" rms="4.5294249057769775e-01" purity="5.6423377990722656e-01" nType="-99"/>
          <Node pos="r" depth="2" NCoef="0" IVar="-1" Cut="0.0000000000000000e+00" cType="1" res="2.4383784329984337e-04" rms="4.5541897416114807e-01" purity="5.0958472490310669e-01" nType="-99"/>
        </Node>
      </Node>
    </BinaryTree>
    <BinaryTree type="DecisionTree" boostWeight="1.0000000000000000e+00" itree="1047">
      <Node pos="s" depth="0" NCoef="0" IVar="8" Cut="6.3549011945724487e-01" cType="1" res="2.7218770701438189e-03" rms="4.5084667205810547e-01" purity="5.0017285346984863e-01" nType="0">
        <Node pos="l" depth="1" NCoef="0" IVar="8" Cut="5.5392587184906006e-01" cType="1" res="3.1398929655551910e-02" rms="4.4574612379074097e-01" purity="5.9485709667205811e-01" nType="0">
          <Node pos="l" depth="2" NCoef="0" IVar="-1" Cut="0.0000000000000000e+00" cType="1" res="3.3333648461848497e-03" rms="4.3757620453834534e-01" purity="6.2168157100677490e-01" nType="-99"/>
          <Node pos="r" depth="2" NCoef="0" IVar="-1" Cut="0.0000000000000000e+00" cType="1" res="7.8693754039704800e-04" rms="4.5195120573043823e-01" purity="5.7128238677978516e-01" nType="-99"/>
        </Node>
        <Node pos="r" depth="1" NCoef="0" IVar="8" Cut="7.0670366287231445e-01" cType="1" res="-8.8816351490095258e-04" rms="4.5135557651519775e-01" purity="4.8825344443321228e-01" nType="0">
          <Node pos="l" depth="2" NCoef="0" IVar="-1" Cut="0.0000000000000000e+00" cType="1" res="-3.1367265619337559e-03" rms="4.4509017467498779e-01" purity="4.9047240614891052e-01" nType="-99"/>
          <Node pos="r" depth="2" NCoef="0" IVar="-1" Cut="0.0000000000000000e+00" cType="1" res="1.7643693718127906e-04" rms="4.5161086320877075e-01" purity="4.8808616399765015e-01" nType="-99"/>
        </Node>
      </Node>
    </BinaryTree>
    <BinaryTree type="DecisionTree" boostWeight="1.0000000000000000e+00" itree="1048">
      <Node pos="s" depth="0" NCoef="0" IVar="7" Cut="1.2721592712402344e+02" cType="1" res="3.1302208080887794e-03" rms="4.5412790775299072e-01" purity="5.0516390800476074e-01" nType="0">
        <Node pos="l" depth="1" NCoef="0" IVar="4" Cut="7.1858650445938110e-01" cType="1" res="5.2762804552912712e-03" rms="4.5403307676315308e-01" purity="4.9854332208633423e-01" nType="0">
          <Node pos="l" depth="2" NCoef="0" IVar="-1" Cut="0.0000000000000000e+00" cType="1" res="4.3600433855317533e-04" rms="4.5384889841079712e-01" purity="4.9547934532165527e-01" nType="-99"/>
          <Node pos="r" depth="2" NCoef="0" IVar="-1" Cut="0.0000000000000000e+00" cType="1" res="-1.4961098786443472e-03" rms="4.5624041557312012e-01" purity="5.5070155858993530e-01" nType="-99"/>
        </Node>
        <Node pos="r" depth="1" NCoef="0" IVar="-1" Cut="0.0000000000000000e+00" cType="1" res="-1.8642876530066133e-03" rms="4.5434817671775818e-01" purity="6.0284233093261719e-01" nType="-99"/>
      </Node>
    </BinaryTree>
    <BinaryTree type="DecisionTree" boostWeight="1.0000000000000000e+00" itree="1049">
      <Node pos="s" depth="0" NCoef="0" IVar="3" Cut="-2.7407804504036903e-02" cType="1" res="-6.8823341280221939e-04" rms="4.5399633049964905e-01" purity="4.9695247411727905e-01" nType="0">
        <Node pos="l" depth="1" NCoef="0" IVar="4" Cut="4.2147943377494812e-01" cType="1" res="-2.0477686077356339e-02" rms="4.5379945635795593e-01" purity="5.3008925914764404e-01" nType="0">
          <Node pos="l" depth="2" NCoef="0" IVar="-1" Cut="0.0000000000000000e+00" cType="1" res="-3.4017225261777639e-03" rms="4.4977545738220215e-01" purity="4.4826555252075195e-01" nType="-99"/>
          <Node pos="r" depth="2" NCoef="0" IVar="-1" Cut="0.0000000000000000e+00" cType="1" res="-5.9816130669787526e-04" rms="4.5455113053321838e-01" purity="5.5659931898117065e-01" nType="-99"/>
        </Node>
        <Node pos="r" depth="1" NCoef="0" IVar="5" Cut="9.6796923875808716e-01" cType="1" res="5.3829378448426723e-03" rms="4.5388379693031311e-01" purity="4.8678645491600037e-01" nType="0">
          <Node pos="l" depth="2" NCoef="0" IVar="-1" Cut="0.0000000000000000e+00" cType="1" res="6.3574046362191439e-04" rms="4.5665878057479858e-01" purity="4.2436814308166504e-01" nType="-99"/>
          <Node pos="r" depth="2" NCoef="0" IVar="-1" Cut="0.0000000000000000e+00" cType="1" res="-5.2106799557805061e-04" rms="4.4610366225242615e-01" purity="6.5393269062042236e-01" nType="-99"/>
        </Node>
      </Node>
    </BinaryTree>
    <BinaryTree type="DecisionTree" boostWeight="1.0000000000000000e+00" itree="1050">
      <Node pos="s" depth="0" NCoef="0" IVar="8" Cut="1.5611195564270020e+00" cType="1" res="-2.7766022831201553e-03" rms="4.5144355297088623e-01" purity="4.9736168980598450e-01" nType="0">
        <Node pos="l" depth="1" NCoef="0" IVar="1" Cut="4.5620101928710938e+02" cType="1" res="4.9680419033393264e-04" rms="4.5405894517898560e-01" purity="5.1359772682189941e-01" nType="0">
          <Node pos="l" depth="2" NCoef="0" IVar="-1" Cut="0.0000000000000000e+00" cType="1" res="9.9935149773955345e-04" rms="4.4991448521614075e-01" purity="4.1680204868316650e-01" nType="-99"/>
          <Node pos="r" depth="2" NCoef="0" IVar="-1" Cut="0.0000000000000000e+00" cType="1" res="-3.2614151132293046e-04" rms="4.5551136136054993e-01" purity="5.5079394578933716e-01" nType="-99"/>
        </Node>
        <Node pos="r" depth="1" NCoef="0" IVar="9" Cut="5.1196539402008057e-01" cType="1" res="-2.2252919152379036e-02" rms="4.3504878878593445e-01" purity="4.0075963735580444e-01" nType="0">
          <Node pos="l" depth="2" NCoef="0" IVar="-1" Cut="0.0000000000000000e+00" cType="1" res="5.4993957746773958e-04" rms="4.3987631797790527e-01" purity="4.6693819761276245e-01" nType="-99"/>
          <Node pos="r" depth="2" NCoef="0" IVar="-1" Cut="0.0000000000000000e+00" cType="1" res="-3.0107453931123018e-03" rms="4.2987811565399170e-01" purity="3.5055178403854370e-01" nType="-99"/>
        </Node>
      </Node>
    </BinaryTree>
    <BinaryTree type="DecisionTree" boostWeight="1.0000000000000000e+00" itree="1051">
      <Node pos="s" depth="0" NCoef="0" IVar="0" Cut="3.0733048915863037e+00" cType="1" res="1.8731574527919292e-03" rms="4.5122700929641724e-01" purity="5.0375443696975708e-01" nType="0">
        <Node pos="l" depth="1" NCoef="0" IVar="0" Cut="2.3080997467041016e+00" cType="1" res="-6.2118424102663994e-03" rms="4.5796227455139160e-01" purity="3.8538566231727600e-01" nType="0">
          <Node pos="l" depth="2" NCoef="0" IVar="-1" Cut="0.0000000000000000e+00" cType="1" res="2.7460334240458906e-04" rms="4.5173573493957520e-01" purity="3.5102182626724243e-01" nType="-99"/>
          <Node pos="r" depth="2" NCoef="0" IVar="-1" Cut="0.0000000000000000e+00" cType="1" res="-1.5463096788153052e-03" rms="4.6925798058509827e-01" purity="4.5271891355514526e-01" nType="-99"/>
        </Node>
        <Node pos="r" depth="1" NCoef="0" IVar="8" Cut="7.4833256006240845e-01" cType="1" res="1.2682963162660599e-02" rms="4.4183042645454407e-01" purity="6.6201579570770264e-01" nType="0">
          <Node pos="l" depth="2" NCoef="0" IVar="-1" Cut="0.0000000000000000e+00" cType="1" res="-7.2692293906584382e-04" rms="4.3263447284698486e-01" purity="6.9022208452224731e-01" nType="-99"/>
          <Node pos="r" depth="2" NCoef="0" IVar="-1" Cut="0.0000000000000000e+00" cType="1" res="1.1975452071055770e-03" rms="4.4413304328918457e-01" purity="6.5417736768722534e-01" nType="-99"/>
        </Node>
      </Node>
    </BinaryTree>
    <BinaryTree type="DecisionTree" boostWeight="1.0000000000000000e+00" itree="1052">
      <Node pos="s" depth="0" NCoef="0" IVar="8" Cut="1.6071330308914185e+00" cType="1" res="-4.0941997431218624e-03" rms="4.5285508036613464e-01" purity="4.9670299887657166e-01" nType="0">
        <Node pos="l" depth="1" NCoef="0" IVar="9" Cut="2.4959038197994232e-01" cType="1" res="-7.6146768406033516e-03" rms="4.5362985134124756e-01" purity="5.0316691398620605e-01" nType="0">
          <Node pos="l" depth="2" NCoef="0" IVar="-1" Cut="0.0000000000000000e+00" cType="1" res="8.9802121510729194e-04" rms="4.5108258724212646e-01" purity="5.8003050088882446e-01" nType="-99"/>
          <Node pos="r" depth="2" NCoef="0" IVar="-1" Cut="0.0000000000000000e+00" cType="1" res="-7.3283689562231302e-04" rms="4.5398125052452087e-01" purity="4.8906710743904114e-01" nType="-99"/>
        </Node>
        <Node pos="r" depth="1" NCoef="0" IVar="8" Cut="1.8460953235626221e+00" cType="1" res="2.1295361220836639e-02" rms="4.4640624523162842e-01" purity="4.5008513331413269e-01" nType="0">
          <Node pos="l" depth="2" NCoef="0" IVar="-1" Cut="0.0000000000000000e+00" cType="1" res="2.7660466730594635e-03" rms="4.5387265086174011e-01" purity="4.6396124362945557e-01" nType="-99"/>
          <Node pos="r" depth="2" NCoef="0" IVar="-1" Cut="0.0000000000000000e+00" cType="1" res="-3.7546188104897738e-04" rms="4.3532282114028931e-01" purity="4.3261775374412537e-01" nType="-99"/>
        </Node>
      </Node>
    </BinaryTree>
    <BinaryTree type="DecisionTree" boostWeight="1.0000000000000000e+00" itree="1053">
      <Node pos="s" depth="0" NCoef="0" IVar="4" Cut="2.3124912381172180e-01" cType="1" res="1.0834047570824623e-03" rms="4.5287254452705383e-01" purity="5.0397360324859619e-01" nType="0">
        <Node pos="l" depth="1" NCoef="0" IVar="1" Cut="7.3616113281250000e+02" cType="1" res="1.6255436465144157e-02" rms="4.5104882121086121e-01" purity="4.4329765439033508e-01" nType="0">
          <Node pos="l" depth="2" NCoef="0" IVar="-1" Cut="0.0000000000000000e+00" cType="1" res="2.6709696976467967e-04" rms="4.4825387001037598e-01" purity="3.9259326457977295e-01" nType="-99"/>
          <Node pos="r" depth="2" NCoef="0" IVar="-1" Cut="0.0000000000000000e+00" cType="1" res="3.2594141084700823e-03" rms="4.5741531252861023e-01" purity="5.9609615802764893e-01" nType="-99"/>
        </Node>
        <Node pos="r" depth="1" NCoef="0" IVar="3" Cut="5.8505449444055557e-02" cType="1" res="-3.1661274842917919e-03" rms="4.5329099893569946e-01" purity="5.2096831798553467e-01" nType="0">
          <Node pos="l" depth="2" NCoef="0" IVar="-1" Cut="0.0000000000000000e+00" cType="1" res="1.9465622608549893e-04" rms="4.5475706458091736e-01" purity="5.4032152891159058e-01" nType="-99"/>
          <Node pos="r" depth="2" NCoef="0" IVar="-1" Cut="0.0000000000000000e+00" cType="1" res="-1.4941835543140769e-03" rms="4.4787019491195679e-01" purity="4.5787182450294495e-01" nType="-99"/>
        </Node>
      </Node>
    </BinaryTree>
    <BinaryTree type="DecisionTree" boostWeight="1.0000000000000000e+00" itree="1054">
      <Node pos="s" depth="0" NCoef="0" IVar="3" Cut="3.8687024265527725e-02" cType="1" res="2.1584062778856605e-05" rms="4.5382344722747803e-01" purity="5.0142341852188110e-01" nType="0">
        <Node pos="l" depth="1" NCoef="0" IVar="0" Cut="2.6522042751312256e+00" cType="1" res="9.3953348696231842e-03" rms="4.5520386099815369e-01" purity="5.4018616676330566e-01" nType="0">
          <Node pos="l" depth="2" NCoef="0" IVar="-1" Cut="0.0000000000000000e+00" cType="1" res="1.1450482998043299e-03" rms="4.6650829911231995e-01" purity="4.0995976328849792e-01" nType="-99"/>
          <Node pos="r" depth="2" NCoef="0" IVar="-1" Cut="0.0000000000000000e+00" cType="1" res="8.9348817709833384e-05" rms="4.4488999247550964e-01" purity="6.5450835227966309e-01" nType="-99"/>
        </Node>
        <Node pos="r" depth="1" NCoef="0" IVar="4" Cut="1.7664870619773865e-01" cType="1" res="-1.2641141191124916e-02" rms="4.5164313912391663e-01" purity="4.4905999302864075e-01" nType="0">
          <Node pos="l" depth="2" NCoef="0" IVar="-1" Cut="0.0000000000000000e+00" cType="1" res="1.1773710139095783e-03" rms="4.4547429680824280e-01" purity="4.2682668566703796e-01" nType="-99"/>
          <Node pos="r" depth="2" NCoef="0" IVar="-1" Cut="0.0000000000000000e+00" cType="1" res="-1.4637957792729139e-03" rms="4.5327094197273254e-01" purity="4.5671239495277405e-01" nType="-99"/>
        </Node>
      </Node>
    </BinaryTree>
    <BinaryTree type="DecisionTree" boostWeight="1.0000000000000000e+00" itree="1055">
      <Node pos="s" depth="0" NCoef="0" IVar="9" Cut="9.4268298149108887e-01" cType="1" res="6.9765007356181741e-04" rms="4.5443907380104065e-01" purity="5.0053095817565918e-01" nType="0">
        <Node pos="l" depth="1" NCoef="0" IVar="2" Cut="1.6078834533691406e+02" cType="1" res="4.6033957041800022e-03" rms="4.5544713735580444e-01" purity="5.1751679182052612e-01" nType="0">
          <Node pos="l" depth="2" NCoef="0" IVar="-1" Cut="0.0000000000000000e+00" cType="1" res="9.9795499409083277e-05" rms="4.5496174693107605e-01" purity="5.1158577203750610e-01" nType="-99"/>
          <Node pos="r" depth="2" NCoef="0" IVar="-1" Cut="0.0000000000000000e+00" cType="1" res="1.8170393304899335e-03" rms="4.5854294300079346e-01" purity="5.6388896703720093e-01" nType="-99"/>
        </Node>
        <Node pos="r" depth="1" NCoef="0" IVar="6" Cut="2.4802548885345459e+00" cType="1" res="-3.1394671648740768e-02" rms="4.4477301836013794e-01" purity="3.6096358299255371e-01" nType="0">
          <Node pos="l" depth="2" NCoef="0" IVar="-1" Cut="0.0000000000000000e+00" cType="1" res="-3.0611411202698946e-03" rms="4.7133499383926392e-01" purity="4.1464433073997498e-01" nType="-99"/>
          <Node pos="r" depth="2" NCoef="0" IVar="-1" Cut="0.0000000000000000e+00" cType="1" res="-1.0807062499225140e-03" rms="4.1890650987625122e-01" purity="3.1287571787834167e-01" nType="-99"/>
        </Node>
      </Node>
    </BinaryTree>
    <BinaryTree type="DecisionTree" boostWeight="1.0000000000000000e+00" itree="1056">
      <Node pos="s" depth="0" NCoef="0" IVar="7" Cut="1.2040799713134766e+02" cType="1" res="-4.3540485203266144e-03" rms="4.5296683907508850e-01" purity="4.9671995639801025e-01" nType="0">
        <Node pos="l" depth="1" NCoef="0" IVar="7" Cut="7.9276603698730469e+01" cType="1" res="-7.0058926939964294e-03" rms="4.5407617092132568e-01" purity="4.8387449979782104e-01" nType="0">
          <Node pos="l" depth="2" NCoef="0" IVar="-1" Cut="0.0000000000000000e+00" cType="1" res="1.0950688192679081e-05" rms="4.5302027463912964e-01" purity="4.5789831876754761e-01" nType="-99"/>
          <Node pos="r" depth="2" NCoef="0" IVar="-1" Cut="0.0000000000000000e+00" cType="1" res="-1.6019768081605434e-03" rms="4.5628598332405090e-01" purity="5.5156415700912476e-01" nType="-99"/>
        </Node>
        <Node pos="r" depth="1" NCoef="0" IVar="-1" Cut="0.0000000000000000e+00" cType="1" res="1.9805030897259712e-03" rms="4.3677812814712524e-01" purity="6.6417580842971802e-01" nType="-99"/>
      </Node>
    </BinaryTree>
    <BinaryTree type="DecisionTree" boostWeight="1.0000000000000000e+00" itree="1057">
      <Node pos="s" depth="0" NCoef="0" IVar="8" Cut="1.4846048355102539e+00" cType="1" res="-4.4551151804625988e-03" rms="4.5452687144279480e-01" purity="4.9315828084945679e-01" nType="0">
        <Node pos="l" depth="1" NCoef="0" IVar="3" Cut="-5.7769723236560822e-02" cType="1" res="-8.6059095337986946e-03" rms="4.5540326833724976e-01" purity="5.0507414340972900e-01" nType="0">
          <Node pos="l" depth="2" NCoef="0" IVar="-1" Cut="0.0000000000000000e+00" cType="1" res="1.1035907082259655e-03" rms="4.5001083612442017e-01" purity="6.0429978370666504e-01" nType="-99"/>
          <Node pos="r" depth="2" NCoef="0" IVar="-1" Cut="0.0000000000000000e+00" cType="1" res="-7.3220563353970647e-04" rms="4.5592448115348816e-01" purity="4.9361839890480042e-01" nType="-99"/>
        </Node>
        <Node pos="r" depth="1" NCoef="0" IVar="4" Cut="3.0776113271713257e-01" cType="1" res="1.4121272601187229e-02" rms="4.5011502504348755e-01" purity="4.3983018398284912e-01" nType="0">
          <Node pos="l" depth="2" NCoef="0" IVar="-1" Cut="0.0000000000000000e+00" cType="1" res="2.8521658387035131e-03" rms="4.3801414966583252e-01" purity="3.9429727196693420e-01" nType="-99"/>
          <Node pos="r" depth="2" NCoef="0" IVar="-1" Cut="0.0000000000000000e+00" cType="1" res="-1.8641007773112506e-04" rms="4.5654594898223877e-01" purity="4.6778509020805359e-01" nType="-99"/>
        </Node>
      </Node>
    </BinaryTree>
    <BinaryTree type="DecisionTree" boostWeight="1.0000000000000000e+00" itree="1058">
      <Node pos="s" depth="0" NCoef="0" IVar="7" Cut="9.8031021118164062e+01" cType="1" res="8.4808319807052612e-03" rms="4.5315977931022644e-01" purity="5.1133602857589722e-01" nType="0">
        <Node pos="l" depth="1" NCoef="0" IVar="2" Cut="6.0140712738037109e+01" cType="1" res="1.3778311200439930e-02" rms="4.5315912365913391e-01" purity="4.9448874592781067e-01" nType="0">
          <Node pos="l" depth="2" NCoef="0" IVar="-1" Cut="0.0000000000000000e+00" cType="1" res="-5.1015516510233283e-04" rms="4.6156033873558044e-01" purity="4.5924994349479675e-01" nType="-99"/>
          <Node pos="r" depth="2" NCoef="0" IVar="-1" Cut="0.0000000000000000e+00" cType="1" res="1.2312616454437375e-03" rms="4.5081236958503723e-01" purity="5.0350201129913330e-01" nType="-99"/>
        </Node>
        <Node pos="r" depth="1" NCoef="0" IVar="5" Cut="9.4461095333099365e-01" cType="1" res="-1.7347872257232666e-02" rms="4.5227506756782532e-01" purity="5.9347760677337646e-01" nType="0">
          <Node pos="l" depth="2" NCoef="0" IVar="-1" Cut="0.0000000000000000e+00" cType="1" res="-2.7544850017875433e-03" rms="4.7611790895462036e-01" purity="4.3599820137023926e-01" nType="-99"/>
          <Node pos="r" depth="2" NCoef="0" IVar="-1" Cut="0.0000000000000000e+00" cType="1" res="-1.2037919805152342e-04" rms="4.3833333253860474e-01" purity="6.7683529853820801e-01" nType="-99"/>
        </Node>
      </Node>
    </BinaryTree>
    <BinaryTree type="DecisionTree" boostWeight="1.0000000000000000e+00" itree="1059">
      <Node pos="s" depth="0" NCoef="0" IVar="3" Cut="1.8604557216167450e-01" cType="1" res="-2.1746351849287748e-03" rms="4.5397150516510010e-01" purity="4.9879783391952515e-01" nType="0">
        <Node pos="l" depth="1" NCoef="0" IVar="2" Cut="1.3537031555175781e+02" cType="1" res="-4.4273696839809418e-03" rms="4.5385158061981201e-01" purity="5.0024998188018799e-01" nType="0">
          <Node pos="l" depth="2" NCoef="0" IVar="-1" Cut="0.0000000000000000e+00" cType="1" res="6.2553328461945057e-05" rms="4.5511752367019653e-01" purity="5.0036299228668213e-01" nType="-99"/>
          <Node pos="r" depth="2" NCoef="0" IVar="-1" Cut="0.0000000000000000e+00" cType="1" res="-1.5169715043157339e-03" rms="4.4886529445648193e-01" purity="4.9985349178314209e-01" nType="-99"/>
        </Node>
        <Node pos="r" depth="1" NCoef="0" IVar="-1" Cut="0.0000000000000000e+00" cType="1" res="2.5394312106072903e-03" rms="4.5417529344558716e-01" purity="4.7196248173713684e-01" nType="-99"/>
      </Node>
    </BinaryTree>
    <BinaryTree type="DecisionTree" boostWeight="1.0000000000000000e+00" itree="1060">
      <Node pos="s" depth="0" NCoef="0" IVar="9" Cut="2.1181975305080414e-01" cType="1" res="-3.7174625322222710e-03" rms="4.5234119892120361e-01" purity="4.9475228786468506e-01" nType="0">
        <Node pos="l" depth="1" NCoef="0" IVar="2" Cut="9.4691513061523438e+01" cType="1" res="-3.2029706984758377e-02" rms="4.5311263203620911e-01" purity="5.3302460908889771e-01" nType="0">
          <Node pos="l" depth="2" NCoef="0" IVar="-1" Cut="0.0000000000000000e+00" cType="1" res="-1.2441532453522086e-03" rms="4.5471128821372986e-01" purity="5.0193959474563599e-01" nType="-99"/>
          <Node pos="r" depth="2" NCoef="0" IVar="-1" Cut="0.0000000000000000e+00" cType="1" res="-2.9785940423607826e-03" rms="4.5094430446624756e-01" purity="5.6751829385757446e-01" nType="-99"/>
        </Node>
        <Node pos="r" depth="1" NCoef="0" IVar="5" Cut="9.6815979480743408e-01" cType="1" res="-2.7706183027476072e-04" rms="4.5212656259536743e-01" purity="4.9010160565376282e-01" nType="0">
          <Node pos="l" depth="2" NCoef="0" IVar="-1" Cut="0.0000000000000000e+00" cType="1" res="-3.1600595684722066e-04" rms="4.5776772499084473e-01" purity="4.1630065441131592e-01" nType="-99"/>
          <Node pos="r" depth="2" NCoef="0" IVar="-1" Cut="0.0000000000000000e+00" cType="1" res="8.1577745731920004e-04" rms="4.3713787198066711e-01" purity="6.7869836091995239e-01" nType="-99"/>
        </Node>
      </Node>
    </BinaryTree>
    <BinaryTree type="DecisionTree" boostWeight="1.0000000000000000e+00" itree="1061">
      <Node pos="s" depth="0" NCoef="0" IVar="4" Cut="4.9455145001411438e-01" cType="1" res="-3.3795589115470648e-03" rms="4.5395064353942871e-01" purity="4.9698826670646667e-01" nType="0">
        <Node pos="l" depth="1" NCoef="0" IVar="3" Cut="1.5588255226612091e-01" cType="1" res="1.7689984524622560e-03" rms="4.5224657654762268e-01" purity="4.7902104258537292e-01" nType="0">
          <Node pos="l" depth="2" NCoef="0" IVar="-1" Cut="0.0000000000000000e+00" cType="1" res="3.5853267763741314e-04" rms="4.5375713706016541e-01" purity="4.8974454402923584e-01" nType="-99"/>
          <Node pos="r" depth="2" NCoef="0" IVar="-1" Cut="0.0000000000000000e+00" cType="1" res="-1.5081509482115507e-03" rms="4.4168689846992493e-01" purity="4.1068482398986816e-01" nType="-99"/>
        </Node>
        <Node pos="r" depth="1" NCoef="0" IVar="3" Cut="-5.2551077678799629e-03" cType="1" res="-1.4556730166077614e-02" rms="4.5742878317832947e-01" purity="5.3599399328231812e-01" nType="0">
          <Node pos="l" depth="2" NCoef="0" IVar="-1" Cut="0.0000000000000000e+00" cType="1" res="-3.1210354063659906e-04" rms="4.5724943280220032e-01" purity="5.5772614479064941e-01" nType="-99"/>
          <Node pos="r" depth="2" NCoef="0" IVar="-1" Cut="0.0000000000000000e+00" cType="1" res="-2.1651803981512785e-03" rms="4.5714706182479858e-01" purity="4.9052006006240845e-01" nType="-99"/>
        </Node>
      </Node>
    </BinaryTree>
    <BinaryTree type="DecisionTree" boostWeight="1.0000000000000000e+00" itree="1062">
      <Node pos="s" depth="0" NCoef="0" IVar="3" Cut="1.5411174297332764e-01" cType="1" res="-1.4777949545532465e-03" rms="4.5052945613861084e-01" purity="4.9734050035476685e-01" nType="0">
        <Node pos="l" depth="1" NCoef="0" IVar="3" Cut="5.0462923943996429e-02" cType="1" res="-4.4274232350289822e-03" rms="4.5019280910491943e-01" purity="5.0120329856872559e-01" nType="0">
          <Node pos="l" depth="2" NCoef="0" IVar="-1" Cut="0.0000000000000000e+00" cType="1" res="1.6479358600918204e-04" rms="4.5269349217414856e-01" purity="5.2794218063354492e-01" nType="-99"/>
          <Node pos="r" depth="2" NCoef="0" IVar="-1" Cut="0.0000000000000000e+00" cType="1" res="-1.2998089659959078e-03" rms="4.4410252571105957e-01" purity="4.4101157784461975e-01" nType="-99"/>
        </Node>
        <Node pos="r" depth="1" NCoef="0" IVar="-1" Cut="0.0000000000000000e+00" cType="1" res="1.8455114914104342e-03" rms="4.5283144712448120e-01" purity="4.5857012271881104e-01" nType="-99"/>
      </Node>
    </BinaryTree>
    <BinaryTree type="DecisionTree" boostWeight="1.0000000000000000e+00" itree="1063">
      <Node pos="s" depth="0" NCoef="0" IVar="6" Cut="2.5054419040679932e+00" cType="1" res="2.1760708186775446e-03" rms="4.5437511801719666e-01" purity="5.0133013725280762e-01" nType="0">
        <Node pos="l" depth="1" NCoef="0" IVar="5" Cut="9.1372227668762207e-01" cType="1" res="-1.5575487632304430e-03" rms="4.5711702108383179e-01" purity="5.3705453872680664e-01" nType="0">
          <Node pos="l" depth="2" NCoef="0" IVar="-1" Cut="0.0000000000000000e+00" cType="1" res="1.6169790178537369e-03" rms="4.5025673508644104e-01" purity="3.5263139009475708e-01" nType="-99"/>
          <Node pos="r" depth="2" NCoef="0" IVar="-1" Cut="0.0000000000000000e+00" cType="1" res="-2.5492435088381171e-04" rms="4.5766380429267883e-01" purity="5.5414420366287231e-01" nType="-99"/>
        </Node>
        <Node pos="r" depth="1" NCoef="0" IVar="3" Cut="3.3255636692047119e-02" cType="1" res="1.6952238976955414e-02" rms="4.4304889440536499e-01" purity="3.5994729399681091e-01" nType="0">
          <Node pos="l" depth="2" NCoef="0" IVar="-1" Cut="0.0000000000000000e+00" cType="1" res="2.4886988103389740e-03" rms="4.6458521485328674e-01" purity="4.2554706335067749e-01" nType="-99"/>
          <Node pos="r" depth="2" NCoef="0" IVar="-1" Cut="0.0000000000000000e+00" cType="1" res="1.7589841445442289e-04" rms="4.2763638496398926e-01" purity="3.1667560338973999e-01" nType="-99"/>
        </Node>
      </Node>
    </BinaryTree>
    <BinaryTree type="DecisionTree" boostWeight="1.0000000000000000e+00" itree="1064">
      <Node pos="s" depth="0" NCoef="0" IVar="1" Cut="3.7465252685546875e+02" cType="1" res="2.6962470728904009e-03" rms="4.5415073633193970e-01" purity="5.0167977809906006e-01" nType="0">
        <Node pos="l" depth="1" NCoef="0" IVar="-1" Cut="0.0000000000000000e+00" cType="1" res="-1.7851772718131542e-03" rms="4.1238278150558472e-01" purity="2.8213059902191162e-01" nType="-99"/>
        <Node pos="r" depth="1" NCoef="0" IVar="7" Cut="5.0464977264404297e+01" cType="1" res="5.2314223721623421e-03" rms="4.5776477456092834e-01" purity="5.2212893962860107e-01" nType="0">
          <Node pos="l" depth="2" NCoef="0" IVar="-1" Cut="0.0000000000000000e+00" cType="1" res="1.8968731164932251e-03" rms="4.5701670646667480e-01" purity="4.3111872673034668e-01" nType="-99"/>
          <Node pos="r" depth="2" NCoef="0" IVar="-1" Cut="0.0000000000000000e+00" cType="1" res="8.2419719547033310e-05" rms="4.5776471495628357e-01" purity="5.3676307201385498e-01" nType="-99"/>
        </Node>
      </Node>
    </BinaryTree>
    <BinaryTree type="DecisionTree" boostWeight="1.0000000000000000e+00" itree="1065">
      <Node pos="s" depth="0" NCoef="0" IVar="8" Cut="9.4488275051116943e-01" cType="1" res="1.1090418556705117e-03" rms="4.5254775881767273e-01" purity="5.0054973363876343e-01" nType="0">
        <Node pos="l" depth="1" NCoef="0" IVar="4" Cut="4.8382714390754700e-01" cType="1" res="1.3606766238808632e-02" rms="4.5028814673423767e-01" purity="5.5744415521621704e-01" nType="0">
          <Node pos="l" depth="2" NCoef="0" IVar="-1" Cut="0.0000000000000000e+00" cType="1" res="5.9278667322359979e-05" rms="4.4969138503074646e-01" purity="5.2510696649551392e-01" nType="-99"/>
          <Node pos="r" depth="2" NCoef="0" IVar="-1" Cut="0.0000000000000000e+00" cType="1" res="2.5719758123159409e-03" rms="4.5035937428474426e-01" purity="6.2754589319229126e-01" nType="-99"/>
        </Node>
        <Node pos="r" depth="1" NCoef="0" IVar="9" Cut="3.9541342854499817e-01" cType="1" res="-7.3304222896695137e-03" rms="4.5387268066406250e-01" purity="4.6213001012802124e-01" nType="0">
          <Node pos="l" depth="2" NCoef="0" IVar="-1" Cut="0.0000000000000000e+00" cType="1" res="-1.5967757208272815e-03" rms="4.4873532652854919e-01" purity="4.9191102385520935e-01" nType="-99"/>
          <Node pos="r" depth="2" NCoef="0" IVar="-1" Cut="0.0000000000000000e+00" cType="1" res="9.0147128503303975e-05" rms="4.5608332753181458e-01" purity="4.4770595431327820e-01" nType="-99"/>
        </Node>
      </Node>
    </BinaryTree>
    <BinaryTree type="DecisionTree" boostWeight="1.0000000000000000e+00" itree="1066">
      <Node pos="s" depth="0" NCoef="0" IVar="3" Cut="3.0883215367794037e-02" cType="1" res="-6.8519701017066836e-04" rms="4.5228928327560425e-01" purity="4.9735835194587708e-01" nType="0">
        <Node pos="l" depth="1" NCoef="0" IVar="2" Cut="8.5547378540039062e+01" cType="1" res="8.1393672153353691e-03" rms="4.5368337631225586e-01" purity="5.3814184665679932e-01" nType="0">
          <Node pos="l" depth="2" NCoef="0" IVar="-1" Cut="0.0000000000000000e+00" cType="1" res="1.8284755060449243e-03" rms="4.5220384001731873e-01" purity="5.2496480941772461e-01" nType="-99"/>
          <Node pos="r" depth="2" NCoef="0" IVar="-1" Cut="0.0000000000000000e+00" cType="1" res="-3.2744865166023374e-04" rms="4.5409485697746277e-01" purity="5.4633134603500366e-01" nType="-99"/>
        </Node>
        <Node pos="r" depth="1" NCoef="0" IVar="4" Cut="2.6430499553680420e-01" cType="1" res="-1.0976338759064674e-02" rms="4.5043975114822388e-01" purity="4.4979694485664368e-01" nType="0">
          <Node pos="l" depth="2" NCoef="0" IVar="-1" Cut="0.0000000000000000e+00" cType="1" res="5.3674611262977123e-04" rms="4.5317479968070984e-01" purity="4.3700352311134338e-01" nType="-99"/>
          <Node pos="r" depth="2" NCoef="0" IVar="-1" Cut="0.0000000000000000e+00" cType="1" res="-1.8954615807160735e-03" rms="4.4697514176368713e-01" purity="4.6219217777252197e-01" nType="-99"/>
        </Node>
      </Node>
    </BinaryTree>
    <BinaryTree type="DecisionTree" boostWeight="1.0000000000000000e+00" itree="1067">
      <Node pos="s" depth="0" NCoef="0" IVar="1" Cut="8.4510192871093750e+02" cType="1" res="2.2871361579746008e-04" rms="4.5222359895706177e-01" purity="4.9936094880104065e-01" nType="0">
        <Node pos="l" depth="1" NCoef="0" IVar="3" Cut="5.0695881247520447e-02" cType="1" res="-2.5126496329903603e-03" rms="4.5257860422134399e-01" purity="4.8275682330131531e-01" nType="0">
          <Node pos="l" depth="2" NCoef="0" IVar="-1" Cut="0.0000000000000000e+00" cType="1" res="3.2401899807155132e-04" rms="4.5575812458992004e-01" purity="5.1833873987197876e-01" nType="-99"/>
          <Node pos="r" depth="2" NCoef="0" IVar="-1" Cut="0.0000000000000000e+00" cType="1" res="-1.0187987936660647e-03" rms="4.4668379426002502e-01" purity="4.2092168331146240e-01" nType="-99"/>
        </Node>
        <Node pos="r" depth="1" NCoef="0" IVar="-1" Cut="0.0000000000000000e+00" cType="1" res="1.6734480159357190e-03" rms="4.4807675480842590e-01" purity="6.5470868349075317e-01" nType="-99"/>
      </Node>
    </BinaryTree>
    <BinaryTree type="DecisionTree" boostWeight="1.0000000000000000e+00" itree="1068">
      <Node pos="s" depth="0" NCoef="0" IVar="8" Cut="6.2998974323272705e-01" cType="1" res="3.2992640044540167e-03" rms="4.5285192131996155e-01" purity="5.0353550910949707e-01" nType="0">
        <Node pos="l" depth="1" NCoef="0" IVar="9" Cut="4.8850986361503601e-01" cType="1" res="3.1395643949508667e-02" rms="4.5298784971237183e-01" purity="5.9519022703170776e-01" nType="0">
          <Node pos="l" depth="2" NCoef="0" IVar="-1" Cut="0.0000000000000000e+00" cType="1" res="-2.1388867753557861e-04" rms="4.5042127370834351e-01" purity="5.9494453668594360e-01" nType="-99"/>
          <Node pos="r" depth="2" NCoef="0" IVar="-1" Cut="0.0000000000000000e+00" cType="1" res="4.0277424268424511e-03" rms="4.5295286178588867e-01" purity="5.9542405605316162e-01" nType="-99"/>
        </Node>
        <Node pos="r" depth="1" NCoef="0" IVar="8" Cut="7.0031571388244629e-01" cType="1" res="-1.9173316832166165e-04" rms="4.5271325111389160e-01" purity="4.9214735627174377e-01" nType="0">
          <Node pos="l" depth="2" NCoef="0" IVar="-1" Cut="0.0000000000000000e+00" cType="1" res="-2.4291079025715590e-03" rms="4.5239642262458801e-01" purity="4.9985304474830627e-01" nType="-99"/>
          <Node pos="r" depth="2" NCoef="0" IVar="-1" Cut="0.0000000000000000e+00" cType="1" res="1.6382169269490987e-04" rms="4.5261010527610779e-01" purity="4.9158993363380432e-01" nType="-99"/>
        </Node>
      </Node>
    </BinaryTree>
    <BinaryTree type="DecisionTree" boostWeight="1.0000000000000000e+00" itree="1069">
      <Node pos="s" depth="0" NCoef="0" IVar="6" Cut="2.6240074634552002e+00" cType="1" res="-4.0682563558220863e-03" rms="4.5205789804458618e-01" purity="4.9784174561500549e-01" nType="0">
        <Node pos="l" depth="1" NCoef="0" IVar="9" Cut="9.1919630765914917e-01" cType="1" res="-3.9298142655752599e-04" rms="4.5715725421905518e-01" purity="5.3283399343490601e-01" nType="0">
          <Node pos="l" depth="2" NCoef="0" IVar="-1" Cut="0.0000000000000000e+00" cType="1" res="1.4093321806285530e-04" rms="4.5629554986953735e-01" purity="5.4330915212631226e-01" nType="-99"/>
          <Node pos="r" depth="2" NCoef="0" IVar="-1" Cut="0.0000000000000000e+00" cType="1" res="-1.6944149974733591e-03" rms="4.6491357684135437e-01" purity="4.2698252201080322e-01" nType="-99"/>
        </Node>
        <Node pos="r" depth="1" NCoef="0" IVar="0" Cut="2.7974791526794434e+00" cType="1" res="-2.7811158448457718e-02" rms="4.1683724522590637e-01" purity="2.7178588509559631e-01" nType="0">
          <Node pos="l" depth="2" NCoef="0" IVar="-1" Cut="0.0000000000000000e+00" cType="1" res="-4.1392673738300800e-03" rms="3.6474806070327759e-01" purity="1.7010614275932312e-01" nType="-99"/>
          <Node pos="r" depth="2" NCoef="0" IVar="-1" Cut="0.0000000000000000e+00" cType="1" res="-1.2052367674186826e-04" rms="4.7117027640342712e-01" purity="3.9531564712524414e-01" nType="-99"/>
        </Node>
      </Node>
    </BinaryTree>
    <BinaryTree type="DecisionTree" boostWeight="1.0000000000000000e+00" itree="1070">
      <Node pos="s" depth="0" NCoef="0" IVar="6" Cut="2.2052710056304932e+00" cType="1" res="-3.1553807202726603e-03" rms="4.5185145735740662e-01" purity="4.9509239196777344e-01" nType="0">
        <Node pos="l" depth="1" NCoef="0" IVar="3" Cut="7.5149483978748322e-02" cType="1" res="4.3862094171345234e-03" rms="4.5301577448844910e-01" purity="5.6646752357482910e-01" nType="0">
          <Node pos="l" depth="2" NCoef="0" IVar="-1" Cut="0.0000000000000000e+00" cType="1" res="-1.4743597421329468e-04" rms="4.5311886072158813e-01" purity="5.6827539205551147e-01" nType="-99"/>
          <Node pos="r" depth="2" NCoef="0" IVar="-1" Cut="0.0000000000000000e+00" cType="1" res="1.5148334205150604e-03" rms="4.5209541916847229e-01" purity="5.6101155281066895e-01" nType="-99"/>
        </Node>
        <Node pos="r" depth="1" NCoef="0" IVar="4" Cut="2.0396287739276886e-01" cType="1" res="-1.0563679970800877e-02" rms="4.5058187842369080e-01" purity="4.2497876286506653e-01" nType="0">
          <Node pos="l" depth="2" NCoef="0" IVar="-1" Cut="0.0000000000000000e+00" cType="1" res="1.3654981739819050e-03" rms="4.4371858239173889e-01" purity="3.7884926795959473e-01" nType="-99"/>
          <Node pos="r" depth="2" NCoef="0" IVar="-1" Cut="0.0000000000000000e+00" cType="1" res="-1.1999437119811773e-03" rms="4.5208811759948730e-01" purity="4.3766155838966370e-01" nType="-99"/>
        </Node>
      </Node>
    </BinaryTree>
    <BinaryTree type="DecisionTree" boostWeight="1.0000000000000000e+00" itree="1071">
      <Node pos="s" depth="0" NCoef="0" IVar="6" Cut="2.3875288963317871e+00" cType="1" res="1.4189848443493247e-03" rms="4.5466464757919312e-01" purity="5.0488781929016113e-01" nType="0">
        <Node pos="l" depth="1" NCoef="0" IVar="2" Cut="6.3161533355712891e+01" cType="1" res="-5.3228088654577732e-03" rms="4.5660012960433960e-01" purity="5.4819917678833008e-01" nType="0">
          <Node pos="l" depth="2" NCoef="0" IVar="-1" Cut="0.0000000000000000e+00" cType="1" res="7.1722711436450481e-04" rms="4.6470969915390015e-01" purity="5.0981479883193970e-01" nType="-99"/>
          <Node pos="r" depth="2" NCoef="0" IVar="-1" Cut="0.0000000000000000e+00" cType="1" res="-7.0429540937766433e-04" rms="4.5357540249824524e-01" purity="5.6163591146469116e-01" nType="-99"/>
        </Node>
        <Node pos="r" depth="1" NCoef="0" IVar="3" Cut="9.5318838953971863e-02" cType="1" res="1.7703929916024208e-02" rms="4.4953823089599609e-01" purity="4.0026843547821045e-01" nType="0">
          <Node pos="l" depth="2" NCoef="0" IVar="-1" Cut="0.0000000000000000e+00" cType="1" res="1.7226688796654344e-03" rms="4.6138295531272888e-01" purity="4.3304157257080078e-01" nType="-99"/>
          <Node pos="r" depth="2" NCoef="0" IVar="-1" Cut="0.0000000000000000e+00" cType="1" res="-1.9328351481817663e-04" rms="4.2068052291870117e-01" purity="3.2582530379295349e-01" nType="-99"/>
        </Node>
      </Node>
    </BinaryTree>
    <BinaryTree type="DecisionTree" boostWeight="1.0000000000000000e+00" itree="1072">
      <Node pos="s" depth="0" NCoef="0" IVar="9" Cut="2.1175134181976318e-01" cType="1" res="-8.4863174706697464e-03" rms="4.5465975999832153e-01" purity="4.8949706554412842e-01" nType="0">
        <Node pos="l" depth="1" NCoef="0" IVar="4" Cut="4.2712831497192383e-01" cType="1" res="-3.3828206360340118e-02" rms="4.5300197601318359e-01" purity="5.2928274869918823e-01" nType="0">
          <Node pos="l" depth="2" NCoef="0" IVar="-1" Cut="0.0000000000000000e+00" cType="1" res="-3.7067357916384935e-03" rms="4.5165339112281799e-01" purity="4.9031135439872742e-01" nType="-99"/>
          <Node pos="r" depth="2" NCoef="0" IVar="-1" Cut="0.0000000000000000e+00" cType="1" res="-7.7243667328730226e-04" rms="4.5310074090957642e-01" purity="5.6398719549179077e-01" nType="-99"/>
        </Node>
        <Node pos="r" depth="1" NCoef="0" IVar="5" Cut="9.1484534740447998e-01" cType="1" res="-5.3491713479161263e-03" rms="4.5476633310317993e-01" purity="4.8457190394401550e-01" nType="0">
          <Node pos="l" depth="2" NCoef="0" IVar="-1" Cut="0.0000000000000000e+00" cType="1" res="1.6490436391904950e-03" rms="4.4462484121322632e-01" purity="3.2365754246711731e-01" nType="-99"/>
          <Node pos="r" depth="2" NCoef="0" IVar="-1" Cut="0.0000000000000000e+00" cType="1" res="-5.3869851399213076e-04" rms="4.5572480559349060e-01" purity="5.0186967849731445e-01" nType="-99"/>
        </Node>
      </Node>
    </BinaryTree>
    <BinaryTree type="DecisionTree" boostWeight="1.0000000000000000e+00" itree="1073">
      <Node pos="s" depth="0" NCoef="0" IVar="8" Cut="1.7672784328460693e+00" cType="1" res="-9.4981217989698052e-04" rms="4.5313391089439392e-01" purity="4.9771597981452942e-01" nType="0">
        <Node pos="l" depth="1" NCoef="0" IVar="9" Cut="9.5930117368698120e-01" cType="1" res="-3.6268462426960468e-03" rms="4.5381534099578857e-01" purity="5.0178688764572144e-01" nType="0">
          <Node pos="l" depth="2" NCoef="0" IVar="-1" Cut="0.0000000000000000e+00" cType="1" res="-4.2562457383610308e-04" rms="4.5297268033027649e-01" purity="5.1145458221435547e-01" nType="-99"/>
          <Node pos="r" depth="2" NCoef="0" IVar="-1" Cut="0.0000000000000000e+00" cType="1" res="1.6438803868368268e-03" rms="4.6051082015037537e-01" purity="4.1258886456489563e-01" nType="-99"/>
        </Node>
        <Node pos="r" depth="1" NCoef="0" IVar="-1" Cut="0.0000000000000000e+00" cType="1" res="2.2124748211354017e-03" rms="4.4276106357574463e-01" purity="4.4502267241477966e-01" nType="-99"/>
      </Node>
    </BinaryTree>
    <BinaryTree type="DecisionTree" boostWeight="1.0000000000000000e+00" itree="1074">
      <Node pos="s" depth="0" NCoef="0" IVar="6" Cut="2.1919307708740234e+00" cType="1" res="1.0491425637155771e-03" rms="4.5208644866943359e-01" purity="5.0247484445571899e-01" nType="0">
        <Node pos="l" depth="1" NCoef="0" IVar="1" Cut="4.0613531494140625e+02" cType="1" res="1.1435574851930141e-02" rms="4.4881880283355713e-01" purity="5.7675606012344360e-01" nType="0">
          <Node pos="l" depth="2" NCoef="0" IVar="-1" Cut="0.0000000000000000e+00" cType="1" res="-1.9025047076866031e-03" rms="4.4632723927497864e-01" purity="3.7946236133575439e-01" nType="-99"/>
          <Node pos="r" depth="2" NCoef="0" IVar="-1" Cut="0.0000000000000000e+00" cType="1" res="1.1497414670884609e-03" rms="4.4886264204978943e-01" purity="6.1071473360061646e-01" nType="-99"/>
        </Node>
        <Node pos="r" depth="1" NCoef="0" IVar="9" Cut="9.5264959335327148e-01" cType="1" res="-8.6090974509716034e-03" rms="4.5489117503166199e-01" purity="4.3340143561363220e-01" nType="0">
          <Node pos="l" depth="2" NCoef="0" IVar="-1" Cut="0.0000000000000000e+00" cType="1" res="-9.4404467381536961e-04" rms="4.5498758554458618e-01" purity="4.4160208106040955e-01" nType="-99"/>
          <Node pos="r" depth="2" NCoef="0" IVar="-1" Cut="0.0000000000000000e+00" cType="1" res="1.6156040364876390e-03" rms="4.5295703411102295e-01" purity="3.9003869891166687e-01" nType="-99"/>
        </Node>
      </Node>
    </BinaryTree>
    <BinaryTree type="DecisionTree" boostWeight="1.0000000000000000e+00" itree="1075">
      <Node pos="s" depth="0" NCoef="0" IVar="6" Cut="2.5496575832366943e+00" cType="1" res="2.8247057925909758e-03" rms="4.5617410540580750e-01" purity="5.0165581703186035e-01" nType="0">
        <Node pos="l" depth="1" NCoef="0" IVar="2" Cut="8.6310981750488281e+01" cType="1" res="-1.9756623078137636e-03" rms="4.5894473791122437e-01" purity="5.3303784132003784e-01" nType="0">
          <Node pos="l" depth="2" NCoef="0" IVar="-1" Cut="0.0000000000000000e+00" cType="1" res="-8.5071229841560125e-04" rms="4.6227946877479553e-01" purity="4.7451496124267578e-01" nType="-99"/>
          <Node pos="r" depth="2" NCoef="0" IVar="-1" Cut="0.0000000000000000e+00" cType="1" res="4.8451658221893013e-04" rms="4.5595031976699829e-01" purity="5.8121806383132935e-01" nType="-99"/>
        </Node>
        <Node pos="r" depth="1" NCoef="0" IVar="0" Cut="2.0824499130249023e+00" cType="1" res="2.5445587933063507e-02" rms="4.4218391180038452e-01" purity="3.5377377271652222e-01" nType="0">
          <Node pos="l" depth="2" NCoef="0" IVar="-1" Cut="0.0000000000000000e+00" cType="1" res="-8.8626320939511061e-04" rms="3.8157135248184204e-01" purity="1.9798706471920013e-01" nType="-99"/>
          <Node pos="r" depth="2" NCoef="0" IVar="-1" Cut="0.0000000000000000e+00" cType="1" res="2.7857937384396791e-03" rms="4.7132873535156250e-01" purity="4.4025006890296936e-01" nType="-99"/>
        </Node>
      </Node>
    </BinaryTree>
    <BinaryTree type="DecisionTree" boostWeight="1.0000000000000000e+00" itree="1076">
      <Node pos="s" depth="0" NCoef="0" IVar="6" Cut="2.1574409008026123e+00" cType="1" res="-2.5423960760235786e-03" rms="4.5319941639900208e-01" purity="4.9594876170158386e-01" nType="0">
        <Node pos="l" depth="1" NCoef="0" IVar="4" Cut="2.5776487588882446e-01" cType="1" res="1.3342083431780338e-02" rms="4.5325183868408203e-01" purity="5.7816797494888306e-01" nType="0">
          <Node pos="l" depth="2" NCoef="0" IVar="-1" Cut="0.0000000000000000e+00" cType="1" res="-6.5136456396430731e-04" rms="4.5896202325820923e-01" purity="5.2667272090911865e-01" nType="-99"/>
          <Node pos="r" depth="2" NCoef="0" IVar="-1" Cut="0.0000000000000000e+00" cType="1" res="1.3222871348261833e-03" rms="4.5114821195602417e-01" purity="5.9457129240036011e-01" nType="-99"/>
        </Node>
        <Node pos="r" depth="1" NCoef="0" IVar="0" Cut="2.5439186096191406e+00" cType="1" res="-1.4052685350179672e-02" rms="4.5281338691711426e-01" purity="4.3637070059776306e-01" nType="0">
          <Node pos="l" depth="2" NCoef="0" IVar="-1" Cut="0.0000000000000000e+00" cType="1" res="1.3829265662934631e-04" rms="4.3916752934455872e-01" purity="3.1926670670509338e-01" nType="-99"/>
          <Node pos="r" depth="2" NCoef="0" IVar="-1" Cut="0.0000000000000000e+00" cType="1" res="-1.6689843032509089e-03" rms="4.6359029412269592e-01" purity="5.3525543212890625e-01" nType="-99"/>
        </Node>
      </Node>
    </BinaryTree>
    <BinaryTree type="DecisionTree" boostWeight="1.0000000000000000e+00" itree="1077">
      <Node pos="s" depth="0" NCoef="0" IVar="5" Cut="9.2915481328964233e-01" cType="1" res="-1.7002187669277191e-03" rms="4.5408934354782104e-01" purity="5.0023096799850464e-01" nType="0">
        <Node pos="l" depth="1" NCoef="0" IVar="3" Cut="8.5635147988796234e-02" cType="1" res="-2.1148083731532097e-02" rms="4.3293231725692749e-01" purity="3.0387419462203979e-01" nType="0">
          <Node pos="l" depth="2" NCoef="0" IVar="-1" Cut="0.0000000000000000e+00" cType="1" res="-6.8437488516792655e-04" rms="4.4023442268371582e-01" purity="3.2919594645500183e-01" nType="-99"/>
          <Node pos="r" depth="2" NCoef="0" IVar="-1" Cut="0.0000000000000000e+00" cType="1" res="-3.2223768066614866e-03" rms="4.1346985101699829e-01" purity="2.4204921722412109e-01" nType="-99"/>
        </Node>
        <Node pos="r" depth="1" NCoef="0" IVar="7" Cut="8.8202339172363281e+01" cType="1" res="3.2145613804459572e-03" rms="4.5915141701698303e-01" purity="5.4985338449478149e-01" nType="0">
          <Node pos="l" depth="2" NCoef="0" IVar="-1" Cut="0.0000000000000000e+00" cType="1" res="-1.5223640366457403e-04" rms="4.6351498365402222e-01" purity="5.1381850242614746e-01" nType="-99"/>
          <Node pos="r" depth="2" NCoef="0" IVar="-1" Cut="0.0000000000000000e+00" cType="1" res="1.3374562840908766e-03" rms="4.4488996267318726e-01" purity="6.6159105300903320e-01" nType="-99"/>
        </Node>
      </Node>
    </BinaryTree>
    <BinaryTree type="DecisionTree" boostWeight="1.0000000000000000e+00" itree="1078">
      <Node pos="s" depth="0" NCoef="0" IVar="5" Cut="9.1867852210998535e-01" cType="1" res="-1.9939010962843895e-03" rms="4.5574930310249329e-01" purity="4.9699315428733826e-01" nType="0">
        <Node pos="l" depth="1" NCoef="0" IVar="3" Cut="4.1602667421102524e-02" cType="1" res="2.4488909170031548e-02" rms="4.4609081745147705e-01" purity="3.3689314126968384e-01" nType="0">
          <Node pos="l" depth="2" NCoef="0" IVar="-1" Cut="0.0000000000000000e+00" cType="1" res="2.3915455676615238e-03" rms="4.5498192310333252e-01" purity="3.7213471531867981e-01" nType="-99"/>
          <Node pos="r" depth="2" NCoef="0" IVar="-1" Cut="0.0000000000000000e+00" cType="1" res="6.8782555172219872e-04" rms="4.3616008758544922e-01" purity="3.0015704035758972e-01" nType="-99"/>
        </Node>
        <Node pos="r" depth="1" NCoef="0" IVar="4" Cut="3.5259804129600525e-01" cType="1" res="-5.6799002923071384e-03" rms="4.5695576071739197e-01" purity="5.1927667856216431e-01" nType="0">
          <Node pos="l" depth="2" NCoef="0" IVar="-1" Cut="0.0000000000000000e+00" cType="1" res="1.3873611169401556e-04" rms="4.5880416035652161e-01" purity="4.8012721538543701e-01" nType="-99"/>
          <Node pos="r" depth="2" NCoef="0" IVar="-1" Cut="0.0000000000000000e+00" cType="1" res="-7.3349155718460679e-04" rms="4.5545774698257446e-01" purity="5.4896807670593262e-01" nType="-99"/>
        </Node>
      </Node>
    </BinaryTree>
    <BinaryTree type="DecisionTree" boostWeight="1.0000000000000000e+00" itree="1079">
      <Node pos="s" depth="0" NCoef="0" IVar="4" Cut="4.8491051793098450e-01" cType="1" res="-1.6701474087312818e-03" rms="4.5324191451072693e-01" purity="4.9723717570304871e-01" nType="0">
        <Node pos="l" depth="1" NCoef="0" IVar="8" Cut="1.2974027395248413e+00" cType="1" res="-6.7204702645540237e-03" rms="4.5186272263526917e-01" purity="4.6738708019256592e-01" nType="0">
          <Node pos="l" depth="2" NCoef="0" IVar="-1" Cut="0.0000000000000000e+00" cType="1" res="1.7246800416614860e-04" rms="4.5554479956626892e-01" purity="5.0252282619476318e-01" nType="-99"/>
          <Node pos="r" depth="2" NCoef="0" IVar="-1" Cut="0.0000000000000000e+00" cType="1" res="-1.8876640824601054e-03" rms="4.4223862886428833e-01" purity="3.8436901569366455e-01" nType="-99"/>
        </Node>
        <Node pos="r" depth="1" NCoef="0" IVar="8" Cut="1.3005926609039307e+00" cType="1" res="8.3777466788887978e-03" rms="4.5580714941024780e-01" purity="5.5662542581558228e-01" nType="0">
          <Node pos="l" depth="2" NCoef="0" IVar="-1" Cut="0.0000000000000000e+00" cType="1" res="2.3235538719745819e-06" rms="4.5547640323638916e-01" purity="5.6730246543884277e-01" nType="-99"/>
          <Node pos="r" depth="2" NCoef="0" IVar="-1" Cut="0.0000000000000000e+00" cType="1" res="1.7214132240042090e-03" rms="4.5598483085632324e-01" purity="5.3169912099838257e-01" nType="-99"/>
        </Node>
      </Node>
    </BinaryTree>
    <BinaryTree type="DecisionTree" boostWeight="1.0000000000000000e+00" itree="1080">
      <Node pos="s" depth="0" NCoef="0" IVar="8" Cut="1.3651264905929565e+00" cType="1" res="1.1690331157296896e-03" rms="4.5330694317817688e-01" purity="4.9930498003959656e-01" nType="0">
        <Node pos="l" depth="1" NCoef="0" IVar="7" Cut="5.1065124511718750e+01" cType="1" res="5.2279196679592133e-03" rms="4.5441409945487976e-01" purity="5.2346444129943848e-01" nType="0">
          <Node pos="l" depth="2" NCoef="0" IVar="-1" Cut="0.0000000000000000e+00" cType="1" res="1.7137916292995214e-03" rms="4.5495063066482544e-01" purity="4.0390306711196899e-01" nType="-99"/>
          <Node pos="r" depth="2" NCoef="0" IVar="-1" Cut="0.0000000000000000e+00" cType="1" res="5.7374090829398483e-05" rms="4.5418369770050049e-01" purity="5.4823327064514160e-01" nType="-99"/>
        </Node>
        <Node pos="r" depth="1" NCoef="0" IVar="9" Cut="3.7991636991500854e-01" cType="1" res="-1.0781028307974339e-02" rms="4.4981881976127625e-01" purity="4.2817524075508118e-01" nType="0">
          <Node pos="l" depth="2" NCoef="0" IVar="-1" Cut="0.0000000000000000e+00" cType="1" res="-2.1523491013795137e-03" rms="4.4782829284667969e-01" purity="4.5340919494628906e-01" nType="-99"/>
          <Node pos="r" depth="2" NCoef="0" IVar="-1" Cut="0.0000000000000000e+00" cType="1" res="-1.4994379307609051e-04" rms="4.5025375485420227e-01" purity="4.1890123486518860e-01" nType="-99"/>
        </Node>
      </Node>
    </BinaryTree>
    <BinaryTree type="DecisionTree" boostWeight="1.0000000000000000e+00" itree="1081">
      <Node pos="s" depth="0" NCoef="0" IVar="0" Cut="8.9171439409255981e-01" cType="1" res="7.5347907841205597e-03" rms="4.5429053902626038e-01" purity="5.1025867462158203e-01" nType="0">
        <Node pos="l" depth="1" NCoef="0" IVar="-1" Cut="0.0000000000000000e+00" cType="1" res="-2.3835827596485615e-03" rms="4.0658134222030640e-01" purity="2.4497121572494507e-01" nType="-99"/>
        <Node pos="r" depth="1" NCoef="0" IVar="5" Cut="9.5300102233886719e-01" cType="1" res="9.7665069624781609e-03" rms="4.5681008696556091e-01" purity="5.2567189931869507e-01" nType="0">
          <Node pos="l" depth="2" NCoef="0" IVar="-1" Cut="0.0000000000000000e+00" cType="1" res="1.1460471432656050e-03" rms="4.6359226107597351e-01" purity="4.2689344286918640e-01" nType="-99"/>
          <Node pos="r" depth="2" NCoef="0" IVar="-1" Cut="0.0000000000000000e+00" cType="1" res="8.2313839811831713e-05" rms="4.5034822821617126e-01" purity="6.1604326963424683e-01" nType="-99"/>
        </Node>
      </Node>
    </BinaryTree>
    <BinaryTree type="DecisionTree" boostWeight="1.0000000000000000e+00" itree="1082">
      <Node pos="s" depth="0" NCoef="0" IVar="0" Cut="5.3424506187438965e+00" cType="1" res="1.4961109263822436e-04" rms="4.5204764604568481e-01" purity="5.0033551454544067e-01" nType="0">
        <Node pos="l" depth="1" NCoef="0" IVar="7" Cut="8.6436294555664062e+01" cType="1" res="-1.2566396035254002e-03" rms="4.5674237608909607e-01" purity="4.7960013151168823e-01" nType="0">
          <Node pos="l" depth="2" NCoef="0" IVar="-1" Cut="0.0000000000000000e+00" cType="1" res="-3.1973302247934043e-04" rms="4.5617341995239258e-01" purity="4.4292324781417847e-01" nType="-99"/>
          <Node pos="r" depth="2" NCoef="0" IVar="-1" Cut="0.0000000000000000e+00" cType="1" res="6.3448603032156825e-04" rms="4.5823645591735840e-01" purity="5.8858329057693481e-01" nType="-99"/>
        </Node>
        <Node pos="r" depth="1" NCoef="0" IVar="-1" Cut="0.0000000000000000e+00" cType="1" res="1.8765347776934505e-03" rms="3.7098264694213867e-01" purity="8.2212549448013306e-01" nType="-99"/>
      </Node>
    </BinaryTree>
    <BinaryTree type="DecisionTree" boostWeight="1.0000000000000000e+00" itree="1083">
      <Node pos="s" depth="0" NCoef="0" IVar="4" Cut="5.8158051967620850e-01" cType="1" res="-2.1083876490592957e-03" rms="4.5468962192535400e-01" purity="4.9786162376403809e-01" nType="0">
        <Node pos="l" depth="1" NCoef="0" IVar="2" Cut="1.8072827148437500e+02" cType="1" res="1.8428316107019782e-03" rms="4.5445510745048523e-01" purity="4.8912850022315979e-01" nType="0">
          <Node pos="l" depth="2" NCoef="0" IVar="-1" Cut="0.0000000000000000e+00" cType="1" res="-6.3992185459937900e-05" rms="4.5388108491897583e-01" purity="4.8636460304260254e-01" nType="-99"/>
          <Node pos="r" depth="2" NCoef="0" IVar="-1" Cut="0.0000000000000000e+00" cType="1" res="1.9790160004049540e-03" rms="4.5921435952186584e-01" purity="5.1702868938446045e-01" nType="-99"/>
        </Node>
        <Node pos="r" depth="1" NCoef="0" IVar="4" Cut="6.5720587968826294e-01" cType="1" res="-1.9135061651468277e-02" rms="4.5530679821968079e-01" purity="5.3549474477767944e-01" nType="0">
          <Node pos="l" depth="2" NCoef="0" IVar="-1" Cut="0.0000000000000000e+00" cType="1" res="-2.8482216876000166e-03" rms="4.6082040667533875e-01" purity="5.0129085779190063e-01" nType="-99"/>
          <Node pos="r" depth="2" NCoef="0" IVar="-1" Cut="0.0000000000000000e+00" cType="1" res="1.6797181160654873e-04" rms="4.4956740736961365e-01" purity="5.6353604793548584e-01" nType="-99"/>
        </Node>
      </Node>
    </BinaryTree>
    <BinaryTree type="DecisionTree" boostWeight="1.0000000000000000e+00" itree="1084">
      <Node pos="s" depth="0" NCoef="0" IVar="3" Cut="-5.0237663090229034e-02" cType="1" res="-3.7788122426718473e-03" rms="4.5362553000450134e-01" purity="4.9499401450157166e-01" nType="0">
        <Node pos="l" depth="1" NCoef="0" IVar="9" Cut="4.0450450778007507e-01" cType="1" res="-3.4058939665555954e-02" rms="4.5159858465194702e-01" purity="5.3690630197525024e-01" nType="0">
          <Node pos="l" depth="2" NCoef="0" IVar="-1" Cut="0.0000000000000000e+00" cType="1" res="-4.0752952918410301e-03" rms="4.5406687259674072e-01" purity="5.3448516130447388e-01" nType="-99"/>
          <Node pos="r" depth="2" NCoef="0" IVar="-1" Cut="0.0000000000000000e+00" cType="1" res="-8.5234077414497733e-04" rms="4.4870498776435852e-01" purity="5.3864282369613647e-01" nType="-99"/>
        </Node>
        <Node pos="r" depth="1" NCoef="0" IVar="5" Cut="9.7629761695861816e-01" cType="1" res="6.2840367900207639e-04" rms="4.5375135540962219e-01" purity="4.8889377713203430e-01" nType="0">
          <Node pos="l" depth="2" NCoef="0" IVar="-1" Cut="0.0000000000000000e+00" cType="1" res="3.1624137773178518e-04" rms="4.5722872018814087e-01" purity="4.4602683186531067e-01" nType="-99"/>
          <Node pos="r" depth="2" NCoef="0" IVar="-1" Cut="0.0000000000000000e+00" cType="1" res="-1.4006522251293063e-03" rms="4.3713495135307312e-01" purity="6.8240565061569214e-01" nType="-99"/>
        </Node>
      </Node>
    </BinaryTree>
    <BinaryTree type="DecisionTree" boostWeight="1.0000000000000000e+00" itree="1085">
      <Node pos="s" depth="0" NCoef="0" IVar="1" Cut="7.3752093505859375e+02" cType="1" res="5.9996806085109711e-03" rms="4.5318019390106201e-01" purity="5.0558489561080933e-01" nType="0">
        <Node pos="l" depth="1" NCoef="0" IVar="2" Cut="1.3482084655761719e+02" cType="1" res="9.9502354860305786e-03" rms="4.5284992456436157e-01" purity="4.8653119802474976e-01" nType="0">
          <Node pos="l" depth="2" NCoef="0" IVar="-1" Cut="0.0000000000000000e+00" cType="1" res="1.0148179717361927e-03" rms="4.5434311032295227e-01" purity="4.9137145280838013e-01" nType="-99"/>
          <Node pos="r" depth="2" NCoef="0" IVar="-1" Cut="0.0000000000000000e+00" cType="1" res="-1.1916663497686386e-03" rms="4.4494903087615967e-01" purity="4.6470373868942261e-01" nType="-99"/>
        </Node>
        <Node pos="r" depth="1" NCoef="0" IVar="4" Cut="3.4894484281539917e-01" cType="1" res="-1.4076012186706066e-02" rms="4.5432436466217041e-01" purity="6.0241121053695679e-01" nType="0">
          <Node pos="l" depth="2" NCoef="0" IVar="-1" Cut="0.0000000000000000e+00" cType="1" res="6.3928216695785522e-04" rms="4.5813325047492981e-01" purity="5.8838099241256714e-01" nType="-99"/>
          <Node pos="r" depth="2" NCoef="0" IVar="-1" Cut="0.0000000000000000e+00" cType="1" res="-3.0509959906339645e-03" rms="4.4743651151657104e-01" purity="6.2046259641647339e-01" nType="-99"/>
        </Node>
      </Node>
    </BinaryTree>
    <BinaryTree type="DecisionTree" boostWeight="1.0000000000000000e+00" itree="1086">
      <Node pos="s" depth="0" NCoef="0" IVar="8" Cut="7.2322607040405273e-01" cType="1" res="-1.5280742663890123e-03" rms="4.5244097709655762e-01" purity="4.9836057424545288e-01" nType="0">
        <Node pos="l" depth="1" NCoef="0" IVar="4" Cut="5.0111609697341919e-01" cType="1" res="1.5509116463363171e-02" rms="4.5377987623214722e-01" purity="5.6581217050552368e-01" nType="0">
          <Node pos="l" depth="2" NCoef="0" IVar="-1" Cut="0.0000000000000000e+00" cType="1" res="1.6430711548309773e-04" rms="4.6035167574882507e-01" purity="5.3684204816818237e-01" nType="-99"/>
          <Node pos="r" depth="2" NCoef="0" IVar="-1" Cut="0.0000000000000000e+00" cType="1" res="3.0062939040362835e-03" rms="4.3530866503715515e-01" purity="6.3805222511291504e-01" nType="-99"/>
        </Node>
        <Node pos="r" depth="1" NCoef="0" IVar="0" Cut="9.6145874261856079e-01" cType="1" res="-5.3928857669234276e-03" rms="4.5204734802246094e-01" purity="4.8305943608283997e-01" nType="0">
          <Node pos="l" depth="2" NCoef="0" IVar="-1" Cut="0.0000000000000000e+00" cType="1" res="2.3798730690032244e-03" rms="4.3446722626686096e-01" purity="2.9562824964523315e-01" nType="-99"/>
          <Node pos="r" depth="2" NCoef="0" IVar="-1" Cut="0.0000000000000000e+00" cType="1" res="-4.8938993131741881e-04" rms="4.5311653614044189e-01" purity="4.9580508470535278e-01" nType="-99"/>
        </Node>
      </Node>
    </BinaryTree>
    <BinaryTree type="DecisionTree" boostWeight="1.0000000000000000e+00" itree="1087">
      <Node pos="s" depth="0" NCoef="0" IVar="3" Cut="-1.6264442354440689e-02" cType="1" res="-4.0477253496646881e-03" rms="4.5208260416984558e-01" purity="4.9585008621215820e-01" nType="0">
        <Node pos="l" depth="1" NCoef="0" IVar="9" Cut="2.4984738230705261e-01" cType="1" res="5.4978718981146812e-03" rms="4.5482927560806274e-01" purity="5.5137789249420166e-01" nType="0">
          <Node pos="l" depth="2" NCoef="0" IVar="-1" Cut="0.0000000000000000e+00" cType="1" res="2.4977056309580803e-03" rms="4.4785046577453613e-01" purity="6.1923074722290039e-01" nType="-99"/>
          <Node pos="r" depth="2" NCoef="0" IVar="-1" Cut="0.0000000000000000e+00" cType="1" res="-9.9360549938865006e-05" rms="4.5596164464950562e-01" purity="5.3715240955352783e-01" nType="-99"/>
        </Node>
        <Node pos="r" depth="1" NCoef="0" IVar="0" Cut="4.5321979522705078e+00" cType="1" res="-8.1561626866459846e-03" rms="4.5083308219909668e-01" purity="4.7195088863372803e-01" nType="0">
          <Node pos="l" depth="2" NCoef="0" IVar="-1" Cut="0.0000000000000000e+00" cType="1" res="-7.5804447988048196e-04" rms="4.5555797219276428e-01" purity="4.2736184597015381e-01" nType="-99"/>
          <Node pos="r" depth="2" NCoef="0" IVar="-1" Cut="0.0000000000000000e+00" cType="1" res="1.1336610186845064e-03" rms="4.2038196325302124e-01" purity="7.4106478691101074e-01" nType="-99"/>
        </Node>
      </Node>
    </BinaryTree>
    <BinaryTree type="DecisionTree" boostWeight="1.0000000000000000e+00" itree="1088">
      <Node pos="s" depth="0" NCoef="0" IVar="3" Cut="1.4031523466110229e-01" cType="1" res="3.2716100104153156e-03" rms="4.5237082242965698e-01" purity="5.0292950868606567e-01" nType="0">
        <Node pos="l" depth="1" NCoef="0" IVar="5" Cut="9.7222256660461426e-01" cType="1" res="-3.1737792596686631e-05" rms="4.5217433571815491e-01" purity="5.0873970985412598e-01" nType="0">
          <Node pos="l" depth="2" NCoef="0" IVar="-1" Cut="0.0000000000000000e+00" cType="1" res="-3.0574554693885148e-04" rms="4.6074301004409790e-01" purity="4.4147953391075134e-01" nType="-99"/>
          <Node pos="r" depth="2" NCoef="0" IVar="-1" Cut="0.0000000000000000e+00" cType="1" res="1.0988336289301515e-03" rms="4.2409044504165649e-01" purity="7.1762174367904663e-01" nType="-99"/>
        </Node>
        <Node pos="r" depth="1" NCoef="0" IVar="7" Cut="6.7608230590820312e+01" cType="1" res="2.8366247192025185e-02" rms="4.5307499170303345e-01" purity="4.5879137516021729e-01" nType="0">
          <Node pos="l" depth="2" NCoef="0" IVar="-1" Cut="0.0000000000000000e+00" cType="1" res="2.9748720116913319e-03" rms="4.4655156135559082e-01" purity="3.9936208724975586e-01" nType="-99"/>
          <Node pos="r" depth="2" NCoef="0" IVar="-1" Cut="0.0000000000000000e+00" cType="1" res="9.6771295648068190e-04" rms="4.5800229907035828e-01" purity="5.0804030895233154e-01" nType="-99"/>
        </Node>
      </Node>
    </BinaryTree>
    <BinaryTree type="DecisionTree" boostWeight="1.0000000000000000e+00" itree="1089">
      <Node pos="s" depth="0" NCoef="0" IVar="9" Cut="2.1170045435428619e-01" cType="1" res="7.7639659866690636e-04" rms="4.5282486081123352e-01" purity="5.0272071361541748e-01" nType="0">
        <Node pos="l" depth="1" NCoef="0" IVar="4" Cut="4.2557331919670105e-01" cType="1" res="-3.2782632857561111e-02" rms="4.4342219829559326e-01" purity="5.2634584903717041e-01" nType="0">
          <Node pos="l" depth="2" NCoef="0" IVar="-1" Cut="0.0000000000000000e+00" cType="1" res="-3.7542961072176695e-03" rms="4.5022559165954590e-01" purity="4.8239776492118835e-01" nType="-99"/>
          <Node pos="r" depth="2" NCoef="0" IVar="-1" Cut="0.0000000000000000e+00" cType="1" res="-5.9830927057191730e-04" rms="4.3570929765701294e-01" purity="5.6707388162612915e-01" nType="-99"/>
        </Node>
        <Node pos="r" depth="1" NCoef="0" IVar="4" Cut="5.6103241443634033e-01" cType="1" res="4.8655513674020767e-03" rms="4.5378768444061279e-01" purity="4.9984201788902283e-01" nType="0">
          <Node pos="l" depth="2" NCoef="0" IVar="-1" Cut="0.0000000000000000e+00" cType="1" res="9.6808958005567547e-07" rms="4.5368111133575439e-01" purity="4.7810527682304382e-01" nType="-99"/>
          <Node pos="r" depth="2" NCoef="0" IVar="-1" Cut="0.0000000000000000e+00" cType="1" res="1.3903588987886906e-03" rms="4.5374178886413574e-01" purity="5.7815778255462646e-01" nType="-99"/>
        </Node>
      </Node>
    </BinaryTree>
    <BinaryTree type="DecisionTree" boostWeight="1.0000000000000000e+00" itree="1090">
      <Node pos="s" depth="0" NCoef="0" IVar="0" Cut="2.8382015228271484e+00" cType="1" res="-5.8707501739263535e-03" rms="4.5413249731063843e-01" purity="4.9581521749496460e-01" nType="0">
        <Node pos="l" depth="1" NCoef="0" IVar="5" Cut="9.5259380340576172e-01" cType="1" res="3.6659757606685162e-03" rms="4.5575061440467834e-01" purity="3.8237267732620239e-01" nType="0">
          <Node pos="l" depth="2" NCoef="0" IVar="-1" Cut="0.0000000000000000e+00" cType="1" res="-4.5241080806590617e-04" rms="4.4546627998352051e-01" purity="3.2169240713119507e-01" nType="-99"/>
          <Node pos="r" depth="2" NCoef="0" IVar="-1" Cut="0.0000000000000000e+00" cType="1" res="1.5587024390697479e-03" rms="4.7572013735771179e-01" purity="5.0886726379394531e-01" nType="-99"/>
        </Node>
        <Node pos="r" depth="1" NCoef="0" IVar="4" Cut="1.8416251242160797e-01" cType="1" res="-1.5946442261338234e-02" rms="4.5219817757606506e-01" purity="6.1566895246505737e-01" nType="0">
          <Node pos="l" depth="2" NCoef="0" IVar="-1" Cut="0.0000000000000000e+00" cType="1" res="-2.6055439375340939e-03" rms="4.6079885959625244e-01" purity="4.9107369780540466e-01" nType="-99"/>
          <Node pos="r" depth="2" NCoef="0" IVar="-1" Cut="0.0000000000000000e+00" cType="1" res="-6.8539340281859040e-04" rms="4.5043835043907166e-01" purity="6.3819098472595215e-01" nType="-99"/>
        </Node>
      </Node>
    </BinaryTree>
    <BinaryTree type="DecisionTree" boostWeight="1.0000000000000000e+00" itree="1091">
      <Node pos="s" depth="0" NCoef="0" IVar="4" Cut="4.1026163101196289e-01" cType="1" res="2.3678410798311234e-04" rms="4.5227465033531189e-01" purity="4.9914833903312683e-01" nType="0">
        <Node pos="l" depth="1" NCoef="0" IVar="6" Cut="1.8237086534500122e+00" cType="1" res="-9.0246684849262238e-03" rms="4.5113760232925415e-01" purity="4.5341235399246216e-01" nType="0">
          <Node pos="l" depth="2" NCoef="0" IVar="-1" Cut="0.0000000000000000e+00" cType="1" res="1.3635110808536410e-03" rms="4.4550698995590210e-01" purity="5.8550125360488892e-01" nType="-99"/>
          <Node pos="r" depth="2" NCoef="0" IVar="-1" Cut="0.0000000000000000e+00" cType="1" res="-9.5611205324530602e-04" rms="4.5196375250816345e-01" purity="4.2814540863037109e-01" nType="-99"/>
        </Node>
        <Node pos="r" depth="1" NCoef="0" IVar="3" Cut="-5.1947133615612984e-03" cType="1" res="1.1362795718014240e-02" rms="4.5338678359985352e-01" purity="5.5409204959869385e-01" nType="0">
          <Node pos="l" depth="2" NCoef="0" IVar="-1" Cut="0.0000000000000000e+00" cType="1" res="1.2775491923093796e-03" rms="4.4998431205749512e-01" purity="5.8138835430145264e-01" nType="-99"/>
          <Node pos="r" depth="2" NCoef="0" IVar="-1" Cut="0.0000000000000000e+00" cType="1" res="-9.5314710051752627e-05" rms="4.5794460177421570e-01" purity="5.1471108198165894e-01" nType="-99"/>
        </Node>
      </Node>
    </BinaryTree>
    <BinaryTree type="DecisionTree" boostWeight="1.0000000000000000e+00" itree="1092">
      <Node pos="s" depth="0" NCoef="0" IVar="2" Cut="1.4660421752929688e+02" cType="1" res="-3.2651093788444996e-03" rms="4.5290726423263550e-01" purity="4.9809896945953369e-01" nType="0">
        <Node pos="l" depth="1" NCoef="0" IVar="1" Cut="6.6534466552734375e+02" cType="1" res="-7.3352959007024765e-03" rms="4.5216554403305054e-01" purity="4.9089357256889343e-01" nType="0">
          <Node pos="l" depth="2" NCoef="0" IVar="-1" Cut="0.0000000000000000e+00" cType="1" res="-8.1897579366341233e-04" rms="4.5185098052024841e-01" purity="4.5685881376266479e-01" nType="-99"/>
          <Node pos="r" depth="2" NCoef="0" IVar="-1" Cut="0.0000000000000000e+00" cType="1" res="1.0444568470120430e-03" rms="4.5269969105720520e-01" purity="6.3272535800933838e-01" nType="-99"/>
        </Node>
        <Node pos="r" depth="1" NCoef="0" IVar="7" Cut="7.7100730895996094e+01" cType="1" res="1.6939328983426094e-02" rms="4.5603388547897339e-01" purity="5.3386646509170532e-01" nType="0">
          <Node pos="l" depth="2" NCoef="0" IVar="-1" Cut="0.0000000000000000e+00" cType="1" res="2.6685257907956839e-03" rms="4.4875258207321167e-01" purity="4.8156216740608215e-01" nType="-99"/>
          <Node pos="r" depth="2" NCoef="0" IVar="-1" Cut="0.0000000000000000e+00" cType="1" res="5.5613196309423074e-05" rms="4.6012359857559204e-01" purity="5.6873375177383423e-01" nType="-99"/>
        </Node>
      </Node>
    </BinaryTree>
    <BinaryTree type="DecisionTree" boostWeight="1.0000000000000000e+00" itree="1093">
      <Node pos="s" depth="0" NCoef="0" IVar="6" Cut="2.2937786579132080e+00" cType="1" res="-1.9114107126370072e-03" rms="4.5081746578216553e-01" purity="4.9823868274688721e-01" nType="0">
        <Node pos="l" depth="1" NCoef="0" IVar="7" Cut="9.0200416564941406e+01" cType="1" res="4.9922829493880272e-03" rms="4.5272681117057800e-01" purity="5.6012940406799316e-01" nType="0">
          <Node pos="l" depth="2" NCoef="0" IVar="-1" Cut="0.0000000000000000e+00" cType="1" res="6.7952409153804183e-04" rms="4.5556011795997620e-01" purity="5.3241664171218872e-01" nType="-99"/>
          <Node pos="r" depth="2" NCoef="0" IVar="-1" Cut="0.0000000000000000e+00" cType="1" res="-9.5519749447703362e-04" rms="4.4285547733306885e-01" purity="6.4993143081665039e-01" nType="-99"/>
        </Node>
        <Node pos="r" depth="1" NCoef="0" IVar="0" Cut="1.9965056180953979e+00" cType="1" res="-1.3056590221822262e-02" rms="4.4749319553375244e-01" purity="3.9832356572151184e-01" nType="0">
          <Node pos="l" depth="2" NCoef="0" IVar="-1" Cut="0.0000000000000000e+00" cType="1" res="1.0790760861709714e-03" rms="4.2176428437232971e-01" purity="2.7032411098480225e-01" nType="-99"/>
          <Node pos="r" depth="2" NCoef="0" IVar="-1" Cut="0.0000000000000000e+00" cType="1" res="-1.5238410560414195e-03" rms="4.5806419849395752e-01" purity="4.5583781599998474e-01" nType="-99"/>
        </Node>
      </Node>
    </BinaryTree>
    <BinaryTree type="DecisionTree" boostWeight="1.0000000000000000e+00" itree="1094">
      <Node pos="s" depth="0" NCoef="0" IVar="7" Cut="1.0184221649169922e+02" cType="1" res="4.0922719053924084e-03" rms="4.5365533232688904e-01" purity="5.0200241804122925e-01" nType="0">
        <Node pos="l" depth="1" NCoef="0" IVar="7" Cut="4.8252777099609375e+01" cType="1" res="7.9778442159295082e-03" rms="4.5400136709213257e-01" purity="4.8582229018211365e-01" nType="0">
          <Node pos="l" depth="2" NCoef="0" IVar="-1" Cut="0.0000000000000000e+00" cType="1" res="-8.1041856901720166e-04" rms="4.4013634324073792e-01" purity="3.4560477733612061e-01" nType="-99"/>
          <Node pos="r" depth="2" NCoef="0" IVar="-1" Cut="0.0000000000000000e+00" cType="1" res="7.6164602069184184e-04" rms="4.5680290460586548e-01" purity="5.1585769653320312e-01" nType="-99"/>
        </Node>
        <Node pos="r" depth="1" NCoef="0" IVar="3" Cut="4.5952942222356796e-02" cType="1" res="-1.8416553735733032e-02" rms="4.5098727941513062e-01" purity="5.9573280811309814e-01" nType="0">
          <Node pos="l" depth="2" NCoef="0" IVar="-1" Cut="0.0000000000000000e+00" cType="1" res="-2.4353535845875740e-03" rms="4.5539936423301697e-01" purity="6.0392123460769653e-01" nType="-99"/>
          <Node pos="r" depth="2" NCoef="0" IVar="-1" Cut="0.0000000000000000e+00" cType="1" res="2.8949708212167025e-04" rms="4.4455528259277344e-01" purity="5.8591246604919434e-01" nType="-99"/>
        </Node>
      </Node>
    </BinaryTree>
    <BinaryTree type="DecisionTree" boostWeight="1.0000000000000000e+00" itree="1095">
      <Node pos="s" depth="0" NCoef="0" IVar="4" Cut="2.1382044255733490e-01" cType="1" res="8.4606355812866241e-05" rms="4.5266425609588623e-01" purity="4.9977231025695801e-01" nType="0">
        <Node pos="l" depth="1" NCoef="0" IVar="2" Cut="1.0057661437988281e+02" cType="1" res="1.1740187183022499e-02" rms="4.4962674379348755e-01" purity="4.4086995720863342e-01" nType="0">
          <Node pos="l" depth="2" NCoef="0" IVar="-1" Cut="0.0000000000000000e+00" cType="1" res="-7.8578316606581211e-04" rms="4.4807174801826477e-01" purity="3.9942046999931335e-01" nType="-99"/>
          <Node pos="r" depth="2" NCoef="0" IVar="-1" Cut="0.0000000000000000e+00" cType="1" res="2.2705607116222382e-03" rms="4.4990733265876770e-01" purity="4.8066163063049316e-01" nType="-99"/>
        </Node>
        <Node pos="r" depth="1" NCoef="0" IVar="9" Cut="3.2983428239822388e-01" cType="1" res="-2.7571308892220259e-03" rms="4.5335632562637329e-01" purity="5.1413321495056152e-01" nType="0">
          <Node pos="l" depth="2" NCoef="0" IVar="-1" Cut="0.0000000000000000e+00" cType="1" res="6.8134983303025365e-04" rms="4.4503828883171082e-01" purity="5.6467235088348389e-01" nType="-99"/>
          <Node pos="r" depth="2" NCoef="0" IVar="-1" Cut="0.0000000000000000e+00" cType="1" res="-4.7882820945233107e-04" rms="4.5621013641357422e-01" purity="4.9597787857055664e-01" nType="-99"/>
        </Node>
      </Node>
    </BinaryTree>
    <BinaryTree type="DecisionTree" boostWeight="1.0000000000000000e+00" itree="1096">
      <Node pos="s" depth="0" NCoef="0" IVar="3" Cut="-7.1072094142436981e-02" cType="1" res="1.8531678942963481e-03" rms="4.5549628138542175e-01" purity="5.0222730636596680e-01" nType="0">
        <Node pos="l" depth="1" NCoef="0" IVar="-1" Cut="0.0000000000000000e+00" cType="1" res="-2.2658931557089090e-03" rms="4.5496779680252075e-01" purity="5.4510664939880371e-01" nType="-99"/>
        <Node pos="r" depth="1" NCoef="0" IVar="4" Cut="6.7270642518997192e-01" cType="1" res="3.9766444824635983e-03" rms="4.5543640851974487e-01" purity="4.9974489212036133e-01" nType="0">
          <Node pos="l" depth="2" NCoef="0" IVar="-1" Cut="0.0000000000000000e+00" cType="1" res="4.2725363164208829e-04" rms="4.5581147074699402e-01" purity="4.9721187353134155e-01" nType="-99"/>
          <Node pos="r" depth="2" NCoef="0" IVar="-1" Cut="0.0000000000000000e+00" cType="1" res="-1.9359729485586286e-03" rms="4.4931286573410034e-01" purity="5.3126293420791626e-01" nType="-99"/>
        </Node>
      </Node>
    </BinaryTree>
    <BinaryTree type="DecisionTree" boostWeight="1.0000000000000000e+00" itree="1097">
      <Node pos="s" depth="0" NCoef="0" IVar="0" Cut="4.0011043548583984e+00" cType="1" res="1.4191693626344204e-03" rms="4.5327299833297729e-01" purity="5.0005823373794556e-01" nType="0">
        <Node pos="l" depth="1" NCoef="0" IVar="2" Cut="5.1496009826660156e+01" cType="1" res="-4.6579851768910885e-03" rms="4.6269139647483826e-01" purity="4.3304216861724854e-01" nType="0">
          <Node pos="l" depth="2" NCoef="0" IVar="-1" Cut="0.0000000000000000e+00" cType="1" res="1.8039724091067910e-03" rms="4.6492162346839905e-01" purity="4.3529915809631348e-01" nType="-99"/>
          <Node pos="r" depth="2" NCoef="0" IVar="-1" Cut="0.0000000000000000e+00" cType="1" res="-5.7789473794400692e-04" rms="4.6218729019165039e-01" purity="4.3273249268531799e-01" nType="-99"/>
        </Node>
        <Node pos="r" depth="1" NCoef="0" IVar="8" Cut="1.2266992330551147e+00" cType="1" res="2.2282227873802185e-02" rms="4.1866207122802734e-01" purity="7.3012632131576538e-01" nType="0">
          <Node pos="l" depth="2" NCoef="0" IVar="-1" Cut="0.0000000000000000e+00" cType="1" res="2.6247841306030750e-03" rms="4.0553241968154907e-01" purity="7.6879006624221802e-01" nType="-99"/>
          <Node pos="r" depth="2" NCoef="0" IVar="-1" Cut="0.0000000000000000e+00" cType="1" res="-4.0430328226648271e-04" rms="4.4230040907859802e-01" purity="6.5301483869552612e-01" nType="-99"/>
        </Node>
      </Node>
    </BinaryTree>
    <BinaryTree type="DecisionTree" boostWeight="1.0000000000000000e+00" itree="1098">
      <Node pos="s" depth="0" NCoef="0" IVar="8" Cut="6.2849092483520508e-01" cType="1" res="8.4165413863956928e-04" rms="4.5266252756118774e-01" purity="4.9999603629112244e-01" nType="0">
        <Node pos="l" depth="1" NCoef="0" IVar="0" Cut="2.9472351074218750e+00" cType="1" res="2.8245843946933746e-02" rms="4.5074093341827393e-01" purity="5.9505271911621094e-01" nType="0">
          <Node pos="l" depth="2" NCoef="0" IVar="-1" Cut="0.0000000000000000e+00" cType="1" res="3.1155361793935299e-03" rms="4.7036427259445190e-01" purity="4.8072150349617004e-01" nType="-99"/>
          <Node pos="r" depth="2" NCoef="0" IVar="-1" Cut="0.0000000000000000e+00" cType="1" res="4.1235407115891576e-04" rms="4.2980593442916870e-01" purity="7.0533925294876099e-01" nType="-99"/>
        </Node>
        <Node pos="r" depth="1" NCoef="0" IVar="6" Cut="1.7627363204956055e+00" cType="1" res="-2.4497087579220533e-03" rms="4.5278120040893555e-01" purity="4.8857927322387695e-01" nType="0">
          <Node pos="l" depth="2" NCoef="0" IVar="-1" Cut="0.0000000000000000e+00" cType="1" res="-1.9381131278350949e-03" rms="4.5611500740051270e-01" purity="5.5511718988418579e-01" nType="-99"/>
          <Node pos="r" depth="2" NCoef="0" IVar="-1" Cut="0.0000000000000000e+00" cType="1" res="1.6016421432141215e-04" rms="4.5201262831687927e-01" purity="4.7695717215538025e-01" nType="-99"/>
        </Node>
      </Node>
    </BinaryTree>
    <BinaryTree type="DecisionTree" boostWeight="1.0000000000000000e+00" itree="1099">
      <Node pos="s" depth="0" NCoef="0" IVar="0" Cut="4.9277687072753906e+00" cType="1" res="7.6533416286110878e-03" rms="4.5235937833786011e-01" purity="5.0867104530334473e-01" nType="0">
        <Node pos="l" depth="1" NCoef="0" IVar="1" Cut="9.0527807617187500e+02" cType="1" res="5.4014497436583042e-03" rms="4.5900219678878784e-01" purity="4.7737136483192444e-01" nType="0">
          <Node pos="l" depth="2" NCoef="0" IVar="-1" Cut="0.0000000000000000e+00" cType="1" res="2.2874689602758735e-04" rms="4.5893767476081848e-01" purity="4.6533164381980896e-01" nType="-99"/>
          <Node pos="r" depth="2" NCoef="0" IVar="-1" Cut="0.0000000000000000e+00" cType="1" res="1.7247404903173447e-03" rms="4.5925837755203247e-01" purity="6.3737201690673828e-01" nType="-99"/>
        </Node>
        <Node pos="r" depth="1" NCoef="0" IVar="-1" Cut="0.0000000000000000e+00" cType="1" res="2.2362924646586180e-03" rms="3.8425529003143311e-01" purity="8.0071842670440674e-01" nType="-99"/>
      </Node>
    </BinaryTree>
    <BinaryTree type="DecisionTree" boostWeight="1.0000000000000000e+00" itree="1100">
      <Node pos="s" depth="0" NCoef="0" IVar="8" Cut="1.7780532836914062e+00" cType="1" res="4.4909622520208359e-03" rms="4.5202410221099854e-01" purity="5.0405120849609375e-01" nType="0">
        <Node pos="l" depth="1" NCoef="0" IVar="7" Cut="1.0958126831054688e+02" cType="1" res="7.2580981068313122e-03" rms="4.5308309793472290e-01" purity="5.1200807094573975e-01" nType="0">
          <Node pos="l" depth="2" NCoef="0" IVar="-1" Cut="0.0000000000000000e+00" cType="1" res="2.4497063714079559e-04" rms="4.5418742299079895e-01" purity="4.9278992414474487e-01" nType="-99"/>
          <Node pos="r" depth="2" NCoef="0" IVar="-1" Cut="0.0000000000000000e+00" cType="1" res="2.0750022958964109e-03" rms="4.4405865669250488e-01" purity="6.5396100282669067e-01" nType="-99"/>
        </Node>
        <Node pos="r" depth="1" NCoef="0" IVar="-1" Cut="0.0000000000000000e+00" cType="1" res="-2.3266759235411882e-03" rms="4.3432274460792542e-01" purity="3.8820755481719971e-01" nType="-99"/>
      </Node>
    </BinaryTree>
    <BinaryTree type="DecisionTree" boostWeight="1.0000000000000000e+00" itree="1101">
      <Node pos="s" depth="0" NCoef="0" IVar="2" Cut="1.2626292419433594e+02" cType="1" res="6.5984134562313557e-04" rms="4.5423600077629089e-01" purity="5.0323659181594849e-01" nType="0">
        <Node pos="l" depth="1" NCoef="0" IVar="4" Cut="1.5803685784339905e-01" cType="1" res="7.6645603403449059e-03" rms="4.5578983426094055e-01" purity="5.0081515312194824e-01" nType="0">
          <Node pos="l" depth="2" NCoef="0" IVar="-1" Cut="0.0000000000000000e+00" cType="1" res="2.3425142280757427e-03" rms="4.6053642034530640e-01" purity="4.4748842716217041e-01" nType="-99"/>
          <Node pos="r" depth="2" NCoef="0" IVar="-1" Cut="0.0000000000000000e+00" cType="1" res="2.6965321740135550e-04" rms="4.5511254668235779e-01" purity="5.0706648826599121e-01" nType="-99"/>
        </Node>
        <Node pos="r" depth="1" NCoef="0" IVar="4" Cut="3.7162327766418457e-01" cType="1" res="-1.7434397712349892e-02" rms="4.4969275593757629e-01" purity="5.0949144363403320e-01" nType="0">
          <Node pos="l" depth="2" NCoef="0" IVar="-1" Cut="0.0000000000000000e+00" cType="1" res="-2.5216382928192616e-03" rms="4.4684368371963501e-01" purity="4.3773674964904785e-01" nType="-99"/>
          <Node pos="r" depth="2" NCoef="0" IVar="-1" Cut="0.0000000000000000e+00" cType="1" res="2.6348396204411983e-04" rms="4.5150157809257507e-01" purity="5.8138245344161987e-01" nType="-99"/>
        </Node>
      </Node>
    </BinaryTree>
    <BinaryTree type="DecisionTree" boostWeight="1.0000000000000000e+00" itree="1102">
      <Node pos="s" depth="0" NCoef="0" IVar="9" Cut="4.5881974697113037e-01" cType="1" res="8.4664422320201993e-04" rms="4.5377615094184875e-01" purity="5.0073921680450439e-01" nType="0">
        <Node pos="l" depth="1" NCoef="0" IVar="8" Cut="6.9940936565399170e-01" cType="1" res="1.2181188911199570e-02" rms="4.5083281397819519e-01" purity="5.5481064319610596e-01" nType="0">
          <Node pos="l" depth="2" NCoef="0" IVar="-1" Cut="0.0000000000000000e+00" cType="1" res="-1.4764866791665554e-03" rms="4.4132447242736816e-01" purity="5.7504659891128540e-01" nType="-99"/>
          <Node pos="r" depth="2" NCoef="0" IVar="-1" Cut="0.0000000000000000e+00" cType="1" res="1.2231182772666216e-03" rms="4.5245084166526794e-01" purity="5.5058330297470093e-01" nType="-99"/>
        </Node>
        <Node pos="r" depth="1" NCoef="0" IVar="2" Cut="5.2653572082519531e+01" cType="1" res="-7.4153388850390911e-03" rms="4.5573204755783081e-01" purity="4.6132537722587585e-01" nType="0">
          <Node pos="l" depth="2" NCoef="0" IVar="-1" Cut="0.0000000000000000e+00" cType="1" res="2.3959267418831587e-03" rms="4.7314658761024475e-01" purity="4.8056119680404663e-01" nType="-99"/>
          <Node pos="r" depth="2" NCoef="0" IVar="-1" Cut="0.0000000000000000e+00" cType="1" res="-7.9238496255129576e-04" rms="4.5350775122642517e-01" purity="4.5922622084617615e-01" nType="-99"/>
        </Node>
      </Node>
    </BinaryTree>
    <BinaryTree type="DecisionTree" boostWeight="1.0000000000000000e+00" itree="1103">
      <Node pos="s" depth="0" NCoef="0" IVar="0" Cut="3.6340365409851074e+00" cType="1" res="-5.7956129312515259e-03" rms="4.5392432808876038e-01" purity="4.9192121624946594e-01" nType="0">
        <Node pos="l" depth="1" NCoef="0" IVar="7" Cut="6.0639968872070312e+01" cType="1" res="-1.0480226948857307e-02" rms="4.6084287762641907e-01" purity="4.0878182649612427e-01" nType="0">
          <Node pos="l" depth="2" NCoef="0" IVar="-1" Cut="0.0000000000000000e+00" cType="1" res="2.0829628920182586e-04" rms="4.4437676668167114e-01" purity="3.4197995066642761e-01" nType="-99"/>
          <Node pos="r" depth="2" NCoef="0" IVar="-1" Cut="0.0000000000000000e+00" cType="1" res="-1.1692452244460583e-03" rms="4.7143614292144775e-01" purity="4.5398485660552979e-01" nType="-99"/>
        </Node>
        <Node pos="r" depth="1" NCoef="0" IVar="4" Cut="4.2630556225776672e-01" cType="1" res="5.2250176668167114e-03" rms="4.3701881170272827e-01" purity="6.8750792741775513e-01" nType="0">
          <Node pos="l" depth="2" NCoef="0" IVar="-1" Cut="0.0000000000000000e+00" cType="1" res="1.0992867173627019e-03" rms="4.4480305910110474e-01" purity="6.6303229331970215e-01" nType="-99"/>
          <Node pos="r" depth="2" NCoef="0" IVar="-1" Cut="0.0000000000000000e+00" cType="1" res="-7.3726958362385631e-04" rms="4.2625615000724792e-01" purity="7.1908164024353027e-01" nType="-99"/>
        </Node>
      </Node>
    </BinaryTree>
    <BinaryTree type="DecisionTree" boostWeight="1.0000000000000000e+00" itree="1104">
      <Node pos="s" depth="0" NCoef="0" IVar="5" Cut="9.5654219388961792e-01" cType="1" res="-4.2188768275082111e-03" rms="4.4940385222434998e-01" purity="4.9592784047126770e-01" nType="0">
        <Node pos="l" depth="1" NCoef="0" IVar="6" Cut="2.3875288963317871e+00" cType="1" res="-1.3308775611221790e-02" rms="4.5241534709930420e-01" purity="3.8653850555419922e-01" nType="0">
          <Node pos="l" depth="2" NCoef="0" IVar="-1" Cut="0.0000000000000000e+00" cType="1" res="-2.8040335746482015e-04" rms="4.6837151050567627e-01" purity="4.4161164760589600e-01" nType="-99"/>
          <Node pos="r" depth="2" NCoef="0" IVar="-1" Cut="0.0000000000000000e+00" cType="1" res="-2.2440298926085234e-03" rms="4.1447705030441284e-01" purity="2.6518219709396362e-01" nType="-99"/>
        </Node>
        <Node pos="r" depth="1" NCoef="0" IVar="5" Cut="9.6575284004211426e-01" cType="1" res="7.1743265725672245e-03" rms="4.4533857703208923e-01" purity="6.3303554058074951e-01" nType="0">
          <Node pos="l" depth="2" NCoef="0" IVar="-1" Cut="0.0000000000000000e+00" cType="1" res="1.9954836461693048e-03" rms="4.6080848574638367e-01" purity="5.6480401754379272e-01" nType="-99"/>
          <Node pos="r" depth="2" NCoef="0" IVar="-1" Cut="0.0000000000000000e+00" cType="1" res="-2.2874263231642544e-04" rms="4.3853327631950378e-01" purity="6.6041564941406250e-01" nType="-99"/>
        </Node>
      </Node>
    </BinaryTree>
    <BinaryTree type="DecisionTree" boostWeight="1.0000000000000000e+00" itree="1105">
      <Node pos="s" depth="0" NCoef="0" IVar="5" Cut="9.7196012735366821e-01" cType="1" res="-4.3921219184994698e-03" rms="4.5103618502616882e-01" purity="4.9483031034469604e-01" nType="0">
        <Node pos="l" depth="1" NCoef="0" IVar="3" Cut="1.4877888560295105e-01" cType="1" res="-1.0022603906691074e-02" rms="4.5795160531997681e-01" purity="4.2802560329437256e-01" nType="0">
          <Node pos="l" depth="2" NCoef="0" IVar="-1" Cut="0.0000000000000000e+00" cType="1" res="-4.4199070543982089e-04" rms="4.5936658978462219e-01" purity="4.3663367629051208e-01" nType="-99"/>
          <Node pos="r" depth="2" NCoef="0" IVar="-1" Cut="0.0000000000000000e+00" cType="1" res="-2.1484650205820799e-03" rms="4.4546240568161011e-01" purity="3.5712185502052307e-01" nType="-99"/>
        </Node>
        <Node pos="r" depth="1" NCoef="0" IVar="6" Cut="2.4450867176055908e+00" cType="1" res="1.3827159069478512e-02" rms="4.2738571763038635e-01" purity="7.1099913120269775e-01" nType="0">
          <Node pos="l" depth="2" NCoef="0" IVar="-1" Cut="0.0000000000000000e+00" cType="1" res="4.6547275269404054e-04" rms="4.1823852062225342e-01" purity="7.4105495214462280e-01" nType="-99"/>
          <Node pos="r" depth="2" NCoef="0" IVar="-1" Cut="0.0000000000000000e+00" cType="1" res="2.4919975548982620e-03" rms="4.5818749070167542e-01" purity="6.0130149126052856e-01" nType="-99"/>
        </Node>
      </Node>
    </BinaryTree>
    <BinaryTree type="DecisionTree" boostWeight="1.0000000000000000e+00" itree="1106">
      <Node pos="s" depth="0" NCoef="0" IVar="2" Cut="1.9379936218261719e+02" cType="1" res="8.9639896759763360e-04" rms="4.5328912138938904e-01" purity="5.0244998931884766e-01" nType="0">
        <Node pos="l" depth="1" NCoef="0" IVar="5" Cut="9.7190058231353760e-01" cType="1" res="-8.4688363131135702e-04" rms="4.5318898558616638e-01" purity="5.0157016515731812e-01" nType="0">
          <Node pos="l" depth="2" NCoef="0" IVar="-1" Cut="0.0000000000000000e+00" cType="1" res="-3.1726952875033021e-04" rms="4.6088847517967224e-01" purity="4.3497794866561890e-01" nType="-99"/>
          <Node pos="r" depth="2" NCoef="0" IVar="-1" Cut="0.0000000000000000e+00" cType="1" res="8.7725755292922258e-04" rms="4.2826965451240540e-01" purity="7.0715987682342529e-01" nType="-99"/>
        </Node>
        <Node pos="r" depth="1" NCoef="0" IVar="-1" Cut="0.0000000000000000e+00" cType="1" res="1.6745210159569979e-03" rms="4.5398703217506409e-01" purity="5.1517260074615479e-01" nType="-99"/>
      </Node>
    </BinaryTree>
    <BinaryTree type="DecisionTree" boostWeight="1.0000000000000000e+00" itree="1107">
      <Node pos="s" depth="0" NCoef="0" IVar="0" Cut="5.2493157386779785e+00" cType="1" res="3.7261436227709055e-03" rms="4.5546266436576843e-01" purity="5.0112891197204590e-01" nType="0">
        <Node pos="l" depth="1" NCoef="0" IVar="3" Cut="1.6988283395767212e-01" cType="1" res="6.5324902534484863e-03" rms="4.5784819126129150e-01" purity="4.8267480731010437e-01" nType="0">
          <Node pos="l" depth="2" NCoef="0" IVar="-1" Cut="0.0000000000000000e+00" cType="1" res="2.7870631311088800e-04" rms="4.5784243941307068e-01" purity="4.8541390895843506e-01" nType="-99"/>
          <Node pos="r" depth="2" NCoef="0" IVar="-1" Cut="0.0000000000000000e+00" cType="1" res="2.1435793023556471e-03" rms="4.5709863305091858e-01" purity="4.4738268852233887e-01" nType="-99"/>
        </Node>
        <Node pos="r" depth="1" NCoef="0" IVar="-1" Cut="0.0000000000000000e+00" cType="1" res="-2.9042153619229794e-03" rms="4.1945916414260864e-01" purity="7.5445294380187988e-01" nType="-99"/>
      </Node>
    </BinaryTree>
    <BinaryTree type="DecisionTree" boostWeight="1.0000000000000000e+00" itree="1108">
      <Node pos="s" depth="0" NCoef="0" IVar="4" Cut="2.8375750780105591e-01" cType="1" res="1.0591846657916903e-03" rms="4.5340210199356079e-01" purity="5.0133460760116577e-01" nType="0">
        <Node pos="l" depth="1" NCoef="0" IVar="1" Cut="4.9072317504882812e+02" cType="1" res="-1.6604574397206306e-02" rms="4.5113766193389893e-01" purity="4.2339512705802917e-01" nType="0">
          <Node pos="l" depth="2" NCoef="0" IVar="-1" Cut="0.0000000000000000e+00" cType="1" res="6.0843507526442409e-04" rms="4.3547317385673523e-01" purity="3.4053969383239746e-01" nType="-99"/>
          <Node pos="r" depth="2" NCoef="0" IVar="-1" Cut="0.0000000000000000e+00" cType="1" res="-1.7998701659962535e-03" rms="4.5819279551506042e-01" purity="4.6452030539512634e-01" nType="-99"/>
        </Node>
        <Node pos="r" depth="1" NCoef="0" IVar="5" Cut="9.5685303211212158e-01" cType="1" res="9.1763399541378021e-03" rms="4.5420858263969421e-01" purity="5.3715074062347412e-01" nType="0">
          <Node pos="l" depth="2" NCoef="0" IVar="-1" Cut="0.0000000000000000e+00" cType="1" res="1.1200904846191406e-03" rms="4.6492105722427368e-01" purity="4.4278264045715332e-01" nType="-99"/>
          <Node pos="r" depth="2" NCoef="0" IVar="-1" Cut="0.0000000000000000e+00" cType="1" res="-1.3786955969408154e-04" rms="4.4072240591049194e-01" purity="6.5060073137283325e-01" nType="-99"/>
        </Node>
      </Node>
    </BinaryTree>
    <BinaryTree type="DecisionTree" boostWeight="1.0000000000000000e+00" itree="1109">
      <Node pos="s" depth="0" NCoef="0" IVar="9" Cut="8.3519321680068970e-01" cType="1" res="2.1920751314610243e-03" rms="4.5461601018905640e-01" purity="5.0242233276367188e-01" nType="0">
        <Node pos="l" depth="1" NCoef="0" IVar="1" Cut="6.0971142578125000e+02" cType="1" res="-2.6908968575298786e-03" rms="4.5336201786994934e-01" purity="5.1908493041992188e-01" nType="0">
          <Node pos="l" depth="2" NCoef="0" IVar="-1" Cut="0.0000000000000000e+00" cType="1" res="-6.0822902014479041e-04" rms="4.5601016283035278e-01" purity="4.6331661939620972e-01" nType="-99"/>
          <Node pos="r" depth="2" NCoef="0" IVar="-1" Cut="0.0000000000000000e+00" cType="1" res="6.9599348353222013e-04" rms="4.4784176349639893e-01" purity="6.2774920463562012e-01" nType="-99"/>
        </Node>
        <Node pos="r" depth="1" NCoef="0" IVar="7" Cut="7.3584533691406250e+01" cType="1" res="2.4695837870240211e-02" rms="4.5968118309974670e-01" purity="4.2563068866729736e-01" nType="0">
          <Node pos="l" depth="2" NCoef="0" IVar="-1" Cut="0.0000000000000000e+00" cType="1" res="2.9986724257469177e-03" rms="4.5496550202369690e-01" purity="4.0670129656791687e-01" nType="-99"/>
          <Node pos="r" depth="2" NCoef="0" IVar="-1" Cut="0.0000000000000000e+00" cType="1" res="-7.7305082231760025e-04" rms="4.6602880954742432e-01" purity="4.6075254678726196e-01" nType="-99"/>
        </Node>
      </Node>
    </BinaryTree>
    <BinaryTree type="DecisionTree" boostWeight="1.0000000000000000e+00" itree="1110">
      <Node pos="s" depth="0" NCoef="0" IVar="7" Cut="1.0220034027099609e+02" cType="1" res="1.0772299719974399e-03" rms="4.5325738191604614e-01" purity="5.0201618671417236e-01" nType="0">
        <Node pos="l" depth="1" NCoef="0" IVar="5" Cut="9.6453619003295898e-01" cType="1" res="4.8596239648759365e-03" rms="4.5264050364494324e-01" purity="4.8649513721466064e-01" nType="0">
          <Node pos="l" depth="2" NCoef="0" IVar="-1" Cut="0.0000000000000000e+00" cType="1" res="6.5898365573957562e-04" rms="4.5596489310264587e-01" purity="4.1326111555099487e-01" nType="-99"/>
          <Node pos="r" depth="2" NCoef="0" IVar="-1" Cut="0.0000000000000000e+00" cType="1" res="-4.8544903984293342e-04" rms="4.4531702995300293e-01" purity="6.4063733816146851e-01" nType="-99"/>
        </Node>
        <Node pos="r" depth="1" NCoef="0" IVar="0" Cut="3.4607067108154297e+00" cType="1" res="-2.1696723997592926e-02" rms="4.5629167556762695e-01" purity="5.9546858072280884e-01" nType="0">
          <Node pos="l" depth="2" NCoef="0" IVar="-1" Cut="0.0000000000000000e+00" cType="1" res="-2.3749801330268383e-03" rms="4.7853562235832214e-01" purity="4.8359617590904236e-01" nType="-99"/>
          <Node pos="r" depth="2" NCoef="0" IVar="-1" Cut="0.0000000000000000e+00" cType="1" res="2.4906487669795752e-04" rms="4.2223030328750610e-01" purity="7.5063735246658325e-01" nType="-99"/>
        </Node>
      </Node>
    </BinaryTree>
    <BinaryTree type="DecisionTree" boostWeight="1.0000000000000000e+00" itree="1111">
      <Node pos="s" depth="0" NCoef="0" IVar="4" Cut="1.1763027310371399e-01" cType="1" res="-4.7549423761665821e-03" rms="4.5426872372627258e-01" purity="4.9528288841247559e-01" nType="0">
        <Node pos="l" depth="1" NCoef="0" IVar="-1" Cut="0.0000000000000000e+00" cType="1" res="-3.0815347563475370e-03" rms="4.3391337990760803e-01" purity="3.2762241363525391e-01" nType="-99"/>
        <Node pos="r" depth="1" NCoef="0" IVar="8" Cut="1.7612037658691406e+00" cType="1" res="-2.2525966633111238e-03" rms="4.5537865161895752e-01" purity="5.0564360618591309e-01" nType="0">
          <Node pos="l" depth="2" NCoef="0" IVar="-1" Cut="0.0000000000000000e+00" cType="1" res="-2.8397413552738726e-04" rms="4.5648291707038879e-01" purity="5.0952434539794922e-01" nType="-99"/>
          <Node pos="r" depth="2" NCoef="0" IVar="-1" Cut="0.0000000000000000e+00" cType="1" res="1.7516951775178313e-03" rms="4.3975898623466492e-01" purity="4.5533558726310730e-01" nType="-99"/>
        </Node>
      </Node>
    </BinaryTree>
    <BinaryTree type="DecisionTree" boostWeight="1.0000000000000000e+00" itree="1112">
      <Node pos="s" depth="0" NCoef="0" IVar="1" Cut="4.0255712890625000e+02" cType="1" res="-3.7430657539516687e-03" rms="4.5058426260948181e-01" purity="4.9747616052627563e-01" nType="0">
        <Node pos="l" depth="1" NCoef="0" IVar="9" Cut="6.1285895109176636e-01" cType="1" res="-2.6667330414056778e-02" rms="4.2482250928878784e-01" purity="3.1405586004257202e-01" nType="0">
          <Node pos="l" depth="2" NCoef="0" IVar="-1" Cut="0.0000000000000000e+00" cType="1" res="-3.0613222625106573e-03" rms="4.2576956748962402e-01" purity="3.2097426056861877e-01" nType="-99"/>
          <Node pos="r" depth="2" NCoef="0" IVar="-1" Cut="0.0000000000000000e+00" cType="1" res="-1.7053120245691389e-04" rms="4.2235299944877625e-01" purity="3.0506402254104614e-01" nType="-99"/>
        </Node>
        <Node pos="r" depth="1" NCoef="0" IVar="9" Cut="1.0336235761642456e+00" cType="1" res="4.0799248381517828e-04" rms="4.5496970415115356e-01" purity="5.3068929910659790e-01" nType="0">
          <Node pos="l" depth="2" NCoef="0" IVar="-1" Cut="0.0000000000000000e+00" cType="1" res="2.0639301510527730e-04" rms="4.5447140932083130e-01" purity="5.4218876361846924e-01" nType="-99"/>
          <Node pos="r" depth="2" NCoef="0" IVar="-1" Cut="0.0000000000000000e+00" cType="1" res="-2.8458500746637583e-03" rms="4.6024999022483826e-01" purity="3.5436221957206726e-01" nType="-99"/>
        </Node>
      </Node>
    </BinaryTree>
    <BinaryTree type="DecisionTree" boostWeight="1.0000000000000000e+00" itree="1113">
      <Node pos="s" depth="0" NCoef="0" IVar="3" Cut="1.6839516162872314e-01" cType="1" res="-1.8782599363476038e-04" rms="4.5761001110076904e-01" purity="4.9830588698387146e-01" nType="0">
        <Node pos="l" depth="1" NCoef="0" IVar="5" Cut="9.4584929943084717e-01" cType="1" res="-3.0374173074960709e-03" rms="4.5841023325920105e-01" purity="5.0052243471145630e-01" nType="0">
          <Node pos="l" depth="2" NCoef="0" IVar="-1" Cut="0.0000000000000000e+00" cType="1" res="5.3108308929949999e-04" rms="4.5742231607437134e-01" purity="3.8451460003852844e-01" nType="-99"/>
          <Node pos="r" depth="2" NCoef="0" IVar="-1" Cut="0.0000000000000000e+00" cType="1" res="-6.7174655850976706e-04" rms="4.5889660716056824e-01" purity="5.7634413242340088e-01" nType="-99"/>
        </Node>
        <Node pos="r" depth="1" NCoef="0" IVar="-1" Cut="0.0000000000000000e+00" cType="1" res="2.3049693554639816e-03" rms="4.4588649272918701e-01" purity="4.7045964002609253e-01" nType="-99"/>
      </Node>
    </BinaryTree>
    <BinaryTree type="DecisionTree" boostWeight="1.0000000000000000e+00" itree="1114">
      <Node pos="s" depth="0" NCoef="0" IVar="4" Cut="4.0434175729751587e-01" cType="1" res="1.7499276436865330e-03" rms="4.5372253656387329e-01" purity="5.0130867958068848e-01" nType="0">
        <Node pos="l" depth="1" NCoef="0" IVar="8" Cut="1.5261281728744507e+00" cType="1" res="8.2885017618536949e-03" rms="4.5340469479560852e-01" purity="4.6834334731101990e-01" nType="0">
          <Node pos="l" depth="2" NCoef="0" IVar="-1" Cut="0.0000000000000000e+00" cType="1" res="9.8767993040382862e-04" rms="4.5831304788589478e-01" purity="4.9234828352928162e-01" nType="-99"/>
          <Node pos="r" depth="2" NCoef="0" IVar="-1" Cut="0.0000000000000000e+00" cType="1" res="-2.0094953943043947e-03" rms="4.2482730746269226e-01" purity="3.4302449226379395e-01" nType="-99"/>
        </Node>
        <Node pos="r" depth="1" NCoef="0" IVar="3" Cut="2.3405671119689941e-02" cType="1" res="-5.6653828360140324e-03" rms="4.5396873354911804e-01" purity="5.3869432210922241e-01" nType="0">
          <Node pos="l" depth="2" NCoef="0" IVar="-1" Cut="0.0000000000000000e+00" cType="1" res="1.3757833221461624e-04" rms="4.5380163192749023e-01" purity="5.5746203660964966e-01" nType="-99"/>
          <Node pos="r" depth="2" NCoef="0" IVar="-1" Cut="0.0000000000000000e+00" cType="1" res="-2.0604843739420176e-03" rms="4.5350334048271179e-01" purity="4.7408252954483032e-01" nType="-99"/>
        </Node>
      </Node>
    </BinaryTree>
    <BinaryTree type="DecisionTree" boostWeight="1.0000000000000000e+00" itree="1115">
      <Node pos="s" depth="0" NCoef="0" IVar="9" Cut="3.7395450472831726e-01" cType="1" res="-3.0145370401442051e-03" rms="4.5355042815208435e-01" purity="4.9912360310554504e-01" nType="0">
        <Node pos="l" depth="1" NCoef="0" IVar="7" Cut="7.7019004821777344e+01" cType="1" res="-1.8352275714278221e-02" rms="4.4896650314331055e-01" purity="5.2578860521316528e-01" nType="0">
          <Node pos="l" depth="2" NCoef="0" IVar="-1" Cut="0.0000000000000000e+00" cType="1" res="-2.1891223732382059e-03" rms="4.5004376769065857e-01" purity="4.5249494910240173e-01" nType="-99"/>
          <Node pos="r" depth="2" NCoef="0" IVar="-1" Cut="0.0000000000000000e+00" cType="1" res="5.1619269652292132e-04" rms="4.4598513841629028e-01" purity="6.4164721965789795e-01" nType="-99"/>
        </Node>
        <Node pos="r" depth="1" NCoef="0" IVar="3" Cut="-4.9266573041677475e-02" cType="1" res="3.9159255102276802e-03" rms="4.5543718338012695e-01" purity="4.8707482218742371e-01" nType="0">
          <Node pos="l" depth="2" NCoef="0" IVar="-1" Cut="0.0000000000000000e+00" cType="1" res="-1.4840349322184920e-03" rms="4.5775124430656433e-01" purity="5.3532850742340088e-01" nType="-99"/>
          <Node pos="r" depth="2" NCoef="0" IVar="-1" Cut="0.0000000000000000e+00" cType="1" res="4.8762885853648186e-04" rms="4.5498856902122498e-01" purity="4.8047769069671631e-01" nType="-99"/>
        </Node>
      </Node>
    </BinaryTree>
    <BinaryTree type="DecisionTree" boostWeight="1.0000000000000000e+00" itree="1116">
      <Node pos="s" depth="0" NCoef="0" IVar="8" Cut="8.5336351394653320e-01" cType="1" res="4.6659037470817566e-03" rms="4.5392581820487976e-01" purity="5.0211924314498901e-01" nType="0">
        <Node pos="l" depth="1" NCoef="0" IVar="1" Cut="5.5228015136718750e+02" cType="1" res="-6.3042649999260902e-03" rms="4.5541504025459290e-01" purity="5.4124271869659424e-01" nType="0">
          <Node pos="l" depth="2" NCoef="0" IVar="-1" Cut="0.0000000000000000e+00" cType="1" res="4.9115734873339534e-04" rms="4.5319420099258423e-01" purity="4.8676490783691406e-01" nType="-99"/>
          <Node pos="r" depth="2" NCoef="0" IVar="-1" Cut="0.0000000000000000e+00" cType="1" res="-1.1483003618195653e-03" rms="4.5690509676933289e-01" purity="5.8605158329010010e-01" nType="-99"/>
        </Node>
        <Node pos="r" depth="1" NCoef="0" IVar="6" Cut="1.5682655572891235e+00" cType="1" res="9.5180543139576912e-03" rms="4.5318084955215454e-01" purity="4.8481476306915283e-01" nType="0">
          <Node pos="l" depth="2" NCoef="0" IVar="-1" Cut="0.0000000000000000e+00" cType="1" res="-1.1475131614133716e-03" rms="4.4311913847923279e-01" purity="5.7667422294616699e-01" nType="-99"/>
          <Node pos="r" depth="2" NCoef="0" IVar="-1" Cut="0.0000000000000000e+00" cType="1" res="7.9064385499805212e-04" rms="4.5412623882293701e-01" purity="4.7516137361526489e-01" nType="-99"/>
        </Node>
      </Node>
    </BinaryTree>
    <BinaryTree type="DecisionTree" boostWeight="1.0000000000000000e+00" itree="1117">
      <Node pos="s" depth="0" NCoef="0" IVar="1" Cut="5.7492779541015625e+02" cType="1" res="1.8975805724039674e-03" rms="4.5262652635574341e-01" purity="5.0170916318893433e-01" nType="0">
        <Node pos="l" depth="1" NCoef="0" IVar="1" Cut="4.1650460815429688e+02" cType="1" res="-4.5949514023959637e-03" rms="4.5250856876373291e-01" purity="4.3703073263168335e-01" nType="0">
          <Node pos="l" depth="2" NCoef="0" IVar="-1" Cut="0.0000000000000000e+00" cType="1" res="9.6866255626082420e-04" rms="4.4265678524971008e-01" purity="3.6676913499832153e-01" nType="-99"/>
          <Node pos="r" depth="2" NCoef="0" IVar="-1" Cut="0.0000000000000000e+00" cType="1" res="-7.9353066394105554e-04" rms="4.5651048421859741e-01" purity="4.6778252720832825e-01" nType="-99"/>
        </Node>
        <Node pos="r" depth="1" NCoef="0" IVar="3" Cut="-2.9719484969973564e-02" cType="1" res="1.2129191309213638e-02" rms="4.5262336730957031e-01" purity="6.0363614559173584e-01" nType="0">
          <Node pos="l" depth="2" NCoef="0" IVar="-1" Cut="0.0000000000000000e+00" cType="1" res="-1.1197862913832068e-03" rms="4.5108923316001892e-01" purity="6.3506484031677246e-01" nType="-99"/>
          <Node pos="r" depth="2" NCoef="0" IVar="-1" Cut="0.0000000000000000e+00" cType="1" res="1.1983829317614436e-03" rms="4.5271128416061401e-01" purity="5.9582352638244629e-01" nType="-99"/>
        </Node>
      </Node>
    </BinaryTree>
    <BinaryTree type="DecisionTree" boostWeight="1.0000000000000000e+00" itree="1118">
      <Node pos="s" depth="0" NCoef="0" IVar="5" Cut="9.9124133586883545e-01" cType="1" res="3.6273195873945951e-03" rms="4.5389798283576965e-01" purity="5.0453895330429077e-01" nType="0">
        <Node pos="l" depth="1" NCoef="0" IVar="0" Cut="1.8029768466949463e+00" cType="1" res="1.1007380671799183e-03" rms="4.5838445425033569e-01" purity="4.8590257763862610e-01" nType="0">
          <Node pos="l" depth="2" NCoef="0" IVar="-1" Cut="0.0000000000000000e+00" cType="1" res="1.3859923928976059e-03" rms="4.4876271486282349e-01" purity="3.4047433733940125e-01" nType="-99"/>
          <Node pos="r" depth="2" NCoef="0" IVar="-1" Cut="0.0000000000000000e+00" cType="1" res="-3.2606293098069727e-04" rms="4.6142768859863281e-01" purity="5.3530913591384888e-01" nType="-99"/>
        </Node>
        <Node pos="r" depth="1" NCoef="0" IVar="-1" Cut="0.0000000000000000e+00" cType="1" res="3.7339483387768269e-03" rms="3.6606162786483765e-01" purity="8.2346767187118530e-01" nType="-99"/>
      </Node>
    </BinaryTree>
    <BinaryTree type="DecisionTree" boostWeight="1.0000000000000000e+00" itree="1119">
      <Node pos="s" depth="0" NCoef="0" IVar="7" Cut="8.9007408142089844e+01" cType="1" res="5.1453401101753116e-04" rms="4.5339578390121460e-01" purity="5.0316101312637329e-01" nType="0">
        <Node pos="l" depth="1" NCoef="0" IVar="7" Cut="5.1603767395019531e+01" cType="1" res="-5.3285914473235607e-03" rms="4.5476832985877991e-01" purity="4.6657705307006836e-01" nType="0">
          <Node pos="l" depth="2" NCoef="0" IVar="-1" Cut="0.0000000000000000e+00" cType="1" res="9.0196501696482301e-04" rms="4.5132443308830261e-01" purity="3.8912180066108704e-01" nType="-99"/>
          <Node pos="r" depth="2" NCoef="0" IVar="-1" Cut="0.0000000000000000e+00" cType="1" res="-7.6287525007501245e-04" rms="4.5583146810531616e-01" purity="4.9511259794235229e-01" nType="-99"/>
        </Node>
        <Node pos="r" depth="1" NCoef="0" IVar="1" Cut="7.8736645507812500e+02" cType="1" res="1.9783973693847656e-02" rms="4.4830033183097839e-01" purity="6.2380731105804443e-01" nType="0">
          <Node pos="l" depth="2" NCoef="0" IVar="-1" Cut="0.0000000000000000e+00" cType="1" res="4.9315521027892828e-04" rms="4.5646739006042480e-01" purity="5.8978158235549927e-01" nType="-99"/>
          <Node pos="r" depth="2" NCoef="0" IVar="-1" Cut="0.0000000000000000e+00" cType="1" res="2.3541606497019529e-03" rms="4.3631899356842041e-01" purity="6.7051237821578979e-01" nType="-99"/>
        </Node>
      </Node>
    </BinaryTree>
    <BinaryTree type="DecisionTree" boostWeight="1.0000000000000000e+00" itree="1120">
      <Node pos="s" depth="0" NCoef="0" IVar="4" Cut="1.5702134370803833e-01" cType="1" res="-1.7093676142394543e-03" rms="4.5375519990921021e-01" purity="4.9750292301177979e-01" nType="0">
        <Node pos="l" depth="1" NCoef="0" IVar="0" Cut="2.8219854831695557e+00" cType="1" res="-2.1630872040987015e-02" rms="4.4370347261428833e-01" purity="3.8546764850616455e-01" nType="0">
          <Node pos="l" depth="2" NCoef="0" IVar="-1" Cut="0.0000000000000000e+00" cType="1" res="1.3511882571037859e-04" rms="4.2805770039558411e-01" purity="2.8996220231056213e-01" nType="-99"/>
          <Node pos="r" depth="2" NCoef="0" IVar="-1" Cut="0.0000000000000000e+00" cType="1" res="-2.5986658874899149e-03" rms="4.5706737041473389e-01" purity="4.7699257731437683e-01" nType="-99"/>
        </Node>
        <Node pos="r" depth="1" NCoef="0" IVar="5" Cut="9.5357781648635864e-01" cType="1" res="7.1962596848607063e-04" rms="4.5490592718124390e-01" purity="5.1116317510604858e-01" nType="0">
          <Node pos="l" depth="2" NCoef="0" IVar="-1" Cut="0.0000000000000000e+00" cType="1" res="-4.4921983499079943e-04" rms="4.5726239681243896e-01" purity="3.9551448822021484e-01" nType="-99"/>
          <Node pos="r" depth="2" NCoef="0" IVar="-1" Cut="0.0000000000000000e+00" cType="1" res="5.9966393746435642e-04" rms="4.5224511623382568e-01" purity="6.3345348834991455e-01" nType="-99"/>
        </Node>
      </Node>
    </BinaryTree>
    <BinaryTree type="DecisionTree" boostWeight="1.0000000000000000e+00" itree="1121">
      <Node pos="s" depth="0" NCoef="0" IVar="8" Cut="1.7178528308868408e+00" cType="1" res="3.7614742759615183e-03" rms="4.5411935448646545e-01" purity="4.9938300251960754e-01" nType="0">
        <Node pos="l" depth="1" NCoef="0" IVar="6" Cut="2.7658379077911377e+00" cType="1" res="1.5351341571658850e-03" rms="4.5484825968742371e-01" purity="5.0494390726089478e-01" nType="0">
          <Node pos="l" depth="2" NCoef="0" IVar="-1" Cut="0.0000000000000000e+00" cType="1" res="-5.6167053116951138e-05" rms="4.5701426267623901e-01" purity="5.2459341287612915e-01" nType="-99"/>
          <Node pos="r" depth="2" NCoef="0" IVar="-1" Cut="0.0000000000000000e+00" cType="1" res="2.1019384730607271e-03" rms="4.2982187867164612e-01" purity="2.9224860668182373e-01" nType="-99"/>
        </Node>
        <Node pos="r" depth="1" NCoef="0" IVar="-1" Cut="0.0000000000000000e+00" cType="1" res="1.8197331810370088e-03" rms="4.4565171003341675e-01" purity="4.4053438305854797e-01" nType="-99"/>
      </Node>
    </BinaryTree>
    <BinaryTree type="DecisionTree" boostWeight="1.0000000000000000e+00" itree="1122">
      <Node pos="s" depth="0" NCoef="0" IVar="5" Cut="9.0596354007720947e-01" cType="1" res="-5.3192330524325371e-03" rms="4.5301872491836548e-01" purity="4.9449962377548218e-01" nType="0">
        <Node pos="l" depth="1" NCoef="0" IVar="-1" Cut="0.0000000000000000e+00" cType="1" res="-2.7449722401797771e-03" rms="4.1192963719367981e-01" purity="2.4353834986686707e-01" nType="-99"/>
        <Node pos="r" depth="1" NCoef="0" IVar="9" Cut="3.8786748051643372e-01" cType="1" res="-3.4024235792458057e-03" rms="4.5508134365081787e-01" purity="5.0822627544403076e-01" nType="0">
          <Node pos="l" depth="2" NCoef="0" IVar="-1" Cut="0.0000000000000000e+00" cType="1" res="5.6190369650721550e-04" rms="4.5036101341247559e-01" purity="5.6501442193984985e-01" nType="-99"/>
          <Node pos="r" depth="2" NCoef="0" IVar="-1" Cut="0.0000000000000000e+00" cType="1" res="-5.7962548453360796e-04" rms="4.5717594027519226e-01" purity="4.8143261671066284e-01" nType="-99"/>
        </Node>
      </Node>
    </BinaryTree>
    <BinaryTree type="DecisionTree" boostWeight="1.0000000000000000e+00" itree="1123">
      <Node pos="s" depth="0" NCoef="0" IVar="3" Cut="-2.0508477464318275e-02" cType="1" res="1.6124985413625836e-03" rms="4.5366883277893066e-01" purity="5.0181400775909424e-01" nType="0">
        <Node pos="l" depth="1" NCoef="0" IVar="8" Cut="1.1010240316390991e+00" cType="1" res="-1.7579153180122375e-02" rms="4.5634973049163818e-01" purity="5.3066396713256836e-01" nType="0">
          <Node pos="l" depth="2" NCoef="0" IVar="-1" Cut="0.0000000000000000e+00" cType="1" res="-2.0514891948550940e-03" rms="4.5580232143402100e-01" purity="5.4359108209609985e-01" nType="-99"/>
          <Node pos="r" depth="2" NCoef="0" IVar="-1" Cut="0.0000000000000000e+00" cType="1" res="1.3600348029285669e-04" rms="4.5632401108741760e-01" purity="5.1356106996536255e-01" nType="-99"/>
        </Node>
        <Node pos="r" depth="1" NCoef="0" IVar="9" Cut="2.4983751773834229e-01" cType="1" res="8.7812114506959915e-03" rms="4.5245459675788879e-01" purity="4.9103754758834839e-01" nType="0">
          <Node pos="l" depth="2" NCoef="0" IVar="-1" Cut="0.0000000000000000e+00" cType="1" res="2.1355163771659136e-03" rms="4.5174095034599304e-01" purity="5.7426339387893677e-01" nType="-99"/>
          <Node pos="r" depth="2" NCoef="0" IVar="-1" Cut="0.0000000000000000e+00" cType="1" res="2.9775136499665678e-04" rms="4.5243486762046814e-01" purity="4.7770404815673828e-01" nType="-99"/>
        </Node>
      </Node>
    </BinaryTree>
    <BinaryTree type="DecisionTree" boostWeight="1.0000000000000000e+00" itree="1124">
      <Node pos="s" depth="0" NCoef="0" IVar="9" Cut="9.0100121498107910e-01" cType="1" res="1.3499594933819026e-04" rms="4.5366728305816650e-01" purity="5.0019907951354980e-01" nType="0">
        <Node pos="l" depth="1" NCoef="0" IVar="3" Cut="-6.7264195531606674e-03" cType="1" res="-3.2401657663285732e-03" rms="4.5306628942489624e-01" purity="5.1216197013854980e-01" nType="0">
          <Node pos="l" depth="2" NCoef="0" IVar="-1" Cut="0.0000000000000000e+00" cType="1" res="6.8063894286751747e-04" rms="4.5585498213768005e-01" purity="5.6595146656036377e-01" nType="-99"/>
          <Node pos="r" depth="2" NCoef="0" IVar="-1" Cut="0.0000000000000000e+00" cType="1" res="-7.1287457831203938e-04" rms="4.5127150416374207e-01" purity="4.8150134086608887e-01" nType="-99"/>
        </Node>
        <Node pos="r" depth="1" NCoef="0" IVar="9" Cut="1.0498148202896118e+00" cType="1" res="2.1854914724826813e-02" rms="4.5691987872123718e-01" purity="4.2321512103080750e-01" nType="0">
          <Node pos="l" depth="2" NCoef="0" IVar="-1" Cut="0.0000000000000000e+00" cType="1" res="2.4815988726913929e-03" rms="4.6292805671691895e-01" purity="4.6676474809646606e-01" nType="-99"/>
          <Node pos="r" depth="2" NCoef="0" IVar="-1" Cut="0.0000000000000000e+00" cType="1" res="6.4834268414415419e-05" rms="4.4874358177185059e-01" purity="3.7117514014244080e-01" nType="-99"/>
        </Node>
      </Node>
    </BinaryTree>
    <BinaryTree type="DecisionTree" boostWeight="1.0000000000000000e+00" itree="1125">
      <Node pos="s" depth="0" NCoef="0" IVar="6" Cut="1.6107599735260010e+00" cType="1" res="-2.0410530269145966e-03" rms="4.5212846994400024e-01" purity="4.9878066778182983e-01" nType="0">
        <Node pos="l" depth="1" NCoef="0" IVar="2" Cut="6.1169956207275391e+01" cType="1" res="-2.9122311621904373e-02" rms="4.4967430830001831e-01" purity="5.6920653581619263e-01" nType="0">
          <Node pos="l" depth="2" NCoef="0" IVar="-1" Cut="0.0000000000000000e+00" cType="1" res="-2.2843191400170326e-03" rms="4.5472913980484009e-01" purity="5.1053553819656372e-01" nType="-99"/>
          <Node pos="r" depth="2" NCoef="0" IVar="-1" Cut="0.0000000000000000e+00" cType="1" res="-1.3532412704080343e-03" rms="4.4423106312751770e-01" purity="6.2987196445465088e-01" nType="-99"/>
        </Node>
        <Node pos="r" depth="1" NCoef="0" IVar="9" Cut="9.8523962497711182e-01" cType="1" res="1.1506844311952591e-03" rms="4.5231005549430847e-01" purity="4.9048045277595520e-01" nType="0">
          <Node pos="l" depth="2" NCoef="0" IVar="-1" Cut="0.0000000000000000e+00" cType="1" res="2.4407738237641752e-04" rms="4.5252698659896851e-01" purity="5.0428622961044312e-01" nType="-99"/>
          <Node pos="r" depth="2" NCoef="0" IVar="-1" Cut="0.0000000000000000e+00" cType="1" res="-1.6392165562137961e-03" rms="4.4939866662025452e-01" purity="3.5845074057579041e-01" nType="-99"/>
        </Node>
      </Node>
    </BinaryTree>
    <BinaryTree type="DecisionTree" boostWeight="1.0000000000000000e+00" itree="1126">
      <Node pos="s" depth="0" NCoef="0" IVar="9" Cut="9.0242689847946167e-01" cType="1" res="1.0465643135830760e-03" rms="4.5292657613754272e-01" purity="4.9896034598350525e-01" nType="0">
        <Node pos="l" depth="1" NCoef="0" IVar="4" Cut="5.4089260101318359e-01" cType="1" res="-2.3106401786208153e-03" rms="4.5336416363716125e-01" purity="5.1134020090103149e-01" nType="0">
          <Node pos="l" depth="2" NCoef="0" IVar="-1" Cut="0.0000000000000000e+00" cType="1" res="-5.1080691628158092e-04" rms="4.5227327942848206e-01" purity="4.8841276764869690e-01" nType="-99"/>
          <Node pos="r" depth="2" NCoef="0" IVar="-1" Cut="0.0000000000000000e+00" cType="1" res="8.8018778478726745e-04" rms="4.5601606369018555e-01" purity="5.7564640045166016e-01" nType="-99"/>
        </Node>
        <Node pos="r" depth="1" NCoef="0" IVar="6" Cut="2.5700278282165527e+00" cType="1" res="2.2333381697535515e-02" rms="4.4955903291702271e-01" purity="4.2046394944190979e-01" nType="0">
          <Node pos="l" depth="2" NCoef="0" IVar="-1" Cut="0.0000000000000000e+00" cType="1" res="3.7965361843816936e-04" rms="4.5978462696075439e-01" purity="4.5965629816055298e-01" nType="-99"/>
          <Node pos="r" depth="2" NCoef="0" IVar="-1" Cut="0.0000000000000000e+00" cType="1" res="3.3987797796726227e-03" rms="4.3186095356941223e-01" purity="3.5919189453125000e-01" nType="-99"/>
        </Node>
      </Node>
    </BinaryTree>
    <BinaryTree type="DecisionTree" boostWeight="1.0000000000000000e+00" itree="1127">
      <Node pos="s" depth="0" NCoef="0" IVar="8" Cut="1.2538429498672485e+00" cType="1" res="8.5947028128430247e-04" rms="4.5375844836235046e-01" purity="4.9814656376838684e-01" nType="0">
        <Node pos="l" depth="1" NCoef="0" IVar="8" Cut="1.1618691682815552e+00" cType="1" res="-5.2196588367223740e-03" rms="4.5465528964996338e-01" purity="5.1799553632736206e-01" nType="0">
          <Node pos="l" depth="2" NCoef="0" IVar="-1" Cut="0.0000000000000000e+00" cType="1" res="-3.4288103051949292e-05" rms="4.5543023943901062e-01" purity="5.2778881788253784e-01" nType="-99"/>
          <Node pos="r" depth="2" NCoef="0" IVar="-1" Cut="0.0000000000000000e+00" cType="1" res="-2.7990329544991255e-03" rms="4.4616034626960754e-01" purity="4.3571111559867859e-01" nType="-99"/>
        </Node>
        <Node pos="r" depth="1" NCoef="0" IVar="9" Cut="4.7388920187950134e-01" cType="1" res="1.3143386691808701e-02" rms="4.5169121026992798e-01" purity="4.5803838968276978e-01" nType="0">
          <Node pos="l" depth="2" NCoef="0" IVar="-1" Cut="0.0000000000000000e+00" cType="1" res="2.3614231031388044e-03" rms="4.5257887244224548e-01" purity="5.2337157726287842e-01" nType="-99"/>
          <Node pos="r" depth="2" NCoef="0" IVar="-1" Cut="0.0000000000000000e+00" cType="1" res="-2.0630656217690557e-04" rms="4.5035952329635620e-01" purity="4.1442245244979858e-01" nType="-99"/>
        </Node>
      </Node>
    </BinaryTree>
    <BinaryTree type="DecisionTree" boostWeight="1.0000000000000000e+00" itree="1128">
      <Node pos="s" depth="0" NCoef="0" IVar="2" Cut="1.1558240509033203e+02" cType="1" res="-2.6975006330758333e-03" rms="4.5431455969810486e-01" purity="4.9646860361099243e-01" nType="0">
        <Node pos="l" depth="1" NCoef="0" IVar="8" Cut="1.7305819988250732e+00" cType="1" res="-1.0837286710739136e-02" rms="4.5677083730697632e-01" purity="4.7386345267295837e-01" nType="0">
          <Node pos="l" depth="2" NCoef="0" IVar="-1" Cut="0.0000000000000000e+00" cType="1" res="-4.2468291940167546e-04" rms="4.5806398987770081e-01" purity="4.8513713479042053e-01" nType="-99"/>
          <Node pos="r" depth="2" NCoef="0" IVar="-1" Cut="0.0000000000000000e+00" cType="1" res="-3.1768528278917074e-03" rms="4.4259655475616455e-01" purity="3.6755585670471191e-01" nType="-99"/>
        </Node>
        <Node pos="r" depth="1" NCoef="0" IVar="8" Cut="1.0230705738067627e+00" cType="1" res="1.2042479589581490e-02" rms="4.4945746660232544e-01" purity="5.3740322589874268e-01" nType="0">
          <Node pos="l" depth="2" NCoef="0" IVar="-1" Cut="0.0000000000000000e+00" cType="1" res="-1.3470699195750058e-04" rms="4.5169445872306824e-01" purity="5.5950617790222168e-01" nType="-99"/>
          <Node pos="r" depth="2" NCoef="0" IVar="-1" Cut="0.0000000000000000e+00" cType="1" res="1.7503058770671487e-03" rms="4.4651904702186584e-01" purity="5.1348119974136353e-01" nType="-99"/>
        </Node>
      </Node>
    </BinaryTree>
    <BinaryTree type="DecisionTree" boostWeight="1.0000000000000000e+00" itree="1129">
      <Node pos="s" depth="0" NCoef="0" IVar="6" Cut="2.6240074634552002e+00" cType="1" res="-3.9048811886459589e-03" rms="4.5380648970603943e-01" purity="4.9756661057472229e-01" nType="0">
        <Node pos="l" depth="1" NCoef="0" IVar="3" Cut="1.3825851678848267e-01" cType="1" res="-9.0575981885194778e-03" rms="4.5576786994934082e-01" purity="5.2364903688430786e-01" nType="0">
          <Node pos="l" depth="2" NCoef="0" IVar="-1" Cut="0.0000000000000000e+00" cType="1" res="-7.5041095260530710e-04" rms="4.5431768894195557e-01" purity="5.2455627918243408e-01" nType="-99"/>
          <Node pos="r" depth="2" NCoef="0" IVar="-1" Cut="0.0000000000000000e+00" cType="1" res="9.9541374947875738e-04" rms="4.6737855672836304e-01" purity="5.1578289270401001e-01" nType="-99"/>
        </Node>
        <Node pos="r" depth="1" NCoef="0" IVar="0" Cut="2.8032395839691162e+00" cType="1" res="2.8519464656710625e-02" rms="4.3988144397735596e-01" purity="3.3343833684921265e-01" nType="0">
          <Node pos="l" depth="2" NCoef="0" IVar="-1" Cut="0.0000000000000000e+00" cType="1" res="1.1888399021700025e-03" rms="4.1150248050689697e-01" purity="2.3445717990398407e-01" nType="-99"/>
          <Node pos="r" depth="2" NCoef="0" IVar="-1" Cut="0.0000000000000000e+00" cType="1" res="2.7235865127295256e-03" rms="4.7162467241287231e-01" purity="4.5424789190292358e-01" nType="-99"/>
        </Node>
      </Node>
    </BinaryTree>
    <BinaryTree type="DecisionTree" boostWeight="1.0000000000000000e+00" itree="1130">
      <Node pos="s" depth="0" NCoef="0" IVar="7" Cut="6.2758453369140625e+01" cType="1" res="-2.6093001943081617e-03" rms="4.5108965039253235e-01" purity="4.9785950779914856e-01" nType="0">
        <Node pos="l" depth="1" NCoef="0" IVar="4" Cut="6.3642823696136475e-01" cType="1" res="-1.8504695966839790e-02" rms="4.4688019156455994e-01" purity="3.9497050642967224e-01" nType="0">
          <Node pos="l" depth="2" NCoef="0" IVar="-1" Cut="0.0000000000000000e+00" cType="1" res="-1.5956875868141651e-03" rms="4.4448977708816528e-01" purity="3.7687626481056213e-01" nType="-99"/>
          <Node pos="r" depth="2" NCoef="0" IVar="-1" Cut="0.0000000000000000e+00" cType="1" res="1.0205574799329042e-03" rms="4.5913666486740112e-01" purity="5.0134992599487305e-01" nType="-99"/>
        </Node>
        <Node pos="r" depth="1" NCoef="0" IVar="2" Cut="1.8339747619628906e+02" cType="1" res="8.8083650916814804e-03" rms="4.5374572277069092e-01" purity="5.7176464796066284e-01" nType="0">
          <Node pos="l" depth="2" NCoef="0" IVar="-1" Cut="0.0000000000000000e+00" cType="1" res="2.4191109696403146e-04" rms="4.5386087894439697e-01" purity="5.7221215963363647e-01" nType="-99"/>
          <Node pos="r" depth="2" NCoef="0" IVar="-1" Cut="0.0000000000000000e+00" cType="1" res="2.9737893491983414e-03" rms="4.5111250877380371e-01" purity="5.6836986541748047e-01" nType="-99"/>
        </Node>
      </Node>
    </BinaryTree>
    <BinaryTree type="DecisionTree" boostWeight="1.0000000000000000e+00" itree="1131">
      <Node pos="s" depth="0" NCoef="0" IVar="3" Cut="6.7649461328983307e-02" cType="1" res="-1.8825691659003496e-03" rms="4.5479825139045715e-01" purity="4.9788677692413330e-01" nType="0">
        <Node pos="l" depth="1" NCoef="0" IVar="3" Cut="2.1876212209463120e-02" cType="1" res="-6.9697313010692596e-03" rms="4.5632097125053406e-01" purity="5.1431953907012939e-01" nType="0">
          <Node pos="l" depth="2" NCoef="0" IVar="-1" Cut="0.0000000000000000e+00" cType="1" res="3.6365920095704496e-05" rms="4.5716816186904907e-01" purity="5.3477966785430908e-01" nType="-99"/>
          <Node pos="r" depth="2" NCoef="0" IVar="-1" Cut="0.0000000000000000e+00" cType="1" res="-1.6678882529959083e-03" rms="4.5352116227149963e-01" purity="4.6109184622764587e-01" nType="-99"/>
        </Node>
        <Node pos="r" depth="1" NCoef="0" IVar="8" Cut="1.4330835342407227e+00" cType="1" res="9.7034126520156860e-03" rms="4.5109707117080688e-01" purity="4.6046128869056702e-01" nType="0">
          <Node pos="l" depth="2" NCoef="0" IVar="-1" Cut="0.0000000000000000e+00" cType="1" res="1.1922611156478524e-03" rms="4.5469012856483459e-01" purity="4.9155873060226440e-01" nType="-99"/>
          <Node pos="r" depth="2" NCoef="0" IVar="-1" Cut="0.0000000000000000e+00" cType="1" res="-1.4290785184130073e-03" rms="4.3746897578239441e-01" purity="3.5648459196090698e-01" nType="-99"/>
        </Node>
      </Node>
    </BinaryTree>
    <BinaryTree type="DecisionTree" boostWeight="1.0000000000000000e+00" itree="1132">
      <Node pos="s" depth="0" NCoef="0" IVar="9" Cut="2.6119533181190491e-01" cType="1" res="2.5021510664373636e-03" rms="4.5196714997291565e-01" purity="5.0208711624145508e-01" nType="0">
        <Node pos="l" depth="1" NCoef="0" IVar="2" Cut="7.6532562255859375e+01" cType="1" res="2.8915079310536385e-02" rms="4.5477783679962158e-01" purity="5.8411318063735962e-01" nType="0">
          <Node pos="l" depth="2" NCoef="0" IVar="-1" Cut="0.0000000000000000e+00" cType="1" res="1.7445838602725416e-04" rms="4.6631014347076416e-01" purity="5.1571905612945557e-01" nType="-99"/>
          <Node pos="r" depth="2" NCoef="0" IVar="-1" Cut="0.0000000000000000e+00" cType="1" res="2.9117062222212553e-03" rms="4.4640055298805237e-01" purity="6.2811708450317383e-01" nType="-99"/>
        </Node>
        <Node pos="r" depth="1" NCoef="0" IVar="0" Cut="2.6650004386901855e+00" cType="1" res="-2.5600052904337645e-03" rms="4.5124995708465576e-01" purity="4.8636651039123535e-01" nType="0">
          <Node pos="l" depth="2" NCoef="0" IVar="-1" Cut="0.0000000000000000e+00" cType="1" res="-1.0245387675240636e-03" rms="4.4846618175506592e-01" purity="3.3949890732765198e-01" nType="-99"/>
          <Node pos="r" depth="2" NCoef="0" IVar="-1" Cut="0.0000000000000000e+00" cType="1" res="5.8430910576134920e-04" rms="4.5344388484954834e-01" purity="6.2042152881622314e-01" nType="-99"/>
        </Node>
      </Node>
    </BinaryTree>
    <BinaryTree type="DecisionTree" boostWeight="1.0000000000000000e+00" itree="1133">
      <Node pos="s" depth="0" NCoef="0" IVar="5" Cut="9.3717122077941895e-01" cType="1" res="-6.3418940408155322e-04" rms="4.5547783374786377e-01" purity="4.9956730008125305e-01" nType="0">
        <Node pos="l" depth="1" NCoef="0" IVar="9" Cut="6.1491948366165161e-01" cType="1" res="1.7217045649886131e-02" rms="4.5056259632110596e-01" purity="3.6114308238029480e-01" nType="0">
          <Node pos="l" depth="2" NCoef="0" IVar="-1" Cut="0.0000000000000000e+00" cType="1" res="1.6964371316134930e-03" rms="4.6072375774383545e-01" purity="4.0073379874229431e-01" nType="-99"/>
          <Node pos="r" depth="2" NCoef="0" IVar="-1" Cut="0.0000000000000000e+00" cType="1" res="2.4546403437852859e-04" rms="4.3646946549415588e-01" purity="3.0909317731857300e-01" nType="-99"/>
        </Node>
        <Node pos="r" depth="1" NCoef="0" IVar="3" Cut="2.0401503890752792e-02" cType="1" res="-7.6273125596344471e-03" rms="4.5719900727272034e-01" purity="5.5379426479339600e-01" nType="0">
          <Node pos="l" depth="2" NCoef="0" IVar="-1" Cut="0.0000000000000000e+00" cType="1" res="-1.1730374535545707e-03" rms="4.5595949888229370e-01" purity="5.7340639829635620e-01" nType="-99"/>
          <Node pos="r" depth="2" NCoef="0" IVar="-1" Cut="0.0000000000000000e+00" cType="1" res="2.1199244656600058e-04" rms="4.5818471908569336e-01" purity="5.3399229049682617e-01" nType="-99"/>
        </Node>
      </Node>
    </BinaryTree>
    <BinaryTree type="DecisionTree" boostWeight="1.0000000000000000e+00" itree="1134">
      <Node pos="s" depth="0" NCoef="0" IVar="6" Cut="2.2014834880828857e+00" cType="1" res="-5.6210934417322278e-04" rms="4.5301884412765503e-01" purity="4.9960798025131226e-01" nType="0">
        <Node pos="l" depth="1" NCoef="0" IVar="7" Cut="4.7763545989990234e+01" cType="1" res="-1.1832028627395630e-02" rms="4.5199066400527954e-01" purity="5.5512630939483643e-01" nType="0">
          <Node pos="l" depth="2" NCoef="0" IVar="-1" Cut="0.0000000000000000e+00" cType="1" res="-2.8577295597642660e-03" rms="4.4637975096702576e-01" purity="3.5543170571327209e-01" nType="-99"/>
          <Node pos="r" depth="2" NCoef="0" IVar="-1" Cut="0.0000000000000000e+00" cType="1" res="-4.0890701347962022e-04" rms="4.5265722274780273e-01" purity="5.8714860677719116e-01" nType="-99"/>
        </Node>
        <Node pos="r" depth="1" NCoef="0" IVar="4" Cut="2.3863746225833893e-01" cType="1" res="1.0303890332579613e-02" rms="4.5374298095703125e-01" purity="4.4607949256896973e-01" nType="0">
          <Node pos="l" depth="2" NCoef="0" IVar="-1" Cut="0.0000000000000000e+00" cType="1" res="2.2056289017200470e-03" rms="4.4680890440940857e-01" purity="3.9943963289260864e-01" nType="-99"/>
          <Node pos="r" depth="2" NCoef="0" IVar="-1" Cut="0.0000000000000000e+00" cType="1" res="1.1697519221343100e-04" rms="4.5604488253593445e-01" purity="4.6366849541664124e-01" nType="-99"/>
        </Node>
      </Node>
    </BinaryTree>
    <BinaryTree type="DecisionTree" boostWeight="1.0000000000000000e+00" itree="1135">
      <Node pos="s" depth="0" NCoef="0" IVar="1" Cut="5.2952062988281250e+02" cType="1" res="-2.5024700444191694e-03" rms="4.5414230227470398e-01" purity="4.9541205167770386e-01" nType="0">
        <Node pos="l" depth="1" NCoef="0" IVar="1" Cut="3.5962643432617188e+02" cType="1" res="7.3168398812413216e-03" rms="4.5051985979080200e-01" purity="4.3281859159469604e-01" nType="0">
          <Node pos="l" depth="2" NCoef="0" IVar="-1" Cut="0.0000000000000000e+00" cType="1" res="-1.8800621619448066e-03" rms="4.1012567281723022e-01" purity="2.7434411644935608e-01" nType="-99"/>
          <Node pos="r" depth="2" NCoef="0" IVar="-1" Cut="0.0000000000000000e+00" cType="1" res="7.4433535337448120e-04" rms="4.5561936497688293e-01" purity="4.5465245842933655e-01" nType="-99"/>
        </Node>
        <Node pos="r" depth="1" NCoef="0" IVar="9" Cut="4.5028522610664368e-01" cType="1" res="-1.2465113773941994e-02" rms="4.5757302641868591e-01" purity="5.5891925096511841e-01" nType="0">
          <Node pos="l" depth="2" NCoef="0" IVar="-1" Cut="0.0000000000000000e+00" cType="1" res="5.4102431749925017e-04" rms="4.4993868470191956e-01" purity="6.2346196174621582e-01" nType="-99"/>
          <Node pos="r" depth="2" NCoef="0" IVar="-1" Cut="0.0000000000000000e+00" cType="1" res="-1.8195545999333262e-03" rms="4.6294724941253662e-01" purity="5.0682622194290161e-01" nType="-99"/>
        </Node>
      </Node>
    </BinaryTree>
    <BinaryTree type="DecisionTree" boostWeight="1.0000000000000000e+00" itree="1136">
      <Node pos="s" depth="0" NCoef="0" IVar="8" Cut="6.2497943639755249e-01" cType="1" res="-2.0882925018668175e-03" rms="4.5281818509101868e-01" purity="4.9351879954338074e-01" nType="0">
        <Node pos="l" depth="1" NCoef="0" IVar="-1" Cut="0.0000000000000000e+00" cType="1" res="1.3127522543072701e-03" rms="4.5015928149223328e-01" purity="5.8206945657730103e-01" nType="-99"/>
        <Node pos="r" depth="1" NCoef="0" IVar="4" Cut="5.6581550836563110e-01" cType="1" res="-4.6097128652036190e-03" rms="4.5304414629936218e-01" purity="4.8363441228866577e-01" nType="0">
          <Node pos="l" depth="2" NCoef="0" IVar="-1" Cut="0.0000000000000000e+00" cType="1" res="-5.5452856031479314e-06" rms="4.5126485824584961e-01" purity="4.7098264098167419e-01" nType="-99"/>
          <Node pos="r" depth="2" NCoef="0" IVar="-1" Cut="0.0000000000000000e+00" cType="1" res="-1.3194472994655371e-03" rms="4.5909073948860168e-01" purity="5.2972048521041870e-01" nType="-99"/>
        </Node>
      </Node>
    </BinaryTree>
    <BinaryTree type="DecisionTree" boostWeight="1.0000000000000000e+00" itree="1137">
      <Node pos="s" depth="0" NCoef="0" IVar="9" Cut="2.9395812749862671e-01" cType="1" res="-1.6872691921889782e-03" rms="4.5195502042770386e-01" purity="4.9818292260169983e-01" nType="0">
        <Node pos="l" depth="1" NCoef="0" IVar="7" Cut="7.5567955017089844e+01" cType="1" res="-1.7600351944565773e-02" rms="4.4964244961738586e-01" purity="5.3296148777008057e-01" nType="0">
          <Node pos="l" depth="2" NCoef="0" IVar="-1" Cut="0.0000000000000000e+00" cType="1" res="-2.3176111280918121e-03" rms="4.5084735751152039e-01" purity="4.5180830359458923e-01" nType="-99"/>
          <Node pos="r" depth="2" NCoef="0" IVar="-1" Cut="0.0000000000000000e+00" cType="1" res="4.9584865337237716e-04" rms="4.4680118560791016e-01" purity="6.3844513893127441e-01" nType="-99"/>
        </Node>
        <Node pos="r" depth="1" NCoef="0" IVar="4" Cut="6.6987693309783936e-01" cType="1" res="2.3148271720856428e-03" rms="4.5244666934013367e-01" purity="4.8943626880645752e-01" nType="0">
          <Node pos="l" depth="2" NCoef="0" IVar="-1" Cut="0.0000000000000000e+00" cType="1" res="3.1526380917057395e-04" rms="4.5278254151344299e-01" purity="4.8413920402526855e-01" nType="-99"/>
          <Node pos="r" depth="2" NCoef="0" IVar="-1" Cut="0.0000000000000000e+00" cType="1" res="-1.6465550288558006e-03" rms="4.4791013002395630e-01" purity="5.4546242952346802e-01" nType="-99"/>
        </Node>
      </Node>
    </BinaryTree>
    <BinaryTree type="DecisionTree" boostWeight="1.0000000000000000e+00" itree="1138">
      <Node pos="s" depth="0" NCoef="0" IVar="1" Cut="6.6292993164062500e+02" cType="1" res="1.1645203921943903e-03" rms="4.5439249277114868e-01" purity="5.0113314390182495e-01" nType="0">
        <Node pos="l" depth="1" NCoef="0" IVar="5" Cut="9.3313771486282349e-01" cType="1" res="-4.9704210832715034e-03" rms="4.5495998859405518e-01" purity="4.5983073115348816e-01" nType="0">
          <Node pos="l" depth="2" NCoef="0" IVar="-1" Cut="0.0000000000000000e+00" cType="1" res="8.7754812557250261e-04" rms="4.3667751550674438e-01" purity="3.1139865517616272e-01" nType="-99"/>
          <Node pos="r" depth="2" NCoef="0" IVar="-1" Cut="0.0000000000000000e+00" cType="1" res="-6.6053296905010939e-04" rms="4.6040111780166626e-01" purity="5.0640296936035156e-01" nType="-99"/>
        </Node>
        <Node pos="r" depth="1" NCoef="0" IVar="0" Cut="2.4824912548065186e+00" cType="1" res="2.0049462094902992e-02" rms="4.5211887359619141e-01" purity="6.2827277183532715e-01" nType="0">
          <Node pos="l" depth="2" NCoef="0" IVar="-1" Cut="0.0000000000000000e+00" cType="1" res="2.8422907926142216e-03" rms="4.8022371530532837e-01" purity="5.1917469501495361e-01" nType="-99"/>
          <Node pos="r" depth="2" NCoef="0" IVar="-1" Cut="0.0000000000000000e+00" cType="1" res="1.8278886273037642e-04" rms="4.3335124850273132e-01" purity="6.9414657354354858e-01" nType="-99"/>
        </Node>
      </Node>
    </BinaryTree>
    <BinaryTree type="DecisionTree" boostWeight="1.0000000000000000e+00" itree="1139">
      <Node pos="s" depth="0" NCoef="0" IVar="9" Cut="7.0334094762802124e-01" cType="1" res="4.8962291330099106e-03" rms="4.5405521988868713e-01" purity="5.0197857618331909e-01" nType="0">
        <Node pos="l" depth="1" NCoef="0" IVar="2" Cut="1.4830366516113281e+02" cType="1" res="1.0481698438525200e-02" rms="4.5293763279914856e-01" purity="5.3525292873382568e-01" nType="0">
          <Node pos="l" depth="2" NCoef="0" IVar="-1" Cut="0.0000000000000000e+00" cType="1" res="4.0185757097788155e-04" rms="4.5388117432594299e-01" purity="5.2293360233306885e-01" nType="-99"/>
          <Node pos="r" depth="2" NCoef="0" IVar="-1" Cut="0.0000000000000000e+00" cType="1" res="2.3002161178737879e-03" rms="4.4614171981811523e-01" purity="6.1246019601821899e-01" nType="-99"/>
        </Node>
        <Node pos="r" depth="1" NCoef="0" IVar="6" Cut="2.3739373683929443e+00" cType="1" res="-8.8192382827401161e-03" rms="4.5649805665016174e-01" purity="4.2027136683464050e-01" nType="0">
          <Node pos="l" depth="2" NCoef="0" IVar="-1" Cut="0.0000000000000000e+00" cType="1" res="-1.8827297026291490e-03" rms="4.6470862627029419e-01" purity="4.6986719965934753e-01" nType="-99"/>
          <Node pos="r" depth="2" NCoef="0" IVar="-1" Cut="0.0000000000000000e+00" cType="1" res="6.9227762287482619e-04" rms="4.4832324981689453e-01" purity="3.7694942951202393e-01" nType="-99"/>
        </Node>
      </Node>
    </BinaryTree>
    <BinaryTree type="DecisionTree" boostWeight="1.0000000000000000e+00" itree="1140">
      <Node pos="s" depth="0" NCoef="0" IVar="7" Cut="1.2040653228759766e+02" cType="1" res="-3.0929621425457299e-04" rms="4.5196858048439026e-01" purity="4.9945142865180969e-01" nType="0">
        <Node pos="l" depth="1" NCoef="0" IVar="9" Cut="8.2771140336990356e-01" cType="1" res="-3.0760262161493301e-03" rms="4.5310387015342712e-01" purity="4.8606368899345398e-01" nType="0">
          <Node pos="l" depth="2" NCoef="0" IVar="-1" Cut="0.0000000000000000e+00" cType="1" res="1.1940559488721192e-04" rms="4.5481255650520325e-01" purity="5.1053786277770996e-01" nType="-99"/>
          <Node pos="r" depth="2" NCoef="0" IVar="-1" Cut="0.0000000000000000e+00" cType="1" res="-1.5374671202152967e-03" rms="4.4540920853614807e-01" purity="3.8526579737663269e-01" nType="-99"/>
        </Node>
        <Node pos="r" depth="1" NCoef="0" IVar="-1" Cut="0.0000000000000000e+00" cType="1" res="2.2364871110767126e-03" rms="4.3622666597366333e-01" purity="6.6511839628219604e-01" nType="-99"/>
      </Node>
    </BinaryTree>
    <BinaryTree type="DecisionTree" boostWeight="1.0000000000000000e+00" itree="1141">
      <Node pos="s" depth="0" NCoef="0" IVar="3" Cut="5.8691177517175674e-02" cType="1" res="1.6124398680403829e-03" rms="4.5367676019668579e-01" purity="5.0184547901153564e-01" nType="0">
        <Node pos="l" depth="1" NCoef="0" IVar="3" Cut="1.3652432709932327e-02" cType="1" res="-4.4988673180341721e-03" rms="4.5548909902572632e-01" purity="5.1995712518692017e-01" nType="0">
          <Node pos="l" depth="2" NCoef="0" IVar="-1" Cut="0.0000000000000000e+00" cType="1" res="1.6889037215150893e-04" rms="4.5663782954216003e-01" purity="5.4103130102157593e-01" nType="-99"/>
          <Node pos="r" depth="2" NCoef="0" IVar="-1" Cut="0.0000000000000000e+00" cType="1" res="-1.3080508215352893e-03" rms="4.5242461562156677e-01" purity="4.7180256247520447e-01" nType="-99"/>
        </Node>
        <Node pos="r" depth="1" NCoef="0" IVar="8" Cut="1.4473636150360107e+00" cType="1" res="1.3010079041123390e-02" rms="4.5005556941032410e-01" purity="4.6806710958480835e-01" nType="0">
          <Node pos="l" depth="2" NCoef="0" IVar="-1" Cut="0.0000000000000000e+00" cType="1" res="1.4285994693636894e-03" rms="4.5371121168136597e-01" purity="5.0171196460723877e-01" nType="-99"/>
          <Node pos="r" depth="2" NCoef="0" IVar="-1" Cut="0.0000000000000000e+00" cType="1" res="-1.2145170476287603e-03" rms="4.3642911314964294e-01" purity="3.5791739821434021e-01" nType="-99"/>
        </Node>
      </Node>
    </BinaryTree>
    <BinaryTree type="DecisionTree" boostWeight="1.0000000000000000e+00" itree="1142">
      <Node pos="s" depth="0" NCoef="0" IVar="8" Cut="1.7780532836914062e+00" cType="1" res="-1.9817440770566463e-03" rms="4.5397719740867615e-01" purity="4.9609485268592834e-01" nType="0">
        <Node pos="l" depth="1" NCoef="0" IVar="6" Cut="2.1441247463226318e+00" cType="1" res="-4.1503608226776123e-03" rms="4.5513048768043518e-01" purity="4.9969550967216492e-01" nType="0">
          <Node pos="l" depth="2" NCoef="0" IVar="-1" Cut="0.0000000000000000e+00" cType="1" res="-8.8981626322492957e-04" rms="4.5459628105163574e-01" purity="5.5507630109786987e-01" nType="-99"/>
          <Node pos="r" depth="2" NCoef="0" IVar="-1" Cut="0.0000000000000000e+00" cType="1" res="1.6255590890068561e-04" rms="4.5536157488822937e-01" purity="4.6286088228225708e-01" nType="-99"/>
        </Node>
        <Node pos="r" depth="1" NCoef="0" IVar="-1" Cut="0.0000000000000000e+00" cType="1" res="1.8323623808100820e-03" rms="4.3686753511428833e-01" purity="4.4697657227516174e-01" nType="-99"/>
      </Node>
    </BinaryTree>
    <BinaryTree type="DecisionTree" boostWeight="1.0000000000000000e+00" itree="1143">
      <Node pos="s" depth="0" NCoef="0" IVar="9" Cut="3.8876849412918091e-01" cType="1" res="-2.1023221779614687e-03" rms="4.5349952578544617e-01" purity="4.9583712220191956e-01" nType="0">
        <Node pos="l" depth="1" NCoef="0" IVar="5" Cut="9.6848803758621216e-01" cType="1" res="-1.3498904183506966e-02" rms="4.4537636637687683e-01" purity="5.3093320131301880e-01" nType="0">
          <Node pos="l" depth="2" NCoef="0" IVar="-1" Cut="0.0000000000000000e+00" cType="1" res="-1.5268265269696712e-03" rms="4.5693552494049072e-01" purity="4.4721743464469910e-01" nType="-99"/>
          <Node pos="r" depth="2" NCoef="0" IVar="-1" Cut="0.0000000000000000e+00" cType="1" res="1.1754817096516490e-03" rms="4.1415643692016602e-01" purity="7.3654270172119141e-01" nType="-99"/>
        </Node>
        <Node pos="r" depth="1" NCoef="0" IVar="0" Cut="4.3084597587585449e+00" cType="1" res="3.2947042491286993e-03" rms="4.5719692111015320e-01" purity="4.7921684384346008e-01" nType="0">
          <Node pos="l" depth="2" NCoef="0" IVar="-1" Cut="0.0000000000000000e+00" cType="1" res="5.6513387244194746e-04" rms="4.6130013465881348e-01" purity="4.3440142273902893e-01" nType="-99"/>
          <Node pos="r" depth="2" NCoef="0" IVar="-1" Cut="0.0000000000000000e+00" cType="1" res="-1.6591325402259827e-03" rms="4.3632164597511292e-01" purity="6.9024121761322021e-01" nType="-99"/>
        </Node>
      </Node>
    </BinaryTree>
    <BinaryTree type="DecisionTree" boostWeight="1.0000000000000000e+00" itree="1144">
      <Node pos="s" depth="0" NCoef="0" IVar="8" Cut="1.3653612136840820e+00" cType="1" res="7.7193218749016523e-04" rms="4.5309534668922424e-01" purity="4.9989971518516541e-01" nType="0">
        <Node pos="l" depth="1" NCoef="0" IVar="4" Cut="2.3653052747249603e-01" cType="1" res="5.8927070349454880e-03" rms="4.5545443892478943e-01" purity="5.2595156431198120e-01" nType="0">
          <Node pos="l" depth="2" NCoef="0" IVar="-1" Cut="0.0000000000000000e+00" cType="1" res="-6.2335177790373564e-04" rms="4.5845660567283630e-01" purity="4.4933804869651794e-01" nType="-99"/>
          <Node pos="r" depth="2" NCoef="0" IVar="-1" Cut="0.0000000000000000e+00" cType="1" res="6.7399698309600353e-04" rms="4.5440995693206787e-01" purity="5.4969328641891479e-01" nType="-99"/>
        </Node>
        <Node pos="r" depth="1" NCoef="0" IVar="8" Cut="1.8542233705520630e+00" cType="1" res="-1.4324818737804890e-02" rms="4.4572550058364868e-01" purity="4.2309525609016418e-01" nType="0">
          <Node pos="l" depth="2" NCoef="0" IVar="-1" Cut="0.0000000000000000e+00" cType="1" res="-1.5391975175589323e-03" rms="4.5001089572906494e-01" purity="4.2017105221748352e-01" nType="-99"/>
          <Node pos="r" depth="2" NCoef="0" IVar="-1" Cut="0.0000000000000000e+00" cType="1" res="1.6567686107009649e-03" rms="4.2580401897430420e-01" purity="4.3486556410789490e-01" nType="-99"/>
        </Node>
      </Node>
    </BinaryTree>
    <BinaryTree type="DecisionTree" boostWeight="1.0000000000000000e+00" itree="1145">
      <Node pos="s" depth="0" NCoef="0" IVar="0" Cut="1.6959644556045532e+00" cType="1" res="4.1085854172706604e-03" rms="4.5516416430473328e-01" purity="5.0439387559890747e-01" nType="0">
        <Node pos="l" depth="1" NCoef="0" IVar="0" Cut="9.7559118270874023e-01" cType="1" res="2.0538659766316414e-02" rms="4.4582897424697876e-01" purity="3.3472043275833130e-01" nType="0">
          <Node pos="l" depth="2" NCoef="0" IVar="-1" Cut="0.0000000000000000e+00" cType="1" res="-2.8715241569443606e-05" rms="4.2889082431793213e-01" purity="2.7589085698127747e-01" nType="-99"/>
          <Node pos="r" depth="2" NCoef="0" IVar="-1" Cut="0.0000000000000000e+00" cType="1" res="2.0349842961877584e-03" rms="4.5324569940567017e-01" purity="3.6239892244338989e-01" nType="-99"/>
        </Node>
        <Node pos="r" depth="1" NCoef="0" IVar="6" Cut="2.1688375473022461e+00" cType="1" res="-4.1251906077377498e-04" rms="4.5759603381156921e-01" purity="5.5108326673507690e-01" nType="0">
          <Node pos="l" depth="2" NCoef="0" IVar="-1" Cut="0.0000000000000000e+00" cType="1" res="6.1626563547179103e-04" rms="4.5172068476676941e-01" purity="6.2651932239532471e-01" nType="-99"/>
          <Node pos="r" depth="2" NCoef="0" IVar="-1" Cut="0.0000000000000000e+00" cType="1" res="-5.3987576393410563e-04" rms="4.6217742562294006e-01" purity="4.8934105038642883e-01" nType="-99"/>
        </Node>
      </Node>
    </BinaryTree>
    <BinaryTree type="DecisionTree" boostWeight="1.0000000000000000e+00" itree="1146">
      <Node pos="s" depth="0" NCoef="0" IVar="5" Cut="9.6041470766067505e-01" cType="1" res="4.4779301970265806e-04" rms="4.5268732309341431e-01" purity="5.0025331974029541e-01" nType="0">
        <Node pos="l" depth="1" NCoef="0" IVar="6" Cut="1.7627363204956055e+00" cType="1" res="-5.5563654750585556e-03" rms="4.5737260580062866e-01" purity="4.0670964121818542e-01" nType="0">
          <Node pos="l" depth="2" NCoef="0" IVar="-1" Cut="0.0000000000000000e+00" cType="1" res="-1.8226859392598271e-03" rms="4.6701395511627197e-01" purity="4.7138467431068420e-01" nType="-99"/>
          <Node pos="r" depth="2" NCoef="0" IVar="-1" Cut="0.0000000000000000e+00" cType="1" res="-7.4331961513962597e-05" rms="4.5558407902717590e-01" purity="3.9581906795501709e-01" nType="-99"/>
        </Node>
        <Node pos="r" depth="1" NCoef="0" IVar="0" Cut="4.6658191680908203e+00" cType="1" res="1.0227496735751629e-02" rms="4.4477674365043640e-01" purity="6.5261930227279663e-01" nType="0">
          <Node pos="l" depth="2" NCoef="0" IVar="-1" Cut="0.0000000000000000e+00" cType="1" res="1.1540784034878016e-03" rms="4.5562872290611267e-01" purity="6.1295992136001587e-01" nType="-99"/>
          <Node pos="r" depth="2" NCoef="0" IVar="-1" Cut="0.0000000000000000e+00" cType="1" res="-9.9509826395660639e-04" rms="4.1202622652053833e-01" purity="7.6366800069808960e-01" nType="-99"/>
        </Node>
      </Node>
    </BinaryTree>
    <BinaryTree type="DecisionTree" boostWeight="1.0000000000000000e+00" itree="1147">
      <Node pos="s" depth="0" NCoef="0" IVar="8" Cut="7.7961462736129761e-01" cType="1" res="-2.8076986200176179e-04" rms="4.5332977175712585e-01" purity="4.9694219231605530e-01" nType="0">
        <Node pos="l" depth="1" NCoef="0" IVar="6" Cut="2.4208948612213135e+00" cType="1" res="-1.6395051032304764e-02" rms="4.5326554775238037e-01" purity="5.3156179189682007e-01" nType="0">
          <Node pos="l" depth="2" NCoef="0" IVar="-1" Cut="0.0000000000000000e+00" cType="1" res="-4.6772698988206685e-04" rms="4.5686903595924377e-01" purity="5.8043533563613892e-01" nType="-99"/>
          <Node pos="r" depth="2" NCoef="0" IVar="-1" Cut="0.0000000000000000e+00" cType="1" res="-2.8515779413282871e-03" rms="4.4031104445457458e-01" purity="3.7538275122642517e-01" nType="-99"/>
        </Node>
        <Node pos="r" depth="1" NCoef="0" IVar="9" Cut="9.9145090579986572e-01" cType="1" res="4.7406670637428761e-03" rms="4.5323270559310913e-01" purity="4.8615425825119019e-01" nType="0">
          <Node pos="l" depth="2" NCoef="0" IVar="-1" Cut="0.0000000000000000e+00" cType="1" res="4.9980223411694169e-04" rms="4.5467579364776611e-01" purity="5.0105804204940796e-01" nType="-99"/>
          <Node pos="r" depth="2" NCoef="0" IVar="-1" Cut="0.0000000000000000e+00" cType="1" res="-1.7533738864585757e-03" rms="4.3775773048400879e-01" purity="3.4146076440811157e-01" nType="-99"/>
        </Node>
      </Node>
    </BinaryTree>
    <BinaryTree type="DecisionTree" boostWeight="1.0000000000000000e+00" itree="1148">
      <Node pos="s" depth="0" NCoef="0" IVar="2" Cut="1.3380978393554688e+02" cType="1" res="-3.3865834120661020e-03" rms="4.5241373777389526e-01" purity="4.9752473831176758e-01" nType="0">
        <Node pos="l" depth="1" NCoef="0" IVar="9" Cut="1.7115966975688934e-01" cType="1" res="3.1140474602580070e-03" rms="4.5252814888954163e-01" purity="4.9697172641754150e-01" nType="0">
          <Node pos="l" depth="2" NCoef="0" IVar="-1" Cut="0.0000000000000000e+00" cType="1" res="-2.1098197903484106e-03" rms="4.5149832963943481e-01" purity="5.1509356498718262e-01" nType="-99"/>
          <Node pos="r" depth="2" NCoef="0" IVar="-1" Cut="0.0000000000000000e+00" cType="1" res="3.8975957431830466e-04" rms="4.5248356461524963e-01" purity="4.9542039632797241e-01" nType="-99"/>
        </Node>
        <Node pos="r" depth="1" NCoef="0" IVar="4" Cut="2.5305405259132385e-01" cType="1" res="-2.5553015992045403e-02" rms="4.5131999254226685e-01" purity="4.9941053986549377e-01" nType="0">
          <Node pos="l" depth="2" NCoef="0" IVar="-1" Cut="0.0000000000000000e+00" cType="1" res="-4.0933890268206596e-03" rms="4.3445202708244324e-01" purity="3.8213264942169189e-01" nType="-99"/>
          <Node pos="r" depth="2" NCoef="0" IVar="-1" Cut="0.0000000000000000e+00" cType="1" res="-6.8078585900366306e-04" rms="4.5734423398971558e-01" purity="5.4835033416748047e-01" nType="-99"/>
        </Node>
      </Node>
    </BinaryTree>
    <BinaryTree type="DecisionTree" boostWeight="1.0000000000000000e+00" itree="1149">
      <Node pos="s" depth="0" NCoef="0" IVar="7" Cut="6.3148975372314453e+01" cType="1" res="7.3242243379354477e-03" rms="4.5251339673995972e-01" purity="5.0651443004608154e-01" nType="0">
        <Node pos="l" depth="1" NCoef="0" IVar="8" Cut="8.6411428451538086e-01" cType="1" res="-4.1966605931520462e-03" rms="4.5030900835990906e-01" purity="4.1059899330139160e-01" nType="0">
          <Node pos="l" depth="2" NCoef="0" IVar="-1" Cut="0.0000000000000000e+00" cType="1" res="1.5327779110521078e-03" rms="4.6219858527183533e-01" purity="4.8703262209892273e-01" nType="-99"/>
          <Node pos="r" depth="2" NCoef="0" IVar="-1" Cut="0.0000000000000000e+00" cType="1" res="-8.8472571223974228e-04" rms="4.4600138068199158e-01" purity="3.8589432835578918e-01" nType="-99"/>
        </Node>
        <Node pos="r" depth="1" NCoef="0" IVar="1" Cut="8.1676507568359375e+02" cType="1" res="1.6007639467716217e-02" rms="4.5397463440895081e-01" purity="5.7880687713623047e-01" nType="0">
          <Node pos="l" depth="2" NCoef="0" IVar="-1" Cut="0.0000000000000000e+00" cType="1" res="6.9947924930602312e-04" rms="4.5585918426513672e-01" purity="5.5810338258743286e-01" nType="-99"/>
          <Node pos="r" depth="2" NCoef="0" IVar="-1" Cut="0.0000000000000000e+00" cType="1" res="2.4365375284105539e-03" rms="4.4467034935951233e-01" purity="6.7300444841384888e-01" nType="-99"/>
        </Node>
      </Node>
    </BinaryTree>
    <BinaryTree type="DecisionTree" boostWeight="1.0000000000000000e+00" itree="1150">
      <Node pos="s" depth="0" NCoef="0" IVar="3" Cut="-7.0311643183231354e-02" cType="1" res="-2.6689511723816395e-03" rms="4.5183387398719788e-01" purity="4.9743059277534485e-01" nType="0">
        <Node pos="l" depth="1" NCoef="0" IVar="-1" Cut="0.0000000000000000e+00" cType="1" res="2.2087674587965012e-03" rms="4.2992511391639709e-01" purity="6.1027020215988159e-01" nType="-99"/>
        <Node pos="r" depth="1" NCoef="0" IVar="4" Cut="4.9506908655166626e-01" cType="1" res="-4.7746794298291206e-03" rms="4.5295175909996033e-01" purity="4.9103945493698120e-01" nType="0">
          <Node pos="l" depth="2" NCoef="0" IVar="-1" Cut="0.0000000000000000e+00" cType="1" res="-7.6662336141453125e-06" rms="4.5080175995826721e-01" purity="4.7310894727706909e-01" nType="-99"/>
          <Node pos="r" depth="2" NCoef="0" IVar="-1" Cut="0.0000000000000000e+00" cType="1" res="-9.9105050321668386e-04" rms="4.5782846212387085e-01" purity="5.3362911939620972e-01" nType="-99"/>
        </Node>
      </Node>
    </BinaryTree>
    <BinaryTree type="DecisionTree" boostWeight="1.0000000000000000e+00" itree="1151">
      <Node pos="s" depth="0" NCoef="0" IVar="4" Cut="2.8232780098915100e-01" cType="1" res="1.6737810801714659e-03" rms="4.5433771610260010e-01" purity="5.0297945737838745e-01" nType="0">
        <Node pos="l" depth="1" NCoef="0" IVar="9" Cut="5.0725054740905762e-01" cType="1" res="-8.9035695418715477e-03" rms="4.5281538367271423e-01" purity="4.2345133423805237e-01" nType="0">
          <Node pos="l" depth="2" NCoef="0" IVar="-1" Cut="0.0000000000000000e+00" cType="1" res="-1.9491022685542703e-03" rms="4.5645782351493835e-01" purity="4.5951113104820251e-01" nType="-99"/>
          <Node pos="r" depth="2" NCoef="0" IVar="-1" Cut="0.0000000000000000e+00" cType="1" res="3.4259731182828546e-04" rms="4.4991663098335266e-01" purity="4.0057969093322754e-01" nType="-99"/>
        </Node>
        <Node pos="r" depth="1" NCoef="0" IVar="1" Cut="5.2049957275390625e+02" cType="1" res="6.3909278251230717e-03" rms="4.5493566989898682e-01" purity="5.3844636678695679e-01" nType="0">
          <Node pos="l" depth="2" NCoef="0" IVar="-1" Cut="0.0000000000000000e+00" cType="1" res="-2.3673694522585720e-04" rms="4.5541584491729736e-01" purity="4.4988942146301270e-01" nType="-99"/>
          <Node pos="r" depth="2" NCoef="0" IVar="-1" Cut="0.0000000000000000e+00" cType="1" res="1.0595516068860888e-03" rms="4.5420053601264954e-01" purity="6.2993222475051880e-01" nType="-99"/>
        </Node>
      </Node>
    </BinaryTree>
    <BinaryTree type="DecisionTree" boostWeight="1.0000000000000000e+00" itree="1152">
      <Node pos="s" depth="0" NCoef="0" IVar="1" Cut="4.1130044555664062e+02" cType="1" res="-7.8231695806607604e-04" rms="4.5197954773902893e-01" purity="5.0099045038223267e-01" nType="0">
        <Node pos="l" depth="1" NCoef="0" IVar="7" Cut="4.6978183746337891e+01" cType="1" res="2.2282268851995468e-02" rms="4.3671742081642151e-01" purity="3.6546903848648071e-01" nType="0">
          <Node pos="l" depth="2" NCoef="0" IVar="-1" Cut="0.0000000000000000e+00" cType="1" res="-9.4565143808722496e-04" rms="4.1920223832130432e-01" purity="2.8290185332298279e-01" nType="-99"/>
          <Node pos="r" depth="2" NCoef="0" IVar="-1" Cut="0.0000000000000000e+00" cType="1" res="3.1765908934175968e-03" rms="4.4723361730575562e-01" purity="4.2515745759010315e-01" nType="-99"/>
        </Node>
        <Node pos="r" depth="1" NCoef="0" IVar="9" Cut="8.9820796251296997e-01" cType="1" res="-5.6463819928467274e-03" rms="4.5498353242874146e-01" purity="5.2957034111022949e-01" nType="0">
          <Node pos="l" depth="2" NCoef="0" IVar="-1" Cut="0.0000000000000000e+00" cType="1" res="-5.9316167607903481e-04" rms="4.5501610636711121e-01" purity="5.4152202606201172e-01" nType="-99"/>
          <Node pos="r" depth="2" NCoef="0" IVar="-1" Cut="0.0000000000000000e+00" cType="1" res="1.2494414113461971e-03" rms="4.5393016934394836e-01" purity="4.5028382539749146e-01" nType="-99"/>
        </Node>
      </Node>
    </BinaryTree>
    <BinaryTree type="DecisionTree" boostWeight="1.0000000000000000e+00" itree="1153">
      <Node pos="s" depth="0" NCoef="0" IVar="8" Cut="1.2288877964019775e+00" cType="1" res="4.9679931253194809e-03" rms="4.5173087716102600e-01" purity="5.0609558820724487e-01" nType="0">
        <Node pos="l" depth="1" NCoef="0" IVar="7" Cut="5.3815860748291016e+01" cType="1" res="-1.0272647486999631e-03" rms="4.5275980234146118e-01" purity="5.2756887674331665e-01" nType="0">
          <Node pos="l" depth="2" NCoef="0" IVar="-1" Cut="0.0000000000000000e+00" cType="1" res="-1.3986097183078527e-03" rms="4.4854888319969177e-01" purity="3.8529306650161743e-01" nType="-99"/>
          <Node pos="r" depth="2" NCoef="0" IVar="-1" Cut="0.0000000000000000e+00" cType="1" res="3.0415077344514430e-04" rms="4.5376709103584290e-01" purity="5.6771767139434814e-01" nType="-99"/>
        </Node>
        <Node pos="r" depth="1" NCoef="0" IVar="1" Cut="6.2508160400390625e+02" cType="1" res="1.6005549579858780e-02" rms="4.4962140917778015e-01" purity="4.6656239032745361e-01" nType="0">
          <Node pos="l" depth="2" NCoef="0" IVar="-1" Cut="0.0000000000000000e+00" cType="1" res="5.5486749624833465e-04" rms="4.5093652606010437e-01" purity="4.2793777585029602e-01" nType="-99"/>
          <Node pos="r" depth="2" NCoef="0" IVar="-1" Cut="0.0000000000000000e+00" cType="1" res="2.8397324495017529e-03" rms="4.4305196404457092e-01" purity="6.2170976400375366e-01" nType="-99"/>
        </Node>
      </Node>
    </BinaryTree>
    <BinaryTree type="DecisionTree" boostWeight="1.0000000000000000e+00" itree="1154">
      <Node pos="s" depth="0" NCoef="0" IVar="1" Cut="4.1723254394531250e+02" cType="1" res="2.9583375435322523e-03" rms="4.5288413763046265e-01" purity="5.0497788190841675e-01" nType="0">
        <Node pos="l" depth="1" NCoef="0" IVar="2" Cut="7.2983230590820312e+01" cType="1" res="2.1503714844584465e-02" rms="4.3913993239402771e-01" purity="3.7003803253173828e-01" nType="0">
          <Node pos="l" depth="2" NCoef="0" IVar="-1" Cut="0.0000000000000000e+00" cType="1" res="3.0934675596654415e-03" rms="4.4908341765403748e-01" purity="4.1314765810966492e-01" nType="-99"/>
          <Node pos="r" depth="2" NCoef="0" IVar="-1" Cut="0.0000000000000000e+00" cType="1" res="-7.7217795478645712e-05" rms="4.2869177460670471e-01" purity="3.3103081583976746e-01" nType="-99"/>
        </Node>
        <Node pos="r" depth="1" NCoef="0" IVar="0" Cut="1.6004397869110107e+00" cType="1" res="-1.3682412682101130e-03" rms="4.5592251420021057e-01" purity="5.3645884990692139e-01" nType="0">
          <Node pos="l" depth="2" NCoef="0" IVar="-1" Cut="0.0000000000000000e+00" cType="1" res="-1.5750813763588667e-03" rms="4.4630593061447144e-01" purity="3.1846517324447632e-01" nType="-99"/>
          <Node pos="r" depth="2" NCoef="0" IVar="-1" Cut="0.0000000000000000e+00" cType="1" res="2.1680956706404686e-04" rms="4.5784342288970947e-01" purity="5.8392238616943359e-01" nType="-99"/>
        </Node>
      </Node>
    </BinaryTree>
    <BinaryTree type="DecisionTree" boostWeight="1.0000000000000000e+00" itree="1155">
      <Node pos="s" depth="0" NCoef="0" IVar="0" Cut="2.8730866909027100e+00" cType="1" res="-1.2108003720641136e-03" rms="4.5510211586952209e-01" purity="4.9855223298072815e-01" nType="0">
        <Node pos="l" depth="1" NCoef="0" IVar="2" Cut="5.0150856018066406e+01" cType="1" res="8.5014384239912033e-03" rms="4.5761033892631531e-01" purity="3.8820692896842957e-01" nType="0">
          <Node pos="l" depth="2" NCoef="0" IVar="-1" Cut="0.0000000000000000e+00" cType="1" res="2.3875501938164234e-03" rms="4.6511757373809814e-01" purity="3.9910942316055298e-01" nType="-99"/>
          <Node pos="r" depth="2" NCoef="0" IVar="-1" Cut="0.0000000000000000e+00" cType="1" res="2.9961764812469482e-04" rms="4.5649248361587524e-01" purity="3.8679853081703186e-01" nType="-99"/>
        </Node>
        <Node pos="r" depth="1" NCoef="0" IVar="4" Cut="3.1892880797386169e-01" cType="1" res="-1.1803206056356430e-02" rms="4.5211297273635864e-01" purity="6.1889755725860596e-01" nType="0">
          <Node pos="l" depth="2" NCoef="0" IVar="-1" Cut="0.0000000000000000e+00" cType="1" res="-1.9157959613949060e-03" rms="4.6168529987335205e-01" purity="5.4217851161956787e-01" nType="-99"/>
          <Node pos="r" depth="2" NCoef="0" IVar="-1" Cut="0.0000000000000000e+00" cType="1" res="6.5186257415916771e-05" rms="4.4536620378494263e-01" purity="6.6832733154296875e-01" nType="-99"/>
        </Node>
      </Node>
    </BinaryTree>
    <BinaryTree type="DecisionTree" boostWeight="1.0000000000000000e+00" itree="1156">
      <Node pos="s" depth="0" NCoef="0" IVar="0" Cut="1.4508301019668579e+00" cType="1" res="3.8718739524483681e-03" rms="4.5322507619857788e-01" purity="5.0375926494598389e-01" nType="0">
        <Node pos="l" depth="1" NCoef="0" IVar="6" Cut="2.1307594776153564e+00" cType="1" res="1.9308531656861305e-02" rms="4.3991923332214355e-01" purity="3.2167878746986389e-01" nType="0">
          <Node pos="l" depth="2" NCoef="0" IVar="-1" Cut="0.0000000000000000e+00" cType="1" res="-6.5633625490590930e-04" rms="4.5160049200057983e-01" purity="3.4758359193801880e-01" nType="-99"/>
          <Node pos="r" depth="2" NCoef="0" IVar="-1" Cut="0.0000000000000000e+00" cType="1" res="2.8861486352980137e-03" rms="4.3156400322914124e-01" purity="3.0573132634162903e-01" nType="-99"/>
        </Node>
        <Node pos="r" depth="1" NCoef="0" IVar="7" Cut="8.0427635192871094e+01" cType="1" res="8.5670599946752191e-04" rms="4.5571765303611755e-01" purity="5.3932422399520874e-01" nType="0">
          <Node pos="l" depth="2" NCoef="0" IVar="-1" Cut="0.0000000000000000e+00" cType="1" res="5.3619896061718464e-04" rms="4.5631486177444458e-01" purity="5.0522696971893311e-01" nType="-99"/>
          <Node pos="r" depth="2" NCoef="0" IVar="-1" Cut="0.0000000000000000e+00" cType="1" res="-9.7822514362633228e-04" rms="4.5405903458595276e-01" purity="6.0935509204864502e-01" nType="-99"/>
        </Node>
      </Node>
    </BinaryTree>
    <BinaryTree type="DecisionTree" boostWeight="1.0000000000000000e+00" itree="1157">
      <Node pos="s" depth="0" NCoef="0" IVar="9" Cut="9.5040726661682129e-01" cType="1" res="-7.7249587047845125e-04" rms="4.5308285951614380e-01" purity="4.9765297770500183e-01" nType="0">
        <Node pos="l" depth="1" NCoef="0" IVar="2" Cut="1.4928225708007812e+02" cType="1" res="-3.6992297973483801e-03" rms="4.5319139957427979e-01" purity="5.0777095556259155e-01" nType="0">
          <Node pos="l" depth="2" NCoef="0" IVar="-1" Cut="0.0000000000000000e+00" cType="1" res="-5.1076360978186131e-04" rms="4.5204925537109375e-01" purity="4.9889963865280151e-01" nType="-99"/>
          <Node pos="r" depth="2" NCoef="0" IVar="-1" Cut="0.0000000000000000e+00" cType="1" res="1.3864916982129216e-03" rms="4.5885491371154785e-01" purity="5.5861747264862061e-01" nType="-99"/>
        </Node>
        <Node pos="r" depth="1" NCoef="0" IVar="4" Cut="2.9144459962844849e-01" cType="1" res="2.3980595171451569e-02" rms="4.5140552520751953e-01" purity="4.1207954287528992e-01" nType="0">
          <Node pos="l" depth="2" NCoef="0" IVar="-1" Cut="0.0000000000000000e+00" cType="1" res="3.1445177737623453e-03" rms="4.4347852468490601e-01" purity="3.8917416334152222e-01" nType="-99"/>
          <Node pos="r" depth="2" NCoef="0" IVar="-1" Cut="0.0000000000000000e+00" cType="1" res="2.0097423112019897e-04" rms="4.5795550942420959e-01" purity="4.3415409326553345e-01" nType="-99"/>
        </Node>
      </Node>
    </BinaryTree>
    <BinaryTree type="DecisionTree" boostWeight="1.0000000000000000e+00" itree="1158">
      <Node pos="s" depth="0" NCoef="0" IVar="9" Cut="6.5531253814697266e-01" cType="1" res="-8.0379174323752522e-04" rms="4.5236271619796753e-01" purity="5.0114297866821289e-01" nType="0">
        <Node pos="l" depth="1" NCoef="0" IVar="9" Cut="3.3968055248260498e-01" cType="1" res="-7.5876736082136631e-03" rms="4.5179083943367004e-01" purity="5.2580177783966064e-01" nType="0">
          <Node pos="l" depth="2" NCoef="0" IVar="-1" Cut="0.0000000000000000e+00" cType="1" res="4.5931938802823424e-04" rms="4.5105195045471191e-01" purity="5.5949842929840088e-01" nType="-99"/>
          <Node pos="r" depth="2" NCoef="0" IVar="-1" Cut="0.0000000000000000e+00" cType="1" res="-1.0978770442306995e-03" rms="4.5200940966606140e-01" purity="5.0344836711883545e-01" nType="-99"/>
        </Node>
        <Node pos="r" depth="1" NCoef="0" IVar="4" Cut="5.3388941287994385e-01" cType="1" res="1.2160579673945904e-02" rms="4.5317119359970093e-01" purity="4.5401877164840698e-01" nType="0">
          <Node pos="l" depth="2" NCoef="0" IVar="-1" Cut="0.0000000000000000e+00" cType="1" res="1.4050502795726061e-03" rms="4.5044907927513123e-01" purity="4.4506064057350159e-01" nType="-99"/>
          <Node pos="r" depth="2" NCoef="0" IVar="-1" Cut="0.0000000000000000e+00" cType="1" res="-1.8878843402490020e-03" rms="4.6245279908180237e-01" purity="4.9302706122398376e-01" nType="-99"/>
        </Node>
      </Node>
    </BinaryTree>
    <BinaryTree type="DecisionTree" boostWeight="1.0000000000000000e+00" itree="1159">
      <Node pos="s" depth="0" NCoef="0" IVar="4" Cut="1.3640701770782471e-01" cType="1" res="-2.4976690765470266e-03" rms="4.5301297307014465e-01" purity="4.9643602967262268e-01" nType="0">
        <Node pos="l" depth="1" NCoef="0" IVar="-1" Cut="0.0000000000000000e+00" cType="1" res="1.9002127228304744e-03" rms="4.4225320219993591e-01" purity="4.1693493723869324e-01" nType="-99"/>
        <Node pos="r" depth="1" NCoef="0" IVar="3" Cut="1.1798248440027237e-01" cType="1" res="-5.1736789755523205e-03" rms="4.5382648706436157e-01" purity="5.0327104330062866e-01" nType="0">
          <Node pos="l" depth="2" NCoef="0" IVar="-1" Cut="0.0000000000000000e+00" cType="1" res="-1.4734157593920827e-04" rms="4.5461967587471008e-01" purity="5.1460736989974976e-01" nType="-99"/>
          <Node pos="r" depth="2" NCoef="0" IVar="-1" Cut="0.0000000000000000e+00" cType="1" res="-1.5173890860751271e-03" rms="4.4818511605262756e-01" purity="4.2937919497489929e-01" nType="-99"/>
        </Node>
      </Node>
    </BinaryTree>
    <BinaryTree type="DecisionTree" boostWeight="1.0000000000000000e+00" itree="1160">
      <Node pos="s" depth="0" NCoef="0" IVar="4" Cut="7.0883190631866455e-01" cType="1" res="-3.3581156749278307e-03" rms="4.5255166292190552e-01" purity="4.9597969651222229e-01" nType="0">
        <Node pos="l" depth="1" NCoef="0" IVar="3" Cut="1.4854504168033600e-01" cType="1" res="-5.7830573059618473e-03" rms="4.5345556735992432e-01" purity="4.8850724101066589e-01" nType="0">
          <Node pos="l" depth="2" NCoef="0" IVar="-1" Cut="0.0000000000000000e+00" cType="1" res="-1.8933445971924812e-04" rms="4.5328375697135925e-01" purity="4.9853140115737915e-01" nType="-99"/>
          <Node pos="r" depth="2" NCoef="0" IVar="-1" Cut="0.0000000000000000e+00" cType="1" res="-1.9092211732640862e-03" rms="4.5422410964965820e-01" purity="4.0382263064384460e-01" nType="-99"/>
        </Node>
        <Node pos="r" depth="1" NCoef="0" IVar="-1" Cut="0.0000000000000000e+00" cType="1" res="2.2053264547139406e-03" rms="4.3637433648109436e-01" purity="6.1315757036209106e-01" nType="-99"/>
      </Node>
    </BinaryTree>
    <BinaryTree type="DecisionTree" boostWeight="1.0000000000000000e+00" itree="1161">
      <Node pos="s" depth="0" NCoef="0" IVar="7" Cut="5.0822685241699219e+01" cType="1" res="-3.2652758527547121e-03" rms="4.5548355579376221e-01" purity="4.9600619077682495e-01" nType="0">
        <Node pos="l" depth="1" NCoef="0" IVar="7" Cut="4.1210571289062500e+01" cType="1" res="1.4075202867388725e-02" rms="4.4351610541343689e-01" purity="3.7792310118675232e-01" nType="0">
          <Node pos="l" depth="2" NCoef="0" IVar="-1" Cut="0.0000000000000000e+00" cType="1" res="-2.7310575824230909e-03" rms="4.1746586561203003e-01" purity="2.6558190584182739e-01" nType="-99"/>
          <Node pos="r" depth="2" NCoef="0" IVar="-1" Cut="0.0000000000000000e+00" cType="1" res="2.1304443944245577e-03" rms="4.5098924636840820e-01" purity="4.1790100932121277e-01" nType="-99"/>
        </Node>
        <Node pos="r" depth="1" NCoef="0" IVar="3" Cut="-1.3957241550087929e-02" cType="1" res="-7.5360718183219433e-03" rms="4.5828241109848022e-01" purity="5.2508896589279175e-01" nType="0">
          <Node pos="l" depth="2" NCoef="0" IVar="-1" Cut="0.0000000000000000e+00" cType="1" res="-1.4954232610762119e-03" rms="4.6247854828834534e-01" purity="5.5379843711853027e-01" nType="-99"/>
          <Node pos="r" depth="2" NCoef="0" IVar="-1" Cut="0.0000000000000000e+00" cType="1" res="-1.8339687812840566e-05" rms="4.5621827244758606e-01" purity="5.1232910156250000e-01" nType="-99"/>
        </Node>
      </Node>
    </BinaryTree>
    <BinaryTree type="DecisionTree" boostWeight="1.0000000000000000e+00" itree="1162">
      <Node pos="s" depth="0" NCoef="0" IVar="0" Cut="4.2811555862426758e+00" cType="1" res="-7.0917787961661816e-03" rms="4.5554423332214355e-01" purity="4.9271810054779053e-01" nType="0">
        <Node pos="l" depth="1" NCoef="0" IVar="3" Cut="1.1834472417831421e-01" cType="1" res="-2.0814980380237103e-03" rms="4.6095606684684753e-01" purity="4.4465446472167969e-01" nType="0">
          <Node pos="l" depth="2" NCoef="0" IVar="-1" Cut="0.0000000000000000e+00" cType="1" res="-3.6619839374907315e-04" rms="4.6184056997299194e-01" purity="4.5331132411956787e-01" nType="-99"/>
          <Node pos="r" depth="2" NCoef="0" IVar="-1" Cut="0.0000000000000000e+00" cType="1" res="1.0929256677627563e-03" rms="4.5620104670524597e-01" purity="4.0299278497695923e-01" nType="-99"/>
        </Node>
        <Node pos="r" depth="1" NCoef="0" IVar="0" Cut="4.8740978240966797e+00" cType="1" res="-2.8993055224418640e-02" rms="4.3040660023689270e-01" purity="7.0281720161437988e-01" nType="0">
          <Node pos="l" depth="2" NCoef="0" IVar="-1" Cut="0.0000000000000000e+00" cType="1" res="-3.4662669058889151e-03" rms="4.6128010749816895e-01" purity="6.1655008792877197e-01" nType="-99"/>
          <Node pos="r" depth="2" NCoef="0" IVar="-1" Cut="0.0000000000000000e+00" cType="1" res="-8.2872959319502115e-04" rms="4.0503486990928650e-01" purity="7.6667237281799316e-01" nType="-99"/>
        </Node>
      </Node>
    </BinaryTree>
    <BinaryTree type="DecisionTree" boostWeight="1.0000000000000000e+00" itree="1163">
      <Node pos="s" depth="0" NCoef="0" IVar="8" Cut="1.6543701887130737e+00" cType="1" res="-1.8817139789462090e-03" rms="4.5413246750831604e-01" purity="4.9871212244033813e-01" nType="0">
        <Node pos="l" depth="1" NCoef="0" IVar="3" Cut="-4.0752083063125610e-02" cType="1" res="-5.1286807283759117e-03" rms="4.5612564682960510e-01" purity="5.0466662645339966e-01" nType="0">
          <Node pos="l" depth="2" NCoef="0" IVar="-1" Cut="0.0000000000000000e+00" cType="1" res="9.4235723372548819e-04" rms="4.5334336161613464e-01" purity="5.7989627122879028e-01" nType="-99"/>
          <Node pos="r" depth="2" NCoef="0" IVar="-1" Cut="0.0000000000000000e+00" cType="1" res="-5.9036019956693053e-04" rms="4.5660302042961121e-01" purity="4.8862010240554810e-01" nType="-99"/>
        </Node>
        <Node pos="r" depth="1" NCoef="0" IVar="6" Cut="2.1963934898376465e+00" cType="1" res="2.6027597486972809e-02" rms="4.3562784790992737e-01" purity="4.4752967357635498e-01" nType="0">
          <Node pos="l" depth="2" NCoef="0" IVar="-1" Cut="0.0000000000000000e+00" cType="1" res="2.9860076028853655e-03" rms="4.4026097655296326e-01" purity="5.4992604255676270e-01" nType="-99"/>
          <Node pos="r" depth="2" NCoef="0" IVar="-1" Cut="0.0000000000000000e+00" cType="1" res="1.7122879216913134e-04" rms="4.2944365739822388e-01" purity="3.3991298079490662e-01" nType="-99"/>
        </Node>
      </Node>
    </BinaryTree>
    <BinaryTree type="DecisionTree" boostWeight="1.0000000000000000e+00" itree="1164">
      <Node pos="s" depth="0" NCoef="0" IVar="7" Cut="1.3175508117675781e+02" cType="1" res="-2.4615535512566566e-03" rms="4.5367825031280518e-01" purity="4.9518698453903198e-01" nType="0">
        <Node pos="l" depth="1" NCoef="0" IVar="0" Cut="4.9152050018310547e+00" cType="1" res="-1.0514329915167764e-04" rms="4.5328059792518616e-01" purity="4.9039170145988464e-01" nType="0">
          <Node pos="l" depth="2" NCoef="0" IVar="-1" Cut="0.0000000000000000e+00" cType="1" res="-2.3088826856110245e-04" rms="4.6031668782234192e-01" purity="4.5687603950500488e-01" nType="-99"/>
          <Node pos="r" depth="2" NCoef="0" IVar="-1" Cut="0.0000000000000000e+00" cType="1" res="2.5664241984486580e-03" rms="3.8060039281845093e-01" purity="7.9991084337234497e-01" nType="-99"/>
        </Node>
        <Node pos="r" depth="1" NCoef="0" IVar="-1" Cut="0.0000000000000000e+00" cType="1" res="-2.8651140164583921e-03" rms="4.5868521928787231e-01" purity="5.8074229955673218e-01" nType="-99"/>
      </Node>
    </BinaryTree>
    <BinaryTree type="DecisionTree" boostWeight="1.0000000000000000e+00" itree="1165">
      <Node pos="s" depth="0" NCoef="0" IVar="8" Cut="8.0358123779296875e-01" cType="1" res="3.2927375286817551e-03" rms="4.5242702960968018e-01" purity="5.0457334518432617e-01" nType="0">
        <Node pos="l" depth="1" NCoef="0" IVar="3" Cut="-3.3369448035955429e-02" cType="1" res="2.1176945418119431e-02" rms="4.5179608464241028e-01" purity="5.7285618782043457e-01" nType="0">
          <Node pos="l" depth="2" NCoef="0" IVar="-1" Cut="0.0000000000000000e+00" cType="1" res="-1.0513074230402708e-03" rms="4.4303396344184875e-01" purity="5.8132982254028320e-01" nType="-99"/>
          <Node pos="r" depth="2" NCoef="0" IVar="-1" Cut="0.0000000000000000e+00" cType="1" res="1.9436213187873363e-03" rms="4.5359534025192261e-01" purity="5.7057625055313110e-01" nType="-99"/>
        </Node>
        <Node pos="r" depth="1" NCoef="0" IVar="8" Cut="1.4987232685089111e+00" cType="1" res="-2.9433318413794041e-03" rms="4.5248064398765564e-01" purity="4.8076373338699341e-01" nType="0">
          <Node pos="l" depth="2" NCoef="0" IVar="-1" Cut="0.0000000000000000e+00" cType="1" res="1.0701905557652935e-04" rms="4.5614004135131836e-01" purity="5.0030970573425293e-01" nType="-99"/>
          <Node pos="r" depth="2" NCoef="0" IVar="-1" Cut="0.0000000000000000e+00" cType="1" res="-1.1456703068688512e-03" rms="4.4030562043190002e-01" purity="4.1855198144912720e-01" nType="-99"/>
        </Node>
      </Node>
    </BinaryTree>
    <BinaryTree type="DecisionTree" boostWeight="1.0000000000000000e+00" itree="1166">
      <Node pos="s" depth="0" NCoef="0" IVar="2" Cut="4.8680934906005859e+01" cType="1" res="-2.8517416212707758e-03" rms="4.5403790473937988e-01" purity="4.9797686934471130e-01" nType="0">
        <Node pos="l" depth="1" NCoef="0" IVar="-1" Cut="0.0000000000000000e+00" cType="1" res="1.7468573059886694e-03" rms="4.6149185299873352e-01" purity="4.9852630496025085e-01" nType="-99"/>
        <Node pos="r" depth="1" NCoef="0" IVar="6" Cut="2.6265702247619629e+00" cType="1" res="-6.2665794976055622e-03" rms="4.5308127999305725e-01" purity="4.9791646003723145e-01" nType="0">
          <Node pos="l" depth="2" NCoef="0" IVar="-1" Cut="0.0000000000000000e+00" cType="1" res="-5.8940763119608164e-04" rms="4.5615360140800476e-01" purity="5.2966845035552979e-01" nType="-99"/>
          <Node pos="r" depth="2" NCoef="0" IVar="-1" Cut="0.0000000000000000e+00" cType="1" res="8.8685366790741682e-04" rms="4.3432679772377014e-01" purity="3.1337624788284302e-01" nType="-99"/>
        </Node>
      </Node>
    </BinaryTree>
    <BinaryTree type="DecisionTree" boostWeight="1.0000000000000000e+00" itree="1167">
      <Node pos="s" depth="0" NCoef="0" IVar="4" Cut="5.9120839834213257e-01" cType="1" res="1.0824466589838266e-03" rms="4.5338317751884460e-01" purity="4.9991533160209656e-01" nType="0">
        <Node pos="l" depth="1" NCoef="0" IVar="5" Cut="9.7607296705245972e-01" cType="1" res="4.9906610511243343e-03" rms="4.5233663916587830e-01" purity="4.8998895287513733e-01" nType="0">
          <Node pos="l" depth="2" NCoef="0" IVar="-1" Cut="0.0000000000000000e+00" cType="1" res="5.6176504585891962e-04" rms="4.5559576153755188e-01" purity="4.4473758339881897e-01" nType="-99"/>
          <Node pos="r" depth="2" NCoef="0" IVar="-1" Cut="0.0000000000000000e+00" cType="1" res="-9.2470744857564569e-04" rms="4.3728363513946533e-01" purity="6.8870490789413452e-01" nType="-99"/>
        </Node>
        <Node pos="r" depth="1" NCoef="0" IVar="1" Cut="4.4132958984375000e+02" cType="1" res="-1.6941076144576073e-02" rms="4.5774707198143005e-01" purity="5.4569274187088013e-01" nType="0">
          <Node pos="l" depth="2" NCoef="0" IVar="-1" Cut="0.0000000000000000e+00" cType="1" res="-2.5633217301219702e-03" rms="4.5352518558502197e-01" purity="4.1719871759414673e-01" nType="-99"/>
          <Node pos="r" depth="2" NCoef="0" IVar="-1" Cut="0.0000000000000000e+00" cType="1" res="-3.0363097903318703e-04" rms="4.5942994952201843e-01" purity="6.1182445287704468e-01" nType="-99"/>
        </Node>
      </Node>
    </BinaryTree>
    <BinaryTree type="DecisionTree" boostWeight="1.0000000000000000e+00" itree="1168">
      <Node pos="s" depth="0" NCoef="0" IVar="3" Cut="-6.9937542080879211e-02" cType="1" res="2.2611906751990318e-03" rms="4.5303019881248474e-01" purity="5.0012266635894775e-01" nType="0">
        <Node pos="l" depth="1" NCoef="0" IVar="-1" Cut="0.0000000000000000e+00" cType="1" res="-1.9742837175726891e-03" rms="4.6619427204132080e-01" purity="5.5521190166473389e-01" nType="-99"/>
        <Node pos="r" depth="1" NCoef="0" IVar="0" Cut="3.6340365409851074e+00" cType="1" res="4.2141708545386791e-03" rms="4.5217102766036987e-01" purity="4.9689579010009766e-01" nType="0">
          <Node pos="l" depth="2" NCoef="0" IVar="-1" Cut="0.0000000000000000e+00" cType="1" res="-5.9248410252621397e-05" rms="4.5925131440162659e-01" purity="4.1109681129455566e-01" nType="-99"/>
          <Node pos="r" depth="2" NCoef="0" IVar="-1" Cut="0.0000000000000000e+00" cType="1" res="1.0477957548573613e-03" rms="4.3531465530395508e-01" purity="6.9312721490859985e-01" nType="-99"/>
        </Node>
      </Node>
    </BinaryTree>
    <BinaryTree type="DecisionTree" boostWeight="1.0000000000000000e+00" itree="1169">
      <Node pos="s" depth="0" NCoef="0" IVar="8" Cut="1.8476618528366089e+00" cType="1" res="2.1842545829713345e-03" rms="4.5280450582504272e-01" purity="5.0254791975021362e-01" nType="0">
        <Node pos="l" depth="1" NCoef="0" IVar="6" Cut="2.5043935775756836e+00" cType="1" res="5.9479486662894487e-04" rms="4.5410835742950439e-01" purity="5.0484198331832886e-01" nType="0">
          <Node pos="l" depth="2" NCoef="0" IVar="-1" Cut="0.0000000000000000e+00" cType="1" res="-1.7984119767788798e-04" rms="4.5509681105613708e-01" purity="5.3908127546310425e-01" nType="-99"/>
          <Node pos="r" depth="2" NCoef="0" IVar="-1" Cut="0.0000000000000000e+00" cType="1" res="9.7901606932282448e-04" rms="4.4986322522163391e-01" purity="3.6793959140777588e-01" nType="-99"/>
        </Node>
        <Node pos="r" depth="1" NCoef="0" IVar="-1" Cut="0.0000000000000000e+00" cType="1" res="2.0416704937815666e-03" rms="4.2743057012557983e-01" purity="4.6091878414154053e-01" nType="-99"/>
      </Node>
    </BinaryTree>
    <BinaryTree type="DecisionTree" boostWeight="1.0000000000000000e+00" itree="1170">
      <Node pos="s" depth="0" NCoef="0" IVar="8" Cut="8.0358123779296875e-01" cType="1" res="-1.0083825327455997e-03" rms="4.5412617921829224e-01" purity="4.9806064367294312e-01" nType="0">
        <Node pos="l" depth="1" NCoef="0" IVar="7" Cut="7.8742965698242188e+01" cType="1" res="-1.4685575850307941e-02" rms="4.5678123831748962e-01" purity="5.3506249189376831e-01" nType="0">
          <Node pos="l" depth="2" NCoef="0" IVar="-1" Cut="0.0000000000000000e+00" cType="1" res="1.0136543278349563e-04" rms="4.5774355530738831e-01" purity="5.0341010093688965e-01" nType="-99"/>
          <Node pos="r" depth="2" NCoef="0" IVar="-1" Cut="0.0000000000000000e+00" cType="1" res="-2.2600477095693350e-03" rms="4.5473599433898926e-01" purity="5.7488745450973511e-01" nType="-99"/>
        </Node>
        <Node pos="r" depth="1" NCoef="0" IVar="3" Cut="-5.1222473382949829e-02" cType="1" res="3.8086653221398592e-03" rms="4.5308905839920044e-01" purity="4.8502877354621887e-01" nType="0">
          <Node pos="l" depth="2" NCoef="0" IVar="-1" Cut="0.0000000000000000e+00" cType="1" res="1.6814365517348051e-03" rms="4.5999345183372498e-01" purity="5.7666277885437012e-01" nType="-99"/>
          <Node pos="r" depth="2" NCoef="0" IVar="-1" Cut="0.0000000000000000e+00" cType="1" res="3.6608078517019749e-05" rms="4.5201572775840759e-01" purity="4.7213590145111084e-01" nType="-99"/>
        </Node>
      </Node>
    </BinaryTree>
    <BinaryTree type="DecisionTree" boostWeight="1.0000000000000000e+00" itree="1171">
      <Node pos="s" depth="0" NCoef="0" IVar="4" Cut="7.1939980983734131e-01" cType="1" res="4.2422977276146412e-03" rms="4.5147928595542908e-01" purity="5.0329244136810303e-01" nType="0">
        <Node pos="l" depth="1" NCoef="0" IVar="9" Cut="2.5327718257904053e-01" cType="1" res="1.1174195678904653e-03" rms="4.5198404788970947e-01" purity="4.9650365114212036e-01" nType="0">
          <Node pos="l" depth="2" NCoef="0" IVar="-1" Cut="0.0000000000000000e+00" cType="1" res="1.8868410261347890e-03" rms="4.4273135066032410e-01" purity="5.8117878437042236e-01" nType="-99"/>
          <Node pos="r" depth="2" NCoef="0" IVar="-1" Cut="0.0000000000000000e+00" cType="1" res="-2.5713711511343718e-04" rms="4.5344087481498718e-01" purity="4.8122161626815796e-01" nType="-99"/>
        </Node>
        <Node pos="r" depth="1" NCoef="0" IVar="-1" Cut="0.0000000000000000e+00" cType="1" res="3.9965668693184853e-03" rms="4.3777048587799072e-01" purity="6.3077753782272339e-01" nType="-99"/>
      </Node>
    </BinaryTree>
    <BinaryTree type="DecisionTree" boostWeight="1.0000000000000000e+00" itree="1172">
      <Node pos="s" depth="0" NCoef="0" IVar="3" Cut="1.3066346943378448e-01" cType="1" res="-4.1032102890312672e-03" rms="4.5118793845176697e-01" purity="4.9803468585014343e-01" nType="0">
        <Node pos="l" depth="1" NCoef="0" IVar="3" Cut="2.0371109712868929e-03" cType="1" res="-3.7578371120616794e-04" rms="4.5275187492370605e-01" purity="5.1180672645568848e-01" nType="0">
          <Node pos="l" depth="2" NCoef="0" IVar="-1" Cut="0.0000000000000000e+00" cType="1" res="-7.2029483271762729e-04" rms="4.5144683122634888e-01" purity="5.2897107601165771e-01" nType="-99"/>
          <Node pos="r" depth="2" NCoef="0" IVar="-1" Cut="0.0000000000000000e+00" cType="1" res="5.6437164312228560e-04" rms="4.5364147424697876e-01" purity="4.9731120467185974e-01" nType="-99"/>
        </Node>
        <Node pos="r" depth="1" NCoef="0" IVar="6" Cut="2.2364692687988281e+00" cType="1" res="-2.7195494621992111e-02" rms="4.4067326188087463e-01" purity="4.1271334886550903e-01" nType="0">
          <Node pos="l" depth="2" NCoef="0" IVar="-1" Cut="0.0000000000000000e+00" cType="1" res="-4.3650087900459766e-04" rms="4.6685081720352173e-01" purity="5.2216136455535889e-01" nType="-99"/>
          <Node pos="r" depth="2" NCoef="0" IVar="-1" Cut="0.0000000000000000e+00" cType="1" res="-2.9787649400532246e-03" rms="4.1750150918960571e-01" purity="3.2383272051811218e-01" nType="-99"/>
        </Node>
      </Node>
    </BinaryTree>
    <BinaryTree type="DecisionTree" boostWeight="1.0000000000000000e+00" itree="1173">
      <Node pos="s" depth="0" NCoef="0" IVar="5" Cut="9.1095405817031860e-01" cType="1" res="1.0242228163406253e-03" rms="4.5058694481849670e-01" purity="5.0115394592285156e-01" nType="0">
        <Node pos="l" depth="1" NCoef="0" IVar="-1" Cut="0.0000000000000000e+00" cType="1" res="-1.8173914868384600e-03" rms="4.1344791650772095e-01" purity="2.6621878147125244e-01" nType="-99"/>
        <Node pos="r" depth="1" NCoef="0" IVar="7" Cut="5.4042327880859375e+01" cType="1" res="3.2623291481286287e-03" rms="4.5337253808975220e-01" purity="5.2008134126663208e-01" nType="0">
          <Node pos="l" depth="2" NCoef="0" IVar="-1" Cut="0.0000000000000000e+00" cType="1" res="9.9828408565372229e-04" rms="4.5232215523719788e-01" purity="4.1535916924476624e-01" nType="-99"/>
          <Node pos="r" depth="2" NCoef="0" IVar="-1" Cut="0.0000000000000000e+00" cType="1" res="-5.7135301176458597e-05" rms="4.5365574955940247e-01" purity="5.5589371919631958e-01" nType="-99"/>
        </Node>
      </Node>
    </BinaryTree>
    <BinaryTree type="DecisionTree" boostWeight="1.0000000000000000e+00" itree="1174">
      <Node pos="s" depth="0" NCoef="0" IVar="5" Cut="9.1394430398941040e-01" cType="1" res="5.0351745449006557e-03" rms="4.5388442277908325e-01" purity="5.0517362356185913e-01" nType="0">
        <Node pos="l" depth="1" NCoef="0" IVar="-1" Cut="0.0000000000000000e+00" cType="1" res="1.8201756756752729e-03" rms="4.3993288278579712e-01" purity="3.3030337095260620e-01" nType="-99"/>
        <Node pos="r" depth="1" NCoef="0" IVar="5" Cut="9.2546391487121582e-01" cType="1" res="2.8670739848166704e-03" rms="4.5515814423561096e-01" purity="5.2215498685836792e-01" nType="0">
          <Node pos="l" depth="2" NCoef="0" IVar="-1" Cut="0.0000000000000000e+00" cType="1" res="-1.4808749547228217e-03" rms="4.3340539932250977e-01" purity="3.1175965070724487e-01" nType="-99"/>
          <Node pos="r" depth="2" NCoef="0" IVar="-1" Cut="0.0000000000000000e+00" cType="1" res="3.3258902840316296e-04" rms="4.5709422230720520e-01" purity="5.4212611913681030e-01" nType="-99"/>
        </Node>
      </Node>
    </BinaryTree>
    <BinaryTree type="DecisionTree" boostWeight="1.0000000000000000e+00" itree="1175">
      <Node pos="s" depth="0" NCoef="0" IVar="1" Cut="4.2223324584960938e+02" cType="1" res="-5.7137720286846161e-03" rms="4.5198047161102295e-01" purity="4.9652487039566040e-01" nType="0">
        <Node pos="l" depth="1" NCoef="0" IVar="3" Cut="2.8178183361887932e-02" cType="1" res="1.7781682312488556e-02" rms="4.4344508647918701e-01" purity="3.7630712985992432e-01" nType="0">
          <Node pos="l" depth="2" NCoef="0" IVar="-1" Cut="0.0000000000000000e+00" cType="1" res="2.3541604168713093e-03" rms="4.5444354414939880e-01" purity="4.3070337176322937e-01" nType="-99"/>
          <Node pos="r" depth="2" NCoef="0" IVar="-1" Cut="0.0000000000000000e+00" cType="1" res="-3.9174431003630161e-04" rms="4.2801246047019958e-01" purity="3.0753499269485474e-01" nType="-99"/>
        </Node>
        <Node pos="r" depth="1" NCoef="0" IVar="9" Cut="7.8410226106643677e-01" cType="1" res="-1.1653511784970760e-02" rms="4.5392030477523804e-01" purity="5.2691638469696045e-01" nType="0">
          <Node pos="l" depth="2" NCoef="0" IVar="-1" Cut="0.0000000000000000e+00" cType="1" res="-2.8097000904381275e-04" rms="4.5461040735244751e-01" purity="5.5664145946502686e-01" nType="-99"/>
          <Node pos="r" depth="2" NCoef="0" IVar="-1" Cut="0.0000000000000000e+00" cType="1" res="-2.4433108046650887e-03" rms="4.5016419887542725e-01" purity="4.1162168979644775e-01" nType="-99"/>
        </Node>
      </Node>
    </BinaryTree>
    <BinaryTree type="DecisionTree" boostWeight="1.0000000000000000e+00" itree="1176">
      <Node pos="s" depth="0" NCoef="0" IVar="9" Cut="4.7388920187950134e-01" cType="1" res="-3.4580375067889690e-03" rms="4.5240226387977600e-01" purity="4.9635919928550720e-01" nType="0">
        <Node pos="l" depth="1" NCoef="0" IVar="3" Cut="-3.4016683697700500e-02" cType="1" res="-1.0769084095954895e-02" rms="4.5189064741134644e-01" purity="5.3305077552795410e-01" nType="0">
          <Node pos="l" depth="2" NCoef="0" IVar="-1" Cut="0.0000000000000000e+00" cType="1" res="-1.8899395363405347e-03" rms="4.5481914281845093e-01" purity="5.5863505601882935e-01" nType="-99"/>
          <Node pos="r" depth="2" NCoef="0" IVar="-1" Cut="0.0000000000000000e+00" cType="1" res="-3.0669019906781614e-04" rms="4.5078131556510925e-01" purity="5.2477431297302246e-01" nType="-99"/>
        </Node>
        <Node pos="r" depth="1" NCoef="0" IVar="9" Cut="9.2311090230941772e-01" cType="1" res="2.3411386646330357e-03" rms="4.5272368192672729e-01" purity="4.6725511550903320e-01" nType="0">
          <Node pos="l" depth="2" NCoef="0" IVar="-1" Cut="0.0000000000000000e+00" cType="1" res="5.7153194211423397e-04" rms="4.5406475663185120e-01" purity="4.9190860986709595e-01" nType="-99"/>
          <Node pos="r" depth="2" NCoef="0" IVar="-1" Cut="0.0000000000000000e+00" cType="1" res="-1.4982982538640499e-03" rms="4.4680839776992798e-01" purity="3.7566873431205750e-01" nType="-99"/>
        </Node>
      </Node>
    </BinaryTree>
    <BinaryTree type="DecisionTree" boostWeight="1.0000000000000000e+00" itree="1177">
      <Node pos="s" depth="0" NCoef="0" IVar="5" Cut="9.1372650861740112e-01" cType="1" res="5.3339665755629539e-03" rms="4.5423123240470886e-01" purity="5.0303608179092407e-01" nType="0">
        <Node pos="l" depth="1" NCoef="0" IVar="-1" Cut="0.0000000000000000e+00" cType="1" res="2.6898237410932779e-03" rms="4.4368419051170349e-01" purity="3.4024628996849060e-01" nType="-99"/>
        <Node pos="r" depth="1" NCoef="0" IVar="2" Cut="6.6061508178710938e+01" cType="1" res="1.9228050950914621e-03" rms="4.5509508252143860e-01" purity="5.1880401372909546e-01" nType="0">
          <Node pos="l" depth="2" NCoef="0" IVar="-1" Cut="0.0000000000000000e+00" cType="1" res="1.4428113354369998e-03" rms="4.6055293083190918e-01" purity="5.1665157079696655e-01" nType="-99"/>
          <Node pos="r" depth="2" NCoef="0" IVar="-1" Cut="0.0000000000000000e+00" cType="1" res="-2.6943234843201935e-04" rms="4.5332491397857666e-01" purity="5.1942253112792969e-01" nType="-99"/>
        </Node>
      </Node>
    </BinaryTree>
    <BinaryTree type="DecisionTree" boostWeight="1.0000000000000000e+00" itree="1178">
      <Node pos="s" depth="0" NCoef="0" IVar="8" Cut="1.4607919454574585e+00" cType="1" res="1.2051542289555073e-03" rms="4.5409712195396423e-01" purity="5.0419563055038452e-01" nType="0">
        <Node pos="l" depth="1" NCoef="0" IVar="6" Cut="2.0050590038299561e+00" cType="1" res="-3.9260671474039555e-03" rms="4.5565861463546753e-01" purity="5.1499754190444946e-01" nType="0">
          <Node pos="l" depth="2" NCoef="0" IVar="-1" Cut="0.0000000000000000e+00" cType="1" res="-1.3770808000117540e-03" rms="4.5511063933372498e-01" purity="5.7118511199951172e-01" nType="-99"/>
          <Node pos="r" depth="2" NCoef="0" IVar="-1" Cut="0.0000000000000000e+00" cType="1" res="1.2382869317661971e-04" rms="4.5568597316741943e-01" purity="4.9643796682357788e-01" nType="-99"/>
        </Node>
        <Node pos="r" depth="1" NCoef="0" IVar="3" Cut="8.4447704255580902e-02" cType="1" res="2.2657355293631554e-02" rms="4.4687226414680481e-01" purity="4.5903581380844116e-01" nType="0">
          <Node pos="l" depth="2" NCoef="0" IVar="-1" Cut="0.0000000000000000e+00" cType="1" res="2.3822437506169081e-03" rms="4.5157453417778015e-01" purity="5.0316977500915527e-01" nType="-99"/>
          <Node pos="r" depth="2" NCoef="0" IVar="-1" Cut="0.0000000000000000e+00" cType="1" res="-9.2155131278559566e-04" rms="4.3353345990180969e-01" purity="3.5581690073013306e-01" nType="-99"/>
        </Node>
      </Node>
    </BinaryTree>
    <BinaryTree type="DecisionTree" boostWeight="1.0000000000000000e+00" itree="1179">
      <Node pos="s" depth="0" NCoef="0" IVar="5" Cut="9.8763203620910645e-01" cType="1" res="-3.6122316960245371e-03" rms="4.5459419488906860e-01" purity="4.9678349494934082e-01" nType="0">
        <Node pos="l" depth="1" NCoef="0" IVar="2" Cut="1.8072827148437500e+02" cType="1" res="-9.9503260571509600e-04" rms="4.5762881636619568e-01" purity="4.7530624270439148e-01" nType="0">
          <Node pos="l" depth="2" NCoef="0" IVar="-1" Cut="0.0000000000000000e+00" cType="1" res="-3.1471342663280666e-04" rms="4.5759111642837524e-01" purity="4.6943846344947815e-01" nType="-99"/>
          <Node pos="r" depth="2" NCoef="0" IVar="-1" Cut="0.0000000000000000e+00" cType="1" res="2.6736422441899776e-03" rms="4.5586594939231873e-01" purity="5.3605246543884277e-01" nType="-99"/>
        </Node>
        <Node pos="r" depth="1" NCoef="0" IVar="-1" Cut="0.0000000000000000e+00" cType="1" res="-2.5956344325095415e-03" rms="4.1822358965873718e-01" purity="7.3589670658111572e-01" nType="-99"/>
      </Node>
    </BinaryTree>
    <BinaryTree type="DecisionTree" boostWeight="1.0000000000000000e+00" itree="1180">
      <Node pos="s" depth="0" NCoef="0" IVar="7" Cut="1.3194586181640625e+02" cType="1" res="6.7263608798384666e-04" rms="4.5231407880783081e-01" purity="4.9991831183433533e-01" nType="0">
        <Node pos="l" depth="1" NCoef="0" IVar="4" Cut="6.3529008626937866e-01" cType="1" res="3.1056876759976149e-03" rms="4.5186546444892883e-01" purity="4.9484133720397949e-01" nType="0">
          <Node pos="l" depth="2" NCoef="0" IVar="-1" Cut="0.0000000000000000e+00" cType="1" res="4.0539129986427724e-04" rms="4.5236867666244507e-01" purity="4.8796603083610535e-01" nType="-99"/>
          <Node pos="r" depth="2" NCoef="0" IVar="-1" Cut="0.0000000000000000e+00" cType="1" res="-1.2324063573032618e-03" rms="4.4780778884887695e-01" purity="5.4123377799987793e-01" nType="-99"/>
        </Node>
        <Node pos="r" depth="1" NCoef="0" IVar="-1" Cut="0.0000000000000000e+00" cType="1" res="-2.8570448048412800e-03" rms="4.5807203650474548e-01" purity="5.9036564826965332e-01" nType="-99"/>
      </Node>
    </BinaryTree>
    <BinaryTree type="DecisionTree" boostWeight="1.0000000000000000e+00" itree="1181">
      <Node pos="s" depth="0" NCoef="0" IVar="4" Cut="4.9209091067314148e-01" cType="1" res="-2.1506438497453928e-03" rms="4.5406329631805420e-01" purity="4.9516692757606506e-01" nType="0">
        <Node pos="l" depth="1" NCoef="0" IVar="8" Cut="1.0162322521209717e+00" cType="1" res="4.2199310846626759e-03" rms="4.5289641618728638e-01" purity="4.7571256756782532e-01" nType="0">
          <Node pos="l" depth="2" NCoef="0" IVar="-1" Cut="0.0000000000000000e+00" cType="1" res="-2.9683441971428692e-04" rms="4.5206004381179810e-01" purity="5.0724226236343384e-01" nType="-99"/>
          <Node pos="r" depth="2" NCoef="0" IVar="-1" Cut="0.0000000000000000e+00" cType="1" res="7.8894366743043065e-04" rms="4.5350202918052673e-01" purity="4.4704034924507141e-01" nType="-99"/>
        </Node>
        <Node pos="r" depth="1" NCoef="0" IVar="9" Cut="3.1705388426780701e-01" cType="1" res="-1.5853840857744217e-02" rms="4.5626181364059448e-01" purity="5.3701359033584595e-01" nType="0">
          <Node pos="l" depth="2" NCoef="0" IVar="-1" Cut="0.0000000000000000e+00" cType="1" res="6.8553938763216138e-04" rms="4.4197708368301392e-01" purity="5.8215028047561646e-01" nType="-99"/>
          <Node pos="r" depth="2" NCoef="0" IVar="-1" Cut="0.0000000000000000e+00" cType="1" res="-1.6280466224998236e-03" rms="4.6115416288375854e-01" purity="5.1991254091262817e-01" nType="-99"/>
        </Node>
      </Node>
    </BinaryTree>
    <BinaryTree type="DecisionTree" boostWeight="1.0000000000000000e+00" itree="1182">
      <Node pos="s" depth="0" NCoef="0" IVar="8" Cut="6.4159113168716431e-01" cType="1" res="-7.6651095878332853e-04" rms="4.5321092009544373e-01" purity="4.9959397315979004e-01" nType="0">
        <Node pos="l" depth="1" NCoef="0" IVar="5" Cut="9.5143067836761475e-01" cType="1" res="2.2207628935575485e-02" rms="4.5133996009826660e-01" purity="5.8916133642196655e-01" nType="0">
          <Node pos="l" depth="2" NCoef="0" IVar="-1" Cut="0.0000000000000000e+00" cType="1" res="2.3392846342176199e-03" rms="4.6946954727172852e-01" purity="4.8865622282028198e-01" nType="-99"/>
          <Node pos="r" depth="2" NCoef="0" IVar="-1" Cut="0.0000000000000000e+00" cType="1" res="4.3568422552198172e-04" rms="4.3414172530174255e-01" purity="6.7764633893966675e-01" nType="-99"/>
        </Node>
        <Node pos="r" depth="1" NCoef="0" IVar="6" Cut="1.5278279781341553e+00" cType="1" res="-3.9271176792681217e-03" rms="4.5337662100791931e-01" purity="4.8727199435234070e-01" nType="0">
          <Node pos="l" depth="2" NCoef="0" IVar="-1" Cut="0.0000000000000000e+00" cType="1" res="-2.4858652614057064e-03" rms="4.5557975769042969e-01" purity="5.6855010986328125e-01" nType="-99"/>
          <Node pos="r" depth="2" NCoef="0" IVar="-1" Cut="0.0000000000000000e+00" cType="1" res="-5.7507422752678394e-05" rms="4.5306080579757690e-01" purity="4.8038217425346375e-01" nType="-99"/>
        </Node>
      </Node>
    </BinaryTree>
    <BinaryTree type="DecisionTree" boostWeight="1.0000000000000000e+00" itree="1183">
      <Node pos="s" depth="0" NCoef="0" IVar="4" Cut="3.3364769816398621e-01" cType="1" res="-2.7749221771955490e-03" rms="4.5368686318397522e-01" purity="4.9601113796234131e-01" nType="0">
        <Node pos="l" depth="1" NCoef="0" IVar="6" Cut="1.7246996164321899e+00" cType="1" res="8.5306549444794655e-03" rms="4.5171278715133667e-01" purity="4.5775717496871948e-01" nType="0">
          <Node pos="l" depth="2" NCoef="0" IVar="-1" Cut="0.0000000000000000e+00" cType="1" res="-1.8954403931275010e-03" rms="4.5896571874618530e-01" purity="5.4334580898284912e-01" nType="-99"/>
          <Node pos="r" depth="2" NCoef="0" IVar="-1" Cut="0.0000000000000000e+00" cType="1" res="9.2131091514602304e-04" rms="4.5033383369445801e-01" purity="4.4505980610847473e-01" nType="-99"/>
        </Node>
        <Node pos="r" depth="1" NCoef="0" IVar="9" Cut="8.4333759546279907e-01" cType="1" res="-1.0388018563389778e-02" rms="4.5485305786132812e-01" purity="5.2177113294601440e-01" nType="0">
          <Node pos="l" depth="2" NCoef="0" IVar="-1" Cut="0.0000000000000000e+00" cType="1" res="-3.5545256105251610e-04" rms="4.5439150929450989e-01" purity="5.3717905282974243e-01" nType="-99"/>
          <Node pos="r" depth="2" NCoef="0" IVar="-1" Cut="0.0000000000000000e+00" cType="1" res="-2.7517080307006836e-03" rms="4.5670178532600403e-01" purity="4.1181749105453491e-01" nType="-99"/>
        </Node>
      </Node>
    </BinaryTree>
    <BinaryTree type="DecisionTree" boostWeight="1.0000000000000000e+00" itree="1184">
      <Node pos="s" depth="0" NCoef="0" IVar="0" Cut="1.1920139789581299e+00" cType="1" res="-8.0313085345551372e-04" rms="4.5270037651062012e-01" purity="4.9848723411560059e-01" nType="0">
        <Node pos="l" depth="1" NCoef="0" IVar="9" Cut="5.6635284423828125e-01" cType="1" res="-3.1618688255548477e-02" rms="4.1748422384262085e-01" purity="2.6151153445243835e-01" nType="0">
          <Node pos="l" depth="2" NCoef="0" IVar="-1" Cut="0.0000000000000000e+00" cType="1" res="-3.2151013147085905e-03" rms="4.2756599187850952e-01" purity="2.7746838331222534e-01" nType="-99"/>
          <Node pos="r" depth="2" NCoef="0" IVar="-1" Cut="0.0000000000000000e+00" cType="1" res="-1.1195966508239508e-03" rms="4.0471741557121277e-01" purity="2.4292910099029541e-01" nType="-99"/>
        </Node>
        <Node pos="r" depth="1" NCoef="0" IVar="7" Cut="8.6436294555664062e+01" cType="1" res="2.9434782918542624e-03" rms="4.5665520429611206e-01" purity="5.2729916572570801e-01" nType="0">
          <Node pos="l" depth="2" NCoef="0" IVar="-1" Cut="0.0000000000000000e+00" cType="1" res="5.4273527348414063e-04" rms="4.5766532421112061e-01" purity="4.9972468614578247e-01" nType="-99"/>
          <Node pos="r" depth="2" NCoef="0" IVar="-1" Cut="0.0000000000000000e+00" cType="1" res="-8.6105044465512037e-04" rms="4.5338219404220581e-01" purity="6.0513275861740112e-01" nType="-99"/>
        </Node>
      </Node>
    </BinaryTree>
    <BinaryTree type="DecisionTree" boostWeight="1.0000000000000000e+00" itree="1185">
      <Node pos="s" depth="0" NCoef="0" IVar="1" Cut="4.5468710327148438e+02" cType="1" res="-1.5829241601750255e-03" rms="4.5153555274009705e-01" purity="4.9799156188964844e-01" nType="0">
        <Node pos="l" depth="1" NCoef="0" IVar="8" Cut="8.8797485828399658e-01" cType="1" res="1.3612969778478146e-02" rms="4.4421708583831787e-01" purity="3.9847737550735474e-01" nType="0">
          <Node pos="l" depth="2" NCoef="0" IVar="-1" Cut="0.0000000000000000e+00" cType="1" res="2.6923464611172676e-03" rms="4.6095025539398193e-01" purity="4.7208261489868164e-01" nType="-99"/>
          <Node pos="r" depth="2" NCoef="0" IVar="-1" Cut="0.0000000000000000e+00" cType="1" res="1.8060025468003005e-04" rms="4.3727254867553711e-01" purity="3.7084981799125671e-01" nType="-99"/>
        </Node>
        <Node pos="r" depth="1" NCoef="0" IVar="5" Cut="9.6815979480743408e-01" cType="1" res="-8.0661047250032425e-03" rms="4.5446744561195374e-01" purity="5.4044836759567261e-01" nType="0">
          <Node pos="l" depth="2" NCoef="0" IVar="-1" Cut="0.0000000000000000e+00" cType="1" res="-1.0545530822128057e-03" rms="4.6678590774536133e-01" purity="4.6256920695304871e-01" nType="-99"/>
          <Node pos="r" depth="2" NCoef="0" IVar="-1" Cut="0.0000000000000000e+00" cType="1" res="1.0435240110382438e-03" rms="4.2342433333396912e-01" purity="7.2232955694198608e-01" nType="-99"/>
        </Node>
      </Node>
    </BinaryTree>
    <BinaryTree type="DecisionTree" boostWeight="1.0000000000000000e+00" itree="1186">
      <Node pos="s" depth="0" NCoef="0" IVar="4" Cut="2.8725755214691162e-01" cType="1" res="5.0969310104846954e-03" rms="4.5201095938682556e-01" purity="5.0519645214080811e-01" nType="0">
        <Node pos="l" depth="1" NCoef="0" IVar="2" Cut="1.5395980834960938e+02" cType="1" res="-8.5684172809123993e-03" rms="4.4906780123710632e-01" purity="4.3342468142509460e-01" nType="0">
          <Node pos="l" depth="2" NCoef="0" IVar="-1" Cut="0.0000000000000000e+00" cType="1" res="-9.5766293816268444e-04" rms="4.5105984807014465e-01" purity="4.2863973975181580e-01" nType="-99"/>
          <Node pos="r" depth="2" NCoef="0" IVar="-1" Cut="0.0000000000000000e+00" cType="1" res="1.4495254727080464e-03" rms="4.3822827935218811e-01" purity="4.5609852671623230e-01" nType="-99"/>
        </Node>
        <Node pos="r" depth="1" NCoef="0" IVar="0" Cut="1.1719168424606323e+00" cType="1" res="1.1781592853367329e-02" rms="4.5329368114471436e-01" purity="5.4030495882034302e-01" nType="0">
          <Node pos="l" depth="2" NCoef="0" IVar="-1" Cut="0.0000000000000000e+00" cType="1" res="-1.6972799785435200e-03" rms="4.2570090293884277e-01" purity="2.7726918458938599e-01" nType="-99"/>
          <Node pos="r" depth="2" NCoef="0" IVar="-1" Cut="0.0000000000000000e+00" cType="1" res="9.6519105136394501e-04" rms="4.5602163672447205e-01" purity="5.6887561082839966e-01" nType="-99"/>
        </Node>
      </Node>
    </BinaryTree>
    <BinaryTree type="DecisionTree" boostWeight="1.0000000000000000e+00" itree="1187">
      <Node pos="s" depth="0" NCoef="0" IVar="7" Cut="7.9910781860351562e+01" cType="1" res="1.4019823865965009e-03" rms="4.5458921790122986e-01" purity="5.0168925523757935e-01" nType="0">
        <Node pos="l" depth="1" NCoef="0" IVar="7" Cut="6.9206542968750000e+01" cType="1" res="7.2179199196398258e-03" rms="4.5232567191123962e-01" purity="4.6413674950599670e-01" nType="0">
          <Node pos="l" depth="2" NCoef="0" IVar="-1" Cut="0.0000000000000000e+00" cType="1" res="1.1987990728812292e-04" rms="4.5173054933547974e-01" purity="4.3751189112663269e-01" nType="-99"/>
          <Node pos="r" depth="2" NCoef="0" IVar="-1" Cut="0.0000000000000000e+00" cType="1" res="1.5997085720300674e-03" rms="4.5393842458724976e-01" purity="5.5958670377731323e-01" nType="-99"/>
        </Node>
        <Node pos="r" depth="1" NCoef="0" IVar="5" Cut="9.3307608366012573e-01" cType="1" res="-1.0815827175974846e-02" rms="4.5906811952590942e-01" purity="5.8057755231857300e-01" nType="0">
          <Node pos="l" depth="2" NCoef="0" IVar="-1" Cut="0.0000000000000000e+00" cType="1" res="1.1181249283254147e-03" rms="4.7112217545509338e-01" purity="4.3561521172523499e-01" nType="-99"/>
          <Node pos="r" depth="2" NCoef="0" IVar="-1" Cut="0.0000000000000000e+00" cType="1" res="-1.2645357055589557e-03" rms="4.5517280697822571e-01" purity="6.2231856584548950e-01" nType="-99"/>
        </Node>
      </Node>
    </BinaryTree>
    <BinaryTree type="DecisionTree" boostWeight="1.0000000000000000e+00" itree="1188">
      <Node pos="s" depth="0" NCoef="0" IVar="8" Cut="8.0483585596084595e-01" cType="1" res="3.5871097352355719e-03" rms="4.5327058434486389e-01" purity="5.0247830152511597e-01" nType="0">
        <Node pos="l" depth="1" NCoef="0" IVar="5" Cut="9.7551196813583374e-01" cType="1" res="-8.0922516062855721e-03" rms="4.5630374550819397e-01" purity="5.4101884365081787e-01" nType="0">
          <Node pos="l" depth="2" NCoef="0" IVar="-1" Cut="0.0000000000000000e+00" cType="1" res="5.5529057135572657e-05" rms="4.6454799175262451e-01" purity="4.9883770942687988e-01" nType="-99"/>
          <Node pos="r" depth="2" NCoef="0" IVar="-1" Cut="0.0000000000000000e+00" cType="1" res="-3.3171758987009525e-03" rms="4.2145460844039917e-01" purity="7.0261013507843018e-01" nType="-99"/>
        </Node>
        <Node pos="r" depth="1" NCoef="0" IVar="1" Cut="6.4144311523437500e+02" cType="1" res="7.7031650580465794e-03" rms="4.5212486386299133e-01" purity="4.8889577388763428e-01" nType="0">
          <Node pos="l" depth="2" NCoef="0" IVar="-1" Cut="0.0000000000000000e+00" cType="1" res="8.3397630078252405e-05" rms="4.5283740758895874e-01" purity="4.4919037818908691e-01" nType="-99"/>
          <Node pos="r" depth="2" NCoef="0" IVar="-1" Cut="0.0000000000000000e+00" cType="1" res="1.8035634420812130e-03" rms="4.4909250736236572e-01" purity="6.2100267410278320e-01" nType="-99"/>
        </Node>
      </Node>
    </BinaryTree>
    <BinaryTree type="DecisionTree" boostWeight="1.0000000000000000e+00" itree="1189">
      <Node pos="s" depth="0" NCoef="0" IVar="9" Cut="2.5418427586555481e-01" cType="1" res="1.1130252387374640e-03" rms="4.5381936430931091e-01" purity="5.0215083360671997e-01" nType="0">
        <Node pos="l" depth="1" NCoef="0" IVar="1" Cut="6.2448327636718750e+02" cType="1" res="1.9198497757315636e-02" rms="4.5047789812088013e-01" purity="5.7495826482772827e-01" nType="0">
          <Node pos="l" depth="2" NCoef="0" IVar="-1" Cut="0.0000000000000000e+00" cType="1" res="-3.7974759470671415e-04" rms="4.6090114116668701e-01" purity="4.9697327613830566e-01" nType="-99"/>
          <Node pos="r" depth="2" NCoef="0" IVar="-1" Cut="0.0000000000000000e+00" cType="1" res="4.3560918420553207e-03" rms="4.2546281218528748e-01" purity="7.2508788108825684e-01" nType="-99"/>
        </Node>
        <Node pos="r" depth="1" NCoef="0" IVar="9" Cut="3.2349154353141785e-01" cType="1" res="-2.1466761827468872e-03" rms="4.5434245467185974e-01" purity="4.8902803659439087e-01" nType="0">
          <Node pos="l" depth="2" NCoef="0" IVar="-1" Cut="0.0000000000000000e+00" cType="1" res="-2.5063073262572289e-03" rms="4.5443382859230042e-01" purity="4.9999353289604187e-01" nType="-99"/>
          <Node pos="r" depth="2" NCoef="0" IVar="-1" Cut="0.0000000000000000e+00" cType="1" res="1.2478340067900717e-04" rms="4.5414417982101440e-01" purity="4.8781639337539673e-01" nType="-99"/>
        </Node>
      </Node>
    </BinaryTree>
    <BinaryTree type="DecisionTree" boostWeight="1.0000000000000000e+00" itree="1190">
      <Node pos="s" depth="0" NCoef="0" IVar="3" Cut="-1.3957241550087929e-02" cType="1" res="-1.9886542577296495e-03" rms="4.5098572969436646e-01" purity="4.9642798304557800e-01" nType="0">
        <Node pos="l" depth="1" NCoef="0" IVar="5" Cut="9.5854133367538452e-01" cType="1" res="-1.5474332496523857e-02" rms="4.5149907469749451e-01" purity="5.3099179267883301e-01" nType="0">
          <Node pos="l" depth="2" NCoef="0" IVar="-1" Cut="0.0000000000000000e+00" cType="1" res="-1.9252982456237078e-03" rms="4.6073514223098755e-01" purity="4.0909376740455627e-01" nType="-99"/>
          <Node pos="r" depth="2" NCoef="0" IVar="-1" Cut="0.0000000000000000e+00" cType="1" res="3.7131053977645934e-04" rms="4.3889865279197693e-01" purity="6.8190038204193115e-01" nType="-99"/>
        </Node>
        <Node pos="r" depth="1" NCoef="0" IVar="9" Cut="2.6200050115585327e-01" cType="1" res="4.1579632088541985e-03" rms="4.5061767101287842e-01" purity="4.8067417740821838e-01" nType="0">
          <Node pos="l" depth="2" NCoef="0" IVar="-1" Cut="0.0000000000000000e+00" cType="1" res="2.2944221273064613e-03" rms="4.4214645028114319e-01" purity="5.7898527383804321e-01" nType="-99"/>
          <Node pos="r" depth="2" NCoef="0" IVar="-1" Cut="0.0000000000000000e+00" cType="1" res="-1.0346302588004619e-04" rms="4.5186254382133484e-01" purity="4.6318781375885010e-01" nType="-99"/>
        </Node>
      </Node>
    </BinaryTree>
    <BinaryTree type="DecisionTree" boostWeight="1.0000000000000000e+00" itree="1191">
      <Node pos="s" depth="0" NCoef="0" IVar="2" Cut="1.7916773986816406e+02" cType="1" res="3.2429012935608625e-03" rms="4.5052176713943481e-01" purity="5.0115799903869629e-01" nType="0">
        <Node pos="l" depth="1" NCoef="0" IVar="1" Cut="3.9571902465820312e+02" cType="1" res="-3.4803125890903175e-04" rms="4.5052710175514221e-01" purity="4.9692064523696899e-01" nType="0">
          <Node pos="l" depth="2" NCoef="0" IVar="-1" Cut="0.0000000000000000e+00" cType="1" res="-1.5557334991171956e-03" rms="4.2371416091918945e-01" purity="3.0749300122261047e-01" nType="-99"/>
          <Node pos="r" depth="2" NCoef="0" IVar="-1" Cut="0.0000000000000000e+00" cType="1" res="1.9984914979431778e-04" rms="4.5465627312660217e-01" purity="5.2786082029342651e-01" nType="-99"/>
        </Node>
        <Node pos="r" depth="1" NCoef="0" IVar="-1" Cut="0.0000000000000000e+00" cType="1" res="2.7764826081693172e-03" rms="4.4860991835594177e-01" purity="5.4725962877273560e-01" nType="-99"/>
      </Node>
    </BinaryTree>
    <BinaryTree type="DecisionTree" boostWeight="1.0000000000000000e+00" itree="1192">
      <Node pos="s" depth="0" NCoef="0" IVar="8" Cut="9.6429586410522461e-01" cType="1" res="7.7150957658886909e-03" rms="4.5201596617698669e-01" purity="5.0518941879272461e-01" nType="0">
        <Node pos="l" depth="1" NCoef="0" IVar="8" Cut="5.7024514675140381e-01" cType="1" res="1.6849845647811890e-02" rms="4.5158007740974426e-01" purity="5.5360072851181030e-01" nType="0">
          <Node pos="l" depth="2" NCoef="0" IVar="-1" Cut="0.0000000000000000e+00" cType="1" res="-1.3720161514356732e-03" rms="4.5352125167846680e-01" purity="5.4167789220809937e-01" nType="-99"/>
          <Node pos="r" depth="2" NCoef="0" IVar="-1" Cut="0.0000000000000000e+00" cType="1" res="1.4729562681168318e-03" rms="4.5088669657707214e-01" purity="5.5571871995925903e-01" nType="-99"/>
        </Node>
        <Node pos="r" depth="1" NCoef="0" IVar="5" Cut="9.8359721899032593e-01" cType="1" res="1.0791328968480229e-03" rms="4.5221665501594543e-01" purity="4.7002092003822327e-01" nType="0">
          <Node pos="l" depth="2" NCoef="0" IVar="-1" Cut="0.0000000000000000e+00" cType="1" res="2.7141431928612292e-04" rms="4.5484408736228943e-01" purity="4.4012436270713806e-01" nType="-99"/>
          <Node pos="r" depth="2" NCoef="0" IVar="-1" Cut="0.0000000000000000e+00" cType="1" res="-1.7995035741478205e-03" rms="4.3038895726203918e-01" purity="7.0248383283615112e-01" nType="-99"/>
        </Node>
      </Node>
    </BinaryTree>
    <BinaryTree type="DecisionTree" boostWeight="1.0000000000000000e+00" itree="1193">
      <Node pos="s" depth="0" NCoef="0" IVar="8" Cut="6.3126945495605469e-01" cType="1" res="7.3322951793670654e-03" rms="4.5325785875320435e-01" purity="5.0769007205963135e-01" nType="0">
        <Node pos="l" depth="1" NCoef="0" IVar="8" Cut="5.5061370134353638e-01" cType="1" res="-1.9436905160546303e-02" rms="4.4859194755554199e-01" purity="5.4369038343429565e-01" nType="0">
          <Node pos="l" depth="2" NCoef="0" IVar="-1" Cut="0.0000000000000000e+00" cType="1" res="5.9509411221370101e-04" rms="4.4668489694595337e-01" purity="5.7780808210372925e-01" nType="-99"/>
          <Node pos="r" depth="2" NCoef="0" IVar="-1" Cut="0.0000000000000000e+00" cType="1" res="-2.9540127143263817e-03" rms="4.4867751002311707e-01" purity="5.1231145858764648e-01" nType="-99"/>
        </Node>
        <Node pos="r" depth="1" NCoef="0" IVar="4" Cut="3.0845776200294495e-01" cType="1" res="1.0661424137651920e-02" rms="4.5372435450553894e-01" purity="5.0321292877197266e-01" nType="0">
          <Node pos="l" depth="2" NCoef="0" IVar="-1" Cut="0.0000000000000000e+00" cType="1" res="1.4800570206716657e-03" rms="4.5173880457878113e-01" purity="4.5776975154876709e-01" nType="-99"/>
          <Node pos="r" depth="2" NCoef="0" IVar="-1" Cut="0.0000000000000000e+00" cType="1" res="2.3340905318036675e-04" rms="4.5467773079872131e-01" purity="5.2849560976028442e-01" nType="-99"/>
        </Node>
      </Node>
    </BinaryTree>
    <BinaryTree type="DecisionTree" boostWeight="1.0000000000000000e+00" itree="1194">
      <Node pos="s" depth="0" NCoef="0" IVar="2" Cut="8.3009468078613281e+01" cType="1" res="-1.3060811907052994e-03" rms="4.5533752441406250e-01" purity="4.9969691038131714e-01" nType="0">
        <Node pos="l" depth="1" NCoef="0" IVar="0" Cut="2.4475719928741455e+00" cType="1" res="1.0440499521791935e-02" rms="4.5799863338470459e-01" purity="4.8575025796890259e-01" nType="0">
          <Node pos="l" depth="2" NCoef="0" IVar="-1" Cut="0.0000000000000000e+00" cType="1" res="1.6060882480815053e-03" rms="4.5392125844955444e-01" purity="3.5176226496696472e-01" nType="-99"/>
          <Node pos="r" depth="2" NCoef="0" IVar="-1" Cut="0.0000000000000000e+00" cType="1" res="2.2017924493411556e-05" rms="4.6066120266914368e-01" purity="5.8260446786880493e-01" nType="-99"/>
        </Node>
        <Node pos="r" depth="1" NCoef="0" IVar="8" Cut="1.0194563865661621e+00" cType="1" res="-8.1479493528604507e-03" rms="4.5364019274711609e-01" purity="5.0782024860382080e-01" nType="0">
          <Node pos="l" depth="2" NCoef="0" IVar="-1" Cut="0.0000000000000000e+00" cType="1" res="1.6108884301502258e-04" rms="4.5310276746749878e-01" purity="5.5357795953750610e-01" nType="-99"/>
          <Node pos="r" depth="2" NCoef="0" IVar="-1" Cut="0.0000000000000000e+00" cType="1" res="-1.1967578902840614e-03" rms="4.5392298698425293e-01" purity="4.6280741691589355e-01" nType="-99"/>
        </Node>
      </Node>
    </BinaryTree>
    <BinaryTree type="DecisionTree" boostWeight="1.0000000000000000e+00" itree="1195">
      <Node pos="s" depth="0" NCoef="0" IVar="2" Cut="1.2626292419433594e+02" cType="1" res="-3.0701947398483753e-03" rms="4.5217674970626831e-01" purity="4.9633449316024780e-01" nType="0">
        <Node pos="l" depth="1" NCoef="0" IVar="9" Cut="8.3519321680068970e-01" cType="1" res="4.1905692778527737e-03" rms="4.5235782861709595e-01" purity="4.9369224905967712e-01" nType="0">
          <Node pos="l" depth="2" NCoef="0" IVar="-1" Cut="0.0000000000000000e+00" cType="1" res="5.3226377349346876e-04" rms="4.5307141542434692e-01" purity="5.1254415512084961e-01" nType="-99"/>
          <Node pos="r" depth="2" NCoef="0" IVar="-1" Cut="0.0000000000000000e+00" cType="1" res="-1.2172784190624952e-03" rms="4.4778615236282349e-01" purity="3.9250540733337402e-01" nType="-99"/>
        </Node>
        <Node pos="r" depth="1" NCoef="0" IVar="8" Cut="9.9551558494567871e-01" cType="1" res="-2.2184846922755241e-02" rms="4.5114126801490784e-01" purity="5.0329041481018066e-01" nType="0">
          <Node pos="l" depth="2" NCoef="0" IVar="-1" Cut="0.0000000000000000e+00" cType="1" res="-9.8484277259558439e-05" rms="4.5272046327590942e-01" purity="5.5999946594238281e-01" nType="-99"/>
          <Node pos="r" depth="2" NCoef="0" IVar="-1" Cut="0.0000000000000000e+00" cType="1" res="-2.7733112219721079e-03" rms="4.4859692454338074e-01" purity="4.4639080762863159e-01" nType="-99"/>
        </Node>
      </Node>
    </BinaryTree>
    <BinaryTree type="DecisionTree" boostWeight="1.0000000000000000e+00" itree="1196">
      <Node pos="s" depth="0" NCoef="0" IVar="6" Cut="2.2364692687988281e+00" cType="1" res="-3.1964490190148354e-03" rms="4.5451328158378601e-01" purity="4.9579510092735291e-01" nType="0">
        <Node pos="l" depth="1" NCoef="0" IVar="7" Cut="1.0787809753417969e+02" cType="1" res="5.8501600287854671e-03" rms="4.5347693562507629e-01" purity="5.6655901670455933e-01" nType="0">
          <Node pos="l" depth="2" NCoef="0" IVar="-1" Cut="0.0000000000000000e+00" cType="1" res="6.8933359580114484e-04" rms="4.5458221435546875e-01" purity="5.5403202772140503e-01" nType="-99"/>
          <Node pos="r" depth="2" NCoef="0" IVar="-1" Cut="0.0000000000000000e+00" cType="1" res="-2.0535401999950409e-03" rms="4.4426155090332031e-01" purity="6.5119677782058716e-01" nType="-99"/>
        </Node>
        <Node pos="r" depth="1" NCoef="0" IVar="9" Cut="3.0662822723388672e-01" cType="1" res="-1.3823286630213261e-02" rms="4.5549818873405457e-01" purity="4.1267043352127075e-01" nType="0">
          <Node pos="l" depth="2" NCoef="0" IVar="-1" Cut="0.0000000000000000e+00" cType="1" res="-4.0974118746817112e-03" rms="4.5609748363494873e-01" purity="3.9844614267349243e-01" nType="-99"/>
          <Node pos="r" depth="2" NCoef="0" IVar="-1" Cut="0.0000000000000000e+00" cType="1" res="-4.9490574747323990e-04" rms="4.5504519343376160e-01" purity="4.1440623998641968e-01" nType="-99"/>
        </Node>
      </Node>
    </BinaryTree>
    <BinaryTree type="DecisionTree" boostWeight="1.0000000000000000e+00" itree="1197">
      <Node pos="s" depth="0" NCoef="0" IVar="3" Cut="1.8325138092041016e-01" cType="1" res="2.4337214417755604e-03" rms="4.5459219813346863e-01" purity="5.0473135709762573e-01" nType="0">
        <Node pos="l" depth="1" NCoef="0" IVar="3" Cut="-9.2968326061964035e-03" cType="1" res="4.1973305633291602e-04" rms="4.5513266324996948e-01" purity="5.0654470920562744e-01" nType="0">
          <Node pos="l" depth="2" NCoef="0" IVar="-1" Cut="0.0000000000000000e+00" cType="1" res="6.5963860834017396e-04" rms="4.5454487204551697e-01" purity="5.5649620294570923e-01" nType="-99"/>
          <Node pos="r" depth="2" NCoef="0" IVar="-1" Cut="0.0000000000000000e+00" cType="1" res="-3.2470791484229267e-04" rms="4.5536467432975769e-01" purity="4.7865971922874451e-01" nType="-99"/>
        </Node>
        <Node pos="r" depth="1" NCoef="0" IVar="-1" Cut="0.0000000000000000e+00" cType="1" res="2.4964355397969484e-03" rms="4.4329696893692017e-01" purity="4.7236073017120361e-01" nType="-99"/>
      </Node>
    </BinaryTree>
    <BinaryTree type="DecisionTree" boostWeight="1.0000000000000000e+00" itree="1198">
      <Node pos="s" depth="0" NCoef="0" IVar="4" Cut="1.5725702047348022e-01" cType="1" res="-1.8875276437029243e-03" rms="4.5278733968734741e-01" purity="4.9834334850311279e-01" nType="0">
        <Node pos="l" depth="1" NCoef="0" IVar="3" Cut="1.1630553007125854e-01" cType="1" res="-2.8933247551321983e-02" rms="4.3868774175643921e-01" purity="3.6107024550437927e-01" nType="0">
          <Node pos="l" depth="2" NCoef="0" IVar="-1" Cut="0.0000000000000000e+00" cType="1" res="-3.1772204674780369e-03" rms="4.3415033817291260e-01" purity="3.5142439603805542e-01" nType="-99"/>
          <Node pos="r" depth="2" NCoef="0" IVar="-1" Cut="0.0000000000000000e+00" cType="1" res="-6.5524288220331073e-04" rms="4.4202908873558044e-01" purity="3.7010598182678223e-01" nType="-99"/>
        </Node>
        <Node pos="r" depth="1" NCoef="0" IVar="9" Cut="3.2390165328979492e-01" cType="1" res="1.4484160346910357e-03" rms="4.5438462495803833e-01" purity="5.1527529954910278e-01" nType="0">
          <Node pos="l" depth="2" NCoef="0" IVar="-1" Cut="0.0000000000000000e+00" cType="1" res="-9.0034783352166414e-04" rms="4.5421063899993896e-01" purity="5.4435366392135620e-01" nType="-99"/>
          <Node pos="r" depth="2" NCoef="0" IVar="-1" Cut="0.0000000000000000e+00" cType="1" res="4.1134035564027727e-04" rms="4.5432379841804504e-01" purity="5.0574600696563721e-01" nType="-99"/>
        </Node>
      </Node>
    </BinaryTree>
    <BinaryTree type="DecisionTree" boostWeight="1.0000000000000000e+00" itree="1199">
      <Node pos="s" depth="0" NCoef="0" IVar="0" Cut="3.5641639232635498e+00" cType="1" res="7.1132606826722622e-03" rms="4.5032429695129395e-01" purity="5.0625592470169067e-01" nType="0">
        <Node pos="l" depth="1" NCoef="0" IVar="7" Cut="1.1169506072998047e+02" cType="1" res="1.9695457012858242e-04" rms="4.5834159851074219e-01" purity="4.1649067401885986e-01" nType="0">
          <Node pos="l" depth="2" NCoef="0" IVar="-1" Cut="0.0000000000000000e+00" cType="1" res="-2.1579221356660128e-04" rms="4.5779934525489807e-01" purity="3.9994600415229797e-01" nType="-99"/>
          <Node pos="r" depth="2" NCoef="0" IVar="-1" Cut="0.0000000000000000e+00" cType="1" res="2.0947193261235952e-03" rms="4.6203133463859558e-01" purity="5.7429963350296021e-01" nType="-99"/>
        </Node>
        <Node pos="r" depth="1" NCoef="0" IVar="5" Cut="9.5574247837066650e-01" cType="1" res="2.2193953394889832e-02" rms="4.3194389343261719e-01" purity="7.0198500156402588e-01" nType="0">
          <Node pos="l" depth="2" NCoef="0" IVar="-1" Cut="0.0000000000000000e+00" cType="1" res="3.1915737781673670e-03" rms="4.5731720328330994e-01" purity="6.4567375183105469e-01" nType="-99"/>
          <Node pos="r" depth="2" NCoef="0" IVar="-1" Cut="0.0000000000000000e+00" cType="1" res="4.4444124796427786e-04" rms="4.1860049962997437e-01" purity="7.2831887006759644e-01" nType="-99"/>
        </Node>
      </Node>
    </BinaryTree>
    <BinaryTree type="DecisionTree" boostWeight="1.0000000000000000e+00" itree="1200">
      <Node pos="s" depth="0" NCoef="0" IVar="3" Cut="1.1841758340597153e-01" cType="1" res="-2.2988123237155378e-04" rms="4.5475244522094727e-01" purity="4.9928203225135803e-01" nType="0">
        <Node pos="l" depth="1" NCoef="0" IVar="6" Cut="1.5661070346832275e+00" cType="1" res="3.6770955193787813e-03" rms="4.5572286844253540e-01" purity="5.1462495326995850e-01" nType="0">
          <Node pos="l" depth="2" NCoef="0" IVar="-1" Cut="0.0000000000000000e+00" cType="1" res="-1.4049249002709985e-03" rms="4.5086598396301270e-01" purity="5.8398658037185669e-01" nType="-99"/>
          <Node pos="r" depth="2" NCoef="0" IVar="-1" Cut="0.0000000000000000e+00" cType="1" res="3.9282950456254184e-04" rms="4.5612028241157532e-01" purity="5.0775545835494995e-01" nType="-99"/>
        </Node>
        <Node pos="r" depth="1" NCoef="0" IVar="5" Cut="9.3843984603881836e-01" cType="1" res="-2.0880069583654404e-02" rms="4.4902408123016357e-01" purity="4.1818735003471375e-01" nType="0">
          <Node pos="l" depth="2" NCoef="0" IVar="-1" Cut="0.0000000000000000e+00" cType="1" res="5.2418152336031199e-04" rms="4.3227252364158630e-01" purity="3.1660771369934082e-01" nType="-99"/>
          <Node pos="r" depth="2" NCoef="0" IVar="-1" Cut="0.0000000000000000e+00" cType="1" res="-2.2148278076201677e-03" rms="4.5646402239799500e-01" purity="4.6872514486312866e-01" nType="-99"/>
        </Node>
      </Node>
    </BinaryTree>
    <BinaryTree type="DecisionTree" boostWeight="1.0000000000000000e+00" itree="1201">
      <Node pos="s" depth="0" NCoef="0" IVar="1" Cut="4.6477410888671875e+02" cType="1" res="7.9045275924727321e-04" rms="4.5176607370376587e-01" purity="5.0042700767517090e-01" nType="0">
        <Node pos="l" depth="1" NCoef="0" IVar="4" Cut="2.3562462627887726e-01" cType="1" res="-1.2920188717544079e-02" rms="4.4517356157302856e-01" purity="3.7463629245758057e-01" nType="0">
          <Node pos="l" depth="2" NCoef="0" IVar="-1" Cut="0.0000000000000000e+00" cType="1" res="1.5179744223132730e-03" rms="4.3238839507102966e-01" purity="3.2770901918411255e-01" nType="-99"/>
          <Node pos="r" depth="2" NCoef="0" IVar="-1" Cut="0.0000000000000000e+00" cType="1" res="-1.3111870503053069e-03" rms="4.4759225845336914e-01" purity="3.8495746254920959e-01" nType="-99"/>
        </Node>
        <Node pos="r" depth="1" NCoef="0" IVar="9" Cut="4.1501277685165405e-01" cType="1" res="7.4200681410729885e-03" rms="4.5477131009101868e-01" purity="5.6125158071517944e-01" nType="0">
          <Node pos="l" depth="2" NCoef="0" IVar="-1" Cut="0.0000000000000000e+00" cType="1" res="1.4838448259979486e-03" rms="4.4601210951805115e-01" purity="6.2081390619277954e-01" nType="-99"/>
          <Node pos="r" depth="2" NCoef="0" IVar="-1" Cut="0.0000000000000000e+00" cType="1" res="-1.5530320524703711e-04" rms="4.5975950360298157e-01" purity="5.2485013008117676e-01" nType="-99"/>
        </Node>
      </Node>
    </BinaryTree>
    <BinaryTree type="DecisionTree" boostWeight="1.0000000000000000e+00" itree="1202">
      <Node pos="s" depth="0" NCoef="0" IVar="2" Cut="1.3577148437500000e+02" cType="1" res="-1.6191102622542530e-04" rms="4.5278611779212952e-01" purity="4.9959459900856018e-01" nType="0">
        <Node pos="l" depth="1" NCoef="0" IVar="9" Cut="2.1020133793354034e-01" cType="1" res="6.8362625315785408e-03" rms="4.5334389805793762e-01" purity="5.0049895048141479e-01" nType="0">
          <Node pos="l" depth="2" NCoef="0" IVar="-1" Cut="0.0000000000000000e+00" cType="1" res="-1.6689308686181903e-03" rms="4.5237115025520325e-01" purity="5.2047038078308105e-01" nType="-99"/>
          <Node pos="r" depth="2" NCoef="0" IVar="-1" Cut="0.0000000000000000e+00" cType="1" res="7.0196535671129823e-04" rms="4.5328763127326965e-01" purity="4.9791449308395386e-01" nType="-99"/>
        </Node>
        <Node pos="r" depth="1" NCoef="0" IVar="1" Cut="5.8064886474609375e+02" cType="1" res="-2.5939615443348885e-02" rms="4.4978734850883484e-01" purity="4.9626350402832031e-01" nType="0">
          <Node pos="l" depth="2" NCoef="0" IVar="-1" Cut="0.0000000000000000e+00" cType="1" res="-3.2919496297836304e-03" rms="4.3828934431076050e-01" purity="3.7366113066673279e-01" nType="-99"/>
          <Node pos="r" depth="2" NCoef="0" IVar="-1" Cut="0.0000000000000000e+00" cType="1" res="-6.9803657243028283e-04" rms="4.5601367950439453e-01" purity="5.7109266519546509e-01" nType="-99"/>
        </Node>
      </Node>
    </BinaryTree>
    <BinaryTree type="DecisionTree" boostWeight="1.0000000000000000e+00" itree="1203">
      <Node pos="s" depth="0" NCoef="0" IVar="4" Cut="1.1621337383985519e-01" cType="1" res="5.4269805550575256e-03" rms="4.5199838280677795e-01" purity="5.0642329454421997e-01" nType="0">
        <Node pos="l" depth="1" NCoef="0" IVar="-1" Cut="0.0000000000000000e+00" cType="1" res="-1.6760933212935925e-03" rms="4.3860131502151489e-01" purity="3.3917856216430664e-01" nType="-99"/>
        <Node pos="r" depth="1" NCoef="0" IVar="7" Cut="1.2162261199951172e+02" cType="1" res="7.2515024803578854e-03" rms="4.5273184776306152e-01" purity="5.1654273271560669e-01" nType="0">
          <Node pos="l" depth="2" NCoef="0" IVar="-1" Cut="0.0000000000000000e+00" cType="1" res="3.2170087797567248e-04" rms="4.5364183187484741e-01" purity="5.0440704822540283e-01" nType="-99"/>
          <Node pos="r" depth="2" NCoef="0" IVar="-1" Cut="0.0000000000000000e+00" cType="1" res="2.3771449923515320e-03" rms="4.3924352526664734e-01" purity="6.8061774969100952e-01" nType="-99"/>
        </Node>
      </Node>
    </BinaryTree>
    <BinaryTree type="DecisionTree" boostWeight="1.0000000000000000e+00" itree="1204">
      <Node pos="s" depth="0" NCoef="0" IVar="8" Cut="5.5649095773696899e-01" cType="1" res="5.6734815007075667e-04" rms="4.5566320419311523e-01" purity="5.0244396924972534e-01" nType="0">
        <Node pos="l" depth="1" NCoef="0" IVar="-1" Cut="0.0000000000000000e+00" cType="1" res="2.6692999526858330e-03" rms="4.3979999423027039e-01" purity="6.1466580629348755e-01" nType="-99"/>
        <Node pos="r" depth="1" NCoef="0" IVar="2" Cut="8.3819351196289062e+01" cType="1" res="-2.0541450940072536e-03" rms="4.5651322603225708e-01" purity="4.9539920687675476e-01" nType="0">
          <Node pos="l" depth="2" NCoef="0" IVar="-1" Cut="0.0000000000000000e+00" cType="1" res="6.0335994930937886e-04" rms="4.6093592047691345e-01" purity="4.8198291659355164e-01" nType="-99"/>
          <Node pos="r" depth="2" NCoef="0" IVar="-1" Cut="0.0000000000000000e+00" cType="1" res="-5.9613602934405208e-04" rms="4.5359051227569580e-01" purity="5.0373685359954834e-01" nType="-99"/>
        </Node>
      </Node>
    </BinaryTree>
    <BinaryTree type="DecisionTree" boostWeight="1.0000000000000000e+00" itree="1205">
      <Node pos="s" depth="0" NCoef="0" IVar="9" Cut="2.1079003810882568e-01" cType="1" res="2.3868598509579897e-03" rms="4.5327267050743103e-01" purity="5.0331050157546997e-01" nType="0">
        <Node pos="l" depth="1" NCoef="0" IVar="9" Cut="1.4928987622261047e-01" cType="1" res="-1.7689106985926628e-02" rms="4.4476824998855591e-01" purity="5.5135607719421387e-01" nType="0">
          <Node pos="l" depth="2" NCoef="0" IVar="-1" Cut="0.0000000000000000e+00" cType="1" res="7.0263613451970741e-06" rms="4.4445919990539551e-01" purity="5.7748758792877197e-01" nType="-99"/>
          <Node pos="r" depth="2" NCoef="0" IVar="-1" Cut="0.0000000000000000e+00" cType="1" res="-2.4298762436956167e-03" rms="4.4425067305564880e-01" purity="5.2154773473739624e-01" nType="-99"/>
        </Node>
        <Node pos="r" depth="1" NCoef="0" IVar="5" Cut="9.0802532434463501e-01" cType="1" res="4.8291911371052265e-03" rms="4.5423588156700134e-01" purity="4.9746558070182800e-01" nType="0">
          <Node pos="l" depth="2" NCoef="0" IVar="-1" Cut="0.0000000000000000e+00" cType="1" res="2.8215311467647552e-03" rms="4.4356155395507812e-01" purity="3.2012686133384705e-01" nType="-99"/>
          <Node pos="r" depth="2" NCoef="0" IVar="-1" Cut="0.0000000000000000e+00" cType="1" res="1.6384496120736003e-04" rms="4.5480215549468994e-01" purity="5.0854301452636719e-01" nType="-99"/>
        </Node>
      </Node>
    </BinaryTree>
    <BinaryTree type="DecisionTree" boostWeight="1.0000000000000000e+00" itree="1206">
      <Node pos="s" depth="0" NCoef="0" IVar="1" Cut="4.2414968872070312e+02" cType="1" res="-1.1733819264918566e-03" rms="4.5309320092201233e-01" purity="4.9824595451354980e-01" nType="0">
        <Node pos="l" depth="1" NCoef="0" IVar="4" Cut="5.6960916519165039e-01" cType="1" res="-1.8130328506231308e-02" rms="4.3740427494049072e-01" purity="3.4309333562850952e-01" nType="0">
          <Node pos="l" depth="2" NCoef="0" IVar="-1" Cut="0.0000000000000000e+00" cType="1" res="-1.5679554780945182e-04" rms="4.3317759037017822e-01" purity="3.2689470052719116e-01" nType="-99"/>
          <Node pos="r" depth="2" NCoef="0" IVar="-1" Cut="0.0000000000000000e+00" cType="1" res="-3.7988275289535522e-03" rms="4.4567805528640747e-01" purity="3.8604196906089783e-01" nType="-99"/>
        </Node>
        <Node pos="r" depth="1" NCoef="0" IVar="6" Cut="2.7834098339080811e+00" cType="1" res="3.3204837236553431e-03" rms="4.5705533027648926e-01" purity="5.3936386108398438e-01" nType="0">
          <Node pos="l" depth="2" NCoef="0" IVar="-1" Cut="0.0000000000000000e+00" cType="1" res="6.9906520366203040e-05" rms="4.5792162418365479e-01" purity="5.5720829963684082e-01" nType="-99"/>
          <Node pos="r" depth="2" NCoef="0" IVar="-1" Cut="0.0000000000000000e+00" cType="1" res="2.1358993835747242e-03" rms="4.4540172815322876e-01" purity="3.2015317678451538e-01" nType="-99"/>
        </Node>
      </Node>
    </BinaryTree>
    <BinaryTree type="DecisionTree" boostWeight="1.0000000000000000e+00" itree="1207">
      <Node pos="s" depth="0" NCoef="0" IVar="4" Cut="2.3346924781799316e-01" cType="1" res="2.4240745697170496e-03" rms="4.5352819561958313e-01" purity="5.0320553779602051e-01" nType="0">
        <Node pos="l" depth="1" NCoef="0" IVar="6" Cut="2.0103709697723389e+00" cType="1" res="-1.3260885141789913e-02" rms="4.5137217640876770e-01" purity="4.1420888900756836e-01" nType="0">
          <Node pos="l" depth="2" NCoef="0" IVar="-1" Cut="0.0000000000000000e+00" cType="1" res="-2.7251583524048328e-03" rms="4.5303848385810852e-01" purity="4.8704707622528076e-01" nType="-99"/>
          <Node pos="r" depth="2" NCoef="0" IVar="-1" Cut="0.0000000000000000e+00" cType="1" res="-2.3002317175269127e-04" rms="4.5040681958198547e-01" purity="3.9148104190826416e-01" nType="-99"/>
        </Node>
        <Node pos="r" depth="1" NCoef="0" IVar="1" Cut="3.9158587646484375e+02" cType="1" res="7.0490231737494469e-03" rms="4.5405855774879456e-01" purity="5.2944749593734741e-01" nType="0">
          <Node pos="l" depth="2" NCoef="0" IVar="-1" Cut="0.0000000000000000e+00" cType="1" res="-1.3046744279563427e-03" rms="4.3420308828353882e-01" purity="3.3052918314933777e-01" nType="-99"/>
          <Node pos="r" depth="2" NCoef="0" IVar="-1" Cut="0.0000000000000000e+00" cType="1" res="6.8138050846755505e-04" rms="4.5687428116798401e-01" purity="5.5973935127258301e-01" nType="-99"/>
        </Node>
      </Node>
    </BinaryTree>
    <BinaryTree type="DecisionTree" boostWeight="1.0000000000000000e+00" itree="1208">
      <Node pos="s" depth="0" NCoef="0" IVar="7" Cut="1.3223266601562500e+02" cType="1" res="-9.5078599406406283e-04" rms="4.5415470004081726e-01" purity="4.9799305200576782e-01" nType="0">
        <Node pos="l" depth="1" NCoef="0" IVar="4" Cut="2.1164813637733459e-01" cType="1" res="7.2315661236643791e-04" rms="4.5453226566314697e-01" purity="4.9187222123146057e-01" nType="0">
          <Node pos="l" depth="2" NCoef="0" IVar="-1" Cut="0.0000000000000000e+00" cType="1" res="1.3068193802610040e-03" rms="4.5091861486434937e-01" purity="4.3905928730964661e-01" nType="-99"/>
          <Node pos="r" depth="2" NCoef="0" IVar="-1" Cut="0.0000000000000000e+00" cType="1" res="-2.4251814465969801e-04" rms="4.5525407791137695e-01" purity="5.0426197052001953e-01" nType="-99"/>
        </Node>
        <Node pos="r" depth="1" NCoef="0" IVar="-1" Cut="0.0000000000000000e+00" cType="1" res="-2.1005789749324322e-03" rms="4.4615536928176880e-01" purity="6.0910260677337646e-01" nType="-99"/>
      </Node>
    </BinaryTree>
    <BinaryTree type="DecisionTree" boostWeight="1.0000000000000000e+00" itree="1209">
      <Node pos="s" depth="0" NCoef="0" IVar="7" Cut="1.3124102783203125e+02" cType="1" res="1.4665540074929595e-03" rms="4.5407915115356445e-01" purity="5.0176662206649780e-01" nType="0">
        <Node pos="l" depth="1" NCoef="0" IVar="9" Cut="2.1079003810882568e-01" cType="1" res="3.8308938965201378e-03" rms="4.5369315147399902e-01" purity="4.9651581048965454e-01" nType="0">
          <Node pos="l" depth="2" NCoef="0" IVar="-1" Cut="0.0000000000000000e+00" cType="1" res="-1.6571651212871075e-03" rms="4.4309654831886292e-01" purity="5.1525574922561646e-01" nType="-99"/>
          <Node pos="r" depth="2" NCoef="0" IVar="-1" Cut="0.0000000000000000e+00" cType="1" res="4.6810644562356174e-04" rms="4.5481410622596741e-01" purity="4.9427074193954468e-01" nType="-99"/>
        </Node>
        <Node pos="r" depth="1" NCoef="0" IVar="-1" Cut="0.0000000000000000e+00" cType="1" res="-2.5751707144081593e-03" rms="4.5878717303276062e-01" purity="5.9278833866119385e-01" nType="-99"/>
      </Node>
    </BinaryTree>
    <BinaryTree type="DecisionTree" boostWeight="1.0000000000000000e+00" itree="1210">
      <Node pos="s" depth="0" NCoef="0" IVar="6" Cut="1.6388226747512817e+00" cType="1" res="-2.0275299903005362e-03" rms="4.5449870824813843e-01" purity="4.9908202886581421e-01" nType="0">
        <Node pos="l" depth="1" NCoef="0" IVar="8" Cut="1.1697090864181519e+00" cType="1" res="2.3911388590931892e-02" rms="4.4219654798507690e-01" purity="6.2045466899871826e-01" nType="0">
          <Node pos="l" depth="2" NCoef="0" IVar="-1" Cut="0.0000000000000000e+00" cType="1" res="2.3358874022960663e-03" rms="4.4025999307632446e-01" purity="6.6512554883956909e-01" nType="-99"/>
          <Node pos="r" depth="2" NCoef="0" IVar="-1" Cut="0.0000000000000000e+00" cType="1" res="5.8651383733376861e-04" rms="4.4393929839134216e-01" purity="5.6991964578628540e-01" nType="-99"/>
        </Node>
        <Node pos="r" depth="1" NCoef="0" IVar="0" Cut="2.4370768070220947e+00" cType="1" res="-5.2653746679425240e-03" rms="4.5590743422508240e-01" purity="4.8393160104751587e-01" nType="0">
          <Node pos="l" depth="2" NCoef="0" IVar="-1" Cut="0.0000000000000000e+00" cType="1" res="2.6147026801481843e-04" rms="4.5147061347961426e-01" purity="3.4575656056404114e-01" nType="-99"/>
          <Node pos="r" depth="2" NCoef="0" IVar="-1" Cut="0.0000000000000000e+00" cType="1" res="-7.2724523488432169e-04" rms="4.5891651511192322e-01" purity="5.8195835351943970e-01" nType="-99"/>
        </Node>
      </Node>
    </BinaryTree>
    <BinaryTree type="DecisionTree" boostWeight="1.0000000000000000e+00" itree="1211">
      <Node pos="s" depth="0" NCoef="0" IVar="3" Cut="1.1473256349563599e-01" cType="1" res="-1.6543234232813120e-04" rms="4.5338067412376404e-01" purity="5.0180828571319580e-01" nType="0">
        <Node pos="l" depth="1" NCoef="0" IVar="4" Cut="5.1339781284332275e-01" cType="1" res="3.6533093079924583e-03" rms="4.5440578460693359e-01" purity="5.1979386806488037e-01" nType="0">
          <Node pos="l" depth="2" NCoef="0" IVar="-1" Cut="0.0000000000000000e+00" cType="1" res="6.4325210405513644e-04" rms="4.5389455556869507e-01" purity="5.0418579578399658e-01" nType="-99"/>
          <Node pos="r" depth="2" NCoef="0" IVar="-1" Cut="0.0000000000000000e+00" cType="1" res="-5.4317130707204342e-04" rms="4.5510137081146240e-01" purity="5.4884558916091919e-01" nType="-99"/>
        </Node>
        <Node pos="r" depth="1" NCoef="0" IVar="8" Cut="1.1267093420028687e+00" cType="1" res="-1.8827477470040321e-02" rms="4.4786912202835083e-01" purity="4.1391372680664062e-01" nType="0">
          <Node pos="l" depth="2" NCoef="0" IVar="-1" Cut="0.0000000000000000e+00" cType="1" res="-9.9076321930624545e-05" rms="4.6468484401702881e-01" purity="4.7881338000297546e-01" nType="-99"/>
          <Node pos="r" depth="2" NCoef="0" IVar="-1" Cut="0.0000000000000000e+00" cType="1" res="-2.5308919139206409e-03" rms="4.2747172713279724e-01" purity="3.4138226509094238e-01" nType="-99"/>
        </Node>
      </Node>
    </BinaryTree>
    <BinaryTree type="DecisionTree" boostWeight="1.0000000000000000e+00" itree="1212">
      <Node pos="s" depth="0" NCoef="0" IVar="2" Cut="1.3577148437500000e+02" cType="1" res="1.2119392631575465e-03" rms="4.5391631126403809e-01" purity="5.0208282470703125e-01" nType="0">
        <Node pos="l" depth="1" NCoef="0" IVar="8" Cut="8.0237680673599243e-01" cType="1" res="6.5399655140936375e-03" rms="4.5389655232429504e-01" purity="5.0102049112319946e-01" nType="0">
          <Node pos="l" depth="2" NCoef="0" IVar="-1" Cut="0.0000000000000000e+00" cType="1" res="1.3993326574563980e-03" rms="4.5039606094360352e-01" purity="5.6977212429046631e-01" nType="-99"/>
          <Node pos="r" depth="2" NCoef="0" IVar="-1" Cut="0.0000000000000000e+00" cType="1" res="8.9511624537408352e-05" rms="4.5490413904190063e-01" purity="4.7880640625953674e-01" nType="-99"/>
        </Node>
        <Node pos="r" depth="1" NCoef="0" IVar="3" Cut="4.5952942222356796e-02" cType="1" res="-1.7927320674061775e-02" rms="4.5347118377685547e-01" purity="5.0589895248413086e-01" nType="0">
          <Node pos="l" depth="2" NCoef="0" IVar="-1" Cut="0.0000000000000000e+00" cType="1" res="-2.4223297368735075e-03" rms="4.5618045330047607e-01" purity="5.2662461996078491e-01" nType="-99"/>
          <Node pos="r" depth="2" NCoef="0" IVar="-1" Cut="0.0000000000000000e+00" cType="1" res="8.2615739665925503e-04" rms="4.4747823476791382e-01" purity="4.7339236736297607e-01" nType="-99"/>
        </Node>
      </Node>
    </BinaryTree>
    <BinaryTree type="DecisionTree" boostWeight="1.0000000000000000e+00" itree="1213">
      <Node pos="s" depth="0" NCoef="0" IVar="8" Cut="1.5218569040298462e+00" cType="1" res="-1.0155505733564496e-03" rms="4.5450595021247864e-01" purity="4.9917644262313843e-01" nType="0">
        <Node pos="l" depth="1" NCoef="0" IVar="7" Cut="5.3277065277099609e+01" cType="1" res="2.8730246704071760e-03" rms="4.5732197165489197e-01" purity="5.1716506481170654e-01" nType="0">
          <Node pos="l" depth="2" NCoef="0" IVar="-1" Cut="0.0000000000000000e+00" cType="1" res="1.5988267259672284e-03" rms="4.5885270833969116e-01" purity="4.2170086503028870e-01" nType="-99"/>
          <Node pos="r" depth="2" NCoef="0" IVar="-1" Cut="0.0000000000000000e+00" cType="1" res="-2.1474847744684666e-04" rms="4.5668220520019531e-01" purity="5.4484212398529053e-01" nType="-99"/>
        </Node>
        <Node pos="r" depth="1" NCoef="0" IVar="3" Cut="3.9555188268423080e-02" cType="1" res="-2.0821867510676384e-02" rms="4.3934923410415649e-01" purity="4.0755215287208557e-01" nType="0">
          <Node pos="l" depth="2" NCoef="0" IVar="-1" Cut="0.0000000000000000e+00" cType="1" res="6.9399015046656132e-05" rms="4.5017236471176147e-01" purity="4.7113901376724243e-01" nType="-99"/>
          <Node pos="r" depth="2" NCoef="0" IVar="-1" Cut="0.0000000000000000e+00" cType="1" res="-3.0707437545061111e-03" rms="4.2551198601722717e-01" purity="3.3608898520469666e-01" nType="-99"/>
        </Node>
      </Node>
    </BinaryTree>
    <BinaryTree type="DecisionTree" boostWeight="1.0000000000000000e+00" itree="1214">
      <Node pos="s" depth="0" NCoef="0" IVar="7" Cut="6.4465553283691406e+01" cType="1" res="-3.2309913076460361e-03" rms="4.5367541909217834e-01" purity="4.9487018585205078e-01" nType="0">
        <Node pos="l" depth="1" NCoef="0" IVar="9" Cut="6.4246773719787598e-01" cType="1" res="-1.3164785690605640e-02" rms="4.5075511932373047e-01" purity="4.0644988417625427e-01" nType="0">
          <Node pos="l" depth="2" NCoef="0" IVar="-1" Cut="0.0000000000000000e+00" cType="1" res="-1.6684560105204582e-03" rms="4.4794264435768127e-01" purity="4.1989287734031677e-01" nType="-99"/>
          <Node pos="r" depth="2" NCoef="0" IVar="-1" Cut="0.0000000000000000e+00" cType="1" res="4.9928249791264534e-04" rms="4.5444157719612122e-01" purity="3.8497281074523926e-01" nType="-99"/>
        </Node>
        <Node pos="r" depth="1" NCoef="0" IVar="4" Cut="1.6650085151195526e-01" cType="1" res="4.9457242712378502e-03" rms="4.5590275526046753e-01" purity="5.6765073537826538e-01" nType="0">
          <Node pos="l" depth="2" NCoef="0" IVar="-1" Cut="0.0000000000000000e+00" cType="1" res="2.5034623686224222e-03" rms="4.5243892073631287e-01" purity="4.9079304933547974e-01" nType="-99"/>
          <Node pos="r" depth="2" NCoef="0" IVar="-1" Cut="0.0000000000000000e+00" cType="1" res="-4.0770861232886091e-05" rms="4.5619514584541321e-01" purity="5.7978898286819458e-01" nType="-99"/>
        </Node>
      </Node>
    </BinaryTree>
    <BinaryTree type="DecisionTree" boostWeight="1.0000000000000000e+00" itree="1215">
      <Node pos="s" depth="0" NCoef="0" IVar="1" Cut="5.1911859130859375e+02" cType="1" res="3.2818741165101528e-03" rms="4.5525133609771729e-01" purity="5.0211441516876221e-01" nType="0">
        <Node pos="l" depth="1" NCoef="0" IVar="2" Cut="1.1799003601074219e+02" cType="1" res="1.1754928156733513e-02" rms="4.5041680335998535e-01" purity="4.3278303742408752e-01" nType="0">
          <Node pos="l" depth="2" NCoef="0" IVar="-1" Cut="0.0000000000000000e+00" cType="1" res="1.1585669126361609e-03" rms="4.5388817787170410e-01" purity="4.4305834174156189e-01" nType="-99"/>
          <Node pos="r" depth="2" NCoef="0" IVar="-1" Cut="0.0000000000000000e+00" cType="1" res="-8.5707241669297218e-04" rms="4.3602597713470459e-01" purity="3.9355483651161194e-01" nType="-99"/>
        </Node>
        <Node pos="r" depth="1" NCoef="0" IVar="3" Cut="-5.4103963077068329e-02" cType="1" res="-4.5195906423032284e-03" rms="4.5951959490776062e-01" purity="5.6595045328140259e-01" nType="0">
          <Node pos="l" depth="2" NCoef="0" IVar="-1" Cut="0.0000000000000000e+00" cType="1" res="-3.4074652940034866e-03" rms="4.6147158741950989e-01" purity="5.9736514091491699e-01" nType="-99"/>
          <Node pos="r" depth="2" NCoef="0" IVar="-1" Cut="0.0000000000000000e+00" cType="1" res="3.1111016141949221e-05" rms="4.5902588963508606e-01" purity="5.6258678436279297e-01" nType="-99"/>
        </Node>
      </Node>
    </BinaryTree>
    <BinaryTree type="DecisionTree" boostWeight="1.0000000000000000e+00" itree="1216">
      <Node pos="s" depth="0" NCoef="0" IVar="8" Cut="5.6119829416275024e-01" cType="1" res="6.0047856532037258e-03" rms="4.5333659648895264e-01" purity="5.0392311811447144e-01" nType="0">
        <Node pos="l" depth="1" NCoef="0" IVar="-1" Cut="0.0000000000000000e+00" cType="1" res="-2.9363641515374184e-03" rms="4.6310997009277344e-01" purity="5.1941317319869995e-01" nType="-99"/>
        <Node pos="r" depth="1" NCoef="0" IVar="4" Cut="7.0883190631866455e-01" cType="1" res="9.2991553246974945e-03" rms="4.5250830054283142e-01" purity="5.0294011831283569e-01" nType="0">
          <Node pos="l" depth="2" NCoef="0" IVar="-1" Cut="0.0000000000000000e+00" cType="1" res="6.9982756394892931e-04" rms="4.5230025053024292e-01" purity="4.9993684887886047e-01" nType="-99"/>
          <Node pos="r" depth="2" NCoef="0" IVar="-1" Cut="0.0000000000000000e+00" cType="1" res="-1.2660153442993760e-03" rms="4.5489642024040222e-01" purity="5.5185145139694214e-01" nType="-99"/>
        </Node>
      </Node>
    </BinaryTree>
    <BinaryTree type="DecisionTree" boostWeight="1.0000000000000000e+00" itree="1217">
      <Node pos="s" depth="0" NCoef="0" IVar="3" Cut="-1.1064573191106319e-02" cType="1" res="1.5496686100959778e-03" rms="4.5451956987380981e-01" purity="5.0313031673431396e-01" nType="0">
        <Node pos="l" depth="1" NCoef="0" IVar="2" Cut="1.1399581146240234e+02" cType="1" res="-1.3778367079794407e-02" rms="4.5778965950012207e-01" purity="5.3037345409393311e-01" nType="0">
          <Node pos="l" depth="2" NCoef="0" IVar="-1" Cut="0.0000000000000000e+00" cType="1" res="-1.8156621372327209e-03" rms="4.6015104651451111e-01" purity="4.9051320552825928e-01" nType="-99"/>
          <Node pos="r" depth="2" NCoef="0" IVar="-1" Cut="0.0000000000000000e+00" cType="1" res="8.8621256873011589e-04" rms="4.5219027996063232e-01" purity="6.0202610492706299e-01" nType="-99"/>
        </Node>
        <Node pos="r" depth="1" NCoef="0" IVar="2" Cut="1.2856391906738281e+02" cType="1" res="9.1544762253761292e-03" rms="4.5269578695297241e-01" purity="4.8961400985717773e-01" nType="0">
          <Node pos="l" depth="2" NCoef="0" IVar="-1" Cut="0.0000000000000000e+00" cType="1" res="9.3363004270941019e-04" rms="4.5414137840270996e-01" purity="4.8915639519691467e-01" nType="-99"/>
          <Node pos="r" depth="2" NCoef="0" IVar="-1" Cut="0.0000000000000000e+00" cType="1" res="-4.6960843610577285e-04" rms="4.4811263680458069e-01" purity="4.9092760682106018e-01" nType="-99"/>
        </Node>
      </Node>
    </BinaryTree>
    <BinaryTree type="DecisionTree" boostWeight="1.0000000000000000e+00" itree="1218">
      <Node pos="s" depth="0" NCoef="0" IVar="7" Cut="9.7637474060058594e+01" cType="1" res="-1.6734796809032559e-03" rms="4.5276063680648804e-01" purity="4.9703463912010193e-01" nType="0">
        <Node pos="l" depth="1" NCoef="0" IVar="3" Cut="-1.1739408597350121e-02" cType="1" res="2.1490759681910276e-03" rms="4.5348733663558960e-01" purity="4.7814509272575378e-01" nType="0">
          <Node pos="l" depth="2" NCoef="0" IVar="-1" Cut="0.0000000000000000e+00" cType="1" res="-6.3206243794411421e-04" rms="4.5261666178703308e-01" purity="5.1385670900344849e-01" nType="-99"/>
          <Node pos="r" depth="2" NCoef="0" IVar="-1" Cut="0.0000000000000000e+00" cType="1" res="5.1795627223327756e-04" rms="4.5379346609115601e-01" purity="4.6056726574897766e-01" nType="-99"/>
        </Node>
        <Node pos="r" depth="1" NCoef="0" IVar="5" Cut="9.6770405769348145e-01" cType="1" res="-1.9922260195016861e-02" rms="4.4882661104202271e-01" purity="5.8721262216567993e-01" nType="0">
          <Node pos="l" depth="2" NCoef="0" IVar="-1" Cut="0.0000000000000000e+00" cType="1" res="-2.7180160395801067e-03" rms="4.6960496902465820e-01" purity="4.9396914243698120e-01" nType="-99"/>
          <Node pos="r" depth="2" NCoef="0" IVar="-1" Cut="0.0000000000000000e+00" cType="1" res="2.6497738435864449e-03" rms="3.9507558941841125e-01" purity="7.8757065534591675e-01" nType="-99"/>
        </Node>
      </Node>
    </BinaryTree>
    <BinaryTree type="DecisionTree" boostWeight="1.0000000000000000e+00" itree="1219">
      <Node pos="s" depth="0" NCoef="0" IVar="0" Cut="3.1226832866668701e+00" cType="1" res="-3.2307510264217854e-03" rms="4.5477715134620667e-01" purity="4.9862807989120483e-01" nType="0">
        <Node pos="l" depth="1" NCoef="0" IVar="5" Cut="9.1730904579162598e-01" cType="1" res="3.4605900291353464e-03" rms="4.5925301313400269e-01" purity="3.9718973636627197e-01" nType="0">
          <Node pos="l" depth="2" NCoef="0" IVar="-1" Cut="0.0000000000000000e+00" cType="1" res="-2.3405745159834623e-03" rms="4.1033837199211121e-01" purity="2.4717809259891510e-01" nType="-99"/>
          <Node pos="r" depth="2" NCoef="0" IVar="-1" Cut="0.0000000000000000e+00" cType="1" res="6.2520866049453616e-04" rms="4.6720173954963684e-01" purity="4.2418333888053894e-01" nType="-99"/>
        </Node>
        <Node pos="r" depth="1" NCoef="0" IVar="9" Cut="2.5165486335754395e-01" cType="1" res="-1.2644832022488117e-02" rms="4.4823530316352844e-01" purity="6.4134210348129272e-01" nType="0">
          <Node pos="l" depth="2" NCoef="0" IVar="-1" Cut="0.0000000000000000e+00" cType="1" res="-2.5199127849191427e-03" rms="4.4707953929901123e-01" purity="6.5448594093322754e-01" nType="-99"/>
          <Node pos="r" depth="2" NCoef="0" IVar="-1" Cut="0.0000000000000000e+00" cType="1" res="-4.9267947906628251e-04" rms="4.4829288125038147e-01" purity="6.3883787393569946e-01" nType="-99"/>
        </Node>
      </Node>
    </BinaryTree>
    <BinaryTree type="DecisionTree" boostWeight="1.0000000000000000e+00" itree="1220">
      <Node pos="s" depth="0" NCoef="0" IVar="8" Cut="1.0446467399597168e+00" cType="1" res="1.4396120095625520e-03" rms="4.5358526706695557e-01" purity="5.0230419635772705e-01" nType="0">
        <Node pos="l" depth="1" NCoef="0" IVar="4" Cut="5.1985043287277222e-01" cType="1" res="1.1912208050489426e-02" rms="4.5179080963134766e-01" purity="5.5081844329833984e-01" nType="0">
          <Node pos="l" depth="2" NCoef="0" IVar="-1" Cut="0.0000000000000000e+00" cType="1" res="2.8922641649842262e-04" rms="4.5320224761962891e-01" purity="5.2232784032821655e-01" nType="-99"/>
          <Node pos="r" depth="2" NCoef="0" IVar="-1" Cut="0.0000000000000000e+00" cType="1" res="1.9433113047853112e-03" rms="4.4761195778846741e-01" purity="6.2382388114929199e-01" nType="-99"/>
        </Node>
        <Node pos="r" depth="1" NCoef="0" IVar="0" Cut="1.2088587284088135e+00" cType="1" res="-8.6367446929216385e-03" rms="4.5507770776748657e-01" purity="4.5562547445297241e-01" nType="0">
          <Node pos="l" depth="2" NCoef="0" IVar="-1" Cut="0.0000000000000000e+00" cType="1" res="2.3882286623120308e-03" rms="4.3507534265518188e-01" purity="2.9313695430755615e-01" nType="-99"/>
          <Node pos="r" depth="2" NCoef="0" IVar="-1" Cut="0.0000000000000000e+00" cType="1" res="-8.5224228678271174e-04" rms="4.5735329389572144e-01" purity="4.7665777802467346e-01" nType="-99"/>
        </Node>
      </Node>
    </BinaryTree>
    <BinaryTree type="DecisionTree" boostWeight="1.0000000000000000e+00" itree="1221">
      <Node pos="s" depth="0" NCoef="0" IVar="8" Cut="1.2045943737030029e+00" cType="1" res="-2.0838240161538124e-03" rms="4.5466333627700806e-01" purity="4.9852395057678223e-01" nType="0">
        <Node pos="l" depth="1" NCoef="0" IVar="1" Cut="4.5983178710937500e+02" cType="1" res="-9.1422153636813164e-03" rms="4.5578348636627197e-01" purity="5.2014172077178955e-01" nType="0">
          <Node pos="l" depth="2" NCoef="0" IVar="-1" Cut="0.0000000000000000e+00" cType="1" res="4.9056764692068100e-04" rms="4.4991001486778259e-01" purity="4.2743924260139465e-01" nType="-99"/>
          <Node pos="r" depth="2" NCoef="0" IVar="-1" Cut="0.0000000000000000e+00" cType="1" res="-9.4932032516226172e-04" rms="4.5776790380477905e-01" purity="5.5418592691421509e-01" nType="-99"/>
        </Node>
        <Node pos="r" depth="1" NCoef="0" IVar="0" Cut="2.5691072940826416e+00" cType="1" res="9.6634272485971451e-03" rms="4.5254895091056824e-01" purity="4.6254560351371765e-01" nType="0">
          <Node pos="l" depth="2" NCoef="0" IVar="-1" Cut="0.0000000000000000e+00" cType="1" res="1.5573872951790690e-03" rms="4.4370767474174500e-01" purity="3.4965482354164124e-01" nType="-99"/>
          <Node pos="r" depth="2" NCoef="0" IVar="-1" Cut="0.0000000000000000e+00" cType="1" res="-1.1051716865040362e-04" rms="4.5976054668426514e-01" purity="5.6033134460449219e-01" nType="-99"/>
        </Node>
      </Node>
    </BinaryTree>
    <BinaryTree type="DecisionTree" boostWeight="1.0000000000000000e+00" itree="1222">
      <Node pos="s" depth="0" NCoef="0" IVar="4" Cut="5.1947224140167236e-01" cType="1" res="-5.1655056886374950e-03" rms="4.5402774214744568e-01" purity="4.9174305796623230e-01" nType="0">
        <Node pos="l" depth="1" NCoef="0" IVar="4" Cut="1.1193257570266724e-01" cType="1" res="6.0501793632283807e-04" rms="4.5172241330146790e-01" purity="4.7637435793876648e-01" nType="0">
          <Node pos="l" depth="2" NCoef="0" IVar="-1" Cut="0.0000000000000000e+00" cType="1" res="-3.1489592511206865e-03" rms="4.1758814454078674e-01" purity="3.1819972395896912e-01" nType="-99"/>
          <Node pos="r" depth="2" NCoef="0" IVar="-1" Cut="0.0000000000000000e+00" cType="1" res="2.7124973712489009e-04" rms="4.5407226681709290e-01" purity="4.8873588442802429e-01" nType="-99"/>
        </Node>
        <Node pos="r" depth="1" NCoef="0" IVar="9" Cut="5.0031715631484985e-01" cType="1" res="-2.0030228421092033e-02" rms="4.5957940816879272e-01" purity="5.3133255243301392e-01" nType="0">
          <Node pos="l" depth="2" NCoef="0" IVar="-1" Cut="0.0000000000000000e+00" cType="1" res="-4.4880958739668131e-04" rms="4.5417818427085876e-01" purity="5.6263542175292969e-01" nType="-99"/>
          <Node pos="r" depth="2" NCoef="0" IVar="-1" Cut="0.0000000000000000e+00" cType="1" res="-2.2593676112592220e-03" rms="4.6596562862396240e-01" purity="4.9067911505699158e-01" nType="-99"/>
        </Node>
      </Node>
    </BinaryTree>
    <BinaryTree type="DecisionTree" boostWeight="1.0000000000000000e+00" itree="1223">
      <Node pos="s" depth="0" NCoef="0" IVar="7" Cut="4.1631557464599609e+01" cType="1" res="-4.8941059503704309e-04" rms="4.5259273052215576e-01" purity="5.0055730342864990e-01" nType="0">
        <Node pos="l" depth="1" NCoef="0" IVar="-1" Cut="0.0000000000000000e+00" cType="1" res="-2.4195206351578236e-03" rms="4.1810551285743713e-01" purity="2.8055405616760254e-01" nType="-99"/>
        <Node pos="r" depth="1" NCoef="0" IVar="9" Cut="1.7078325152397156e-01" cType="1" res="1.6139418585225940e-03" rms="4.5458909869194031e-01" purity="5.1437485218048096e-01" nType="0">
          <Node pos="l" depth="2" NCoef="0" IVar="-1" Cut="0.0000000000000000e+00" cType="1" res="1.9861601758748293e-03" rms="4.4278320670127869e-01" purity="6.0527098178863525e-01" nType="-99"/>
          <Node pos="r" depth="2" NCoef="0" IVar="-1" Cut="0.0000000000000000e+00" cType="1" res="-5.5265336413867772e-05" rms="4.5547968149185181e-01" purity="5.0673276185989380e-01" nType="-99"/>
        </Node>
      </Node>
    </BinaryTree>
    <BinaryTree type="DecisionTree" boostWeight="1.0000000000000000e+00" itree="1224">
      <Node pos="s" depth="0" NCoef="0" IVar="7" Cut="5.4767951965332031e+01" cType="1" res="-2.3969679605215788e-03" rms="4.5308923721313477e-01" purity="4.9817818403244019e-01" nType="0">
        <Node pos="l" depth="1" NCoef="0" IVar="9" Cut="5.2059644460678101e-01" cType="1" res="1.0683019645512104e-02" rms="4.4777804613113403e-01" purity="3.9941129088401794e-01" nType="0">
          <Node pos="l" depth="2" NCoef="0" IVar="-1" Cut="0.0000000000000000e+00" cType="1" res="-9.2513667186722159e-04" rms="4.4715321063995361e-01" purity="4.0336239337921143e-01" nType="-99"/>
          <Node pos="r" depth="2" NCoef="0" IVar="-1" Cut="0.0000000000000000e+00" cType="1" res="2.0388313569128513e-03" rms="4.4727706909179688e-01" purity="3.9624819159507751e-01" nType="-99"/>
        </Node>
        <Node pos="r" depth="1" NCoef="0" IVar="4" Cut="1.3725550472736359e-01" cType="1" res="-7.1435109712183475e-03" rms="4.5490828156471252e-01" purity="5.3401929140090942e-01" nType="0">
          <Node pos="l" depth="2" NCoef="0" IVar="-1" Cut="0.0000000000000000e+00" cType="1" res="-2.7621462941169739e-03" rms="4.4250535964965820e-01" purity="3.7251672148704529e-01" nType="-99"/>
          <Node pos="r" depth="2" NCoef="0" IVar="-1" Cut="0.0000000000000000e+00" cType="1" res="-2.3162258730735630e-04" rms="4.5593219995498657e-01" purity="5.4947268962860107e-01" nType="-99"/>
        </Node>
      </Node>
    </BinaryTree>
    <BinaryTree type="DecisionTree" boostWeight="1.0000000000000000e+00" itree="1225">
      <Node pos="s" depth="0" NCoef="0" IVar="1" Cut="3.5706973266601562e+02" cType="1" res="1.0414720745757222e-03" rms="4.5145550370216370e-01" purity="5.0073587894439697e-01" nType="0">
        <Node pos="l" depth="1" NCoef="0" IVar="-1" Cut="0.0000000000000000e+00" cType="1" res="-3.1998013146221638e-03" rms="4.0843608975410461e-01" purity="2.6748323440551758e-01" nType="-99"/>
        <Node pos="r" depth="1" NCoef="0" IVar="8" Cut="8.4919875860214233e-01" cType="1" res="3.8013663142919540e-03" rms="4.5382019877433777e-01" purity="5.1506394147872925e-01" nType="0">
          <Node pos="l" depth="2" NCoef="0" IVar="-1" Cut="0.0000000000000000e+00" cType="1" res="-5.9063656954094768e-04" rms="4.5578309893608093e-01" purity="5.4783052206039429e-01" nType="-99"/>
          <Node pos="r" depth="2" NCoef="0" IVar="-1" Cut="0.0000000000000000e+00" cType="1" res="6.1811710475012660e-04" rms="4.5278856158256531e-01" purity="5.0002992153167725e-01" nType="-99"/>
        </Node>
      </Node>
    </BinaryTree>
    <BinaryTree type="DecisionTree" boostWeight="1.0000000000000000e+00" itree="1226">
      <Node pos="s" depth="0" NCoef="0" IVar="3" Cut="5.7644298067316413e-04" cType="1" res="-1.5389185136882588e-05" rms="4.5232820510864258e-01" purity="5.0074100494384766e-01" nType="0">
        <Node pos="l" depth="1" NCoef="0" IVar="4" Cut="3.1178164482116699e-01" cType="1" res="-9.2501640319824219e-03" rms="4.5583680272102356e-01" purity="5.3090918064117432e-01" nType="0">
          <Node pos="l" depth="2" NCoef="0" IVar="-1" Cut="0.0000000000000000e+00" cType="1" res="-2.6896051131188869e-03" rms="4.6007218956947327e-01" purity="4.3015459179878235e-01" nType="-99"/>
          <Node pos="r" depth="2" NCoef="0" IVar="-1" Cut="0.0000000000000000e+00" cType="1" res="-2.4840325932018459e-04" rms="4.5493951439857483e-01" purity="5.4669719934463501e-01" nType="-99"/>
        </Node>
        <Node pos="r" depth="1" NCoef="0" IVar="1" Cut="8.4097808837890625e+02" cType="1" res="5.8245770633220673e-03" rms="4.4999745488166809e-01" purity="4.8166295886039734e-01" nType="0">
          <Node pos="l" depth="2" NCoef="0" IVar="-1" Cut="0.0000000000000000e+00" cType="1" res="1.1298687604721636e-04" rms="4.5100253820419312e-01" purity="4.5958587527275085e-01" nType="-99"/>
          <Node pos="r" depth="2" NCoef="0" IVar="-1" Cut="0.0000000000000000e+00" cType="1" res="2.5120831560343504e-03" rms="4.4027617573738098e-01" purity="6.6265219449996948e-01" nType="-99"/>
        </Node>
      </Node>
    </BinaryTree>
    <BinaryTree type="DecisionTree" boostWeight="1.0000000000000000e+00" itree="1227">
      <Node pos="s" depth="0" NCoef="0" IVar="2" Cut="9.4859558105468750e+01" cType="1" res="-1.5647298423573375e-03" rms="4.5280605554580688e-01" purity="4.9858349561691284e-01" nType="0">
        <Node pos="l" depth="1" NCoef="0" IVar="2" Cut="8.8466224670410156e+01" cType="1" res="-1.5395782887935638e-02" rms="4.5587211847305298e-01" purity="4.5559644699096680e-01" nType="0">
          <Node pos="l" depth="2" NCoef="0" IVar="-1" Cut="0.0000000000000000e+00" cType="1" res="-1.2426606845110655e-03" rms="4.5583721995353699e-01" purity="4.4985672831535339e-01" nType="-99"/>
          <Node pos="r" depth="2" NCoef="0" IVar="-1" Cut="0.0000000000000000e+00" cType="1" res="1.1737352469936013e-03" rms="4.5468541979789734e-01" purity="4.9820172786712646e-01" nType="-99"/>
        </Node>
        <Node pos="r" depth="1" NCoef="0" IVar="4" Cut="4.2561995983123779e-01" cType="1" res="1.0543407872319221e-02" rms="4.4975575804710388e-01" purity="5.3621566295623779e-01" nType="0">
          <Node pos="l" depth="2" NCoef="0" IVar="-1" Cut="0.0000000000000000e+00" cType="1" res="1.4458019286394119e-03" rms="4.4720414280891418e-01" purity="5.0952798128128052e-01" nType="-99"/>
          <Node pos="r" depth="2" NCoef="0" IVar="-1" Cut="0.0000000000000000e+00" cType="1" res="-4.3138230103068054e-04" rms="4.5286190509796143e-01" purity="5.7481962442398071e-01" nType="-99"/>
        </Node>
      </Node>
    </BinaryTree>
    <BinaryTree type="DecisionTree" boostWeight="1.0000000000000000e+00" itree="1228">
      <Node pos="s" depth="0" NCoef="0" IVar="5" Cut="9.7952681779861450e-01" cType="1" res="3.8532284088432789e-03" rms="4.5533171296119690e-01" purity="5.0304251909255981e-01" nType="0">
        <Node pos="l" depth="1" NCoef="0" IVar="0" Cut="1.2347921133041382e+00" cType="1" res="7.9767294228076935e-03" rms="4.6021571755409241e-01" purity="4.6425402164459229e-01" nType="0">
          <Node pos="l" depth="2" NCoef="0" IVar="-1" Cut="0.0000000000000000e+00" cType="1" res="-1.5124697238206863e-03" rms="4.2076286673545837e-01" purity="2.6690343022346497e-01" nType="-99"/>
          <Node pos="r" depth="2" NCoef="0" IVar="-1" Cut="0.0000000000000000e+00" cType="1" res="7.4562121881172061e-04" rms="4.6596983075141907e-01" purity="4.9534627795219421e-01" nType="-99"/>
        </Node>
        <Node pos="r" depth="1" NCoef="0" IVar="5" Cut="9.9052643775939941e-01" cType="1" res="-1.8501510843634605e-02" rms="4.2719259858131409e-01" purity="7.1332669258117676e-01" nType="0">
          <Node pos="l" depth="2" NCoef="0" IVar="-1" Cut="0.0000000000000000e+00" cType="1" res="-2.5109308771789074e-03" rms="4.4523271918296814e-01" purity="6.6985607147216797e-01" nType="-99"/>
          <Node pos="r" depth="2" NCoef="0" IVar="-1" Cut="0.0000000000000000e+00" cType="1" res="7.4011052493005991e-04" rms="3.9295312762260437e-01" purity="7.8752994537353516e-01" nType="-99"/>
        </Node>
      </Node>
    </BinaryTree>
    <BinaryTree type="DecisionTree" boostWeight="1.0000000000000000e+00" itree="1229">
      <Node pos="s" depth="0" NCoef="0" IVar="6" Cut="1.9825503826141357e+00" cType="1" res="1.8622057978063822e-03" rms="4.5389604568481445e-01" purity="5.0179046392440796e-01" nType="0">
        <Node pos="l" depth="1" NCoef="0" IVar="0" Cut="1.7101503610610962e+00" cType="1" res="1.5472821891307831e-02" rms="4.5112773776054382e-01" purity="5.8960336446762085e-01" nType="0">
          <Node pos="l" depth="2" NCoef="0" IVar="-1" Cut="0.0000000000000000e+00" cType="1" res="-1.0036078747361898e-03" rms="4.5498237013816833e-01" purity="3.6154815554618835e-01" nType="-99"/>
          <Node pos="r" depth="2" NCoef="0" IVar="-1" Cut="0.0000000000000000e+00" cType="1" res="1.4724975917488337e-03" rms="4.4975551962852478e-01" purity="6.4885038137435913e-01" nType="-99"/>
        </Node>
        <Node pos="r" depth="1" NCoef="0" IVar="9" Cut="2.5073057413101196e-01" cType="1" res="-2.8098421171307564e-03" rms="4.5474851131439209e-01" purity="4.7164735198020935e-01" nType="0">
          <Node pos="l" depth="2" NCoef="0" IVar="-1" Cut="0.0000000000000000e+00" cType="1" res="-2.1419129334390163e-03" rms="4.5823863148689270e-01" purity="4.9894702434539795e-01" nType="-99"/>
          <Node pos="r" depth="2" NCoef="0" IVar="-1" Cut="0.0000000000000000e+00" cType="1" res="1.2520176824182272e-04" rms="4.5402497053146362e-01" purity="4.6748930215835571e-01" nType="-99"/>
        </Node>
      </Node>
    </BinaryTree>
    <BinaryTree type="DecisionTree" boostWeight="1.0000000000000000e+00" itree="1230">
      <Node pos="s" depth="0" NCoef="0" IVar="9" Cut="3.9052882790565491e-01" cType="1" res="8.5038261022418737e-04" rms="4.5352038741111755e-01" purity="5.0183945894241333e-01" nType="0">
        <Node pos="l" depth="1" NCoef="0" IVar="6" Cut="1.8923552036285400e+00" cType="1" res="-1.0080728679895401e-02" rms="4.5001244544982910e-01" purity="5.3572833538055420e-01" nType="0">
          <Node pos="l" depth="2" NCoef="0" IVar="-1" Cut="0.0000000000000000e+00" cType="1" res="7.3293852619826794e-04" rms="4.4468250870704651e-01" purity="6.0365384817123413e-01" nType="-99"/>
          <Node pos="r" depth="2" NCoef="0" IVar="-1" Cut="0.0000000000000000e+00" cType="1" res="-1.1877685319632292e-03" rms="4.5180436968803406e-01" purity="5.0898665189743042e-01" nType="-99"/>
        </Node>
        <Node pos="r" depth="1" NCoef="0" IVar="5" Cut="9.3448007106781006e-01" cType="1" res="6.1234794557094574e-03" rms="4.5510908961296082e-01" purity="4.8549169301986694e-01" nType="0">
          <Node pos="l" depth="2" NCoef="0" IVar="-1" Cut="0.0000000000000000e+00" cType="1" res="1.7992116045206785e-03" rms="4.4235169887542725e-01" purity="3.5264214873313904e-01" nType="-99"/>
          <Node pos="r" depth="2" NCoef="0" IVar="-1" Cut="0.0000000000000000e+00" cType="1" res="-1.0527738049859181e-04" rms="4.5937451720237732e-01" purity="5.3341960906982422e-01" nType="-99"/>
        </Node>
      </Node>
    </BinaryTree>
    <BinaryTree type="DecisionTree" boostWeight="1.0000000000000000e+00" itree="1231">
      <Node pos="s" depth="0" NCoef="0" IVar="4" Cut="2.3429174721240997e-01" cType="1" res="-4.0692929178476334e-03" rms="4.5351517200469971e-01" purity="4.9501928687095642e-01" nType="0">
        <Node pos="l" depth="1" NCoef="0" IVar="9" Cut="5.0725054740905762e-01" cType="1" res="-1.9442236050963402e-02" rms="4.4771391153335571e-01" purity="4.1024047136306763e-01" nType="0">
          <Node pos="l" depth="2" NCoef="0" IVar="-1" Cut="0.0000000000000000e+00" cType="1" res="-2.7238819748163223e-03" rms="4.5941871404647827e-01" purity="4.4691258668899536e-01" nType="-99"/>
          <Node pos="r" depth="2" NCoef="0" IVar="-1" Cut="0.0000000000000000e+00" cType="1" res="-3.0461818096227944e-04" rms="4.3969559669494629e-01" purity="3.8766288757324219e-01" nType="-99"/>
        </Node>
        <Node pos="r" depth="1" NCoef="0" IVar="7" Cut="4.6468887329101562e+01" cType="1" res="5.4927141172811389e-04" rms="4.5514219999313354e-01" purity="5.2048975229263306e-01" nType="0">
          <Node pos="l" depth="2" NCoef="0" IVar="-1" Cut="0.0000000000000000e+00" cType="1" res="-1.7809921409934759e-03" rms="4.4188973307609558e-01" purity="3.2318055629730225e-01" nType="-99"/>
          <Node pos="r" depth="2" NCoef="0" IVar="-1" Cut="0.0000000000000000e+00" cType="1" res="2.7596930158324540e-04" rms="4.5689603686332703e-01" purity="5.4903876781463623e-01" nType="-99"/>
        </Node>
      </Node>
    </BinaryTree>
    <BinaryTree type="DecisionTree" boostWeight="1.0000000000000000e+00" itree="1232">
      <Node pos="s" depth="0" NCoef="0" IVar="0" Cut="1.8484874963760376e+00" cType="1" res="6.9422140950337052e-04" rms="4.5435327291488647e-01" purity="5.0036484003067017e-01" nType="0">
        <Node pos="l" depth="1" NCoef="0" IVar="8" Cut="1.2293618917465210e+00" cType="1" res="-1.4549140818417072e-02" rms="4.3566626310348511e-01" purity="3.0379816889762878e-01" nType="0">
          <Node pos="l" depth="2" NCoef="0" IVar="-1" Cut="0.0000000000000000e+00" cType="1" res="-1.7083553830161691e-03" rms="4.4244757294654846e-01" purity="3.1200510263442993e-01" nType="-99"/>
          <Node pos="r" depth="2" NCoef="0" IVar="-1" Cut="0.0000000000000000e+00" cType="1" res="3.1004930497147143e-04" rms="4.2328315973281860e-01" purity="2.8991097211837769e-01" nType="-99"/>
        </Node>
        <Node pos="r" depth="1" NCoef="0" IVar="5" Cut="9.8001730442047119e-01" cType="1" res="5.9991488233208656e-03" rms="4.6056056022644043e-01" purity="5.6877309083938599e-01" nType="0">
          <Node pos="l" depth="2" NCoef="0" IVar="-1" Cut="0.0000000000000000e+00" cType="1" res="7.4896862497553229e-04" rms="4.6836006641387939e-01" purity="5.3163629770278931e-01" nType="-99"/>
          <Node pos="r" depth="2" NCoef="0" IVar="-1" Cut="0.0000000000000000e+00" cType="1" res="-1.5395885566249490e-03" rms="4.2769896984100342e-01" purity="7.1389603614807129e-01" nType="-99"/>
        </Node>
      </Node>
    </BinaryTree>
    <BinaryTree type="DecisionTree" boostWeight="1.0000000000000000e+00" itree="1233">
      <Node pos="s" depth="0" NCoef="0" IVar="6" Cut="2.7546446323394775e+00" cType="1" res="-1.7533402424305677e-03" rms="4.5140489935874939e-01" purity="4.9693593382835388e-01" nType="0">
        <Node pos="l" depth="1" NCoef="0" IVar="1" Cut="4.5790142822265625e+02" cType="1" res="2.1210047416388988e-03" rms="4.5610353350639343e-01" purity="5.2340674400329590e-01" nType="0">
          <Node pos="l" depth="2" NCoef="0" IVar="-1" Cut="0.0000000000000000e+00" cType="1" res="-6.3626363407820463e-04" rms="4.4892427325248718e-01" purity="3.9559996128082275e-01" nType="-99"/>
          <Node pos="r" depth="2" NCoef="0" IVar="-1" Cut="0.0000000000000000e+00" cType="1" res="4.5331841101869941e-04" rms="4.5908707380294800e-01" purity="5.7891142368316650e-01" nType="-99"/>
        </Node>
        <Node pos="r" depth="1" NCoef="0" IVar="-1" Cut="0.0000000000000000e+00" cType="1" res="-3.1003134790807962e-03" rms="3.9800748229026794e-01" purity="2.2607666254043579e-01" nType="-99"/>
      </Node>
    </BinaryTree>
    <BinaryTree type="DecisionTree" boostWeight="1.0000000000000000e+00" itree="1234">
      <Node pos="s" depth="0" NCoef="0" IVar="3" Cut="1.3692998886108398e-01" cType="1" res="-3.8398630567826331e-04" rms="4.5417356491088867e-01" purity="5.0015008449554443e-01" nType="0">
        <Node pos="l" depth="1" NCoef="0" IVar="3" Cut="9.4433799386024475e-02" cType="1" res="-3.1719249673187733e-03" rms="4.5499879121780396e-01" purity="5.0731915235519409e-01" nType="0">
          <Node pos="l" depth="2" NCoef="0" IVar="-1" Cut="0.0000000000000000e+00" cType="1" res="5.2532946028804872e-06" rms="4.5796138048171997e-01" purity="5.1806420087814331e-01" nType="-99"/>
          <Node pos="r" depth="2" NCoef="0" IVar="-1" Cut="0.0000000000000000e+00" cType="1" res="-1.8052801024168730e-03" rms="4.3098577857017517e-01" purity="4.2555823922157288e-01" nType="-99"/>
        </Node>
        <Node pos="r" depth="1" NCoef="0" IVar="7" Cut="7.5800964355468750e+01" cType="1" res="1.8169235438108444e-02" rms="4.4820171594619751e-01" purity="4.5244112610816956e-01" nType="0">
          <Node pos="l" depth="2" NCoef="0" IVar="-1" Cut="0.0000000000000000e+00" cType="1" res="7.7659758972004056e-05" rms="4.4328135251998901e-01" purity="3.7770256400108337e-01" nType="-99"/>
          <Node pos="r" depth="2" NCoef="0" IVar="-1" Cut="0.0000000000000000e+00" cType="1" res="2.5451055262237787e-03" rms="4.5377060770988464e-01" purity="5.5375629663467407e-01" nType="-99"/>
        </Node>
      </Node>
    </BinaryTree>
    <BinaryTree type="DecisionTree" boostWeight="1.0000000000000000e+00" itree="1235">
      <Node pos="s" depth="0" NCoef="0" IVar="2" Cut="1.3653125000000000e+02" cType="1" res="-6.3052744371816516e-04" rms="4.5346727967262268e-01" purity="4.9990046024322510e-01" nType="0">
        <Node pos="l" depth="1" NCoef="0" IVar="4" Cut="4.7023844718933105e-01" cType="1" res="6.0322931967675686e-03" rms="4.5390975475311279e-01" purity="5.0233364105224609e-01" nType="0">
          <Node pos="l" depth="2" NCoef="0" IVar="-1" Cut="0.0000000000000000e+00" cType="1" res="-1.9737266120500863e-04" rms="4.5139944553375244e-01" purity="4.7010979056358337e-01" nType="-99"/>
          <Node pos="r" depth="2" NCoef="0" IVar="-1" Cut="0.0000000000000000e+00" cType="1" res="1.3694423250854015e-03" rms="4.5781555771827698e-01" purity="5.5852109193801880e-01" nType="-99"/>
        </Node>
        <Node pos="r" depth="1" NCoef="0" IVar="7" Cut="8.8245384216308594e+01" cType="1" res="-2.4698168039321899e-02" rms="4.5104619860649109e-01" purity="4.9111115932464600e-01" nType="0">
          <Node pos="l" depth="2" NCoef="0" IVar="-1" Cut="0.0000000000000000e+00" cType="1" res="-2.6380787603557110e-03" rms="4.4663548469543457e-01" purity="4.2389619350433350e-01" nType="-99"/>
          <Node pos="r" depth="2" NCoef="0" IVar="-1" Cut="0.0000000000000000e+00" cType="1" res="-3.1579920323565602e-04" rms="4.5574048161506653e-01" purity="5.7532221078872681e-01" nType="-99"/>
        </Node>
      </Node>
    </BinaryTree>
    <BinaryTree type="DecisionTree" boostWeight="1.0000000000000000e+00" itree="1236">
      <Node pos="s" depth="0" NCoef="0" IVar="6" Cut="1.7168228626251221e+00" cType="1" res="3.2033002935349941e-03" rms="4.5502060651779175e-01" purity="5.0262463092803955e-01" nType="0">
        <Node pos="l" depth="1" NCoef="0" IVar="7" Cut="7.2117309570312500e+01" cType="1" res="2.6418298482894897e-02" rms="4.4928959012031555e-01" purity="6.2466138601303101e-01" nType="0">
          <Node pos="l" depth="2" NCoef="0" IVar="-1" Cut="0.0000000000000000e+00" cType="1" res="2.6922849938273430e-03" rms="4.5604375004768372e-01" purity="5.8171069622039795e-01" nType="-99"/>
          <Node pos="r" depth="2" NCoef="0" IVar="-1" Cut="0.0000000000000000e+00" cType="1" res="1.0179041419178247e-04" rms="4.3871009349822998e-01" purity="6.8311315774917603e-01" nType="-99"/>
        </Node>
        <Node pos="r" depth="1" NCoef="0" IVar="8" Cut="7.7011227607727051e-01" cType="1" res="-5.3008768009021878e-04" rms="4.5582517981529236e-01" purity="4.8299893736839294e-01" nType="0">
          <Node pos="l" depth="2" NCoef="0" IVar="-1" Cut="0.0000000000000000e+00" cType="1" res="1.3557020574808121e-03" rms="4.5460283756256104e-01" purity="5.5404412746429443e-01" nType="-99"/>
          <Node pos="r" depth="2" NCoef="0" IVar="-1" Cut="0.0000000000000000e+00" cType="1" res="-4.4999783858656883e-04" rms="4.5597988367080688e-01" purity="4.6194735169410706e-01" nType="-99"/>
        </Node>
      </Node>
    </BinaryTree>
    <BinaryTree type="DecisionTree" boostWeight="1.0000000000000000e+00" itree="1237">
      <Node pos="s" depth="0" NCoef="0" IVar="4" Cut="2.8649380803108215e-01" cType="1" res="-1.1009613517671824e-03" rms="4.5298019051551819e-01" purity="5.0042176246643066e-01" nType="0">
        <Node pos="l" depth="1" NCoef="0" IVar="8" Cut="1.1239480972290039e+00" cType="1" res="-1.2964099645614624e-02" rms="4.4765558838844299e-01" purity="4.2811653017997742e-01" nType="0">
          <Node pos="l" depth="2" NCoef="0" IVar="-1" Cut="0.0000000000000000e+00" cType="1" res="-1.4737831661477685e-03" rms="4.5145362615585327e-01" purity="4.5851224660873413e-01" nType="-99"/>
          <Node pos="r" depth="2" NCoef="0" IVar="-1" Cut="0.0000000000000000e+00" cType="1" res="3.9051978092174977e-05" rms="4.4234144687652588e-01" purity="3.8892295956611633e-01" nType="-99"/>
        </Node>
        <Node pos="r" depth="1" NCoef="0" IVar="4" Cut="3.4005406498908997e-01" cType="1" res="4.4575021602213383e-03" rms="4.5534726977348328e-01" purity="5.3430020809173584e-01" nType="0">
          <Node pos="l" depth="2" NCoef="0" IVar="-1" Cut="0.0000000000000000e+00" cType="1" res="2.4827397428452969e-03" rms="4.5535001158714294e-01" purity="5.2631676197052002e-01" nType="-99"/>
          <Node pos="r" depth="2" NCoef="0" IVar="-1" Cut="0.0000000000000000e+00" cType="1" res="-1.0243333235848695e-04" rms="4.5507022738456726e-01" purity="5.3568506240844727e-01" nType="-99"/>
        </Node>
      </Node>
    </BinaryTree>
    <BinaryTree type="DecisionTree" boostWeight="1.0000000000000000e+00" itree="1238">
      <Node pos="s" depth="0" NCoef="0" IVar="4" Cut="3.0734196305274963e-01" cType="1" res="5.9306891635060310e-03" rms="4.5043140649795532e-01" purity="5.0564551353454590e-01" nType="0">
        <Node pos="l" depth="1" NCoef="0" IVar="6" Cut="2.2281911373138428e+00" cType="1" res="1.7905568704009056e-02" rms="4.4643417000770569e-01" purity="4.6240213513374329e-01" nType="0">
          <Node pos="l" depth="2" NCoef="0" IVar="-1" Cut="0.0000000000000000e+00" cType="1" res="2.0002927631139755e-03" rms="4.5394644141197205e-01" purity="5.5764645338058472e-01" nType="-99"/>
          <Node pos="r" depth="2" NCoef="0" IVar="-1" Cut="0.0000000000000000e+00" cType="1" res="3.1875458080321550e-04" rms="4.3930020928382874e-01" purity="3.7865543365478516e-01" nType="-99"/>
        </Node>
        <Node pos="r" depth="1" NCoef="0" IVar="4" Cut="3.9185473322868347e-01" cType="1" res="-6.6692574182525277e-04" rms="4.5248323678970337e-01" purity="5.2947074174880981e-01" nType="0">
          <Node pos="l" depth="2" NCoef="0" IVar="-1" Cut="0.0000000000000000e+00" cType="1" res="-1.1848803842440248e-03" rms="4.5718848705291748e-01" purity="4.8004746437072754e-01" nType="-99"/>
          <Node pos="r" depth="2" NCoef="0" IVar="-1" Cut="0.0000000000000000e+00" cType="1" res="3.1510763801634312e-04" rms="4.5084309577941895e-01" purity="5.4501712322235107e-01" nType="-99"/>
        </Node>
      </Node>
    </BinaryTree>
    <BinaryTree type="DecisionTree" boostWeight="1.0000000000000000e+00" itree="1239">
      <Node pos="s" depth="0" NCoef="0" IVar="4" Cut="5.1894897222518921e-01" cType="1" res="-7.2223157621920109e-04" rms="4.5244506001472473e-01" purity="4.9873957037925720e-01" nType="0">
        <Node pos="l" depth="1" NCoef="0" IVar="9" Cut="4.1940405964851379e-01" cType="1" res="-7.2048786096274853e-03" rms="4.5177021622657776e-01" purity="4.6884706616401672e-01" nType="0">
          <Node pos="l" depth="2" NCoef="0" IVar="-1" Cut="0.0000000000000000e+00" cType="1" res="-1.5308914007619023e-03" rms="4.5248389244079590e-01" purity="5.0061053037643433e-01" nType="-99"/>
          <Node pos="r" depth="2" NCoef="0" IVar="-1" Cut="0.0000000000000000e+00" cType="1" res="7.9003897553775460e-05" rms="4.5117792487144470e-01" purity="4.5312070846557617e-01" nType="-99"/>
        </Node>
        <Node pos="r" depth="1" NCoef="0" IVar="6" Cut="2.2590205669403076e+00" cType="1" res="1.5571385622024536e-02" rms="4.5372802019119263e-01" purity="5.7387202978134155e-01" nType="0">
          <Node pos="l" depth="2" NCoef="0" IVar="-1" Cut="0.0000000000000000e+00" cType="1" res="2.8978296904824674e-04" rms="4.4624990224838257e-01" purity="5.9572285413742065e-01" nType="-99"/>
          <Node pos="r" depth="2" NCoef="0" IVar="-1" Cut="0.0000000000000000e+00" cType="1" res="2.3412478622049093e-03" rms="4.6784552931785583e-01" purity="5.2917772531509399e-01" nType="-99"/>
        </Node>
      </Node>
    </BinaryTree>
    <BinaryTree type="DecisionTree" boostWeight="1.0000000000000000e+00" itree="1240">
      <Node pos="s" depth="0" NCoef="0" IVar="9" Cut="8.3640456199645996e-01" cType="1" res="1.4332057617139071e-04" rms="4.5464384555816650e-01" purity="5.0175243616104126e-01" nType="0">
        <Node pos="l" depth="1" NCoef="0" IVar="9" Cut="2.5412574410438538e-01" cType="1" res="-4.1851401329040527e-03" rms="4.5382183790206909e-01" purity="5.1804935932159424e-01" nType="0">
          <Node pos="l" depth="2" NCoef="0" IVar="-1" Cut="0.0000000000000000e+00" cType="1" res="1.0320094879716635e-03" rms="4.5396837592124939e-01" purity="5.7853507995605469e-01" nType="-99"/>
          <Node pos="r" depth="2" NCoef="0" IVar="-1" Cut="0.0000000000000000e+00" cType="1" res="-5.4887949954718351e-04" rms="4.5366489887237549e-01" purity="5.0477451086044312e-01" nType="-99"/>
        </Node>
        <Node pos="r" depth="1" NCoef="0" IVar="3" Cut="6.5314792096614838e-02" cType="1" res="1.9431453198194504e-02" rms="4.5779159665107727e-01" purity="4.2913162708282471e-01" nType="0">
          <Node pos="l" depth="2" NCoef="0" IVar="-1" Cut="0.0000000000000000e+00" cType="1" res="-4.0310045005753636e-04" rms="4.5988348126411438e-01" purity="4.1811677813529968e-01" nType="-99"/>
          <Node pos="r" depth="2" NCoef="0" IVar="-1" Cut="0.0000000000000000e+00" cType="1" res="3.8695118855684996e-03" rms="4.5173785090446472e-01" purity="4.4599074125289917e-01" nType="-99"/>
        </Node>
      </Node>
    </BinaryTree>
    <BinaryTree type="DecisionTree" boostWeight="1.0000000000000000e+00" itree="1241">
      <Node pos="s" depth="0" NCoef="0" IVar="5" Cut="9.1147607564926147e-01" cType="1" res="3.2888110727071762e-03" rms="4.5165193080902100e-01" purity="5.0397050380706787e-01" nType="0">
        <Node pos="l" depth="1" NCoef="0" IVar="-1" Cut="0.0000000000000000e+00" cType="1" res="-2.1079066209495068e-03" rms="4.2193338274955750e-01" purity="2.6743581891059875e-01" nType="-99"/>
        <Node pos="r" depth="1" NCoef="0" IVar="4" Cut="3.1379055976867676e-01" cType="1" res="6.2888734973967075e-03" rms="4.5398238301277161e-01" purity="5.2423852682113647e-01" nType="0">
          <Node pos="l" depth="2" NCoef="0" IVar="-1" Cut="0.0000000000000000e+00" cType="1" res="-3.2163073774427176e-04" rms="4.5324888825416565e-01" purity="4.5821374654769897e-01" nType="-99"/>
          <Node pos="r" depth="2" NCoef="0" IVar="-1" Cut="0.0000000000000000e+00" cType="1" res="8.0859271110966802e-04" rms="4.5427316427230835e-01" purity="5.6201529502868652e-01" nType="-99"/>
        </Node>
      </Node>
    </BinaryTree>
    <BinaryTree type="DecisionTree" boostWeight="1.0000000000000000e+00" itree="1242">
      <Node pos="s" depth="0" NCoef="0" IVar="1" Cut="8.8294189453125000e+02" cType="1" res="2.2167724091559649e-03" rms="4.5287069678306580e-01" purity="5.0067079067230225e-01" nType="0">
        <Node pos="l" depth="1" NCoef="0" IVar="5" Cut="9.6807789802551270e-01" cType="1" res="4.7249733470380306e-03" rms="4.5261695981025696e-01" purity="4.9140048027038574e-01" nType="0">
          <Node pos="l" depth="2" NCoef="0" IVar="-1" Cut="0.0000000000000000e+00" cType="1" res="6.4629851840436459e-04" rms="4.5802438259124756e-01" purity="4.2671218514442444e-01" nType="-99"/>
          <Node pos="r" depth="2" NCoef="0" IVar="-1" Cut="0.0000000000000000e+00" cType="1" res="-6.9566670572385192e-04" rms="4.3813246488571167e-01" purity="6.5681493282318115e-01" nType="-99"/>
        </Node>
        <Node pos="r" depth="1" NCoef="0" IVar="-1" Cut="0.0000000000000000e+00" cType="1" res="-1.7236804123967886e-03" rms="4.5478728413581848e-01" purity="6.0748893022537231e-01" nType="-99"/>
      </Node>
    </BinaryTree>
    <BinaryTree type="DecisionTree" boostWeight="1.0000000000000000e+00" itree="1243">
      <Node pos="s" depth="0" NCoef="0" IVar="6" Cut="2.3754925727844238e+00" cType="1" res="2.9888637363910675e-03" rms="4.5492562651634216e-01" purity="5.0541186332702637e-01" nType="0">
        <Node pos="l" depth="1" NCoef="0" IVar="1" Cut="4.5798385620117188e+02" cType="1" res="-2.6266060303896666e-03" rms="4.5453765988349915e-01" purity="5.4991281032562256e-01" nType="0">
          <Node pos="l" depth="2" NCoef="0" IVar="-1" Cut="0.0000000000000000e+00" cType="1" res="-1.4093099161982536e-03" rms="4.5080807805061340e-01" purity="4.1159042716026306e-01" nType="-99"/>
          <Node pos="r" depth="2" NCoef="0" IVar="-1" Cut="0.0000000000000000e+00" cType="1" res="3.3594778506085277e-04" rms="4.5578560233116150e-01" purity="6.0563313961029053e-01" nType="-99"/>
        </Node>
        <Node pos="r" depth="1" NCoef="0" IVar="1" Cut="4.1723254394531250e+02" cType="1" res="1.6075523570179939e-02" rms="4.5555996894836426e-01" purity="4.0170413255691528e-01" nType="0">
          <Node pos="l" depth="2" NCoef="0" IVar="-1" Cut="0.0000000000000000e+00" cType="1" res="3.7422694731503725e-03" rms="4.3836262822151184e-01" purity="3.3086907863616943e-01" nType="-99"/>
          <Node pos="r" depth="2" NCoef="0" IVar="-1" Cut="0.0000000000000000e+00" cType="1" res="4.2715625022538006e-04" rms="4.5982688665390015e-01" purity="4.2150625586509705e-01" nType="-99"/>
        </Node>
      </Node>
    </BinaryTree>
    <BinaryTree type="DecisionTree" boostWeight="1.0000000000000000e+00" itree="1244">
      <Node pos="s" depth="0" NCoef="0" IVar="2" Cut="1.1392433929443359e+02" cType="1" res="1.5319166705012321e-03" rms="4.5247155427932739e-01" purity="5.0094473361968994e-01" nType="0">
        <Node pos="l" depth="1" NCoef="0" IVar="5" Cut="9.8751580715179443e-01" cType="1" res="-4.4784490019083023e-03" rms="4.5447379350662231e-01" purity="4.7780492901802063e-01" nType="0">
          <Node pos="l" depth="2" NCoef="0" IVar="-1" Cut="0.0000000000000000e+00" cType="1" res="-4.7392403939738870e-04" rms="4.6010941267013550e-01" purity="4.4894623756408691e-01" nType="-99"/>
          <Node pos="r" depth="2" NCoef="0" IVar="-1" Cut="0.0000000000000000e+00" cType="1" res="2.4636473972350359e-03" rms="3.8486954569816589e-01" purity="7.9723381996154785e-01" nType="-99"/>
        </Node>
        <Node pos="r" depth="1" NCoef="0" IVar="9" Cut="8.1987053155899048e-01" cType="1" res="1.1788691394031048e-02" rms="4.4884821772575378e-01" purity="5.4043322801589966e-01" nType="0">
          <Node pos="l" depth="2" NCoef="0" IVar="-1" Cut="0.0000000000000000e+00" cType="1" res="1.3703199801966548e-03" rms="4.4822695851325989e-01" purity="5.8367514610290527e-01" nType="-99"/>
          <Node pos="r" depth="2" NCoef="0" IVar="-1" Cut="0.0000000000000000e+00" cType="1" res="-1.2451837537810206e-03" rms="4.4946658611297607e-01" purity="4.0014708042144775e-01" nType="-99"/>
        </Node>
      </Node>
    </BinaryTree>
    <BinaryTree type="DecisionTree" boostWeight="1.0000000000000000e+00" itree="1245">
      <Node pos="s" depth="0" NCoef="0" IVar="6" Cut="2.1474173069000244e+00" cType="1" res="2.6647010236047208e-04" rms="4.5092943310737610e-01" purity="4.9932101368904114e-01" nType="0">
        <Node pos="l" depth="1" NCoef="0" IVar="9" Cut="5.0945758819580078e-01" cType="1" res="8.8393688201904297e-03" rms="4.5101246237754822e-01" purity="5.7472711801528931e-01" nType="0">
          <Node pos="l" depth="2" NCoef="0" IVar="-1" Cut="0.0000000000000000e+00" cType="1" res="-8.9320164988748729e-05" rms="4.4767311215400696e-01" purity="5.7883799076080322e-01" nType="-99"/>
          <Node pos="r" depth="2" NCoef="0" IVar="-1" Cut="0.0000000000000000e+00" cType="1" res="1.6456622397527099e-03" rms="4.5630165934562683e-01" purity="5.6744509935379028e-01" nType="-99"/>
        </Node>
        <Node pos="r" depth="1" NCoef="0" IVar="9" Cut="2.9481244087219238e-01" cType="1" res="-5.8174608275294304e-03" rms="4.5077162981033325e-01" purity="4.4580754637718201e-01" nType="0">
          <Node pos="l" depth="2" NCoef="0" IVar="-1" Cut="0.0000000000000000e+00" cType="1" res="-2.4703429080545902e-03" rms="4.5031344890594482e-01" purity="4.6080127358436584e-01" nType="-99"/>
          <Node pos="r" depth="2" NCoef="0" IVar="-1" Cut="0.0000000000000000e+00" cType="1" res="-9.0820765763055533e-05" rms="4.5065388083457947e-01" purity="4.4377636909484863e-01" nType="-99"/>
        </Node>
      </Node>
    </BinaryTree>
    <BinaryTree type="DecisionTree" boostWeight="1.0000000000000000e+00" itree="1246">
      <Node pos="s" depth="0" NCoef="0" IVar="4" Cut="1.5803685784339905e-01" cType="1" res="1.8882971489802003e-03" rms="4.5328599214553833e-01" purity="5.0037950277328491e-01" nType="0">
        <Node pos="l" depth="1" NCoef="0" IVar="3" Cut="1.2136833369731903e-01" cType="1" res="2.2955315187573433e-02" rms="4.4801864027976990e-01" purity="4.1057771444320679e-01" nType="0">
          <Node pos="l" depth="2" NCoef="0" IVar="-1" Cut="0.0000000000000000e+00" cType="1" res="1.2024676834698766e-04" rms="4.4484221935272217e-01" purity="3.9954507350921631e-01" nType="-99"/>
          <Node pos="r" depth="2" NCoef="0" IVar="-1" Cut="0.0000000000000000e+00" cType="1" res="3.0108776409178972e-03" rms="4.5023885369300842e-01" purity="4.2198264598846436e-01" nType="-99"/>
        </Node>
        <Node pos="r" depth="1" NCoef="0" IVar="1" Cut="6.6988061523437500e+02" cType="1" res="-6.2116258777678013e-04" rms="4.5384418964385986e-01" purity="5.1107656955718994e-01" nType="0">
          <Node pos="l" depth="2" NCoef="0" IVar="-1" Cut="0.0000000000000000e+00" cType="1" res="2.2890161199029535e-04" rms="4.5314502716064453e-01" purity="4.8032054305076599e-01" nType="-99"/>
          <Node pos="r" depth="2" NCoef="0" IVar="-1" Cut="0.0000000000000000e+00" cType="1" res="-1.0155480122193694e-03" rms="4.5598649978637695e-01" purity="6.1985671520233154e-01" nType="-99"/>
        </Node>
      </Node>
    </BinaryTree>
    <BinaryTree type="DecisionTree" boostWeight="1.0000000000000000e+00" itree="1247">
      <Node pos="s" depth="0" NCoef="0" IVar="5" Cut="9.9095815420150757e-01" cType="1" res="4.4601308181881905e-03" rms="4.5256310701370239e-01" purity="5.0372612476348877e-01" nType="0">
        <Node pos="l" depth="1" NCoef="0" IVar="3" Cut="1.7435638606548309e-01" cType="1" res="2.3700930178165436e-03" rms="4.5656704902648926e-01" purity="4.8603051900863647e-01" nType="0">
          <Node pos="l" depth="2" NCoef="0" IVar="-1" Cut="0.0000000000000000e+00" cType="1" res="3.0224947840906680e-04" rms="4.5789688825607300e-01" purity="4.9343758821487427e-01" nType="-99"/>
          <Node pos="r" depth="2" NCoef="0" IVar="-1" Cut="0.0000000000000000e+00" cType="1" res="-2.1467325277626514e-03" rms="4.3589302897453308e-01" purity="3.8163450360298157e-01" nType="-99"/>
        </Node>
        <Node pos="r" depth="1" NCoef="0" IVar="-1" Cut="0.0000000000000000e+00" cType="1" res="3.2580066472291946e-03" rms="3.7281003594398499e-01" purity="8.1670522689819336e-01" nType="-99"/>
      </Node>
    </BinaryTree>
    <BinaryTree type="DecisionTree" boostWeight="1.0000000000000000e+00" itree="1248">
      <Node pos="s" depth="0" NCoef="0" IVar="0" Cut="2.8006470203399658e+00" cType="1" res="-2.6167356409132481e-03" rms="4.5178413391113281e-01" purity="4.9747660756111145e-01" nType="0">
        <Node pos="l" depth="1" NCoef="0" IVar="8" Cut="7.7715253829956055e-01" cType="1" res="-1.4327705837786198e-02" rms="4.5211380720138550e-01" purity="3.6357107758522034e-01" nType="0">
          <Node pos="l" depth="2" NCoef="0" IVar="-1" Cut="0.0000000000000000e+00" cType="1" res="-2.2461107000708580e-03" rms="4.6374726295471191e-01" purity="3.8784670829772949e-01" nType="-99"/>
          <Node pos="r" depth="2" NCoef="0" IVar="-1" Cut="0.0000000000000000e+00" cType="1" res="-4.8902671551331878e-04" rms="4.4836428761482239e-01" purity="3.5633313655853271e-01" nType="-99"/>
        </Node>
        <Node pos="r" depth="1" NCoef="0" IVar="6" Cut="1.7987544536590576e+00" cType="1" res="9.4640376046299934e-03" rms="4.5112535357475281e-01" purity="6.3561058044433594e-01" nType="0">
          <Node pos="l" depth="2" NCoef="0" IVar="-1" Cut="0.0000000000000000e+00" cType="1" res="-1.5747598372399807e-03" rms="4.3788838386535645e-01" purity="6.8280917406082153e-01" nType="-99"/>
          <Node pos="r" depth="2" NCoef="0" IVar="-1" Cut="0.0000000000000000e+00" cType="1" res="1.0019727051258087e-03" rms="4.5352196693420410e-01" purity="6.2581837177276611e-01" nType="-99"/>
        </Node>
      </Node>
    </BinaryTree>
    <BinaryTree type="DecisionTree" boostWeight="1.0000000000000000e+00" itree="1249">
      <Node pos="s" depth="0" NCoef="0" IVar="5" Cut="9.6111053228378296e-01" cType="1" res="5.5783204734325409e-03" rms="4.5555371046066284e-01" purity="5.0611436367034912e-01" nType="0">
        <Node pos="l" depth="1" NCoef="0" IVar="2" Cut="5.3129909515380859e+01" cType="1" res="1.4264184050261974e-02" rms="4.6011176705360413e-01" purity="4.2800536751747131e-01" nType="0">
          <Node pos="l" depth="2" NCoef="0" IVar="-1" Cut="0.0000000000000000e+00" cType="1" res="2.4764554109424353e-03" rms="4.6232846379280090e-01" purity="4.2825257778167725e-01" nType="-99"/>
          <Node pos="r" depth="2" NCoef="0" IVar="-1" Cut="0.0000000000000000e+00" cType="1" res="6.1878858832642436e-04" rms="4.5961886644363403e-01" purity="4.2796635627746582e-01" nType="-99"/>
        </Node>
        <Node pos="r" depth="1" NCoef="0" IVar="3" Cut="8.2131370902061462e-02" cType="1" res="-8.9400261640548706e-03" rms="4.4745510816574097e-01" purity="6.3667279481887817e-01" nType="0">
          <Node pos="l" depth="2" NCoef="0" IVar="-1" Cut="0.0000000000000000e+00" cType="1" res="-1.2480070581659675e-03" rms="4.4760355353355408e-01" purity="6.4092612266540527e-01" nType="-99"/>
          <Node pos="r" depth="2" NCoef="0" IVar="-1" Cut="0.0000000000000000e+00" cType="1" res="1.4098823303356767e-03" rms="4.4556760787963867e-01" purity="6.2308001518249512e-01" nType="-99"/>
        </Node>
      </Node>
    </BinaryTree>
    <BinaryTree type="DecisionTree" boostWeight="1.0000000000000000e+00" itree="1250">
      <Node pos="s" depth="0" NCoef="0" IVar="9" Cut="8.2487422227859497e-01" cType="1" res="-2.6488127186894417e-03" rms="4.5182618498802185e-01" purity="4.9857157468795776e-01" nType="0">
        <Node pos="l" depth="1" NCoef="0" IVar="7" Cut="1.0135766601562500e+02" cType="1" res="3.0536223202943802e-03" rms="4.5344007015228271e-01" purity="5.2407974004745483e-01" nType="0">
          <Node pos="l" depth="2" NCoef="0" IVar="-1" Cut="0.0000000000000000e+00" cType="1" res="-1.6169740410987288e-04" rms="4.5567664504051208e-01" purity="4.9802252650260925e-01" nType="-99"/>
          <Node pos="r" depth="2" NCoef="0" IVar="-1" Cut="0.0000000000000000e+00" cType="1" res="2.1755073685199022e-03" rms="4.3978762626647949e-01" purity="6.6605144739151001e-01" nType="-99"/>
        </Node>
        <Node pos="r" depth="1" NCoef="0" IVar="3" Cut="-7.2109228931367397e-03" cType="1" res="-2.7769370004534721e-02" rms="4.4377538561820984e-01" purity="3.8620221614837646e-01" nType="0">
          <Node pos="l" depth="2" NCoef="0" IVar="-1" Cut="0.0000000000000000e+00" cType="1" res="-3.7059301976114511e-03" rms="4.4694507122039795e-01" purity="3.9202085137367249e-01" nType="-99"/>
          <Node pos="r" depth="2" NCoef="0" IVar="-1" Cut="0.0000000000000000e+00" cType="1" res="-1.0457931784912944e-03" rms="4.4198274612426758e-01" purity="3.8396486639976501e-01" nType="-99"/>
        </Node>
      </Node>
    </BinaryTree>
    <BinaryTree type="DecisionTree" boostWeight="1.0000000000000000e+00" itree="1251">
      <Node pos="s" depth="0" NCoef="0" IVar="8" Cut="5.6251567602157593e-01" cType="1" res="-1.4513703063130379e-03" rms="4.5265799760818481e-01" purity="5.0016242265701294e-01" nType="0">
        <Node pos="l" depth="1" NCoef="0" IVar="-1" Cut="0.0000000000000000e+00" cType="1" res="2.7076185215264559e-03" rms="4.3789571523666382e-01" purity="6.0870796442031860e-01" nType="-99"/>
        <Node pos="r" depth="1" NCoef="0" IVar="0" Cut="1.0562009811401367e+00" cType="1" res="-4.2354967445135117e-03" rms="4.5343607664108276e-01" purity="4.9326956272125244e-01" nType="0">
          <Node pos="l" depth="2" NCoef="0" IVar="-1" Cut="0.0000000000000000e+00" cType="1" res="-2.2510029375553131e-03" rms="4.1224369406700134e-01" purity="2.4349302053451538e-01" nType="-99"/>
          <Node pos="r" depth="2" NCoef="0" IVar="-1" Cut="0.0000000000000000e+00" cType="1" res="-1.2568329111672938e-04" rms="4.5684960484504700e-01" purity="5.1545566320419312e-01" nType="-99"/>
        </Node>
      </Node>
    </BinaryTree>
    <BinaryTree type="DecisionTree" boostWeight="1.0000000000000000e+00" itree="1252">
      <Node pos="s" depth="0" NCoef="0" IVar="7" Cut="1.0787809753417969e+02" cType="1" res="7.3372456245124340e-04" rms="4.5131760835647583e-01" purity="5.0026643276214600e-01" nType="0">
        <Node pos="l" depth="1" NCoef="0" IVar="8" Cut="1.1776982545852661e+00" cType="1" res="-3.4455864224582911e-03" rms="4.5270183682441711e-01" purity="4.7975593805313110e-01" nType="0">
          <Node pos="l" depth="2" NCoef="0" IVar="-1" Cut="0.0000000000000000e+00" cType="1" res="2.8496677987277508e-04" rms="4.5658773183822632e-01" purity="5.1484519243240356e-01" nType="-99"/>
          <Node pos="r" depth="2" NCoef="0" IVar="-1" Cut="0.0000000000000000e+00" cType="1" res="-9.2928059166297317e-04" rms="4.4698378443717957e-01" purity="4.3079754710197449e-01" nType="-99"/>
        </Node>
        <Node pos="r" depth="1" NCoef="0" IVar="7" Cut="1.3050981140136719e+02" cType="1" res="3.1427878886461258e-02" rms="4.3980324268341064e-01" purity="6.5090185403823853e-01" nType="0">
          <Node pos="l" depth="2" NCoef="0" IVar="-1" Cut="0.0000000000000000e+00" cType="1" res="3.4865089692175388e-03" rms="4.3611553311347961e-01" purity="6.5776813030242920e-01" nType="-99"/>
          <Node pos="r" depth="2" NCoef="0" IVar="-1" Cut="0.0000000000000000e+00" cType="1" res="3.4068338572978973e-04" rms="4.4249278306961060e-01" purity="6.4310461282730103e-01" nType="-99"/>
        </Node>
      </Node>
    </BinaryTree>
    <BinaryTree type="DecisionTree" boostWeight="1.0000000000000000e+00" itree="1253">
      <Node pos="s" depth="0" NCoef="0" IVar="9" Cut="1.0423622131347656e+00" cType="1" res="1.7586268950253725e-04" rms="4.5275762677192688e-01" purity="4.9908185005187988e-01" nType="0">
        <Node pos="l" depth="1" NCoef="0" IVar="9" Cut="4.2499202489852905e-01" cType="1" res="2.0457301288843155e-03" rms="4.5362925529479980e-01" purity="5.0972205400466919e-01" nType="0">
          <Node pos="l" depth="2" NCoef="0" IVar="-1" Cut="0.0000000000000000e+00" cType="1" res="-4.8339294153265655e-04" rms="4.5166739821434021e-01" purity="5.3964507579803467e-01" nType="-99"/>
          <Node pos="r" depth="2" NCoef="0" IVar="-1" Cut="0.0000000000000000e+00" cType="1" res="5.3376902360469103e-04" rms="4.5481434464454651e-01" purity="4.8984086513519287e-01" nType="-99"/>
        </Node>
        <Node pos="r" depth="1" NCoef="0" IVar="-1" Cut="0.0000000000000000e+00" cType="1" res="-1.8913460662588477e-03" rms="4.3839529156684875e-01" purity="3.3818295598030090e-01" nType="-99"/>
      </Node>
    </BinaryTree>
    <BinaryTree type="DecisionTree" boostWeight="1.0000000000000000e+00" itree="1254">
      <Node pos="s" depth="0" NCoef="0" IVar="6" Cut="2.7389073371887207e+00" cType="1" res="-1.0522380471229553e-03" rms="4.5412009954452515e-01" purity="4.9923068284988403e-01" nType="0">
        <Node pos="l" depth="1" NCoef="0" IVar="5" Cut="9.7202646732330322e-01" cType="1" res="2.5567580014467239e-03" rms="4.5974230766296387e-01" purity="5.2752190828323364e-01" nType="0">
          <Node pos="l" depth="2" NCoef="0" IVar="-1" Cut="0.0000000000000000e+00" cType="1" res="5.2565900841727853e-04" rms="4.6671596169471741e-01" purity="4.7273477911949158e-01" nType="-99"/>
          <Node pos="r" depth="2" NCoef="0" IVar="-1" Cut="0.0000000000000000e+00" cType="1" res="-1.1668963124975562e-03" rms="4.3707996606826782e-01" purity="6.9578671455383301e-01" nType="-99"/>
        </Node>
        <Node pos="r" depth="1" NCoef="0" IVar="-1" Cut="0.0000000000000000e+00" cType="1" res="-2.6951159816235304e-03" rms="3.9496630430221558e-01" purity="2.2984935343265533e-01" nType="-99"/>
      </Node>
    </BinaryTree>
    <BinaryTree type="DecisionTree" boostWeight="1.0000000000000000e+00" itree="1255">
      <Node pos="s" depth="0" NCoef="0" IVar="3" Cut="6.1043813824653625e-02" cType="1" res="-1.3833492994308472e-03" rms="4.5263463258743286e-01" purity="5.0129854679107666e-01" nType="0">
        <Node pos="l" depth="1" NCoef="0" IVar="2" Cut="9.7175262451171875e+01" cType="1" res="6.6743735224008560e-03" rms="4.5412874221801758e-01" purity="5.3135514259338379e-01" nType="0">
          <Node pos="l" depth="2" NCoef="0" IVar="-1" Cut="0.0000000000000000e+00" cType="1" res="-3.7618022179231048e-04" rms="4.5635530352592468e-01" purity="4.8924970626831055e-01" nType="-99"/>
          <Node pos="r" depth="2" NCoef="0" IVar="-1" Cut="0.0000000000000000e+00" cType="1" res="1.1906253639608622e-03" rms="4.5166966319084167e-01" purity="5.7139009237289429e-01" nType="-99"/>
        </Node>
        <Node pos="r" depth="1" NCoef="0" IVar="9" Cut="3.8387975096702576e-01" cType="1" res="-1.7721073701977730e-02" rms="4.4914647936820984e-01" purity="4.4035631418228149e-01" nType="0">
          <Node pos="l" depth="2" NCoef="0" IVar="-1" Cut="0.0000000000000000e+00" cType="1" res="-2.6229007635265589e-03" rms="4.4861528277397156e-01" purity="4.7795084118843079e-01" nType="-99"/>
          <Node pos="r" depth="2" NCoef="0" IVar="-1" Cut="0.0000000000000000e+00" cType="1" res="-5.8533158153295517e-04" rms="4.4902524352073669e-01" purity="4.2689526081085205e-01" nType="-99"/>
        </Node>
      </Node>
    </BinaryTree>
    <BinaryTree type="DecisionTree" boostWeight="1.0000000000000000e+00" itree="1256">
      <Node pos="s" depth="0" NCoef="0" IVar="7" Cut="9.1444252014160156e+01" cType="1" res="-6.4017530530691147e-03" rms="4.5529848337173462e-01" purity="4.9213910102844238e-01" nType="0">
        <Node pos="l" depth="1" NCoef="0" IVar="3" Cut="5.8033309876918793e-02" cType="1" res="-2.4340443778783083e-03" rms="4.5626172423362732e-01" purity="4.6808221936225891e-01" nType="0">
          <Node pos="l" depth="2" NCoef="0" IVar="-1" Cut="0.0000000000000000e+00" cType="1" res="2.4062163720373064e-04" rms="4.6121206879615784e-01" purity="5.0200206041336060e-01" nType="-99"/>
          <Node pos="r" depth="2" NCoef="0" IVar="-1" Cut="0.0000000000000000e+00" cType="1" res="-9.3058828497305512e-04" rms="4.4639819860458374e-01" purity="4.0323439240455627e-01" nType="-99"/>
        </Node>
        <Node pos="r" depth="1" NCoef="0" IVar="5" Cut="9.5005828142166138e-01" cType="1" res="-2.1445473656058311e-02" rms="4.5131081342697144e-01" purity="5.8335185050964355e-01" nType="0">
          <Node pos="l" depth="2" NCoef="0" IVar="-1" Cut="0.0000000000000000e+00" cType="1" res="-2.9674945399165154e-03" rms="4.6801918745040894e-01" purity="4.4699347019195557e-01" nType="-99"/>
          <Node pos="r" depth="2" NCoef="0" IVar="-1" Cut="0.0000000000000000e+00" cType="1" res="8.0301178968511522e-05" rms="4.3657493591308594e-01" purity="6.8910789489746094e-01" nType="-99"/>
        </Node>
      </Node>
    </BinaryTree>
    <BinaryTree type="DecisionTree" boostWeight="1.0000000000000000e+00" itree="1257">
      <Node pos="s" depth="0" NCoef="0" IVar="5" Cut="9.5737403631210327e-01" cType="1" res="2.8906459920108318e-04" rms="4.5478674769401550e-01" purity="5.0251847505569458e-01" nType="0">
        <Node pos="l" depth="1" NCoef="0" IVar="9" Cut="5.6151801347732544e-01" cType="1" res="9.2649646103382111e-03" rms="4.5814383029937744e-01" purity="4.1580095887184143e-01" nType="0">
          <Node pos="l" depth="2" NCoef="0" IVar="-1" Cut="0.0000000000000000e+00" cType="1" res="1.0623331181704998e-03" rms="4.6521311998367310e-01" purity="4.5728743076324463e-01" nType="-99"/>
          <Node pos="r" depth="2" NCoef="0" IVar="-1" Cut="0.0000000000000000e+00" cType="1" res="-2.7184392820345238e-05" rms="4.4970479607582092e-01" purity="3.6822614073753357e-01" nType="-99"/>
        </Node>
        <Node pos="r" depth="1" NCoef="0" IVar="6" Cut="2.5582120418548584e+00" cType="1" res="-1.1681204661726952e-02" rms="4.4999223947525024e-01" purity="6.1816495656967163e-01" nType="0">
          <Node pos="l" depth="2" NCoef="0" IVar="-1" Cut="0.0000000000000000e+00" cType="1" res="-1.1167448246851563e-03" rms="4.4683650135993958e-01" purity="6.4620000123977661e-01" nType="-99"/>
          <Node pos="r" depth="2" NCoef="0" IVar="-1" Cut="0.0000000000000000e+00" cType="1" res="1.0986730922013521e-03" rms="4.6672025322914124e-01" purity="4.5622402429580688e-01" nType="-99"/>
        </Node>
      </Node>
    </BinaryTree>
    <BinaryTree type="DecisionTree" boostWeight="1.0000000000000000e+00" itree="1258">
      <Node pos="s" depth="0" NCoef="0" IVar="2" Cut="2.0794050598144531e+02" cType="1" res="-8.3828391507267952e-04" rms="4.5246204733848572e-01" purity="4.9825379252433777e-01" nType="0">
        <Node pos="l" depth="1" NCoef="0" IVar="8" Cut="1.6385000944137573e+00" cType="1" res="1.4551577623933554e-03" rms="4.5263639092445374e-01" purity="5.0078010559082031e-01" nType="0">
          <Node pos="l" depth="2" NCoef="0" IVar="-1" Cut="0.0000000000000000e+00" cType="1" res="2.9946511494927108e-04" rms="4.5429387688636780e-01" purity="5.1348859071731567e-01" nType="-99"/>
          <Node pos="r" depth="2" NCoef="0" IVar="-1" Cut="0.0000000000000000e+00" cType="1" res="-1.6076172469183803e-03" rms="4.3848749995231628e-01" purity="4.0068763494491577e-01" nType="-99"/>
        </Node>
        <Node pos="r" depth="1" NCoef="0" IVar="-1" Cut="0.0000000000000000e+00" cType="1" res="-2.8264899738132954e-03" rms="4.4711425900459290e-01" purity="4.5155915617942810e-01" nType="-99"/>
      </Node>
    </BinaryTree>
    <BinaryTree type="DecisionTree" boostWeight="1.0000000000000000e+00" itree="1259">
      <Node pos="s" depth="0" NCoef="0" IVar="9" Cut="1.6945879161357880e-01" cType="1" res="-2.3130832705646753e-03" rms="4.5294955372810364e-01" purity="4.9770161509513855e-01" nType="0">
        <Node pos="l" depth="1" NCoef="0" IVar="-1" Cut="0.0000000000000000e+00" cType="1" res="2.6377863250672817e-03" rms="4.4232356548309326e-01" purity="6.0126155614852905e-01" nType="-99"/>
        <Node pos="r" depth="1" NCoef="0" IVar="4" Cut="1.8365013599395752e-01" cType="1" res="-5.9192948974668980e-03" rms="4.5362010598182678e-01" purity="4.8921489715576172e-01" nType="0">
          <Node pos="l" depth="2" NCoef="0" IVar="-1" Cut="0.0000000000000000e+00" cType="1" res="1.1228554649278522e-03" rms="4.4969737529754639e-01" purity="4.2488330602645874e-01" nType="-99"/>
          <Node pos="r" depth="2" NCoef="0" IVar="-1" Cut="0.0000000000000000e+00" cType="1" res="-6.3972553471103311e-04" rms="4.5420715212821960e-01" purity="5.0099998712539673e-01" nType="-99"/>
        </Node>
      </Node>
    </BinaryTree>
    <BinaryTree type="DecisionTree" boostWeight="1.0000000000000000e+00" itree="1260">
      <Node pos="s" depth="0" NCoef="0" IVar="6" Cut="2.2052710056304932e+00" cType="1" res="-2.3954082280397415e-03" rms="4.5384517312049866e-01" purity="4.9657094478607178e-01" nType="0">
        <Node pos="l" depth="1" NCoef="0" IVar="4" Cut="5.4473131895065308e-01" cType="1" res="6.7683039233088493e-03" rms="4.5363470911979675e-01" purity="5.6923192739486694e-01" nType="0">
          <Node pos="l" depth="2" NCoef="0" IVar="-1" Cut="0.0000000000000000e+00" cType="1" res="-1.1004403495462611e-04" rms="4.5930266380310059e-01" purity="5.4710972309112549e-01" nType="-99"/>
          <Node pos="r" depth="2" NCoef="0" IVar="-1" Cut="0.0000000000000000e+00" cType="1" res="1.7530962359160185e-03" rms="4.3875762820243835e-01" purity="6.2335503101348877e-01" nType="-99"/>
        </Node>
        <Node pos="r" depth="1" NCoef="0" IVar="2" Cut="1.1869776153564453e+02" cType="1" res="-1.1526344344019890e-02" rms="4.5387080311775208e-01" purity="4.2416992783546448e-01" nType="0">
          <Node pos="l" depth="2" NCoef="0" IVar="-1" Cut="0.0000000000000000e+00" cType="1" res="1.4852655294816941e-04" rms="4.4754540920257568e-01" purity="4.1091153025627136e-01" nType="-99"/>
          <Node pos="r" depth="2" NCoef="0" IVar="-1" Cut="0.0000000000000000e+00" cType="1" res="-1.7237473512068391e-03" rms="4.6047842502593994e-01" purity="4.3930751085281372e-01" nType="-99"/>
        </Node>
      </Node>
    </BinaryTree>
    <BinaryTree type="DecisionTree" boostWeight="1.0000000000000000e+00" itree="1261">
      <Node pos="s" depth="0" NCoef="0" IVar="9" Cut="3.7501364946365356e-01" cType="1" res="3.0854409560561180e-03" rms="4.5390799641609192e-01" purity="5.0308889150619507e-01" nType="0">
        <Node pos="l" depth="1" NCoef="0" IVar="8" Cut="6.9831120967864990e-01" cType="1" res="1.5967905521392822e-02" rms="4.4968485832214355e-01" purity="5.6542599201202393e-01" nType="0">
          <Node pos="l" depth="2" NCoef="0" IVar="-1" Cut="0.0000000000000000e+00" cType="1" res="-7.9842499690130353e-04" rms="4.3711102008819580e-01" purity="5.7762885093688965e-01" nType="-99"/>
          <Node pos="r" depth="2" NCoef="0" IVar="-1" Cut="0.0000000000000000e+00" cType="1" res="1.4032139442861080e-03" rms="4.5217669010162354e-01" purity="5.6272977590560913e-01" nType="-99"/>
        </Node>
        <Node pos="r" depth="1" NCoef="0" IVar="5" Cut="9.3701827526092529e-01" cType="1" res="-2.8044716455042362e-03" rms="4.5570451021194458e-01" purity="4.7458809614181519e-01" nType="0">
          <Node pos="l" depth="2" NCoef="0" IVar="-1" Cut="0.0000000000000000e+00" cType="1" res="8.2985812332481146e-04" rms="4.4492131471633911e-01" purity="3.4478610754013062e-01" nType="-99"/>
          <Node pos="r" depth="2" NCoef="0" IVar="-1" Cut="0.0000000000000000e+00" cType="1" res="-5.6756008416414261e-04" rms="4.5984226465225220e-01" purity="5.2705246210098267e-01" nType="-99"/>
        </Node>
      </Node>
    </BinaryTree>
    <BinaryTree type="DecisionTree" boostWeight="1.0000000000000000e+00" itree="1262">
      <Node pos="s" depth="0" NCoef="0" IVar="8" Cut="8.5007452964782715e-01" cType="1" res="-9.9491048604249954e-04" rms="4.5278331637382507e-01" purity="5.0165969133377075e-01" nType="0">
        <Node pos="l" depth="1" NCoef="0" IVar="7" Cut="6.9897102355957031e+01" cType="1" res="1.1924716643989086e-02" rms="4.5460179448127747e-01" purity="5.6293499469757080e-01" nType="0">
          <Node pos="l" depth="2" NCoef="0" IVar="-1" Cut="0.0000000000000000e+00" cType="1" res="1.9278923282399774e-03" rms="4.5984694361686707e-01" purity="5.1653480529785156e-01" nType="-99"/>
          <Node pos="r" depth="2" NCoef="0" IVar="-1" Cut="0.0000000000000000e+00" cType="1" res="-1.9595977209974080e-04" rms="4.4987127184867859e-01" purity="5.9936380386352539e-01" nType="-99"/>
        </Node>
        <Node pos="r" depth="1" NCoef="0" IVar="3" Cut="1.0219340771436691e-01" cType="1" res="-6.9466684944927692e-03" rms="4.5181885361671448e-01" purity="4.7343164682388306e-01" nType="0">
          <Node pos="l" depth="2" NCoef="0" IVar="-1" Cut="0.0000000000000000e+00" cType="1" res="-1.5429721679538488e-04" rms="4.5502588152885437e-01" purity="4.9522882699966431e-01" nType="-99"/>
          <Node pos="r" depth="2" NCoef="0" IVar="-1" Cut="0.0000000000000000e+00" cType="1" res="-1.5599483158439398e-03" rms="4.3913525342941284e-01" purity="3.9144173264503479e-01" nType="-99"/>
        </Node>
      </Node>
    </BinaryTree>
    <BinaryTree type="DecisionTree" boostWeight="1.0000000000000000e+00" itree="1263">
      <Node pos="s" depth="0" NCoef="0" IVar="8" Cut="1.5031814575195312e+00" cType="1" res="-6.8918726174160838e-04" rms="4.5336973667144775e-01" purity="4.9891826510429382e-01" nType="0">
        <Node pos="l" depth="1" NCoef="0" IVar="4" Cut="2.4166926741600037e-01" cType="1" res="-4.6408977359533310e-03" rms="4.5434823632240295e-01" purity="5.0859814882278442e-01" nType="0">
          <Node pos="l" depth="2" NCoef="0" IVar="-1" Cut="0.0000000000000000e+00" cType="1" res="9.9864962976425886e-04" rms="4.5294526219367981e-01" purity="4.5930609107017517e-01" nType="-99"/>
          <Node pos="r" depth="2" NCoef="0" IVar="-1" Cut="0.0000000000000000e+00" cType="1" res="-7.0260831853374839e-04" rms="4.5460692048072815e-01" purity="5.2448892593383789e-01" nType="-99"/>
        </Node>
        <Node pos="r" depth="1" NCoef="0" IVar="3" Cut="8.1495866179466248e-02" cType="1" res="1.8215481191873550e-02" rms="4.4817730784416199e-01" purity="4.5261070132255554e-01" nType="0">
          <Node pos="l" depth="2" NCoef="0" IVar="-1" Cut="0.0000000000000000e+00" cType="1" res="2.7126788627356291e-03" rms="4.5344948768615723e-01" purity="5.0518459081649780e-01" nType="-99"/>
          <Node pos="r" depth="2" NCoef="0" IVar="-1" Cut="0.0000000000000000e+00" cType="1" res="-2.5190229061990976e-03" rms="4.3095791339874268e-01" purity="3.3441224694252014e-01" nType="-99"/>
        </Node>
      </Node>
    </BinaryTree>
    <BinaryTree type="DecisionTree" boostWeight="1.0000000000000000e+00" itree="1264">
      <Node pos="s" depth="0" NCoef="0" IVar="1" Cut="9.2131561279296875e+02" cType="1" res="-5.5238162167370319e-03" rms="4.5166981220245361e-01" purity="4.9517145752906799e-01" nType="0">
        <Node pos="l" depth="1" NCoef="0" IVar="7" Cut="7.5811408996582031e+01" cType="1" res="-3.3695029560476542e-03" rms="4.5130303502082825e-01" purity="4.8717182874679565e-01" nType="0">
          <Node pos="l" depth="2" NCoef="0" IVar="-1" Cut="0.0000000000000000e+00" cType="1" res="-6.7741581005975604e-04" rms="4.5111688971519470e-01" purity="4.3898227810859680e-01" nType="-99"/>
          <Node pos="r" depth="2" NCoef="0" IVar="-1" Cut="0.0000000000000000e+00" cType="1" res="6.8494974402710795e-04" rms="4.5132493972778320e-01" purity="5.8186471462249756e-01" nType="-99"/>
        </Node>
        <Node pos="r" depth="1" NCoef="0" IVar="-1" Cut="0.0000000000000000e+00" cType="1" res="-2.3487112484872341e-03" rms="4.5567983388900757e-01" purity="6.0621863603591919e-01" nType="-99"/>
      </Node>
    </BinaryTree>
    <BinaryTree type="DecisionTree" boostWeight="1.0000000000000000e+00" itree="1265">
      <Node pos="s" depth="0" NCoef="0" IVar="1" Cut="7.0413476562500000e+02" cType="1" res="-4.9444253090769053e-04" rms="4.5247235894203186e-01" purity="4.9898678064346313e-01" nType="0">
        <Node pos="l" depth="1" NCoef="0" IVar="7" Cut="4.7507289886474609e+01" cType="1" res="4.5707626268267632e-03" rms="4.5153665542602539e-01" purity="4.7504815459251404e-01" nType="0">
          <Node pos="l" depth="2" NCoef="0" IVar="-1" Cut="0.0000000000000000e+00" cType="1" res="-1.2609424302354455e-03" rms="4.2857220768928528e-01" purity="3.2611057162284851e-01" nType="-99"/>
          <Node pos="r" depth="2" NCoef="0" IVar="-1" Cut="0.0000000000000000e+00" cType="1" res="5.6715146638453007e-04" rms="4.5585489273071289e-01" purity="5.0485926866531372e-01" nType="-99"/>
        </Node>
        <Node pos="r" depth="1" NCoef="0" IVar="3" Cut="9.3719512224197388e-02" cType="1" res="-2.0674753934144974e-02" rms="4.5562255382537842e-01" purity="5.9436094760894775e-01" nType="0">
          <Node pos="l" depth="2" NCoef="0" IVar="-1" Cut="0.0000000000000000e+00" cType="1" res="-2.5520829949527979e-03" rms="4.5738694071769714e-01" purity="5.9111565351486206e-01" nType="-99"/>
          <Node pos="r" depth="2" NCoef="0" IVar="-1" Cut="0.0000000000000000e+00" cType="1" res="1.7032802570611238e-03" rms="4.4749513268470764e-01" purity="6.0271364450454712e-01" nType="-99"/>
        </Node>
      </Node>
    </BinaryTree>
    <BinaryTree type="DecisionTree" boostWeight="1.0000000000000000e+00" itree="1266">
      <Node pos="s" depth="0" NCoef="0" IVar="5" Cut="9.5266962051391602e-01" cType="1" res="5.3087435662746429e-03" rms="4.4996351003646851e-01" purity="5.0436520576477051e-01" nType="0">
        <Node pos="l" depth="1" NCoef="0" IVar="4" Cut="6.2063932418823242e-01" cType="1" res="-4.8025008291006088e-03" rms="4.5295864343643188e-01" purity="3.8575437664985657e-01" nType="0">
          <Node pos="l" depth="2" NCoef="0" IVar="-1" Cut="0.0000000000000000e+00" cType="1" res="-5.5544677888974547e-04" rms="4.5114341378211975e-01" purity="3.7644085288047791e-01" nType="-99"/>
          <Node pos="r" depth="2" NCoef="0" IVar="-1" Cut="0.0000000000000000e+00" cType="1" res="1.4891040045768023e-03" rms="4.6482136845588684e-01" purity="4.5327019691467285e-01" nType="-99"/>
        </Node>
        <Node pos="r" depth="1" NCoef="0" IVar="2" Cut="1.4454310607910156e+02" cType="1" res="1.5733091160655022e-02" rms="4.4661501049995422e-01" purity="6.2664884328842163e-01" nType="0">
          <Node pos="l" depth="2" NCoef="0" IVar="-1" Cut="0.0000000000000000e+00" cType="1" res="1.4262690674513578e-03" rms="4.4560462236404419e-01" purity="6.3177430629730225e-01" nType="-99"/>
          <Node pos="r" depth="2" NCoef="0" IVar="-1" Cut="0.0000000000000000e+00" cType="1" res="-9.2392403166741133e-04" rms="4.4990402460098267e-01" purity="6.0377502441406250e-01" nType="-99"/>
        </Node>
      </Node>
    </BinaryTree>
    <BinaryTree type="DecisionTree" boostWeight="1.0000000000000000e+00" itree="1267">
      <Node pos="s" depth="0" NCoef="0" IVar="9" Cut="2.9551404714584351e-01" cType="1" res="-5.7192337699234486e-03" rms="4.5195722579956055e-01" purity="4.9251595139503479e-01" nType="0">
        <Node pos="l" depth="1" NCoef="0" IVar="4" Cut="2.8581786155700684e-01" cType="1" res="5.1008271984755993e-03" rms="4.4571441411972046e-01" purity="5.6286084651947021e-01" nType="0">
          <Node pos="l" depth="2" NCoef="0" IVar="-1" Cut="0.0000000000000000e+00" cType="1" res="-2.1414365619421005e-03" rms="4.5567521452903748e-01" purity="4.8789885640144348e-01" nType="-99"/>
          <Node pos="r" depth="2" NCoef="0" IVar="-1" Cut="0.0000000000000000e+00" cType="1" res="1.1990716448053718e-03" rms="4.4140461087226868e-01" purity="5.8872687816619873e-01" nType="-99"/>
        </Node>
        <Node pos="r" depth="1" NCoef="0" IVar="2" Cut="1.5035615539550781e+02" cType="1" res="-8.4981620311737061e-03" rms="4.5350506901741028e-01" purity="4.7444924712181091e-01" nType="0">
          <Node pos="l" depth="2" NCoef="0" IVar="-1" Cut="0.0000000000000000e+00" cType="1" res="-2.9516985523514450e-04" rms="4.5254242420196533e-01" purity="4.7830429673194885e-01" nType="-99"/>
          <Node pos="r" depth="2" NCoef="0" IVar="-1" Cut="0.0000000000000000e+00" cType="1" res="-1.8008473562076688e-03" rms="4.5782917737960815e-01" purity="4.5507106184959412e-01" nType="-99"/>
        </Node>
      </Node>
    </BinaryTree>
    <BinaryTree type="DecisionTree" boostWeight="1.0000000000000000e+00" itree="1268">
      <Node pos="s" depth="0" NCoef="0" IVar="1" Cut="4.5985742187500000e+02" cType="1" res="4.6416013501584530e-03" rms="4.4925683736801147e-01" purity="5.0334519147872925e-01" nType="0">
        <Node pos="l" depth="1" NCoef="0" IVar="8" Cut="1.2080181837081909e+00" cType="1" res="-1.0363972745835781e-02" rms="4.3816843628883362e-01" purity="3.7388068437576294e-01" nType="0">
          <Node pos="l" depth="2" NCoef="0" IVar="-1" Cut="0.0000000000000000e+00" cType="1" res="4.6918829320929945e-04" rms="4.4841644167900085e-01" purity="4.2261034250259399e-01" nType="-99"/>
          <Node pos="r" depth="2" NCoef="0" IVar="-1" Cut="0.0000000000000000e+00" cType="1" res="-2.0990523044019938e-03" rms="4.2521035671234131e-01" purity="3.1801027059555054e-01" nType="-99"/>
        </Node>
        <Node pos="r" depth="1" NCoef="0" IVar="4" Cut="2.1031515300273895e-01" cType="1" res="1.1263166554272175e-02" rms="4.5390605926513672e-01" purity="5.6047445535659790e-01" nType="0">
          <Node pos="l" depth="2" NCoef="0" IVar="-1" Cut="0.0000000000000000e+00" cType="1" res="-6.7450414644554257e-04" rms="4.5491895079612732e-01" purity="4.5293250679969788e-01" nType="-99"/>
          <Node pos="r" depth="2" NCoef="0" IVar="-1" Cut="0.0000000000000000e+00" cType="1" res="1.0610754834488034e-03" rms="4.5345973968505859e-01" purity="5.8887684345245361e-01" nType="-99"/>
        </Node>
      </Node>
    </BinaryTree>
    <BinaryTree type="DecisionTree" boostWeight="1.0000000000000000e+00" itree="1269">
      <Node pos="s" depth="0" NCoef="0" IVar="6" Cut="2.7858035564422607e+00" cType="1" res="3.3610570244491100e-03" rms="4.5382374525070190e-01" purity="5.0280404090881348e-01" nType="0">
        <Node pos="l" depth="1" NCoef="0" IVar="5" Cut="9.2149102687835693e-01" cType="1" res="9.2270079767331481e-04" rms="4.5599445700645447e-01" purity="5.2080190181732178e-01" nType="0">
          <Node pos="l" depth="2" NCoef="0" IVar="-1" Cut="0.0000000000000000e+00" cType="1" res="-1.0520439827814698e-03" rms="4.3913966417312622e-01" purity="3.1116110086441040e-01" nType="-99"/>
          <Node pos="r" depth="2" NCoef="0" IVar="-1" Cut="0.0000000000000000e+00" cType="1" res="2.2528595582116395e-04" rms="4.5850479602813721e-01" purity="5.5345433950424194e-01" nType="-99"/>
        </Node>
        <Node pos="r" depth="1" NCoef="0" IVar="-1" Cut="0.0000000000000000e+00" cType="1" res="2.4106919299811125e-03" rms="4.2668449878692627e-01" purity="2.9302847385406494e-01" nType="-99"/>
      </Node>
    </BinaryTree>
    <BinaryTree type="DecisionTree" boostWeight="1.0000000000000000e+00" itree="1270">
      <Node pos="s" depth="0" NCoef="0" IVar="4" Cut="5.1502972841262817e-01" cType="1" res="1.8281953816767782e-04" rms="4.5113971829414368e-01" purity="5.0127118825912476e-01" nType="0">
        <Node pos="l" depth="1" NCoef="0" IVar="3" Cut="9.2709749937057495e-02" cType="1" res="-5.9910020790994167e-03" rms="4.5158889889717102e-01" purity="4.7299659252166748e-01" nType="0">
          <Node pos="l" depth="2" NCoef="0" IVar="-1" Cut="0.0000000000000000e+00" cType="1" res="-8.8984606554731727e-04" rms="4.5477202534675598e-01" purity="4.8134034872055054e-01" nType="-99"/>
          <Node pos="r" depth="2" NCoef="0" IVar="-1" Cut="0.0000000000000000e+00" cType="1" res="7.2801386704668403e-04" rms="4.4429233670234680e-01" purity="4.5536649227142334e-01" nType="-99"/>
        </Node>
        <Node pos="r" depth="1" NCoef="0" IVar="2" Cut="7.1413055419921875e+01" cType="1" res="1.5445391647517681e-02" rms="4.4966363906860352e-01" purity="5.7116991281509399e-01" nType="0">
          <Node pos="l" depth="2" NCoef="0" IVar="-1" Cut="0.0000000000000000e+00" cType="1" res="2.3287567310035229e-03" rms="4.5250961184501648e-01" purity="5.5313104391098022e-01" nType="-99"/>
          <Node pos="r" depth="2" NCoef="0" IVar="-1" Cut="0.0000000000000000e+00" cType="1" res="3.8459600182250142e-04" rms="4.4812971353530884e-01" purity="5.7875865697860718e-01" nType="-99"/>
        </Node>
      </Node>
    </BinaryTree>
    <BinaryTree type="DecisionTree" boostWeight="1.0000000000000000e+00" itree="1271">
      <Node pos="s" depth="0" NCoef="0" IVar="5" Cut="9.6031123399734497e-01" cType="1" res="7.6570955570787191e-04" rms="4.5065012574195862e-01" purity="5.0093716382980347e-01" nType="0">
        <Node pos="l" depth="1" NCoef="0" IVar="1" Cut="8.5417425537109375e+02" cType="1" res="-7.6907374896109104e-03" rms="4.5469817519187927e-01" purity="4.0388485789299011e-01" nType="0">
          <Node pos="l" depth="2" NCoef="0" IVar="-1" Cut="0.0000000000000000e+00" cType="1" res="-6.6757283639162779e-04" rms="4.5399746298789978e-01" purity="3.8523420691490173e-01" nType="-99"/>
          <Node pos="r" depth="2" NCoef="0" IVar="-1" Cut="0.0000000000000000e+00" cType="1" res="1.4130915515124798e-03" rms="4.6057420969009399e-01" purity="5.9368455410003662e-01" nType="-99"/>
        </Node>
        <Node pos="r" depth="1" NCoef="0" IVar="8" Cut="7.2322607040405273e-01" cType="1" res="1.4166638255119324e-02" rms="4.4382974505424500e-01" purity="6.5473580360412598e-01" nType="0">
          <Node pos="l" depth="2" NCoef="0" IVar="-1" Cut="0.0000000000000000e+00" cType="1" res="3.2509011216461658e-03" rms="4.0570276975631714e-01" purity="7.4057972431182861e-01" nType="-99"/>
          <Node pos="r" depth="2" NCoef="0" IVar="-1" Cut="0.0000000000000000e+00" cType="1" res="4.4294304098002613e-04" rms="4.5169317722320557e-01" purity="6.3529843091964722e-01" nType="-99"/>
        </Node>
      </Node>
    </BinaryTree>
    <BinaryTree type="DecisionTree" boostWeight="1.0000000000000000e+00" itree="1272">
      <Node pos="s" depth="0" NCoef="0" IVar="4" Cut="3.6050599813461304e-01" cType="1" res="-4.7209709882736206e-03" rms="4.5416975021362305e-01" purity="4.9810776114463806e-01" nType="0">
        <Node pos="l" depth="1" NCoef="0" IVar="4" Cut="3.2283172011375427e-01" cType="1" res="-1.1491670273244381e-02" rms="4.5095553994178772e-01" purity="4.4901725649833679e-01" nType="0">
          <Node pos="l" depth="2" NCoef="0" IVar="-1" Cut="0.0000000000000000e+00" cType="1" res="-2.9268773505464196e-04" rms="4.4940191507339478e-01" purity="4.4916939735412598e-01" nType="-99"/>
          <Node pos="r" depth="2" NCoef="0" IVar="-1" Cut="0.0000000000000000e+00" cType="1" res="-3.2319237943738699e-03" rms="4.5782685279846191e-01" purity="4.4813570380210876e-01" nType="-99"/>
        </Node>
        <Node pos="r" depth="1" NCoef="0" IVar="4" Cut="4.6881958842277527e-01" cType="1" res="1.0992506286129355e-03" rms="4.5683446526527405e-01" purity="5.4030680656433105e-01" nType="0">
          <Node pos="l" depth="2" NCoef="0" IVar="-1" Cut="0.0000000000000000e+00" cType="1" res="1.0949498973786831e-03" rms="4.5548447966575623e-01" purity="5.3218525648117065e-01" nType="-99"/>
          <Node pos="r" depth="2" NCoef="0" IVar="-1" Cut="0.0000000000000000e+00" cType="1" res="-4.6223448589444160e-04" rms="4.5730042457580566e-01" purity="5.4450619220733643e-01" nType="-99"/>
        </Node>
      </Node>
    </BinaryTree>
    <BinaryTree type="DecisionTree" boostWeight="1.0000000000000000e+00" itree="1273">
      <Node pos="s" depth="0" NCoef="0" IVar="6" Cut="2.0662488937377930e+00" cType="1" res="3.3943434245884418e-03" rms="4.5331189036369324e-01" purity="5.0367730855941772e-01" nType="0">
        <Node pos="l" depth="1" NCoef="0" IVar="0" Cut="4.0244083404541016e+00" cType="1" res="-1.3301340863108635e-02" rms="4.5743364095687866e-01" purity="5.6157875061035156e-01" nType="0">
          <Node pos="l" depth="2" NCoef="0" IVar="-1" Cut="0.0000000000000000e+00" cType="1" res="-2.9896452906541526e-04" rms="4.6686407923698425e-01" purity="5.0910371541976929e-01" nType="-99"/>
          <Node pos="r" depth="2" NCoef="0" IVar="-1" Cut="0.0000000000000000e+00" cType="1" res="-3.0336151830852032e-03" rms="4.2511734366416931e-01" purity="7.2790145874023438e-01" nType="-99"/>
        </Node>
        <Node pos="r" depth="1" NCoef="0" IVar="4" Cut="3.8805919885635376e-01" cType="1" res="1.0891407728195190e-02" rms="4.5124790072441101e-01" purity="4.7767710685729980e-01" nType="0">
          <Node pos="l" depth="2" NCoef="0" IVar="-1" Cut="0.0000000000000000e+00" cType="1" res="3.8943808249314316e-06" rms="4.4922101497650146e-01" purity="4.2372399568557739e-01" nType="-99"/>
          <Node pos="r" depth="2" NCoef="0" IVar="-1" Cut="0.0000000000000000e+00" cType="1" res="1.4284587232396007e-03" rms="4.5319023728370667e-01" purity="5.3777432441711426e-01" nType="-99"/>
        </Node>
      </Node>
    </BinaryTree>
    <BinaryTree type="DecisionTree" boostWeight="1.0000000000000000e+00" itree="1274">
      <Node pos="s" depth="0" NCoef="0" IVar="7" Cut="8.6953140258789062e+01" cType="1" res="1.7483999545220286e-04" rms="4.5258864760398865e-01" purity="5.0127738714218140e-01" nType="0">
        <Node pos="l" depth="1" NCoef="0" IVar="8" Cut="1.7932609319686890e+00" cType="1" res="-4.3586893007159233e-03" rms="4.5103201270103455e-01" purity="4.6364495158195496e-01" nType="0">
          <Node pos="l" depth="2" NCoef="0" IVar="-1" Cut="0.0000000000000000e+00" cType="1" res="-4.1205080924555659e-04" rms="4.5152869820594788e-01" purity="4.6609050035476685e-01" nType="-99"/>
          <Node pos="r" depth="2" NCoef="0" IVar="-1" Cut="0.0000000000000000e+00" cType="1" res="1.5121250180527568e-03" rms="4.4385749101638794e-01" purity="4.3300679326057434e-01" nType="-99"/>
        </Node>
        <Node pos="r" depth="1" NCoef="0" IVar="6" Cut="2.2710356712341309e+00" cType="1" res="1.3620876707136631e-02" rms="4.5690983533859253e-01" purity="6.1289197206497192e-01" nType="0">
          <Node pos="l" depth="2" NCoef="0" IVar="-1" Cut="0.0000000000000000e+00" cType="1" res="2.5416908101760782e-05" rms="4.4726392626762390e-01" purity="6.5555304288864136e-01" nType="-99"/>
          <Node pos="r" depth="2" NCoef="0" IVar="-1" Cut="0.0000000000000000e+00" cType="1" res="2.1133359987288713e-03" rms="4.7110998630523682e-01" purity="5.4489356279373169e-01" nType="-99"/>
        </Node>
      </Node>
    </BinaryTree>
    <BinaryTree type="DecisionTree" boostWeight="1.0000000000000000e+00" itree="1275">
      <Node pos="s" depth="0" NCoef="0" IVar="9" Cut="7.0288914442062378e-01" cType="1" res="-3.6156887654215097e-03" rms="4.5429563522338867e-01" purity="4.9911633133888245e-01" nType="0">
        <Node pos="l" depth="1" NCoef="0" IVar="9" Cut="5.7067745923995972e-01" cType="1" res="-1.0396243073046207e-02" rms="4.5396888256072998e-01" purity="5.1872390508651733e-01" nType="0">
          <Node pos="l" depth="2" NCoef="0" IVar="-1" Cut="0.0000000000000000e+00" cType="1" res="-3.2944171107374132e-04" rms="4.5275384187698364e-01" purity="5.3338301181793213e-01" nType="-99"/>
          <Node pos="r" depth="2" NCoef="0" IVar="-1" Cut="0.0000000000000000e+00" cType="1" res="-1.8722907407209277e-03" rms="4.5803210139274597e-01" purity="4.6287083625793457e-01" nType="-99"/>
        </Node>
        <Node pos="r" depth="1" NCoef="0" IVar="6" Cut="2.0540733337402344e+00" cType="1" res="1.2666748836636543e-02" rms="4.5466649532318115e-01" purity="4.5203173160552979e-01" nType="0">
          <Node pos="l" depth="2" NCoef="0" IVar="-1" Cut="0.0000000000000000e+00" cType="1" res="-1.5579860191792250e-03" rms="4.6148267388343811e-01" purity="5.1361072063446045e-01" nType="-99"/>
          <Node pos="r" depth="2" NCoef="0" IVar="-1" Cut="0.0000000000000000e+00" cType="1" res="1.3731364160776138e-03" rms="4.5259860157966614e-01" purity="4.3757742643356323e-01" nType="-99"/>
        </Node>
      </Node>
    </BinaryTree>
    <BinaryTree type="DecisionTree" boostWeight="1.0000000000000000e+00" itree="1276">
      <Node pos="s" depth="0" NCoef="0" IVar="9" Cut="3.0258551239967346e-01" cType="1" res="8.3861249731853604e-04" rms="4.5248565077781677e-01" purity="5.0198882818222046e-01" nType="0">
        <Node pos="l" depth="1" NCoef="0" IVar="9" Cut="2.5412017107009888e-01" cType="1" res="-1.7285529524087906e-02" rms="4.4883945584297180e-01" purity="5.3345519304275513e-01" nType="0">
          <Node pos="l" depth="2" NCoef="0" IVar="-1" Cut="0.0000000000000000e+00" cType="1" res="-3.6232828279025853e-04" rms="4.4608971476554871e-01" purity="5.5169767141342163e-01" nType="-99"/>
          <Node pos="r" depth="2" NCoef="0" IVar="-1" Cut="0.0000000000000000e+00" cType="1" res="-2.9845810495316982e-03" rms="4.5456418395042419e-01" purity="4.8581594228744507e-01" nType="-99"/>
        </Node>
        <Node pos="r" depth="1" NCoef="0" IVar="8" Cut="1.0759165287017822e+00" cType="1" res="5.8194394223392010e-03" rms="4.5335564017295837e-01" purity="4.9334129691123962e-01" nType="0">
          <Node pos="l" depth="2" NCoef="0" IVar="-1" Cut="0.0000000000000000e+00" cType="1" res="9.1578601859509945e-04" rms="4.5409059524536133e-01" purity="5.3530311584472656e-01" nType="-99"/>
          <Node pos="r" depth="2" NCoef="0" IVar="-1" Cut="0.0000000000000000e+00" cType="1" res="-2.1334738994482905e-04" rms="4.5240297913551331e-01" purity="4.4941863417625427e-01" nType="-99"/>
        </Node>
      </Node>
    </BinaryTree>
    <BinaryTree type="DecisionTree" boostWeight="1.0000000000000000e+00" itree="1277">
      <Node pos="s" depth="0" NCoef="0" IVar="2" Cut="1.4654603576660156e+02" cType="1" res="-3.9858529344201088e-03" rms="4.5397192239761353e-01" purity="4.9821656942367554e-01" nType="0">
        <Node pos="l" depth="1" NCoef="0" IVar="2" Cut="1.2537650299072266e+02" cType="1" res="-8.1290137022733688e-03" rms="4.5326006412506104e-01" purity="4.9125361442565918e-01" nType="0">
          <Node pos="l" depth="2" NCoef="0" IVar="-1" Cut="0.0000000000000000e+00" cType="1" res="-2.8808976639993489e-04" rms="4.5510348677635193e-01" purity="4.8923081159591675e-01" nType="-99"/>
          <Node pos="r" depth="2" NCoef="0" IVar="-1" Cut="0.0000000000000000e+00" cType="1" res="-1.9451316911727190e-03" rms="4.4075468182563782e-01" purity="5.0405704975128174e-01" nType="-99"/>
        </Node>
        <Node pos="r" depth="1" NCoef="0" IVar="0" Cut="2.1516575813293457e+00" cType="1" res="1.6060879454016685e-02" rms="4.5687022805213928e-01" purity="5.3190666437149048e-01" nType="0">
          <Node pos="l" depth="2" NCoef="0" IVar="-1" Cut="0.0000000000000000e+00" cType="1" res="3.4998599439859390e-03" rms="4.6543243527412415e-01" purity="4.2334035038948059e-01" nType="-99"/>
          <Node pos="r" depth="2" NCoef="0" IVar="-1" Cut="0.0000000000000000e+00" cType="1" res="-2.5134319002972916e-05" rms="4.5202395319938660e-01" purity="5.8041131496429443e-01" nType="-99"/>
        </Node>
      </Node>
    </BinaryTree>
    <BinaryTree type="DecisionTree" boostWeight="1.0000000000000000e+00" itree="1278">
      <Node pos="s" depth="0" NCoef="0" IVar="3" Cut="-8.6115067824721336e-03" cType="1" res="3.6651697009801865e-03" rms="4.5234596729278564e-01" purity="5.0604510307312012e-01" nType="0">
        <Node pos="l" depth="1" NCoef="0" IVar="1" Cut="5.7308508300781250e+02" cType="1" res="1.6995146870613098e-02" rms="4.5611989498138428e-01" purity="5.5884271860122681e-01" nType="0">
          <Node pos="l" depth="2" NCoef="0" IVar="-1" Cut="0.0000000000000000e+00" cType="1" res="1.7830976285040379e-03" rms="4.5950311422348022e-01" purity="5.2336621284484863e-01" nType="-99"/>
          <Node pos="r" depth="2" NCoef="0" IVar="-1" Cut="0.0000000000000000e+00" cType="1" res="-2.4299888173118234e-04" rms="4.4926920533180237e-01" purity="6.2215542793273926e-01" nType="-99"/>
        </Node>
        <Node pos="r" depth="1" NCoef="0" IVar="7" Cut="5.1065124511718750e+01" cType="1" res="-3.4010768868029118e-03" rms="4.5017254352569580e-01" purity="4.7805699706077576e-01" nType="0">
          <Node pos="l" depth="2" NCoef="0" IVar="-1" Cut="0.0000000000000000e+00" cType="1" res="-1.6719027189537883e-03" rms="4.3134871125221252e-01" purity="3.1802225112915039e-01" nType="-99"/>
          <Node pos="r" depth="2" NCoef="0" IVar="-1" Cut="0.0000000000000000e+00" cType="1" res="9.6755415142979473e-05" rms="4.5437327027320862e-01" purity="5.1594078540802002e-01" nType="-99"/>
        </Node>
      </Node>
    </BinaryTree>
    <BinaryTree type="DecisionTree" boostWeight="1.0000000000000000e+00" itree="1279">
      <Node pos="s" depth="0" NCoef="0" IVar="7" Cut="9.8359542846679688e+01" cType="1" res="2.7102924650534987e-04" rms="4.5340725779533386e-01" purity="5.0246030092239380e-01" nType="0">
        <Node pos="l" depth="1" NCoef="0" IVar="7" Cut="4.7403804779052734e+01" cType="1" res="4.7210417687892914e-03" rms="4.5344653725624084e-01" purity="4.8481357097625732e-01" nType="0">
          <Node pos="l" depth="2" NCoef="0" IVar="-1" Cut="0.0000000000000000e+00" cType="1" res="-1.8402888672426343e-03" rms="4.3076130747795105e-01" purity="3.1926107406616211e-01" nType="-99"/>
          <Node pos="r" depth="2" NCoef="0" IVar="-1" Cut="0.0000000000000000e+00" cType="1" res="6.5476150484755635e-04" rms="4.5730164647102356e-01" purity="5.1559674739837646e-01" nType="-99"/>
        </Node>
        <Node pos="r" depth="1" NCoef="0" IVar="2" Cut="1.1360205078125000e+02" cType="1" res="-2.1528711542487144e-02" rms="4.5258292555809021e-01" purity="5.8890783786773682e-01" nType="0">
          <Node pos="l" depth="2" NCoef="0" IVar="-1" Cut="0.0000000000000000e+00" cType="1" res="-3.0266048852354288e-03" rms="4.6623823046684265e-01" purity="5.6469881534576416e-01" nType="-99"/>
          <Node pos="r" depth="2" NCoef="0" IVar="-1" Cut="0.0000000000000000e+00" cType="1" res="-4.1945985867641866e-04" rms="4.4381275773048401e-01" purity="6.0286545753479004e-01" nType="-99"/>
        </Node>
      </Node>
    </BinaryTree>
    <BinaryTree type="DecisionTree" boostWeight="1.0000000000000000e+00" itree="1280">
      <Node pos="s" depth="0" NCoef="0" IVar="2" Cut="5.6366703033447266e+01" cType="1" res="5.1886611618101597e-03" rms="4.5245337486267090e-01" purity="5.0832301378250122e-01" nType="0">
        <Node pos="l" depth="1" NCoef="0" IVar="0" Cut="3.3509709835052490e+00" cType="1" res="2.6161221787333488e-02" rms="4.5622333884239197e-01" purity="5.0770670175552368e-01" nType="0">
          <Node pos="l" depth="2" NCoef="0" IVar="-1" Cut="0.0000000000000000e+00" cType="1" res="2.4180051404982805e-03" rms="4.6237629652023315e-01" purity="4.3197229504585266e-01" nType="-99"/>
          <Node pos="r" depth="2" NCoef="0" IVar="-1" Cut="0.0000000000000000e+00" cType="1" res="4.1977953515015543e-05" rms="4.4322156906127930e-01" purity="6.5109974145889282e-01" nType="-99"/>
        </Node>
        <Node pos="r" depth="1" NCoef="0" IVar="1" Cut="3.8184069824218750e+02" cType="1" res="1.3463582145050168e-03" rms="4.5165374875068665e-01" purity="5.0843590497970581e-01" nType="0">
          <Node pos="l" depth="2" NCoef="0" IVar="-1" Cut="0.0000000000000000e+00" cType="1" res="2.3530307225883007e-03" rms="4.3180000782012939e-01" purity="3.3760645985603333e-01" nType="-99"/>
          <Node pos="r" depth="2" NCoef="0" IVar="-1" Cut="0.0000000000000000e+00" cType="1" res="-1.0210334585281089e-04" rms="4.5339316129684448e-01" purity="5.2475553750991821e-01" nType="-99"/>
        </Node>
      </Node>
    </BinaryTree>
    <BinaryTree type="DecisionTree" boostWeight="1.0000000000000000e+00" itree="1281">
      <Node pos="s" depth="0" NCoef="0" IVar="3" Cut="1.2761171162128448e-01" cType="1" res="-3.1170526053756475e-03" rms="4.5094200968742371e-01" purity="4.9697595834732056e-01" nType="0">
        <Node pos="l" depth="1" NCoef="0" IVar="6" Cut="1.6298661231994629e+00" cType="1" res="2.1018381230533123e-03" rms="4.5159086585044861e-01" purity="5.1362580060958862e-01" nType="0">
          <Node pos="l" depth="2" NCoef="0" IVar="-1" Cut="0.0000000000000000e+00" cType="1" res="1.6152933239936829e-03" rms="4.4050341844558716e-01" purity="6.2821674346923828e-01" nType="-99"/>
          <Node pos="r" depth="2" NCoef="0" IVar="-1" Cut="0.0000000000000000e+00" cType="1" res="-5.1820377848343924e-05" rms="4.5286530256271362e-01" purity="4.9937620759010315e-01" nType="-99"/>
        </Node>
        <Node pos="r" depth="1" NCoef="0" IVar="9" Cut="5.2209949493408203e-01" cType="1" res="-3.3748637884855270e-02" rms="4.4588482379913330e-01" purity="3.9925241470336914e-01" nType="0">
          <Node pos="l" depth="2" NCoef="0" IVar="-1" Cut="0.0000000000000000e+00" cType="1" res="-3.8388585671782494e-03" rms="4.4877308607101440e-01" purity="4.0689510107040405e-01" nType="-99"/>
          <Node pos="r" depth="2" NCoef="0" IVar="-1" Cut="0.0000000000000000e+00" cType="1" res="-9.5052475808188319e-04" rms="4.4273433089256287e-01" purity="3.9354741573333740e-01" nType="-99"/>
        </Node>
      </Node>
    </BinaryTree>
    <BinaryTree type="DecisionTree" boostWeight="1.0000000000000000e+00" itree="1282">
      <Node pos="s" depth="0" NCoef="0" IVar="9" Cut="1.0423622131347656e+00" cType="1" res="1.8619850379764102e-05" rms="4.5338872075080872e-01" purity="5.0009930133819580e-01" nType="0">
        <Node pos="l" depth="1" NCoef="0" IVar="9" Cut="4.8112660646438599e-01" cType="1" res="1.7858493374660611e-03" rms="4.5430693030357361e-01" purity="5.1181799173355103e-01" nType="0">
          <Node pos="l" depth="2" NCoef="0" IVar="-1" Cut="0.0000000000000000e+00" cType="1" res="-4.0414603427052498e-04" rms="4.5371231436729431e-01" purity="5.3427261114120483e-01" nType="-99"/>
          <Node pos="r" depth="2" NCoef="0" IVar="-1" Cut="0.0000000000000000e+00" cType="1" res="5.7552603539079428e-04" rms="4.5471841096878052e-01" purity="4.9142628908157349e-01" nType="-99"/>
        </Node>
        <Node pos="r" depth="1" NCoef="0" IVar="-1" Cut="0.0000000000000000e+00" cType="1" res="-1.7453738255426288e-03" rms="4.3908935785293579e-01" purity="3.3049476146697998e-01" nType="-99"/>
      </Node>
    </BinaryTree>
    <BinaryTree type="DecisionTree" boostWeight="1.0000000000000000e+00" itree="1283">
      <Node pos="s" depth="0" NCoef="0" IVar="5" Cut="9.4916135072708130e-01" cType="1" res="7.4733968358486891e-04" rms="4.5419397950172424e-01" purity="5.0245118141174316e-01" nType="0">
        <Node pos="l" depth="1" NCoef="0" IVar="5" Cut="9.1424697637557983e-01" cType="1" res="8.3464197814464569e-03" rms="4.5403185486793518e-01" purity="3.8673296570777893e-01" nType="0">
          <Node pos="l" depth="2" NCoef="0" IVar="-1" Cut="0.0000000000000000e+00" cType="1" res="-9.3855458544567227e-04" rms="4.3443509936332703e-01" purity="2.8878554701805115e-01" nType="-99"/>
          <Node pos="r" depth="2" NCoef="0" IVar="-1" Cut="0.0000000000000000e+00" cType="1" res="8.6890044622123241e-04" rms="4.5876061916351318e-01" purity="4.1193500161170959e-01" nType="-99"/>
        </Node>
        <Node pos="r" depth="1" NCoef="0" IVar="9" Cut="2.1174752712249756e-01" cType="1" res="-5.3205993026494980e-03" rms="4.5423212647438049e-01" purity="5.9485334157943726e-01" nType="0">
          <Node pos="l" depth="2" NCoef="0" IVar="-1" Cut="0.0000000000000000e+00" cType="1" res="1.4679625164717436e-03" rms="4.3977731466293335e-01" purity="6.7604374885559082e-01" nType="-99"/>
          <Node pos="r" depth="2" NCoef="0" IVar="-1" Cut="0.0000000000000000e+00" cType="1" res="-5.7798711350187659e-04" rms="4.5603039860725403e-01" purity="5.8383524417877197e-01" nType="-99"/>
        </Node>
      </Node>
    </BinaryTree>
    <BinaryTree type="DecisionTree" boostWeight="1.0000000000000000e+00" itree="1284">
      <Node pos="s" depth="0" NCoef="0" IVar="0" Cut="1.0562009811401367e+00" cType="1" res="1.9359551370143890e-03" rms="4.5358046889305115e-01" purity="4.9938976764678955e-01" nType="0">
        <Node pos="l" depth="1" NCoef="0" IVar="-1" Cut="0.0000000000000000e+00" cType="1" res="1.7818544292822480e-03" rms="4.3436536192893982e-01" purity="3.1223431229591370e-01" nType="-99"/>
        <Node pos="r" depth="1" NCoef="0" IVar="0" Cut="3.0225818157196045e+00" cType="1" res="-1.1945363803533837e-04" rms="4.5526251196861267e-01" purity="5.1670563220977783e-01" nType="0">
          <Node pos="l" depth="2" NCoef="0" IVar="-1" Cut="0.0000000000000000e+00" cType="1" res="-5.3747120546177030e-04" rms="4.6312111616134644e-01" purity="3.9735719561576843e-01" nType="-99"/>
          <Node pos="r" depth="2" NCoef="0" IVar="-1" Cut="0.0000000000000000e+00" cType="1" res="6.0041813412681222e-04" rms="4.4606855511665344e-01" purity="6.5081518888473511e-01" nType="-99"/>
        </Node>
      </Node>
    </BinaryTree>
    <BinaryTree type="DecisionTree" boostWeight="1.0000000000000000e+00" itree="1285">
      <Node pos="s" depth="0" NCoef="0" IVar="4" Cut="7.2008889913558960e-01" cType="1" res="1.6013872809708118e-03" rms="4.5529499650001526e-01" purity="5.0128239393234253e-01" nType="0">
        <Node pos="l" depth="1" NCoef="0" IVar="0" Cut="2.8382015228271484e+00" cType="1" res="3.5627852194011211e-03" rms="4.5533239841461182e-01" purity="4.9940720200538635e-01" nType="0">
          <Node pos="l" depth="2" NCoef="0" IVar="-1" Cut="0.0000000000000000e+00" cType="1" res="7.8534201020374894e-04" rms="4.5654028654098511e-01" purity="3.8776519894599915e-01" nType="-99"/>
          <Node pos="r" depth="2" NCoef="0" IVar="-1" Cut="0.0000000000000000e+00" cType="1" res="-3.6112871021032333e-04" rms="4.5385038852691650e-01" purity="6.1884278059005737e-01" nType="-99"/>
        </Node>
        <Node pos="r" depth="1" NCoef="0" IVar="-1" Cut="0.0000000000000000e+00" cType="1" res="-2.2230395115911961e-03" rms="4.5305094122886658e-01" purity="5.3618180751800537e-01" nType="-99"/>
      </Node>
    </BinaryTree>
    <BinaryTree type="DecisionTree" boostWeight="1.0000000000000000e+00" itree="1286">
      <Node pos="s" depth="0" NCoef="0" IVar="8" Cut="1.6102019548416138e+00" cType="1" res="2.6114338543266058e-03" rms="4.5411297678947449e-01" purity="5.0662124156951904e-01" nType="0">
        <Node pos="l" depth="1" NCoef="0" IVar="9" Cut="9.0007418394088745e-01" cType="1" res="6.2021673657000065e-03" rms="4.5630005002021790e-01" purity="5.2121925354003906e-01" nType="0">
          <Node pos="l" depth="2" NCoef="0" IVar="-1" Cut="0.0000000000000000e+00" cType="1" res="1.7561072309035808e-04" rms="4.5515999197959900e-01" purity="5.3189784288406372e-01" nType="-99"/>
          <Node pos="r" depth="2" NCoef="0" IVar="-1" Cut="0.0000000000000000e+00" cType="1" res="1.8792503979057074e-03" rms="4.6338218450546265e-01" purity="4.4781389832496643e-01" nType="-99"/>
        </Node>
        <Node pos="r" depth="1" NCoef="0" IVar="3" Cut="2.4232620373368263e-02" cType="1" res="-2.3345027118921280e-02" rms="4.3710225820541382e-01" purity="4.0109589695930481e-01" nType="0">
          <Node pos="l" depth="2" NCoef="0" IVar="-1" Cut="0.0000000000000000e+00" cType="1" res="1.0566457058303058e-04" rms="4.4467422366142273e-01" purity="4.7893163561820984e-01" nType="-99"/>
          <Node pos="r" depth="2" NCoef="0" IVar="-1" Cut="0.0000000000000000e+00" cType="1" res="-2.9625496827065945e-03" rms="4.2965400218963623e-01" purity="3.3683043718338013e-01" nType="-99"/>
        </Node>
      </Node>
    </BinaryTree>
    <BinaryTree type="DecisionTree" boostWeight="1.0000000000000000e+00" itree="1287">
      <Node pos="s" depth="0" NCoef="0" IVar="0" Cut="4.0657563209533691e+00" cType="1" res="-1.2346585281193256e-03" rms="4.5375356078147888e-01" purity="5.0009053945541382e-01" nType="0">
        <Node pos="l" depth="1" NCoef="0" IVar="9" Cut="2.9225358366966248e-01" cType="1" res="4.0069180540740490e-03" rms="4.5890134572982788e-01" purity="4.4460958242416382e-01" nType="0">
          <Node pos="l" depth="2" NCoef="0" IVar="-1" Cut="0.0000000000000000e+00" cType="1" res="1.5912372618913651e-03" rms="4.6092242002487183e-01" purity="5.1981508731842041e-01" nType="-99"/>
          <Node pos="r" depth="2" NCoef="0" IVar="-1" Cut="0.0000000000000000e+00" cType="1" res="-9.1669375251512975e-05" rms="4.5823949575424194e-01" purity="4.2626070976257324e-01" nType="-99"/>
        </Node>
        <Node pos="r" depth="1" NCoef="0" IVar="3" Cut="1.6610205173492432e-02" cType="1" res="-1.9633432850241661e-02" rms="4.3470227718353271e-01" purity="6.9483774900436401e-01" nType="0">
          <Node pos="l" depth="2" NCoef="0" IVar="-1" Cut="0.0000000000000000e+00" cType="1" res="-2.6203563902527094e-03" rms="4.3376737833023071e-01" purity="7.1148562431335449e-01" nType="-99"/>
          <Node pos="r" depth="2" NCoef="0" IVar="-1" Cut="0.0000000000000000e+00" cType="1" res="-3.3321327646262944e-04" rms="4.3503397703170776e-01" purity="6.7975145578384399e-01" nType="-99"/>
        </Node>
      </Node>
    </BinaryTree>
    <BinaryTree type="DecisionTree" boostWeight="1.0000000000000000e+00" itree="1288">
      <Node pos="s" depth="0" NCoef="0" IVar="4" Cut="4.6414670348167419e-01" cType="1" res="-3.6921689752489328e-04" rms="4.5338898897171021e-01" purity="4.9973398447036743e-01" nType="0">
        <Node pos="l" depth="1" NCoef="0" IVar="8" Cut="8.8515186309814453e-01" cType="1" res="-8.2002533599734306e-03" rms="4.5386284589767456e-01" purity="4.6357220411300659e-01" nType="0">
          <Node pos="l" depth="2" NCoef="0" IVar="-1" Cut="0.0000000000000000e+00" cType="1" res="-1.3980894582346082e-03" rms="4.5707362890243530e-01" purity="4.9833607673645020e-01" nType="-99"/>
          <Node pos="r" depth="2" NCoef="0" IVar="-1" Cut="0.0000000000000000e+00" cType="1" res="-2.4001619749469683e-05" rms="4.5189434289932251e-01" purity="4.4442984461784363e-01" nType="-99"/>
        </Node>
        <Node pos="r" depth="1" NCoef="0" IVar="1" Cut="3.9249859619140625e+02" cType="1" res="1.3043115846812725e-02" rms="4.5226132869720459e-01" purity="5.6166887283325195e-01" nType="0">
          <Node pos="l" depth="2" NCoef="0" IVar="-1" Cut="0.0000000000000000e+00" cType="1" res="-1.8162198830395937e-03" rms="4.3393024802207947e-01" purity="3.4830102324485779e-01" nType="-99"/>
          <Node pos="r" depth="2" NCoef="0" IVar="-1" Cut="0.0000000000000000e+00" cType="1" res="1.2536519207060337e-03" rms="4.5503389835357666e-01" purity="5.9914797544479370e-01" nType="-99"/>
        </Node>
      </Node>
    </BinaryTree>
    <BinaryTree type="DecisionTree" boostWeight="1.0000000000000000e+00" itree="1289">
      <Node pos="s" depth="0" NCoef="0" IVar="7" Cut="7.8061546325683594e+01" cType="1" res="2.9936819337308407e-03" rms="4.5201507210731506e-01" purity="5.0308680534362793e-01" nType="0">
        <Node pos="l" depth="1" NCoef="0" IVar="7" Cut="6.9095985412597656e+01" cType="1" res="-2.1838434040546417e-03" rms="4.5116385817527771e-01" purity="4.5318818092346191e-01" nType="0">
          <Node pos="l" depth="2" NCoef="0" IVar="-1" Cut="0.0000000000000000e+00" cType="1" res="1.7178890993818641e-04" rms="4.5149883627891541e-01" purity="4.3933579325675964e-01" nType="-99"/>
          <Node pos="r" depth="2" NCoef="0" IVar="-1" Cut="0.0000000000000000e+00" cType="1" res="-1.4044550480321050e-03" rms="4.4917300343513489e-01" purity="5.1140522956848145e-01" nType="-99"/>
        </Node>
        <Node pos="r" depth="1" NCoef="0" IVar="9" Cut="4.1798013448715210e-01" cType="1" res="1.2992974370718002e-02" rms="4.5348718762397766e-01" purity="5.9945547580718994e-01" nType="0">
          <Node pos="l" depth="2" NCoef="0" IVar="-1" Cut="0.0000000000000000e+00" cType="1" res="1.7918936209753156e-03" rms="4.3891990184783936e-01" purity="6.6128957271575928e-01" nType="-99"/>
          <Node pos="r" depth="2" NCoef="0" IVar="-1" Cut="0.0000000000000000e+00" cType="1" res="1.8556343275122344e-04" rms="4.6282401680946350e-01" purity="5.5758482217788696e-01" nType="-99"/>
        </Node>
      </Node>
    </BinaryTree>
    <BinaryTree type="DecisionTree" boostWeight="1.0000000000000000e+00" itree="1290">
      <Node pos="s" depth="0" NCoef="0" IVar="3" Cut="1.4608615636825562e-01" cType="1" res="7.1153915487229824e-03" rms="4.5248860120773315e-01" purity="5.0670576095581055e-01" nType="0">
        <Node pos="l" depth="1" NCoef="0" IVar="7" Cut="5.0695312500000000e+01" cType="1" res="9.8547134548425674e-03" rms="4.5309060811996460e-01" purity="5.1786398887634277e-01" nType="0">
          <Node pos="l" depth="2" NCoef="0" IVar="-1" Cut="0.0000000000000000e+00" cType="1" res="-4.2850116733461618e-04" rms="4.4940653443336487e-01" purity="3.6937963962554932e-01" nType="-99"/>
          <Node pos="r" depth="2" NCoef="0" IVar="-1" Cut="0.0000000000000000e+00" cType="1" res="8.6272408952936530e-04" rms="4.5389157533645630e-01" purity="5.5389529466629028e-01" nType="-99"/>
        </Node>
        <Node pos="r" depth="1" NCoef="0" IVar="9" Cut="5.8603680133819580e-01" cType="1" res="-1.5984961763024330e-02" rms="4.4671192765235901e-01" purity="4.1260960698127747e-01" nType="0">
          <Node pos="l" depth="2" NCoef="0" IVar="-1" Cut="0.0000000000000000e+00" cType="1" res="-2.3591725621372461e-03" rms="4.3916156888008118e-01" purity="4.2958366870880127e-01" nType="-99"/>
          <Node pos="r" depth="2" NCoef="0" IVar="-1" Cut="0.0000000000000000e+00" cType="1" res="4.4048717245459557e-04" rms="4.5391809940338135e-01" purity="3.9367818832397461e-01" nType="-99"/>
        </Node>
      </Node>
    </BinaryTree>
    <BinaryTree type="DecisionTree" boostWeight="1.0000000000000000e+00" itree="1291">
      <Node pos="s" depth="0" NCoef="0" IVar="7" Cut="1.3194586181640625e+02" cType="1" res="-2.6778450701385736e-03" rms="4.5233470201492310e-01" purity="5.0090557336807251e-01" nType="0">
        <Node pos="l" depth="1" NCoef="0" IVar="7" Cut="8.8149581909179688e+01" cType="1" res="5.6616092479089275e-05" rms="4.5155802369117737e-01" purity="4.9703910946846008e-01" nType="0">
          <Node pos="l" depth="2" NCoef="0" IVar="-1" Cut="0.0000000000000000e+00" cType="1" res="-4.1300049633719027e-04" rms="4.5130303502082825e-01" purity="4.6520671248435974e-01" nType="-99"/>
          <Node pos="r" depth="2" NCoef="0" IVar="-1" Cut="0.0000000000000000e+00" cType="1" res="1.6347721684724092e-03" rms="4.5162382721900940e-01" purity="6.2112969160079956e-01" nType="-99"/>
        </Node>
        <Node pos="r" depth="1" NCoef="0" IVar="-1" Cut="0.0000000000000000e+00" cType="1" res="-3.4079563338309526e-03" rms="4.6343058347702026e-01" purity="5.7124751806259155e-01" nType="-99"/>
      </Node>
    </BinaryTree>
    <BinaryTree type="DecisionTree" boostWeight="1.0000000000000000e+00" itree="1292">
      <Node pos="s" depth="0" NCoef="0" IVar="0" Cut="1.7560377120971680e+00" cType="1" res="-5.0067710690200329e-03" rms="4.5557409524917603e-01" purity="4.9615010619163513e-01" nType="0">
        <Node pos="l" depth="1" NCoef="0" IVar="3" Cut="-1.9677507225424051e-04" cType="1" res="1.4209770597517490e-02" rms="4.5016863942146301e-01" purity="3.3303922414779663e-01" nType="0">
          <Node pos="l" depth="2" NCoef="0" IVar="-1" Cut="0.0000000000000000e+00" cType="1" res="-6.8890064721927047e-04" rms="4.5826032757759094e-01" purity="3.3862388134002686e-01" nType="-99"/>
          <Node pos="r" depth="2" NCoef="0" IVar="-1" Cut="0.0000000000000000e+00" cType="1" res="2.1449753548949957e-03" rms="4.4418841600418091e-01" purity="3.2946246862411499e-01" nType="-99"/>
        </Node>
        <Node pos="r" depth="1" NCoef="0" IVar="7" Cut="6.4465553283691406e+01" cType="1" res="-1.0726929642260075e-02" rms="4.5701476931571960e-01" purity="5.4470306634902954e-01" nType="0">
          <Node pos="l" depth="2" NCoef="0" IVar="-1" Cut="0.0000000000000000e+00" cType="1" res="-1.4499342069029808e-03" rms="4.6031963825225830e-01" purity="4.5343524217605591e-01" nType="-99"/>
          <Node pos="r" depth="2" NCoef="0" IVar="-1" Cut="0.0000000000000000e+00" cType="1" res="-4.2160998418694362e-05" rms="4.5421606302261353e-01" purity="6.1445963382720947e-01" nType="-99"/>
        </Node>
      </Node>
    </BinaryTree>
    <BinaryTree type="DecisionTree" boostWeight="1.0000000000000000e+00" itree="1293">
      <Node pos="s" depth="0" NCoef="0" IVar="6" Cut="2.4359278678894043e+00" cType="1" res="9.1149384388700128e-04" rms="4.5548892021179199e-01" purity="5.0027704238891602e-01" nType="0">
        <Node pos="l" depth="1" NCoef="0" IVar="4" Cut="3.3727955818176270e-01" cType="1" res="7.5730602256953716e-03" rms="4.5944902300834656e-01" purity="5.5085605382919312e-01" nType="0">
          <Node pos="l" depth="2" NCoef="0" IVar="-1" Cut="0.0000000000000000e+00" cType="1" res="1.5492569655179977e-03" rms="4.6852660179138184e-01" purity="5.3458017110824585e-01" nType="-99"/>
          <Node pos="r" depth="2" NCoef="0" IVar="-1" Cut="0.0000000000000000e+00" cType="1" res="-1.9055625307373703e-04" rms="4.5367577672004700e-01" purity="5.6045478582382202e-01" nType="-99"/>
        </Node>
        <Node pos="r" depth="1" NCoef="0" IVar="6" Cut="2.5684974193572998e+00" cType="1" res="-1.9284628331661224e-02" rms="4.4265449047088623e-01" purity="3.4693461656570435e-01" nType="0">
          <Node pos="l" depth="2" NCoef="0" IVar="-1" Cut="0.0000000000000000e+00" cType="1" res="-2.8214415069669485e-03" rms="4.5312595367431641e-01" purity="4.0758216381072998e-01" nType="-99"/>
          <Node pos="r" depth="2" NCoef="0" IVar="-1" Cut="0.0000000000000000e+00" cType="1" res="-3.8644653977826238e-04" rms="4.3630889058113098e-01" purity="3.1441149115562439e-01" nType="-99"/>
        </Node>
      </Node>
    </BinaryTree>
    <BinaryTree type="DecisionTree" boostWeight="1.0000000000000000e+00" itree="1294">
      <Node pos="s" depth="0" NCoef="0" IVar="4" Cut="1.3507650792598724e-01" cType="1" res="-4.0715537033975124e-03" rms="4.5385444164276123e-01" purity="4.9641925096511841e-01" nType="0">
        <Node pos="l" depth="1" NCoef="0" IVar="-1" Cut="0.0000000000000000e+00" cType="1" res="1.8889746861532331e-03" rms="4.4621700048446655e-01" purity="4.1316503286361694e-01" nType="-99"/>
        <Node pos="r" depth="1" NCoef="0" IVar="2" Cut="1.8072827148437500e+02" cType="1" res="-6.9021196104586124e-03" rms="4.5440199971199036e-01" purity="5.0365573167800903e-01" nType="0">
          <Node pos="l" depth="2" NCoef="0" IVar="-1" Cut="0.0000000000000000e+00" cType="1" res="-2.6596194948069751e-04" rms="4.5363390445709229e-01" purity="5.0461274385452271e-01" nType="-99"/>
          <Node pos="r" depth="2" NCoef="0" IVar="-1" Cut="0.0000000000000000e+00" cType="1" res="-2.4180745240300894e-03" rms="4.6200487017631531e-01" purity="4.9268490076065063e-01" nType="-99"/>
        </Node>
      </Node>
    </BinaryTree>
    <BinaryTree type="DecisionTree" boostWeight="1.0000000000000000e+00" itree="1295">
      <Node pos="s" depth="0" NCoef="0" IVar="0" Cut="2.5493450164794922e+00" cType="1" res="-5.4372167214751244e-03" rms="4.5136287808418274e-01" purity="4.9431687593460083e-01" nType="0">
        <Node pos="l" depth="1" NCoef="0" IVar="1" Cut="7.5864074707031250e+02" cType="1" res="-1.5256268903613091e-02" rms="4.4691276550292969e-01" purity="3.4522587060928345e-01" nType="0">
          <Node pos="l" depth="2" NCoef="0" IVar="-1" Cut="0.0000000000000000e+00" cType="1" res="-1.4391132863238454e-03" rms="4.4291868805885315e-01" purity="3.1899106502532959e-01" nType="-99"/>
          <Node pos="r" depth="2" NCoef="0" IVar="-1" Cut="0.0000000000000000e+00" cType="1" res="1.6533845337107778e-03" rms="4.6994003653526306e-01" purity="5.1712256669998169e-01" nType="-99"/>
        </Node>
        <Node pos="r" depth="1" NCoef="0" IVar="5" Cut="9.5357781648635864e-01" cType="1" res="2.3083812557160854e-03" rms="4.5469298958778381e-01" purity="6.1192488670349121e-01" nType="0">
          <Node pos="l" depth="2" NCoef="0" IVar="-1" Cut="0.0000000000000000e+00" cType="1" res="1.2214843882247806e-03" rms="4.7498980164527893e-01" purity="5.3503602743148804e-01" nType="-99"/>
          <Node pos="r" depth="2" NCoef="0" IVar="-1" Cut="0.0000000000000000e+00" cType="1" res="-4.7399199684150517e-04" rms="4.4399970769882202e-01" purity="6.4995366334915161e-01" nType="-99"/>
        </Node>
      </Node>
    </BinaryTree>
    <BinaryTree type="DecisionTree" boostWeight="1.0000000000000000e+00" itree="1296">
      <Node pos="s" depth="0" NCoef="0" IVar="6" Cut="1.4915174245834351e+00" cType="1" res="1.4189271023496985e-03" rms="4.5243042707443237e-01" purity="5.0350302457809448e-01" nType="0">
        <Node pos="l" depth="1" NCoef="0" IVar="-1" Cut="0.0000000000000000e+00" cType="1" res="2.0456295460462570e-03" rms="4.3349358439445496e-01" purity="6.4197558164596558e-01" nType="-99"/>
        <Node pos="r" depth="1" NCoef="0" IVar="3" Cut="4.4782757759094238e-02" cType="1" res="-9.6224818844348192e-04" rms="4.5377096533775330e-01" purity="4.9282264709472656e-01" nType="0">
          <Node pos="l" depth="2" NCoef="0" IVar="-1" Cut="0.0000000000000000e+00" cType="1" res="4.4662185246124864e-04" rms="4.5606371760368347e-01" purity="5.2825289964675903e-01" nType="-99"/>
          <Node pos="r" depth="2" NCoef="0" IVar="-1" Cut="0.0000000000000000e+00" cType="1" res="-8.3441648166626692e-04" rms="4.5006236433982849e-01" purity="4.3999877572059631e-01" nType="-99"/>
        </Node>
      </Node>
    </BinaryTree>
    <BinaryTree type="DecisionTree" boostWeight="1.0000000000000000e+00" itree="1297">
      <Node pos="s" depth="0" NCoef="0" IVar="1" Cut="3.5505502319335938e+02" cType="1" res="-1.0154017945751548e-03" rms="4.5220464468002319e-01" purity="4.9908721446990967e-01" nType="0">
        <Node pos="l" depth="1" NCoef="0" IVar="-1" Cut="0.0000000000000000e+00" cType="1" res="-2.6527440641075373e-03" rms="4.0178698301315308e-01" purity="2.6167404651641846e-01" nType="-99"/>
        <Node pos="r" depth="1" NCoef="0" IVar="4" Cut="7.0344603061676025e-01" cType="1" res="9.6378434682264924e-04" rms="4.5483565330505371e-01" purity="5.1264590024948120e-01" nType="0">
          <Node pos="l" depth="2" NCoef="0" IVar="-1" Cut="0.0000000000000000e+00" cType="1" res="-8.7837819592095912e-05" rms="4.5559728145599365e-01" purity="5.0554937124252319e-01" nType="-99"/>
          <Node pos="r" depth="2" NCoef="0" IVar="-1" Cut="0.0000000000000000e+00" cType="1" res="2.5041496846824884e-03" rms="4.4066411256790161e-01" purity="6.2679022550582886e-01" nType="-99"/>
        </Node>
      </Node>
    </BinaryTree>
    <BinaryTree type="DecisionTree" boostWeight="1.0000000000000000e+00" itree="1298">
      <Node pos="s" depth="0" NCoef="0" IVar="4" Cut="2.5861337780952454e-01" cType="1" res="-3.9830110035836697e-03" rms="4.5317193865776062e-01" purity="4.9745571613311768e-01" nType="0">
        <Node pos="l" depth="1" NCoef="0" IVar="0" Cut="2.5461103916168213e+00" cType="1" res="-2.7643481269478798e-02" rms="4.4551831483840942e-01" purity="4.0739291906356812e-01" nType="0">
          <Node pos="l" depth="2" NCoef="0" IVar="-1" Cut="0.0000000000000000e+00" cType="1" res="-8.4917555795982480e-04" rms="4.2355430126190186e-01" purity="2.9939991235733032e-01" nType="-99"/>
          <Node pos="r" depth="2" NCoef="0" IVar="-1" Cut="0.0000000000000000e+00" cType="1" res="-2.4338799994438887e-03" rms="4.6213078498840332e-01" purity="4.9473941326141357e-01" nType="-99"/>
        </Node>
        <Node pos="r" depth="1" NCoef="0" IVar="9" Cut="6.8720173835754395e-01" cType="1" res="4.8271836712956429e-03" rms="4.5567524433135986e-01" purity="5.3099149465560913e-01" nType="0">
          <Node pos="l" depth="2" NCoef="0" IVar="-1" Cut="0.0000000000000000e+00" cType="1" res="7.3360634269192815e-04" rms="4.5428481698036194e-01" purity="5.5934703350067139e-01" nType="-99"/>
          <Node pos="r" depth="2" NCoef="0" IVar="-1" Cut="0.0000000000000000e+00" cType="1" res="-8.5284787928685546e-04" rms="4.5891061425209045e-01" purity="4.5413407683372498e-01" nType="-99"/>
        </Node>
      </Node>
    </BinaryTree>
    <BinaryTree type="DecisionTree" boostWeight="1.0000000000000000e+00" itree="1299">
      <Node pos="s" depth="0" NCoef="0" IVar="7" Cut="1.2019911193847656e+02" cType="1" res="4.7251950018107891e-03" rms="4.5277193188667297e-01" purity="5.0534200668334961e-01" nType="0">
        <Node pos="l" depth="1" NCoef="0" IVar="8" Cut="1.4839550256729126e+00" cType="1" res="1.6597122885286808e-03" rms="4.5396420359611511e-01" purity="4.9167010188102722e-01" nType="0">
          <Node pos="l" depth="2" NCoef="0" IVar="-1" Cut="0.0000000000000000e+00" cType="1" res="-2.5670239119790494e-04" rms="4.5592126250267029e-01" purity="5.0155121088027954e-01" nType="-99"/>
          <Node pos="r" depth="2" NCoef="0" IVar="-1" Cut="0.0000000000000000e+00" cType="1" res="1.6502343351021409e-03" rms="4.4497266411781311e-01" purity="4.5072260499000549e-01" nType="-99"/>
        </Node>
        <Node pos="r" depth="1" NCoef="0" IVar="-1" Cut="0.0000000000000000e+00" cType="1" res="2.7394460048526525e-03" rms="4.3615642189979553e-01" purity="6.7283803224563599e-01" nType="-99"/>
      </Node>
    </BinaryTree>
    <BinaryTree type="DecisionTree" boostWeight="1.0000000000000000e+00" itree="1300">
      <Node pos="s" depth="0" NCoef="0" IVar="8" Cut="1.4063587188720703e+00" cType="1" res="-4.3322336860001087e-03" rms="4.5317441225051880e-01" purity="4.9647283554077148e-01" nType="0">
        <Node pos="l" depth="1" NCoef="0" IVar="5" Cut="9.5297354459762573e-01" cType="1" res="-9.6022533252835274e-03" rms="4.5365539193153381e-01" purity="5.1009291410446167e-01" nType="0">
          <Node pos="l" depth="2" NCoef="0" IVar="-1" Cut="0.0000000000000000e+00" cType="1" res="-1.3157039647921920e-03" rms="4.5535016059875488e-01" purity="3.9014637470245361e-01" nType="-99"/>
          <Node pos="r" depth="2" NCoef="0" IVar="-1" Cut="0.0000000000000000e+00" cType="1" res="1.5114582492969930e-04" rms="4.5163267850875854e-01" purity="6.3052564859390259e-01" nType="-99"/>
        </Node>
        <Node pos="r" depth="1" NCoef="0" IVar="7" Cut="6.0052726745605469e+01" cType="1" res="1.3721067458391190e-02" rms="4.5105639100074768e-01" purity="4.4981506466865540e-01" nType="0">
          <Node pos="l" depth="2" NCoef="0" IVar="-1" Cut="0.0000000000000000e+00" cType="1" res="-2.1816146909259260e-04" rms="4.3756875395774841e-01" purity="3.6408957839012146e-01" nType="-99"/>
          <Node pos="r" depth="2" NCoef="0" IVar="-1" Cut="0.0000000000000000e+00" cType="1" res="1.7646208871155977e-03" rms="4.6207788586616516e-01" purity="5.2519798278808594e-01" nType="-99"/>
        </Node>
      </Node>
    </BinaryTree>
    <BinaryTree type="DecisionTree" boostWeight="1.0000000000000000e+00" itree="1301">
      <Node pos="s" depth="0" NCoef="0" IVar="4" Cut="3.3694735169410706e-01" cType="1" res="1.9863990601152182e-03" rms="4.5175763964653015e-01" purity="5.0289052724838257e-01" nType="0">
        <Node pos="l" depth="1" NCoef="0" IVar="7" Cut="5.0566642761230469e+01" cType="1" res="1.3731581158936024e-02" rms="4.5410549640655518e-01" purity="4.6451172232627869e-01" nType="0">
          <Node pos="l" depth="2" NCoef="0" IVar="-1" Cut="0.0000000000000000e+00" cType="1" res="3.4312470816075802e-03" rms="4.4735011458396912e-01" purity="3.6771434545516968e-01" nType="-99"/>
          <Node pos="r" depth="2" NCoef="0" IVar="-1" Cut="0.0000000000000000e+00" cType="1" res="4.4564594281837344e-04" rms="4.5509198307991028e-01" purity="4.8306721448898315e-01" nType="-99"/>
        </Node>
        <Node pos="r" depth="1" NCoef="0" IVar="9" Cut="7.6352345943450928e-01" cType="1" res="-6.2341415323317051e-03" rms="4.4992470741271973e-01" purity="5.2975213527679443e-01" nType="0">
          <Node pos="l" depth="2" NCoef="0" IVar="-1" Cut="0.0000000000000000e+00" cType="1" res="-3.9054040826158598e-05" rms="4.4892445206642151e-01" purity="5.4875516891479492e-01" nType="-99"/>
          <Node pos="r" depth="2" NCoef="0" IVar="-1" Cut="0.0000000000000000e+00" cType="1" res="-1.9963365048170090e-03" rms="4.5361167192459106e-01" purity="4.4205892086029053e-01" nType="-99"/>
        </Node>
      </Node>
    </BinaryTree>
    <BinaryTree type="DecisionTree" boostWeight="1.0000000000000000e+00" itree="1302">
      <Node pos="s" depth="0" NCoef="0" IVar="4" Cut="3.1262105703353882e-01" cType="1" res="-1.6575581394135952e-03" rms="4.5331183075904846e-01" purity="4.9788621068000793e-01" nType="0">
        <Node pos="l" depth="1" NCoef="0" IVar="0" Cut="1.9829758405685425e+00" cType="1" res="1.0180513374507427e-02" rms="4.5050519704818726e-01" purity="4.5684111118316650e-01" nType="0">
          <Node pos="l" depth="2" NCoef="0" IVar="-1" Cut="0.0000000000000000e+00" cType="1" res="-1.6018641181290150e-03" rms="4.1923603415489197e-01" purity="2.6453134417533875e-01" nType="-99"/>
          <Node pos="r" depth="2" NCoef="0" IVar="-1" Cut="0.0000000000000000e+00" cType="1" res="1.3961849035695195e-03" rms="4.6208018064498901e-01" purity="5.3567981719970703e-01" nType="-99"/>
        </Node>
        <Node pos="r" depth="1" NCoef="0" IVar="5" Cut="9.4197660684585571e-01" cType="1" res="-8.7473057210445404e-03" rms="4.5483693480491638e-01" purity="5.2246791124343872e-01" nType="0">
          <Node pos="l" depth="2" NCoef="0" IVar="-1" Cut="0.0000000000000000e+00" cType="1" res="4.4770544627681375e-04" rms="4.5564004778862000e-01" purity="3.9196407794952393e-01" nType="-99"/>
          <Node pos="r" depth="2" NCoef="0" IVar="-1" Cut="0.0000000000000000e+00" cType="1" res="-1.0530132567510009e-03" rms="4.5424979925155640e-01" purity="5.8517909049987793e-01" nType="-99"/>
        </Node>
      </Node>
    </BinaryTree>
    <BinaryTree type="DecisionTree" boostWeight="1.0000000000000000e+00" itree="1303">
      <Node pos="s" depth="0" NCoef="0" IVar="4" Cut="5.1981836557388306e-01" cType="1" res="-1.5213892329484224e-03" rms="4.5379438996315002e-01" purity="4.9816301465034485e-01" nType="0">
        <Node pos="l" depth="1" NCoef="0" IVar="3" Cut="1.6670498251914978e-01" cType="1" res="-6.3388412818312645e-03" rms="4.5359089970588684e-01" purity="4.7176834940910339e-01" nType="0">
          <Node pos="l" depth="2" NCoef="0" IVar="-1" Cut="0.0000000000000000e+00" cType="1" res="-6.2010867986828089e-04" rms="4.5506900548934937e-01" purity="4.7405764460563660e-01" nType="-99"/>
          <Node pos="r" depth="2" NCoef="0" IVar="-1" Cut="0.0000000000000000e+00" cType="1" res="1.5396152157336473e-03" rms="4.3955624103546143e-01" purity="4.5212200284004211e-01" nType="-99"/>
        </Node>
        <Node pos="r" depth="1" NCoef="0" IVar="7" Cut="7.0650009155273438e+01" cType="1" res="1.1073856614530087e-02" rms="4.5408451557159424e-01" purity="5.6717193126678467e-01" nType="0">
          <Node pos="l" depth="2" NCoef="0" IVar="-1" Cut="0.0000000000000000e+00" cType="1" res="1.4487940352410078e-03" rms="4.5475879311561584e-01" purity="5.2379357814788818e-01" nType="-99"/>
          <Node pos="r" depth="2" NCoef="0" IVar="-1" Cut="0.0000000000000000e+00" cType="1" res="-5.1924982108175755e-04" rms="4.5236140489578247e-01" purity="6.3523882627487183e-01" nType="-99"/>
        </Node>
      </Node>
    </BinaryTree>
    <BinaryTree type="DecisionTree" boostWeight="1.0000000000000000e+00" itree="1304">
      <Node pos="s" depth="0" NCoef="0" IVar="5" Cut="9.4148695468902588e-01" cType="1" res="-4.3584373779594898e-03" rms="4.5068570971488953e-01" purity="4.9470913410186768e-01" nType="0">
        <Node pos="l" depth="1" NCoef="0" IVar="2" Cut="7.6817543029785156e+01" cType="1" res="-1.6575617715716362e-02" rms="4.4596415758132935e-01" purity="3.4471371769905090e-01" nType="0">
          <Node pos="l" depth="2" NCoef="0" IVar="-1" Cut="0.0000000000000000e+00" cType="1" res="3.1355922692455351e-04" rms="4.4153636693954468e-01" purity="3.3884242177009583e-01" nType="-99"/>
          <Node pos="r" depth="2" NCoef="0" IVar="-1" Cut="0.0000000000000000e+00" cType="1" res="-1.7060589743778110e-03" rms="4.4773483276367188e-01" purity="3.4757912158966064e-01" nType="-99"/>
        </Node>
        <Node pos="r" depth="1" NCoef="0" IVar="1" Cut="5.9135162353515625e+02" cType="1" res="1.7354141455143690e-03" rms="4.5289921760559082e-01" purity="5.6952595710754395e-01" nType="0">
          <Node pos="l" depth="2" NCoef="0" IVar="-1" Cut="0.0000000000000000e+00" cType="1" res="-3.6393344635143876e-04" rms="4.6054339408874512e-01" purity="5.1245343685150146e-01" nType="-99"/>
          <Node pos="r" depth="2" NCoef="0" IVar="-1" Cut="0.0000000000000000e+00" cType="1" res="9.7223563352599740e-04" rms="4.3910637497901917e-01" purity="6.6788148880004883e-01" nType="-99"/>
        </Node>
      </Node>
    </BinaryTree>
    <BinaryTree type="DecisionTree" boostWeight="1.0000000000000000e+00" itree="1305">
      <Node pos="s" depth="0" NCoef="0" IVar="5" Cut="9.1372227668762207e-01" cType="1" res="-9.1439968673512340e-04" rms="4.5263552665710449e-01" purity="4.9919882416725159e-01" nType="0">
        <Node pos="l" depth="1" NCoef="0" IVar="-1" Cut="0.0000000000000000e+00" cType="1" res="-2.1436654496937990e-03" rms="4.2171359062194824e-01" purity="2.7123087644577026e-01" nType="-99"/>
        <Node pos="r" depth="1" NCoef="0" IVar="4" Cut="5.6786054372787476e-01" cType="1" res="2.0867316052317619e-03" rms="4.5536616444587708e-01" purity="5.2097588777542114e-01" nType="0">
          <Node pos="l" depth="2" NCoef="0" IVar="-1" Cut="0.0000000000000000e+00" cType="1" res="3.6873845965601504e-04" rms="4.5514047145843506e-01" purity="5.0871449708938599e-01" nType="-99"/>
          <Node pos="r" depth="2" NCoef="0" IVar="-1" Cut="0.0000000000000000e+00" cType="1" res="-7.5648672645911574e-04" rms="4.5592954754829407e-01" purity="5.6653612852096558e-01" nType="-99"/>
        </Node>
      </Node>
    </BinaryTree>
    <BinaryTree type="DecisionTree" boostWeight="1.0000000000000000e+00" itree="1306">
      <Node pos="s" depth="0" NCoef="0" IVar="3" Cut="1.7135627567768097e-01" cType="1" res="1.3044909574091434e-03" rms="4.5303082466125488e-01" purity="5.0291055440902710e-01" nType="0">
        <Node pos="l" depth="1" NCoef="0" IVar="5" Cut="9.1071462631225586e-01" cType="1" res="4.2130406945943832e-03" rms="4.5414265990257263e-01" purity="5.1060014963150024e-01" nType="0">
          <Node pos="l" depth="2" NCoef="0" IVar="-1" Cut="0.0000000000000000e+00" cType="1" res="2.1803432609885931e-03" rms="4.4369152188301086e-01" purity="3.3537635207176208e-01" nType="-99"/>
          <Node pos="r" depth="2" NCoef="0" IVar="-1" Cut="0.0000000000000000e+00" cType="1" res="1.2687892012763768e-04" rms="4.5485934615135193e-01" purity="5.2402871847152710e-01" nType="-99"/>
        </Node>
        <Node pos="r" depth="1" NCoef="0" IVar="-1" Cut="0.0000000000000000e+00" cType="1" res="-2.5154342874884605e-03" rms="4.3560212850570679e-01" purity="3.9777353405952454e-01" nType="-99"/>
      </Node>
    </BinaryTree>
    <BinaryTree type="DecisionTree" boostWeight="1.0000000000000000e+00" itree="1307">
      <Node pos="s" depth="0" NCoef="0" IVar="1" Cut="9.8923632812500000e+02" cType="1" res="-2.5723795406520367e-03" rms="4.5262545347213745e-01" purity="4.9779251217842102e-01" nType="0">
        <Node pos="l" depth="1" NCoef="0" IVar="5" Cut="9.1101282835006714e-01" cType="1" res="-5.0554117187857628e-03" rms="4.5326390862464905e-01" purity="4.8751521110534668e-01" nType="0">
          <Node pos="l" depth="2" NCoef="0" IVar="-1" Cut="0.0000000000000000e+00" cType="1" res="1.4228761428967118e-03" rms="4.3517187237739563e-01" purity="3.0613258481025696e-01" nType="-99"/>
          <Node pos="r" depth="2" NCoef="0" IVar="-1" Cut="0.0000000000000000e+00" cType="1" res="-4.4735820847563446e-04" rms="4.5459264516830444e-01" purity="5.0176972150802612e-01" nType="-99"/>
        </Node>
        <Node pos="r" depth="1" NCoef="0" IVar="-1" Cut="0.0000000000000000e+00" cType="1" res="2.7974550612270832e-03" rms="4.3835571408271790e-01" purity="6.8526273965835571e-01" nType="-99"/>
      </Node>
    </BinaryTree>
    <BinaryTree type="DecisionTree" boostWeight="1.0000000000000000e+00" itree="1308">
      <Node pos="s" depth="0" NCoef="0" IVar="1" Cut="6.2210406494140625e+02" cType="1" res="-5.2783251740038395e-03" rms="4.5425933599472046e-01" purity="4.9564886093139648e-01" nType="0">
        <Node pos="l" depth="1" NCoef="0" IVar="9" Cut="2.1328702569007874e-01" cType="1" res="8.4021943621337414e-04" rms="4.5203116536140442e-01" purity="4.5738726854324341e-01" nType="0">
          <Node pos="l" depth="2" NCoef="0" IVar="-1" Cut="0.0000000000000000e+00" cType="1" res="-2.0535655785351992e-03" rms="4.4810223579406738e-01" purity="4.7946029901504517e-01" nType="-99"/>
          <Node pos="r" depth="2" NCoef="0" IVar="-1" Cut="0.0000000000000000e+00" cType="1" res="3.0282646184787154e-04" rms="4.5232391357421875e-01" purity="4.5480856299400330e-01" nType="-99"/>
        </Node>
        <Node pos="r" depth="1" NCoef="0" IVar="4" Cut="5.0947302579879761e-01" cType="1" res="-1.8844891339540482e-02" rms="4.5887035131454468e-01" purity="5.8048576116561890e-01" nType="0">
          <Node pos="l" depth="2" NCoef="0" IVar="-1" Cut="0.0000000000000000e+00" cType="1" res="-6.7669758573174477e-04" rms="4.5881539583206177e-01" purity="5.7074439525604248e-01" nType="-99"/>
          <Node pos="r" depth="2" NCoef="0" IVar="-1" Cut="0.0000000000000000e+00" cType="1" res="-3.2472517341375351e-03" rms="4.5783442258834839e-01" purity="6.1690926551818848e-01" nType="-99"/>
        </Node>
      </Node>
    </BinaryTree>
    <BinaryTree type="DecisionTree" boostWeight="1.0000000000000000e+00" itree="1309">
      <Node pos="s" depth="0" NCoef="0" IVar="6" Cut="2.4585251808166504e+00" cType="1" res="4.8365681432187557e-03" rms="4.5296195149421692e-01" purity="5.0393581390380859e-01" nType="0">
        <Node pos="l" depth="1" NCoef="0" IVar="0" Cut="1.2837555408477783e+00" cType="1" res="1.1246603913605213e-02" rms="4.5787557959556580e-01" purity="5.5285745859146118e-01" nType="0">
          <Node pos="l" depth="2" NCoef="0" IVar="-1" Cut="0.0000000000000000e+00" cType="1" res="2.8188705909997225e-03" rms="4.6776220202445984e-01" purity="3.5888510942459106e-01" nType="-99"/>
          <Node pos="r" depth="2" NCoef="0" IVar="-1" Cut="0.0000000000000000e+00" cType="1" res="4.3273551273159683e-04" rms="4.5631301403045654e-01" purity="5.8007317781448364e-01" nType="-99"/>
        </Node>
        <Node pos="r" depth="1" NCoef="0" IVar="4" Cut="3.7467214465141296e-01" cType="1" res="-1.6105692833662033e-02" rms="4.3586659431457520e-01" purity="3.4410354495048523e-01" nType="0">
          <Node pos="l" depth="2" NCoef="0" IVar="-1" Cut="0.0000000000000000e+00" cType="1" res="-2.1357361692935228e-03" rms="4.1785696148872375e-01" purity="2.9236194491386414e-01" nType="-99"/>
          <Node pos="r" depth="2" NCoef="0" IVar="-1" Cut="0.0000000000000000e+00" cType="1" res="3.7941557820886374e-04" rms="4.6148186922073364e-01" purity="4.2417085170745850e-01" nType="-99"/>
        </Node>
      </Node>
    </BinaryTree>
    <BinaryTree type="DecisionTree" boostWeight="1.0000000000000000e+00" itree="1310">
      <Node pos="s" depth="0" NCoef="0" IVar="9" Cut="1.7022079229354858e-01" cType="1" res="-4.0013771504163742e-03" rms="4.5519191026687622e-01" purity="4.9684748053550720e-01" nType="0">
        <Node pos="l" depth="1" NCoef="0" IVar="-1" Cut="0.0000000000000000e+00" cType="1" res="-2.2887354716658592e-03" rms="4.4046849012374878e-01" purity="5.3164637088775635e-01" nType="-99"/>
        <Node pos="r" depth="1" NCoef="0" IVar="1" Cut="7.6823931884765625e+02" cType="1" res="-1.4834279427304864e-03" rms="4.5626124739646912e-01" purity="4.9405065178871155e-01" nType="0">
          <Node pos="l" depth="2" NCoef="0" IVar="-1" Cut="0.0000000000000000e+00" cType="1" res="1.4818417548667639e-04" rms="4.5549196004867554e-01" purity="4.7965425252914429e-01" nType="-99"/>
          <Node pos="r" depth="2" NCoef="0" IVar="-1" Cut="0.0000000000000000e+00" cType="1" res="-1.6694010701030493e-03" rms="4.6041753888130188e-01" purity="5.8666443824768066e-01" nType="-99"/>
        </Node>
      </Node>
    </BinaryTree>
    <BinaryTree type="DecisionTree" boostWeight="1.0000000000000000e+00" itree="1311">
      <Node pos="s" depth="0" NCoef="0" IVar="4" Cut="6.8391764163970947e-01" cType="1" res="4.4627706520259380e-03" rms="4.5332580804824829e-01" purity="5.0255054235458374e-01" nType="0">
        <Node pos="l" depth="1" NCoef="0" IVar="9" Cut="6.6293424367904663e-01" cType="1" res="1.9579841755330563e-03" rms="4.5296058058738708e-01" purity="4.9375450611114502e-01" nType="0">
          <Node pos="l" depth="2" NCoef="0" IVar="-1" Cut="0.0000000000000000e+00" cType="1" res="-2.5655579520389438e-04" rms="4.5459264516830444e-01" purity="5.1799941062927246e-01" nType="-99"/>
          <Node pos="r" depth="2" NCoef="0" IVar="-1" Cut="0.0000000000000000e+00" cType="1" res="8.5361517267301679e-04" rms="4.4964435696601868e-01" purity="4.4800883531570435e-01" nType="-99"/>
        </Node>
        <Node pos="r" depth="1" NCoef="0" IVar="-1" Cut="0.0000000000000000e+00" cType="1" res="2.1600045729428530e-03" rms="4.5656991004943848e-01" purity="6.0603410005569458e-01" nType="-99"/>
      </Node>
    </BinaryTree>
  </Weights>
</MethodSetup>
