<?xml version="1.0"?>
<MethodSetup Method="BDT::BDTG">
  <GeneralInfo>
    <Info name="TMVA Release" value="4.2.1 [262657]"/>
    <Info name="ROOT Release" value="6.06/01 [394753]"/>
    <Info name="Creator" value="kelmorab"/>
    <Info name="Date" value="Tue Feb 28 15:24:52 2017"/>
    <Info name="Host" value="Linux vocms0315.cern.ch 2.6.32-573.26.1.el6.x86_64 #1 SMP Wed May 4 09:23:05 CEST 2016 x86_64 x86_64 x86_64 GNU/Linux"/>
    <Info name="Dir" value="/nfs/dust/cms/user/kelmorab/Spring17Training/3makeHistosAndCards"/>
    <Info name="Training events" value="52922"/>
    <Info name="TrainingTime" value="2.53818581e+01"/>
    <Info name="AnalysisType" value="Classification"/>
  </GeneralInfo>
  <Options>
    <Option name="V" modified="Yes">False</Option>
    <Option name="VerbosityLevel" modified="No">Default</Option>
    <Option name="VarTransform" modified="No">None</Option>
    <Option name="H" modified="Yes">False</Option>
    <Option name="CreateMVAPdfs" modified="No">False</Option>
    <Option name="IgnoreNegWeightsInTraining" modified="No">False</Option>
    <Option name="NTrees" modified="Yes">1043</Option>
    <Option name="MaxDepth" modified="Yes">2</Option>
    <Option name="MinNodeSize" modified="No">5%</Option>
    <Option name="nCuts" modified="Yes">60</Option>
    <Option name="BoostType" modified="Yes">Grad</Option>
    <Option name="AdaBoostR2Loss" modified="No">quadratic</Option>
    <Option name="UseBaggedBoost" modified="Yes">True</Option>
    <Option name="Shrinkage" modified="Yes">3.259672e-02</Option>
    <Option name="AdaBoostBeta" modified="No">5.000000e-01</Option>
    <Option name="UseRandomisedTrees" modified="No">False</Option>
    <Option name="UseNvars" modified="No">3</Option>
    <Option name="UsePoissonNvars" modified="No">True</Option>
    <Option name="BaggedSampleFraction" modified="No">1.119899e-01</Option>
    <Option name="UseYesNoLeaf" modified="No">True</Option>
    <Option name="NegWeightTreatment" modified="Yes">ignorenegweightsintraining</Option>
    <Option name="Css" modified="No">1.000000e+00</Option>
    <Option name="Cts_sb" modified="No">1.000000e+00</Option>
    <Option name="Ctb_ss" modified="No">1.000000e+00</Option>
    <Option name="Cbb" modified="No">1.000000e+00</Option>
    <Option name="NodePurityLimit" modified="No">5.000000e-01</Option>
    <Option name="SeparationType" modified="No">giniindex</Option>
    <Option name="DoBoostMonitor" modified="No">False</Option>
    <Option name="UseFisherCuts" modified="No">False</Option>
    <Option name="MinLinCorrForFisher" modified="No">8.000000e-01</Option>
    <Option name="UseExclusiveVars" modified="No">False</Option>
    <Option name="DoPreselection" modified="No">False</Option>
    <Option name="SigToBkgFraction" modified="No">1.000000e+00</Option>
    <Option name="PruneMethod" modified="No">nopruning</Option>
    <Option name="PruneStrength" modified="No">0.000000e+00</Option>
    <Option name="PruningValFraction" modified="No">5.000000e-01</Option>
    <Option name="nEventsMin" modified="No">0</Option>
    <Option name="UseBaggedGrad" modified="No">False</Option>
    <Option name="GradBaggingFraction" modified="Yes">1.119899e-01</Option>
    <Option name="UseNTrainEvents" modified="No">0</Option>
    <Option name="NNodesMax" modified="No">0</Option>
  </Options>
  <Variables NVar="7">
    <Variable VarIndex="0" Expression="aplanarity" Label="aplanarity" Title="aplanarity" Unit="" Internal="aplanarity" Type="F" Min="7.03013560e-04" Max="4.56591010e-01"/>
    <Variable VarIndex="1" Expression="dEta_fn" Label="dEta_fn" Title="dEta_fn" Unit="" Internal="dEta_fn" Type="F" Min="1.63711025e-03" Max="7.44627666e+00"/>
    <Variable VarIndex="2" Expression="pt_all_jets_over_E_all_jets" Label="pt_all_jets_over_E_all_jets" Title="pt_all_jets_over_E_all_jets" Unit="" Internal="pt_all_jets_over_E_all_jets" Type="F" Min="2.30137601e-01" Max="9.89420533e-01"/>
    <Variable VarIndex="3" Expression="min_dr_tagged_jets" Label="min_dr_tagged_jets" Title="min_dr_tagged_jets" Unit="" Internal="min_dr_tagged_jets" Type="F" Min="3.97769511e-01" Max="3.70696688e+00"/>
    <Variable VarIndex="4" Expression="dev_from_avg_disc_btags" Label="dev_from_avg_disc_btags" Title="dev_from_avg_disc_btags" Unit="" Internal="dev_from_avg_disc_btags" Type="F" Min="2.50249210e-10" Max="4.98092314e-03"/>
    <Variable VarIndex="5" Expression="all_sum_pt_with_met" Label="all_sum_pt_with_met" Title="all_sum_pt_with_met" Unit="" Internal="all_sum_pt_with_met" Type="F" Min="2.80749664e+02" Max="4.14368066e+03"/>
    <Variable VarIndex="6" Expression="blr_transformed" Label="blr_transformed" Title="blr_transformed" Unit="" Internal="blr_transformed" Type="F" Min="-2.90816426e+00" Max="8.16772079e+00"/>
  </Variables>
  <Spectators NSpec="0"/>
  <Classes NClass="2">
    <Class Name="Signal" Index="0"/>
    <Class Name="Background" Index="1"/>
  </Classes>
  <Transformations NTransformations="0"/>
  <MVAPdfs/>
  <Weights NTrees="1043" AnalysisType="1">
    <BinaryTree type="DecisionTree" boostWeight="1.0000000000000000e+00" itree="0">
      <Node pos="s" depth="0" NCoef="0" IVar="6" Cut="3.8529746532440186e+00" cType="1" res="-1.2089237570762634e-03" rms="4.9999853968620300e-01" purity="4.9879109859466553e-01" nType="0">
        <Node pos="l" depth="1" NCoef="0" IVar="2" Cut="7.1390116214752197e-01" cType="1" res="-1.1405725777149200e-01" rms="4.8681715130805969e-01" purity="3.8594272732734680e-01" nType="0">
          <Node pos="l" depth="2" NCoef="0" IVar="-1" Cut="0.0000000000000000e+00" cType="1" res="-7.9061817377805710e-03" rms="4.7654864192008972e-01" purity="3.4866797924041748e-01" nType="-99"/>
          <Node pos="r" depth="2" NCoef="0" IVar="-1" Cut="0.0000000000000000e+00" cType="1" res="4.5167090138420463e-04" rms="4.9993610382080078e-01" purity="5.0799292325973511e-01" nType="-99"/>
        </Node>
        <Node pos="r" depth="1" NCoef="0" IVar="1" Cut="1.5714066028594971e+00" cType="1" res="1.4104649424552917e-01" rms="4.7969353199005127e-01" purity="6.4104646444320679e-01" nType="0">
          <Node pos="l" depth="2" NCoef="0" IVar="-1" Cut="0.0000000000000000e+00" cType="1" res="1.1716684326529503e-02" rms="4.6147450804710388e-01" purity="6.9246107339859009e-01" nType="-99"/>
          <Node pos="r" depth="2" NCoef="0" IVar="-1" Cut="0.0000000000000000e+00" cType="1" res="-1.4016216155141592e-03" rms="4.9931278824806213e-01" purity="4.7379410266876221e-01" nType="-99"/>
        </Node>
      </Node>
    </BinaryTree>
    <BinaryTree type="DecisionTree" boostWeight="1.0000000000000000e+00" itree="1">
      <Node pos="s" depth="0" NCoef="0" IVar="6" Cut="3.5670523643493652e+00" cType="1" res="-1.6760554164648056e-02" rms="4.9865049123764038e-01" purity="4.8344320058822632e-01" nType="0">
        <Node pos="l" depth="1" NCoef="0" IVar="1" Cut="1.8989282846450806e+00" cType="1" res="-1.3423943519592285e-01" rms="4.8057582974433899e-01" purity="3.6279156804084778e-01" nType="0">
          <Node pos="l" depth="2" NCoef="0" IVar="-1" Cut="0.0000000000000000e+00" cType="1" res="-5.2626044489443302e-03" rms="4.8955893516540527e-01" purity="3.9942046999931335e-01" nType="-99"/>
          <Node pos="r" depth="2" NCoef="0" IVar="-1" Cut="0.0000000000000000e+00" cType="1" res="-1.3947616331279278e-02" rms="4.0728500485420227e-01" purity="2.1002781391143799e-01" nType="-99"/>
        </Node>
        <Node pos="r" depth="1" NCoef="0" IVar="1" Cut="1.4479925632476807e+00" cType="1" res="9.7008898854255676e-02" rms="4.8937064409255981e-01" purity="6.0028523206710815e-01" nType="0">
          <Node pos="l" depth="2" NCoef="0" IVar="-1" Cut="0.0000000000000000e+00" cType="1" res="8.5306102409958839e-03" rms="4.7726908326148987e-01" purity="6.4863324165344238e-01" nType="-99"/>
          <Node pos="r" depth="2" NCoef="0" IVar="-1" Cut="0.0000000000000000e+00" cType="1" res="-1.0412852279841900e-03" rms="4.9946954846382141e-01" purity="4.8055115342140198e-01" nType="-99"/>
        </Node>
      </Node>
    </BinaryTree>
    <BinaryTree type="DecisionTree" boostWeight="1.0000000000000000e+00" itree="2">
      <Node pos="s" depth="0" NCoef="0" IVar="6" Cut="4.2626829147338867e+00" cType="1" res="-3.2231130171567202e-03" rms="4.9807858467102051e-01" purity="4.9697151780128479e-01" nType="0">
        <Node pos="l" depth="1" NCoef="0" IVar="2" Cut="6.7252236604690552e-01" cType="1" res="-8.2825548946857452e-02" rms="4.9167564511299133e-01" purity="4.1381087899208069e-01" nType="0">
          <Node pos="l" depth="2" NCoef="0" IVar="-1" Cut="0.0000000000000000e+00" cType="1" res="-6.6046444699168205e-03" rms="4.8188719153404236e-01" purity="3.6889237165451050e-01" nType="-99"/>
          <Node pos="r" depth="2" NCoef="0" IVar="-1" Cut="0.0000000000000000e+00" cType="1" res="4.8228463856503367e-04" rms="4.9932485818862915e-01" purity="5.0768786668777466e-01" nType="-99"/>
        </Node>
        <Node pos="r" depth="1" NCoef="0" IVar="1" Cut="1.0694160461425781e+00" cType="1" res="1.5681628882884979e-01" rms="4.7166857123374939e-01" purity="6.6416460275650024e-01" nType="0">
          <Node pos="l" depth="2" NCoef="0" IVar="-1" Cut="0.0000000000000000e+00" cType="1" res="1.3045063242316246e-02" rms="4.4774201512336731e-01" purity="7.2254675626754761e-01" nType="-99"/>
          <Node pos="r" depth="2" NCoef="0" IVar="-1" Cut="0.0000000000000000e+00" cType="1" res="4.5804050751030445e-03" rms="4.9285599589347839e-01" purity="5.8226889371871948e-01" nType="-99"/>
        </Node>
      </Node>
    </BinaryTree>
    <BinaryTree type="DecisionTree" boostWeight="1.0000000000000000e+00" itree="3">
      <Node pos="s" depth="0" NCoef="0" IVar="6" Cut="3.7961955070495605e+00" cType="1" res="-1.0342979803681374e-03" rms="4.9695205688476562e-01" purity="4.9917343258857727e-01" nType="0">
        <Node pos="l" depth="1" NCoef="0" IVar="2" Cut="7.4386608600616455e-01" cType="1" res="-1.0226728022098541e-01" rms="4.8699676990509033e-01" purity="3.8999745249748230e-01" nType="0">
          <Node pos="l" depth="2" NCoef="0" IVar="-1" Cut="0.0000000000000000e+00" cType="1" res="-7.1933232247829437e-03" rms="4.7772496938705444e-01" purity="3.5373726487159729e-01" nType="-99"/>
          <Node pos="r" depth="2" NCoef="0" IVar="-1" Cut="0.0000000000000000e+00" cType="1" res="2.9378307517617941e-03" rms="4.9755415320396423e-01" purity="5.4930758476257324e-01" nType="-99"/>
        </Node>
        <Node pos="r" depth="1" NCoef="0" IVar="1" Cut="1.8437150716781616e+00" cType="1" res="1.2124359607696533e-01" rms="4.8110574483871460e-01" purity="6.3104557991027832e-01" nType="0">
          <Node pos="l" depth="2" NCoef="0" IVar="-1" Cut="0.0000000000000000e+00" cType="1" res="9.4103123992681503e-03" rms="4.6979999542236328e-01" purity="6.6924792528152466e-01" nType="-99"/>
          <Node pos="r" depth="2" NCoef="0" IVar="-1" Cut="0.0000000000000000e+00" cType="1" res="-2.6128650642931461e-03" rms="4.9711060523986816e-01" purity="4.5019388198852539e-01" nType="-99"/>
        </Node>
      </Node>
    </BinaryTree>
    <BinaryTree type="DecisionTree" boostWeight="1.0000000000000000e+00" itree="4">
      <Node pos="s" depth="0" NCoef="0" IVar="6" Cut="2.8989310264587402e+00" cType="1" res="-1.0068124160170555e-02" rms="4.9609556794166565e-01" purity="4.9000209569931030e-01" nType="0">
        <Node pos="l" depth="1" NCoef="0" IVar="0" Cut="1.4255368709564209e-01" cType="1" res="-1.6910652816295624e-01" rms="4.6548071503639221e-01" purity="3.1956553459167480e-01" nType="0">
          <Node pos="l" depth="2" NCoef="0" IVar="-1" Cut="0.0000000000000000e+00" cType="1" res="-1.0530423372983932e-02" rms="4.5046317577362061e-01" purity="2.8416407108306885e-01" nType="-99"/>
          <Node pos="r" depth="2" NCoef="0" IVar="-1" Cut="0.0000000000000000e+00" cType="1" res="-1.5734807820990682e-03" rms="4.9797677993774414e-01" purity="4.6400940418243408e-01" nType="-99"/>
        </Node>
        <Node pos="r" depth="1" NCoef="0" IVar="6" Cut="4.6846966743469238e+00" cType="1" res="6.6506996750831604e-02" rms="4.9218183755874634e-01" purity="5.7206523418426514e-01" nType="0">
          <Node pos="l" depth="2" NCoef="0" IVar="-1" Cut="0.0000000000000000e+00" cType="1" res="4.9667165149003267e-04" rms="4.9855405092239380e-01" purity="5.0933086872100830e-01" nType="-99"/>
          <Node pos="r" depth="2" NCoef="0" IVar="-1" Cut="0.0000000000000000e+00" cType="1" res="1.0841212235391140e-02" rms="4.5888990163803101e-01" purity="6.9522470235824585e-01" nType="-99"/>
        </Node>
      </Node>
    </BinaryTree>
    <BinaryTree type="DecisionTree" boostWeight="1.0000000000000000e+00" itree="5">
      <Node pos="s" depth="0" NCoef="0" IVar="6" Cut="4.0142211914062500e+00" cType="1" res="-1.2216626666486263e-02" rms="4.9554109573364258e-01" purity="4.8833781480789185e-01" nType="0">
        <Node pos="l" depth="1" NCoef="0" IVar="6" Cut="2.4451348781585693e+00" cType="1" res="-8.8076367974281311e-02" rms="4.8854506015777588e-01" purity="4.0076759457588196e-01" nType="0">
          <Node pos="l" depth="2" NCoef="0" IVar="-1" Cut="0.0000000000000000e+00" cType="1" res="-9.2832259833812714e-03" rms="4.6162131428718567e-01" purity="3.1052237749099731e-01" nType="-99"/>
          <Node pos="r" depth="2" NCoef="0" IVar="-1" Cut="0.0000000000000000e+00" cType="1" res="-2.4379531387239695e-03" rms="4.9596339464187622e-01" purity="4.4627946615219116e-01" nType="-99"/>
        </Node>
        <Node pos="r" depth="1" NCoef="0" IVar="2" Cut="6.1391335725784302e-01" cType="1" res="1.0007134079933167e-01" rms="4.8438107967376709e-01" purity="6.1795973777770996e-01" nType="0">
          <Node pos="l" depth="2" NCoef="0" IVar="-1" Cut="0.0000000000000000e+00" cType="1" res="1.0349604999646544e-03" rms="4.9734613299369812e-01" purity="5.3441697359085083e-01" nType="-99"/>
          <Node pos="r" depth="2" NCoef="0" IVar="-1" Cut="0.0000000000000000e+00" cType="1" res="1.1101244017481804e-02" rms="4.5603772997856140e-01" purity="7.0304614305496216e-01" nType="-99"/>
        </Node>
      </Node>
    </BinaryTree>
    <BinaryTree type="DecisionTree" boostWeight="1.0000000000000000e+00" itree="6">
      <Node pos="s" depth="0" NCoef="0" IVar="6" Cut="3.8516557216644287e+00" cType="1" res="4.3394328095018864e-03" rms="4.9459326267242432e-01" purity="5.0487786531448364e-01" nType="0">
        <Node pos="l" depth="1" NCoef="0" IVar="1" Cut="2.3483073711395264e+00" cType="1" res="-8.3200529217720032e-02" rms="4.8883420228958130e-01" purity="4.0190339088439941e-01" nType="0">
          <Node pos="l" depth="2" NCoef="0" IVar="-1" Cut="0.0000000000000000e+00" cType="1" res="-3.3874998334795237e-03" rms="4.9292984604835510e-01" purity="4.2363551259040833e-01" nType="-99"/>
          <Node pos="r" depth="2" NCoef="0" IVar="-1" Cut="0.0000000000000000e+00" cType="1" res="-1.3379855081439018e-02" rms="4.0883073210716248e-01" purity="2.1337027847766876e-01" nType="-99"/>
        </Node>
        <Node pos="r" depth="1" NCoef="0" IVar="2" Cut="5.7818025350570679e-01" cType="1" res="1.1489301174879074e-01" rms="4.7945293784141541e-01" purity="6.3492345809936523e-01" nType="0">
          <Node pos="l" depth="2" NCoef="0" IVar="-1" Cut="0.0000000000000000e+00" cType="1" res="1.5963537152856588e-03" rms="4.9664038419723511e-01" purity="5.4359298944473267e-01" nType="-99"/>
          <Node pos="r" depth="2" NCoef="0" IVar="-1" Cut="0.0000000000000000e+00" cType="1" res="1.0908741503953934e-02" rms="4.5542261004447937e-01" purity="7.0361208915710449e-01" nType="-99"/>
        </Node>
      </Node>
    </BinaryTree>
    <BinaryTree type="DecisionTree" boostWeight="1.0000000000000000e+00" itree="7">
      <Node pos="s" depth="0" NCoef="0" IVar="6" Cut="3.2214095592498779e+00" cType="1" res="-9.8225325345993042e-03" rms="4.9339291453361511e-01" purity="4.8995527625083923e-01" nType="0">
        <Node pos="l" depth="1" NCoef="0" IVar="3" Cut="1.8083117008209229e+00" cType="1" res="-1.4507091045379639e-01" rms="4.7089633345603943e-01" purity="3.3522316813468933e-01" nType="0">
          <Node pos="l" depth="2" NCoef="0" IVar="-1" Cut="0.0000000000000000e+00" cType="1" res="-6.1989589594304562e-03" rms="4.8038008809089661e-01" purity="3.6536729335784912e-01" nType="-99"/>
          <Node pos="r" depth="2" NCoef="0" IVar="-1" Cut="0.0000000000000000e+00" cType="1" res="-1.2432052753865719e-02" rms="4.2037123441696167e-01" purity="2.3024173080921173e-01" nType="-99"/>
        </Node>
        <Node pos="r" depth="1" NCoef="0" IVar="2" Cut="5.3274178504943848e-01" cType="1" res="8.5507333278656006e-02" rms="4.8656556010246277e-01" purity="5.9901827573776245e-01" nType="0">
          <Node pos="l" depth="2" NCoef="0" IVar="-1" Cut="0.0000000000000000e+00" cType="1" res="-1.7582473810762167e-03" rms="4.9662694334983826e-01" purity="4.7358784079551697e-01" nType="-99"/>
          <Node pos="r" depth="2" NCoef="0" IVar="-1" Cut="0.0000000000000000e+00" cType="1" res="8.4426309913396835e-03" rms="4.7137829661369324e-01" purity="6.5884965658187866e-01" nType="-99"/>
        </Node>
      </Node>
    </BinaryTree>
    <BinaryTree type="DecisionTree" boostWeight="1.0000000000000000e+00" itree="8">
      <Node pos="s" depth="0" NCoef="0" IVar="6" Cut="3.7326695919036865e+00" cType="1" res="-8.5834152996540070e-03" rms="4.9309971928596497e-01" purity="4.9127784371376038e-01" nType="0">
        <Node pos="l" depth="1" NCoef="0" IVar="1" Cut="1.0409919023513794e+00" cType="1" res="-9.4819039106369019e-02" rms="4.8466408252716064e-01" purity="3.8511878252029419e-01" nType="0">
          <Node pos="l" depth="2" NCoef="0" IVar="-1" Cut="0.0000000000000000e+00" cType="1" res="-1.1124825105071068e-03" rms="4.9722415208816528e-01" purity="4.6236628293991089e-01" nType="-99"/>
          <Node pos="r" depth="2" NCoef="0" IVar="-1" Cut="0.0000000000000000e+00" cType="1" res="-9.1006141155958176e-03" rms="4.5750868320465088e-01" purity="3.0239892005920410e-01" nType="-99"/>
        </Node>
        <Node pos="r" depth="1" NCoef="0" IVar="6" Cut="5.6326160430908203e+00" cType="1" res="9.3578778207302094e-02" rms="4.8339584469795227e-01" purity="6.1704307794570923e-01" nType="0">
          <Node pos="l" depth="2" NCoef="0" IVar="-1" Cut="0.0000000000000000e+00" cType="1" res="3.4792791120707989e-03" rms="4.9084568023681641e-01" purity="5.8259040117263794e-01" nType="-99"/>
          <Node pos="r" depth="2" NCoef="0" IVar="-1" Cut="0.0000000000000000e+00" cType="1" res="1.5476822853088379e-02" rms="4.1595467925071716e-01" purity="7.7427786588668823e-01" nType="-99"/>
        </Node>
      </Node>
    </BinaryTree>
    <BinaryTree type="DecisionTree" boostWeight="1.0000000000000000e+00" itree="9">
      <Node pos="s" depth="0" NCoef="0" IVar="6" Cut="3.5935144424438477e+00" cType="1" res="-5.4804049432277679e-03" rms="4.9239948391914368e-01" purity="4.9559661746025085e-01" nType="0">
        <Node pos="l" depth="1" NCoef="0" IVar="2" Cut="7.1368491649627686e-01" cType="1" res="-1.0088966786861420e-01" rms="4.8224675655364990e-01" purity="3.7595900893211365e-01" nType="0">
          <Node pos="l" depth="2" NCoef="0" IVar="-1" Cut="0.0000000000000000e+00" cType="1" res="-7.4434797279536724e-03" rms="4.6932637691497803e-01" purity="3.3077645301818848e-01" nType="-99"/>
          <Node pos="r" depth="2" NCoef="0" IVar="-1" Cut="0.0000000000000000e+00" cType="1" res="1.5848829643800855e-03" rms="4.9880909919738770e-01" purity="5.1604312658309937e-01" nType="-99"/>
        </Node>
        <Node pos="r" depth="1" NCoef="0" IVar="2" Cut="6.3935148715972900e-01" cType="1" res="8.6109936237335205e-02" rms="4.8459175229072571e-01" purity="6.1044549942016602e-01" nType="0">
          <Node pos="l" depth="2" NCoef="0" IVar="-1" Cut="0.0000000000000000e+00" cType="1" res="1.8850147025659680e-03" rms="4.9493333697319031e-01" purity="5.5138570070266724e-01" nType="-99"/>
          <Node pos="r" depth="2" NCoef="0" IVar="-1" Cut="0.0000000000000000e+00" cType="1" res="9.7032869234681129e-03" rms="4.5970228314399719e-01" purity="6.9310182332992554e-01" nType="-99"/>
        </Node>
      </Node>
    </BinaryTree>
    <BinaryTree type="DecisionTree" boostWeight="1.0000000000000000e+00" itree="10">
      <Node pos="s" depth="0" NCoef="0" IVar="6" Cut="4.6829905509948730e+00" cType="1" res="2.2334221284836531e-03" rms="4.9144533276557922e-01" purity="5.0219172239303589e-01" nType="0">
        <Node pos="l" depth="1" NCoef="0" IVar="6" Cut="3.0412182807922363e+00" cType="1" res="-4.8589602112770081e-02" rms="4.9145993590354919e-01" purity="4.4012978672981262e-01" nType="0">
          <Node pos="l" depth="2" NCoef="0" IVar="-1" Cut="0.0000000000000000e+00" cType="1" res="-6.6503058187663555e-03" rms="4.7458142042160034e-01" purity="3.4748044610023499e-01" nType="-99"/>
          <Node pos="r" depth="2" NCoef="0" IVar="-1" Cut="0.0000000000000000e+00" cType="1" res="8.1132422201335430e-04" rms="4.9668467044830322e-01" purity="5.1892864704132080e-01" nType="-99"/>
        </Node>
        <Node pos="r" depth="1" NCoef="0" IVar="2" Cut="5.9924286603927612e-01" cType="1" res="1.6842022538185120e-01" rms="4.5321902632713318e-01" purity="7.0512861013412476e-01" nType="0">
          <Node pos="l" depth="2" NCoef="0" IVar="-1" Cut="0.0000000000000000e+00" cType="1" res="4.8186783678829670e-03" rms="4.8580679297447205e-01" purity="6.1033743619918823e-01" nType="-99"/>
          <Node pos="r" depth="2" NCoef="0" IVar="-1" Cut="0.0000000000000000e+00" cType="1" res="1.5861051157116890e-02" rms="4.0864360332489014e-01" purity="7.8799098730087280e-01" nType="-99"/>
        </Node>
      </Node>
    </BinaryTree>
    <BinaryTree type="DecisionTree" boostWeight="1.0000000000000000e+00" itree="11">
      <Node pos="s" depth="0" NCoef="0" IVar="6" Cut="4.0433697700500488e+00" cType="1" res="-3.3956281840801239e-03" rms="4.9037945270538330e-01" purity="4.9732375144958496e-01" nType="0">
        <Node pos="l" depth="1" NCoef="0" IVar="1" Cut="1.9479671716690063e+00" cType="1" res="-7.9338893294334412e-02" rms="4.8646757006645203e-01" purity="3.9902412891387939e-01" nType="0">
          <Node pos="l" depth="2" NCoef="0" IVar="-1" Cut="0.0000000000000000e+00" cType="1" res="-2.6100052054971457e-03" rms="4.9285724759101868e-01" purity="4.3329563736915588e-01" nType="-99"/>
          <Node pos="r" depth="2" NCoef="0" IVar="-1" Cut="0.0000000000000000e+00" cType="1" res="-1.0633179917931557e-02" rms="4.3322765827178955e-01" purity="2.5350660085678101e-01" nType="-99"/>
        </Node>
        <Node pos="r" depth="1" NCoef="0" IVar="1" Cut="1.5878530740737915e+00" cType="1" res="1.1646209657192230e-01" rms="4.7226557135581970e-01" purity="6.5246546268463135e-01" nType="0">
          <Node pos="l" depth="2" NCoef="0" IVar="-1" Cut="0.0000000000000000e+00" cType="1" res="9.7923958674073219e-03" rms="4.5579856634140015e-01" purity="7.0154726505279541e-01" nType="-99"/>
          <Node pos="r" depth="2" NCoef="0" IVar="-1" Cut="0.0000000000000000e+00" cType="1" res="-2.0464463159441948e-03" rms="4.9621024727821350e-01" purity="4.7933375835418701e-01" nType="-99"/>
        </Node>
      </Node>
    </BinaryTree>
    <BinaryTree type="DecisionTree" boostWeight="1.0000000000000000e+00" itree="12">
      <Node pos="s" depth="0" NCoef="0" IVar="6" Cut="3.0809531211853027e+00" cType="1" res="4.0960116311907768e-03" rms="4.8879671096801758e-01" purity="5.0460451841354370e-01" nType="0">
        <Node pos="l" depth="1" NCoef="0" IVar="2" Cut="7.2874730825424194e-01" cType="1" res="-1.2746046483516693e-01" rms="4.7067683935165405e-01" purity="3.3802956342697144e-01" nType="0">
          <Node pos="l" depth="2" NCoef="0" IVar="-1" Cut="0.0000000000000000e+00" cType="1" res="-8.5549578070640564e-03" rms="4.5536318421363831e-01" purity="2.9589006304740906e-01" nType="-99"/>
          <Node pos="r" depth="2" NCoef="0" IVar="-1" Cut="0.0000000000000000e+00" cType="1" res="1.3564829714596272e-03" rms="4.9915441870689392e-01" purity="5.0480085611343384e-01" nType="-99"/>
        </Node>
        <Node pos="r" depth="1" NCoef="0" IVar="6" Cut="5.0438718795776367e+00" cType="1" res="8.0642141401767731e-02" rms="4.8281317949295044e-01" purity="6.0152614116668701e-01" nType="0">
          <Node pos="l" depth="2" NCoef="0" IVar="-1" Cut="0.0000000000000000e+00" cType="1" res="2.2739283740520477e-03" rms="4.9260872602462769e-01" purity="5.5192393064498901e-01" nType="-99"/>
          <Node pos="r" depth="2" NCoef="0" IVar="-1" Cut="0.0000000000000000e+00" cType="1" res="1.2446304783225060e-02" rms="4.3237611651420593e-01" purity="7.4560970067977905e-01" nType="-99"/>
        </Node>
      </Node>
    </BinaryTree>
    <BinaryTree type="DecisionTree" boostWeight="1.0000000000000000e+00" itree="13">
      <Node pos="s" depth="0" NCoef="0" IVar="6" Cut="3.8453783988952637e+00" cType="1" res="9.7334645688533783e-03" rms="4.8895287513732910e-01" purity="5.1124346256256104e-01" nType="0">
        <Node pos="l" depth="1" NCoef="0" IVar="2" Cut="6.8335336446762085e-01" cType="1" res="-7.2123795747756958e-02" rms="4.8630326986312866e-01" purity="3.9958536624908447e-01" nType="0">
          <Node pos="l" depth="2" NCoef="0" IVar="-1" Cut="0.0000000000000000e+00" cType="1" res="-6.2672998756170273e-03" rms="4.7387588024139404e-01" purity="3.4763634204864502e-01" nType="-99"/>
          <Node pos="r" depth="2" NCoef="0" IVar="-1" Cut="0.0000000000000000e+00" cType="1" res="1.8978598527610302e-03" rms="4.9789950251579285e-01" purity="5.1895481348037720e-01" nType="-99"/>
        </Node>
        <Node pos="r" depth="1" NCoef="0" IVar="2" Cut="7.0640581846237183e-01" cType="1" res="1.1508734524250031e-01" rms="4.7188690304756165e-01" purity="6.5495228767395020e-01" nType="0">
          <Node pos="l" depth="2" NCoef="0" IVar="-1" Cut="0.0000000000000000e+00" cType="1" res="4.6901507303118706e-03" rms="4.8402258753776550e-01" purity="6.1407977342605591e-01" nType="-99"/>
          <Node pos="r" depth="2" NCoef="0" IVar="-1" Cut="0.0000000000000000e+00" cType="1" res="1.3630184344947338e-02" rms="4.2389449477195740e-01" purity="7.6373577117919922e-01" nType="-99"/>
        </Node>
      </Node>
    </BinaryTree>
    <BinaryTree type="DecisionTree" boostWeight="1.0000000000000000e+00" itree="14">
      <Node pos="s" depth="0" NCoef="0" IVar="6" Cut="4.0647544860839844e+00" cType="1" res="5.6650526821613312e-03" rms="4.8909965157508850e-01" purity="5.0749146938323975e-01" nType="0">
        <Node pos="l" depth="1" NCoef="0" IVar="2" Cut="6.8796789646148682e-01" cType="1" res="-5.5622100830078125e-02" rms="4.8937427997589111e-01" purity="4.1899666190147400e-01" nType="0">
          <Node pos="l" depth="2" NCoef="0" IVar="-1" Cut="0.0000000000000000e+00" cType="1" res="-4.9039726145565510e-03" rms="4.8155984282493591e-01" purity="3.7629303336143494e-01" nType="-99"/>
          <Node pos="r" depth="2" NCoef="0" IVar="-1" Cut="0.0000000000000000e+00" cType="1" res="1.7691691173240542e-03" rms="4.9716624617576599e-01" purity="5.2234274148941040e-01" nType="-99"/>
        </Node>
        <Node pos="r" depth="1" NCoef="0" IVar="3" Cut="1.7627731561660767e+00" cType="1" res="1.0720478743314743e-01" rms="4.7142326831817627e-01" purity="6.5410840511322021e-01" nType="0">
          <Node pos="l" depth="2" NCoef="0" IVar="-1" Cut="0.0000000000000000e+00" cType="1" res="8.6755510419607162e-03" rms="4.5815536379814148e-01" purity="6.9086581468582153e-01" nType="-99"/>
          <Node pos="r" depth="2" NCoef="0" IVar="-1" Cut="0.0000000000000000e+00" cType="1" res="-7.2749023092910647e-04" rms="4.9513524770736694e-01" purity="5.2980262041091919e-01" nType="-99"/>
        </Node>
      </Node>
    </BinaryTree>
    <BinaryTree type="DecisionTree" boostWeight="1.0000000000000000e+00" itree="15">
      <Node pos="s" depth="0" NCoef="0" IVar="6" Cut="4.3356871604919434e+00" cType="1" res="-1.2040765024721622e-02" rms="4.8804461956024170e-01" purity="4.9096426367759705e-01" nType="0">
        <Node pos="l" depth="1" NCoef="0" IVar="2" Cut="6.2037861347198486e-01" cType="1" res="-6.6034659743309021e-02" rms="4.8665532469749451e-01" purity="4.1352891921997070e-01" nType="0">
          <Node pos="l" depth="2" NCoef="0" IVar="-1" Cut="0.0000000000000000e+00" cType="1" res="-6.5757487900555134e-03" rms="4.7156241536140442e-01" purity="3.4541496634483337e-01" nType="-99"/>
          <Node pos="r" depth="2" NCoef="0" IVar="-1" Cut="0.0000000000000000e+00" cType="1" res="4.5913303620181978e-04" rms="4.9526748061180115e-01" purity="4.9975565075874329e-01" nType="-99"/>
        </Node>
        <Node pos="r" depth="1" NCoef="0" IVar="2" Cut="5.7403993606567383e-01" cType="1" res="1.0370283573865891e-01" rms="4.7057867050170898e-01" purity="6.5695792436599731e-01" nType="0">
          <Node pos="l" depth="2" NCoef="0" IVar="-1" Cut="0.0000000000000000e+00" cType="1" res="1.5776414657011628e-03" rms="4.9301359057426453e-01" purity="5.6451869010925293e-01" nType="-99"/>
          <Node pos="r" depth="2" NCoef="0" IVar="-1" Cut="0.0000000000000000e+00" cType="1" res="9.8431129008531570e-03" rms="4.4676014780998230e-01" purity="7.2119140625000000e-01" nType="-99"/>
        </Node>
      </Node>
    </BinaryTree>
    <BinaryTree type="DecisionTree" boostWeight="1.0000000000000000e+00" itree="16">
      <Node pos="s" depth="0" NCoef="0" IVar="6" Cut="3.5812721252441406e+00" cType="1" res="-4.7358982264995575e-03" rms="4.8677176237106323e-01" purity="4.9730059504508972e-01" nType="0">
        <Node pos="l" depth="1" NCoef="0" IVar="2" Cut="5.9008723497390747e-01" cType="1" res="-9.5338322222232819e-02" rms="4.7862088680267334e-01" purity="3.6758559942245483e-01" nType="0">
          <Node pos="l" depth="2" NCoef="0" IVar="-1" Cut="0.0000000000000000e+00" cType="1" res="-8.2839066162705421e-03" rms="4.5238837599754333e-01" purity="2.9177740216255188e-01" nType="-99"/>
          <Node pos="r" depth="2" NCoef="0" IVar="-1" Cut="0.0000000000000000e+00" cType="1" res="-2.1147460211068392e-03" rms="4.9379903078079224e-01" purity="4.3465149402618408e-01" nType="-99"/>
        </Node>
        <Node pos="r" depth="1" NCoef="0" IVar="1" Cut="1.9350018501281738e+00" cType="1" res="8.4795661270618439e-02" rms="4.7811591625213623e-01" purity="6.2548243999481201e-01" nType="0">
          <Node pos="l" depth="2" NCoef="0" IVar="-1" Cut="0.0000000000000000e+00" cType="1" res="7.1997484192252159e-03" rms="4.6815070509910583e-01" purity="6.6541349887847900e-01" nType="-99"/>
          <Node pos="r" depth="2" NCoef="0" IVar="-1" Cut="0.0000000000000000e+00" cType="1" res="-5.2468571811914444e-03" rms="4.8816674947738647e-01" purity="4.1399729251861572e-01" nType="-99"/>
        </Node>
      </Node>
    </BinaryTree>
    <BinaryTree type="DecisionTree" boostWeight="1.0000000000000000e+00" itree="17">
      <Node pos="s" depth="0" NCoef="0" IVar="6" Cut="4.1359796524047852e+00" cType="1" res="6.5944860689342022e-03" rms="4.8711523413658142e-01" purity="5.0794678926467896e-01" nType="0">
        <Node pos="l" depth="1" NCoef="0" IVar="6" Cut="2.2679519653320312e+00" cType="1" res="-4.9460355192422867e-02" rms="4.8894897103309631e-01" purity="4.2158526182174683e-01" nType="0">
          <Node pos="l" depth="2" NCoef="0" IVar="-1" Cut="0.0000000000000000e+00" cType="1" res="-7.8001040965318680e-03" rms="4.5986580848693848e-01" purity="3.0886119604110718e-01" nType="-99"/>
          <Node pos="r" depth="2" NCoef="0" IVar="-1" Cut="0.0000000000000000e+00" cType="1" res="-9.6003053477033973e-04" rms="4.9413853883743286e-01" purity="4.5908245444297791e-01" nType="-99"/>
        </Node>
        <Node pos="r" depth="1" NCoef="0" IVar="1" Cut="1.8799185752868652e+00" cType="1" res="1.0717040300369263e-01" rms="4.6724358201026917e-01" purity="6.6290014982223511e-01" nType="0">
          <Node pos="l" depth="2" NCoef="0" IVar="-1" Cut="0.0000000000000000e+00" cType="1" res="8.8053084909915924e-03" rms="4.5353436470031738e-01" purity="7.0360320806503296e-01" nType="-99"/>
          <Node pos="r" depth="2" NCoef="0" IVar="-1" Cut="0.0000000000000000e+00" cType="1" res="-2.5843593757599592e-03" rms="4.9692401289939880e-01" purity="4.7568020224571228e-01" nType="-99"/>
        </Node>
      </Node>
    </BinaryTree>
    <BinaryTree type="DecisionTree" boostWeight="1.0000000000000000e+00" itree="18">
      <Node pos="s" depth="0" NCoef="0" IVar="6" Cut="4.4387016296386719e+00" cType="1" res="1.0698951082304120e-03" rms="4.8657929897308350e-01" purity="5.0406938791275024e-01" nType="0">
        <Node pos="l" depth="1" NCoef="0" IVar="1" Cut="1.0319830179214478e+00" cType="1" res="-4.7077476978302002e-02" rms="4.8844915628433228e-01" purity="4.3000021576881409e-01" nType="0">
          <Node pos="l" depth="2" NCoef="0" IVar="-1" Cut="0.0000000000000000e+00" cType="1" res="5.1752111176028848e-04" rms="4.9358519911766052e-01" purity="4.9441114068031311e-01" nType="-99"/>
          <Node pos="r" depth="2" NCoef="0" IVar="-1" Cut="0.0000000000000000e+00" cType="1" res="-5.5961166508495808e-03" rms="4.7604817152023315e-01" purity="3.6300671100616455e-01" nType="-99"/>
        </Node>
        <Node pos="r" depth="1" NCoef="0" IVar="1" Cut="1.0886425971984863e+00" cType="1" res="1.1238117516040802e-01" rms="4.6345970034599304e-01" purity="6.7530900239944458e-01" nType="0">
          <Node pos="l" depth="2" NCoef="0" IVar="-1" Cut="0.0000000000000000e+00" cType="1" res="1.1003563180565834e-02" rms="4.3219017982482910e-01" purity="7.4819409847259521e-01" nType="-99"/>
          <Node pos="r" depth="2" NCoef="0" IVar="-1" Cut="0.0000000000000000e+00" cType="1" res="1.8940797308459878e-03" rms="4.8985168337821960e-01" purity="5.8083671331405640e-01" nType="-99"/>
        </Node>
      </Node>
    </BinaryTree>
    <BinaryTree type="DecisionTree" boostWeight="1.0000000000000000e+00" itree="19">
      <Node pos="s" depth="0" NCoef="0" IVar="6" Cut="3.3706653118133545e+00" cType="1" res="1.2666415423154831e-02" rms="4.8512166738510132e-01" purity="5.1587432622909546e-01" nType="0">
        <Node pos="l" depth="1" NCoef="0" IVar="1" Cut="1.1631286144256592e+00" cType="1" res="-8.2340717315673828e-02" rms="4.8006621003150940e-01" purity="3.7283706665039062e-01" nType="0">
          <Node pos="l" depth="2" NCoef="0" IVar="-1" Cut="0.0000000000000000e+00" cType="1" res="-1.9475137814879417e-03" rms="4.9302867054939270e-01" purity="4.2791125178337097e-01" nType="-99"/>
          <Node pos="r" depth="2" NCoef="0" IVar="-1" Cut="0.0000000000000000e+00" cType="1" res="-7.7355089597404003e-03" rms="4.5424368977546692e-01" purity="2.9820522665977478e-01" nType="-99"/>
        </Node>
        <Node pos="r" depth="1" NCoef="0" IVar="3" Cut="2.0314276218414307e+00" cType="1" res="8.6766563355922699e-02" rms="4.7604393959045410e-01" purity="6.2743520736694336e-01" nType="0">
          <Node pos="l" depth="2" NCoef="0" IVar="-1" Cut="0.0000000000000000e+00" cType="1" res="6.4381943084299564e-03" rms="4.7040817141532898e-01" purity="6.5010666847229004e-01" nType="-99"/>
          <Node pos="r" depth="2" NCoef="0" IVar="-1" Cut="0.0000000000000000e+00" cType="1" res="-4.7022481448948383e-03" rms="4.8721167445182800e-01" purity="4.3787997961044312e-01" nType="-99"/>
        </Node>
      </Node>
    </BinaryTree>
    <BinaryTree type="DecisionTree" boostWeight="1.0000000000000000e+00" itree="20">
      <Node pos="s" depth="0" NCoef="0" IVar="6" Cut="3.1539504528045654e+00" cType="1" res="1.1328533291816711e-03" rms="4.8458847403526306e-01" purity="5.0252300500869751e-01" nType="0">
        <Node pos="l" depth="1" NCoef="0" IVar="1" Cut="1.5671439170837402e+00" cType="1" res="-9.8067365586757660e-02" rms="4.7346711158752441e-01" purity="3.5154810547828674e-01" nType="0">
          <Node pos="l" depth="2" NCoef="0" IVar="-1" Cut="0.0000000000000000e+00" cType="1" res="-2.9351296834647655e-03" rms="4.8793229460716248e-01" purity="4.0254792571067810e-01" nType="-99"/>
          <Node pos="r" depth="2" NCoef="0" IVar="-1" Cut="0.0000000000000000e+00" cType="1" res="-1.0596699081361294e-02" rms="4.1663247346878052e-01" purity="2.2741761803627014e-01" nType="-99"/>
        </Node>
        <Node pos="r" depth="1" NCoef="0" IVar="1" Cut="1.5019466876983643e+00" cType="1" res="6.5003395080566406e-02" rms="4.8090621829032898e-01" purity="5.9972894191741943e-01" nType="0">
          <Node pos="l" depth="2" NCoef="0" IVar="-1" Cut="0.0000000000000000e+00" cType="1" res="6.4853373914957047e-03" rms="4.6972417831420898e-01" purity="6.5083920955657959e-01" nType="-99"/>
          <Node pos="r" depth="2" NCoef="0" IVar="-1" Cut="0.0000000000000000e+00" cType="1" res="-2.1795800421386957e-03" rms="4.9281272292137146e-01" purity="4.6929234266281128e-01" nType="-99"/>
        </Node>
      </Node>
    </BinaryTree>
    <BinaryTree type="DecisionTree" boostWeight="1.0000000000000000e+00" itree="21">
      <Node pos="s" depth="0" NCoef="0" IVar="6" Cut="3.7103641033172607e+00" cType="1" res="4.7562890686094761e-03" rms="4.8294594883918762e-01" purity="5.0801825523376465e-01" nType="0">
        <Node pos="l" depth="1" NCoef="0" IVar="1" Cut="1.0410531759262085e+00" cType="1" res="-7.6401561498641968e-02" rms="4.8066297173500061e-01" purity="3.7998640537261963e-01" nType="0">
          <Node pos="l" depth="2" NCoef="0" IVar="-1" Cut="0.0000000000000000e+00" cType="1" res="-7.7056320151314139e-04" rms="4.9559670686721802e-01" purity="4.5326206088066101e-01" nType="-99"/>
          <Node pos="r" depth="2" NCoef="0" IVar="-1" Cut="0.0000000000000000e+00" cType="1" res="-7.2648706845939159e-03" rms="4.5700687170028687e-01" purity="3.0738306045532227e-01" nType="-99"/>
        </Node>
        <Node pos="r" depth="1" NCoef="0" IVar="2" Cut="6.1320364475250244e-01" cType="1" res="9.3802005052566528e-02" rms="4.6956852078437805e-01" purity="6.4849370718002319e-01" nType="0">
          <Node pos="l" depth="2" NCoef="0" IVar="-1" Cut="0.0000000000000000e+00" cType="1" res="1.3491767458617687e-03" rms="4.9070167541503906e-01" purity="5.6261324882507324e-01" nType="-99"/>
          <Node pos="r" depth="2" NCoef="0" IVar="-1" Cut="0.0000000000000000e+00" cType="1" res="1.1028978973627090e-02" rms="4.3156489729881287e-01" purity="7.4436700344085693e-01" nType="-99"/>
        </Node>
      </Node>
    </BinaryTree>
    <BinaryTree type="DecisionTree" boostWeight="1.0000000000000000e+00" itree="22">
      <Node pos="s" depth="0" NCoef="0" IVar="6" Cut="3.6475646495819092e+00" cType="1" res="-1.5013326890766621e-02" rms="4.8398634791374207e-01" purity="4.8836037516593933e-01" nType="0">
        <Node pos="l" depth="1" NCoef="0" IVar="1" Cut="1.4262162446975708e+00" cType="1" res="-9.0420469641685486e-02" rms="4.7666403651237488e-01" purity="3.6314323544502258e-01" nType="0">
          <Node pos="l" depth="2" NCoef="0" IVar="-1" Cut="0.0000000000000000e+00" cType="1" res="-2.9102375265210867e-03" rms="4.8849219083786011e-01" purity="4.0849378705024719e-01" nType="-99"/>
          <Node pos="r" depth="2" NCoef="0" IVar="-1" Cut="0.0000000000000000e+00" cType="1" res="-8.6226481944322586e-03" rms="4.4170987606048584e-01" purity="2.7004557847976685e-01" nType="-99"/>
        </Node>
        <Node pos="r" depth="1" NCoef="0" IVar="3" Cut="1.7401491403579712e+00" cType="1" res="6.4227811992168427e-02" rms="4.7893643379211426e-01" purity="6.1994397640228271e-01" nType="0">
          <Node pos="l" depth="2" NCoef="0" IVar="-1" Cut="0.0000000000000000e+00" cType="1" res="6.2885829247534275e-03" rms="4.6733859181404114e-01" purity="6.6297370195388794e-01" nType="-99"/>
          <Node pos="r" depth="2" NCoef="0" IVar="-1" Cut="0.0000000000000000e+00" cType="1" res="-3.1636673957109451e-03" rms="4.9399885535240173e-01" purity="4.8547428846359253e-01" nType="-99"/>
        </Node>
      </Node>
    </BinaryTree>
    <BinaryTree type="DecisionTree" boostWeight="1.0000000000000000e+00" itree="23">
      <Node pos="s" depth="0" NCoef="0" IVar="6" Cut="4.5518422126770020e+00" cType="1" res="-7.5413421727716923e-03" rms="4.8397594690322876e-01" purity="4.9683347344398499e-01" nType="0">
        <Node pos="l" depth="1" NCoef="0" IVar="1" Cut="1.1544483900070190e+00" cType="1" res="-4.9024164676666260e-02" rms="4.8608678579330444e-01" purity="4.2842486500740051e-01" nType="0">
          <Node pos="l" depth="2" NCoef="0" IVar="-1" Cut="0.0000000000000000e+00" cType="1" res="1.9271168275736272e-04" rms="4.9266365170478821e-01" purity="4.9201747775077820e-01" nType="-99"/>
          <Node pos="r" depth="2" NCoef="0" IVar="-1" Cut="0.0000000000000000e+00" cType="1" res="-6.3046477735042572e-03" rms="4.6781662106513977e-01" purity="3.4253430366516113e-01" nType="-99"/>
        </Node>
        <Node pos="r" depth="1" NCoef="0" IVar="3" Cut="1.4867272377014160e+00" cType="1" res="1.0570988059043884e-01" rms="4.5947650074958801e-01" purity="6.8359410762786865e-01" nType="0">
          <Node pos="l" depth="2" NCoef="0" IVar="-1" Cut="0.0000000000000000e+00" cType="1" res="9.3525657430291176e-03" rms="4.4100919365882874e-01" purity="7.2817265987396240e-01" nType="-99"/>
          <Node pos="r" depth="2" NCoef="0" IVar="-1" Cut="0.0000000000000000e+00" cType="1" res="2.0263362675905228e-03" rms="4.8256716132164001e-01" purity="6.0381114482879639e-01" nType="-99"/>
        </Node>
      </Node>
    </BinaryTree>
    <BinaryTree type="DecisionTree" boostWeight="1.0000000000000000e+00" itree="24">
      <Node pos="s" depth="0" NCoef="0" IVar="6" Cut="3.6873502731323242e+00" cType="1" res="1.1658803559839725e-03" rms="4.8300999402999878e-01" purity="5.0498628616333008e-01" nType="0">
        <Node pos="l" depth="1" NCoef="0" IVar="2" Cut="6.1002308130264282e-01" cType="1" res="-6.6864408552646637e-02" rms="4.8168766498565674e-01" purity="3.8438439369201660e-01" nType="0">
          <Node pos="l" depth="2" NCoef="0" IVar="-1" Cut="0.0000000000000000e+00" cType="1" res="-6.1030206270515919e-03" rms="4.6472984552383423e-01" purity="3.2404994964599609e-01" nType="-99"/>
          <Node pos="r" depth="2" NCoef="0" IVar="-1" Cut="0.0000000000000000e+00" cType="1" res="-7.6679274206981063e-04" rms="4.9448668956756592e-01" purity="4.5143258571624756e-01" nType="-99"/>
        </Node>
        <Node pos="r" depth="1" NCoef="0" IVar="3" Cut="2.0101897716522217e+00" cType="1" res="7.5315020978450775e-02" rms="4.7344118356704712e-01" purity="6.3643544912338257e-01" nType="0">
          <Node pos="l" depth="2" NCoef="0" IVar="-1" Cut="0.0000000000000000e+00" cType="1" res="6.0363309457898140e-03" rms="4.6647655963897705e-01" purity="6.6301071643829346e-01" nType="-99"/>
          <Node pos="r" depth="2" NCoef="0" IVar="-1" Cut="0.0000000000000000e+00" cType="1" res="-5.4634134285151958e-03" rms="4.8798674345016479e-01" purity="4.3436101078987122e-01" nType="-99"/>
        </Node>
      </Node>
    </BinaryTree>
    <BinaryTree type="DecisionTree" boostWeight="1.0000000000000000e+00" itree="25">
      <Node pos="s" depth="0" NCoef="0" IVar="6" Cut="4.2189326286315918e+00" cType="1" res="-6.3929981552064419e-03" rms="4.8197093605995178e-01" purity="4.9815183877944946e-01" nType="0">
        <Node pos="l" depth="1" NCoef="0" IVar="2" Cut="6.0945093631744385e-01" cType="1" res="-5.6512244045734406e-02" rms="4.8348852992057800e-01" purity="4.0875548124313354e-01" nType="0">
          <Node pos="l" depth="2" NCoef="0" IVar="-1" Cut="0.0000000000000000e+00" cType="1" res="-6.0513950884342194e-03" rms="4.6698552370071411e-01" purity="3.3647266030311584e-01" nType="-99"/>
          <Node pos="r" depth="2" NCoef="0" IVar="-1" Cut="0.0000000000000000e+00" cType="1" res="5.6170939933508635e-04" rms="4.9353039264678955e-01" purity="4.9191114306449890e-01" nType="-99"/>
        </Node>
        <Node pos="r" depth="1" NCoef="0" IVar="2" Cut="6.3896900415420532e-01" cType="1" res="8.7091021239757538e-02" rms="4.6490690112113953e-01" purity="6.6489678621292114e-01" nType="0">
          <Node pos="l" depth="2" NCoef="0" IVar="-1" Cut="0.0000000000000000e+00" cType="1" res="1.3784407638013363e-03" rms="4.8702815175056458e-01" purity="5.8548998832702637e-01" nType="-99"/>
          <Node pos="r" depth="2" NCoef="0" IVar="-1" Cut="0.0000000000000000e+00" cType="1" res="1.1169312521815300e-02" rms="4.2047363519668579e-01" purity="7.6837807893753052e-01" nType="-99"/>
        </Node>
      </Node>
    </BinaryTree>
    <BinaryTree type="DecisionTree" boostWeight="1.0000000000000000e+00" itree="26">
      <Node pos="s" depth="0" NCoef="0" IVar="6" Cut="2.6878063678741455e+00" cType="1" res="3.3073727972805500e-03" rms="4.8256346583366394e-01" purity="5.0780898332595825e-01" nType="0">
        <Node pos="l" depth="1" NCoef="0" IVar="5" Cut="7.4581982421875000e+02" cType="1" res="-1.1229238659143448e-01" rms="4.6460455656051636e-01" purity="3.2387170195579529e-01" nType="0">
          <Node pos="l" depth="2" NCoef="0" IVar="-1" Cut="0.0000000000000000e+00" cType="1" res="-9.2035848647356033e-03" rms="4.3501448631286621e-01" purity="2.5778198242187500e-01" nType="-99"/>
          <Node pos="r" depth="2" NCoef="0" IVar="-1" Cut="0.0000000000000000e+00" cType="1" res="-4.2623080662451684e-04" rms="4.9079680442810059e-01" purity="4.3019512295722961e-01" nType="-99"/>
        </Node>
        <Node pos="r" depth="1" NCoef="0" IVar="2" Cut="5.4023087024688721e-01" cType="1" res="4.2908992618322372e-02" rms="4.8223286867141724e-01" purity="5.7082134485244751e-01" nType="0">
          <Node pos="l" depth="2" NCoef="0" IVar="-1" Cut="0.0000000000000000e+00" cType="1" res="-1.7965001752600074e-03" rms="4.9011150002479553e-01" purity="4.7012791037559509e-01" nType="-99"/>
          <Node pos="r" depth="2" NCoef="0" IVar="-1" Cut="0.0000000000000000e+00" cType="1" res="5.2241478115320206e-03" rms="4.7199264168739319e-01" purity="6.2942433357238770e-01" nType="-99"/>
        </Node>
      </Node>
    </BinaryTree>
    <BinaryTree type="DecisionTree" boostWeight="1.0000000000000000e+00" itree="27">
      <Node pos="s" depth="0" NCoef="0" IVar="6" Cut="2.1756381988525391e+00" cType="1" res="-7.4941329658031464e-03" rms="4.8390576243400574e-01" purity="4.9711361527442932e-01" nType="0">
        <Node pos="l" depth="1" NCoef="0" IVar="5" Cut="6.1043579101562500e+02" cType="1" res="-1.5885563194751740e-01" rms="4.4107905030250549e-01" purity="2.7121251821517944e-01" nType="0">
          <Node pos="l" depth="2" NCoef="0" IVar="-1" Cut="0.0000000000000000e+00" cType="1" res="-1.1671981774270535e-02" rms="3.9905104041099548e-01" purity="2.0133784413337708e-01" nType="-99"/>
          <Node pos="r" depth="2" NCoef="0" IVar="-1" Cut="0.0000000000000000e+00" cType="1" res="-6.1790412291884422e-03" rms="4.6229371428489685e-01" purity="3.1947416067123413e-01" nType="-99"/>
        </Node>
        <Node pos="r" depth="1" NCoef="0" IVar="3" Cut="1.8883591890335083e+00" cType="1" res="1.7526876181364059e-02" rms="4.8610696196556091e-01" purity="5.3445649147033691e-01" nType="0">
          <Node pos="l" depth="2" NCoef="0" IVar="-1" Cut="0.0000000000000000e+00" cType="1" res="2.5512839201837778e-03" rms="4.8372304439544678e-01" purity="5.6523942947387695e-01" nType="-99"/>
          <Node pos="r" depth="2" NCoef="0" IVar="-1" Cut="0.0000000000000000e+00" cType="1" res="-6.0593350790441036e-03" rms="4.7689580917358398e-01" purity="3.8244009017944336e-01" nType="-99"/>
        </Node>
      </Node>
    </BinaryTree>
    <BinaryTree type="DecisionTree" boostWeight="1.0000000000000000e+00" itree="28">
      <Node pos="s" depth="0" NCoef="0" IVar="6" Cut="3.8118078708648682e+00" cType="1" res="-6.2005496583878994e-03" rms="4.7968205809593201e-01" purity="4.9667122960090637e-01" nType="0">
        <Node pos="l" depth="1" NCoef="0" IVar="1" Cut="1.8558404445648193e+00" cType="1" res="-7.4261225759983063e-02" rms="4.7742965817451477e-01" purity="3.7408381700515747e-01" nType="0">
          <Node pos="l" depth="2" NCoef="0" IVar="-1" Cut="0.0000000000000000e+00" cType="1" res="-2.5277768727391958e-03" rms="4.8690026998519897e-01" purity="4.0903535485267639e-01" nType="-99"/>
          <Node pos="r" depth="2" NCoef="0" IVar="-1" Cut="0.0000000000000000e+00" cType="1" res="-9.4600273296236992e-03" rms="4.1829037666320801e-01" purity="2.3200885951519012e-01" nType="-99"/>
        </Node>
        <Node pos="r" depth="1" NCoef="0" IVar="6" Cut="5.7411880493164062e+00" cType="1" res="7.8382179141044617e-02" rms="4.6889552474021912e-01" purity="6.4901739358901978e-01" nType="0">
          <Node pos="l" depth="2" NCoef="0" IVar="-1" Cut="0.0000000000000000e+00" cType="1" res="2.9629436321556568e-03" rms="4.7912228107452393e-01" purity="6.1551451683044434e-01" nType="-99"/>
          <Node pos="r" depth="2" NCoef="0" IVar="-1" Cut="0.0000000000000000e+00" cType="1" res="1.4828004874289036e-02" rms="3.8527405261993408e-01" purity="8.1467437744140625e-01" nType="-99"/>
        </Node>
      </Node>
    </BinaryTree>
    <BinaryTree type="DecisionTree" boostWeight="1.0000000000000000e+00" itree="29">
      <Node pos="s" depth="0" NCoef="0" IVar="6" Cut="3.1523301601409912e+00" cType="1" res="6.1505301855504513e-03" rms="4.8135307431221008e-01" purity="5.0816458463668823e-01" nType="0">
        <Node pos="l" depth="1" NCoef="0" IVar="5" Cut="5.9656304931640625e+02" cType="1" res="-8.0044910311698914e-02" rms="4.7432968020439148e-01" purity="3.5484120249748230e-01" nType="0">
          <Node pos="l" depth="2" NCoef="0" IVar="-1" Cut="0.0000000000000000e+00" cType="1" res="-7.5104385614395142e-03" rms="4.4981178641319275e-01" purity="2.8620445728302002e-01" nType="-99"/>
          <Node pos="r" depth="2" NCoef="0" IVar="-1" Cut="0.0000000000000000e+00" cType="1" res="-2.3473971523344517e-03" rms="4.8435276746749878e-01" purity="3.9560824632644653e-01" nType="-99"/>
        </Node>
        <Node pos="r" depth="1" NCoef="0" IVar="1" Cut="1.0746865272521973e+00" cType="1" res="6.0666751116514206e-02" rms="4.7778129577636719e-01" purity="6.0513740777969360e-01" nType="0">
          <Node pos="l" depth="2" NCoef="0" IVar="-1" Cut="0.0000000000000000e+00" cType="1" res="7.2825448587536812e-03" rms="4.6023964881896973e-01" purity="6.7754292488098145e-01" nType="-99"/>
          <Node pos="r" depth="2" NCoef="0" IVar="-1" Cut="0.0000000000000000e+00" cType="1" res="-5.2426790352910757e-04" rms="4.8968127369880676e-01" purity="5.1544976234436035e-01" nType="-99"/>
        </Node>
      </Node>
    </BinaryTree>
    <BinaryTree type="DecisionTree" boostWeight="1.0000000000000000e+00" itree="30">
      <Node pos="s" depth="0" NCoef="0" IVar="6" Cut="3.8182203769683838e+00" cType="1" res="1.1399317532777786e-02" rms="4.8017090559005737e-01" purity="5.1735103130340576e-01" nType="0">
        <Node pos="l" depth="1" NCoef="0" IVar="2" Cut="6.0689717531204224e-01" cType="1" res="-4.6614270657300949e-02" rms="4.8275122046470642e-01" purity="4.0092188119888306e-01" nType="0">
          <Node pos="l" depth="2" NCoef="0" IVar="-1" Cut="0.0000000000000000e+00" cType="1" res="-5.2381195127964020e-03" rms="4.6518182754516602e-01" purity="3.3145546913146973e-01" nType="-99"/>
          <Node pos="r" depth="2" NCoef="0" IVar="-1" Cut="0.0000000000000000e+00" cType="1" res="6.3144002342596650e-04" rms="4.9512565135955811e-01" purity="4.7788742184638977e-01" nType="-99"/>
        </Node>
        <Node pos="r" depth="1" NCoef="0" IVar="0" Cut="1.4657714962959290e-01" cType="1" res="8.2296319305896759e-02" rms="4.6732038259506226e-01" purity="6.5963631868362427e-01" nType="0">
          <Node pos="l" depth="2" NCoef="0" IVar="-1" Cut="0.0000000000000000e+00" cType="1" res="3.3743118401616812e-03" rms="4.7730565071105957e-01" purity="6.2954187393188477e-01" nType="-99"/>
          <Node pos="r" depth="2" NCoef="0" IVar="-1" Cut="0.0000000000000000e+00" cType="1" res="1.1389690451323986e-02" rms="4.1743075847625732e-01" purity="7.6602596044540405e-01" nType="-99"/>
        </Node>
      </Node>
    </BinaryTree>
    <BinaryTree type="DecisionTree" boostWeight="1.0000000000000000e+00" itree="31">
      <Node pos="s" depth="0" NCoef="0" IVar="6" Cut="3.0718226432800293e+00" cType="1" res="-4.7594131319783628e-04" rms="4.8109069466590881e-01" purity="5.0381672382354736e-01" nType="0">
        <Node pos="l" depth="1" NCoef="0" IVar="5" Cut="5.5701196289062500e+02" cType="1" res="-8.1868961453437805e-02" rms="4.7160401940345764e-01" purity="3.4791606664657593e-01" nType="0">
          <Node pos="l" depth="2" NCoef="0" IVar="-1" Cut="0.0000000000000000e+00" cType="1" res="-8.2185519859194756e-03" rms="4.3773818016052246e-01" purity="2.6575398445129395e-01" nType="-99"/>
          <Node pos="r" depth="2" NCoef="0" IVar="-1" Cut="0.0000000000000000e+00" cType="1" res="-2.6520940009504557e-03" rms="4.8235020041465759e-01" purity="3.8516977429389954e-01" nType="-99"/>
        </Node>
        <Node pos="r" depth="1" NCoef="0" IVar="2" Cut="5.5935406684875488e-01" cType="1" res="4.5041855424642563e-02" rms="4.8033934831619263e-01" purity="5.9100180864334106e-01" nType="0">
          <Node pos="l" depth="2" NCoef="0" IVar="-1" Cut="0.0000000000000000e+00" cType="1" res="-1.5097951982170343e-03" rms="4.8969176411628723e-01" purity="4.9107986688613892e-01" nType="-99"/>
          <Node pos="r" depth="2" NCoef="0" IVar="-1" Cut="0.0000000000000000e+00" cType="1" res="5.4608546197414398e-03" rms="4.6883115172386169e-01" purity="6.5342032909393311e-01" nType="-99"/>
        </Node>
      </Node>
    </BinaryTree>
    <BinaryTree type="DecisionTree" boostWeight="1.0000000000000000e+00" itree="32">
      <Node pos="s" depth="0" NCoef="0" IVar="6" Cut="5.2454180717468262e+00" cType="1" res="-1.3941965997219086e-02" rms="4.8139861226081848e-01" purity="4.9115660786628723e-01" nType="0">
        <Node pos="l" depth="1" NCoef="0" IVar="3" Cut="1.9648292064666748e+00" cType="1" res="-3.7020437419414520e-02" rms="4.8455947637557983e-01" purity="4.5269656181335449e-01" nType="0">
          <Node pos="l" depth="2" NCoef="0" IVar="-1" Cut="0.0000000000000000e+00" cType="1" res="-7.6751923188567162e-04" rms="4.8758494853973389e-01" purity="4.8054587841033936e-01" nType="-99"/>
          <Node pos="r" depth="2" NCoef="0" IVar="-1" Cut="0.0000000000000000e+00" cType="1" res="-8.9087113738059998e-03" rms="4.4248661398887634e-01" purity="2.9003101587295532e-01" nType="-99"/>
        </Node>
        <Node pos="r" depth="1" NCoef="0" IVar="2" Cut="6.3325846195220947e-01" cType="1" res="1.3506825268268585e-01" rms="4.3172657489776611e-01" purity="7.3948079347610474e-01" nType="0">
          <Node pos="l" depth="2" NCoef="0" IVar="-1" Cut="0.0000000000000000e+00" cType="1" res="4.3847956694662571e-03" rms="4.7049283981323242e-01" purity="6.5571951866149902e-01" nType="-99"/>
          <Node pos="r" depth="2" NCoef="0" IVar="-1" Cut="0.0000000000000000e+00" cType="1" res="1.4450059272348881e-02" rms="3.7337201833724976e-01" purity="8.3148336410522461e-01" nType="-99"/>
        </Node>
      </Node>
    </BinaryTree>
    <BinaryTree type="DecisionTree" boostWeight="1.0000000000000000e+00" itree="33">
      <Node pos="s" depth="0" NCoef="0" IVar="6" Cut="3.4949903488159180e+00" cType="1" res="1.9525915849953890e-03" rms="4.8048931360244751e-01" purity="5.0860810279846191e-01" nType="0">
        <Node pos="l" depth="1" NCoef="0" IVar="6" Cut="2.6349785327911377e+00" cType="1" res="-6.2755778431892395e-02" rms="4.7933200001716614e-01" purity="3.7356212735176086e-01" nType="0">
          <Node pos="l" depth="2" NCoef="0" IVar="-1" Cut="0.0000000000000000e+00" cType="1" res="-5.8995792642235756e-03" rms="4.6273404359817505e-01" purity="3.1590688228607178e-01" nType="-99"/>
          <Node pos="r" depth="2" NCoef="0" IVar="-1" Cut="0.0000000000000000e+00" cType="1" res="-7.7056768350303173e-04" rms="4.9155971407890320e-01" purity="4.3443000316619873e-01" nType="-99"/>
        </Node>
        <Node pos="r" depth="1" NCoef="0" IVar="2" Cut="5.5512773990631104e-01" cType="1" res="5.6434370577335358e-02" rms="4.7466996312141418e-01" purity="6.2231123447418213e-01" nType="0">
          <Node pos="l" depth="2" NCoef="0" IVar="-1" Cut="0.0000000000000000e+00" cType="1" res="-1.1000161757692695e-03" rms="4.9360570311546326e-01" purity="5.1659309864044189e-01" nType="-99"/>
          <Node pos="r" depth="2" NCoef="0" IVar="-1" Cut="0.0000000000000000e+00" cType="1" res="6.9758403114974499e-03" rms="4.5354214310646057e-01" purity="6.9588512182235718e-01" nType="-99"/>
        </Node>
      </Node>
    </BinaryTree>
    <BinaryTree type="DecisionTree" boostWeight="1.0000000000000000e+00" itree="34">
      <Node pos="s" depth="0" NCoef="0" IVar="6" Cut="4.3542141914367676e+00" cType="1" res="-4.5345532707870007e-03" rms="4.7992697358131409e-01" purity="4.9984359741210938e-01" nType="0">
        <Node pos="l" depth="1" NCoef="0" IVar="5" Cut="5.7709973144531250e+02" cType="1" res="-4.2598556727170944e-02" rms="4.8303902149200439e-01" purity="4.1997525095939636e-01" nType="0">
          <Node pos="l" depth="2" NCoef="0" IVar="-1" Cut="0.0000000000000000e+00" cType="1" res="-6.2537277117371559e-03" rms="4.6156954765319824e-01" purity="3.3360230922698975e-01" nType="-99"/>
          <Node pos="r" depth="2" NCoef="0" IVar="-1" Cut="0.0000000000000000e+00" cType="1" res="-4.5080829295329750e-04" rms="4.8866990208625793e-01" purity="4.5949363708496094e-01" nType="-99"/>
        </Node>
        <Node pos="r" depth="1" NCoef="0" IVar="4" Cut="9.1069063637405634e-04" cType="1" res="8.1088535487651825e-02" rms="4.6151739358901978e-01" purity="6.7950356006622314e-01" nType="0">
          <Node pos="l" depth="2" NCoef="0" IVar="-1" Cut="0.0000000000000000e+00" cType="1" res="7.3435883969068527e-03" rms="4.4692513346672058e-01" purity="7.1389514207839966e-01" nType="-99"/>
          <Node pos="r" depth="2" NCoef="0" IVar="-1" Cut="0.0000000000000000e+00" cType="1" res="7.5833336450159550e-04" rms="4.8383662104606628e-01" purity="6.0698276758193970e-01" nType="-99"/>
        </Node>
      </Node>
    </BinaryTree>
    <BinaryTree type="DecisionTree" boostWeight="1.0000000000000000e+00" itree="35">
      <Node pos="s" depth="0" NCoef="0" IVar="6" Cut="4.4240231513977051e+00" cType="1" res="-3.0417295638471842e-03" rms="4.7725969552993774e-01" purity="5.0131273269653320e-01" nType="0">
        <Node pos="l" depth="1" NCoef="0" IVar="2" Cut="7.7570444345474243e-01" cType="1" res="-4.5649390667676926e-02" rms="4.8184576630592346e-01" purity="4.1744604706764221e-01" nType="0">
          <Node pos="l" depth="2" NCoef="0" IVar="-1" Cut="0.0000000000000000e+00" cType="1" res="-3.7314540240913630e-03" rms="4.7795662283897400e-01" purity="3.8874515891075134e-01" nType="-99"/>
          <Node pos="r" depth="2" NCoef="0" IVar="-1" Cut="0.0000000000000000e+00" cType="1" res="5.5754808709025383e-03" rms="4.8252964019775391e-01" purity="5.9570455551147461e-01" nType="-99"/>
        </Node>
        <Node pos="r" depth="1" NCoef="0" IVar="1" Cut="1.4074201583862305e+00" cType="1" res="9.6736967563629150e-02" rms="4.5085388422012329e-01" purity="6.9771182537078857e-01" nType="0">
          <Node pos="l" depth="2" NCoef="0" IVar="-1" Cut="0.0000000000000000e+00" cType="1" res="8.7445899844169617e-03" rms="4.2874550819396973e-01" purity="7.5052440166473389e-01" nType="-99"/>
          <Node pos="r" depth="2" NCoef="0" IVar="-1" Cut="0.0000000000000000e+00" cType="1" res="7.2490557795390487e-04" rms="4.8755976557731628e-01" purity="5.7656121253967285e-01" nType="-99"/>
        </Node>
      </Node>
    </BinaryTree>
    <BinaryTree type="DecisionTree" boostWeight="1.0000000000000000e+00" itree="36">
      <Node pos="s" depth="0" NCoef="0" IVar="6" Cut="2.9021360874176025e+00" cType="1" res="1.1999643174931407e-03" rms="4.7833600640296936e-01" purity="5.0554150342941284e-01" nType="0">
        <Node pos="l" depth="1" NCoef="0" IVar="2" Cut="5.5051779747009277e-01" cType="1" res="-8.4127314388751984e-02" rms="4.6648332476615906e-01" purity="3.3522415161132812e-01" nType="0">
          <Node pos="l" depth="2" NCoef="0" IVar="-1" Cut="0.0000000000000000e+00" cType="1" res="-7.8468108549714088e-03" rms="4.3090620636940002e-01" purity="2.5105988979339600e-01" nType="-99"/>
          <Node pos="r" depth="2" NCoef="0" IVar="-1" Cut="0.0000000000000000e+00" cType="1" res="-2.1788054145872593e-03" rms="4.8447260260581970e-01" purity="3.9327576756477356e-01" nType="-99"/>
        </Node>
        <Node pos="r" depth="1" NCoef="0" IVar="1" Cut="8.5812860727310181e-01" cType="1" res="4.0438733994960785e-02" rms="4.7860980033874512e-01" purity="5.8386397361755371e-01" nType="0">
          <Node pos="l" depth="2" NCoef="0" IVar="-1" Cut="0.0000000000000000e+00" cType="1" res="6.6844383254647255e-03" rms="4.5964673161506653e-01" purity="6.7438405752182007e-01" nType="-99"/>
          <Node pos="r" depth="2" NCoef="0" IVar="-1" Cut="0.0000000000000000e+00" cType="1" res="-5.8968988014385104e-04" rms="4.8642149567604065e-01" purity="5.1514405012130737e-01" nType="-99"/>
        </Node>
      </Node>
    </BinaryTree>
    <BinaryTree type="DecisionTree" boostWeight="1.0000000000000000e+00" itree="37">
      <Node pos="s" depth="0" NCoef="0" IVar="6" Cut="3.3119208812713623e+00" cType="1" res="-8.1730224192142487e-03" rms="4.7629410028457642e-01" purity="4.9488183856010437e-01" nType="0">
        <Node pos="l" depth="1" NCoef="0" IVar="6" Cut="2.3648357391357422e+00" cType="1" res="-8.5118509829044342e-02" rms="4.6928808093070984e-01" purity="3.4183502197265625e-01" nType="0">
          <Node pos="l" depth="2" NCoef="0" IVar="-1" Cut="0.0000000000000000e+00" cType="1" res="-7.5583378784358501e-03" rms="4.4355881214141846e-01" purity="2.7519306540489197e-01" nType="-99"/>
          <Node pos="r" depth="2" NCoef="0" IVar="-1" Cut="0.0000000000000000e+00" cType="1" res="-2.3545282892882824e-03" rms="4.8397898674011230e-01" purity="3.9295107126235962e-01" nType="-99"/>
        </Node>
        <Node pos="r" depth="1" NCoef="0" IVar="1" Cut="1.7126146554946899e+00" cType="1" res="4.9876984208822250e-02" rms="4.7330486774444580e-01" purity="6.1034500598907471e-01" nType="0">
          <Node pos="l" depth="2" NCoef="0" IVar="-1" Cut="0.0000000000000000e+00" cType="1" res="5.0165057182312012e-03" rms="4.6425819396972656e-01" purity="6.5546232461929321e-01" nType="-99"/>
          <Node pos="r" depth="2" NCoef="0" IVar="-1" Cut="0.0000000000000000e+00" cType="1" res="-3.3211454283446074e-03" rms="4.8807379603385925e-01" purity="4.5047917962074280e-01" nType="-99"/>
        </Node>
      </Node>
    </BinaryTree>
    <BinaryTree type="DecisionTree" boostWeight="1.0000000000000000e+00" itree="38">
      <Node pos="s" depth="0" NCoef="0" IVar="2" Cut="7.1941751241683960e-01" cType="1" res="2.2531389258801937e-03" rms="4.7739768028259277e-01" purity="5.0702476501464844e-01" nType="0">
        <Node pos="l" depth="1" NCoef="0" IVar="6" Cut="3.9359722137451172e+00" cType="1" res="-2.9048698022961617e-02" rms="4.7805532813072205e-01" purity="4.6227586269378662e-01" nType="0">
          <Node pos="l" depth="2" NCoef="0" IVar="-1" Cut="0.0000000000000000e+00" cType="1" res="-4.2183944024145603e-03" rms="4.7285494208335876e-01" purity="3.5392218828201294e-01" nType="-99"/>
          <Node pos="r" depth="2" NCoef="0" IVar="-1" Cut="0.0000000000000000e+00" cType="1" res="2.5023815687745810e-03" rms="4.7670105099678040e-01" purity="6.2126880884170532e-01" nType="-99"/>
        </Node>
        <Node pos="r" depth="1" NCoef="0" IVar="2" Cut="8.2375842332839966e-01" cType="1" res="1.0007279366254807e-01" rms="4.6185958385467529e-01" purity="6.4686703681945801e-01" nType="0">
          <Node pos="l" depth="2" NCoef="0" IVar="-1" Cut="0.0000000000000000e+00" cType="1" res="3.9036632515490055e-03" rms="4.7296011447906494e-01" purity="6.0975855588912964e-01" nType="-99"/>
          <Node pos="r" depth="2" NCoef="0" IVar="-1" Cut="0.0000000000000000e+00" cType="1" res="1.1702216230332851e-02" rms="4.2647483944892883e-01" purity="7.2784876823425293e-01" nType="-99"/>
        </Node>
      </Node>
    </BinaryTree>
    <BinaryTree type="DecisionTree" boostWeight="1.0000000000000000e+00" itree="39">
      <Node pos="s" depth="0" NCoef="0" IVar="3" Cut="2.2008216381072998e+00" cType="1" res="-1.0123823769390583e-02" rms="4.8042935132980347e-01" purity="4.9658241868019104e-01" nType="0">
        <Node pos="l" depth="1" NCoef="0" IVar="4" Cut="6.4282864332199097e-04" cType="1" res="4.9439123831689358e-03" rms="4.8109981417655945e-01" purity="5.1528763771057129e-01" nType="0">
          <Node pos="l" depth="2" NCoef="0" IVar="-1" Cut="0.0000000000000000e+00" cType="1" res="4.6987859532237053e-03" rms="4.6504276990890503e-01" purity="6.2839990854263306e-01" nType="-99"/>
          <Node pos="r" depth="2" NCoef="0" IVar="-1" Cut="0.0000000000000000e+00" cType="1" res="-1.9191497704014182e-03" rms="4.8546701669692993e-01" purity="4.5157003402709961e-01" nType="-99"/>
        </Node>
        <Node pos="r" depth="1" NCoef="0" IVar="-1" Cut="0.0000000000000000e+00" cType="1" res="-1.0170372202992439e-02" rms="4.2913928627967834e-01" purity="2.6196575164794922e-01" nType="-99"/>
      </Node>
    </BinaryTree>
    <BinaryTree type="DecisionTree" boostWeight="1.0000000000000000e+00" itree="40">
      <Node pos="s" depth="0" NCoef="0" IVar="6" Cut="2.7024211883544922e+00" cType="1" res="-7.1820123121142387e-03" rms="4.7805753350257874e-01" purity="4.9861517548561096e-01" nType="0">
        <Node pos="l" depth="1" NCoef="0" IVar="0" Cut="1.4311273396015167e-01" cType="1" res="-1.0491062700748444e-01" rms="4.5610916614532471e-01" purity="3.0659866333007812e-01" nType="0">
          <Node pos="l" depth="2" NCoef="0" IVar="-1" Cut="0.0000000000000000e+00" cType="1" res="-7.1253157220780849e-03" rms="4.4264063239097595e-01" purity="2.7439185976982117e-01" nType="-99"/>
          <Node pos="r" depth="2" NCoef="0" IVar="-1" Cut="0.0000000000000000e+00" cType="1" res="-5.6203466374427080e-04" rms="4.8926845192909241e-01" purity="4.2088177800178528e-01" nType="-99"/>
        </Node>
        <Node pos="r" depth="1" NCoef="0" IVar="2" Cut="4.8789057135581970e-01" cType="1" res="2.6694737374782562e-02" rms="4.8082011938095093e-01" purity="5.6517601013183594e-01" nType="0">
          <Node pos="l" depth="2" NCoef="0" IVar="-1" Cut="0.0000000000000000e+00" cType="1" res="-3.1975300516933203e-03" rms="4.8370054364204407e-01" purity="4.4498232007026672e-01" nType="-99"/>
          <Node pos="r" depth="2" NCoef="0" IVar="-1" Cut="0.0000000000000000e+00" cType="1" res="3.3229188993573189e-03" rms="4.7646227478981018e-01" purity="6.0513436794281006e-01" nType="-99"/>
        </Node>
      </Node>
    </BinaryTree>
    <BinaryTree type="DecisionTree" boostWeight="1.0000000000000000e+00" itree="41">
      <Node pos="s" depth="0" NCoef="0" IVar="6" Cut="2.5455043315887451e+00" cType="1" res="-6.8954308517277241e-03" rms="4.7426411509513855e-01" purity="4.9787309765815735e-01" nType="0">
        <Node pos="l" depth="1" NCoef="0" IVar="5" Cut="8.4600299072265625e+02" cType="1" res="-1.3001987338066101e-01" rms="4.4133985042572021e-01" purity="2.7807191014289856e-01" nType="0">
          <Node pos="l" depth="2" NCoef="0" IVar="-1" Cut="0.0000000000000000e+00" cType="1" res="-8.6911842226982117e-03" rms="4.2263275384902954e-01" purity="2.4276284873485565e-01" nType="-99"/>
          <Node pos="r" depth="2" NCoef="0" IVar="-1" Cut="0.0000000000000000e+00" cType="1" res="-1.8339003436267376e-03" rms="4.7981473803520203e-01" purity="3.8314998149871826e-01" nType="-99"/>
        </Node>
        <Node pos="r" depth="1" NCoef="0" IVar="1" Cut="1.8775449991226196e+00" cType="1" res="3.0097290873527527e-02" rms="4.7755682468414307e-01" purity="5.6391233205795288e-01" nType="0">
          <Node pos="l" depth="2" NCoef="0" IVar="-1" Cut="0.0000000000000000e+00" cType="1" res="3.1965752132236958e-03" rms="4.7393989562988281e-01" purity="5.9758269786834717e-01" nType="-99"/>
          <Node pos="r" depth="2" NCoef="0" IVar="-1" Cut="0.0000000000000000e+00" cType="1" res="-4.8595452681183815e-03" rms="4.7795036435127258e-01" purity="3.8587614893913269e-01" nType="-99"/>
        </Node>
      </Node>
    </BinaryTree>
    <BinaryTree type="DecisionTree" boostWeight="1.0000000000000000e+00" itree="42">
      <Node pos="s" depth="0" NCoef="0" IVar="3" Cut="2.0819499492645264e+00" cType="1" res="-1.1814804747700691e-02" rms="4.7971537709236145e-01" purity="4.9255988001823425e-01" nType="0">
        <Node pos="l" depth="1" NCoef="0" IVar="6" Cut="2.5838093757629395e+00" cType="1" res="4.6352627687156200e-03" rms="4.8077192902565002e-01" purity="5.1366221904754639e-01" nType="0">
          <Node pos="l" depth="2" NCoef="0" IVar="-1" Cut="0.0000000000000000e+00" cType="1" res="-4.2749228887259960e-03" rms="4.6697312593460083e-01" purity="3.3006483316421509e-01" nType="-99"/>
          <Node pos="r" depth="2" NCoef="0" IVar="-1" Cut="0.0000000000000000e+00" cType="1" res="1.7396770417690277e-03" rms="4.8212426900863647e-01" purity="5.6948626041412354e-01" nType="-99"/>
        </Node>
        <Node pos="r" depth="1" NCoef="0" IVar="-1" Cut="0.0000000000000000e+00" cType="1" res="-7.9427827149629593e-03" rms="4.4716629385948181e-01" purity="3.1429654359817505e-01" nType="-99"/>
      </Node>
    </BinaryTree>
    <BinaryTree type="DecisionTree" boostWeight="1.0000000000000000e+00" itree="43">
      <Node pos="s" depth="0" NCoef="0" IVar="6" Cut="3.6818652153015137e+00" cType="1" res="-8.0970404669642448e-03" rms="4.7675773501396179e-01" purity="4.9560722708702087e-01" nType="0">
        <Node pos="l" depth="1" NCoef="0" IVar="6" Cut="2.4816756248474121e+00" cType="1" res="-5.8497879654169083e-02" rms="4.7564807534217834e-01" purity="3.7042245268821716e-01" nType="0">
          <Node pos="l" depth="2" NCoef="0" IVar="-1" Cut="0.0000000000000000e+00" cType="1" res="-5.8930707164108753e-03" rms="4.5134425163269043e-01" purity="2.9238909482955933e-01" nType="-99"/>
          <Node pos="r" depth="2" NCoef="0" IVar="-1" Cut="0.0000000000000000e+00" cType="1" res="-1.3508478878065944e-03" rms="4.8890811204910278e-01" purity="4.2447453737258911e-01" nType="-99"/>
        </Node>
        <Node pos="r" depth="1" NCoef="0" IVar="3" Cut="1.7183783054351807e+00" cType="1" res="4.7694548964500427e-02" rms="4.7174483537673950e-01" purity="6.3418143987655640e-01" nType="0">
          <Node pos="l" depth="2" NCoef="0" IVar="-1" Cut="0.0000000000000000e+00" cType="1" res="4.8619834706187248e-03" rms="4.6365395188331604e-01" purity="6.7206329107284546e-01" nType="-99"/>
          <Node pos="r" depth="2" NCoef="0" IVar="-1" Cut="0.0000000000000000e+00" cType="1" res="-3.1142279040068388e-03" rms="4.8520615696907043e-01" purity="4.9997562170028687e-01" nType="-99"/>
        </Node>
      </Node>
    </BinaryTree>
    <BinaryTree type="DecisionTree" boostWeight="1.0000000000000000e+00" itree="44">
      <Node pos="s" depth="0" NCoef="0" IVar="3" Cut="1.5403261184692383e+00" cType="1" res="-1.2985313311219215e-02" rms="4.7526571154594421e-01" purity="4.9136039614677429e-01" nType="0">
        <Node pos="l" depth="1" NCoef="0" IVar="6" Cut="4.3111267089843750e+00" cType="1" res="2.6878235861659050e-02" rms="4.7289243340492249e-01" purity="5.3942292928695679e-01" nType="0">
          <Node pos="l" depth="2" NCoef="0" IVar="-1" Cut="0.0000000000000000e+00" cType="1" res="-9.2600192874670029e-04" rms="4.8459011316299438e-01" purity="4.4210758805274963e-01" nType="-99"/>
          <Node pos="r" depth="2" NCoef="0" IVar="-1" Cut="0.0000000000000000e+00" cType="1" res="7.3865582235157490e-03" rms="4.3656349182128906e-01" purity="7.3097908496856689e-01" nType="-99"/>
        </Node>
        <Node pos="r" depth="1" NCoef="0" IVar="2" Cut="6.4855802059173584e-01" cType="1" res="-8.5849791765213013e-02" rms="4.7093173861503601e-01" purity="4.0350943803787231e-01" nType="0">
          <Node pos="l" depth="2" NCoef="0" IVar="-1" Cut="0.0000000000000000e+00" cType="1" res="-6.7195380106568336e-03" rms="4.5915594696998596e-01" purity="3.4454625844955444e-01" nType="-99"/>
          <Node pos="r" depth="2" NCoef="0" IVar="-1" Cut="0.0000000000000000e+00" cType="1" res="1.4206003470462747e-05" rms="4.8392668366432190e-01" purity="5.2896815538406372e-01" nType="-99"/>
        </Node>
      </Node>
    </BinaryTree>
    <BinaryTree type="DecisionTree" boostWeight="1.0000000000000000e+00" itree="45">
      <Node pos="s" depth="0" NCoef="0" IVar="6" Cut="5.3103227615356445e+00" cType="1" res="-8.0806165933609009e-03" rms="4.7759220004081726e-01" purity="4.9849146604537964e-01" nType="0">
        <Node pos="l" depth="1" NCoef="0" IVar="2" Cut="6.4444482326507568e-01" cType="1" res="-2.4700986221432686e-02" rms="4.8093280196189880e-01" purity="4.6416589617729187e-01" nType="0">
          <Node pos="l" depth="2" NCoef="0" IVar="-1" Cut="0.0000000000000000e+00" cType="1" res="-3.4210283774882555e-03" rms="4.7809451818466187e-01" purity="4.0461108088493347e-01" nType="-99"/>
          <Node pos="r" depth="2" NCoef="0" IVar="-1" Cut="0.0000000000000000e+00" cType="1" res="1.9193822517991066e-03" rms="4.7953322529792786e-01" purity="5.5422806739807129e-01" nType="-99"/>
        </Node>
        <Node pos="r" depth="1" NCoef="0" IVar="6" Cut="5.9041895866394043e+00" cType="1" res="1.0790262371301651e-01" rms="4.3631333112716675e-01" purity="7.3802834749221802e-01" nType="0">
          <Node pos="l" depth="2" NCoef="0" IVar="-1" Cut="0.0000000000000000e+00" cType="1" res="5.3541734814643860e-03" rms="4.5158937573432922e-01" purity="7.0687937736511230e-01" nType="-99"/>
          <Node pos="r" depth="2" NCoef="0" IVar="-1" Cut="0.0000000000000000e+00" cType="1" res="9.6305599436163902e-03" rms="4.1545513272285461e-01" purity="7.7486610412597656e-01" nType="-99"/>
        </Node>
      </Node>
    </BinaryTree>
    <BinaryTree type="DecisionTree" boostWeight="1.0000000000000000e+00" itree="46">
      <Node pos="s" depth="0" NCoef="0" IVar="4" Cut="1.6008738020900637e-04" cType="1" res="2.4452398065477610e-04" rms="4.7873383760452271e-01" purity="5.0494539737701416e-01" nType="0">
        <Node pos="l" depth="1" NCoef="0" IVar="2" Cut="5.5186015367507935e-01" cType="1" res="1.1756381392478943e-01" rms="4.4237852096557617e-01" purity="6.9667738676071167e-01" nType="0">
          <Node pos="l" depth="2" NCoef="0" IVar="-1" Cut="0.0000000000000000e+00" cType="1" res="2.2451658733189106e-03" rms="4.7759124636650085e-01" purity="5.7561212778091431e-01" nType="-99"/>
          <Node pos="r" depth="2" NCoef="0" IVar="-1" Cut="0.0000000000000000e+00" cType="1" res="1.1331476271152496e-02" rms="4.1597959399223328e-01" purity="7.6153981685638428e-01" nType="-99"/>
        </Node>
        <Node pos="r" depth="1" NCoef="0" IVar="2" Cut="4.6289241313934326e-01" cType="1" res="-2.1850166842341423e-02" rms="4.8209172487258911e-01" purity="4.6883654594421387e-01" nType="0">
          <Node pos="l" depth="2" NCoef="0" IVar="-1" Cut="0.0000000000000000e+00" cType="1" res="-6.3056536018848419e-03" rms="4.6603026986122131e-01" purity="3.3671998977661133e-01" nType="-99"/>
          <Node pos="r" depth="2" NCoef="0" IVar="-1" Cut="0.0000000000000000e+00" cType="1" res="-1.9182765754521824e-05" rms="4.8300087451934814e-01" purity="4.9840754270553589e-01" nType="-99"/>
        </Node>
      </Node>
    </BinaryTree>
    <BinaryTree type="DecisionTree" boostWeight="1.0000000000000000e+00" itree="47">
      <Node pos="s" depth="0" NCoef="0" IVar="2" Cut="6.2725782394409180e-01" cType="1" res="1.3728715712204576e-03" rms="4.7315344214439392e-01" purity="5.0473988056182861e-01" nType="0">
        <Node pos="l" depth="1" NCoef="0" IVar="3" Cut="2.0817270278930664e+00" cType="1" res="-5.0057794898748398e-02" rms="4.7243043780326843e-01" purity="4.2699021100997925e-01" nType="0">
          <Node pos="l" depth="2" NCoef="0" IVar="-1" Cut="0.0000000000000000e+00" cType="1" res="-1.5554573619738221e-03" rms="4.7752833366394043e-01" purity="4.5599865913391113e-01" nType="-99"/>
          <Node pos="r" depth="2" NCoef="0" IVar="-1" Cut="0.0000000000000000e+00" cType="1" res="-1.0243356227874756e-02" rms="4.0814745426177979e-01" purity="2.3570571839809418e-01" nType="-99"/>
        </Node>
        <Node pos="r" depth="1" NCoef="0" IVar="6" Cut="3.7075901031494141e+00" cType="1" res="6.7125521600246429e-02" rms="4.6587890386581421e-01" purity="6.0414063930511475e-01" nType="0">
          <Node pos="l" depth="2" NCoef="0" IVar="-1" Cut="0.0000000000000000e+00" cType="1" res="4.7729568905197084e-04" rms="4.9270299077033997e-01" purity="4.6571534872055054e-01" nType="-99"/>
          <Node pos="r" depth="2" NCoef="0" IVar="-1" Cut="0.0000000000000000e+00" cType="1" res="8.9932475239038467e-03" rms="4.2455050349235535e-01" purity="7.5853294134140015e-01" nType="-99"/>
        </Node>
      </Node>
    </BinaryTree>
    <BinaryTree type="DecisionTree" boostWeight="1.0000000000000000e+00" itree="48">
      <Node pos="s" depth="0" NCoef="0" IVar="6" Cut="4.7588109970092773e+00" cType="1" res="-8.6242482066154480e-03" rms="4.7561725974082947e-01" purity="4.9556890130043030e-01" nType="0">
        <Node pos="l" depth="1" NCoef="0" IVar="3" Cut="1.7858579158782959e+00" cType="1" res="-3.5816285759210587e-02" rms="4.8112758994102478e-01" purity="4.3530640006065369e-01" nType="0">
          <Node pos="l" depth="2" NCoef="0" IVar="-1" Cut="0.0000000000000000e+00" cType="1" res="-4.1859038174152374e-04" rms="4.8705601692199707e-01" purity="4.7208604216575623e-01" nType="-99"/>
          <Node pos="r" depth="2" NCoef="0" IVar="-1" Cut="0.0000000000000000e+00" cType="1" res="-7.2290296666324139e-03" rms="4.4535571336746216e-01" purity="3.0563360452651978e-01" nType="-99"/>
        </Node>
        <Node pos="r" depth="1" NCoef="0" IVar="2" Cut="6.7289042472839355e-01" cType="1" res="8.7692372500896454e-02" rms="4.4231438636779785e-01" purity="7.0902395248413086e-01" nType="0">
          <Node pos="l" depth="2" NCoef="0" IVar="-1" Cut="0.0000000000000000e+00" cType="1" res="2.2589848376810551e-03" rms="4.7471219301223755e-01" purity="6.3452178239822388e-01" nType="-99"/>
          <Node pos="r" depth="2" NCoef="0" IVar="-1" Cut="0.0000000000000000e+00" cType="1" res="1.3911702670156956e-02" rms="3.5610798001289368e-01" purity="8.4722995758056641e-01" nType="-99"/>
        </Node>
      </Node>
    </BinaryTree>
    <BinaryTree type="DecisionTree" boostWeight="1.0000000000000000e+00" itree="49">
      <Node pos="s" depth="0" NCoef="0" IVar="5" Cut="6.1097180175781250e+02" cType="1" res="6.3935169018805027e-03" rms="4.7628372907638550e-01" purity="5.1021546125411987e-01" nType="0">
        <Node pos="l" depth="1" NCoef="0" IVar="0" Cut="1.4325675368309021e-01" cType="1" res="-7.2413302958011627e-02" rms="4.6999388933181763e-01" purity="4.1004213690757751e-01" nType="0">
          <Node pos="l" depth="2" NCoef="0" IVar="-1" Cut="0.0000000000000000e+00" cType="1" res="-6.0774306766688824e-03" rms="4.6071025729179382e-01" purity="3.5451087355613708e-01" nType="-99"/>
          <Node pos="r" depth="2" NCoef="0" IVar="-1" Cut="0.0000000000000000e+00" cType="1" res="1.1424700496718287e-03" rms="4.7847205400466919e-01" purity="5.3882634639739990e-01" nType="-99"/>
        </Node>
        <Node pos="r" depth="1" NCoef="0" IVar="0" Cut="3.7152837961912155e-02" cType="1" res="4.9079485237598419e-02" rms="4.7421941161155701e-01" purity="5.6447464227676392e-01" nType="0">
          <Node pos="l" depth="2" NCoef="0" IVar="-1" Cut="0.0000000000000000e+00" cType="1" res="-2.5781330186873674e-03" rms="4.8129668831825256e-01" purity="4.4328999519348145e-01" nType="-99"/>
          <Node pos="r" depth="2" NCoef="0" IVar="-1" Cut="0.0000000000000000e+00" cType="1" res="4.9638054333627224e-03" rms="4.6747601032257080e-01" purity="6.0547602176666260e-01" nType="-99"/>
        </Node>
      </Node>
    </BinaryTree>
    <BinaryTree type="DecisionTree" boostWeight="1.0000000000000000e+00" itree="50">
      <Node pos="s" depth="0" NCoef="0" IVar="3" Cut="2.1050825119018555e+00" cType="1" res="1.4121357817202806e-03" rms="4.7674968838691711e-01" purity="5.0729733705520630e-01" nType="0">
        <Node pos="l" depth="1" NCoef="0" IVar="6" Cut="4.8771390914916992e+00" cType="1" res="1.5815578401088715e-02" rms="4.7756013274192810e-01" purity="5.2787464857101440e-01" nType="0">
          <Node pos="l" depth="2" NCoef="0" IVar="-1" Cut="0.0000000000000000e+00" cType="1" res="-3.0904472805559635e-04" rms="4.8550057411193848e-01" purity="4.7600215673446655e-01" nType="-99"/>
          <Node pos="r" depth="2" NCoef="0" IVar="-1" Cut="0.0000000000000000e+00" cType="1" res="6.9623673334717751e-03" rms="4.3264138698577881e-01" purity="7.4108278751373291e-01" nType="-99"/>
        </Node>
        <Node pos="r" depth="1" NCoef="0" IVar="-1" Cut="0.0000000000000000e+00" cType="1" res="-7.0950128138065338e-03" rms="4.4710069894790649e-01" purity="3.1454569101333618e-01" nType="-99"/>
      </Node>
    </BinaryTree>
    <BinaryTree type="DecisionTree" boostWeight="1.0000000000000000e+00" itree="51">
      <Node pos="s" depth="0" NCoef="0" IVar="6" Cut="2.5275044441223145e+00" cType="1" res="-6.7427842877805233e-03" rms="4.7477701306343079e-01" purity="5.0141608715057373e-01" nType="0">
        <Node pos="l" depth="1" NCoef="0" IVar="5" Cut="8.0976855468750000e+02" cType="1" res="-9.8704986274242401e-02" rms="4.5304521918296814e-01" purity="2.9807883501052856e-01" nType="0">
          <Node pos="l" depth="2" NCoef="0" IVar="-1" Cut="0.0000000000000000e+00" cType="1" res="-6.5069901756942272e-03" rms="4.4275063276290894e-01" purity="2.7377602458000183e-01" nType="-99"/>
          <Node pos="r" depth="2" NCoef="0" IVar="-1" Cut="0.0000000000000000e+00" cType="1" res="-2.4174903519451618e-03" rms="4.7441074252128601e-01" purity="3.6178275942802429e-01" nType="-99"/>
        </Node>
        <Node pos="r" depth="1" NCoef="0" IVar="2" Cut="7.3772227764129639e-01" cType="1" res="1.7674507573246956e-02" rms="4.7741511464118958e-01" purity="5.5540508031845093e-01" nType="0">
          <Node pos="l" depth="2" NCoef="0" IVar="-1" Cut="0.0000000000000000e+00" cType="1" res="-4.7214474761858582e-04" rms="4.8235747218132019e-01" purity="5.1461070775985718e-01" nType="-99"/>
          <Node pos="r" depth="2" NCoef="0" IVar="-1" Cut="0.0000000000000000e+00" cType="1" res="7.2610219940543175e-03" rms="4.4650408625602722e-01" purity="7.0364987850189209e-01" nType="-99"/>
        </Node>
      </Node>
    </BinaryTree>
    <BinaryTree type="DecisionTree" boostWeight="1.0000000000000000e+00" itree="52">
      <Node pos="s" depth="0" NCoef="0" IVar="6" Cut="5.1025977134704590e+00" cType="1" res="-4.9135596491396427e-03" rms="4.7575670480728149e-01" purity="4.9880832433700562e-01" nType="0">
        <Node pos="l" depth="1" NCoef="0" IVar="1" Cut="1.0543003082275391e+00" cType="1" res="-2.6292856782674789e-02" rms="4.8132619261741638e-01" purity="4.5180281996726990e-01" nType="0">
          <Node pos="l" depth="2" NCoef="0" IVar="-1" Cut="0.0000000000000000e+00" cType="1" res="1.1074682697653770e-03" rms="4.8557204008102417e-01" purity="5.2185249328613281e-01" nType="-99"/>
          <Node pos="r" depth="2" NCoef="0" IVar="-1" Cut="0.0000000000000000e+00" cType="1" res="-4.1798069141805172e-03" rms="4.7158810496330261e-01" purity="3.7476259469985962e-01" nType="-99"/>
        </Node>
        <Node pos="r" depth="1" NCoef="0" IVar="1" Cut="6.6493272781372070e-01" cType="1" res="1.0726341605186462e-01" rms="4.2824482917785645e-01" purity="7.4544620513916016e-01" nType="0">
          <Node pos="l" depth="2" NCoef="0" IVar="-1" Cut="0.0000000000000000e+00" cType="1" res="1.3071543537080288e-02" rms="3.6685222387313843e-01" purity="8.3706897497177124e-01" nType="-99"/>
          <Node pos="r" depth="2" NCoef="0" IVar="-1" Cut="0.0000000000000000e+00" cType="1" res="4.6676681376993656e-03" rms="4.5236620306968689e-01" purity="6.9858884811401367e-01" nType="-99"/>
        </Node>
      </Node>
    </BinaryTree>
    <BinaryTree type="DecisionTree" boostWeight="1.0000000000000000e+00" itree="53">
      <Node pos="s" depth="0" NCoef="0" IVar="6" Cut="2.5816092491149902e+00" cType="1" res="2.5509051047265530e-03" rms="4.7339281439781189e-01" purity="5.0698971748352051e-01" nType="0">
        <Node pos="l" depth="1" NCoef="0" IVar="2" Cut="6.9986909627914429e-01" cType="1" res="-8.5990250110626221e-02" rms="4.5664364099502563e-01" purity="3.0764710903167725e-01" nType="0">
          <Node pos="l" depth="2" NCoef="0" IVar="-1" Cut="0.0000000000000000e+00" cType="1" res="-5.9242038987576962e-03" rms="4.4036823511123657e-01" purity="2.6695373654365540e-01" nType="-99"/>
          <Node pos="r" depth="2" NCoef="0" IVar="-1" Cut="0.0000000000000000e+00" cType="1" res="-1.6490062698721886e-03" rms="4.9076324701309204e-01" purity="4.1038933396339417e-01" nType="-99"/>
        </Node>
        <Node pos="r" depth="1" NCoef="0" IVar="0" Cut="6.0782272368669510e-02" cType="1" res="2.9812196269631386e-02" rms="4.7512102127075195e-01" purity="5.6836611032485962e-01" nType="0">
          <Node pos="l" depth="2" NCoef="0" IVar="-1" Cut="0.0000000000000000e+00" cType="1" res="-1.9876859150826931e-03" rms="4.8018917441368103e-01" purity="4.8198872804641724e-01" nType="-99"/>
          <Node pos="r" depth="2" NCoef="0" IVar="-1" Cut="0.0000000000000000e+00" cType="1" res="4.3200585059821606e-03" rms="4.6754658222198486e-01" purity="6.2097746133804321e-01" nType="-99"/>
        </Node>
      </Node>
    </BinaryTree>
    <BinaryTree type="DecisionTree" boostWeight="1.0000000000000000e+00" itree="54">
      <Node pos="s" depth="0" NCoef="0" IVar="1" Cut="1.5924730300903320e+00" cType="1" res="4.7896914184093475e-03" rms="4.7597023844718933e-01" purity="5.1040339469909668e-01" nType="0">
        <Node pos="l" depth="1" NCoef="0" IVar="6" Cut="2.5954291820526123e+00" cType="1" res="3.1188314780592918e-02" rms="4.7706925868988037e-01" purity="5.5374383926391602e-01" nType="0">
          <Node pos="l" depth="2" NCoef="0" IVar="-1" Cut="0.0000000000000000e+00" cType="1" res="-3.4482975024729967e-03" rms="4.6992993354797363e-01" purity="3.4010457992553711e-01" nType="-99"/>
          <Node pos="r" depth="2" NCoef="0" IVar="-1" Cut="0.0000000000000000e+00" cType="1" res="3.7626354023814201e-03" rms="4.7547399997711182e-01" purity="6.2122422456741333e-01" nType="-99"/>
        </Node>
        <Node pos="r" depth="1" NCoef="0" IVar="2" Cut="4.6190330386161804e-01" cType="1" res="-7.1893654763698578e-02" rms="4.6432796120643616e-01" purity="3.8450714945793152e-01" nType="0">
          <Node pos="l" depth="2" NCoef="0" IVar="-1" Cut="0.0000000000000000e+00" cType="1" res="-8.3066718652844429e-03" rms="4.2952871322631836e-01" purity="2.6449552178382874e-01" nType="-99"/>
          <Node pos="r" depth="2" NCoef="0" IVar="-1" Cut="0.0000000000000000e+00" cType="1" res="-2.1188356913626194e-03" rms="4.7193059325218201e-01" purity="4.2832979559898376e-01" nType="-99"/>
        </Node>
      </Node>
    </BinaryTree>
    <BinaryTree type="DecisionTree" boostWeight="1.0000000000000000e+00" itree="55">
      <Node pos="s" depth="0" NCoef="0" IVar="4" Cut="7.3234480805695057e-04" cType="1" res="-2.2665353026241064e-03" rms="4.7697094082832336e-01" purity="5.0245171785354614e-01" nType="0">
        <Node pos="l" depth="1" NCoef="0" IVar="2" Cut="7.2211009263992310e-01" cType="1" res="4.9913261085748672e-02" rms="4.6578004956245422e-01" purity="6.0440367460250854e-01" nType="0">
          <Node pos="l" depth="2" NCoef="0" IVar="-1" Cut="0.0000000000000000e+00" cType="1" res="1.3513995800167322e-03" rms="4.7419705986976624e-01" purity="5.5685669183731079e-01" nType="-99"/>
          <Node pos="r" depth="2" NCoef="0" IVar="-1" Cut="0.0000000000000000e+00" cType="1" res="9.5165157690644264e-03" rms="4.2803794145584106e-01" purity="7.4921154975891113e-01" nType="-99"/>
        </Node>
        <Node pos="r" depth="1" NCoef="0" IVar="1" Cut="1.8355860710144043e+00" cType="1" res="-3.3568453043699265e-02" rms="4.8085036873817444e-01" purity="4.4129219651222229e-01" nType="0">
          <Node pos="l" depth="2" NCoef="0" IVar="-1" Cut="0.0000000000000000e+00" cType="1" res="-7.0076360134407878e-04" rms="4.8642086982727051e-01" purity="4.7558712959289551e-01" nType="-99"/>
          <Node pos="r" depth="2" NCoef="0" IVar="-1" Cut="0.0000000000000000e+00" cType="1" res="-6.3366759568452835e-03" rms="4.4739884138107300e-01" purity="3.0225616693496704e-01" nType="-99"/>
        </Node>
      </Node>
    </BinaryTree>
    <BinaryTree type="DecisionTree" boostWeight="1.0000000000000000e+00" itree="56">
      <Node pos="s" depth="0" NCoef="0" IVar="5" Cut="5.6374774169921875e+02" cType="1" res="-5.9490809217095375e-03" rms="4.7634983062744141e-01" purity="5.0012987852096558e-01" nType="0">
        <Node pos="l" depth="1" NCoef="0" IVar="2" Cut="6.1767297983169556e-01" cType="1" res="-7.6831251382827759e-02" rms="4.6691861748695374e-01" purity="4.0261626243591309e-01" nType="0">
          <Node pos="l" depth="2" NCoef="0" IVar="-1" Cut="0.0000000000000000e+00" cType="1" res="-6.2887002713978291e-03" rms="4.5360624790191650e-01" purity="3.2792079448699951e-01" nType="-99"/>
          <Node pos="r" depth="2" NCoef="0" IVar="-1" Cut="0.0000000000000000e+00" cType="1" res="-1.3856131117790937e-03" rms="4.7900208830833435e-01" purity="5.0240206718444824e-01" nType="-99"/>
        </Node>
        <Node pos="r" depth="1" NCoef="0" IVar="4" Cut="3.2301165629178286e-04" cType="1" res="1.8856508657336235e-02" rms="4.7712561488151550e-01" purity="5.3425526618957520e-01" nType="0">
          <Node pos="l" depth="2" NCoef="0" IVar="-1" Cut="0.0000000000000000e+00" cType="1" res="6.9140358828008175e-03" rms="4.5032823085784912e-01" purity="6.8901020288467407e-01" nType="-99"/>
          <Node pos="r" depth="2" NCoef="0" IVar="-1" Cut="0.0000000000000000e+00" cType="1" res="-4.1439206688664854e-04" rms="4.8212280869483948e-01" purity="4.8639592528343201e-01" nType="-99"/>
        </Node>
      </Node>
    </BinaryTree>
    <BinaryTree type="DecisionTree" boostWeight="1.0000000000000000e+00" itree="57">
      <Node pos="s" depth="0" NCoef="0" IVar="6" Cut="2.8614759445190430e+00" cType="1" res="5.3491145372390747e-03" rms="4.7177931666374207e-01" purity="5.0972390174865723e-01" nType="0">
        <Node pos="l" depth="1" NCoef="0" IVar="1" Cut="8.3888882398605347e-01" cType="1" res="-6.7051269114017487e-02" rms="4.6053767204284668e-01" purity="3.2672962546348572e-01" nType="0">
          <Node pos="l" depth="2" NCoef="0" IVar="-1" Cut="0.0000000000000000e+00" cType="1" res="2.7388831949792802e-04" rms="4.8820710182189941e-01" purity="4.2279964685440063e-01" nType="-99"/>
          <Node pos="r" depth="2" NCoef="0" IVar="-1" Cut="0.0000000000000000e+00" cType="1" res="-6.2049264088273048e-03" rms="4.3632376194000244e-01" purity="2.6649540662765503e-01" nType="-99"/>
        </Node>
        <Node pos="r" depth="1" NCoef="0" IVar="0" Cut="1.2584167718887329e-01" cType="1" res="3.7724535912275314e-02" rms="4.7314929962158203e-01" purity="5.9155374765396118e-01" nType="0">
          <Node pos="l" depth="2" NCoef="0" IVar="-1" Cut="0.0000000000000000e+00" cType="1" res="6.9095747312530875e-04" rms="4.8018240928649902e-01" purity="5.5597895383834839e-01" nType="-99"/>
          <Node pos="r" depth="2" NCoef="0" IVar="-1" Cut="0.0000000000000000e+00" cType="1" res="6.8384492769837379e-03" rms="4.4685646891593933e-01" purity="6.8561339378356934e-01" nType="-99"/>
        </Node>
      </Node>
    </BinaryTree>
    <BinaryTree type="DecisionTree" boostWeight="1.0000000000000000e+00" itree="58">
      <Node pos="s" depth="0" NCoef="0" IVar="1" Cut="1.3912477493286133e+00" cType="1" res="-7.3255943134427071e-03" rms="4.7482118010520935e-01" purity="4.9950996041297913e-01" nType="0">
        <Node pos="l" depth="1" NCoef="0" IVar="2" Cut="5.7620376348495483e-01" cType="1" res="1.7489971593022346e-02" rms="4.7747713327407837e-01" purity="5.4710644483566284e-01" nType="0">
          <Node pos="l" depth="2" NCoef="0" IVar="-1" Cut="0.0000000000000000e+00" cType="1" res="-1.6624494455754757e-03" rms="4.8290145397186279e-01" purity="4.5883920788764954e-01" nType="-99"/>
          <Node pos="r" depth="2" NCoef="0" IVar="-1" Cut="0.0000000000000000e+00" cType="1" res="2.7976874262094498e-03" rms="4.7202602028846741e-01" purity="5.9950417280197144e-01" nType="-99"/>
        </Node>
        <Node pos="r" depth="1" NCoef="0" IVar="4" Cut="1.5165065415203571e-03" cType="1" res="-6.0758989304304123e-02" rms="4.6457290649414062e-01" purity="3.9702421426773071e-01" nType="0">
          <Node pos="l" depth="2" NCoef="0" IVar="-1" Cut="0.0000000000000000e+00" cType="1" res="-4.8625937779434025e-04" rms="4.7688299417495728e-01" purity="4.8036119341850281e-01" nType="-99"/>
          <Node pos="r" depth="2" NCoef="0" IVar="-1" Cut="0.0000000000000000e+00" cType="1" res="-6.8131317384541035e-03" rms="4.3840882182121277e-01" purity="2.8732800483703613e-01" nType="-99"/>
        </Node>
      </Node>
    </BinaryTree>
    <BinaryTree type="DecisionTree" boostWeight="1.0000000000000000e+00" itree="59">
      <Node pos="s" depth="0" NCoef="0" IVar="2" Cut="5.7026588916778564e-01" cType="1" res="-1.5539982356131077e-02" rms="4.7522577643394470e-01" purity="4.8826223611831665e-01" nType="0">
        <Node pos="l" depth="1" NCoef="0" IVar="3" Cut="2.0820407867431641e+00" cType="1" res="-6.2966249883174896e-02" rms="4.7190874814987183e-01" purity="4.0133589506149292e-01" nType="0">
          <Node pos="l" depth="2" NCoef="0" IVar="-1" Cut="0.0000000000000000e+00" cType="1" res="-2.2481714840978384e-03" rms="4.7792696952819824e-01" purity="4.3131107091903687e-01" nType="-99"/>
          <Node pos="r" depth="2" NCoef="0" IVar="-1" Cut="0.0000000000000000e+00" cType="1" res="-1.0095073841512203e-02" rms="4.0911683440208435e-01" purity="2.2383925318717957e-01" nType="-99"/>
        </Node>
        <Node pos="r" depth="1" NCoef="0" IVar="5" Cut="5.6051177978515625e+02" cType="1" res="1.9526021555066109e-02" rms="4.7462588548660278e-01" purity="5.5253374576568604e-01" nType="0">
          <Node pos="l" depth="2" NCoef="0" IVar="-1" Cut="0.0000000000000000e+00" cType="1" res="-2.5668665766716003e-03" rms="4.7891277074813843e-01" purity="4.5982882380485535e-01" nType="-99"/>
          <Node pos="r" depth="2" NCoef="0" IVar="-1" Cut="0.0000000000000000e+00" cType="1" res="2.4542633909732103e-03" rms="4.7144228219985962e-01" purity="5.8154308795928955e-01" nType="-99"/>
        </Node>
      </Node>
    </BinaryTree>
    <BinaryTree type="DecisionTree" boostWeight="1.0000000000000000e+00" itree="60">
      <Node pos="s" depth="0" NCoef="0" IVar="0" Cut="1.0180913656949997e-01" cType="1" res="-7.4673042399808764e-04" rms="4.7477149963378906e-01" purity="5.0497788190841675e-01" nType="0">
        <Node pos="l" depth="1" NCoef="0" IVar="5" Cut="6.3642816162109375e+02" cType="1" res="-3.4821700304746628e-02" rms="4.7581934928894043e-01" purity="4.5696070790290833e-01" nType="0">
          <Node pos="l" depth="2" NCoef="0" IVar="-1" Cut="0.0000000000000000e+00" cType="1" res="-5.7837716303765774e-03" rms="4.5732411742210388e-01" purity="3.5377442836761475e-01" nType="-99"/>
          <Node pos="r" depth="2" NCoef="0" IVar="-1" Cut="0.0000000000000000e+00" cType="1" res="6.0531332565005869e-05" rms="4.8088908195495605e-01" purity="5.0891202688217163e-01" nType="-99"/>
        </Node>
        <Node pos="r" depth="1" NCoef="0" IVar="6" Cut="2.8385052680969238e+00" cType="1" res="5.5253576487302780e-02" rms="4.6768230199813843e-01" purity="5.8389133214950562e-01" nType="0">
          <Node pos="l" depth="2" NCoef="0" IVar="-1" Cut="0.0000000000000000e+00" cType="1" res="-1.9397418946027756e-03" rms="4.7686108946800232e-01" purity="3.7468218803405762e-01" nType="-99"/>
          <Node pos="r" depth="2" NCoef="0" IVar="-1" Cut="0.0000000000000000e+00" cType="1" res="5.9647127054631710e-03" rms="4.5814922451972961e-01" purity="6.7466294765472412e-01" nType="-99"/>
        </Node>
      </Node>
    </BinaryTree>
    <BinaryTree type="DecisionTree" boostWeight="1.0000000000000000e+00" itree="61">
      <Node pos="s" depth="0" NCoef="0" IVar="4" Cut="1.7865330446511507e-03" cType="1" res="1.4536679722368717e-02" rms="4.7352132201194763e-01" purity="5.1859331130981445e-01" nType="0">
        <Node pos="l" depth="1" NCoef="0" IVar="3" Cut="1.9973615407943726e+00" cType="1" res="4.6493355184793472e-02" rms="4.7002404928207397e-01" purity="5.7774323225021362e-01" nType="0">
          <Node pos="l" depth="2" NCoef="0" IVar="-1" Cut="0.0000000000000000e+00" cType="1" res="4.3906779028475285e-03" rms="4.6746724843978882e-01" purity="6.1090523004531860e-01" nType="-99"/>
          <Node pos="r" depth="2" NCoef="0" IVar="-1" Cut="0.0000000000000000e+00" cType="1" res="-5.6412061676383018e-03" rms="4.5903602242469788e-01" purity="3.6018601059913635e-01" nType="-99"/>
        </Node>
        <Node pos="r" depth="1" NCoef="0" IVar="6" Cut="2.0455017089843750e+00" cType="1" res="-4.4296249747276306e-02" rms="4.7429534792900085e-01" purity="4.0969705581665039e-01" nType="0">
          <Node pos="l" depth="2" NCoef="0" IVar="-1" Cut="0.0000000000000000e+00" cType="1" res="-7.1266340091824532e-03" rms="4.2946767807006836e-01" purity="2.5109428167343140e-01" nType="-99"/>
          <Node pos="r" depth="2" NCoef="0" IVar="-1" Cut="0.0000000000000000e+00" cType="1" res="-1.2738864170387387e-03" rms="4.8244917392730713e-01" purity="4.4879534840583801e-01" nType="-99"/>
        </Node>
      </Node>
    </BinaryTree>
    <BinaryTree type="DecisionTree" boostWeight="1.0000000000000000e+00" itree="62">
      <Node pos="s" depth="0" NCoef="0" IVar="3" Cut="2.0824561119079590e+00" cType="1" res="-1.7095457762479782e-02" rms="4.7395312786102295e-01" purity="4.8728638887405396e-01" nType="0">
        <Node pos="l" depth="1" NCoef="0" IVar="1" Cut="2.3873226642608643e+00" cType="1" res="-9.2627637786790729e-04" rms="4.7598204016685486e-01" purity="5.1237744092941284e-01" nType="0">
          <Node pos="l" depth="2" NCoef="0" IVar="-1" Cut="0.0000000000000000e+00" cType="1" res="6.1243446543812752e-04" rms="4.7713342308998108e-01" purity="5.3118389844894409e-01" nType="-99"/>
          <Node pos="r" depth="2" NCoef="0" IVar="-1" Cut="0.0000000000000000e+00" cType="1" res="-6.5961312502622604e-03" rms="4.4596594572067261e-01" purity="3.1106913089752197e-01" nType="-99"/>
        </Node>
        <Node pos="r" depth="1" NCoef="0" IVar="-1" Cut="0.0000000000000000e+00" cType="1" res="-7.6381787657737732e-03" rms="4.3613508343696594e-01" purity="2.8586852550506592e-01" nType="-99"/>
      </Node>
    </BinaryTree>
    <BinaryTree type="DecisionTree" boostWeight="1.0000000000000000e+00" itree="63">
      <Node pos="s" depth="0" NCoef="0" IVar="2" Cut="7.0961272716522217e-01" cType="1" res="-2.4769015144556761e-03" rms="4.7437113523483276e-01" purity="5.0161713361740112e-01" nType="0">
        <Node pos="l" depth="1" NCoef="0" IVar="6" Cut="5.3327445983886719e+00" cType="1" res="-2.5708772242069244e-02" rms="4.7600436210632324e-01" purity="4.5798024535179138e-01" nType="0">
          <Node pos="l" depth="2" NCoef="0" IVar="-1" Cut="0.0000000000000000e+00" cType="1" res="-2.2115134634077549e-03" rms="4.7748368978500366e-01" purity="4.2468202114105225e-01" nType="-99"/>
          <Node pos="r" depth="2" NCoef="0" IVar="-1" Cut="0.0000000000000000e+00" cType="1" res="4.8602917231619358e-03" rms="4.5273163914680481e-01" purity="7.0041435956954956e-01" nType="-99"/>
        </Node>
        <Node pos="r" depth="1" NCoef="0" IVar="6" Cut="2.5249252319335938e+00" cType="1" res="6.4526125788688660e-02" rms="4.6314722299575806e-01" purity="6.2747007608413696e-01" nType="0">
          <Node pos="l" depth="2" NCoef="0" IVar="-1" Cut="0.0000000000000000e+00" cType="1" res="-1.6407667426392436e-03" rms="4.8794847726821899e-01" purity="4.0335220098495483e-01" nType="-99"/>
          <Node pos="r" depth="2" NCoef="0" IVar="-1" Cut="0.0000000000000000e+00" cType="1" res="6.0901269316673279e-03" rms="4.5173349976539612e-01" purity="6.9437885284423828e-01" nType="-99"/>
        </Node>
      </Node>
    </BinaryTree>
    <BinaryTree type="DecisionTree" boostWeight="1.0000000000000000e+00" itree="64">
      <Node pos="s" depth="0" NCoef="0" IVar="5" Cut="4.9104968261718750e+02" cType="1" res="-5.3520807996392250e-03" rms="4.7439789772033691e-01" purity="4.9827232956886292e-01" nType="0">
        <Node pos="l" depth="1" NCoef="0" IVar="6" Cut="3.3202896118164062e+00" cType="1" res="-1.1487655341625214e-01" rms="4.5035690069198608e-01" purity="3.4836721420288086e-01" nType="0">
          <Node pos="l" depth="2" NCoef="0" IVar="-1" Cut="0.0000000000000000e+00" cType="1" res="-8.1075029447674751e-03" rms="4.1670936346054077e-01" purity="2.3367162048816681e-01" nType="-99"/>
          <Node pos="r" depth="2" NCoef="0" IVar="-1" Cut="0.0000000000000000e+00" cType="1" res="-3.8776234723627567e-03" rms="4.8459622263908386e-01" purity="4.8956081271171570e-01" nType="-99"/>
        </Node>
        <Node pos="r" depth="1" NCoef="0" IVar="1" Cut="9.3802964687347412e-01" cType="1" res="1.0552832856774330e-02" rms="4.7569623589515686e-01" purity="5.2004122734069824e-01" nType="0">
          <Node pos="l" depth="2" NCoef="0" IVar="-1" Cut="0.0000000000000000e+00" cType="1" res="3.3241652417927980e-03" rms="4.7281751036643982e-01" purity="5.9570258855819702e-01" nType="-99"/>
          <Node pos="r" depth="2" NCoef="0" IVar="-1" Cut="0.0000000000000000e+00" cType="1" res="-1.7374051967635751e-03" rms="4.7483330965042114e-01" purity="4.4785064458847046e-01" nType="-99"/>
        </Node>
      </Node>
    </BinaryTree>
    <BinaryTree type="DecisionTree" boostWeight="1.0000000000000000e+00" itree="65">
      <Node pos="s" depth="0" NCoef="0" IVar="2" Cut="7.0649904012680054e-01" cType="1" res="-7.4875676073133945e-03" rms="4.7220334410667419e-01" purity="4.9950721859931946e-01" nType="0">
        <Node pos="l" depth="1" NCoef="0" IVar="1" Cut="2.1873545646667480e+00" cType="1" res="-3.4188512712717056e-02" rms="4.7337710857391357e-01" purity="4.5029258728027344e-01" nType="0">
          <Node pos="l" depth="2" NCoef="0" IVar="-1" Cut="0.0000000000000000e+00" cType="1" res="-9.2935649445280433e-04" rms="4.7685036063194275e-01" purity="4.8021420836448669e-01" nType="-99"/>
          <Node pos="r" depth="2" NCoef="0" IVar="-1" Cut="0.0000000000000000e+00" cType="1" res="-6.9873849861323833e-03" rms="4.4191020727157593e-01" purity="2.9004856944084167e-01" nType="-99"/>
        </Node>
        <Node pos="r" depth="1" NCoef="0" IVar="5" Cut="5.6375268554687500e+02" cType="1" res="6.7707717418670654e-02" rms="4.6063885092735291e-01" purity="6.3810557126998901e-01" nType="0">
          <Node pos="l" depth="2" NCoef="0" IVar="-1" Cut="0.0000000000000000e+00" cType="1" res="-1.0853905696421862e-03" rms="4.7466245293617249e-01" purity="5.2270156145095825e-01" nType="-99"/>
          <Node pos="r" depth="2" NCoef="0" IVar="-1" Cut="0.0000000000000000e+00" cType="1" res="6.0024582780897617e-03" rms="4.5354929566383362e-01" purity="6.7119318246841431e-01" nType="-99"/>
        </Node>
      </Node>
    </BinaryTree>
    <BinaryTree type="DecisionTree" boostWeight="1.0000000000000000e+00" itree="66">
      <Node pos="s" depth="0" NCoef="0" IVar="3" Cut="1.7742633819580078e+00" cType="1" res="-8.4634441882371902e-03" rms="4.7334247827529907e-01" purity="4.9709942936897278e-01" nType="0">
        <Node pos="l" depth="1" NCoef="0" IVar="4" Cut="1.4484261628240347e-03" cType="1" res="1.9931141287088394e-02" rms="4.7391346096992493e-01" purity="5.3822016716003418e-01" nType="0">
          <Node pos="l" depth="2" NCoef="0" IVar="-1" Cut="0.0000000000000000e+00" cType="1" res="3.8874323945492506e-03" rms="4.6561154723167419e-01" purity="6.1425429582595825e-01" nType="-99"/>
          <Node pos="r" depth="2" NCoef="0" IVar="-1" Cut="0.0000000000000000e+00" cType="1" res="-1.9482463831081986e-03" rms="4.7921362519264221e-01" purity="4.3691980838775635e-01" nType="-99"/>
        </Node>
        <Node pos="r" depth="1" NCoef="0" IVar="3" Cut="2.3022322654724121e+00" cType="1" res="-1.0383894294500351e-01" rms="4.5872834324836731e-01" purity="3.5897773504257202e-01" nType="0">
          <Node pos="l" depth="2" NCoef="0" IVar="-1" Cut="0.0000000000000000e+00" cType="1" res="-4.5293662697076797e-03" rms="4.6881046891212463e-01" purity="3.9856755733489990e-01" nType="-99"/>
          <Node pos="r" depth="2" NCoef="0" IVar="-1" Cut="0.0000000000000000e+00" cType="1" res="-8.8084833696484566e-03" rms="4.2151424288749695e-01" purity="2.4468527734279633e-01" nType="-99"/>
        </Node>
      </Node>
    </BinaryTree>
    <BinaryTree type="DecisionTree" boostWeight="1.0000000000000000e+00" itree="67">
      <Node pos="s" depth="0" NCoef="0" IVar="6" Cut="5.3493118286132812e+00" cType="1" res="-9.8646292462944984e-03" rms="4.7268298268318176e-01" purity="4.9404886364936829e-01" nType="0">
        <Node pos="l" depth="1" NCoef="0" IVar="0" Cut="1.7832876741886139e-01" cType="1" res="-2.4915745481848717e-02" rms="4.7720798850059509e-01" purity="4.5892623066902161e-01" nType="0">
          <Node pos="l" depth="2" NCoef="0" IVar="-1" Cut="0.0000000000000000e+00" cType="1" res="-2.2154990583658218e-03" rms="4.7634530067443848e-01" purity="4.3973815441131592e-01" nType="-99"/>
          <Node pos="r" depth="2" NCoef="0" IVar="-1" Cut="0.0000000000000000e+00" cType="1" res="5.0903232768177986e-03" rms="4.6990373730659485e-01" purity="6.0163080692291260e-01" nType="-99"/>
        </Node>
        <Node pos="r" depth="1" NCoef="0" IVar="6" Cut="5.9715204238891602e+00" cType="1" res="1.0120835900306702e-01" rms="4.2154529690742493e-01" purity="7.5324410200119019e-01" nType="0">
          <Node pos="l" depth="2" NCoef="0" IVar="-1" Cut="0.0000000000000000e+00" cType="1" res="3.8595807272940874e-03" rms="4.4805559515953064e-01" purity="7.0361185073852539e-01" nType="-99"/>
          <Node pos="r" depth="2" NCoef="0" IVar="-1" Cut="0.0000000000000000e+00" cType="1" res="1.1577657423913479e-02" rms="3.7613058090209961e-01" purity="8.1914156675338745e-01" nType="-99"/>
        </Node>
      </Node>
    </BinaryTree>
    <BinaryTree type="DecisionTree" boostWeight="1.0000000000000000e+00" itree="68">
      <Node pos="s" depth="0" NCoef="0" IVar="1" Cut="8.2847106456756592e-01" cType="1" res="-1.2967706657946110e-02" rms="4.7476568818092346e-01" purity="4.9100631475448608e-01" nType="0">
        <Node pos="l" depth="1" NCoef="0" IVar="5" Cut="5.1988232421875000e+02" cType="1" res="3.7616312503814697e-02" rms="4.7246646881103516e-01" purity="5.7609134912490845e-01" nType="0">
          <Node pos="l" depth="2" NCoef="0" IVar="-1" Cut="0.0000000000000000e+00" cType="1" res="-3.1563022639602423e-03" rms="4.6796536445617676e-01" purity="4.4006931781768799e-01" nType="-99"/>
          <Node pos="r" depth="2" NCoef="0" IVar="-1" Cut="0.0000000000000000e+00" cType="1" res="3.5070679150521755e-03" rms="4.7116351127624512e-01" purity="6.0343807935714722e-01" nType="-99"/>
        </Node>
        <Node pos="r" depth="1" NCoef="0" IVar="2" Cut="5.4446041584014893e-01" cType="1" res="-4.8355817794799805e-02" rms="4.7316351532936096e-01" purity="4.3148159980773926e-01" nType="0">
          <Node pos="l" depth="2" NCoef="0" IVar="-1" Cut="0.0000000000000000e+00" cType="1" res="-4.9102101475000381e-03" rms="4.6402874588966370e-01" purity="3.5282027721405029e-01" nType="-99"/>
          <Node pos="r" depth="2" NCoef="0" IVar="-1" Cut="0.0000000000000000e+00" cType="1" res="-8.5002800915390253e-04" rms="4.7792384028434753e-01" purity="4.9640485644340515e-01" nType="-99"/>
        </Node>
      </Node>
    </BinaryTree>
    <BinaryTree type="DecisionTree" boostWeight="1.0000000000000000e+00" itree="69">
      <Node pos="s" depth="0" NCoef="0" IVar="6" Cut="3.1269083023071289e+00" cType="1" res="-3.8096883799880743e-03" rms="4.6962797641754150e-01" purity="4.9948638677597046e-01" nType="0">
        <Node pos="l" depth="1" NCoef="0" IVar="6" Cut="2.0479497909545898e+00" cType="1" res="-6.3857212662696838e-02" rms="4.6205812692642212e-01" purity="3.3457997441291809e-01" nType="0">
          <Node pos="l" depth="2" NCoef="0" IVar="-1" Cut="0.0000000000000000e+00" cType="1" res="-7.2502535767853260e-03" rms="4.2363518476486206e-01" purity="2.4642966687679291e-01" nType="-99"/>
          <Node pos="r" depth="2" NCoef="0" IVar="-1" Cut="0.0000000000000000e+00" cType="1" res="-1.8603054340928793e-03" rms="4.7569999098777771e-01" purity="3.7518900632858276e-01" nType="-99"/>
        </Node>
        <Node pos="r" depth="1" NCoef="0" IVar="3" Cut="1.9738589525222778e+00" cType="1" res="3.3852051943540573e-02" rms="4.7041895985603333e-01" purity="6.0291546583175659e-01" nType="0">
          <Node pos="l" depth="2" NCoef="0" IVar="-1" Cut="0.0000000000000000e+00" cType="1" res="3.0314286705106497e-03" rms="4.6747812628746033e-01" purity="6.2977099418640137e-01" nType="-99"/>
          <Node pos="r" depth="2" NCoef="0" IVar="-1" Cut="0.0000000000000000e+00" cType="1" res="-4.0504066273570061e-03" rms="4.7663158178329468e-01" purity="4.1846734285354614e-01" nType="-99"/>
        </Node>
      </Node>
    </BinaryTree>
    <BinaryTree type="DecisionTree" boostWeight="1.0000000000000000e+00" itree="70">
      <Node pos="s" depth="0" NCoef="0" IVar="6" Cut="2.6786932945251465e+00" cType="1" res="-3.3874278888106346e-03" rms="4.7211182117462158e-01" purity="5.0264823436737061e-01" nType="0">
        <Node pos="l" depth="1" NCoef="0" IVar="5" Cut="8.6014263916015625e+02" cType="1" res="-7.1478478610515594e-02" rms="4.5570987462997437e-01" purity="3.1059619784355164e-01" nType="0">
          <Node pos="l" depth="2" NCoef="0" IVar="-1" Cut="0.0000000000000000e+00" cType="1" res="-5.5100885219871998e-03" rms="4.4173797965049744e-01" purity="2.7882227301597595e-01" nType="-99"/>
          <Node pos="r" depth="2" NCoef="0" IVar="-1" Cut="0.0000000000000000e+00" cType="1" res="1.1552330106496811e-03" rms="4.9016267061233521e-01" purity="4.2018514871597290e-01" nType="-99"/>
        </Node>
        <Node pos="r" depth="1" NCoef="0" IVar="1" Cut="2.4148800373077393e+00" cType="1" res="1.8887246027588844e-02" rms="4.7524204850196838e-01" purity="5.6547439098358154e-01" nType="0">
          <Node pos="l" depth="2" NCoef="0" IVar="-1" Cut="0.0000000000000000e+00" cType="1" res="1.9372588722035289e-03" rms="4.7461301088333130e-01" purity="5.8879381418228149e-01" nType="-99"/>
          <Node pos="r" depth="2" NCoef="0" IVar="-1" Cut="0.0000000000000000e+00" cType="1" res="-5.4914751090109348e-03" rms="4.6357733011245728e-01" purity="3.5031220316886902e-01" nType="-99"/>
        </Node>
      </Node>
    </BinaryTree>
    <BinaryTree type="DecisionTree" boostWeight="1.0000000000000000e+00" itree="71">
      <Node pos="s" depth="0" NCoef="0" IVar="5" Cut="4.8865295410156250e+02" cType="1" res="-2.6073933113366365e-03" rms="4.7238025069236755e-01" purity="5.0185751914978027e-01" nType="0">
        <Node pos="l" depth="1" NCoef="0" IVar="0" Cut="1.2012232840061188e-01" cType="1" res="-1.0658420622348785e-01" rms="4.6157324314117432e-01" purity="3.5398253798484802e-01" nType="0">
          <Node pos="l" depth="2" NCoef="0" IVar="-1" Cut="0.0000000000000000e+00" cType="1" res="-8.3107473328709602e-03" rms="4.3730685114860535e-01" purity="2.7687242627143860e-01" nType="-99"/>
          <Node pos="r" depth="2" NCoef="0" IVar="-1" Cut="0.0000000000000000e+00" cType="1" res="-2.7703635860234499e-03" rms="4.8126766085624695e-01" purity="4.4114410877227783e-01" nType="-99"/>
        </Node>
        <Node pos="r" depth="1" NCoef="0" IVar="1" Cut="7.3345720767974854e-01" cType="1" res="1.3021121732890606e-02" rms="4.7200733423233032e-01" purity="5.2408427000045776e-01" nType="0">
          <Node pos="l" depth="2" NCoef="0" IVar="-1" Cut="0.0000000000000000e+00" cType="1" res="4.2557795532047749e-03" rms="4.6422284841537476e-01" purity="6.2160181999206543e-01" nType="-99"/>
          <Node pos="r" depth="2" NCoef="0" IVar="-1" Cut="0.0000000000000000e+00" cType="1" res="-9.7036967054009438e-04" rms="4.7357794642448425e-01" purity="4.7054573893547058e-01" nType="-99"/>
        </Node>
      </Node>
    </BinaryTree>
    <BinaryTree type="DecisionTree" boostWeight="1.0000000000000000e+00" itree="72">
      <Node pos="s" depth="0" NCoef="0" IVar="5" Cut="4.4472778320312500e+02" cType="1" res="-7.8465295955538750e-03" rms="4.7525924444198608e-01" purity="4.9569919705390930e-01" nType="0">
        <Node pos="l" depth="1" NCoef="0" IVar="-1" Cut="0.0000000000000000e+00" cType="1" res="-7.8392308205366135e-03" rms="4.2623251676559448e-01" purity="2.8694543242454529e-01" nType="-99"/>
        <Node pos="r" depth="1" NCoef="0" IVar="1" Cut="2.2779283523559570e+00" cType="1" res="1.4132482465356588e-03" rms="4.7681394219398499e-01" purity="5.0930792093276978e-01" nType="0">
          <Node pos="l" depth="2" NCoef="0" IVar="-1" Cut="0.0000000000000000e+00" cType="1" res="7.2361406637355685e-04" rms="4.7794514894485474e-01" purity="5.3069394826889038e-01" nType="-99"/>
          <Node pos="r" depth="2" NCoef="0" IVar="-1" Cut="0.0000000000000000e+00" cType="1" res="-4.9768155440688133e-03" rms="4.5663881301879883e-01" purity="3.2487949728965759e-01" nType="-99"/>
        </Node>
      </Node>
    </BinaryTree>
    <BinaryTree type="DecisionTree" boostWeight="1.0000000000000000e+00" itree="73">
      <Node pos="s" depth="0" NCoef="0" IVar="3" Cut="1.9177428483963013e+00" cType="1" res="-3.9573763497173786e-03" rms="4.7138345241546631e-01" purity="4.9941971898078918e-01" nType="0">
        <Node pos="l" depth="1" NCoef="0" IVar="1" Cut="5.1824539899826050e-01" cType="1" res="1.2710861861705780e-02" rms="4.7353717684745789e-01" purity="5.2963525056838989e-01" nType="0">
          <Node pos="l" depth="2" NCoef="0" IVar="-1" Cut="0.0000000000000000e+00" cType="1" res="4.5999027788639069e-03" rms="4.6395373344421387e-01" purity="6.2774276733398438e-01" nType="-99"/>
          <Node pos="r" depth="2" NCoef="0" IVar="-1" Cut="0.0000000000000000e+00" cType="1" res="-3.8314893026836216e-04" rms="4.7493863105773926e-01" purity="4.9837681651115417e-01" nType="-99"/>
        </Node>
        <Node pos="r" depth="1" NCoef="0" IVar="0" Cut="8.5384540259838104e-02" cType="1" res="-8.8584110140800476e-02" rms="4.5088529586791992e-01" purity="3.4601169824600220e-01" nType="0">
          <Node pos="l" depth="2" NCoef="0" IVar="-1" Cut="0.0000000000000000e+00" cType="1" res="-7.2403065860271454e-03" rms="4.3628233671188354e-01" purity="2.8819733858108521e-01" nType="-99"/>
          <Node pos="r" depth="2" NCoef="0" IVar="-1" Cut="0.0000000000000000e+00" cType="1" res="-1.3347483472898602e-03" rms="4.6216872334480286e-01" purity="4.2502915859222412e-01" nType="-99"/>
        </Node>
      </Node>
    </BinaryTree>
    <BinaryTree type="DecisionTree" boostWeight="1.0000000000000000e+00" itree="74">
      <Node pos="s" depth="0" NCoef="0" IVar="6" Cut="3.9196529388427734e+00" cType="1" res="-7.4863393092527986e-04" rms="4.6752774715423584e-01" purity="5.0011479854583740e-01" nType="0">
        <Node pos="l" depth="1" NCoef="0" IVar="3" Cut="2.0985081195831299e+00" cType="1" res="-4.0400378406047821e-02" rms="4.7179067134857178e-01" purity="3.8505318760871887e-01" nType="0">
          <Node pos="l" depth="2" NCoef="0" IVar="-1" Cut="0.0000000000000000e+00" cType="1" res="-1.5044672181829810e-03" rms="4.7821670770645142e-01" purity="4.0660113096237183e-01" nType="-99"/>
          <Node pos="r" depth="2" NCoef="0" IVar="-1" Cut="0.0000000000000000e+00" cType="1" res="-7.8483941033482552e-03" rms="4.0554156899452209e-01" purity="2.2202113270759583e-01" nType="-99"/>
        </Node>
        <Node pos="r" depth="1" NCoef="0" IVar="1" Cut="1.3738015890121460e+00" cType="1" res="5.8267161250114441e-02" rms="4.5475217700004578e-01" purity="6.7136710882186890e-01" nType="0">
          <Node pos="l" depth="2" NCoef="0" IVar="-1" Cut="0.0000000000000000e+00" cType="1" res="5.8798403479158878e-03" rms="4.3776232004165649e-01" purity="7.2577506303787231e-01" nType="-99"/>
          <Node pos="r" depth="2" NCoef="0" IVar="-1" Cut="0.0000000000000000e+00" cType="1" res="-2.9640246066264808e-04" rms="4.8504787683486938e-01" purity="5.4839044809341431e-01" nType="-99"/>
        </Node>
      </Node>
    </BinaryTree>
    <BinaryTree type="DecisionTree" boostWeight="1.0000000000000000e+00" itree="75">
      <Node pos="s" depth="0" NCoef="0" IVar="0" Cut="9.2283256351947784e-02" cType="1" res="9.0267451014369726e-04" rms="4.7286134958267212e-01" purity="5.0372999906539917e-01" nType="0">
        <Node pos="l" depth="1" NCoef="0" IVar="1" Cut="7.4178868532180786e-01" cType="1" res="-3.3211994916200638e-02" rms="4.7285294532775879e-01" purity="4.5077508687973022e-01" nType="0">
          <Node pos="l" depth="2" NCoef="0" IVar="-1" Cut="0.0000000000000000e+00" cType="1" res="1.5670860884711146e-03" rms="4.7867485880851746e-01" purity="5.5336213111877441e-01" nType="-99"/>
          <Node pos="r" depth="2" NCoef="0" IVar="-1" Cut="0.0000000000000000e+00" cType="1" res="-3.3924034796655178e-03" rms="4.6761128306388855e-01" purity="4.0325248241424561e-01" nType="-99"/>
        </Node>
        <Node pos="r" depth="1" NCoef="0" IVar="4" Cut="2.5910332333296537e-03" cType="1" res="4.5682430267333984e-02" rms="4.6912193298339844e-01" purity="5.7323998212814331e-01" nType="0">
          <Node pos="l" depth="2" NCoef="0" IVar="-1" Cut="0.0000000000000000e+00" cType="1" res="4.1031287983059883e-03" rms="4.6594560146331787e-01" purity="6.0636681318283081e-01" nType="-99"/>
          <Node pos="r" depth="2" NCoef="0" IVar="-1" Cut="0.0000000000000000e+00" cType="1" res="-1.5501980669796467e-03" rms="4.7400635480880737e-01" purity="4.4526901841163635e-01" nType="-99"/>
        </Node>
      </Node>
    </BinaryTree>
    <BinaryTree type="DecisionTree" boostWeight="1.0000000000000000e+00" itree="76">
      <Node pos="s" depth="0" NCoef="0" IVar="5" Cut="4.3897320556640625e+02" cType="1" res="-1.0350734926760197e-02" rms="4.7403478622436523e-01" purity="4.9671739339828491e-01" nType="0">
        <Node pos="l" depth="1" NCoef="0" IVar="-1" Cut="0.0000000000000000e+00" cType="1" res="-7.9331034794449806e-03" rms="4.3358728289604187e-01" purity="2.9554757475852966e-01" nType="-99"/>
        <Node pos="r" depth="1" NCoef="0" IVar="3" Cut="1.8971484899520874e+00" cType="1" res="-2.1392435301095247e-03" rms="4.7509098052978516e-01" purity="5.0875508785247803e-01" nType="0">
          <Node pos="l" depth="2" NCoef="0" IVar="-1" Cut="0.0000000000000000e+00" cType="1" res="7.4206339195370674e-04" rms="4.7596678137779236e-01" purity="5.3624898195266724e-01" nType="-99"/>
          <Node pos="r" depth="2" NCoef="0" IVar="-1" Cut="0.0000000000000000e+00" cType="1" res="-4.3001780286431313e-03" rms="4.6351695060729980e-01" purity="3.6868616938591003e-01" nType="-99"/>
        </Node>
      </Node>
    </BinaryTree>
    <BinaryTree type="DecisionTree" boostWeight="1.0000000000000000e+00" itree="77">
      <Node pos="s" depth="0" NCoef="0" IVar="2" Cut="6.3300186395645142e-01" cType="1" res="-6.2441932968795300e-03" rms="4.6880108118057251e-01" purity="4.9445861577987671e-01" nType="0">
        <Node pos="l" depth="1" NCoef="0" IVar="4" Cut="8.0523503129370511e-05" cType="1" res="-4.0860000997781754e-02" rms="4.6916458010673523e-01" purity="4.2163074016571045e-01" nType="0">
          <Node pos="l" depth="2" NCoef="0" IVar="-1" Cut="0.0000000000000000e+00" cType="1" res="5.2849431522190571e-03" rms="4.6392104029655457e-01" purity="6.4251977205276489e-01" nType="-99"/>
          <Node pos="r" depth="2" NCoef="0" IVar="-1" Cut="0.0000000000000000e+00" cType="1" res="-2.9777511954307556e-03" rms="4.6787905693054199e-01" purity="3.9925745129585266e-01" nType="-99"/>
        </Node>
        <Node pos="r" depth="1" NCoef="0" IVar="6" Cut="2.3342876434326172e+00" cType="1" res="4.1616529226303101e-02" rms="4.6406427025794983e-01" purity="5.9515237808227539e-01" nType="0">
          <Node pos="l" depth="2" NCoef="0" IVar="-1" Cut="0.0000000000000000e+00" cType="1" res="-4.5094802044332027e-03" rms="4.6386367082595825e-01" purity="3.3091115951538086e-01" nType="-99"/>
          <Node pos="r" depth="2" NCoef="0" IVar="-1" Cut="0.0000000000000000e+00" cType="1" res="4.3341559357941151e-03" rms="4.5995837450027466e-01" purity="6.5133017301559448e-01" nType="-99"/>
        </Node>
      </Node>
    </BinaryTree>
    <BinaryTree type="DecisionTree" boostWeight="1.0000000000000000e+00" itree="78">
      <Node pos="s" depth="0" NCoef="0" IVar="6" Cut="4.7554497718811035e+00" cType="1" res="-2.4515709374099970e-03" rms="4.7170865535736084e-01" purity="5.0098162889480591e-01" nType="0">
        <Node pos="l" depth="1" NCoef="0" IVar="3" Cut="2.1996989250183105e+00" cType="1" res="-2.2018024697899818e-02" rms="4.7849315404891968e-01" purity="4.4061762094497681e-01" nType="0">
          <Node pos="l" depth="2" NCoef="0" IVar="-1" Cut="0.0000000000000000e+00" cType="1" res="-5.9622386470437050e-04" rms="4.8290532827377319e-01" purity="4.6053025126457214e-01" nType="-99"/>
          <Node pos="r" depth="2" NCoef="0" IVar="-1" Cut="0.0000000000000000e+00" cType="1" res="-8.3380099385976791e-03" rms="4.0449887514114380e-01" purity="2.1962273120880127e-01" nType="-99"/>
        </Node>
        <Node pos="r" depth="1" NCoef="0" IVar="6" Cut="5.7539196014404297e+00" cType="1" res="6.4834751188755035e-02" rms="4.4101694226264954e-01" purity="7.0856523513793945e-01" nType="0">
          <Node pos="l" depth="2" NCoef="0" IVar="-1" Cut="0.0000000000000000e+00" cType="1" res="2.6179070118814707e-03" rms="4.5709449052810669e-01" purity="6.7228657007217407e-01" nType="-99"/>
          <Node pos="r" depth="2" NCoef="0" IVar="-1" Cut="0.0000000000000000e+00" cType="1" res="8.8175712153315544e-03" rms="3.9887383580207825e-01" purity="7.8694611787796021e-01" nType="-99"/>
        </Node>
      </Node>
    </BinaryTree>
    <BinaryTree type="DecisionTree" boostWeight="1.0000000000000000e+00" itree="79">
      <Node pos="s" depth="0" NCoef="0" IVar="2" Cut="8.1239557266235352e-01" cType="1" res="-3.4718147944658995e-03" rms="4.7203290462493896e-01" purity="4.9847972393035889e-01" nType="0">
        <Node pos="l" depth="1" NCoef="0" IVar="6" Cut="5.8803825378417969e+00" cType="1" res="-1.5132279135286808e-02" rms="4.7385782003402710e-01" purity="4.7785902023315430e-01" nType="0">
          <Node pos="l" depth="2" NCoef="0" IVar="-1" Cut="0.0000000000000000e+00" cType="1" res="-1.4606325421482325e-03" rms="4.7719874978065491e-01" purity="4.5674130320549011e-01" nType="-99"/>
          <Node pos="r" depth="2" NCoef="0" IVar="-1" Cut="0.0000000000000000e+00" cType="1" res="1.0577938519418240e-02" rms="3.8467380404472351e-01" purity="8.0869871377944946e-01" nType="-99"/>
        </Node>
        <Node pos="r" depth="1" NCoef="0" IVar="-1" Cut="0.0000000000000000e+00" cType="1" res="7.8233918175101280e-03" rms="4.3563821911811829e-01" purity="7.0834183692932129e-01" nType="-99"/>
      </Node>
    </BinaryTree>
    <BinaryTree type="DecisionTree" boostWeight="1.0000000000000000e+00" itree="80">
      <Node pos="s" depth="0" NCoef="0" IVar="2" Cut="7.2818994522094727e-01" cType="1" res="-3.5188605543226004e-03" rms="4.7198247909545898e-01" purity="5.0043547153472900e-01" nType="0">
        <Node pos="l" depth="1" NCoef="0" IVar="6" Cut="2.0341634750366211e+00" cType="1" res="-2.1804831922054291e-02" rms="4.7348153591156006e-01" purity="4.6050345897674561e-01" nType="0">
          <Node pos="l" depth="2" NCoef="0" IVar="-1" Cut="0.0000000000000000e+00" cType="1" res="-6.6871596500277519e-03" rms="4.2079558968544006e-01" purity="2.3329025506973267e-01" nType="-99"/>
          <Node pos="r" depth="2" NCoef="0" IVar="-1" Cut="0.0000000000000000e+00" cType="1" res="-5.5805849842727184e-04" rms="4.7835096716880798e-01" purity="4.8914358019828796e-01" nType="-99"/>
        </Node>
        <Node pos="r" depth="1" NCoef="0" IVar="0" Cut="1.1233710497617722e-01" cType="1" res="6.3169017434120178e-02" rms="4.6036055684089661e-01" purity="6.4606529474258423e-01" nType="0">
          <Node pos="l" depth="2" NCoef="0" IVar="-1" Cut="0.0000000000000000e+00" cType="1" res="1.7011858290061355e-03" rms="4.6886849403381348e-01" purity="6.0377252101898193e-01" nType="-99"/>
          <Node pos="r" depth="2" NCoef="0" IVar="-1" Cut="0.0000000000000000e+00" cType="1" res="6.0068694874644279e-03" rms="4.5162591338157654e-01" purity="6.7897611856460571e-01" nType="-99"/>
        </Node>
      </Node>
    </BinaryTree>
    <BinaryTree type="DecisionTree" boostWeight="1.0000000000000000e+00" itree="81">
      <Node pos="s" depth="0" NCoef="0" IVar="5" Cut="5.9817907714843750e+02" cType="1" res="2.3836086038500071e-03" rms="4.6893590688705444e-01" purity="5.0408327579498291e-01" nType="0">
        <Node pos="l" depth="1" NCoef="0" IVar="6" Cut="4.6143560409545898e+00" cType="1" res="-6.6165901720523834e-02" rms="4.5711222290992737e-01" purity="3.9925006031990051e-01" nType="0">
          <Node pos="l" depth="2" NCoef="0" IVar="-1" Cut="0.0000000000000000e+00" cType="1" res="-5.0883921794593334e-03" rms="4.5412322878837585e-01" purity="3.3749225735664368e-01" nType="-99"/>
          <Node pos="r" depth="2" NCoef="0" IVar="-1" Cut="0.0000000000000000e+00" cType="1" res="3.7566111423075199e-03" rms="4.5086556673049927e-01" purity="6.8112170696258545e-01" nType="-99"/>
        </Node>
        <Node pos="r" depth="1" NCoef="0" IVar="6" Cut="5.7727890014648438e+00" cType="1" res="3.5582222044467926e-02" rms="4.7098380327224731e-01" purity="5.5485409498214722e-01" nType="0">
          <Node pos="l" depth="2" NCoef="0" IVar="-1" Cut="0.0000000000000000e+00" cType="1" res="1.4873009640723467e-03" rms="4.7772279381752014e-01" purity="5.3032881021499634e-01" nType="-99"/>
          <Node pos="r" depth="2" NCoef="0" IVar="-1" Cut="0.0000000000000000e+00" cType="1" res="1.2162673287093639e-02" rms="3.6189240217208862e-01" purity="8.3864331245422363e-01" nType="-99"/>
        </Node>
      </Node>
    </BinaryTree>
    <BinaryTree type="DecisionTree" boostWeight="1.0000000000000000e+00" itree="82">
      <Node pos="s" depth="0" NCoef="0" IVar="4" Cut="1.1226609349250793e-03" cType="1" res="3.3312391024082899e-03" rms="4.7190454602241516e-01" purity="5.0644230842590332e-01" nType="0">
        <Node pos="l" depth="1" NCoef="0" IVar="6" Cut="2.8381500244140625e+00" cType="1" res="4.3662350624799728e-02" rms="4.6689862012863159e-01" purity="5.9724104404449463e-01" nType="0">
          <Node pos="l" depth="2" NCoef="0" IVar="-1" Cut="0.0000000000000000e+00" cType="1" res="-2.3166574537754059e-03" rms="4.6436560153961182e-01" purity="3.5166567564010620e-01" nType="-99"/>
          <Node pos="r" depth="2" NCoef="0" IVar="-1" Cut="0.0000000000000000e+00" cType="1" res="3.8819101173430681e-03" rms="4.6562460064888000e-01" purity="6.4498567581176758e-01" nType="-99"/>
        </Node>
        <Node pos="r" depth="1" NCoef="0" IVar="5" Cut="5.3165460205078125e+02" cType="1" res="-3.4679986536502838e-02" rms="4.7343981266021729e-01" purity="4.2086648941040039e-01" nType="0">
          <Node pos="l" depth="2" NCoef="0" IVar="-1" Cut="0.0000000000000000e+00" cType="1" res="-6.5256240777671337e-03" rms="4.3201422691345215e-01" purity="2.8271722793579102e-01" nType="-99"/>
          <Node pos="r" depth="2" NCoef="0" IVar="-1" Cut="0.0000000000000000e+00" cType="1" res="-6.9780781632289290e-04" rms="4.8123022913932800e-01" purity="4.5709970593452454e-01" nType="-99"/>
        </Node>
      </Node>
    </BinaryTree>
    <BinaryTree type="DecisionTree" boostWeight="1.0000000000000000e+00" itree="83">
      <Node pos="s" depth="0" NCoef="0" IVar="3" Cut="2.1411097049713135e+00" cType="1" res="-4.5514339581131935e-03" rms="4.7004291415214539e-01" purity="5.0095254182815552e-01" nType="0">
        <Node pos="l" depth="1" NCoef="0" IVar="6" Cut="2.1842284202575684e+00" cType="1" res="7.7356616966426373e-03" rms="4.7185331583023071e-01" purity="5.2318811416625977e-01" nType="0">
          <Node pos="l" depth="2" NCoef="0" IVar="-1" Cut="0.0000000000000000e+00" cType="1" res="-4.7608250752091408e-03" rms="4.4812938570976257e-01" purity="2.8835815191268921e-01" nType="-99"/>
          <Node pos="r" depth="2" NCoef="0" IVar="-1" Cut="0.0000000000000000e+00" cType="1" res="1.3071709545329213e-03" rms="4.7386431694030762e-01" purity="5.5941152572631836e-01" nType="-99"/>
        </Node>
        <Node pos="r" depth="1" NCoef="0" IVar="-1" Cut="0.0000000000000000e+00" cType="1" res="-6.7837787792086601e-03" rms="4.3347463011741638e-01" purity="2.8143078088760376e-01" nType="-99"/>
      </Node>
    </BinaryTree>
    <BinaryTree type="DecisionTree" boostWeight="1.0000000000000000e+00" itree="84">
      <Node pos="s" depth="0" NCoef="0" IVar="6" Cut="2.5481433868408203e+00" cType="1" res="3.1456516589969397e-03" rms="4.6862050890922546e-01" purity="5.0976479053497314e-01" nType="0">
        <Node pos="l" depth="1" NCoef="0" IVar="0" Cut="7.5324244797229767e-02" cType="1" res="-6.6299565136432648e-02" rms="4.4915536046028137e-01" purity="3.0124589800834656e-01" nType="0">
          <Node pos="l" depth="2" NCoef="0" IVar="-1" Cut="0.0000000000000000e+00" cType="1" res="-6.2404568307101727e-03" rms="4.2086154222488403e-01" purity="2.4279791116714478e-01" nType="-99"/>
          <Node pos="r" depth="2" NCoef="0" IVar="-1" Cut="0.0000000000000000e+00" cType="1" res="-1.5098740113899112e-03" rms="4.7176384925842285e-01" purity="3.5849159955978394e-01" nType="-99"/>
        </Node>
        <Node pos="r" depth="1" NCoef="0" IVar="1" Cut="2.5369882583618164e+00" cType="1" res="2.2660695016384125e-02" rms="4.7211155295372009e-01" purity="5.6836146116256714e-01" nType="0">
          <Node pos="l" depth="2" NCoef="0" IVar="-1" Cut="0.0000000000000000e+00" cType="1" res="2.1405073348432779e-03" rms="4.7209438681602478e-01" purity="5.9026193618774414e-01" nType="-99"/>
          <Node pos="r" depth="2" NCoef="0" IVar="-1" Cut="0.0000000000000000e+00" cType="1" res="-6.3038598746061325e-03" rms="4.4942191243171692e-01" purity="3.1916984915733337e-01" nType="-99"/>
        </Node>
      </Node>
    </BinaryTree>
    <BinaryTree type="DecisionTree" boostWeight="1.0000000000000000e+00" itree="85">
      <Node pos="s" depth="0" NCoef="0" IVar="6" Cut="5.7719964981079102e+00" cType="1" res="1.8760563107207417e-03" rms="4.7287738323211670e-01" purity="5.1155430078506470e-01" nType="0">
        <Node pos="l" depth="1" NCoef="0" IVar="0" Cut="1.8539844453334808e-01" cType="1" res="-8.4204263985157013e-03" rms="4.7798344492912292e-01" purity="4.8673301935195923e-01" nType="0">
          <Node pos="l" depth="2" NCoef="0" IVar="-1" Cut="0.0000000000000000e+00" cType="1" res="-1.1877152137458324e-03" rms="4.7867169976234436e-01" purity="4.6860066056251526e-01" nType="-99"/>
          <Node pos="r" depth="2" NCoef="0" IVar="-1" Cut="0.0000000000000000e+00" cType="1" res="5.8405706658959389e-03" rms="4.6012848615646362e-01" purity="6.3751089572906494e-01" nType="-99"/>
        </Node>
        <Node pos="r" depth="1" NCoef="0" IVar="-1" Cut="0.0000000000000000e+00" cType="1" res="9.9707795307040215e-03" rms="3.8360282778739929e-01" purity="8.1488680839538574e-01" nType="-99"/>
      </Node>
    </BinaryTree>
    <BinaryTree type="DecisionTree" boostWeight="1.0000000000000000e+00" itree="86">
      <Node pos="s" depth="0" NCoef="0" IVar="6" Cut="3.1635847091674805e+00" cType="1" res="-6.8603483960032463e-03" rms="4.6994248032569885e-01" purity="4.9908128380775452e-01" nType="0">
        <Node pos="l" depth="1" NCoef="0" IVar="1" Cut="2.0411319732666016e+00" cType="1" res="-5.1471319049596786e-02" rms="4.6254554390907288e-01" purity="3.3925861120223999e-01" nType="0">
          <Node pos="l" depth="2" NCoef="0" IVar="-1" Cut="0.0000000000000000e+00" cType="1" res="-1.8022510921582580e-03" rms="4.7498136758804321e-01" purity="3.7138429284095764e-01" nType="-99"/>
          <Node pos="r" depth="2" NCoef="0" IVar="-1" Cut="0.0000000000000000e+00" cType="1" res="-8.5211694240570068e-03" rms="3.7619692087173462e-01" purity="1.7289067804813385e-01" nType="-99"/>
        </Node>
        <Node pos="r" depth="1" NCoef="0" IVar="0" Cut="1.5515665709972382e-01" cType="1" res="2.0274674519896507e-02" rms="4.7232890129089355e-01" purity="5.9629482030868530e-01" nType="0">
          <Node pos="l" depth="2" NCoef="0" IVar="-1" Cut="0.0000000000000000e+00" cType="1" res="1.9186656572856009e-04" rms="4.7980588674545288e-01" purity="5.6649512052536011e-01" nType="-99"/>
          <Node pos="r" depth="2" NCoef="0" IVar="-1" Cut="0.0000000000000000e+00" cType="1" res="6.4257620833814144e-03" rms="4.3056854605674744e-01" purity="7.2578567266464233e-01" nType="-99"/>
        </Node>
      </Node>
    </BinaryTree>
    <BinaryTree type="DecisionTree" boostWeight="1.0000000000000000e+00" itree="87">
      <Node pos="s" depth="0" NCoef="0" IVar="5" Cut="5.7797729492187500e+02" cType="1" res="-1.9825434312224388e-02" rms="4.7060903906822205e-01" purity="4.8620223999023438e-01" nType="0">
        <Node pos="l" depth="1" NCoef="0" IVar="4" Cut="3.9886587182991207e-04" cType="1" res="-7.4176803231239319e-02" rms="4.6323785185813904e-01" purity="3.9240330457687378e-01" nType="0">
          <Node pos="l" depth="2" NCoef="0" IVar="-1" Cut="0.0000000000000000e+00" cType="1" res="-1.1256693687755615e-04" rms="4.8016634583473206e-01" purity="5.5725032091140747e-01" nType="-99"/>
          <Node pos="r" depth="2" NCoef="0" IVar="-1" Cut="0.0000000000000000e+00" cType="1" res="-5.2959849126636982e-03" rms="4.5547193288803101e-01" purity="3.4093883633613586e-01" nType="-99"/>
        </Node>
        <Node pos="r" depth="1" NCoef="0" IVar="3" Cut="1.9745485782623291e+00" cType="1" res="2.6566924061626196e-03" rms="4.7179743647575378e-01" purity="5.2500158548355103e-01" nType="0">
          <Node pos="l" depth="2" NCoef="0" IVar="-1" Cut="0.0000000000000000e+00" cType="1" res="9.4219401944428682e-04" rms="4.7234719991683960e-01" purity="5.4933643341064453e-01" nType="-99"/>
          <Node pos="r" depth="2" NCoef="0" IVar="-1" Cut="0.0000000000000000e+00" cType="1" res="-5.0243735313415527e-03" rms="4.5768895745277405e-01" purity="3.5268530249595642e-01" nType="-99"/>
        </Node>
      </Node>
    </BinaryTree>
    <BinaryTree type="DecisionTree" boostWeight="1.0000000000000000e+00" itree="88">
      <Node pos="s" depth="0" NCoef="0" IVar="3" Cut="1.8647577762603760e+00" cType="1" res="6.1601880006492138e-03" rms="4.7031393647193909e-01" purity="5.1401162147521973e-01" nType="0">
        <Node pos="l" depth="1" NCoef="0" IVar="5" Cut="6.2393988037109375e+02" cType="1" res="2.1224217489361763e-02" rms="4.7123160958290100e-01" purity="5.4362183809280396e-01" nType="0">
          <Node pos="l" depth="2" NCoef="0" IVar="-1" Cut="0.0000000000000000e+00" cType="1" res="-1.4081085100769997e-03" rms="4.7300222516059875e-01" purity="4.6701425313949585e-01" nType="-99"/>
          <Node pos="r" depth="2" NCoef="0" IVar="-1" Cut="0.0000000000000000e+00" cType="1" res="2.8304874431341887e-03" rms="4.6842771768569946e-01" purity="5.8532756567001343e-01" nType="-99"/>
        </Node>
        <Node pos="r" depth="1" NCoef="0" IVar="2" Cut="5.4486954212188721e-01" cType="1" res="-6.2648229300975800e-02" rms="4.5986667275428772e-01" purity="3.7876001000404358e-01" nType="0">
          <Node pos="l" depth="2" NCoef="0" IVar="-1" Cut="0.0000000000000000e+00" cType="1" res="-6.8234358914196491e-03" rms="4.3027111887931824e-01" purity="2.6834008097648621e-01" nType="-99"/>
          <Node pos="r" depth="2" NCoef="0" IVar="-1" Cut="0.0000000000000000e+00" cType="1" res="-3.4130277344956994e-04" rms="4.7783061861991882e-01" purity="4.7795984148979187e-01" nType="-99"/>
        </Node>
      </Node>
    </BinaryTree>
    <BinaryTree type="DecisionTree" boostWeight="1.0000000000000000e+00" itree="89">
      <Node pos="s" depth="0" NCoef="0" IVar="1" Cut="8.2688558101654053e-01" cType="1" res="-2.9103620909154415e-03" rms="4.6975064277648926e-01" purity="5.0130772590637207e-01" nType="0">
        <Node pos="l" depth="1" NCoef="0" IVar="3" Cut="1.6978284120559692e+00" cType="1" res="4.0872287005186081e-02" rms="4.7058996558189392e-01" purity="5.8972525596618652e-01" nType="0">
          <Node pos="l" depth="2" NCoef="0" IVar="-1" Cut="0.0000000000000000e+00" cType="1" res="3.9167506620287895e-03" rms="4.6465727686882019e-01" purity="6.2223768234252930e-01" nType="-99"/>
          <Node pos="r" depth="2" NCoef="0" IVar="-1" Cut="0.0000000000000000e+00" cType="1" res="-2.1455020178109407e-03" rms="4.8436895012855530e-01" purity="4.6712219715118408e-01" nType="-99"/>
        </Node>
        <Node pos="r" depth="1" NCoef="0" IVar="2" Cut="4.3369859457015991e-01" cType="1" res="-3.3534117043018341e-02" rms="4.6672803163528442e-01" purity="4.3946412205696106e-01" nType="0">
          <Node pos="l" depth="2" NCoef="0" IVar="-1" Cut="0.0000000000000000e+00" cType="1" res="-7.0889964699745178e-03" rms="4.2943665385246277e-01" purity="2.8492540121078491e-01" nType="-99"/>
          <Node pos="r" depth="2" NCoef="0" IVar="-1" Cut="0.0000000000000000e+00" cType="1" res="-9.1596244601532817e-04" rms="4.7081473469734192e-01" purity="4.6699169278144836e-01" nType="-99"/>
        </Node>
      </Node>
    </BinaryTree>
    <BinaryTree type="DecisionTree" boostWeight="1.0000000000000000e+00" itree="90">
      <Node pos="s" depth="0" NCoef="0" IVar="6" Cut="4.9325957298278809e+00" cType="1" res="-4.8902486450970173e-03" rms="4.6571621298789978e-01" purity="4.9796271324157715e-01" nType="0">
        <Node pos="l" depth="1" NCoef="0" IVar="0" Cut="9.7322292625904083e-02" cType="1" res="-2.2762119770050049e-02" rms="4.7160449624061584e-01" purity="4.4742140173912048e-01" nType="0">
          <Node pos="l" depth="2" NCoef="0" IVar="-1" Cut="0.0000000000000000e+00" cType="1" res="-3.1727890018373728e-03" rms="4.6572071313858032e-01" purity="3.9525130391120911e-01" nType="-99"/>
          <Node pos="r" depth="2" NCoef="0" IVar="-1" Cut="0.0000000000000000e+00" cType="1" res="1.6403810586780310e-03" rms="4.7589343786239624e-01" purity="5.2553576231002808e-01" nType="-99"/>
        </Node>
        <Node pos="r" depth="1" NCoef="0" IVar="5" Cut="7.4961212158203125e+02" cType="1" res="8.0328211188316345e-02" rms="4.2636743187904358e-01" purity="7.3895913362503052e-01" nType="0">
          <Node pos="l" depth="2" NCoef="0" IVar="-1" Cut="0.0000000000000000e+00" cType="1" res="8.5731558501720428e-03" rms="4.0977516770362854e-01" purity="7.6619648933410645e-01" nType="-99"/>
          <Node pos="r" depth="2" NCoef="0" IVar="-1" Cut="0.0000000000000000e+00" cType="1" res="2.8107468970119953e-03" rms="4.3926274776458740e-01" purity="7.1087312698364258e-01" nType="-99"/>
        </Node>
      </Node>
    </BinaryTree>
    <BinaryTree type="DecisionTree" boostWeight="1.0000000000000000e+00" itree="91">
      <Node pos="s" depth="0" NCoef="0" IVar="6" Cut="2.5048041343688965e+00" cType="1" res="-2.3847799748182297e-03" rms="4.7209003567695618e-01" purity="5.0063782930374146e-01" nType="0">
        <Node pos="l" depth="1" NCoef="0" IVar="5" Cut="7.1405334472656250e+02" cType="1" res="-6.5114274621009827e-02" rms="4.5244866609573364e-01" purity="2.9835838079452515e-01" nType="0">
          <Node pos="l" depth="2" NCoef="0" IVar="-1" Cut="0.0000000000000000e+00" cType="1" res="-5.0255837850272655e-03" rms="4.3894150853157043e-01" purity="2.6472404599189758e-01" nType="-99"/>
          <Node pos="r" depth="2" NCoef="0" IVar="-1" Cut="0.0000000000000000e+00" cType="1" res="-1.7276960425078869e-03" rms="4.6969017386436462e-01" purity="3.4847795963287354e-01" nType="-99"/>
        </Node>
        <Node pos="r" depth="1" NCoef="0" IVar="1" Cut="1.5346673727035522e+00" cType="1" res="1.5506520867347717e-02" rms="4.7603133320808411e-01" purity="5.5833065509796143e-01" nType="0">
          <Node pos="l" depth="2" NCoef="0" IVar="-1" Cut="0.0000000000000000e+00" cType="1" res="2.0712746772915125e-03" rms="4.7532349824905396e-01" purity="6.0438877344131470e-01" nType="-99"/>
          <Node pos="r" depth="2" NCoef="0" IVar="-1" Cut="0.0000000000000000e+00" cType="1" res="-1.9081408390775323e-03" rms="4.7448608279228210e-01" purity="4.3024870753288269e-01" nType="-99"/>
        </Node>
      </Node>
    </BinaryTree>
    <BinaryTree type="DecisionTree" boostWeight="1.0000000000000000e+00" itree="92">
      <Node pos="s" depth="0" NCoef="0" IVar="3" Cut="1.7569681406021118e+00" cType="1" res="-1.0048429248854518e-03" rms="4.6968224644660950e-01" purity="5.0517976284027100e-01" nType="0">
        <Node pos="l" depth="1" NCoef="0" IVar="0" Cut="4.1555657982826233e-02" cType="1" res="2.1623007953166962e-02" rms="4.7286948561668396e-01" purity="5.4603642225265503e-01" nType="0">
          <Node pos="l" depth="2" NCoef="0" IVar="-1" Cut="0.0000000000000000e+00" cType="1" res="-2.3540763650089502e-03" rms="4.7567003965377808e-01" purity="4.4432139396667480e-01" nType="-99"/>
          <Node pos="r" depth="2" NCoef="0" IVar="-1" Cut="0.0000000000000000e+00" cType="1" res="2.4759978987276554e-03" rms="4.7051757574081421e-01" purity="5.7523232698440552e-01" nType="-99"/>
        </Node>
        <Node pos="r" depth="1" NCoef="0" IVar="0" Cut="4.9050688743591309e-02" cType="1" res="-7.2606116533279419e-02" rms="4.5204922556877136e-01" purity="3.7589690089225769e-01" nType="0">
          <Node pos="l" depth="2" NCoef="0" IVar="-1" Cut="0.0000000000000000e+00" cType="1" res="-7.9339183866977692e-03" rms="4.1768804192543030e-01" purity="2.7624681591987610e-01" nType="-99"/>
          <Node pos="r" depth="2" NCoef="0" IVar="-1" Cut="0.0000000000000000e+00" cType="1" res="-2.3771054111421108e-03" rms="4.6245339512825012e-01" purity="4.1866534948348999e-01" nType="-99"/>
        </Node>
      </Node>
    </BinaryTree>
    <BinaryTree type="DecisionTree" boostWeight="1.0000000000000000e+00" itree="93">
      <Node pos="s" depth="0" NCoef="0" IVar="1" Cut="1.4689686298370361e+00" cType="1" res="-8.7025715038180351e-03" rms="4.6806183457374573e-01" purity="4.9432078003883362e-01" nType="0">
        <Node pos="l" depth="1" NCoef="0" IVar="5" Cut="5.6109796142578125e+02" cType="1" res="1.5188124030828476e-02" rms="4.7097399830818176e-01" purity="5.4807639122009277e-01" nType="0">
          <Node pos="l" depth="2" NCoef="0" IVar="-1" Cut="0.0000000000000000e+00" cType="1" res="-2.6752436533570290e-03" rms="4.7004082798957825e-01" purity="4.4328755140304565e-01" nType="-99"/>
          <Node pos="r" depth="2" NCoef="0" IVar="-1" Cut="0.0000000000000000e+00" cType="1" res="2.0852854941040277e-03" rms="4.6968862414360046e-01" purity="5.7981735467910767e-01" nType="-99"/>
        </Node>
        <Node pos="r" depth="1" NCoef="0" IVar="4" Cut="2.7346429415047169e-03" cType="1" res="-6.2402497977018356e-02" rms="4.5691204071044922e-01" purity="3.7349250912666321e-01" nType="0">
          <Node pos="l" depth="2" NCoef="0" IVar="-1" Cut="0.0000000000000000e+00" cType="1" res="-2.3417011834681034e-03" rms="4.6463409066200256e-01" purity="4.0873643755912781e-01" nType="-99"/>
          <Node pos="r" depth="2" NCoef="0" IVar="-1" Cut="0.0000000000000000e+00" cType="1" res="-7.8325839713215828e-03" rms="4.1238802671432495e-01" purity="2.3011936247348785e-01" nType="-99"/>
        </Node>
      </Node>
    </BinaryTree>
    <BinaryTree type="DecisionTree" boostWeight="1.0000000000000000e+00" itree="94">
      <Node pos="s" depth="0" NCoef="0" IVar="6" Cut="3.2685842514038086e+00" cType="1" res="-1.7845671623945236e-02" rms="4.6850419044494629e-01" purity="4.8362779617309570e-01" nType="0">
        <Node pos="l" depth="1" NCoef="0" IVar="6" Cut="2.3050329685211182e+00" cType="1" res="-5.6563939899206161e-02" rms="4.6206802129745483e-01" purity="3.3416518568992615e-01" nType="0">
          <Node pos="l" depth="2" NCoef="0" IVar="-1" Cut="0.0000000000000000e+00" cType="1" res="-5.1267254166305065e-03" rms="4.3350851535797119e-01" purity="2.6643320918083191e-01" nType="-99"/>
          <Node pos="r" depth="2" NCoef="0" IVar="-1" Cut="0.0000000000000000e+00" cType="1" res="-1.8355186330154538e-03" rms="4.8054590821266174e-01" purity="3.8379898667335510e-01" nType="-99"/>
        </Node>
        <Node pos="r" depth="1" NCoef="0" IVar="1" Cut="1.6523294448852539e+00" cType="1" res="9.9513763561844826e-03" rms="4.7111269831657410e-01" purity="5.9093171358108521e-01" nType="0">
          <Node pos="l" depth="2" NCoef="0" IVar="-1" Cut="0.0000000000000000e+00" cType="1" res="2.0825865212827921e-03" rms="4.6595340967178345e-01" purity="6.4130204916000366e-01" nType="-99"/>
          <Node pos="r" depth="2" NCoef="0" IVar="-1" Cut="0.0000000000000000e+00" cType="1" res="-3.6433918867260218e-03" rms="4.8030424118041992e-01" purity="4.1937205195426941e-01" nType="-99"/>
        </Node>
      </Node>
    </BinaryTree>
    <BinaryTree type="DecisionTree" boostWeight="1.0000000000000000e+00" itree="95">
      <Node pos="s" depth="0" NCoef="0" IVar="1" Cut="1.3538060188293457e+00" cType="1" res="-6.8065612576901913e-03" rms="4.7289332747459412e-01" purity="4.9806609749794006e-01" nType="0">
        <Node pos="l" depth="1" NCoef="0" IVar="6" Cut="2.2437446117401123e+00" cType="1" res="1.8931951373815536e-02" rms="4.7473087906837463e-01" purity="5.5619388818740845e-01" nType="0">
          <Node pos="l" depth="2" NCoef="0" IVar="-1" Cut="0.0000000000000000e+00" cType="1" res="-2.6801400817930698e-03" rms="4.6803677082061768e-01" purity="3.3430504798889160e-01" nType="-99"/>
          <Node pos="r" depth="2" NCoef="0" IVar="-1" Cut="0.0000000000000000e+00" cType="1" res="1.9812765531241894e-03" rms="4.7497102618217468e-01" purity="5.9926098585128784e-01" nType="-99"/>
        </Node>
        <Node pos="r" depth="1" NCoef="0" IVar="3" Cut="1.9154334068298340e+00" cType="1" res="-5.9440281242132187e-02" rms="4.6469584107398987e-01" purity="3.7919819355010986e-01" nType="0">
          <Node pos="l" depth="2" NCoef="0" IVar="-1" Cut="0.0000000000000000e+00" cType="1" res="-2.2812867537140846e-03" rms="4.7788685560226440e-01" purity="4.1683226823806763e-01" nType="-99"/>
          <Node pos="r" depth="2" NCoef="0" IVar="-1" Cut="0.0000000000000000e+00" cType="1" res="-7.2788875550031662e-03" rms="4.0712237358093262e-01" purity="2.4590775370597839e-01" nType="-99"/>
        </Node>
      </Node>
    </BinaryTree>
    <BinaryTree type="DecisionTree" boostWeight="1.0000000000000000e+00" itree="96">
      <Node pos="s" depth="0" NCoef="0" IVar="2" Cut="4.5333990454673767e-01" cType="1" res="-5.4784100502729416e-03" rms="4.6988752484321594e-01" purity="4.9896571040153503e-01" nType="0">
        <Node pos="l" depth="1" NCoef="0" IVar="1" Cut="1.2363679409027100e+00" cType="1" res="-7.8521981835365295e-02" rms="4.5829600095748901e-01" purity="3.6452215909957886e-01" nType="0">
          <Node pos="l" depth="2" NCoef="0" IVar="-1" Cut="0.0000000000000000e+00" cType="1" res="-1.8283157842233777e-03" rms="4.7787255048751831e-01" purity="4.5466157793998718e-01" nType="-99"/>
          <Node pos="r" depth="2" NCoef="0" IVar="-1" Cut="0.0000000000000000e+00" cType="1" res="-6.5545141696929932e-03" rms="4.3460381031036377e-01" purity="2.7996340394020081e-01" nType="-99"/>
        </Node>
        <Node pos="r" depth="1" NCoef="0" IVar="6" Cut="5.1488728523254395e+00" cType="1" res="8.8747162371873856e-03" rms="4.7080150246620178e-01" purity="5.2538394927978516e-01" nType="0">
          <Node pos="l" depth="2" NCoef="0" IVar="-1" Cut="0.0000000000000000e+00" cType="1" res="-3.8247543852776289e-04" rms="4.8019891977310181e-01" purity="4.8036193847656250e-01" nType="-99"/>
          <Node pos="r" depth="2" NCoef="0" IVar="-1" Cut="0.0000000000000000e+00" cType="1" res="7.2861043736338615e-03" rms="4.0311148762702942e-01" purity="7.7860689163208008e-01" nType="-99"/>
        </Node>
      </Node>
    </BinaryTree>
    <BinaryTree type="DecisionTree" boostWeight="1.0000000000000000e+00" itree="97">
      <Node pos="s" depth="0" NCoef="0" IVar="6" Cut="3.6091392040252686e+00" cType="1" res="-1.4152739895507693e-03" rms="4.6756497025489807e-01" purity="5.0110274553298950e-01" nType="0">
        <Node pos="l" depth="1" NCoef="0" IVar="5" Cut="6.2447271728515625e+02" cType="1" res="-3.3834252506494522e-02" rms="4.7119060158729553e-01" purity="3.6898568272590637e-01" nType="0">
          <Node pos="l" depth="2" NCoef="0" IVar="-1" Cut="0.0000000000000000e+00" cType="1" res="-4.2775096371769905e-03" rms="4.4857534766197205e-01" purity="3.0199733376502991e-01" nType="-99"/>
          <Node pos="r" depth="2" NCoef="0" IVar="-1" Cut="0.0000000000000000e+00" cType="1" res="-1.8271346925757825e-04" rms="4.8458677530288696e-01" purity="4.1742768883705139e-01" nType="-99"/>
        </Node>
        <Node pos="r" depth="1" NCoef="0" IVar="2" Cut="8.0300068855285645e-01" cType="1" res="3.1352210789918900e-02" rms="4.6156343817710876e-01" purity="6.3464015722274780e-01" nType="0">
          <Node pos="l" depth="2" NCoef="0" IVar="-1" Cut="0.0000000000000000e+00" cType="1" res="1.0024103103205562e-03" rms="4.7031950950622559e-01" purity="6.0957974195480347e-01" nType="-99"/>
          <Node pos="r" depth="2" NCoef="0" IVar="-1" Cut="0.0000000000000000e+00" cType="1" res="1.2964181602001190e-02" rms="3.4756994247436523e-01" purity="8.5631543397903442e-01" nType="-99"/>
        </Node>
      </Node>
    </BinaryTree>
    <BinaryTree type="DecisionTree" boostWeight="1.0000000000000000e+00" itree="98">
      <Node pos="s" depth="0" NCoef="0" IVar="0" Cut="1.1390934884548187e-01" cType="1" res="1.3173565967008471e-03" rms="4.7153145074844360e-01" purity="5.0729227066040039e-01" nType="0">
        <Node pos="l" depth="1" NCoef="0" IVar="1" Cut="6.5977203845977783e-01" cType="1" res="-2.3035202175378799e-02" rms="4.7427389025688171e-01" purity="4.6495696902275085e-01" nType="0">
          <Node pos="l" depth="2" NCoef="0" IVar="-1" Cut="0.0000000000000000e+00" cType="1" res="1.9537790212780237e-03" rms="4.7319367527961731e-01" purity="5.7522648572921753e-01" nType="-99"/>
          <Node pos="r" depth="2" NCoef="0" IVar="-1" Cut="0.0000000000000000e+00" cType="1" res="-2.4927884805947542e-03" rms="4.7307106852531433e-01" purity="4.2419373989105225e-01" nType="-99"/>
        </Node>
        <Node pos="r" depth="1" NCoef="0" IVar="3" Cut="1.8440104722976685e+00" cType="1" res="5.4047219455242157e-02" rms="4.6115189790725708e-01" purity="5.9895962476730347e-01" nType="0">
          <Node pos="l" depth="2" NCoef="0" IVar="-1" Cut="0.0000000000000000e+00" cType="1" res="4.5490781776607037e-03" rms="4.5468062162399292e-01" purity="6.2992560863494873e-01" nType="-99"/>
          <Node pos="r" depth="2" NCoef="0" IVar="-1" Cut="0.0000000000000000e+00" cType="1" res="-8.3351705688983202e-04" rms="4.8211571574211121e-01" purity="4.6545493602752686e-01" nType="-99"/>
        </Node>
      </Node>
    </BinaryTree>
    <BinaryTree type="DecisionTree" boostWeight="1.0000000000000000e+00" itree="99">
      <Node pos="s" depth="0" NCoef="0" IVar="2" Cut="7.1901106834411621e-01" cType="1" res="-8.2690138369798660e-03" rms="4.6866747736930847e-01" purity="4.9469211697578430e-01" nType="0">
        <Node pos="l" depth="1" NCoef="0" IVar="3" Cut="1.0305769443511963e+00" cType="1" res="-2.8289295732975006e-02" rms="4.7006338834762573e-01" purity="4.5031854510307312e-01" nType="0">
          <Node pos="l" depth="2" NCoef="0" IVar="-1" Cut="0.0000000000000000e+00" cType="1" res="7.7677081571891904e-04" rms="4.7335681319236755e-01" purity="5.1353275775909424e-01" nType="-99"/>
          <Node pos="r" depth="2" NCoef="0" IVar="-1" Cut="0.0000000000000000e+00" cType="1" res="-2.6253610849380493e-03" rms="4.6758636832237244e-01" purity="4.2379358410835266e-01" nType="-99"/>
        </Node>
        <Node pos="r" depth="1" NCoef="0" IVar="6" Cut="2.7939512729644775e+00" cType="1" res="5.3754493594169617e-02" rms="4.5880383253097534e-01" purity="6.3216292858123779e-01" nType="0">
          <Node pos="l" depth="2" NCoef="0" IVar="-1" Cut="0.0000000000000000e+00" cType="1" res="-7.6076603727415204e-04" rms="4.9252822995185852e-01" purity="4.2704957723617554e-01" nType="-99"/>
          <Node pos="r" depth="2" NCoef="0" IVar="-1" Cut="0.0000000000000000e+00" cType="1" res="5.4544308222830296e-03" rms="4.4250893592834473e-01" purity="7.1083790063858032e-01" nType="-99"/>
        </Node>
      </Node>
    </BinaryTree>
    <BinaryTree type="DecisionTree" boostWeight="1.0000000000000000e+00" itree="100">
      <Node pos="s" depth="0" NCoef="0" IVar="3" Cut="1.6408888101577759e+00" cType="1" res="2.9353555873967707e-04" rms="4.7058856487274170e-01" purity="5.0339347124099731e-01" nType="0">
        <Node pos="l" depth="1" NCoef="0" IVar="1" Cut="2.3073625564575195e+00" cType="1" res="2.1373821422457695e-02" rms="4.7001922130584717e-01" purity="5.4512304067611694e-01" nType="0">
          <Node pos="l" depth="2" NCoef="0" IVar="-1" Cut="0.0000000000000000e+00" cType="1" res="2.0068075973540545e-03" rms="4.6999907493591309e-01" purity="5.6685364246368408e-01" nType="-99"/>
          <Node pos="r" depth="2" NCoef="0" IVar="-1" Cut="0.0000000000000000e+00" cType="1" res="-4.6496186405420303e-03" rms="4.5667356252670288e-01" purity="3.3051806688308716e-01" nType="-99"/>
        </Node>
        <Node pos="r" depth="1" NCoef="0" IVar="0" Cut="1.1706625670194626e-01" cType="1" res="-5.1580119878053665e-02" rms="4.6796041727066040e-01" purity="4.0070688724517822e-01" nType="0">
          <Node pos="l" depth="2" NCoef="0" IVar="-1" Cut="0.0000000000000000e+00" cType="1" res="-4.0858737193048000e-03" rms="4.6353602409362793e-01" purity="3.6088985204696655e-01" nType="-99"/>
          <Node pos="r" depth="2" NCoef="0" IVar="-1" Cut="0.0000000000000000e+00" cType="1" res="-2.0752378623001277e-04" rms="4.7459116578102112e-01" purity="4.9303975701332092e-01" nType="-99"/>
        </Node>
      </Node>
    </BinaryTree>
    <BinaryTree type="DecisionTree" boostWeight="1.0000000000000000e+00" itree="101">
      <Node pos="s" depth="0" NCoef="0" IVar="5" Cut="5.6562628173828125e+02" cType="1" res="-1.1434796266257763e-02" rms="4.7003141045570374e-01" purity="4.9205151200294495e-01" nType="0">
        <Node pos="l" depth="1" NCoef="0" IVar="5" Cut="4.4180993652343750e+02" cType="1" res="-6.8066127598285675e-02" rms="4.6204829216003418e-01" purity="3.8469853997230530e-01" nType="0">
          <Node pos="l" depth="2" NCoef="0" IVar="-1" Cut="0.0000000000000000e+00" cType="1" res="-7.5927758589386940e-03" rms="4.2475420236587524e-01" purity="2.7570274472236633e-01" nType="-99"/>
          <Node pos="r" depth="2" NCoef="0" IVar="-1" Cut="0.0000000000000000e+00" cType="1" res="-2.6628004852682352e-03" rms="4.7058460116386414e-01" purity="4.1804906725883484e-01" nType="-99"/>
        </Node>
        <Node pos="r" depth="1" NCoef="0" IVar="4" Cut="8.0289966717828065e-05" cType="1" res="7.4483822099864483e-03" rms="4.7115248441696167e-01" purity="5.2784734964370728e-01" nType="0">
          <Node pos="l" depth="2" NCoef="0" IVar="-1" Cut="0.0000000000000000e+00" cType="1" res="8.4666348993778229e-03" rms="4.0684527158737183e-01" purity="7.5792151689529419e-01" nType="-99"/>
          <Node pos="r" depth="2" NCoef="0" IVar="-1" Cut="0.0000000000000000e+00" cType="1" res="-2.6271748356521130e-04" rms="4.7625014185905457e-01" purity="5.0239443778991699e-01" nType="-99"/>
        </Node>
      </Node>
    </BinaryTree>
    <BinaryTree type="DecisionTree" boostWeight="1.0000000000000000e+00" itree="102">
      <Node pos="s" depth="0" NCoef="0" IVar="4" Cut="5.6651339400559664e-04" cType="1" res="2.2323692683130503e-03" rms="4.6993476152420044e-01" purity="5.0605100393295288e-01" nType="0">
        <Node pos="l" depth="1" NCoef="0" IVar="3" Cut="1.8096903562545776e+00" cType="1" res="4.9594204872846603e-02" rms="4.5411014556884766e-01" purity="6.2598466873168945e-01" nType="0">
          <Node pos="l" depth="2" NCoef="0" IVar="-1" Cut="0.0000000000000000e+00" cType="1" res="4.6155229210853577e-03" rms="4.4957873225212097e-01" purity="6.6105186939239502e-01" nType="-99"/>
          <Node pos="r" depth="2" NCoef="0" IVar="-1" Cut="0.0000000000000000e+00" cType="1" res="-1.7415772890672088e-03" rms="4.6550506353378296e-01" purity="4.7168025374412537e-01" nType="-99"/>
        </Node>
        <Node pos="r" depth="1" NCoef="0" IVar="2" Cut="8.0548697710037231e-01" cType="1" res="-1.9862258806824684e-02" rms="4.7552669048309326e-01" purity="4.5010104775428772e-01" nType="0">
          <Node pos="l" depth="2" NCoef="0" IVar="-1" Cut="0.0000000000000000e+00" cType="1" res="-1.6953757731243968e-03" rms="4.7516670823097229e-01" purity="4.3121522665023804e-01" nType="-99"/>
          <Node pos="r" depth="2" NCoef="0" IVar="-1" Cut="0.0000000000000000e+00" cType="1" res="4.9448236823081970e-03" rms="4.6803471446037292e-01" purity="6.3383477926254272e-01" nType="-99"/>
        </Node>
      </Node>
    </BinaryTree>
    <BinaryTree type="DecisionTree" boostWeight="1.0000000000000000e+00" itree="103">
      <Node pos="s" depth="0" NCoef="0" IVar="2" Cut="6.1349982023239136e-01" cType="1" res="-7.6981005258858204e-03" rms="4.6585071086883545e-01" purity="4.9567538499832153e-01" nType="0">
        <Node pos="l" depth="1" NCoef="0" IVar="3" Cut="2.2111721038818359e+00" cType="1" res="-4.3427500873804092e-02" rms="4.6713951230049133e-01" purity="4.1172170639038086e-01" nType="0">
          <Node pos="l" depth="2" NCoef="0" IVar="-1" Cut="0.0000000000000000e+00" cType="1" res="-1.5876686666160822e-03" rms="4.7450050711631775e-01" purity="4.3963134288787842e-01" nType="-99"/>
          <Node pos="r" depth="2" NCoef="0" IVar="-1" Cut="0.0000000000000000e+00" cType="1" res="-9.0005500242114067e-03" rms="3.8453856110572815e-01" purity="1.9592081010341644e-01" nType="-99"/>
        </Node>
        <Node pos="r" depth="1" NCoef="0" IVar="6" Cut="2.6025626659393311e+00" cType="1" res="3.3208355307579041e-02" rms="4.6098297834396362e-01" purity="5.9179359674453735e-01" nType="0">
          <Node pos="l" depth="2" NCoef="0" IVar="-1" Cut="0.0000000000000000e+00" cType="1" res="-2.9576744418591261e-03" rms="4.6687313914299011e-01" purity="3.4683638811111450e-01" nType="-99"/>
          <Node pos="r" depth="2" NCoef="0" IVar="-1" Cut="0.0000000000000000e+00" cType="1" res="3.8151226472109556e-03" rms="4.5624858140945435e-01" purity="6.6323649883270264e-01" nType="-99"/>
        </Node>
      </Node>
    </BinaryTree>
    <BinaryTree type="DecisionTree" boostWeight="1.0000000000000000e+00" itree="104">
      <Node pos="s" depth="0" NCoef="0" IVar="5" Cut="4.9529183959960938e+02" cType="1" res="-8.6940347682684660e-04" rms="4.6859058737754822e-01" purity="5.0332581996917725e-01" nType="0">
        <Node pos="l" depth="1" NCoef="0" IVar="5" Cut="4.5432269287109375e+02" cType="1" res="-8.1481881439685822e-02" rms="4.5972836017608643e-01" purity="3.6454415321350098e-01" nType="0">
          <Node pos="l" depth="2" NCoef="0" IVar="-1" Cut="0.0000000000000000e+00" cType="1" res="-6.1328485608100891e-03" rms="4.3973734974861145e-01" purity="3.2676503062248230e-01" nType="-99"/>
          <Node pos="r" depth="2" NCoef="0" IVar="-1" Cut="0.0000000000000000e+00" cType="1" res="-2.6831445284187794e-03" rms="4.8178532719612122e-01" purity="4.1302663087844849e-01" nType="-99"/>
        </Node>
        <Node pos="r" depth="1" NCoef="0" IVar="0" Cut="1.4525772631168365e-01" cType="1" res="1.1797324754297733e-02" rms="4.6870920062065125e-01" purity="5.2513277530670166e-01" nType="0">
          <Node pos="l" depth="2" NCoef="0" IVar="-1" Cut="0.0000000000000000e+00" cType="1" res="-3.2227794872596860e-04" rms="4.7259923815727234e-01" purity="4.9393275380134583e-01" nType="-99"/>
          <Node pos="r" depth="2" NCoef="0" IVar="-1" Cut="0.0000000000000000e+00" cType="1" res="5.8430498465895653e-03" rms="4.4313633441925049e-01" purity="6.6344183683395386e-01" nType="-99"/>
        </Node>
      </Node>
    </BinaryTree>
    <BinaryTree type="DecisionTree" boostWeight="1.0000000000000000e+00" itree="105">
      <Node pos="s" depth="0" NCoef="0" IVar="3" Cut="1.7479584217071533e+00" cType="1" res="9.4474470242857933e-03" rms="4.6702966094017029e-01" purity="5.0867038965225220e-01" nType="0">
        <Node pos="l" depth="1" NCoef="0" IVar="6" Cut="3.3110241889953613e+00" cType="1" res="2.6851901784539223e-02" rms="4.6722981333732605e-01" purity="5.4502111673355103e-01" nType="0">
          <Node pos="l" depth="2" NCoef="0" IVar="-1" Cut="0.0000000000000000e+00" cType="1" res="-8.8668102398514748e-04" rms="4.7819507122039795e-01" purity="3.8726288080215454e-01" nType="-99"/>
          <Node pos="r" depth="2" NCoef="0" IVar="-1" Cut="0.0000000000000000e+00" cType="1" res="3.8111063186079264e-03" rms="4.5640337467193604e-01" purity="6.6200703382492065e-01" nType="-99"/>
        </Node>
        <Node pos="r" depth="1" NCoef="0" IVar="2" Cut="6.8156439065933228e-01" cType="1" res="-4.6611994504928589e-02" rms="4.6194815635681152e-01" purity="3.9158526062965393e-01" nType="0">
          <Node pos="l" depth="2" NCoef="0" IVar="-1" Cut="0.0000000000000000e+00" cType="1" res="-4.0640830993652344e-03" rms="4.5715060830116272e-01" purity="3.4161528944969177e-01" nType="-99"/>
          <Node pos="r" depth="2" NCoef="0" IVar="-1" Cut="0.0000000000000000e+00" cType="1" res="2.6835436001420021e-03" rms="4.6754220128059387e-01" purity="5.6987565755844116e-01" nType="-99"/>
        </Node>
      </Node>
    </BinaryTree>
    <BinaryTree type="DecisionTree" boostWeight="1.0000000000000000e+00" itree="106">
      <Node pos="s" depth="0" NCoef="0" IVar="3" Cut="1.6671216487884521e+00" cType="1" res="-6.1281556263566017e-03" rms="4.6863144636154175e-01" purity="4.9758988618850708e-01" nType="0">
        <Node pos="l" depth="1" NCoef="0" IVar="6" Cut="3.0390131473541260e+00" cType="1" res="1.2608179822564125e-02" rms="4.6926683187484741e-01" purity="5.3866416215896606e-01" nType="0">
          <Node pos="l" depth="2" NCoef="0" IVar="-1" Cut="0.0000000000000000e+00" cType="1" res="-1.5490227378904819e-03" rms="4.7387453913688660e-01" purity="3.6491763591766357e-01" nType="-99"/>
          <Node pos="r" depth="2" NCoef="0" IVar="-1" Cut="0.0000000000000000e+00" cType="1" res="2.0721009932458401e-03" rms="4.6561580896377563e-01" purity="6.2714898586273193e-01" nType="-99"/>
        </Node>
        <Node pos="r" depth="1" NCoef="0" IVar="4" Cut="3.2335691503249109e-04" cType="1" res="-5.4387606680393219e-02" rms="4.6351623535156250e-01" purity="3.9179423451423645e-01" nType="0">
          <Node pos="l" depth="2" NCoef="0" IVar="-1" Cut="0.0000000000000000e+00" cType="1" res="1.3097492046654224e-03" rms="4.8668691515922546e-01" purity="5.6840401887893677e-01" nType="-99"/>
          <Node pos="r" depth="2" NCoef="0" IVar="-1" Cut="0.0000000000000000e+00" cType="1" res="-4.3137590400874615e-03" rms="4.5433431863784790e-01" purity="3.4111499786376953e-01" nType="-99"/>
        </Node>
      </Node>
    </BinaryTree>
    <BinaryTree type="DecisionTree" boostWeight="1.0000000000000000e+00" itree="107">
      <Node pos="s" depth="0" NCoef="0" IVar="6" Cut="2.1646907329559326e+00" cType="1" res="-9.1787120327353477e-03" rms="4.7066891193389893e-01" purity="4.9569171667098999e-01" nType="0">
        <Node pos="l" depth="1" NCoef="0" IVar="5" Cut="6.7616711425781250e+02" cType="1" res="-7.4658311903476715e-02" rms="4.3762382864952087e-01" purity="2.7108582854270935e-01" nType="0">
          <Node pos="l" depth="2" NCoef="0" IVar="-1" Cut="0.0000000000000000e+00" cType="1" res="-6.6357185132801533e-03" rms="4.1113817691802979e-01" purity="2.1581999957561493e-01" nType="-99"/>
          <Node pos="r" depth="2" NCoef="0" IVar="-1" Cut="0.0000000000000000e+00" cType="1" res="-1.7414842732250690e-03" rms="4.6322053670883179e-01" purity="3.3724224567413330e-01" nType="-99"/>
        </Node>
        <Node pos="r" depth="1" NCoef="0" IVar="0" Cut="7.0241324603557587e-02" cType="1" res="1.7778839683160186e-03" rms="4.7509369254112244e-01" purity="5.3327471017837524e-01" nType="0">
          <Node pos="l" depth="2" NCoef="0" IVar="-1" Cut="0.0000000000000000e+00" cType="1" res="-1.6300008865073323e-03" rms="4.7815516591072083e-01" purity="4.7077211737632751e-01" nType="-99"/>
          <Node pos="r" depth="2" NCoef="0" IVar="-1" Cut="0.0000000000000000e+00" cType="1" res="1.6093597514554858e-03" rms="4.7125601768493652e-01" purity="5.8330243825912476e-01" nType="-99"/>
        </Node>
      </Node>
    </BinaryTree>
    <BinaryTree type="DecisionTree" boostWeight="1.0000000000000000e+00" itree="108">
      <Node pos="s" depth="0" NCoef="0" IVar="6" Cut="5.1057410240173340e+00" cType="1" res="-8.3775268867611885e-03" rms="4.6597430109977722e-01" purity="4.9587756395339966e-01" nType="0">
        <Node pos="l" depth="1" NCoef="0" IVar="2" Cut="7.9923427104949951e-01" cType="1" res="-2.3337552323937416e-02" rms="4.7263377904891968e-01" purity="4.4899272918701172e-01" nType="0">
          <Node pos="l" depth="2" NCoef="0" IVar="-1" Cut="0.0000000000000000e+00" cType="1" res="-2.0921099931001663e-03" rms="4.7322958707809448e-01" purity="4.2373901605606079e-01" nType="-99"/>
          <Node pos="r" depth="2" NCoef="0" IVar="-1" Cut="0.0000000000000000e+00" cType="1" res="5.3978753276169300e-03" rms="4.5415362715721130e-01" purity="6.5707641839981079e-01" nType="-99"/>
        </Node>
        <Node pos="r" depth="1" NCoef="0" IVar="5" Cut="7.1531958007812500e+02" cType="1" res="7.3623552918434143e-02" rms="4.1823345422744751e-01" purity="7.5286924839019775e-01" nType="0">
          <Node pos="l" depth="2" NCoef="0" IVar="-1" Cut="0.0000000000000000e+00" cType="1" res="2.4014078080654144e-03" rms="4.3910419940948486e-01" purity="7.0337933301925659e-01" nType="-99"/>
          <Node pos="r" depth="2" NCoef="0" IVar="-1" Cut="0.0000000000000000e+00" cType="1" res="7.9911397770047188e-03" rms="3.9770925045013428e-01" purity="7.9279750585556030e-01" nType="-99"/>
        </Node>
      </Node>
    </BinaryTree>
    <BinaryTree type="DecisionTree" boostWeight="1.0000000000000000e+00" itree="109">
      <Node pos="s" depth="0" NCoef="0" IVar="0" Cut="4.9737416207790375e-02" cType="1" res="-4.9337614327669144e-03" rms="4.7208684682846069e-01" purity="4.9743810296058655e-01" nType="0">
        <Node pos="l" depth="1" NCoef="0" IVar="5" Cut="1.1115838623046875e+03" cType="1" res="-4.7879420220851898e-02" rms="4.6537107229232788e-01" purity="4.1192331910133362e-01" nType="0">
          <Node pos="l" depth="2" NCoef="0" IVar="-1" Cut="0.0000000000000000e+00" cType="1" res="-4.0620076470077038e-03" rms="4.5989367365837097e-01" purity="3.7830656766891479e-01" nType="-99"/>
          <Node pos="r" depth="2" NCoef="0" IVar="-1" Cut="0.0000000000000000e+00" cType="1" res="3.6824522539973259e-03" rms="4.7399133443832397e-01" purity="5.6093567609786987e-01" nType="-99"/>
        </Node>
        <Node pos="r" depth="1" NCoef="0" IVar="3" Cut="1.9241217374801636e+00" cType="1" res="1.2441140599548817e-02" rms="4.7367188334465027e-01" purity="5.3203558921813965e-01" nType="0">
          <Node pos="l" depth="2" NCoef="0" IVar="-1" Cut="0.0000000000000000e+00" cType="1" res="1.3973442837595940e-03" rms="4.7518956661224365e-01" purity="5.5625414848327637e-01" nType="-99"/>
          <Node pos="r" depth="2" NCoef="0" IVar="-1" Cut="0.0000000000000000e+00" cType="1" res="-2.6040789671242237e-03" rms="4.6062785387039185e-01" purity="3.9221400022506714e-01" nType="-99"/>
        </Node>
      </Node>
    </BinaryTree>
    <BinaryTree type="DecisionTree" boostWeight="1.0000000000000000e+00" itree="110">
      <Node pos="s" depth="0" NCoef="0" IVar="0" Cut="6.9544017314910889e-02" cType="1" res="-2.8174812905490398e-03" rms="4.6825832128524780e-01" purity="5.0274795293807983e-01" nType="0">
        <Node pos="l" depth="1" NCoef="0" IVar="3" Cut="1.5226438045501709e+00" cType="1" res="-3.8108855485916138e-02" rms="4.6625179052352905e-01" purity="4.3200895190238953e-01" nType="0">
          <Node pos="l" depth="2" NCoef="0" IVar="-1" Cut="0.0000000000000000e+00" cType="1" res="-5.9934402815997601e-04" rms="4.7234278917312622e-01" purity="4.8603180050849915e-01" nType="-99"/>
          <Node pos="r" depth="2" NCoef="0" IVar="-1" Cut="0.0000000000000000e+00" cType="1" res="-4.9396888352930546e-03" rms="4.5084321498870850e-01" purity="3.3518657088279724e-01" nType="-99"/>
        </Node>
        <Node pos="r" depth="1" NCoef="0" IVar="2" Cut="8.2766503095626831e-01" cType="1" res="2.5011079385876656e-02" rms="4.6796143054962158e-01" purity="5.5852830410003662e-01" nType="0">
          <Node pos="l" depth="2" NCoef="0" IVar="-1" Cut="0.0000000000000000e+00" cType="1" res="9.4867812003940344e-04" rms="4.7210606932640076e-01" purity="5.3910410404205322e-01" nType="-99"/>
          <Node pos="r" depth="2" NCoef="0" IVar="-1" Cut="0.0000000000000000e+00" cType="1" res="7.9445960000157356e-03" rms="4.1984659433364868e-01" purity="7.3178482055664062e-01" nType="-99"/>
        </Node>
      </Node>
    </BinaryTree>
    <BinaryTree type="DecisionTree" boostWeight="1.0000000000000000e+00" itree="111">
      <Node pos="s" depth="0" NCoef="0" IVar="0" Cut="1.8723267316818237e-01" cType="1" res="-1.0224988684058189e-02" rms="4.6852910518646240e-01" purity="4.9071937799453735e-01" nType="0">
        <Node pos="l" depth="1" NCoef="0" IVar="1" Cut="2.3612160682678223e+00" cType="1" res="-2.4415412917733192e-02" rms="4.6956145763397217e-01" purity="4.6862629055976868e-01" nType="0">
          <Node pos="l" depth="2" NCoef="0" IVar="-1" Cut="0.0000000000000000e+00" cType="1" res="-7.1993505116552114e-04" rms="4.7379091382026672e-01" purity="4.9454513192176819e-01" nType="-99"/>
          <Node pos="r" depth="2" NCoef="0" IVar="-1" Cut="0.0000000000000000e+00" cType="1" res="-6.7356377840042114e-03" rms="4.2204150557518005e-01" purity="2.6348730921745300e-01" nType="-99"/>
        </Node>
        <Node pos="r" depth="1" NCoef="0" IVar="3" Cut="1.3396054506301880e+00" cType="1" res="1.1569882929325104e-01" rms="4.3963837623596191e-01" purity="6.8677061796188354e-01" nType="0">
          <Node pos="l" depth="2" NCoef="0" IVar="-1" Cut="0.0000000000000000e+00" cType="1" res="6.6636567935347557e-03" rms="4.4078889489173889e-01" purity="6.8339931964874268e-01" nType="-99"/>
          <Node pos="r" depth="2" NCoef="0" IVar="-1" Cut="0.0000000000000000e+00" cType="1" res="9.2503260821104050e-03" rms="4.3759864568710327e-01" purity="6.9016164541244507e-01" nType="-99"/>
        </Node>
      </Node>
    </BinaryTree>
    <BinaryTree type="DecisionTree" boostWeight="1.0000000000000000e+00" itree="112">
      <Node pos="s" depth="0" NCoef="0" IVar="3" Cut="2.1251561641693115e+00" cType="1" res="5.8629652485251427e-03" rms="4.6814054250717163e-01" purity="5.0952112674713135e-01" nType="0">
        <Node pos="l" depth="1" NCoef="0" IVar="1" Cut="1.8816813826560974e-01" cType="1" res="1.7352953553199768e-02" rms="4.7087785601615906e-01" purity="5.3327846527099609e-01" nType="0">
          <Node pos="l" depth="2" NCoef="0" IVar="-1" Cut="0.0000000000000000e+00" cType="1" res="9.6486434340476990e-03" rms="4.2874723672866821e-01" purity="7.1413451433181763e-01" nType="-99"/>
          <Node pos="r" depth="2" NCoef="0" IVar="-1" Cut="0.0000000000000000e+00" cType="1" res="6.0134392697364092e-04" rms="4.7225722670555115e-01" purity="5.2236175537109375e-01" nType="-99"/>
        </Node>
        <Node pos="r" depth="1" NCoef="0" IVar="-1" Cut="0.0000000000000000e+00" cType="1" res="-5.9434943832457066e-03" rms="4.2498674988746643e-01" purity="2.7949559688568115e-01" nType="-99"/>
      </Node>
    </BinaryTree>
    <BinaryTree type="DecisionTree" boostWeight="1.0000000000000000e+00" itree="113">
      <Node pos="s" depth="0" NCoef="0" IVar="0" Cut="9.6989691257476807e-02" cType="1" res="-2.0654341205954552e-03" rms="4.7230160236358643e-01" purity="5.0381827354431152e-01" nType="0">
        <Node pos="l" depth="1" NCoef="0" IVar="6" Cut="2.0187368392944336e+00" cType="1" res="-2.1768335253000259e-02" rms="4.7280648350715637e-01" purity="4.5949375629425049e-01" nType="0">
          <Node pos="l" depth="2" NCoef="0" IVar="-1" Cut="0.0000000000000000e+00" cType="1" res="-6.5100309439003468e-03" rms="4.1323900222778320e-01" purity="2.2265215218067169e-01" nType="-99"/>
          <Node pos="r" depth="2" NCoef="0" IVar="-1" Cut="0.0000000000000000e+00" cType="1" res="-6.4253649907186627e-04" rms="4.7833251953125000e-01" purity="4.8806214332580566e-01" nType="-99"/>
        </Node>
        <Node pos="r" depth="1" NCoef="0" IVar="4" Cut="2.1822631824761629e-03" cType="1" res="2.8497854247689247e-02" rms="4.6988543868064880e-01" purity="5.7257479429244995e-01" nType="0">
          <Node pos="l" depth="2" NCoef="0" IVar="-1" Cut="0.0000000000000000e+00" cType="1" res="3.0221347697079182e-03" rms="4.6310681104660034e-01" purity="6.1581748723983765e-01" nType="-99"/>
          <Node pos="r" depth="2" NCoef="0" IVar="-1" Cut="0.0000000000000000e+00" cType="1" res="-9.7911746706813574e-04" rms="4.8454719781875610e-01" purity="4.5721316337585449e-01" nType="-99"/>
        </Node>
      </Node>
    </BinaryTree>
    <BinaryTree type="DecisionTree" boostWeight="1.0000000000000000e+00" itree="114">
      <Node pos="s" depth="0" NCoef="0" IVar="0" Cut="4.4765170663595200e-02" cType="1" res="2.3847813718020916e-03" rms="4.7128155827522278e-01" purity="5.0616043806076050e-01" nType="0">
        <Node pos="l" depth="1" NCoef="0" IVar="3" Cut="1.4376643896102905e+00" cType="1" res="-4.3815888464450836e-02" rms="4.6485254168510437e-01" purity="4.1791766881942749e-01" nType="0">
          <Node pos="l" depth="2" NCoef="0" IVar="-1" Cut="0.0000000000000000e+00" cType="1" res="-8.6622795788571239e-04" rms="4.7627991437911987e-01" purity="4.7252464294433594e-01" nType="-99"/>
          <Node pos="r" depth="2" NCoef="0" IVar="-1" Cut="0.0000000000000000e+00" cType="1" res="-5.0526750274002552e-03" rms="4.4307422637939453e-01" purity="3.3416000008583069e-01" nType="-99"/>
        </Node>
        <Node pos="r" depth="1" NCoef="0" IVar="4" Cut="6.4150185789912939e-04" cType="1" res="1.8358327448368073e-02" rms="4.7243410348892212e-01" purity="5.3666973114013672e-01" nType="0">
          <Node pos="l" depth="2" NCoef="0" IVar="-1" Cut="0.0000000000000000e+00" cType="1" res="3.8846966344863176e-03" rms="4.5932316780090332e-01" purity="6.5099710226058960e-01" nType="-99"/>
          <Node pos="r" depth="2" NCoef="0" IVar="-1" Cut="0.0000000000000000e+00" cType="1" res="-1.0157249198528007e-04" rms="4.7789111733436584e-01" purity="4.7712394595146179e-01" nType="-99"/>
        </Node>
      </Node>
    </BinaryTree>
    <BinaryTree type="DecisionTree" boostWeight="1.0000000000000000e+00" itree="115">
      <Node pos="s" depth="0" NCoef="0" IVar="2" Cut="7.7084416151046753e-01" cType="1" res="-4.8984107561409473e-03" rms="4.6830120682716370e-01" purity="5.0093126296997070e-01" nType="0">
        <Node pos="l" depth="1" NCoef="0" IVar="4" Cut="1.6164891421794891e-03" cType="1" res="-1.8018940463662148e-02" rms="4.6986967325210571e-01" purity="4.6994811296463013e-01" nType="0">
          <Node pos="l" depth="2" NCoef="0" IVar="-1" Cut="0.0000000000000000e+00" cType="1" res="1.1362363875377923e-04" rms="4.6993845701217651e-01" purity="5.2868235111236572e-01" nType="-99"/>
          <Node pos="r" depth="2" NCoef="0" IVar="-1" Cut="0.0000000000000000e+00" cType="1" res="-2.7310580480843782e-03" rms="4.6811816096305847e-01" purity="3.7948983907699585e-01" nType="-99"/>
        </Node>
        <Node pos="r" depth="1" NCoef="0" IVar="0" Cut="1.4884454011917114e-01" cType="1" res="7.0450909435749054e-02" rms="4.5187321305274963e-01" purity="6.7886298894882202e-01" nType="0">
          <Node pos="l" depth="2" NCoef="0" IVar="-1" Cut="0.0000000000000000e+00" cType="1" res="2.5409250520169735e-03" rms="4.6312186121940613e-01" purity="6.3904726505279541e-01" nType="-99"/>
          <Node pos="r" depth="2" NCoef="0" IVar="-1" Cut="0.0000000000000000e+00" cType="1" res="9.2296628281474113e-03" rms="4.2668423056602478e-01" purity="7.4645352363586426e-01" nType="-99"/>
        </Node>
      </Node>
    </BinaryTree>
    <BinaryTree type="DecisionTree" boostWeight="1.0000000000000000e+00" itree="116">
      <Node pos="s" depth="0" NCoef="0" IVar="5" Cut="5.3683233642578125e+02" cType="1" res="-8.1310654059052467e-03" rms="4.6823015809059143e-01" purity="4.9588513374328613e-01" nType="0">
        <Node pos="l" depth="1" NCoef="0" IVar="5" Cut="4.8011053466796875e+02" cType="1" res="-6.7181400954723358e-02" rms="4.6434321999549866e-01" purity="3.8416087627410889e-01" nType="0">
          <Node pos="l" depth="2" NCoef="0" IVar="-1" Cut="0.0000000000000000e+00" cType="1" res="-5.5025778710842133e-03" rms="4.5099273324012756e-01" purity="3.3741354942321777e-01" nType="-99"/>
          <Node pos="r" depth="2" NCoef="0" IVar="-1" Cut="0.0000000000000000e+00" cType="1" res="-1.9453527638688684e-03" rms="4.7652769088745117e-01" purity="4.3649700284004211e-01" nType="-99"/>
        </Node>
        <Node pos="r" depth="1" NCoef="0" IVar="3" Cut="1.8082470893859863e+00" cType="1" res="7.1890046820044518e-03" rms="4.6801766753196716e-01" purity="5.2487099170684814e-01" nType="0">
          <Node pos="l" depth="2" NCoef="0" IVar="-1" Cut="0.0000000000000000e+00" cType="1" res="1.3469213154166937e-03" rms="4.6744996309280396e-01" purity="5.5803525447845459e-01" nType="-99"/>
          <Node pos="r" depth="2" NCoef="0" IVar="-1" Cut="0.0000000000000000e+00" cType="1" res="-2.9362377244979143e-03" rms="4.6575042605400085e-01" purity="3.8916146755218506e-01" nType="-99"/>
        </Node>
      </Node>
    </BinaryTree>
    <BinaryTree type="DecisionTree" boostWeight="1.0000000000000000e+00" itree="117">
      <Node pos="s" depth="0" NCoef="0" IVar="3" Cut="2.2469930648803711e+00" cType="1" res="-4.4763977639377117e-03" rms="4.6966475248336792e-01" purity="4.9995818734169006e-01" nType="0">
        <Node pos="l" depth="1" NCoef="0" IVar="5" Cut="4.7948538208007812e+02" cType="1" res="2.6535694487392902e-03" rms="4.7202241420745850e-01" purity="5.1708042621612549e-01" nType="0">
          <Node pos="l" depth="2" NCoef="0" IVar="-1" Cut="0.0000000000000000e+00" cType="1" res="-4.3365443125367165e-03" rms="4.4867658615112305e-01" purity="3.4717723727226257e-01" nType="-99"/>
          <Node pos="r" depth="2" NCoef="0" IVar="-1" Cut="0.0000000000000000e+00" cType="1" res="7.5187097536399961e-04" rms="4.7389036417007446e-01" purity="5.3767895698547363e-01" nType="-99"/>
        </Node>
        <Node pos="r" depth="1" NCoef="0" IVar="-1" Cut="0.0000000000000000e+00" cType="1" res="-5.7802665978670120e-03" rms="4.2433741688728333e-01" purity="2.6599821448326111e-01" nType="-99"/>
      </Node>
    </BinaryTree>
    <BinaryTree type="DecisionTree" boostWeight="1.0000000000000000e+00" itree="118">
      <Node pos="s" depth="0" NCoef="0" IVar="5" Cut="4.8448059082031250e+02" cType="1" res="-4.9343919381499290e-03" rms="4.6795970201492310e-01" purity="4.9575734138488770e-01" nType="0">
        <Node pos="l" depth="1" NCoef="0" IVar="6" Cut="3.2999911308288574e+00" cType="1" res="-8.6485758423805237e-02" rms="4.4481649994850159e-01" purity="3.3875256776809692e-01" nType="0">
          <Node pos="l" depth="2" NCoef="0" IVar="-1" Cut="0.0000000000000000e+00" cType="1" res="-5.8101690374314785e-03" rms="4.1184875369071960e-01" purity="2.3280870914459229e-01" nType="-99"/>
          <Node pos="r" depth="2" NCoef="0" IVar="-1" Cut="0.0000000000000000e+00" cType="1" res="-3.8010978605598211e-03" rms="4.8236379027366638e-01" purity="4.7233721613883972e-01" nType="-99"/>
        </Node>
        <Node pos="r" depth="1" NCoef="0" IVar="0" Cut="4.2754460126161575e-02" cType="1" res="5.9584607370197773e-03" rms="4.6989458799362183e-01" purity="5.1672852039337158e-01" nType="0">
          <Node pos="l" depth="2" NCoef="0" IVar="-1" Cut="0.0000000000000000e+00" cType="1" res="-3.0925034079700708e-03" rms="4.7712782025337219e-01" purity="4.1452193260192871e-01" nType="-99"/>
          <Node pos="r" depth="2" NCoef="0" IVar="-1" Cut="0.0000000000000000e+00" cType="1" res="1.6722728032618761e-03" rms="4.6554011106491089e-01" purity="5.5232399702072144e-01" nType="-99"/>
        </Node>
      </Node>
    </BinaryTree>
    <BinaryTree type="DecisionTree" boostWeight="1.0000000000000000e+00" itree="119">
      <Node pos="s" depth="0" NCoef="0" IVar="0" Cut="6.8608842790126801e-02" cType="1" res="-1.4891548082232475e-02" rms="4.6870172023773193e-01" purity="4.8756444454193115e-01" nType="0">
        <Node pos="l" depth="1" NCoef="0" IVar="4" Cut="8.5764343384653330e-04" cType="1" res="-4.7837484627962112e-02" rms="4.6824097633361816e-01" purity="4.1746550798416138e-01" nType="0">
          <Node pos="l" depth="2" NCoef="0" IVar="-1" Cut="0.0000000000000000e+00" cType="1" res="-9.8370620980858803e-04" rms="4.6757066249847412e-01" purity="5.0419551134109497e-01" nType="-99"/>
          <Node pos="r" depth="2" NCoef="0" IVar="-1" Cut="0.0000000000000000e+00" cType="1" res="-3.9343913085758686e-03" rms="4.6744728088378906e-01" purity="3.5706359148025513e-01" nType="-99"/>
        </Node>
        <Node pos="r" depth="1" NCoef="0" IVar="5" Cut="4.6103024291992188e+02" cType="1" res="9.9750719964504242e-03" rms="4.6751421689987183e-01" purity="5.4047298431396484e-01" nType="0">
          <Node pos="l" depth="2" NCoef="0" IVar="-1" Cut="0.0000000000000000e+00" cType="1" res="-5.1334970630705357e-03" rms="4.5669341087341309e-01" purity="3.5079264640808105e-01" nType="-99"/>
          <Node pos="r" depth="2" NCoef="0" IVar="-1" Cut="0.0000000000000000e+00" cType="1" res="1.3458696193993092e-03" rms="4.6741339564323425e-01" purity="5.6294935941696167e-01" nType="-99"/>
        </Node>
      </Node>
    </BinaryTree>
    <BinaryTree type="DecisionTree" boostWeight="1.0000000000000000e+00" itree="120">
      <Node pos="s" depth="0" NCoef="0" IVar="6" Cut="1.9879882335662842e+00" cType="1" res="-5.2694155601784587e-04" rms="4.7216176986694336e-01" purity="5.0329869985580444e-01" nType="0">
        <Node pos="l" depth="1" NCoef="0" IVar="5" Cut="6.4839910888671875e+02" cType="1" res="-7.5953736901283264e-02" rms="4.3302026391029358e-01" purity="2.6665791869163513e-01" nType="0">
          <Node pos="l" depth="2" NCoef="0" IVar="-1" Cut="0.0000000000000000e+00" cType="1" res="-7.2821322828531265e-03" rms="3.8859239220619202e-01" purity="1.9757901132106781e-01" nType="-99"/>
          <Node pos="r" depth="2" NCoef="0" IVar="-1" Cut="0.0000000000000000e+00" cType="1" res="-1.5697907656431198e-03" rms="4.7031992673873901e-01" purity="3.3958631753921509e-01" nType="-99"/>
        </Node>
        <Node pos="r" depth="1" NCoef="0" IVar="4" Cut="2.4496624246239662e-04" cType="1" res="9.0675596147775650e-03" rms="4.7605443000793457e-01" purity="5.3340005874633789e-01" nType="0">
          <Node pos="l" depth="2" NCoef="0" IVar="-1" Cut="0.0000000000000000e+00" cType="1" res="3.3573317341506481e-03" rms="4.5189106464385986e-01" purity="6.6544359922409058e-01" nType="-99"/>
          <Node pos="r" depth="2" NCoef="0" IVar="-1" Cut="0.0000000000000000e+00" cType="1" res="-1.0085724352393299e-04" rms="4.8205456137657166e-01" purity="4.9641817808151245e-01" nType="-99"/>
        </Node>
      </Node>
    </BinaryTree>
    <BinaryTree type="DecisionTree" boostWeight="1.0000000000000000e+00" itree="121">
      <Node pos="s" depth="0" NCoef="0" IVar="1" Cut="2.4026122093200684e+00" cType="1" res="1.7264788039028645e-04" rms="4.6983361244201660e-01" purity="4.9982434511184692e-01" nType="0">
        <Node pos="l" depth="1" NCoef="0" IVar="4" Cut="2.0642667077481747e-03" cType="1" res="9.5051322132349014e-03" rms="4.7271504998207092e-01" purity="5.2125847339630127e-01" nType="0">
          <Node pos="l" depth="2" NCoef="0" IVar="-1" Cut="0.0000000000000000e+00" cType="1" res="1.6245506703853607e-03" rms="4.7014665603637695e-01" purity="5.6602048873901367e-01" nType="-99"/>
          <Node pos="r" depth="2" NCoef="0" IVar="-1" Cut="0.0000000000000000e+00" cType="1" res="-1.4662428293377161e-03" rms="4.7641795873641968e-01" purity="4.2238768935203552e-01" nType="-99"/>
        </Node>
        <Node pos="r" depth="1" NCoef="0" IVar="-1" Cut="0.0000000000000000e+00" cType="1" res="-4.9772630445659161e-03" rms="4.3200224637985229e-01" purity="2.9798641800880432e-01" nType="-99"/>
      </Node>
    </BinaryTree>
    <BinaryTree type="DecisionTree" boostWeight="1.0000000000000000e+00" itree="122">
      <Node pos="s" depth="0" NCoef="0" IVar="0" Cut="1.0533304512500763e-01" cType="1" res="-6.9495695643126965e-03" rms="4.6306842565536499e-01" purity="4.9594697356224060e-01" nType="0">
        <Node pos="l" depth="1" NCoef="0" IVar="3" Cut="2.0289523601531982e+00" cType="1" res="-3.6083281040191650e-02" rms="4.6235740184783936e-01" purity="4.4355836510658264e-01" nType="0">
          <Node pos="l" depth="2" NCoef="0" IVar="-1" Cut="0.0000000000000000e+00" cType="1" res="-1.3468459947034717e-03" rms="4.6896925568580627e-01" purity="4.7320720553398132e-01" nType="-99"/>
          <Node pos="r" depth="2" NCoef="0" IVar="-1" Cut="0.0000000000000000e+00" cType="1" res="-6.9342451170086861e-03" rms="4.0620484948158264e-01" purity="2.5069639086723328e-01" nType="-99"/>
        </Node>
        <Node pos="r" depth="1" NCoef="0" IVar="6" Cut="2.4613440036773682e+00" cType="1" res="4.6826407313346863e-02" rms="4.5955237746238708e-01" purity="5.9264761209487915e-01" nType="0">
          <Node pos="l" depth="2" NCoef="0" IVar="-1" Cut="0.0000000000000000e+00" cType="1" res="-9.8784000147134066e-04" rms="4.6800172328948975e-01" purity="3.5409331321716309e-01" nType="-99"/>
          <Node pos="r" depth="2" NCoef="0" IVar="-1" Cut="0.0000000000000000e+00" cType="1" res="4.1835629381239414e-03" rms="4.5584997534751892e-01" purity="6.5501046180725098e-01" nType="-99"/>
        </Node>
      </Node>
    </BinaryTree>
    <BinaryTree type="DecisionTree" boostWeight="1.0000000000000000e+00" itree="123">
      <Node pos="s" depth="0" NCoef="0" IVar="5" Cut="1.1730053710937500e+03" cType="1" res="-3.0243068467825651e-03" rms="4.7014620900154114e-01" purity="5.0109428167343140e-01" nType="0">
        <Node pos="l" depth="1" NCoef="0" IVar="6" Cut="5.2649507522583008e+00" cType="1" res="-1.2916882522404194e-02" rms="4.7009733319282532e-01" purity="4.8789766430854797e-01" nType="0">
          <Node pos="l" depth="2" NCoef="0" IVar="-1" Cut="0.0000000000000000e+00" cType="1" res="-1.3733863597735763e-03" rms="4.7545343637466431e-01" purity="4.4864910840988159e-01" nType="-99"/>
          <Node pos="r" depth="2" NCoef="0" IVar="-1" Cut="0.0000000000000000e+00" cType="1" res="4.0193046443164349e-03" rms="4.2815849184989929e-01" purity="7.4032878875732422e-01" nType="-99"/>
        </Node>
        <Node pos="r" depth="1" NCoef="0" IVar="-1" Cut="0.0000000000000000e+00" cType="1" res="6.5288697369396687e-03" rms="4.5807108283042908e-01" purity="6.3886708021163940e-01" nType="-99"/>
      </Node>
    </BinaryTree>
    <BinaryTree type="DecisionTree" boostWeight="1.0000000000000000e+00" itree="124">
      <Node pos="s" depth="0" NCoef="0" IVar="3" Cut="1.4905865192413330e+00" cType="1" res="-1.1477195657789707e-02" rms="4.6937283873558044e-01" purity="4.9375283718109131e-01" nType="0">
        <Node pos="l" depth="1" NCoef="0" IVar="5" Cut="5.6609979248046875e+02" cType="1" res="9.8684346303343773e-03" rms="4.6903216838836670e-01" purity="5.4174041748046875e-01" nType="0">
          <Node pos="l" depth="2" NCoef="0" IVar="-1" Cut="0.0000000000000000e+00" cType="1" res="-2.6073718909174204e-03" rms="4.6491670608520508e-01" purity="4.4156765937805176e-01" nType="-99"/>
          <Node pos="r" depth="2" NCoef="0" IVar="-1" Cut="0.0000000000000000e+00" cType="1" res="1.7132402863353491e-03" rms="4.6904945373535156e-01" purity="5.7429468631744385e-01" nType="-99"/>
        </Node>
        <Node pos="r" depth="1" NCoef="0" IVar="3" Cut="2.2568280696868896e+00" cType="1" res="-4.5179091393947601e-02" rms="4.6793201565742493e-01" purity="4.1798681020736694e-01" nType="0">
          <Node pos="l" depth="2" NCoef="0" IVar="-1" Cut="0.0000000000000000e+00" cType="1" res="-2.0231418311595917e-03" rms="4.7571340203285217e-01" purity="4.4742119312286377e-01" nType="-99"/>
          <Node pos="r" depth="2" NCoef="0" IVar="-1" Cut="0.0000000000000000e+00" cType="1" res="-6.0343774966895580e-03" rms="4.1661325097084045e-01" purity="2.5402262806892395e-01" nType="-99"/>
        </Node>
      </Node>
    </BinaryTree>
    <BinaryTree type="DecisionTree" boostWeight="1.0000000000000000e+00" itree="125">
      <Node pos="s" depth="0" NCoef="0" IVar="3" Cut="2.2215380668640137e+00" cType="1" res="-1.1527877300977707e-02" rms="4.6879181265830994e-01" purity="4.8947182297706604e-01" nType="0">
        <Node pos="l" depth="1" NCoef="0" IVar="4" Cut="1.6150056035257876e-04" cType="1" res="-4.0356223471462727e-03" rms="4.7207006812095642e-01" purity="5.0770801305770874e-01" nType="0">
          <Node pos="l" depth="2" NCoef="0" IVar="-1" Cut="0.0000000000000000e+00" cType="1" res="3.5298066213726997e-03" rms="4.5236235857009888e-01" purity="6.7589247226715088e-01" nType="-99"/>
          <Node pos="r" depth="2" NCoef="0" IVar="-1" Cut="0.0000000000000000e+00" cType="1" res="-8.4310490638017654e-04" rms="4.7504049539566040e-01" purity="4.7575080394744873e-01" nType="-99"/>
        </Node>
        <Node pos="r" depth="1" NCoef="0" IVar="-1" Cut="0.0000000000000000e+00" cType="1" res="-6.2204808928072453e-03" rms="4.1144388914108276e-01" purity="2.5174239277839661e-01" nType="-99"/>
      </Node>
    </BinaryTree>
    <BinaryTree type="DecisionTree" boostWeight="1.0000000000000000e+00" itree="126">
      <Node pos="s" depth="0" NCoef="0" IVar="5" Cut="7.8849438476562500e+02" cType="1" res="-4.7628809697926044e-03" rms="4.6957138180732727e-01" purity="4.9509650468826294e-01" nType="0">
        <Node pos="l" depth="1" NCoef="0" IVar="6" Cut="5.0150074958801270e+00" cType="1" res="-2.3641951382160187e-02" rms="4.6860748529434204e-01" purity="4.5861208438873291e-01" nType="0">
          <Node pos="l" depth="2" NCoef="0" IVar="-1" Cut="0.0000000000000000e+00" cType="1" res="-2.1759166847914457e-03" rms="4.7283646464347839e-01" purity="4.1440361738204956e-01" nType="-99"/>
          <Node pos="r" depth="2" NCoef="0" IVar="-1" Cut="0.0000000000000000e+00" cType="1" res="4.6822410076856613e-03" rms="4.3123990297317505e-01" purity="7.3362773656845093e-01" nType="-99"/>
        </Node>
        <Node pos="r" depth="1" NCoef="0" IVar="2" Cut="5.3650462627410889e-01" cType="1" res="3.0437991023063660e-02" rms="4.6933969855308533e-01" purity="5.6312334537506104e-01" nType="0">
          <Node pos="l" depth="2" NCoef="0" IVar="-1" Cut="0.0000000000000000e+00" cType="1" res="-1.2240295764058828e-03" rms="4.7227388620376587e-01" purity="4.4234222173690796e-01" nType="-99"/>
          <Node pos="r" depth="2" NCoef="0" IVar="-1" Cut="0.0000000000000000e+00" cType="1" res="3.5727934446185827e-03" rms="4.6598264575004578e-01" purity="6.2000995874404907e-01" nType="-99"/>
        </Node>
      </Node>
    </BinaryTree>
    <BinaryTree type="DecisionTree" boostWeight="1.0000000000000000e+00" itree="127">
      <Node pos="s" depth="0" NCoef="0" IVar="5" Cut="5.6304119873046875e+02" cType="1" res="-5.4101794958114624e-03" rms="4.6945258975028992e-01" purity="4.9626332521438599e-01" nType="0">
        <Node pos="l" depth="1" NCoef="0" IVar="1" Cut="6.8746650218963623e-01" cType="1" res="-5.0055377185344696e-02" rms="4.5943665504455566e-01" purity="3.9670079946517944e-01" nType="0">
          <Node pos="l" depth="2" NCoef="0" IVar="-1" Cut="0.0000000000000000e+00" cType="1" res="1.8709162250161171e-03" rms="4.7427296638488770e-01" purity="5.4052561521530151e-01" nType="-99"/>
          <Node pos="r" depth="2" NCoef="0" IVar="-1" Cut="0.0000000000000000e+00" cType="1" res="-4.6300305984914303e-03" rms="4.4998189806938171e-01" purity="3.4231486916542053e-01" nType="-99"/>
        </Node>
        <Node pos="r" depth="1" NCoef="0" IVar="0" Cut="3.7775002419948578e-02" cType="1" res="1.0019203647971153e-02" rms="4.7188365459442139e-01" purity="5.3067207336425781e-01" nType="0">
          <Node pos="l" depth="2" NCoef="0" IVar="-1" Cut="0.0000000000000000e+00" cType="1" res="-2.4238820187747478e-03" rms="4.7476086020469666e-01" purity="4.2204186320304871e-01" nType="-99"/>
          <Node pos="r" depth="2" NCoef="0" IVar="-1" Cut="0.0000000000000000e+00" cType="1" res="1.5745486598461866e-03" rms="4.6995320916175842e-01" purity="5.6263327598571777e-01" nType="-99"/>
        </Node>
      </Node>
    </BinaryTree>
    <BinaryTree type="DecisionTree" boostWeight="1.0000000000000000e+00" itree="128">
      <Node pos="s" depth="0" NCoef="0" IVar="5" Cut="6.7618438720703125e+02" cType="1" res="-1.4728440437465906e-03" rms="4.6496987342834473e-01" purity="5.0140792131423950e-01" nType="0">
        <Node pos="l" depth="1" NCoef="0" IVar="0" Cut="1.0954108834266663e-01" cType="1" res="-3.1417816877365112e-02" rms="4.5975738763809204e-01" purity="4.3668794631958008e-01" nType="0">
          <Node pos="l" depth="2" NCoef="0" IVar="-1" Cut="0.0000000000000000e+00" cType="1" res="-4.0996978059411049e-03" rms="4.5130124688148499e-01" purity="3.6412283778190613e-01" nType="-99"/>
          <Node pos="r" depth="2" NCoef="0" IVar="-1" Cut="0.0000000000000000e+00" cType="1" res="9.2722865520045161e-04" rms="4.6550893783569336e-01" purity="5.2418780326843262e-01" nType="-99"/>
        </Node>
        <Node pos="r" depth="1" NCoef="0" IVar="0" Cut="3.0398728325963020e-02" cType="1" res="2.4053012952208519e-02" rms="4.6785667538642883e-01" purity="5.5657690763473511e-01" nType="0">
          <Node pos="l" depth="2" NCoef="0" IVar="-1" Cut="0.0000000000000000e+00" cType="1" res="-1.5359725803136826e-03" rms="4.6906521916389465e-01" purity="4.4084030389785767e-01" nType="-99"/>
          <Node pos="r" depth="2" NCoef="0" IVar="-1" Cut="0.0000000000000000e+00" cType="1" res="2.4180663749575615e-03" rms="4.6657389402389526e-01" purity="5.8789223432540894e-01" nType="-99"/>
        </Node>
      </Node>
    </BinaryTree>
    <BinaryTree type="DecisionTree" boostWeight="1.0000000000000000e+00" itree="129">
      <Node pos="s" depth="0" NCoef="0" IVar="6" Cut="2.1494596004486084e+00" cType="1" res="6.2663718126714230e-03" rms="4.6902152895927429e-01" purity="5.0574284791946411e-01" nType="0">
        <Node pos="l" depth="1" NCoef="0" IVar="4" Cut="1.8732112366706133e-03" cType="1" res="-4.7921951860189438e-02" rms="4.4891771674156189e-01" purity="2.9269543290138245e-01" nType="0">
          <Node pos="l" depth="2" NCoef="0" IVar="-1" Cut="0.0000000000000000e+00" cType="1" res="-3.9800614467822015e-04" rms="4.6634629368782043e-01" purity="3.3851826190948486e-01" nType="-99"/>
          <Node pos="r" depth="2" NCoef="0" IVar="-1" Cut="0.0000000000000000e+00" cType="1" res="-4.5690438710153103e-03" rms="4.3399176001548767e-01" purity="2.6070019602775574e-01" nType="-99"/>
        </Node>
        <Node pos="r" depth="1" NCoef="0" IVar="3" Cut="2.1597855091094971e+00" cType="1" res="1.5134348534047604e-02" rms="4.7163763642311096e-01" purity="5.4060822725296021e-01" nType="0">
          <Node pos="l" depth="2" NCoef="0" IVar="-1" Cut="0.0000000000000000e+00" cType="1" res="1.4183158054947853e-03" rms="4.7230291366577148e-01" purity="5.6191384792327881e-01" nType="-99"/>
          <Node pos="r" depth="2" NCoef="0" IVar="-1" Cut="0.0000000000000000e+00" cType="1" res="-3.6923391744494438e-03" rms="4.5722347497940063e-01" purity="3.2140100002288818e-01" nType="-99"/>
        </Node>
      </Node>
    </BinaryTree>
    <BinaryTree type="DecisionTree" boostWeight="1.0000000000000000e+00" itree="130">
      <Node pos="s" depth="0" NCoef="0" IVar="0" Cut="5.2398748695850372e-02" cType="1" res="5.7557658292353153e-03" rms="4.6871823072433472e-01" purity="5.0537663698196411e-01" nType="0">
        <Node pos="l" depth="1" NCoef="0" IVar="5" Cut="9.7544921875000000e+02" cType="1" res="-3.2456159591674805e-02" rms="4.6763622760772705e-01" purity="4.2092779278755188e-01" nType="0">
          <Node pos="l" depth="2" NCoef="0" IVar="-1" Cut="0.0000000000000000e+00" cType="1" res="-3.3414999488741159e-03" rms="4.5667824149131775e-01" purity="3.7271934747695923e-01" nType="-99"/>
          <Node pos="r" depth="2" NCoef="0" IVar="-1" Cut="0.0000000000000000e+00" cType="1" res="1.7937240190804005e-03" rms="4.8794370889663696e-01" purity="5.3884661197662354e-01" nType="-99"/>
        </Node>
        <Node pos="r" depth="1" NCoef="0" IVar="5" Cut="4.5706808471679688e+02" cType="1" res="2.2656422108411789e-02" rms="4.6820232272148132e-01" purity="5.4272723197937012e-01" nType="0">
          <Node pos="l" depth="2" NCoef="0" IVar="-1" Cut="0.0000000000000000e+00" cType="1" res="-4.4653206132352352e-03" rms="4.4510531425476074e-01" purity="3.2693868875503540e-01" nType="-99"/>
          <Node pos="r" depth="2" NCoef="0" IVar="-1" Cut="0.0000000000000000e+00" cType="1" res="2.1179255563765764e-03" rms="4.6929451823234558e-01" purity="5.6527471542358398e-01" nType="-99"/>
        </Node>
      </Node>
    </BinaryTree>
    <BinaryTree type="DecisionTree" boostWeight="1.0000000000000000e+00" itree="131">
      <Node pos="s" depth="0" NCoef="0" IVar="1" Cut="1.4709366559982300e+00" cType="1" res="-3.8278726860880852e-03" rms="4.6933099627494812e-01" purity="4.9735078215599060e-01" nType="0">
        <Node pos="l" depth="1" NCoef="0" IVar="0" Cut="1.0002889484167099e-01" cType="1" res="1.7781911417841911e-02" rms="4.7242006659507751e-01" purity="5.5339056253433228e-01" nType="0">
          <Node pos="l" depth="2" NCoef="0" IVar="-1" Cut="0.0000000000000000e+00" cType="1" res="-3.8838214095449075e-05" rms="4.7947484254837036e-01" purity="5.0795924663543701e-01" nType="-99"/>
          <Node pos="r" depth="2" NCoef="0" IVar="-1" Cut="0.0000000000000000e+00" cType="1" res="2.9402442742139101e-03" rms="4.6072989702224731e-01" purity="6.1906719207763672e-01" nType="-99"/>
        </Node>
        <Node pos="r" depth="1" NCoef="0" IVar="0" Cut="3.7126254290342331e-02" cType="1" res="-5.4412592202425003e-02" rms="4.5805004239082336e-01" purity="3.6617150902748108e-01" nType="0">
          <Node pos="l" depth="2" NCoef="0" IVar="-1" Cut="0.0000000000000000e+00" cType="1" res="-5.5784857831895351e-03" rms="4.2311811447143555e-01" purity="2.7887386083602905e-01" nType="-99"/>
          <Node pos="r" depth="2" NCoef="0" IVar="-1" Cut="0.0000000000000000e+00" cType="1" res="-2.2830809466540813e-03" rms="4.6874549984931946e-01" purity="3.9687898755073547e-01" nType="-99"/>
        </Node>
      </Node>
    </BinaryTree>
    <BinaryTree type="DecisionTree" boostWeight="1.0000000000000000e+00" itree="132">
      <Node pos="s" depth="0" NCoef="0" IVar="5" Cut="5.1124023437500000e+02" cType="1" res="-2.2204313427209854e-03" rms="4.6904653310775757e-01" purity="5.0222200155258179e-01" nType="0">
        <Node pos="l" depth="1" NCoef="0" IVar="5" Cut="4.7288961791992188e+02" cType="1" res="-5.6586578488349915e-02" rms="4.5490473508834839e-01" purity="3.8244891166687012e-01" nType="0">
          <Node pos="l" depth="2" NCoef="0" IVar="-1" Cut="0.0000000000000000e+00" cType="1" res="-4.8741358332335949e-03" rms="4.4025993347167969e-01" purity="3.3827179670333862e-01" nType="-99"/>
          <Node pos="r" depth="2" NCoef="0" IVar="-1" Cut="0.0000000000000000e+00" cType="1" res="-1.0693053482100368e-03" rms="4.7171419858932495e-01" purity="4.4371169805526733e-01" nType="-99"/>
        </Node>
        <Node pos="r" depth="1" NCoef="0" IVar="2" Cut="7.9830652475357056e-01" cType="1" res="8.3544729277491570e-03" rms="4.7101962566375732e-01" purity="5.2551937103271484e-01" nType="0">
          <Node pos="l" depth="2" NCoef="0" IVar="-1" Cut="0.0000000000000000e+00" cType="1" res="-6.6976681409869343e-05" rms="4.7418135404586792e-01" purity="5.0186419486999512e-01" nType="-99"/>
          <Node pos="r" depth="2" NCoef="0" IVar="-1" Cut="0.0000000000000000e+00" cType="1" res="5.5568343959748745e-03" rms="4.3986710906028748e-01" purity="7.0433920621871948e-01" nType="-99"/>
        </Node>
      </Node>
    </BinaryTree>
    <BinaryTree type="DecisionTree" boostWeight="1.0000000000000000e+00" itree="133">
      <Node pos="s" depth="0" NCoef="0" IVar="6" Cut="3.0393238067626953e+00" cType="1" res="-7.8657403355464339e-04" rms="4.6509957313537598e-01" purity="5.0149071216583252e-01" nType="0">
        <Node pos="l" depth="1" NCoef="0" IVar="5" Cut="6.8124725341796875e+02" cType="1" res="-3.5774230957031250e-02" rms="4.6056106686592102e-01" purity="3.3355858922004700e-01" nType="0">
          <Node pos="l" depth="2" NCoef="0" IVar="-1" Cut="0.0000000000000000e+00" cType="1" res="-3.5485732369124889e-03" rms="4.4462862610816956e-01" purity="2.8877210617065430e-01" nType="-99"/>
          <Node pos="r" depth="2" NCoef="0" IVar="-1" Cut="0.0000000000000000e+00" cType="1" res="-3.0472286744043231e-04" rms="4.7685590386390686e-01" purity="3.8635617494583130e-01" nType="-99"/>
        </Node>
        <Node pos="r" depth="1" NCoef="0" IVar="0" Cut="1.4618201553821564e-01" cType="1" res="1.8683344125747681e-02" rms="4.6647095680236816e-01" purity="5.9494149684906006e-01" nType="0">
          <Node pos="l" depth="2" NCoef="0" IVar="-1" Cut="0.0000000000000000e+00" cType="1" res="2.8086997917853296e-04" rms="4.7506541013717651e-01" purity="5.6248277425765991e-01" nType="-99"/>
          <Node pos="r" depth="2" NCoef="0" IVar="-1" Cut="0.0000000000000000e+00" cType="1" res="5.2657420746982098e-03" rms="4.2621415853500366e-01" purity="7.2352063655853271e-01" nType="-99"/>
        </Node>
      </Node>
    </BinaryTree>
    <BinaryTree type="DecisionTree" boostWeight="1.0000000000000000e+00" itree="134">
      <Node pos="s" depth="0" NCoef="0" IVar="6" Cut="5.7300758361816406e+00" cType="1" res="6.1968062072992325e-03" rms="4.6651443839073181e-01" purity="5.0949907302856445e-01" nType="0">
        <Node pos="l" depth="1" NCoef="0" IVar="0" Cut="6.8232439458370209e-02" cType="1" res="-1.2717344798147678e-03" rms="4.7175896167755127e-01" purity="4.8516517877578735e-01" nType="0">
          <Node pos="l" depth="2" NCoef="0" IVar="-1" Cut="0.0000000000000000e+00" cType="1" res="-1.7744852229952812e-03" rms="4.7065365314483643e-01" purity="4.1323244571685791e-01" nType="-99"/>
          <Node pos="r" depth="2" NCoef="0" IVar="-1" Cut="0.0000000000000000e+00" cType="1" res="1.3302906882017851e-03" rms="4.7135147452354431e-01" purity="5.4038649797439575e-01" nType="-99"/>
        </Node>
        <Node pos="r" depth="1" NCoef="0" IVar="-1" Cut="0.0000000000000000e+00" cType="1" res="7.9278787598013878e-03" rms="3.8582468032836914e-01" purity="8.0544471740722656e-01" nType="-99"/>
      </Node>
    </BinaryTree>
    <BinaryTree type="DecisionTree" boostWeight="1.0000000000000000e+00" itree="135">
      <Node pos="s" depth="0" NCoef="0" IVar="5" Cut="6.6070129394531250e+02" cType="1" res="4.0228950092568994e-04" rms="4.6451953053474426e-01" purity="5.0186651945114136e-01" nType="0">
        <Node pos="l" depth="1" NCoef="0" IVar="6" Cut="4.7730603218078613e+00" cType="1" res="-3.0881136655807495e-02" rms="4.5783397555351257e-01" purity="4.3592035770416260e-01" nType="0">
          <Node pos="l" depth="2" NCoef="0" IVar="-1" Cut="0.0000000000000000e+00" cType="1" res="-2.9291620012372732e-03" rms="4.6119567751884460e-01" purity="3.7696701288223267e-01" nType="-99"/>
          <Node pos="r" depth="2" NCoef="0" IVar="-1" Cut="0.0000000000000000e+00" cType="1" res="4.6731065958738327e-03" rms="4.2843508720397949e-01" purity="7.2174900770187378e-01" nType="-99"/>
        </Node>
        <Node pos="r" depth="1" NCoef="0" IVar="0" Cut="3.8074132055044174e-02" cType="1" res="2.5583356618881226e-02" rms="4.6831625699996948e-01" purity="5.5494886636734009e-01" nType="0">
          <Node pos="l" depth="2" NCoef="0" IVar="-1" Cut="0.0000000000000000e+00" cType="1" res="-1.6732644289731979e-03" rms="4.7405529022216797e-01" purity="4.3767672777175903e-01" nType="-99"/>
          <Node pos="r" depth="2" NCoef="0" IVar="-1" Cut="0.0000000000000000e+00" cType="1" res="2.9752480331808329e-03" rms="4.6454221010208130e-01" purity="5.9830045700073242e-01" nType="-99"/>
        </Node>
      </Node>
    </BinaryTree>
    <BinaryTree type="DecisionTree" boostWeight="1.0000000000000000e+00" itree="136">
      <Node pos="s" depth="0" NCoef="0" IVar="0" Cut="9.8041757941246033e-02" cType="1" res="-6.8088104017078876e-03" rms="4.7167667746543884e-01" purity="4.9747315049171448e-01" nType="0">
        <Node pos="l" depth="1" NCoef="0" IVar="5" Cut="1.0071651000976562e+03" cType="1" res="-2.6879718527197838e-02" rms="4.7371461987495422e-01" purity="4.4885593652725220e-01" nType="0">
          <Node pos="l" depth="2" NCoef="0" IVar="-1" Cut="0.0000000000000000e+00" cType="1" res="-2.6343364734202623e-03" rms="4.7150129079818726e-01" purity="4.1660943627357483e-01" nType="-99"/>
          <Node pos="r" depth="2" NCoef="0" IVar="-1" Cut="0.0000000000000000e+00" cType="1" res="2.3376769386231899e-03" rms="4.7602534294128418e-01" purity="5.6607472896575928e-01" nType="-99"/>
        </Node>
        <Node pos="r" depth="1" NCoef="0" IVar="6" Cut="3.2818768024444580e+00" cType="1" res="2.5381393730640411e-02" rms="4.6659037470817566e-01" purity="5.7544648647308350e-01" nType="0">
          <Node pos="l" depth="2" NCoef="0" IVar="-1" Cut="0.0000000000000000e+00" cType="1" res="-2.6274393894709647e-04" rms="4.8693633079528809e-01" purity="4.1318455338478088e-01" nType="-99"/>
          <Node pos="r" depth="2" NCoef="0" IVar="-1" Cut="0.0000000000000000e+00" cType="1" res="3.2582005951553583e-03" rms="4.5034155249595642e-01" purity="6.9094359874725342e-01" nType="-99"/>
        </Node>
      </Node>
    </BinaryTree>
    <BinaryTree type="DecisionTree" boostWeight="1.0000000000000000e+00" itree="137">
      <Node pos="s" depth="0" NCoef="0" IVar="3" Cut="2.2643103599548340e+00" cType="1" res="-1.4338530309032649e-04" rms="4.6806737780570984e-01" purity="5.0377786159515381e-01" nType="0">
        <Node pos="l" depth="1" NCoef="0" IVar="5" Cut="4.5253298950195312e+02" cType="1" res="8.7856678292155266e-03" rms="4.7019860148429871e-01" purity="5.2137875556945801e-01" nType="0">
          <Node pos="l" depth="2" NCoef="0" IVar="-1" Cut="0.0000000000000000e+00" cType="1" res="-4.0694233030080795e-03" rms="4.5093441009521484e-01" purity="3.3750304579734802e-01" nType="-99"/>
          <Node pos="r" depth="2" NCoef="0" IVar="-1" Cut="0.0000000000000000e+00" cType="1" res="9.3233556253835559e-04" rms="4.7111296653747559e-01" purity="5.3579258918762207e-01" nType="-99"/>
        </Node>
        <Node pos="r" depth="1" NCoef="0" IVar="-1" Cut="0.0000000000000000e+00" cType="1" res="-8.0288825556635857e-03" rms="4.0876418352127075e-01" purity="2.2859518229961395e-01" nType="-99"/>
      </Node>
    </BinaryTree>
    <BinaryTree type="DecisionTree" boostWeight="1.0000000000000000e+00" itree="138">
      <Node pos="s" depth="0" NCoef="0" IVar="6" Cut="5.3019113540649414e+00" cType="1" res="-3.7456105928868055e-03" rms="4.7091189026832581e-01" purity="4.9941262602806091e-01" nType="0">
        <Node pos="l" depth="1" NCoef="0" IVar="1" Cut="7.6445287466049194e-01" cType="1" res="-1.2107933871448040e-02" rms="4.7676250338554382e-01" purity="4.6301892399787903e-01" nType="0">
          <Node pos="l" depth="2" NCoef="0" IVar="-1" Cut="0.0000000000000000e+00" cType="1" res="1.0141772218048573e-03" rms="4.7855389118194580e-01" purity="5.4424524307250977e-01" nType="-99"/>
          <Node pos="r" depth="2" NCoef="0" IVar="-1" Cut="0.0000000000000000e+00" cType="1" res="-1.7018510261550546e-03" rms="4.7485569119453430e-01" purity="4.1440457105636597e-01" nType="-99"/>
        </Node>
        <Node pos="r" depth="1" NCoef="0" IVar="5" Cut="7.3623248291015625e+02" cType="1" res="5.4523937404155731e-02" rms="4.2336857318878174e-01" purity="7.5300776958465576e-01" nType="0">
          <Node pos="l" depth="2" NCoef="0" IVar="-1" Cut="0.0000000000000000e+00" cType="1" res="7.8991567716002464e-03" rms="3.9647769927978516e-01" purity="7.8725266456604004e-01" nType="-99"/>
          <Node pos="r" depth="2" NCoef="0" IVar="-1" Cut="0.0000000000000000e+00" cType="1" res="1.1818817583844066e-03" rms="4.4021806120872498e-01" purity="7.2512251138687134e-01" nType="-99"/>
        </Node>
      </Node>
    </BinaryTree>
    <BinaryTree type="DecisionTree" boostWeight="1.0000000000000000e+00" itree="139">
      <Node pos="s" depth="0" NCoef="0" IVar="5" Cut="5.5289965820312500e+02" cType="1" res="1.4372619625646621e-04" rms="4.6605110168457031e-01" purity="5.0262004137039185e-01" nType="0">
        <Node pos="l" depth="1" NCoef="0" IVar="0" Cut="7.5771495699882507e-02" cType="1" res="-4.7711495310068130e-02" rms="4.4916695356369019e-01" purity="3.8985329866409302e-01" nType="0">
          <Node pos="l" depth="2" NCoef="0" IVar="-1" Cut="0.0000000000000000e+00" cType="1" res="-6.9625149480998516e-03" rms="4.1112184524536133e-01" purity="2.5391489267349243e-01" nType="-99"/>
          <Node pos="r" depth="2" NCoef="0" IVar="-1" Cut="0.0000000000000000e+00" cType="1" res="-9.4760843785479665e-04" rms="4.6165654063224792e-01" purity="4.5085719227790833e-01" nType="-99"/>
        </Node>
        <Node pos="r" depth="1" NCoef="0" IVar="4" Cut="1.1348747648298740e-03" cType="1" res="1.5698682516813278e-02" rms="4.7036162018775940e-01" purity="5.3927397727966309e-01" nType="0">
          <Node pos="l" depth="2" NCoef="0" IVar="-1" Cut="0.0000000000000000e+00" cType="1" res="2.5236031506210566e-03" rms="4.6357616782188416e-01" purity="6.1899137496948242e-01" nType="-99"/>
          <Node pos="r" depth="2" NCoef="0" IVar="-1" Cut="0.0000000000000000e+00" cType="1" res="-3.7982314825057983e-04" rms="4.7602728009223938e-01" purity="4.5944216847419739e-01" nType="-99"/>
        </Node>
      </Node>
    </BinaryTree>
    <BinaryTree type="DecisionTree" boostWeight="1.0000000000000000e+00" itree="140">
      <Node pos="s" depth="0" NCoef="0" IVar="4" Cut="8.0032586993183941e-05" cType="1" res="5.6422175839543343e-03" rms="4.6510609984397888e-01" purity="5.0750046968460083e-01" nType="0">
        <Node pos="l" depth="1" NCoef="0" IVar="4" Cut="2.4929116989369504e-05" cType="1" res="8.7678015232086182e-02" rms="4.3323507905006409e-01" purity="7.2999995946884155e-01" nType="0">
          <Node pos="l" depth="2" NCoef="0" IVar="-1" Cut="0.0000000000000000e+00" cType="1" res="9.1603817418217659e-03" rms="4.0809223055839539e-01" purity="7.7892279624938965e-01" nType="-99"/>
          <Node pos="r" depth="2" NCoef="0" IVar="-1" Cut="0.0000000000000000e+00" cType="1" res="4.4937101192772388e-03" rms="4.5526874065399170e-01" purity="6.8129038810729980e-01" nType="-99"/>
        </Node>
        <Node pos="r" depth="1" NCoef="0" IVar="2" Cut="7.7157282829284668e-01" cType="1" res="-3.6360167432576418e-03" rms="4.6766933798789978e-01" purity="4.8233580589294434e-01" nType="0">
          <Node pos="l" depth="2" NCoef="0" IVar="-1" Cut="0.0000000000000000e+00" cType="1" res="-9.6080452203750610e-04" rms="4.6988773345947266e-01" purity="4.4964596629142761e-01" nType="-99"/>
          <Node pos="r" depth="2" NCoef="0" IVar="-1" Cut="0.0000000000000000e+00" cType="1" res="4.6027679927647114e-03" rms="4.4776445627212524e-01" purity="6.7195409536361694e-01" nType="-99"/>
        </Node>
      </Node>
    </BinaryTree>
    <BinaryTree type="DecisionTree" boostWeight="1.0000000000000000e+00" itree="141">
      <Node pos="s" depth="0" NCoef="0" IVar="6" Cut="1.7605062723159790e+00" cType="1" res="-9.2379953712224960e-03" rms="4.7061306238174438e-01" purity="4.9466618895530701e-01" nType="0">
        <Node pos="l" depth="1" NCoef="0" IVar="-1" Cut="0.0000000000000000e+00" cType="1" res="-5.6444276124238968e-03" rms="4.2167922854423523e-01" purity="2.3942220211029053e-01" nType="-99"/>
        <Node pos="r" depth="1" NCoef="0" IVar="3" Cut="2.2502658367156982e+00" cType="1" res="-2.1710291039198637e-03" rms="4.7376129031181335e-01" purity="5.1585489511489868e-01" nType="0">
          <Node pos="l" depth="2" NCoef="0" IVar="-1" Cut="0.0000000000000000e+00" cType="1" res="1.5170803817454726e-04" rms="4.7624483704566956e-01" purity="5.3241264820098877e-01" nType="-99"/>
          <Node pos="r" depth="2" NCoef="0" IVar="-1" Cut="0.0000000000000000e+00" cType="1" res="-3.9993934333324432e-03" rms="4.3239241838455200e-01" purity="2.8435239195823669e-01" nType="-99"/>
        </Node>
      </Node>
    </BinaryTree>
    <BinaryTree type="DecisionTree" boostWeight="1.0000000000000000e+00" itree="142">
      <Node pos="s" depth="0" NCoef="0" IVar="1" Cut="4.3436238169670105e-01" cType="1" res="-2.0979638211429119e-03" rms="4.7141906619071960e-01" purity="5.0042074918746948e-01" nType="0">
        <Node pos="l" depth="1" NCoef="0" IVar="0" Cut="7.3741719126701355e-02" cType="1" res="5.0606813281774521e-02" rms="4.6868988871574402e-01" purity="6.0603755712509155e-01" nType="0">
          <Node pos="l" depth="2" NCoef="0" IVar="-1" Cut="0.0000000000000000e+00" cType="1" res="-7.5501739047467709e-04" rms="4.8147410154342651e-01" purity="5.1737636327743530e-01" nType="-99"/>
          <Node pos="r" depth="2" NCoef="0" IVar="-1" Cut="0.0000000000000000e+00" cType="1" res="6.0603991150856018e-03" rms="4.5596030354499817e-01" purity="6.6197830438613892e-01" nType="-99"/>
        </Node>
        <Node pos="r" depth="1" NCoef="0" IVar="2" Cut="8.0154877901077271e-01" cType="1" res="-1.3512928970158100e-02" rms="4.7123211622238159e-01" purity="4.7754591703414917e-01" nType="0">
          <Node pos="l" depth="2" NCoef="0" IVar="-1" Cut="0.0000000000000000e+00" cType="1" res="-1.1799550848081708e-03" rms="4.7253635525703430e-01" purity="4.5826539397239685e-01" nType="-99"/>
          <Node pos="r" depth="2" NCoef="0" IVar="-1" Cut="0.0000000000000000e+00" cType="1" res="3.3168022055178881e-03" rms="4.5350632071495056e-01" purity="6.7106258869171143e-01" nType="-99"/>
        </Node>
      </Node>
    </BinaryTree>
    <BinaryTree type="DecisionTree" boostWeight="1.0000000000000000e+00" itree="143">
      <Node pos="s" depth="0" NCoef="0" IVar="3" Cut="1.8417328596115112e+00" cType="1" res="2.9495742637664080e-03" rms="4.6903607249259949e-01" purity="5.0811481475830078e-01" nType="0">
        <Node pos="l" depth="1" NCoef="0" IVar="6" Cut="2.0265750885009766e+00" cType="1" res="1.6820354387164116e-02" rms="4.7082409262657166e-01" purity="5.4244637489318848e-01" nType="0">
          <Node pos="l" depth="2" NCoef="0" IVar="-1" Cut="0.0000000000000000e+00" cType="1" res="-3.8914922624826431e-03" rms="4.4417095184326172e-01" purity="2.8528040647506714e-01" nType="-99"/>
          <Node pos="r" depth="2" NCoef="0" IVar="-1" Cut="0.0000000000000000e+00" cType="1" res="1.6785381594672799e-03" rms="4.7304272651672363e-01" purity="5.7420498132705688e-01" nType="-99"/>
        </Node>
        <Node pos="r" depth="1" NCoef="0" IVar="2" Cut="5.8915084600448608e-01" cType="1" res="-5.6268163025379181e-02" rms="4.5660951733589172e-01" purity="3.6154505610466003e-01" nType="0">
          <Node pos="l" depth="2" NCoef="0" IVar="-1" Cut="0.0000000000000000e+00" cType="1" res="-4.9904566258192062e-03" rms="4.3387189507484436e-01" purity="2.8071799874305725e-01" nType="-99"/>
          <Node pos="r" depth="2" NCoef="0" IVar="-1" Cut="0.0000000000000000e+00" cType="1" res="-8.7736413115635514e-04" rms="4.8316881060600281e-01" purity="4.7324883937835693e-01" nType="-99"/>
        </Node>
      </Node>
    </BinaryTree>
    <BinaryTree type="DecisionTree" boostWeight="1.0000000000000000e+00" itree="144">
      <Node pos="s" depth="0" NCoef="0" IVar="1" Cut="6.3606947660446167e-01" cType="1" res="3.5836342722177505e-03" rms="4.6406286954879761e-01" purity="5.0809770822525024e-01" nType="0">
        <Node pos="l" depth="1" NCoef="0" IVar="4" Cut="1.5964289195835590e-04" cType="1" res="4.6206865459680557e-02" rms="4.6129798889160156e-01" purity="6.1026430130004883e-01" nType="0">
          <Node pos="l" depth="2" NCoef="0" IVar="-1" Cut="0.0000000000000000e+00" cType="1" res="9.6149705350399017e-03" rms="3.8593241572380066e-01" purity="7.9504668712615967e-01" nType="-99"/>
          <Node pos="r" depth="2" NCoef="0" IVar="-1" Cut="0.0000000000000000e+00" cType="1" res="1.9225684227421880e-03" rms="4.7399708628654480e-01" purity="5.7185751199722290e-01" nType="-99"/>
        </Node>
        <Node pos="r" depth="1" NCoef="0" IVar="6" Cut="2.2447483539581299e+00" cType="1" res="-1.5339653939008713e-02" rms="4.6403187513351440e-01" purity="4.6273919939994812e-01" nType="0">
          <Node pos="l" depth="2" NCoef="0" IVar="-1" Cut="0.0000000000000000e+00" cType="1" res="-4.8276656307280064e-03" rms="4.1574513912200928e-01" purity="2.3266047239303589e-01" nType="-99"/>
          <Node pos="r" depth="2" NCoef="0" IVar="-1" Cut="0.0000000000000000e+00" cType="1" res="-1.8826093582902104e-04" rms="4.7190454602241516e-01" purity="5.0762104988098145e-01" nType="-99"/>
        </Node>
      </Node>
    </BinaryTree>
    <BinaryTree type="DecisionTree" boostWeight="1.0000000000000000e+00" itree="145">
      <Node pos="s" depth="0" NCoef="0" IVar="3" Cut="1.5263379812240601e+00" cType="1" res="1.4892992330715060e-03" rms="4.7086173295974731e-01" purity="5.0630474090576172e-01" nType="0">
        <Node pos="l" depth="1" NCoef="0" IVar="5" Cut="1.2374797363281250e+03" cType="1" res="2.0175438374280930e-02" rms="4.7167930006980896e-01" purity="5.5499845743179321e-01" nType="0">
          <Node pos="l" depth="2" NCoef="0" IVar="-1" Cut="0.0000000000000000e+00" cType="1" res="8.0914801219478250e-04" rms="4.7142165899276733e-01" purity="5.4525166749954224e-01" nType="-99"/>
          <Node pos="r" depth="2" NCoef="0" IVar="-1" Cut="0.0000000000000000e+00" cType="1" res="6.0623344033956528e-03" rms="4.6752396225929260e-01" purity="6.5737450122833252e-01" nType="-99"/>
        </Node>
        <Node pos="r" depth="1" NCoef="0" IVar="4" Cut="9.4845931744202971e-04" cType="1" res="-3.1551219522953033e-02" rms="4.6758869290351868e-01" purity="4.2020544409751892e-01" nType="0">
          <Node pos="l" depth="2" NCoef="0" IVar="-1" Cut="0.0000000000000000e+00" cType="1" res="-2.1369916794355959e-04" rms="4.7098967432975769e-01" purity="5.0146853923797607e-01" nType="-99"/>
          <Node pos="r" depth="2" NCoef="0" IVar="-1" Cut="0.0000000000000000e+00" cType="1" res="-2.9938297811895609e-03" rms="4.6393239498138428e-01" purity="3.5969045758247375e-01" nType="-99"/>
        </Node>
      </Node>
    </BinaryTree>
    <BinaryTree type="DecisionTree" boostWeight="1.0000000000000000e+00" itree="146">
      <Node pos="s" depth="0" NCoef="0" IVar="6" Cut="1.9448173046112061e+00" cType="1" res="-2.9953233897686005e-03" rms="4.6415972709655762e-01" purity="4.9693897366523743e-01" nType="0">
        <Node pos="l" depth="1" NCoef="0" IVar="-1" Cut="0.0000000000000000e+00" cType="1" res="-5.8269412256777287e-03" rms="4.1451814770698547e-01" purity="2.3263342678546906e-01" nType="-99"/>
        <Node pos="r" depth="1" NCoef="0" IVar="4" Cut="5.7158444542437792e-04" cType="1" res="8.0400956794619560e-03" rms="4.6844521164894104e-01" purity="5.2814429998397827e-01" nType="0">
          <Node pos="l" depth="2" NCoef="0" IVar="-1" Cut="0.0000000000000000e+00" cType="1" res="3.2051289454102516e-03" rms="4.5361292362213135e-01" purity="6.4485651254653931e-01" nType="-99"/>
          <Node pos="r" depth="2" NCoef="0" IVar="-1" Cut="0.0000000000000000e+00" cType="1" res="-6.8030029069632292e-04" rms="4.7478726506233215e-01" purity="4.6740308403968811e-01" nType="-99"/>
        </Node>
      </Node>
    </BinaryTree>
    <BinaryTree type="DecisionTree" boostWeight="1.0000000000000000e+00" itree="147">
      <Node pos="s" depth="0" NCoef="0" IVar="3" Cut="1.8883591890335083e+00" cType="1" res="2.3098713718354702e-03" rms="4.6520015597343445e-01" purity="5.0644683837890625e-01" nType="0">
        <Node pos="l" depth="1" NCoef="0" IVar="5" Cut="4.8050747680664062e+02" cType="1" res="1.4500319026410580e-02" rms="4.6770161390304565e-01" purity="5.4279536008834839e-01" nType="0">
          <Node pos="l" depth="2" NCoef="0" IVar="-1" Cut="0.0000000000000000e+00" cType="1" res="-3.1401265878230333e-03" rms="4.5041450858116150e-01" purity="3.8477286696434021e-01" nType="-99"/>
          <Node pos="r" depth="2" NCoef="0" IVar="-1" Cut="0.0000000000000000e+00" cType="1" res="1.4206377090886235e-03" rms="4.6904379129409790e-01" purity="5.6130897998809814e-01" nType="-99"/>
        </Node>
        <Node pos="r" depth="1" NCoef="0" IVar="3" Cut="2.3135015964508057e+00" cType="1" res="-5.1968980580568314e-02" rms="4.4990310072898865e-01" purity="3.4460261464118958e-01" nType="0">
          <Node pos="l" depth="2" NCoef="0" IVar="-1" Cut="0.0000000000000000e+00" cType="1" res="-1.6331602819263935e-03" rms="4.6917060017585754e-01" purity="4.0107604861259460e-01" nType="-99"/>
          <Node pos="r" depth="2" NCoef="0" IVar="-1" Cut="0.0000000000000000e+00" cType="1" res="-6.2072211876511574e-03" rms="4.0044254064559937e-01" purity="2.2309397161006927e-01" nType="-99"/>
        </Node>
      </Node>
    </BinaryTree>
    <BinaryTree type="DecisionTree" boostWeight="1.0000000000000000e+00" itree="148">
      <Node pos="s" depth="0" NCoef="0" IVar="1" Cut="6.3349425792694092e-01" cType="1" res="-1.0629383614286780e-03" rms="4.6724092960357666e-01" purity="5.0362569093704224e-01" nType="0">
        <Node pos="l" depth="1" NCoef="0" IVar="6" Cut="4.3437757492065430e+00" cType="1" res="3.6890193819999695e-02" rms="4.5771101117134094e-01" purity="6.0509616136550903e-01" nType="0">
          <Node pos="l" depth="2" NCoef="0" IVar="-1" Cut="0.0000000000000000e+00" cType="1" res="9.5982960192486644e-04" rms="4.8432296514511108e-01" purity="5.1555675268173218e-01" nType="-99"/>
          <Node pos="r" depth="2" NCoef="0" IVar="-1" Cut="0.0000000000000000e+00" cType="1" res="6.4945146441459656e-03" rms="3.9122858643531799e-01" purity="7.9646068811416626e-01" nType="-99"/>
        </Node>
        <Node pos="r" depth="1" NCoef="0" IVar="4" Cut="1.7836260376498103e-03" cType="1" res="-1.6427436843514442e-02" rms="4.7017374634742737e-01" purity="4.6254757046699524e-01" nType="0">
          <Node pos="l" depth="2" NCoef="0" IVar="-1" Cut="0.0000000000000000e+00" cType="1" res="1.7348690016660839e-04" rms="4.7284147143363953e-01" purity="5.1932018995285034e-01" nType="-99"/>
          <Node pos="r" depth="2" NCoef="0" IVar="-1" Cut="0.0000000000000000e+00" cType="1" res="-2.9439148493111134e-03" rms="4.6307462453842163e-01" purity="3.5717344284057617e-01" nType="-99"/>
        </Node>
      </Node>
    </BinaryTree>
    <BinaryTree type="DecisionTree" boostWeight="1.0000000000000000e+00" itree="149">
      <Node pos="s" depth="0" NCoef="0" IVar="3" Cut="5.6158846616744995e-01" cType="1" res="-4.9276542849838734e-03" rms="4.6454513072967529e-01" purity="4.9577239155769348e-01" nType="0">
        <Node pos="l" depth="1" NCoef="0" IVar="-1" Cut="0.0000000000000000e+00" cType="1" res="-6.9291614927351475e-03" rms="4.7560536861419678e-01" purity="4.3440365791320801e-01" nType="-99"/>
        <Node pos="r" depth="1" NCoef="0" IVar="6" Cut="5.0395689010620117e+00" cType="1" res="1.3084458187222481e-03" rms="4.6312659978866577e-01" purity="4.9920079112052917e-01" nType="0">
          <Node pos="l" depth="2" NCoef="0" IVar="-1" Cut="0.0000000000000000e+00" cType="1" res="-6.2683061696588993e-04" rms="4.7087708115577698e-01" purity="4.4807800650596619e-01" nType="-99"/>
          <Node pos="r" depth="2" NCoef="0" IVar="-1" Cut="0.0000000000000000e+00" cType="1" res="4.3924744240939617e-03" rms="4.1878780722618103e-01" purity="7.4728065729141235e-01" nType="-99"/>
        </Node>
      </Node>
    </BinaryTree>
    <BinaryTree type="DecisionTree" boostWeight="1.0000000000000000e+00" itree="150">
      <Node pos="s" depth="0" NCoef="0" IVar="5" Cut="5.9675885009765625e+02" cType="1" res="-6.6764550283551216e-03" rms="4.6835443377494812e-01" purity="4.9930283427238464e-01" nType="0">
        <Node pos="l" depth="1" NCoef="0" IVar="0" Cut="6.8423829972743988e-02" cType="1" res="-4.9590200185775757e-02" rms="4.6784329414367676e-01" purity="4.0930637717247009e-01" nType="0">
          <Node pos="l" depth="2" NCoef="0" IVar="-1" Cut="0.0000000000000000e+00" cType="1" res="-5.5973641574382782e-03" rms="4.3603706359863281e-01" purity="2.9126080870628357e-01" nType="-99"/>
          <Node pos="r" depth="2" NCoef="0" IVar="-1" Cut="0.0000000000000000e+00" cType="1" res="-1.8819647375494242e-03" rms="4.7816771268844604e-01" purity="4.5449665188789368e-01" nType="-99"/>
        </Node>
        <Node pos="r" depth="1" NCoef="0" IVar="3" Cut="2.1065924167633057e+00" cType="1" res="1.4506903477013111e-02" rms="4.6715551614761353e-01" purity="5.4372745752334595e-01" nType="0">
          <Node pos="l" depth="2" NCoef="0" IVar="-1" Cut="0.0000000000000000e+00" cType="1" res="1.3553134631365538e-03" rms="4.6957209706306458e-01" purity="5.6595337390899658e-01" nType="-99"/>
          <Node pos="r" depth="2" NCoef="0" IVar="-1" Cut="0.0000000000000000e+00" cType="1" res="-3.1149997375905514e-03" rms="4.3670523166656494e-01" purity="3.2507628202438354e-01" nType="-99"/>
        </Node>
      </Node>
    </BinaryTree>
    <BinaryTree type="DecisionTree" boostWeight="1.0000000000000000e+00" itree="151">
      <Node pos="s" depth="0" NCoef="0" IVar="4" Cut="2.4413783103227615e-04" cType="1" res="-3.4847934730350971e-03" rms="4.6803846955299377e-01" purity="5.0005161762237549e-01" nType="0">
        <Node pos="l" depth="1" NCoef="0" IVar="3" Cut="1.6599708795547485e+00" cType="1" res="4.1107360273599625e-02" rms="4.5176532864570618e-01" purity="6.6373980045318604e-01" nType="0">
          <Node pos="l" depth="2" NCoef="0" IVar="-1" Cut="0.0000000000000000e+00" cType="1" res="1.9141536904498935e-03" rms="4.4297114014625549e-01" purity="6.7221784591674805e-01" nType="-99"/>
          <Node pos="r" depth="2" NCoef="0" IVar="-1" Cut="0.0000000000000000e+00" cType="1" res="5.6470134295523167e-03" rms="4.7389209270477295e-01" purity="6.3900083303451538e-01" nType="-99"/>
        </Node>
        <Node pos="r" depth="1" NCoef="0" IVar="3" Cut="1.8052877187728882e+00" cType="1" res="-1.4789108186960220e-02" rms="4.7140493988990784e-01" purity="4.5855593681335449e-01" nType="0">
          <Node pos="l" depth="2" NCoef="0" IVar="-1" Cut="0.0000000000000000e+00" cType="1" res="-1.5890139911789447e-04" rms="4.7696587443351746e-01" purity="4.9378725886344910e-01" nType="-99"/>
          <Node pos="r" depth="2" NCoef="0" IVar="-1" Cut="0.0000000000000000e+00" cType="1" res="-3.4924403298646212e-03" rms="4.4720157980918884e-01" purity="3.2731145620346069e-01" nType="-99"/>
        </Node>
      </Node>
    </BinaryTree>
    <BinaryTree type="DecisionTree" boostWeight="1.0000000000000000e+00" itree="152">
      <Node pos="s" depth="0" NCoef="0" IVar="5" Cut="5.8910797119140625e+02" cType="1" res="-2.3283720947802067e-03" rms="4.6989324688911438e-01" purity="4.9941036105155945e-01" nType="0">
        <Node pos="l" depth="1" NCoef="0" IVar="6" Cut="4.1079158782958984e+00" cType="1" res="-4.0228586643934250e-02" rms="4.5372879505157471e-01" purity="4.0717086195945740e-01" nType="0">
          <Node pos="l" depth="2" NCoef="0" IVar="-1" Cut="0.0000000000000000e+00" cType="1" res="-3.7074650172144175e-03" rms="4.4805049896240234e-01" purity="3.1315243244171143e-01" nType="-99"/>
          <Node pos="r" depth="2" NCoef="0" IVar="-1" Cut="0.0000000000000000e+00" cType="1" res="9.8093145061284304e-04" rms="4.6224346756935120e-01" purity="6.3011640310287476e-01" nType="-99"/>
        </Node>
        <Node pos="r" depth="1" NCoef="0" IVar="3" Cut="6.4047557115554810e-01" cType="1" res="1.4489138498902321e-02" rms="4.7592467069625854e-01" purity="5.4033988714218140e-01" nType="0">
          <Node pos="l" depth="2" NCoef="0" IVar="-1" Cut="0.0000000000000000e+00" cType="1" res="-3.5157653037458658e-03" rms="4.8309063911437988e-01" purity="5.0395989418029785e-01" nType="-99"/>
          <Node pos="r" depth="2" NCoef="0" IVar="-1" Cut="0.0000000000000000e+00" cType="1" res="1.4065204886719584e-03" rms="4.7445791959762573e-01" purity="5.4436165094375610e-01" nType="-99"/>
        </Node>
      </Node>
    </BinaryTree>
    <BinaryTree type="DecisionTree" boostWeight="1.0000000000000000e+00" itree="153">
      <Node pos="s" depth="0" NCoef="0" IVar="2" Cut="7.8411680459976196e-01" cType="1" res="-9.3750171363353729e-03" rms="4.6561932563781738e-01" purity="4.9641975760459900e-01" nType="0">
        <Node pos="l" depth="1" NCoef="0" IVar="4" Cut="1.6214766947086900e-04" cType="1" res="-1.8087135627865791e-02" rms="4.6724760532379150e-01" purity="4.7025385499000549e-01" nType="0">
          <Node pos="l" depth="2" NCoef="0" IVar="-1" Cut="0.0000000000000000e+00" cType="1" res="2.5347413029521704e-03" rms="4.4915392994880676e-01" purity="6.5246897935867310e-01" nType="-99"/>
          <Node pos="r" depth="2" NCoef="0" IVar="-1" Cut="0.0000000000000000e+00" cType="1" res="-1.6642444534227252e-03" rms="4.6990814805030823e-01" purity="4.3564978241920471e-01" nType="-99"/>
        </Node>
        <Node pos="r" depth="1" NCoef="0" IVar="0" Cut="1.4832231402397156e-01" cType="1" res="4.6125229448080063e-02" rms="4.5117723941802979e-01" purity="6.6310888528823853e-01" nType="0">
          <Node pos="l" depth="2" NCoef="0" IVar="-1" Cut="0.0000000000000000e+00" cType="1" res="5.3011612035334110e-03" rms="4.3733552098274231e-01" purity="6.9142925739288330e-01" nType="-99"/>
          <Node pos="r" depth="2" NCoef="0" IVar="-1" Cut="0.0000000000000000e+00" cType="1" res="-3.7995409911673050e-06" rms="4.6838489174842834e-01" purity="6.1863321065902710e-01" nType="-99"/>
        </Node>
      </Node>
    </BinaryTree>
    <BinaryTree type="DecisionTree" boostWeight="1.0000000000000000e+00" itree="154">
      <Node pos="s" depth="0" NCoef="0" IVar="6" Cut="5.4595222473144531e+00" cType="1" res="9.3601003754884005e-04" rms="4.6877121925354004e-01" purity="5.0142234563827515e-01" nType="0">
        <Node pos="l" depth="1" NCoef="0" IVar="1" Cut="6.5280443429946899e-01" cType="1" res="-8.3414558321237564e-03" rms="4.7484847903251648e-01" purity="4.6775537729263306e-01" nType="0">
          <Node pos="l" depth="2" NCoef="0" IVar="-1" Cut="0.0000000000000000e+00" cType="1" res="1.8698952626436949e-03" rms="4.7904086112976074e-01" purity="5.6815719604492188e-01" nType="-99"/>
          <Node pos="r" depth="2" NCoef="0" IVar="-1" Cut="0.0000000000000000e+00" cType="1" res="-1.4687478542327881e-03" rms="4.7208186984062195e-01" purity="4.2443859577178955e-01" nType="-99"/>
        </Node>
        <Node pos="r" depth="1" NCoef="0" IVar="3" Cut="1.2221341133117676e+00" cType="1" res="8.0987207591533661e-02" rms="4.0387383103370667e-01" purity="7.9191982746124268e-01" nType="0">
          <Node pos="l" depth="2" NCoef="0" IVar="-1" Cut="0.0000000000000000e+00" cType="1" res="2.6105530560016632e-03" rms="4.1372779011726379e-01" purity="7.6690560579299927e-01" nType="-99"/>
          <Node pos="r" depth="2" NCoef="0" IVar="-1" Cut="0.0000000000000000e+00" cType="1" res="1.0540767572820187e-02" rms="3.8735169172286987e-01" purity="8.1710255146026611e-01" nType="-99"/>
        </Node>
      </Node>
    </BinaryTree>
    <BinaryTree type="DecisionTree" boostWeight="1.0000000000000000e+00" itree="155">
      <Node pos="s" depth="0" NCoef="0" IVar="6" Cut="4.8333935737609863e+00" cType="1" res="-4.5097870752215385e-03" rms="4.6611443161964417e-01" purity="4.9566370248794556e-01" nType="0">
        <Node pos="l" depth="1" NCoef="0" IVar="5" Cut="1.0522521972656250e+03" cType="1" res="-1.5912154689431190e-02" rms="4.7306481003761292e-01" purity="4.3589344620704651e-01" nType="0">
          <Node pos="l" depth="2" NCoef="0" IVar="-1" Cut="0.0000000000000000e+00" cType="1" res="-1.3086379040032625e-03" rms="4.7066044807434082e-01" purity="4.2439207434654236e-01" nType="-99"/>
          <Node pos="r" depth="2" NCoef="0" IVar="-1" Cut="0.0000000000000000e+00" cType="1" res="1.5982176410034299e-03" rms="4.8704272508621216e-01" purity="5.1451539993286133e-01" nType="-99"/>
        </Node>
        <Node pos="r" depth="1" NCoef="0" IVar="0" Cut="8.1890806555747986e-02" cType="1" res="3.8888283073902130e-02" rms="4.3593549728393555e-01" purity="7.2315281629562378e-01" nType="0">
          <Node pos="l" depth="2" NCoef="0" IVar="-1" Cut="0.0000000000000000e+00" cType="1" res="5.1672044210135937e-03" rms="4.2902392148971558e-01" purity="7.2046977281570435e-01" nType="-99"/>
          <Node pos="r" depth="2" NCoef="0" IVar="-1" Cut="0.0000000000000000e+00" cType="1" res="2.9725822969339788e-04" rms="4.3967100977897644e-01" purity="7.2575074434280396e-01" nType="-99"/>
        </Node>
      </Node>
    </BinaryTree>
    <BinaryTree type="DecisionTree" boostWeight="1.0000000000000000e+00" itree="156">
      <Node pos="s" depth="0" NCoef="0" IVar="5" Cut="5.7148590087890625e+02" cType="1" res="-1.8896959722042084e-02" rms="4.6611875295639038e-01" purity="4.8465672135353088e-01" nType="0">
        <Node pos="l" depth="1" NCoef="0" IVar="6" Cut="4.3460998535156250e+00" cType="1" res="-6.0425896197557449e-02" rms="4.5241111516952515e-01" purity="3.7697133421897888e-01" nType="0">
          <Node pos="l" depth="2" NCoef="0" IVar="-1" Cut="0.0000000000000000e+00" cType="1" res="-4.2431191541254520e-03" rms="4.4661039113998413e-01" purity="3.0642309784889221e-01" nType="-99"/>
          <Node pos="r" depth="2" NCoef="0" IVar="-1" Cut="0.0000000000000000e+00" cType="1" res="-9.3405070947483182e-04" rms="4.6803051233291626e-01" purity="6.0880810022354126e-01" nType="-99"/>
        </Node>
        <Node pos="r" depth="1" NCoef="0" IVar="3" Cut="5.8621191978454590e-01" cType="1" res="-2.7421577833592892e-03" rms="4.7035381197929382e-01" purity="5.2654647827148438e-01" nType="0">
          <Node pos="l" depth="2" NCoef="0" IVar="-1" Cut="0.0000000000000000e+00" cType="1" res="-5.7127391919493675e-03" rms="4.7783234715461731e-01" purity="4.4344088435173035e-01" nType="-99"/>
          <Node pos="r" depth="2" NCoef="0" IVar="-1" Cut="0.0000000000000000e+00" cType="1" res="3.5302125615999103e-04" rms="4.6876269578933716e-01" purity="5.3383612632751465e-01" nType="-99"/>
        </Node>
      </Node>
    </BinaryTree>
    <BinaryTree type="DecisionTree" boostWeight="1.0000000000000000e+00" itree="157">
      <Node pos="s" depth="0" NCoef="0" IVar="0" Cut="1.5355914831161499e-01" cType="1" res="-6.4095010748133063e-04" rms="4.6539351344108582e-01" purity="5.0454628467559814e-01" nType="0">
        <Node pos="l" depth="1" NCoef="0" IVar="6" Cut="5.6531534194946289e+00" cType="1" res="-1.2729066424071789e-02" rms="4.6730071306228638e-01" purity="4.7648698091506958e-01" nType="0">
          <Node pos="l" depth="2" NCoef="0" IVar="-1" Cut="0.0000000000000000e+00" cType="1" res="-1.1972085339948535e-03" rms="4.7218263149261475e-01" purity="4.4841948151588440e-01" nType="-99"/>
          <Node pos="r" depth="2" NCoef="0" IVar="-1" Cut="0.0000000000000000e+00" cType="1" res="5.5645490065217018e-03" rms="4.0179666876792908e-01" purity="7.8021031618118286e-01" nType="-99"/>
        </Node>
        <Node pos="r" depth="1" NCoef="0" IVar="5" Cut="5.8862878417968750e+02" cType="1" res="5.2766926586627960e-02" rms="4.5302742719650269e-01" purity="6.2851822376251221e-01" nType="0">
          <Node pos="l" depth="2" NCoef="0" IVar="-1" Cut="0.0000000000000000e+00" cType="1" res="5.5693433387205005e-04" rms="4.7382000088691711e-01" purity="5.3584676980972290e-01" nType="-99"/>
          <Node pos="r" depth="2" NCoef="0" IVar="-1" Cut="0.0000000000000000e+00" cType="1" res="6.5676807425916195e-03" rms="4.2981809377670288e-01" purity="7.1130710840225220e-01" nType="-99"/>
        </Node>
      </Node>
    </BinaryTree>
    <BinaryTree type="DecisionTree" boostWeight="1.0000000000000000e+00" itree="158">
      <Node pos="s" depth="0" NCoef="0" IVar="3" Cut="2.1827261447906494e+00" cType="1" res="4.2339606443420053e-04" rms="4.7088140249252319e-01" purity="5.0405174493789673e-01" nType="0">
        <Node pos="l" depth="1" NCoef="0" IVar="5" Cut="4.5885208129882812e+02" cType="1" res="6.8620964884757996e-03" rms="4.7298958897590637e-01" purity="5.2338784933090210e-01" nType="0">
          <Node pos="l" depth="2" NCoef="0" IVar="-1" Cut="0.0000000000000000e+00" cType="1" res="-3.9423252455890179e-03" rms="4.6051555871963501e-01" purity="3.5472151637077332e-01" nType="-99"/>
          <Node pos="r" depth="2" NCoef="0" IVar="-1" Cut="0.0000000000000000e+00" cType="1" res="8.2095706602558494e-04" rms="4.7346013784408569e-01" purity="5.3726154565811157e-01" nType="-99"/>
        </Node>
        <Node pos="r" depth="1" NCoef="0" IVar="-1" Cut="0.0000000000000000e+00" cType="1" res="-4.2320396751165390e-03" rms="4.3991369009017944e-01" purity="2.8582978248596191e-01" nType="-99"/>
      </Node>
    </BinaryTree>
    <BinaryTree type="DecisionTree" boostWeight="1.0000000000000000e+00" itree="159">
      <Node pos="s" depth="0" NCoef="0" IVar="3" Cut="5.8603984117507935e-01" cType="1" res="4.6638930216431618e-03" rms="4.6797630190849304e-01" purity="5.0650775432586670e-01" nType="0">
        <Node pos="l" depth="1" NCoef="0" IVar="-1" Cut="0.0000000000000000e+00" cType="1" res="-4.3206810951232910e-03" rms="4.8221755027770996e-01" purity="4.5567339658737183e-01" nType="-99"/>
        <Node pos="r" depth="1" NCoef="0" IVar="0" Cut="2.2090461850166321e-01" cType="1" res="1.0242191143333912e-02" rms="4.6643695235252380e-01" purity="5.1017308235168457e-01" nType="0">
          <Node pos="l" depth="2" NCoef="0" IVar="-1" Cut="0.0000000000000000e+00" cType="1" res="3.0869693728163838e-04" rms="4.6768260002136230e-01" purity="4.9958625435829163e-01" nType="-99"/>
          <Node pos="r" depth="2" NCoef="0" IVar="-1" Cut="0.0000000000000000e+00" cType="1" res="6.6194739192724228e-03" rms="4.3777364492416382e-01" purity="6.7830491065979004e-01" nType="-99"/>
        </Node>
      </Node>
    </BinaryTree>
    <BinaryTree type="DecisionTree" boostWeight="1.0000000000000000e+00" itree="160">
      <Node pos="s" depth="0" NCoef="0" IVar="3" Cut="1.7554416656494141e+00" cType="1" res="-5.6154802441596985e-03" rms="4.6357053518295288e-01" purity="4.9606871604919434e-01" nType="0">
        <Node pos="l" depth="1" NCoef="0" IVar="5" Cut="5.0450689697265625e+02" cType="1" res="7.9952878877520561e-03" rms="4.6636870503425598e-01" purity="5.3346443176269531e-01" nType="0">
          <Node pos="l" depth="2" NCoef="0" IVar="-1" Cut="0.0000000000000000e+00" cType="1" res="-3.5357065498828888e-03" rms="4.5744103193283081e-01" purity="3.7935245037078857e-01" nType="-99"/>
          <Node pos="r" depth="2" NCoef="0" IVar="-1" Cut="0.0000000000000000e+00" cType="1" res="1.2226514518260956e-03" rms="4.6688246726989746e-01" purity="5.5931419134140015e-01" nType="-99"/>
        </Node>
        <Node pos="r" depth="1" NCoef="0" IVar="4" Cut="6.2941783107817173e-04" cType="1" res="-5.1037527620792389e-02" rms="4.5114561915397644e-01" purity="3.7127098441123962e-01" nType="0">
          <Node pos="l" depth="2" NCoef="0" IVar="-1" Cut="0.0000000000000000e+00" cType="1" res="-5.5615841411054134e-03" rms="4.5674434304237366e-01" purity="4.0980941057205200e-01" nType="-99"/>
          <Node pos="r" depth="2" NCoef="0" IVar="-1" Cut="0.0000000000000000e+00" cType="1" res="-1.7640977166593075e-03" rms="4.4677355885505676e-01" purity="3.5152217745780945e-01" nType="-99"/>
        </Node>
      </Node>
    </BinaryTree>
    <BinaryTree type="DecisionTree" boostWeight="1.0000000000000000e+00" itree="161">
      <Node pos="s" depth="0" NCoef="0" IVar="5" Cut="5.3189099121093750e+02" cType="1" res="-6.0542090795934200e-04" rms="4.6703362464904785e-01" purity="5.0290131568908691e-01" nType="0">
        <Node pos="l" depth="1" NCoef="0" IVar="0" Cut="1.5920247137546539e-01" cType="1" res="-5.4142888635396957e-02" rms="4.4822224974632263e-01" purity="3.7948134541511536e-01" nType="0">
          <Node pos="l" depth="2" NCoef="0" IVar="-1" Cut="0.0000000000000000e+00" cType="1" res="-4.5601511374115944e-03" rms="4.3805599212646484e-01" purity="3.2695615291595459e-01" nType="-99"/>
          <Node pos="r" depth="2" NCoef="0" IVar="-1" Cut="0.0000000000000000e+00" cType="1" res="1.2724657426588237e-04" rms="4.6794083714485168e-01" purity="5.1056498289108276e-01" nType="-99"/>
        </Node>
        <Node pos="r" depth="1" NCoef="0" IVar="3" Cut="1.6505029201507568e+00" cType="1" res="1.2555899098515511e-02" rms="4.7061142325401306e-01" purity="5.3324222564697266e-01" nType="0">
          <Node pos="l" depth="2" NCoef="0" IVar="-1" Cut="0.0000000000000000e+00" cType="1" res="1.7454572953283787e-03" rms="4.7082167863845825e-01" purity="5.7604521512985229e-01" nType="-99"/>
          <Node pos="r" depth="2" NCoef="0" IVar="-1" Cut="0.0000000000000000e+00" cType="1" res="-1.4464836567640305e-03" rms="4.6811050176620483e-01" purity="4.2767915129661560e-01" nType="-99"/>
        </Node>
      </Node>
    </BinaryTree>
    <BinaryTree type="DecisionTree" boostWeight="1.0000000000000000e+00" itree="162">
      <Node pos="s" depth="0" NCoef="0" IVar="5" Cut="5.1900659179687500e+02" cType="1" res="-2.4256352335214615e-03" rms="4.6404394507408142e-01" purity="4.9916857481002808e-01" nType="0">
        <Node pos="l" depth="1" NCoef="0" IVar="5" Cut="4.4349200439453125e+02" cType="1" res="-5.6143213063478470e-02" rms="4.4912618398666382e-01" purity="3.5951626300811768e-01" nType="0">
          <Node pos="l" depth="2" NCoef="0" IVar="-1" Cut="0.0000000000000000e+00" cType="1" res="-6.5846298821270466e-03" rms="4.1636034846305847e-01" purity="2.6408836245536804e-01" nType="-99"/>
          <Node pos="r" depth="2" NCoef="0" IVar="-1" Cut="0.0000000000000000e+00" cType="1" res="-1.3809110969305038e-03" rms="4.6354755759239197e-01" purity="4.1401824355125427e-01" nType="-99"/>
        </Node>
        <Node pos="r" depth="1" NCoef="0" IVar="0" Cut="7.8656241297721863e-02" cType="1" res="8.9311534538865089e-03" rms="4.6634510159492493e-01" purity="5.2869343757629395e-01" nType="0">
          <Node pos="l" depth="2" NCoef="0" IVar="-1" Cut="0.0000000000000000e+00" cType="1" res="-8.0513878492638469e-04" rms="4.6740347146987915e-01" purity="4.6673876047134399e-01" nType="-99"/>
          <Node pos="r" depth="2" NCoef="0" IVar="-1" Cut="0.0000000000000000e+00" cType="1" res="2.3000375367701054e-03" rms="4.6372321248054504e-01" purity="6.0162144899368286e-01" nType="-99"/>
        </Node>
      </Node>
    </BinaryTree>
    <BinaryTree type="DecisionTree" boostWeight="1.0000000000000000e+00" itree="163">
      <Node pos="s" depth="0" NCoef="0" IVar="5" Cut="8.0302600097656250e+02" cType="1" res="-4.6379137784242630e-03" rms="4.7188910841941833e-01" purity="4.9907091259956360e-01" nType="0">
        <Node pos="l" depth="1" NCoef="0" IVar="0" Cut="9.1163679957389832e-02" cType="1" res="-2.7058633044362068e-02" rms="4.7098717093467712e-01" purity="4.5562180876731873e-01" nType="0">
          <Node pos="l" depth="2" NCoef="0" IVar="-1" Cut="0.0000000000000000e+00" cType="1" res="-3.0488518532365561e-03" rms="4.6553981304168701e-01" purity="3.8938161730766296e-01" nType="-99"/>
          <Node pos="r" depth="2" NCoef="0" IVar="-1" Cut="0.0000000000000000e+00" cType="1" res="-2.0861340453848243e-04" rms="4.7504034638404846e-01" purity="5.2022784948348999e-01" nType="-99"/>
        </Node>
        <Node pos="r" depth="1" NCoef="0" IVar="3" Cut="7.6239109039306641e-01" cType="1" res="3.9257258176803589e-02" rms="4.7056701779365540e-01" purity="5.8413535356521606e-01" nType="0">
          <Node pos="l" depth="2" NCoef="0" IVar="-1" Cut="0.0000000000000000e+00" cType="1" res="-2.6775919832289219e-03" rms="4.8134997487068176e-01" purity="5.2812421321868896e-01" nType="-99"/>
          <Node pos="r" depth="2" NCoef="0" IVar="-1" Cut="0.0000000000000000e+00" cType="1" res="4.1306391358375549e-03" rms="4.6473211050033569e-01" purity="6.0025894641876221e-01" nType="-99"/>
        </Node>
      </Node>
    </BinaryTree>
    <BinaryTree type="DecisionTree" boostWeight="1.0000000000000000e+00" itree="164">
      <Node pos="s" depth="0" NCoef="0" IVar="3" Cut="6.0037785768508911e-01" cType="1" res="2.4247721303254366e-03" rms="4.6920645236968994e-01" purity="5.0662386417388916e-01" nType="0">
        <Node pos="l" depth="1" NCoef="0" IVar="-1" Cut="0.0000000000000000e+00" cType="1" res="-4.4720200821757317e-03" rms="4.8216393589973450e-01" purity="4.6898195147514343e-01" nType="-99"/>
        <Node pos="r" depth="1" NCoef="0" IVar="1" Cut="1.9373751878738403e+00" cType="1" res="8.5216686129570007e-03" rms="4.6761727333068848e-01" purity="5.0963962078094482e-01" nType="0">
          <Node pos="l" depth="2" NCoef="0" IVar="-1" Cut="0.0000000000000000e+00" cType="1" res="1.1774420272558928e-03" rms="4.7019580006599426e-01" purity="5.4324328899383545e-01" nType="-99"/>
          <Node pos="r" depth="2" NCoef="0" IVar="-1" Cut="0.0000000000000000e+00" cType="1" res="-2.2840786259621382e-03" rms="4.5217403769493103e-01" purity="3.5067215561866760e-01" nType="-99"/>
        </Node>
      </Node>
    </BinaryTree>
    <BinaryTree type="DecisionTree" boostWeight="1.0000000000000000e+00" itree="165">
      <Node pos="s" depth="0" NCoef="0" IVar="6" Cut="1.9013682603836060e+00" cType="1" res="1.4278347371146083e-03" rms="4.6231409907341003e-01" purity="5.1073682308197021e-01" nType="0">
        <Node pos="l" depth="1" NCoef="0" IVar="-1" Cut="0.0000000000000000e+00" cType="1" res="-4.7128880396485329e-03" rms="4.2338004708290100e-01" purity="2.5131866335868835e-01" nType="-99"/>
        <Node pos="r" depth="1" NCoef="0" IVar="0" Cut="4.0576968342065811e-02" cType="1" res="8.8146850466728210e-03" rms="4.6521946787834167e-01" purity="5.3568828105926514e-01" nType="0">
          <Node pos="l" depth="2" NCoef="0" IVar="-1" Cut="0.0000000000000000e+00" cType="1" res="-2.1738864015787840e-03" rms="4.6254247426986694e-01" purity="4.3124812841415405e-01" nType="-99"/>
          <Node pos="r" depth="2" NCoef="0" IVar="-1" Cut="0.0000000000000000e+00" cType="1" res="1.3851579278707504e-03" rms="4.6514225006103516e-01" purity="5.6463778018951416e-01" nType="-99"/>
        </Node>
      </Node>
    </BinaryTree>
    <BinaryTree type="DecisionTree" boostWeight="1.0000000000000000e+00" itree="166">
      <Node pos="s" depth="0" NCoef="0" IVar="5" Cut="7.7005767822265625e+02" cType="1" res="-4.0325978770852089e-03" rms="4.6246805787086487e-01" purity="4.9586346745491028e-01" nType="0">
        <Node pos="l" depth="1" NCoef="0" IVar="6" Cut="4.7471561431884766e+00" cType="1" res="-2.3275688290596008e-02" rms="4.6084797382354736e-01" purity="4.5401346683502197e-01" nType="0">
          <Node pos="l" depth="2" NCoef="0" IVar="-1" Cut="0.0000000000000000e+00" cType="1" res="-2.1684728562831879e-03" rms="4.6525555849075317e-01" purity="3.9459776878356934e-01" nType="-99"/>
          <Node pos="r" depth="2" NCoef="0" IVar="-1" Cut="0.0000000000000000e+00" cType="1" res="2.4697680491954088e-03" rms="4.3727949261665344e-01" purity="7.0274198055267334e-01" nType="-99"/>
        </Node>
        <Node pos="r" depth="1" NCoef="0" IVar="2" Cut="5.8838951587677002e-01" cType="1" res="2.5355048477649689e-02" rms="4.6339181065559387e-01" purity="5.5977594852447510e-01" nType="0">
          <Node pos="l" depth="2" NCoef="0" IVar="-1" Cut="0.0000000000000000e+00" cType="1" res="-9.9197216331958771e-04" rms="4.7570303082466125e-01" purity="4.5668283104896545e-01" nType="-99"/>
          <Node pos="r" depth="2" NCoef="0" IVar="-1" Cut="0.0000000000000000e+00" cType="1" res="4.1373837739229202e-03" rms="4.4944152235984802e-01" purity="6.4789289236068726e-01" nType="-99"/>
        </Node>
      </Node>
    </BinaryTree>
    <BinaryTree type="DecisionTree" boostWeight="1.0000000000000000e+00" itree="167">
      <Node pos="s" depth="0" NCoef="0" IVar="1" Cut="2.5024151802062988e+00" cType="1" res="2.7808507438749075e-03" rms="4.6321597695350647e-01" purity="5.0645989179611206e-01" nType="0">
        <Node pos="l" depth="1" NCoef="0" IVar="6" Cut="2.0383086204528809e+00" cType="1" res="1.1010026559233665e-02" rms="4.6626302599906921e-01" purity="5.2666360139846802e-01" nType="0">
          <Node pos="l" depth="2" NCoef="0" IVar="-1" Cut="0.0000000000000000e+00" cType="1" res="-3.7202632520347834e-03" rms="4.3218174576759338e-01" purity="2.6485800743103027e-01" nType="-99"/>
          <Node pos="r" depth="2" NCoef="0" IVar="-1" Cut="0.0000000000000000e+00" cType="1" res="1.2736502103507519e-03" rms="4.6962273120880127e-01" purity="5.5991733074188232e-01" nType="-99"/>
        </Node>
        <Node pos="r" depth="1" NCoef="0" IVar="-1" Cut="0.0000000000000000e+00" cType="1" res="-5.0372760742902756e-03" rms="4.1857910156250000e-01" purity="2.8759807348251343e-01" nType="-99"/>
      </Node>
    </BinaryTree>
    <BinaryTree type="DecisionTree" boostWeight="1.0000000000000000e+00" itree="168">
      <Node pos="s" depth="0" NCoef="0" IVar="1" Cut="1.4551938772201538e+00" cType="1" res="-2.4274634197354317e-03" rms="4.6225160360336304e-01" purity="4.9977040290832520e-01" nType="0">
        <Node pos="l" depth="1" NCoef="0" IVar="3" Cut="6.3667380809783936e-01" cType="1" res="1.6657432541251183e-02" rms="4.6534579992294312e-01" purity="5.5598348379135132e-01" nType="0">
          <Node pos="l" depth="2" NCoef="0" IVar="-1" Cut="0.0000000000000000e+00" cType="1" res="-2.6463938411325216e-03" rms="4.7391137480735779e-01" purity="5.1210922002792358e-01" nType="-99"/>
          <Node pos="r" depth="2" NCoef="0" IVar="-1" Cut="0.0000000000000000e+00" cType="1" res="1.5051927184686065e-03" rms="4.6385633945465088e-01" purity="5.6104981899261475e-01" nType="-99"/>
        </Node>
        <Node pos="r" depth="1" NCoef="0" IVar="5" Cut="9.1255761718750000e+02" cType="1" res="-4.8014771193265915e-02" rms="4.5152238011360168e-01" purity="3.6549666523933411e-01" nType="0">
          <Node pos="l" depth="2" NCoef="0" IVar="-1" Cut="0.0000000000000000e+00" cType="1" res="-3.7836390547454357e-03" rms="4.4322258234024048e-01" purity="3.4132286906242371e-01" nType="-99"/>
          <Node pos="r" depth="2" NCoef="0" IVar="-1" Cut="0.0000000000000000e+00" cType="1" res="1.2189435074105859e-03" rms="4.8082861304283142e-01" purity="4.7328174114227295e-01" nType="-99"/>
        </Node>
      </Node>
    </BinaryTree>
    <BinaryTree type="DecisionTree" boostWeight="1.0000000000000000e+00" itree="169">
      <Node pos="s" depth="0" NCoef="0" IVar="4" Cut="3.3294458407908678e-03" cType="1" res="-3.3084240276366472e-03" rms="4.6455702185630798e-01" purity="5.0066578388214111e-01" nType="0">
        <Node pos="l" depth="1" NCoef="0" IVar="5" Cut="4.8218228149414062e+02" cType="1" res="3.4890673123300076e-03" rms="4.6374186873435974e-01" purity="5.1442575454711914e-01" nType="0">
          <Node pos="l" depth="2" NCoef="0" IVar="-1" Cut="0.0000000000000000e+00" cType="1" res="-3.3146599307656288e-03" rms="4.5742237567901611e-01" purity="3.6096486449241638e-01" nType="-99"/>
          <Node pos="r" depth="2" NCoef="0" IVar="-1" Cut="0.0000000000000000e+00" cType="1" res="7.1862124605104327e-04" rms="4.6400424838066101e-01" purity="5.3467988967895508e-01" nType="-99"/>
        </Node>
        <Node pos="r" depth="1" NCoef="0" IVar="-1" Cut="0.0000000000000000e+00" cType="1" res="-4.1088317520916462e-03" rms="4.6706724166870117e-01" purity="3.5475760698318481e-01" nType="-99"/>
      </Node>
    </BinaryTree>
    <BinaryTree type="DecisionTree" boostWeight="1.0000000000000000e+00" itree="170">
      <Node pos="s" depth="0" NCoef="0" IVar="0" Cut="5.6992944329977036e-02" cType="1" res="7.3292534798383713e-03" rms="4.6793949604034424e-01" purity="5.1266038417816162e-01" nType="0">
        <Node pos="l" depth="1" NCoef="0" IVar="2" Cut="4.1698002815246582e-01" cType="1" res="-3.4282777458429337e-02" rms="4.6528875827789307e-01" purity="4.2507088184356689e-01" nType="0">
          <Node pos="l" depth="2" NCoef="0" IVar="-1" Cut="0.0000000000000000e+00" cType="1" res="8.4040092770010233e-04" rms="4.7054603695869446e-01" purity="4.2350989580154419e-01" nType="-99"/>
          <Node pos="r" depth="2" NCoef="0" IVar="-1" Cut="0.0000000000000000e+00" cType="1" res="-2.8565255925059319e-03" rms="4.6276700496673584e-01" purity="4.2553219199180603e-01" nType="-99"/>
        </Node>
        <Node pos="r" depth="1" NCoef="0" IVar="5" Cut="5.5427618408203125e+02" cType="1" res="3.0322564765810966e-02" rms="4.6781277656555176e-01" purity="5.6105917692184448e-01" nType="0">
          <Node pos="l" depth="2" NCoef="0" IVar="-1" Cut="0.0000000000000000e+00" cType="1" res="-7.7369908103719354e-04" rms="4.7120067477226257e-01" purity="4.4120231270790100e-01" nType="-99"/>
          <Node pos="r" depth="2" NCoef="0" IVar="-1" Cut="0.0000000000000000e+00" cType="1" res="3.1254715286195278e-03" rms="4.6533146500587463e-01" purity="6.0914969444274902e-01" nType="-99"/>
        </Node>
      </Node>
    </BinaryTree>
    <BinaryTree type="DecisionTree" boostWeight="1.0000000000000000e+00" itree="171">
      <Node pos="s" depth="0" NCoef="0" IVar="0" Cut="4.1985981166362762e-02" cType="1" res="-5.4303617216646671e-03" rms="4.6751809120178223e-01" purity="4.9842408299446106e-01" nType="0">
        <Node pos="l" depth="1" NCoef="0" IVar="3" Cut="8.3985668420791626e-01" cType="1" res="-3.8001347333192825e-02" rms="4.7089996933937073e-01" purity="4.1242796182632446e-01" nType="0">
          <Node pos="l" depth="2" NCoef="0" IVar="-1" Cut="0.0000000000000000e+00" cType="1" res="-6.0395761393010616e-03" rms="4.7286218404769897e-01" purity="3.7794524431228638e-01" nType="-99"/>
          <Node pos="r" depth="2" NCoef="0" IVar="-1" Cut="0.0000000000000000e+00" cType="1" res="-7.0676597533747554e-04" rms="4.6746239066123962e-01" purity="4.2516601085662842e-01" nType="-99"/>
        </Node>
        <Node pos="r" depth="1" NCoef="0" IVar="3" Cut="1.2301634550094604e+00" cType="1" res="4.5580579899251461e-03" rms="4.6602022647857666e-01" purity="5.2479618787765503e-01" nType="0">
          <Node pos="l" depth="2" NCoef="0" IVar="-1" Cut="0.0000000000000000e+00" cType="1" res="2.3135540541261435e-03" rms="4.6125832200050354e-01" purity="5.8760684728622437e-01" nType="-99"/>
          <Node pos="r" depth="2" NCoef="0" IVar="-1" Cut="0.0000000000000000e+00" cType="1" res="-1.2842591386288404e-03" rms="4.6836867928504944e-01" purity="4.7330498695373535e-01" nType="-99"/>
        </Node>
      </Node>
    </BinaryTree>
    <BinaryTree type="DecisionTree" boostWeight="1.0000000000000000e+00" itree="172">
      <Node pos="s" depth="0" NCoef="0" IVar="6" Cut="5.7612638473510742e+00" cType="1" res="6.4259613864123821e-03" rms="4.6747767925262451e-01" purity="5.1225322484970093e-01" nType="0">
        <Node pos="l" depth="1" NCoef="0" IVar="6" Cut="5.0865278244018555e+00" cType="1" res="-1.3625160790979862e-03" rms="4.7403031587600708e-01" purity="4.8558786511421204e-01" nType="0">
          <Node pos="l" depth="2" NCoef="0" IVar="-1" Cut="0.0000000000000000e+00" cType="1" res="3.6684851511381567e-04" rms="4.7364032268524170e-01" purity="4.7279316186904907e-01" nType="-99"/>
          <Node pos="r" depth="2" NCoef="0" IVar="-1" Cut="0.0000000000000000e+00" cType="1" res="-4.5880386605858803e-03" rms="4.7234585881233215e-01" purity="6.0017824172973633e-01" nType="-99"/>
        </Node>
        <Node pos="r" depth="1" NCoef="0" IVar="-1" Cut="0.0000000000000000e+00" cType="1" res="8.5516897961497307e-03" rms="3.6723750829696655e-01" purity="8.3285117149353027e-01" nType="-99"/>
      </Node>
    </BinaryTree>
    <BinaryTree type="DecisionTree" boostWeight="1.0000000000000000e+00" itree="173">
      <Node pos="s" depth="0" NCoef="0" IVar="3" Cut="1.7477498054504395e+00" cType="1" res="-6.5165837295353413e-03" rms="4.6626919507980347e-01" purity="4.9680864810943604e-01" nType="0">
        <Node pos="l" depth="1" NCoef="0" IVar="5" Cut="7.0577038574218750e+02" cType="1" res="4.9829664640128613e-03" rms="4.6950474381446838e-01" purity="5.3356343507766724e-01" nType="0">
          <Node pos="l" depth="2" NCoef="0" IVar="-1" Cut="0.0000000000000000e+00" cType="1" res="-9.9539139773696661e-04" rms="4.6930614113807678e-01" purity="4.8144182562828064e-01" nType="-99"/>
          <Node pos="r" depth="2" NCoef="0" IVar="-1" Cut="0.0000000000000000e+00" cType="1" res="1.6866421792656183e-03" rms="4.6872901916503906e-01" purity="5.8630251884460449e-01" nType="-99"/>
        </Node>
        <Node pos="r" depth="1" NCoef="0" IVar="6" Cut="4.4597711563110352e+00" cType="1" res="-4.3578960001468658e-02" rms="4.5370569825172424e-01" purity="3.7835043668746948e-01" nType="0">
          <Node pos="l" depth="2" NCoef="0" IVar="-1" Cut="0.0000000000000000e+00" cType="1" res="-3.5539742093533278e-03" rms="4.4109016656875610e-01" purity="2.9690027236938477e-01" nType="-99"/>
          <Node pos="r" depth="2" NCoef="0" IVar="-1" Cut="0.0000000000000000e+00" cType="1" res="-2.5749832275323570e-04" rms="4.8090520501136780e-01" purity="5.7757347822189331e-01" nType="-99"/>
        </Node>
      </Node>
    </BinaryTree>
    <BinaryTree type="DecisionTree" boostWeight="1.0000000000000000e+00" itree="174">
      <Node pos="s" depth="0" NCoef="0" IVar="1" Cut="2.0767366886138916e+00" cType="1" res="-7.4823838076554239e-05" rms="4.6507331728935242e-01" purity="5.0472027063369751e-01" nType="0">
        <Node pos="l" depth="1" NCoef="0" IVar="3" Cut="5.8797812461853027e-01" cType="1" res="8.7106572464108467e-03" rms="4.6775645017623901e-01" purity="5.3543943166732788e-01" nType="0">
          <Node pos="l" depth="2" NCoef="0" IVar="-1" Cut="0.0000000000000000e+00" cType="1" res="-4.5076948590576649e-03" rms="4.7474819421768188e-01" purity="4.8534590005874634e-01" nType="-99"/>
          <Node pos="r" depth="2" NCoef="0" IVar="-1" Cut="0.0000000000000000e+00" cType="1" res="9.6123811090365052e-04" rms="4.6656239032745361e-01" purity="5.3956115245819092e-01" nType="-99"/>
        </Node>
        <Node pos="r" depth="1" NCoef="0" IVar="4" Cut="9.9562632385641336e-04" cType="1" res="-5.2269909530878067e-02" rms="4.4524192810058594e-01" purity="3.2221549749374390e-01" nType="0">
          <Node pos="l" depth="2" NCoef="0" IVar="-1" Cut="0.0000000000000000e+00" cType="1" res="-1.3844468630850315e-03" rms="4.6902671456336975e-01" purity="4.2327988147735596e-01" nType="-99"/>
          <Node pos="r" depth="2" NCoef="0" IVar="-1" Cut="0.0000000000000000e+00" cType="1" res="-4.4503449462354183e-03" rms="4.2588967084884644e-01" purity="2.4898700416088104e-01" nType="-99"/>
        </Node>
      </Node>
    </BinaryTree>
    <BinaryTree type="DecisionTree" boostWeight="1.0000000000000000e+00" itree="175">
      <Node pos="s" depth="0" NCoef="0" IVar="4" Cut="1.5818171668797731e-03" cType="1" res="-1.2999368831515312e-02" rms="4.6484857797622681e-01" purity="4.8929381370544434e-01" nType="0">
        <Node pos="l" depth="1" NCoef="0" IVar="1" Cut="5.5413752794265747e-01" cType="1" res="6.0618310235440731e-03" rms="4.6591195464134216e-01" purity="5.5693519115447998e-01" nType="0">
          <Node pos="l" depth="2" NCoef="0" IVar="-1" Cut="0.0000000000000000e+00" cType="1" res="3.0388522427529097e-03" rms="4.4753259420394897e-01" purity="6.6045814752578735e-01" nType="-99"/>
          <Node pos="r" depth="2" NCoef="0" IVar="-1" Cut="0.0000000000000000e+00" cType="1" res="-4.3788662878796458e-04" rms="4.7145527601242065e-01" purity="5.2088803052902222e-01" nType="-99"/>
        </Node>
        <Node pos="r" depth="1" NCoef="0" IVar="4" Cut="3.0707709956914186e-03" cType="1" res="-4.1892826557159424e-02" rms="4.6173405647277832e-01" purity="3.8676115870475769e-01" nType="0">
          <Node pos="l" depth="2" NCoef="0" IVar="-1" Cut="0.0000000000000000e+00" cType="1" res="-3.2973634079098701e-03" rms="4.5592701435089111e-01" purity="3.7805449962615967e-01" nType="-99"/>
          <Node pos="r" depth="2" NCoef="0" IVar="-1" Cut="0.0000000000000000e+00" cType="1" res="-4.5873122871853411e-04" rms="4.7265031933784485e-01" purity="4.0618106722831726e-01" nType="-99"/>
        </Node>
      </Node>
    </BinaryTree>
    <BinaryTree type="DecisionTree" boostWeight="1.0000000000000000e+00" itree="176">
      <Node pos="s" depth="0" NCoef="0" IVar="2" Cut="8.4551769495010376e-01" cType="1" res="4.1317767463624477e-03" rms="4.6905416250228882e-01" purity="5.0680506229400635e-01" nType="0">
        <Node pos="l" depth="1" NCoef="0" IVar="3" Cut="2.0775005817413330e+00" cType="1" res="-1.3164019910618663e-03" rms="4.7104346752166748e-01" purity="4.9317967891693115e-01" nType="0">
          <Node pos="l" depth="2" NCoef="0" IVar="-1" Cut="0.0000000000000000e+00" cType="1" res="3.0707320547662675e-04" rms="4.7368299961090088e-01" purity="5.1472055912017822e-01" nType="-99"/>
          <Node pos="r" depth="2" NCoef="0" IVar="-1" Cut="0.0000000000000000e+00" cType="1" res="-3.2800345215946436e-03" rms="4.4430440664291382e-01" purity="3.0935773253440857e-01" nType="-99"/>
        </Node>
        <Node pos="r" depth="1" NCoef="0" IVar="-1" Cut="0.0000000000000000e+00" cType="1" res="8.3980681374669075e-03" rms="4.1633754968643188e-01" purity="7.6506948471069336e-01" nType="-99"/>
      </Node>
    </BinaryTree>
    <BinaryTree type="DecisionTree" boostWeight="1.0000000000000000e+00" itree="177">
      <Node pos="s" depth="0" NCoef="0" IVar="2" Cut="4.1471591591835022e-01" cType="1" res="1.9979472272098064e-03" rms="4.6812474727630615e-01" purity="5.0381112098693848e-01" nType="0">
        <Node pos="l" depth="1" NCoef="0" IVar="-1" Cut="0.0000000000000000e+00" cType="1" res="-3.8870682474225760e-03" rms="4.4622316956520081e-01" purity="3.4195566177368164e-01" nType="-99"/>
        <Node pos="r" depth="1" NCoef="0" IVar="3" Cut="1.6174880266189575e+00" cType="1" res="9.8682036623358727e-03" rms="4.6991023421287537e-01" purity="5.2224445343017578e-01" nType="0">
          <Node pos="l" depth="2" NCoef="0" IVar="-1" Cut="0.0000000000000000e+00" cType="1" res="1.4869589358568192e-03" rms="4.6836128830909729e-01" purity="5.6209605932235718e-01" nType="-99"/>
          <Node pos="r" depth="2" NCoef="0" IVar="-1" Cut="0.0000000000000000e+00" cType="1" res="-1.2541081523522735e-03" rms="4.7203856706619263e-01" purity="4.3030026555061340e-01" nType="-99"/>
        </Node>
      </Node>
    </BinaryTree>
    <BinaryTree type="DecisionTree" boostWeight="1.0000000000000000e+00" itree="178">
      <Node pos="s" depth="0" NCoef="0" IVar="3" Cut="1.4545230865478516e+00" cType="1" res="-2.6382212527096272e-03" rms="4.6645313501358032e-01" purity="5.0018596649169922e-01" nType="0">
        <Node pos="l" depth="1" NCoef="0" IVar="5" Cut="5.5404901123046875e+02" cType="1" res="1.7184520140290260e-02" rms="4.6698233485221863e-01" purity="5.4861122369766235e-01" nType="0">
          <Node pos="l" depth="2" NCoef="0" IVar="-1" Cut="0.0000000000000000e+00" cType="1" res="-1.9465684890747070e-03" rms="4.6441316604614258e-01" purity="4.2789965867996216e-01" nType="-99"/>
          <Node pos="r" depth="2" NCoef="0" IVar="-1" Cut="0.0000000000000000e+00" cType="1" res="1.9538616761565208e-03" rms="4.6679344773292542e-01" purity="5.8089560270309448e-01" nType="-99"/>
        </Node>
        <Node pos="r" depth="1" NCoef="0" IVar="1" Cut="6.3113135099411011e-01" cType="1" res="-3.1947541981935501e-02" rms="4.6412077546119690e-01" purity="4.2858582735061646e-01" nType="0">
          <Node pos="l" depth="2" NCoef="0" IVar="-1" Cut="0.0000000000000000e+00" cType="1" res="8.0485147191211581e-04" rms="4.7941675782203674e-01" purity="5.4742485284805298e-01" nType="-99"/>
          <Node pos="r" depth="2" NCoef="0" IVar="-1" Cut="0.0000000000000000e+00" cType="1" res="-2.7704758103936911e-03" rms="4.5810079574584961e-01" purity="3.8996788859367371e-01" nType="-99"/>
        </Node>
      </Node>
    </BinaryTree>
    <BinaryTree type="DecisionTree" boostWeight="1.0000000000000000e+00" itree="179">
      <Node pos="s" depth="0" NCoef="0" IVar="1" Cut="1.4069730043411255e+00" cType="1" res="-6.4037772826850414e-03" rms="4.6589905023574829e-01" purity="4.8966458439826965e-01" nType="0">
        <Node pos="l" depth="1" NCoef="0" IVar="1" Cut="1.2465425729751587e+00" cType="1" res="6.3582081347703934e-03" rms="4.6790322661399841e-01" purity="5.4549044370651245e-01" nType="0">
          <Node pos="l" depth="2" NCoef="0" IVar="-1" Cut="0.0000000000000000e+00" cType="1" res="-1.4425111658056267e-05" rms="4.6835228800773621e-01" purity="5.4299002885818481e-01" nType="-99"/>
          <Node pos="r" depth="2" NCoef="0" IVar="-1" Cut="0.0000000000000000e+00" cType="1" res="4.8058521933853626e-03" rms="4.5761999487876892e-01" purity="5.7150018215179443e-01" nType="-99"/>
        </Node>
        <Node pos="r" depth="1" NCoef="0" IVar="4" Cut="1.7601954750716686e-03" cType="1" res="-3.2533563673496246e-02" rms="4.6066677570343018e-01" purity="3.7536287307739258e-01" nType="0">
          <Node pos="l" depth="2" NCoef="0" IVar="-1" Cut="0.0000000000000000e+00" cType="1" res="-7.8814529115334153e-04" rms="4.7469794750213623e-01" purity="4.3555724620819092e-01" nType="-99"/>
          <Node pos="r" depth="2" NCoef="0" IVar="-1" Cut="0.0000000000000000e+00" cType="1" res="-3.7262896075844765e-03" rms="4.3420973420143127e-01" purity="2.7448308467864990e-01" nType="-99"/>
        </Node>
      </Node>
    </BinaryTree>
    <BinaryTree type="DecisionTree" boostWeight="1.0000000000000000e+00" itree="180">
      <Node pos="s" depth="0" NCoef="0" IVar="0" Cut="6.5994262695312500e-02" cType="1" res="-1.0105877183377743e-02" rms="4.7052377462387085e-01" purity="4.8933339118957520e-01" nType="0">
        <Node pos="l" depth="1" NCoef="0" IVar="4" Cut="2.6321129407733679e-03" cType="1" res="-3.4933935850858688e-02" rms="4.6866694092750549e-01" purity="4.1743445396423340e-01" nType="0">
          <Node pos="l" depth="2" NCoef="0" IVar="-1" Cut="0.0000000000000000e+00" cType="1" res="-8.5954903624951839e-04" rms="4.7677692770957947e-01" purity="4.5899671316146851e-01" nType="-99"/>
          <Node pos="r" depth="2" NCoef="0" IVar="-1" Cut="0.0000000000000000e+00" cType="1" res="-6.1697904020547867e-03" rms="4.2877143621444702e-01" purity="2.6436200737953186e-01" nType="-99"/>
        </Node>
        <Node pos="r" depth="1" NCoef="0" IVar="2" Cut="5.1872026920318604e-01" cType="1" res="6.9907819852232933e-03" rms="4.7103789448738098e-01" purity="5.3884321451187134e-01" nType="0">
          <Node pos="l" depth="2" NCoef="0" IVar="-1" Cut="0.0000000000000000e+00" cType="1" res="5.2258386276662350e-03" rms="4.7228148579597473e-01" purity="5.1163518428802490e-01" nType="-99"/>
          <Node pos="r" depth="2" NCoef="0" IVar="-1" Cut="0.0000000000000000e+00" cType="1" res="-3.4876228892244399e-04" rms="4.6965444087982178e-01" purity="5.4327780008316040e-01" nType="-99"/>
        </Node>
      </Node>
    </BinaryTree>
    <BinaryTree type="DecisionTree" boostWeight="1.0000000000000000e+00" itree="181">
      <Node pos="s" depth="0" NCoef="0" IVar="0" Cut="1.8298964202404022e-01" cType="1" res="5.6936303153634071e-03" rms="4.6920606493949890e-01" purity="5.1534128189086914e-01" nType="0">
        <Node pos="l" depth="1" NCoef="0" IVar="4" Cut="2.5174003094434738e-03" cType="1" res="-1.1232519755139947e-03" rms="4.7149425745010376e-01" purity="4.9578407406806946e-01" nType="0">
          <Node pos="l" depth="2" NCoef="0" IVar="-1" Cut="0.0000000000000000e+00" cType="1" res="5.3712376393377781e-04" rms="4.7393891215324402e-01" purity="5.2807003259658813e-01" nType="-99"/>
          <Node pos="r" depth="2" NCoef="0" IVar="-1" Cut="0.0000000000000000e+00" cType="1" res="-2.0967838354408741e-03" rms="4.6052408218383789e-01" purity="3.7564796209335327e-01" nType="-99"/>
        </Node>
        <Node pos="r" depth="1" NCoef="0" IVar="1" Cut="8.5713344812393188e-01" cType="1" res="5.4739765822887421e-02" rms="4.4936364889144897e-01" purity="6.5605157613754272e-01" nType="0">
          <Node pos="l" depth="2" NCoef="0" IVar="-1" Cut="0.0000000000000000e+00" cType="1" res="1.4462765539065003e-03" rms="4.5138758420944214e-01" purity="6.6309928894042969e-01" nType="-99"/>
          <Node pos="r" depth="2" NCoef="0" IVar="-1" Cut="0.0000000000000000e+00" cType="1" res="6.6725565120577812e-03" rms="4.4288128614425659e-01" purity="6.4705002307891846e-01" nType="-99"/>
        </Node>
      </Node>
    </BinaryTree>
    <BinaryTree type="DecisionTree" boostWeight="1.0000000000000000e+00" itree="182">
      <Node pos="s" depth="0" NCoef="0" IVar="2" Cut="8.5208415985107422e-01" cType="1" res="-9.3065779656171799e-03" rms="4.6469089388847351e-01" purity="4.9367719888687134e-01" nType="0">
        <Node pos="l" depth="1" NCoef="0" IVar="4" Cut="1.6212480841204524e-04" cType="1" res="-1.4015787281095982e-02" rms="4.6630114316940308e-01" purity="4.8113262653350830e-01" nType="0">
          <Node pos="l" depth="2" NCoef="0" IVar="-1" Cut="0.0000000000000000e+00" cType="1" res="2.5693692732602358e-03" rms="4.4817802309989929e-01" purity="6.6403901576995850e-01" nType="-99"/>
          <Node pos="r" depth="2" NCoef="0" IVar="-1" Cut="0.0000000000000000e+00" cType="1" res="-1.3706600293517113e-03" rms="4.6890142560005188e-01" purity="4.4853770732879639e-01" nType="-99"/>
        </Node>
        <Node pos="r" depth="1" NCoef="0" IVar="-1" Cut="0.0000000000000000e+00" cType="1" res="5.9701586142182350e-03" rms="4.2316669225692749e-01" purity="7.3179602622985840e-01" nType="-99"/>
      </Node>
    </BinaryTree>
    <BinaryTree type="DecisionTree" boostWeight="1.0000000000000000e+00" itree="183">
      <Node pos="s" depth="0" NCoef="0" IVar="1" Cut="9.3929797410964966e-01" cType="1" res="-2.4776835925877094e-03" rms="4.6943333745002747e-01" purity="5.0467222929000854e-01" nType="0">
        <Node pos="l" depth="1" NCoef="0" IVar="2" Cut="6.7947852611541748e-01" cType="1" res="1.3745171017944813e-02" rms="4.7146025300025940e-01" purity="5.7556605339050293e-01" nType="0">
          <Node pos="l" depth="2" NCoef="0" IVar="-1" Cut="0.0000000000000000e+00" cType="1" res="2.4369396269321442e-03" rms="4.7236606478691101e-01" purity="5.5722063779830933e-01" nType="-99"/>
          <Node pos="r" depth="2" NCoef="0" IVar="-1" Cut="0.0000000000000000e+00" cType="1" res="-1.4690653188154101e-03" rms="4.6790856122970581e-01" purity="6.0116219520568848e-01" nType="-99"/>
        </Node>
        <Node pos="r" depth="1" NCoef="0" IVar="6" Cut="4.9478039741516113e+00" cType="1" res="-1.7756728455424309e-02" rms="4.6700125932693481e-01" purity="4.3790280818939209e-01" nType="0">
          <Node pos="l" depth="2" NCoef="0" IVar="-1" Cut="0.0000000000000000e+00" cType="1" res="-1.7610050272196531e-03" rms="4.7103068232536316e-01" purity="3.8585582375526428e-01" nType="-99"/>
          <Node pos="r" depth="2" NCoef="0" IVar="-1" Cut="0.0000000000000000e+00" cType="1" res="2.7424949221313000e-03" rms="4.4287541508674622e-01" purity="6.8363672494888306e-01" nType="-99"/>
        </Node>
      </Node>
    </BinaryTree>
    <BinaryTree type="DecisionTree" boostWeight="1.0000000000000000e+00" itree="184">
      <Node pos="s" depth="0" NCoef="0" IVar="0" Cut="1.8931086361408234e-01" cType="1" res="-6.7932568490505219e-03" rms="4.6975582838058472e-01" purity="4.9606338143348694e-01" nType="0">
        <Node pos="l" depth="1" NCoef="0" IVar="2" Cut="5.7673144340515137e-01" cType="1" res="-1.2655057944357395e-02" rms="4.7003391385078430e-01" purity="4.8045763373374939e-01" nType="0">
          <Node pos="l" depth="2" NCoef="0" IVar="-1" Cut="0.0000000000000000e+00" cType="1" res="7.3428568430244923e-04" rms="4.6362370252609253e-01" purity="4.3749877810478210e-01" nType="-99"/>
          <Node pos="r" depth="2" NCoef="0" IVar="-1" Cut="0.0000000000000000e+00" cType="1" res="-2.2043350618332624e-03" rms="4.7465786337852478e-01" purity="5.1936036348342896e-01" nType="-99"/>
        </Node>
        <Node pos="r" depth="1" NCoef="0" IVar="5" Cut="5.7817071533203125e+02" cType="1" res="4.4047083705663681e-02" rms="4.6424263715744019e-01" purity="6.3141447305679321e-01" nType="0">
          <Node pos="l" depth="2" NCoef="0" IVar="-1" Cut="0.0000000000000000e+00" cType="1" res="5.3035020828247070e-03" rms="4.6989771723747253e-01" purity="6.1904168128967285e-01" nType="-99"/>
          <Node pos="r" depth="2" NCoef="0" IVar="-1" Cut="0.0000000000000000e+00" cType="1" res="6.0272804694250226e-04" rms="4.5567509531974792e-01" purity="6.4404398202896118e-01" nType="-99"/>
        </Node>
      </Node>
    </BinaryTree>
    <BinaryTree type="DecisionTree" boostWeight="1.0000000000000000e+00" itree="185">
      <Node pos="s" depth="0" NCoef="0" IVar="6" Cut="5.2775626182556152e+00" cType="1" res="-5.1113055087625980e-03" rms="4.6578732132911682e-01" purity="4.9732270836830139e-01" nType="0">
        <Node pos="l" depth="1" NCoef="0" IVar="5" Cut="8.3338836669921875e+02" cType="1" res="-1.3231997378170490e-02" rms="4.7302380204200745e-01" purity="4.5800349116325378e-01" nType="0">
          <Node pos="l" depth="2" NCoef="0" IVar="-1" Cut="0.0000000000000000e+00" cType="1" res="-1.5692244051024318e-03" rms="4.6998247504234314e-01" purity="4.2840212583541870e-01" nType="-99"/>
          <Node pos="r" depth="2" NCoef="0" IVar="-1" Cut="0.0000000000000000e+00" cType="1" res="1.0037564206868410e-03" rms="4.7856676578521729e-01" purity="5.2543175220489502e-01" nType="-99"/>
        </Node>
        <Node pos="r" depth="1" NCoef="0" IVar="0" Cut="9.4126924872398376e-02" cType="1" res="5.0192713737487793e-02" rms="4.0888062119483948e-01" purity="7.6509660482406616e-01" nType="0">
          <Node pos="l" depth="2" NCoef="0" IVar="-1" Cut="0.0000000000000000e+00" cType="1" res="7.4932060670107603e-04" rms="4.5122617483139038e-01" purity="6.8943005800247192e-01" nType="-99"/>
          <Node pos="r" depth="2" NCoef="0" IVar="-1" Cut="0.0000000000000000e+00" cType="1" res="9.5565570518374443e-03" rms="3.3946484327316284e-01" purity="8.6330115795135498e-01" nType="-99"/>
        </Node>
      </Node>
    </BinaryTree>
    <BinaryTree type="DecisionTree" boostWeight="1.0000000000000000e+00" itree="186">
      <Node pos="s" depth="0" NCoef="0" IVar="6" Cut="2.3915514945983887e+00" cType="1" res="1.2063128873705864e-02" rms="4.6260276436805725e-01" purity="5.1583421230316162e-01" nType="0">
        <Node pos="l" depth="1" NCoef="0" IVar="3" Cut="1.1017897129058838e+00" cType="1" res="-3.3188860863447189e-02" rms="4.4521749019622803e-01" purity="2.9440852999687195e-01" nType="0">
          <Node pos="l" depth="2" NCoef="0" IVar="-1" Cut="0.0000000000000000e+00" cType="1" res="2.6688457001000643e-04" rms="4.6648958325386047e-01" purity="3.5384735465049744e-01" nType="-99"/>
          <Node pos="r" depth="2" NCoef="0" IVar="-1" Cut="0.0000000000000000e+00" cType="1" res="-3.4440413583070040e-03" rms="4.3093451857566833e-01" purity="2.6000830531120300e-01" nType="-99"/>
        </Node>
        <Node pos="r" depth="1" NCoef="0" IVar="0" Cut="8.0618254840373993e-02" cType="1" res="2.2262433543801308e-02" rms="4.6582505106925964e-01" purity="5.6574118137359619e-01" nType="0">
          <Node pos="l" depth="2" NCoef="0" IVar="-1" Cut="0.0000000000000000e+00" cType="1" res="1.5143981727305800e-04" rms="4.7637355327606201e-01" purity="5.0218647718429565e-01" nType="-99"/>
          <Node pos="r" depth="2" NCoef="0" IVar="-1" Cut="0.0000000000000000e+00" cType="1" res="2.8314141090959311e-03" rms="4.5394790172576904e-01" purity="6.3047444820404053e-01" nType="-99"/>
        </Node>
      </Node>
    </BinaryTree>
    <BinaryTree type="DecisionTree" boostWeight="1.0000000000000000e+00" itree="187">
      <Node pos="s" depth="0" NCoef="0" IVar="0" Cut="1.8613472580909729e-01" cType="1" res="-7.3593447450548410e-04" rms="4.6448844671249390e-01" purity="5.0479668378829956e-01" nType="0">
        <Node pos="l" depth="1" NCoef="0" IVar="6" Cut="2.0605604648590088e+00" cType="1" res="-1.0019398294389248e-02" rms="4.6613392233848572e-01" purity="4.8412933945655823e-01" nType="0">
          <Node pos="l" depth="2" NCoef="0" IVar="-1" Cut="0.0000000000000000e+00" cType="1" res="-4.4556790962815285e-03" rms="4.2020586133003235e-01" purity="2.4076272547245026e-01" nType="-99"/>
          <Node pos="r" depth="2" NCoef="0" IVar="-1" Cut="0.0000000000000000e+00" cType="1" res="-7.3060000431723893e-05" rms="4.7166731953620911e-01" purity="5.1888763904571533e-01" nType="-99"/>
        </Node>
        <Node pos="r" depth="1" NCoef="0" IVar="0" Cut="2.2198991477489471e-01" cType="1" res="8.1156723201274872e-02" rms="4.4133251905441284e-01" purity="6.8711018562316895e-01" nType="0">
          <Node pos="l" depth="2" NCoef="0" IVar="-1" Cut="0.0000000000000000e+00" cType="1" res="9.4331838190555573e-03" rms="4.1981086134910583e-01" purity="7.2555124759674072e-01" nType="-99"/>
          <Node pos="r" depth="2" NCoef="0" IVar="-1" Cut="0.0000000000000000e+00" cType="1" res="2.5754238013178110e-03" rms="4.5705047249794006e-01" purity="6.4969259500503540e-01" nType="-99"/>
        </Node>
      </Node>
    </BinaryTree>
    <BinaryTree type="DecisionTree" boostWeight="1.0000000000000000e+00" itree="188">
      <Node pos="s" depth="0" NCoef="0" IVar="6" Cut="5.6033668518066406e+00" cType="1" res="-1.3808797812089324e-03" rms="4.6767851710319519e-01" purity="5.0246989727020264e-01" nType="0">
        <Node pos="l" depth="1" NCoef="0" IVar="4" Cut="1.1265652719885111e-03" cType="1" res="-7.3831398040056229e-03" rms="4.7402167320251465e-01" purity="4.7346225380897522e-01" nType="0">
          <Node pos="l" depth="2" NCoef="0" IVar="-1" Cut="0.0000000000000000e+00" cType="1" res="-1.4824430691078305e-03" rms="4.7420769929885864e-01" purity="5.0958985090255737e-01" nType="-99"/>
          <Node pos="r" depth="2" NCoef="0" IVar="-1" Cut="0.0000000000000000e+00" cType="1" res="3.7181633524596691e-04" rms="4.7343534231185913e-01" purity="4.4294178485870361e-01" nType="-99"/>
        </Node>
        <Node pos="r" depth="1" NCoef="0" IVar="-1" Cut="0.0000000000000000e+00" cType="1" res="5.0169280730187893e-03" rms="3.9245700836181641e-01" purity="7.9687112569808960e-01" nType="-99"/>
      </Node>
    </BinaryTree>
    <BinaryTree type="DecisionTree" boostWeight="1.0000000000000000e+00" itree="189">
      <Node pos="s" depth="0" NCoef="0" IVar="6" Cut="1.8405436277389526e+00" cType="1" res="-6.4253797754645348e-03" rms="4.6595457196235657e-01" purity="4.9599316716194153e-01" nType="0">
        <Node pos="l" depth="1" NCoef="0" IVar="-1" Cut="0.0000000000000000e+00" cType="1" res="-4.5716171152889729e-03" rms="4.1956201195716858e-01" purity="2.4212458729743958e-01" nType="-99"/>
        <Node pos="r" depth="1" NCoef="0" IVar="4" Cut="2.4129534722305834e-04" cType="1" res="-5.3018023027107120e-04" rms="4.6945354342460632e-01" purity="5.1882201433181763e-01" nType="0">
          <Node pos="l" depth="2" NCoef="0" IVar="-1" Cut="0.0000000000000000e+00" cType="1" res="2.8335982933640480e-03" rms="4.5133498311042786e-01" purity="6.6950368881225586e-01" nType="-99"/>
          <Node pos="r" depth="2" NCoef="0" IVar="-1" Cut="0.0000000000000000e+00" cType="1" res="-6.3018582295626402e-04" rms="4.7347158193588257e-01" purity="4.8016700148582458e-01" nType="-99"/>
        </Node>
      </Node>
    </BinaryTree>
    <BinaryTree type="DecisionTree" boostWeight="1.0000000000000000e+00" itree="190">
      <Node pos="s" depth="0" NCoef="0" IVar="0" Cut="1.6231910884380341e-01" cType="1" res="-8.5450168699026108e-03" rms="4.6059870719909668e-01" purity="4.9349993467330933e-01" nType="0">
        <Node pos="l" depth="1" NCoef="0" IVar="5" Cut="6.2085662841796875e+02" cType="1" res="-1.9553024321794510e-02" rms="4.6189102530479431e-01" purity="4.6709197759628296e-01" nType="0">
          <Node pos="l" depth="2" NCoef="0" IVar="-1" Cut="0.0000000000000000e+00" cType="1" res="-2.9216881375759840e-03" rms="4.4767677783966064e-01" purity="3.7386018037796021e-01" nType="-99"/>
          <Node pos="r" depth="2" NCoef="0" IVar="-1" Cut="0.0000000000000000e+00" cType="1" res="-3.3242561039514840e-04" rms="4.6811276674270630e-01" purity="5.1319479942321777e-01" nType="-99"/>
        </Node>
        <Node pos="r" depth="1" NCoef="0" IVar="1" Cut="7.5934177637100220e-01" cType="1" res="4.9781642854213715e-02" rms="4.4921094179153442e-01" purity="6.3342404365539551e-01" nType="0">
          <Node pos="l" depth="2" NCoef="0" IVar="-1" Cut="0.0000000000000000e+00" cType="1" res="6.9360616616904736e-03" rms="4.3237558007240295e-01" purity="7.2419071197509766e-01" nType="-99"/>
          <Node pos="r" depth="2" NCoef="0" IVar="-1" Cut="0.0000000000000000e+00" cType="1" res="8.9886150090023875e-04" rms="4.5927992463111877e-01" purity="5.5979168415069580e-01" nType="-99"/>
        </Node>
      </Node>
    </BinaryTree>
    <BinaryTree type="DecisionTree" boostWeight="1.0000000000000000e+00" itree="191">
      <Node pos="s" depth="0" NCoef="0" IVar="5" Cut="8.1390368652343750e+02" cType="1" res="-2.3798085749149323e-03" rms="4.6538257598876953e-01" purity="5.0090688467025757e-01" nType="0">
        <Node pos="l" depth="1" NCoef="0" IVar="4" Cut="3.2548999297432601e-04" cType="1" res="-1.5949100255966187e-02" rms="4.6247351169586182e-01" purity="4.6819865703582764e-01" nType="0">
          <Node pos="l" depth="2" NCoef="0" IVar="-1" Cut="0.0000000000000000e+00" cType="1" res="2.1174498833715916e-03" rms="4.5617496967315674e-01" purity="6.3068419694900513e-01" nType="-99"/>
          <Node pos="r" depth="2" NCoef="0" IVar="-1" Cut="0.0000000000000000e+00" cType="1" res="-1.7622457817196846e-03" rms="4.6346598863601685e-01" purity="4.1970399022102356e-01" nType="-99"/>
        </Node>
        <Node pos="r" depth="1" NCoef="0" IVar="0" Cut="4.4460404664278030e-02" cType="1" res="2.4502279236912727e-02" rms="4.6993711590766907e-01" purity="5.6570506095886230e-01" nType="0">
          <Node pos="l" depth="2" NCoef="0" IVar="-1" Cut="0.0000000000000000e+00" cType="1" res="-7.9117005225270987e-04" rms="4.8105123639106750e-01" purity="4.7426527738571167e-01" nType="-99"/>
          <Node pos="r" depth="2" NCoef="0" IVar="-1" Cut="0.0000000000000000e+00" cType="1" res="3.2209912315011024e-03" rms="4.6113464236259460e-01" purity="6.2355953454971313e-01" nType="-99"/>
        </Node>
      </Node>
    </BinaryTree>
    <BinaryTree type="DecisionTree" boostWeight="1.0000000000000000e+00" itree="192">
      <Node pos="s" depth="0" NCoef="0" IVar="0" Cut="8.2208789885044098e-02" cType="1" res="-8.2292398437857628e-03" rms="4.6609273552894592e-01" purity="4.9640360474586487e-01" nType="0">
        <Node pos="l" depth="1" NCoef="0" IVar="5" Cut="7.3903967285156250e+02" cType="1" res="-2.5537099689245224e-02" rms="4.6623799204826355e-01" purity="4.3853634595870972e-01" nType="0">
          <Node pos="l" depth="2" NCoef="0" IVar="-1" Cut="0.0000000000000000e+00" cType="1" res="-3.3051210921257734e-03" rms="4.5767694711685181e-01" purity="3.6141195893287659e-01" nType="-99"/>
          <Node pos="r" depth="2" NCoef="0" IVar="-1" Cut="0.0000000000000000e+00" cType="1" res="-3.5176370147382841e-05" rms="4.7172099351882935e-01" purity="5.0212329626083374e-01" nType="-99"/>
        </Node>
        <Node pos="r" depth="1" NCoef="0" IVar="5" Cut="8.6271893310546875e+02" cType="1" res="9.9417958408594131e-03" rms="4.6524786949157715e-01" purity="5.5715680122375488e-01" nType="0">
          <Node pos="l" depth="2" NCoef="0" IVar="-1" Cut="0.0000000000000000e+00" cType="1" res="-2.9915891354903579e-04" rms="4.6840336918830872e-01" purity="5.2756434679031372e-01" nType="-99"/>
          <Node pos="r" depth="2" NCoef="0" IVar="-1" Cut="0.0000000000000000e+00" cType="1" res="5.9605273418128490e-03" rms="4.4258090853691101e-01" purity="7.0164924860000610e-01" nType="-99"/>
        </Node>
      </Node>
    </BinaryTree>
    <BinaryTree type="DecisionTree" boostWeight="1.0000000000000000e+00" itree="193">
      <Node pos="s" depth="0" NCoef="0" IVar="6" Cut="4.0295209884643555e+00" cType="1" res="-1.0978203266859055e-02" rms="4.6944051980972290e-01" purity="4.9136820435523987e-01" nType="0">
        <Node pos="l" depth="1" NCoef="0" IVar="5" Cut="8.6825054931640625e+02" cType="1" res="1.0413562413305044e-03" rms="4.7053661942481995e-01" purity="4.1191440820693970e-01" nType="0">
          <Node pos="l" depth="2" NCoef="0" IVar="-1" Cut="0.0000000000000000e+00" cType="1" res="-7.6192821143195033e-04" rms="4.6657511591911316e-01" purity="3.8785541057586670e-01" nType="-99"/>
          <Node pos="r" depth="2" NCoef="0" IVar="-1" Cut="0.0000000000000000e+00" cType="1" res="2.5497653987258673e-03" rms="4.7986048460006714e-01" purity="4.8422342538833618e-01" nType="-99"/>
        </Node>
        <Node pos="r" depth="1" NCoef="0" IVar="3" Cut="1.6401187181472778e+00" cType="1" res="-2.9975259676575661e-02" rms="4.6707254648208618e-01" purity="6.1694592237472534e-01" nType="0">
          <Node pos="l" depth="2" NCoef="0" IVar="-1" Cut="0.0000000000000000e+00" cType="1" res="-8.4806652739644051e-04" rms="4.6073219180107117e-01" purity="6.6325479745864868e-01" nType="-99"/>
          <Node pos="r" depth="2" NCoef="0" IVar="-1" Cut="0.0000000000000000e+00" cType="1" res="-4.7833262942731380e-03" rms="4.8091152310371399e-01" purity="4.8650440573692322e-01" nType="-99"/>
        </Node>
      </Node>
    </BinaryTree>
    <BinaryTree type="DecisionTree" boostWeight="1.0000000000000000e+00" itree="194">
      <Node pos="s" depth="0" NCoef="0" IVar="5" Cut="7.6307702636718750e+02" cType="1" res="3.5009610000997782e-03" rms="4.6343809366226196e-01" purity="5.0616675615310669e-01" nType="0">
        <Node pos="l" depth="1" NCoef="0" IVar="4" Cut="1.5768385492265224e-04" cType="1" res="-1.8368290737271309e-02" rms="4.6164700388908386e-01" purity="4.5474097132682800e-01" nType="0">
          <Node pos="l" depth="2" NCoef="0" IVar="-1" Cut="0.0000000000000000e+00" cType="1" res="3.9003465790301561e-03" rms="4.3715968728065491e-01" purity="6.6067522764205933e-01" nType="-99"/>
          <Node pos="r" depth="2" NCoef="0" IVar="-1" Cut="0.0000000000000000e+00" cType="1" res="-1.8046451732516289e-03" rms="4.6448093652725220e-01" purity="4.2112883925437927e-01" nType="-99"/>
        </Node>
        <Node pos="r" depth="1" NCoef="0" IVar="4" Cut="9.5286627765744925e-04" cType="1" res="3.7074986845254898e-02" rms="4.6417355537414551e-01" purity="5.8511650562286377e-01" nType="0">
          <Node pos="l" depth="2" NCoef="0" IVar="-1" Cut="0.0000000000000000e+00" cType="1" res="4.5593865215778351e-03" rms="4.4442591071128845e-01" purity="6.7739063501358032e-01" nType="-99"/>
          <Node pos="r" depth="2" NCoef="0" IVar="-1" Cut="0.0000000000000000e+00" cType="1" res="9.0704171452671289e-04" rms="4.7864785790443420e-01" purity="5.0944507122039795e-01" nType="-99"/>
        </Node>
      </Node>
    </BinaryTree>
    <BinaryTree type="DecisionTree" boostWeight="1.0000000000000000e+00" itree="195">
      <Node pos="s" depth="0" NCoef="0" IVar="0" Cut="3.8211990147829056e-02" cType="1" res="-5.7469224557280540e-03" rms="4.6654546260833740e-01" purity="4.9916264414787292e-01" nType="0">
        <Node pos="l" depth="1" NCoef="0" IVar="5" Cut="1.0258374023437500e+03" cType="1" res="-5.7496849447488785e-02" rms="4.5993539690971375e-01" purity="3.8658589124679565e-01" nType="0">
          <Node pos="l" depth="2" NCoef="0" IVar="-1" Cut="0.0000000000000000e+00" cType="1" res="-4.8206546343863010e-03" rms="4.4852089881896973e-01" purity="3.3851361274719238e-01" nType="-99"/>
          <Node pos="r" depth="2" NCoef="0" IVar="-1" Cut="0.0000000000000000e+00" cType="1" res="5.3436961024999619e-04" rms="4.8071572184562683e-01" purity="5.0564134120941162e-01" nType="-99"/>
        </Node>
        <Node pos="r" depth="1" NCoef="0" IVar="4" Cut="8.0824691394809633e-05" cType="1" res="7.6209390535950661e-03" rms="4.6730732917785645e-01" purity="5.2824300527572632e-01" nType="0">
          <Node pos="l" depth="2" NCoef="0" IVar="-1" Cut="0.0000000000000000e+00" cType="1" res="5.1088822074234486e-03" rms="4.1644752025604248e-01" purity="7.4205219745635986e-01" nType="-99"/>
          <Node pos="r" depth="2" NCoef="0" IVar="-1" Cut="0.0000000000000000e+00" cType="1" res="6.0549118643393740e-05" rms="4.7234925627708435e-01" purity="5.0366652011871338e-01" nType="-99"/>
        </Node>
      </Node>
    </BinaryTree>
    <BinaryTree type="DecisionTree" boostWeight="1.0000000000000000e+00" itree="196">
      <Node pos="s" depth="0" NCoef="0" IVar="5" Cut="6.2735046386718750e+02" cType="1" res="-5.1480364054441452e-03" rms="4.6010798215866089e-01" purity="4.9580323696136475e-01" nType="0">
        <Node pos="l" depth="1" NCoef="0" IVar="0" Cut="8.6325436830520630e-02" cType="1" res="-3.6649513989686966e-02" rms="4.5497599244117737e-01" purity="4.1636022925376892e-01" nType="0">
          <Node pos="l" depth="2" NCoef="0" IVar="-1" Cut="0.0000000000000000e+00" cType="1" res="-4.8635252751410007e-03" rms="4.3037033081054688e-01" purity="3.0771338939666748e-01" nType="-99"/>
          <Node pos="r" depth="2" NCoef="0" IVar="-1" Cut="0.0000000000000000e+00" cType="1" res="-3.1137393671087921e-04" rms="4.6848431229591370e-01" purity="4.9089309573173523e-01" nType="-99"/>
        </Node>
        <Node pos="r" depth="1" NCoef="0" IVar="3" Cut="1.8107362985610962e+00" cType="1" res="1.4837165363132954e-02" rms="4.6222263574600220e-01" purity="5.4620355367660522e-01" nType="0">
          <Node pos="l" depth="2" NCoef="0" IVar="-1" Cut="0.0000000000000000e+00" cType="1" res="1.6202668193727732e-03" rms="4.6094819903373718e-01" purity="5.8104866743087769e-01" nType="-99"/>
          <Node pos="r" depth="2" NCoef="0" IVar="-1" Cut="0.0000000000000000e+00" cType="1" res="-1.7260636668652296e-03" rms="4.6506002545356750e-01" purity="3.9866372942924500e-01" nType="-99"/>
        </Node>
      </Node>
    </BinaryTree>
    <BinaryTree type="DecisionTree" boostWeight="1.0000000000000000e+00" itree="197">
      <Node pos="s" depth="0" NCoef="0" IVar="1" Cut="3.4656596183776855e-01" cType="1" res="-5.4363636299967766e-03" rms="4.6560403704643250e-01" purity="4.9234369397163391e-01" nType="0">
        <Node pos="l" depth="1" NCoef="0" IVar="0" Cut="1.0261797904968262e-01" cType="1" res="4.9579106271266937e-02" rms="4.4702002406120300e-01" purity="6.2508982419967651e-01" nType="0">
          <Node pos="l" depth="2" NCoef="0" IVar="-1" Cut="0.0000000000000000e+00" cType="1" res="7.0408219471573830e-04" rms="4.6096968650817871e-01" purity="5.5614936351776123e-01" nType="-99"/>
          <Node pos="r" depth="2" NCoef="0" IVar="-1" Cut="0.0000000000000000e+00" cType="1" res="7.3388251475989819e-03" rms="4.2300081253051758e-01" purity="7.1482455730438232e-01" nType="-99"/>
        </Node>
        <Node pos="r" depth="1" NCoef="0" IVar="5" Cut="1.2023508300781250e+03" cType="1" res="-1.3058056123554707e-02" rms="4.6761023998260498e-01" purity="4.7395336627960205e-01" nType="0">
          <Node pos="l" depth="2" NCoef="0" IVar="-1" Cut="0.0000000000000000e+00" cType="1" res="-1.2793138157576323e-03" rms="4.6550390124320984e-01" purity="4.6076205372810364e-01" nType="-99"/>
          <Node pos="r" depth="2" NCoef="0" IVar="-1" Cut="0.0000000000000000e+00" cType="1" res="4.5811291784048080e-03" rms="4.8208537697792053e-01" purity="6.1745417118072510e-01" nType="-99"/>
        </Node>
      </Node>
    </BinaryTree>
    <BinaryTree type="DecisionTree" boostWeight="1.0000000000000000e+00" itree="198">
      <Node pos="s" depth="0" NCoef="0" IVar="1" Cut="1.5881996154785156e+00" cType="1" res="-4.4730990193784237e-03" rms="4.6553313732147217e-01" purity="4.9996390938758850e-01" nType="0">
        <Node pos="l" depth="1" NCoef="0" IVar="1" Cut="4.4370537996292114e-01" cType="1" res="1.1292493902146816e-02" rms="4.7119092941284180e-01" purity="5.5689525604248047e-01" nType="0">
          <Node pos="l" depth="2" NCoef="0" IVar="-1" Cut="0.0000000000000000e+00" cType="1" res="-1.7733090789988637e-03" rms="4.7179701924324036e-01" purity="5.5484205484390259e-01" nType="-99"/>
          <Node pos="r" depth="2" NCoef="0" IVar="-1" Cut="0.0000000000000000e+00" cType="1" res="1.5939552104100585e-03" rms="4.7020316123962402e-01" purity="5.5762970447540283e-01" nType="-99"/>
        </Node>
        <Node pos="r" depth="1" NCoef="0" IVar="4" Cut="2.5055727455765009e-03" cType="1" res="-4.6788994222879410e-02" rms="4.4725638628005981e-01" purity="3.4715652465820312e-01" nType="0">
          <Node pos="l" depth="2" NCoef="0" IVar="-1" Cut="0.0000000000000000e+00" cType="1" res="-1.7510070465505123e-03" rms="4.5887017250061035e-01" purity="3.8105151057243347e-01" nType="-99"/>
          <Node pos="r" depth="2" NCoef="0" IVar="-1" Cut="0.0000000000000000e+00" cType="1" res="-6.1518712900578976e-03" rms="3.9765897393226624e-01" purity="2.2874999046325684e-01" nType="-99"/>
        </Node>
      </Node>
    </BinaryTree>
    <BinaryTree type="DecisionTree" boostWeight="1.0000000000000000e+00" itree="199">
      <Node pos="s" depth="0" NCoef="0" IVar="3" Cut="5.8218002319335938e-01" cType="1" res="-9.2529570683836937e-03" rms="4.6658867597579956e-01" purity="4.9337789416313171e-01" nType="0">
        <Node pos="l" depth="1" NCoef="0" IVar="-1" Cut="0.0000000000000000e+00" cType="1" res="-4.5117279514670372e-03" rms="4.8489633202552795e-01" purity="4.5017549395561218e-01" nType="-99"/>
        <Node pos="r" depth="1" NCoef="0" IVar="6" Cut="1.8729556798934937e+00" cType="1" res="-4.8408666625618935e-03" rms="4.6499568223953247e-01" purity="4.9629521369934082e-01" nType="0">
          <Node pos="l" depth="2" NCoef="0" IVar="-1" Cut="0.0000000000000000e+00" cType="1" res="-3.8906205445528030e-03" rms="4.2830950021743774e-01" purity="2.5783681869506836e-01" nType="-99"/>
          <Node pos="r" depth="2" NCoef="0" IVar="-1" Cut="0.0000000000000000e+00" cType="1" res="5.4625757911708206e-05" rms="4.6819964051246643e-01" purity="5.2061682939529419e-01" nType="-99"/>
        </Node>
      </Node>
    </BinaryTree>
    <BinaryTree type="DecisionTree" boostWeight="1.0000000000000000e+00" itree="200">
      <Node pos="s" depth="0" NCoef="0" IVar="6" Cut="1.9339352846145630e+00" cType="1" res="-6.3323159702122211e-03" rms="4.6491983532905579e-01" purity="4.9616140127182007e-01" nType="0">
        <Node pos="l" depth="1" NCoef="0" IVar="-1" Cut="0.0000000000000000e+00" cType="1" res="-4.1440799832344055e-03" rms="4.2275181412696838e-01" purity="2.4264813959598541e-01" nType="-99"/>
        <Node pos="r" depth="1" NCoef="0" IVar="5" Cut="5.6304119873046875e+02" cType="1" res="8.9923740597441792e-04" rms="4.6910110116004944e-01" purity="5.2597731351852417e-01" nType="0">
          <Node pos="l" depth="2" NCoef="0" IVar="-1" Cut="0.0000000000000000e+00" cType="1" res="-1.9028461538255215e-03" rms="4.6287646889686584e-01" purity="4.1551396250724792e-01" nType="-99"/>
          <Node pos="r" depth="2" NCoef="0" IVar="-1" Cut="0.0000000000000000e+00" cType="1" res="7.7222270192578435e-04" rms="4.7069513797760010e-01" purity="5.6393140554428101e-01" nType="-99"/>
        </Node>
      </Node>
    </BinaryTree>
    <BinaryTree type="DecisionTree" boostWeight="1.0000000000000000e+00" itree="201">
      <Node pos="s" depth="0" NCoef="0" IVar="5" Cut="5.3527276611328125e+02" cType="1" res="-1.4641268178820610e-02" rms="4.6645995974540710e-01" purity="4.8589444160461426e-01" nType="0">
        <Node pos="l" depth="1" NCoef="0" IVar="2" Cut="6.7276328802108765e-01" cType="1" res="-6.1906434595584869e-02" rms="4.5146542787551880e-01" purity="3.5711333155632019e-01" nType="0">
          <Node pos="l" depth="2" NCoef="0" IVar="-1" Cut="0.0000000000000000e+00" cType="1" res="-2.3248032666742802e-03" rms="4.4347146153450012e-01" purity="3.4001916646957397e-01" nType="-99"/>
          <Node pos="r" depth="2" NCoef="0" IVar="-1" Cut="0.0000000000000000e+00" cType="1" res="-7.0668179541826248e-03" rms="4.6466752886772156e-01" purity="3.9696177840232849e-01" nType="-99"/>
        </Node>
        <Node pos="r" depth="1" NCoef="0" IVar="4" Cut="1.8644399242475629e-03" cType="1" res="-2.2070973645895720e-03" rms="4.6953538060188293e-01" purity="5.1977324485778809e-01" nType="0">
          <Node pos="l" depth="2" NCoef="0" IVar="-1" Cut="0.0000000000000000e+00" cType="1" res="6.9082353729754686e-04" rms="4.6700692176818848e-01" purity="5.6936693191528320e-01" nType="-99"/>
          <Node pos="r" depth="2" NCoef="0" IVar="-1" Cut="0.0000000000000000e+00" cType="1" res="-1.5866332687437534e-03" rms="4.7352069616317749e-01" purity="4.2077887058258057e-01" nType="-99"/>
        </Node>
      </Node>
    </BinaryTree>
    <BinaryTree type="DecisionTree" boostWeight="1.0000000000000000e+00" itree="202">
      <Node pos="s" depth="0" NCoef="0" IVar="0" Cut="2.9522251337766647e-02" cType="1" res="-6.7964293994009495e-03" rms="4.6746110916137695e-01" purity="4.9595230817794800e-01" nType="0">
        <Node pos="l" depth="1" NCoef="0" IVar="1" Cut="1.0718866586685181e+00" cType="1" res="-5.6777805089950562e-02" rms="4.5750525593757629e-01" purity="3.6978247761726379e-01" nType="0">
          <Node pos="l" depth="2" NCoef="0" IVar="-1" Cut="0.0000000000000000e+00" cType="1" res="-6.5816583810374141e-04" rms="4.8241397738456726e-01" purity="4.7834980487823486e-01" nType="-99"/>
          <Node pos="r" depth="2" NCoef="0" IVar="-1" Cut="0.0000000000000000e+00" cType="1" res="-5.2526649087667465e-03" rms="4.3553665280342102e-01" purity="2.9097986221313477e-01" nType="-99"/>
        </Node>
        <Node pos="r" depth="1" NCoef="0" IVar="3" Cut="8.2180917263031006e-01" cType="1" res="9.6270977519452572e-04" rms="4.6850982308387756e-01" purity="5.1553899049758911e-01" nType="0">
          <Node pos="l" depth="2" NCoef="0" IVar="-1" Cut="0.0000000000000000e+00" cType="1" res="-1.8948162905871868e-03" rms="4.7386139631271362e-01" purity="5.1564013957977295e-01" nType="-99"/>
          <Node pos="r" depth="2" NCoef="0" IVar="-1" Cut="0.0000000000000000e+00" cType="1" res="5.1423825789242983e-04" rms="4.6698907017707825e-01" purity="5.1551586389541626e-01" nType="-99"/>
        </Node>
      </Node>
    </BinaryTree>
    <BinaryTree type="DecisionTree" boostWeight="1.0000000000000000e+00" itree="203">
      <Node pos="s" depth="0" NCoef="0" IVar="6" Cut="4.4882879257202148e+00" cType="1" res="2.4788985028862953e-03" rms="4.6464374661445618e-01" purity="4.9886527657508850e-01" nType="0">
        <Node pos="l" depth="1" NCoef="0" IVar="3" Cut="6.4136356115341187e-01" cType="1" res="-1.0935159400105476e-02" rms="4.7261220216751099e-01" purity="4.2121866345405579e-01" nType="0">
          <Node pos="l" depth="2" NCoef="0" IVar="-1" Cut="0.0000000000000000e+00" cType="1" res="3.7801144644618034e-03" rms="4.7716188430786133e-01" purity="5.1869785785675049e-01" nType="-99"/>
          <Node pos="r" depth="2" NCoef="0" IVar="-1" Cut="0.0000000000000000e+00" cType="1" res="-1.0442202910780907e-03" rms="4.7165998816490173e-01" purity="4.1234552860260010e-01" nType="-99"/>
        </Node>
        <Node pos="r" depth="1" NCoef="0" IVar="1" Cut="1.6532533168792725e+00" cType="1" res="3.9040222764015198e-02" rms="4.4012561440467834e-01" purity="7.1049869060516357e-01" nType="0">
          <Node pos="l" depth="2" NCoef="0" IVar="-1" Cut="0.0000000000000000e+00" cType="1" res="1.3369368389248848e-03" rms="4.3761697411537170e-01" purity="7.2041451930999756e-01" nType="-99"/>
          <Node pos="r" depth="2" NCoef="0" IVar="-1" Cut="0.0000000000000000e+00" cType="1" res="7.4361637234687805e-03" rms="4.4045680761337280e-01" purity="6.7482417821884155e-01" nType="-99"/>
        </Node>
      </Node>
    </BinaryTree>
    <BinaryTree type="DecisionTree" boostWeight="1.0000000000000000e+00" itree="204">
      <Node pos="s" depth="0" NCoef="0" IVar="4" Cut="3.0964042525738478e-03" cType="1" res="-7.1027752710506320e-04" rms="4.6506625413894653e-01" purity="4.9876359105110168e-01" nType="0">
        <Node pos="l" depth="1" NCoef="0" IVar="4" Cut="2.7409815229475498e-03" cType="1" res="7.4997232295572758e-03" rms="4.6731990575790405e-01" purity="5.2120804786682129e-01" nType="0">
          <Node pos="l" depth="2" NCoef="0" IVar="-1" Cut="0.0000000000000000e+00" cType="1" res="1.6792777751106769e-04" rms="4.6666646003723145e-01" purity="5.2358210086822510e-01" nType="-99"/>
          <Node pos="r" depth="2" NCoef="0" IVar="-1" Cut="0.0000000000000000e+00" cType="1" res="4.6738819219172001e-03" rms="4.7107583284378052e-01" purity="4.8605656623840332e-01" nType="-99"/>
        </Node>
        <Node pos="r" depth="1" NCoef="0" IVar="2" Cut="6.2352550029754639e-01" cType="1" res="-5.7846322655677795e-02" rms="4.4489279389381409e-01" purity="3.4256526827812195e-01" nType="0">
          <Node pos="l" depth="2" NCoef="0" IVar="-1" Cut="0.0000000000000000e+00" cType="1" res="-4.8148194327950478e-03" rms="4.1768702864646912e-01" purity="2.6060333847999573e-01" nType="-99"/>
          <Node pos="r" depth="2" NCoef="0" IVar="-1" Cut="0.0000000000000000e+00" cType="1" res="-1.1888665612787008e-03" rms="4.7664356231689453e-01" purity="4.5298722386360168e-01" nType="-99"/>
        </Node>
      </Node>
    </BinaryTree>
    <BinaryTree type="DecisionTree" boostWeight="1.0000000000000000e+00" itree="205">
      <Node pos="s" depth="0" NCoef="0" IVar="4" Cut="3.4294910728931427e-03" cType="1" res="-1.8903195450548083e-04" rms="4.6619865298271179e-01" purity="5.0112807750701904e-01" nType="0">
        <Node pos="l" depth="1" NCoef="0" IVar="0" Cut="2.1117174625396729e-01" cType="1" res="6.4498898573219776e-03" rms="4.6664878726005554e-01" purity="5.1696598529815674e-01" nType="0">
          <Node pos="l" depth="2" NCoef="0" IVar="-1" Cut="0.0000000000000000e+00" cType="1" res="8.2559075963217765e-05" rms="4.6781289577484131e-01" purity="5.0413668155670166e-01" nType="-99"/>
          <Node pos="r" depth="2" NCoef="0" IVar="-1" Cut="0.0000000000000000e+00" cType="1" res="5.4547069594264030e-03" rms="4.4453257322311401e-01" purity="6.9222962856292725e-01" nType="-99"/>
        </Node>
        <Node pos="r" depth="1" NCoef="0" IVar="-1" Cut="0.0000000000000000e+00" cType="1" res="-4.1882526129484177e-03" rms="4.5485743880271912e-01" purity="3.2681119441986084e-01" nType="-99"/>
      </Node>
    </BinaryTree>
    <BinaryTree type="DecisionTree" boostWeight="1.0000000000000000e+00" itree="206">
      <Node pos="s" depth="0" NCoef="0" IVar="0" Cut="1.8016201257705688e-01" cType="1" res="1.2331450125202537e-03" rms="4.6514204144477844e-01" purity="5.0125241279602051e-01" nType="0">
        <Node pos="l" depth="1" NCoef="0" IVar="6" Cut="3.0443413257598877e+00" cType="1" res="-5.9440843760967255e-03" rms="4.6646723151206970e-01" purity="4.8148164153099060e-01" nType="0">
          <Node pos="l" depth="2" NCoef="0" IVar="-1" Cut="0.0000000000000000e+00" cType="1" res="-1.6758471028879285e-03" rms="4.5614764094352722e-01" purity="3.1848752498626709e-01" nType="-99"/>
          <Node pos="r" depth="2" NCoef="0" IVar="-1" Cut="0.0000000000000000e+00" cType="1" res="4.0283479029312730e-04" rms="4.7172224521636963e-01" purity="5.7313901185989380e-01" nType="-99"/>
        </Node>
        <Node pos="r" depth="1" NCoef="0" IVar="1" Cut="7.2445744276046753e-01" cType="1" res="5.8077525347471237e-02" rms="4.5048880577087402e-01" purity="6.5783882141113281e-01" nType="0">
          <Node pos="l" depth="2" NCoef="0" IVar="-1" Cut="0.0000000000000000e+00" cType="1" res="2.6787270326167345e-03" rms="4.5173433423042297e-01" purity="6.8734240531921387e-01" nType="-99"/>
          <Node pos="r" depth="2" NCoef="0" IVar="-1" Cut="0.0000000000000000e+00" cType="1" res="5.3661577403545380e-03" rms="4.4858810305595398e-01" purity="6.3330924510955811e-01" nType="-99"/>
        </Node>
      </Node>
    </BinaryTree>
    <BinaryTree type="DecisionTree" boostWeight="1.0000000000000000e+00" itree="207">
      <Node pos="s" depth="0" NCoef="0" IVar="2" Cut="5.7019925117492676e-01" cType="1" res="1.7981673590838909e-03" rms="4.6672546863555908e-01" purity="5.0561964511871338e-01" nType="0">
        <Node pos="l" depth="1" NCoef="0" IVar="2" Cut="3.8089770078659058e-01" cType="1" res="2.5589892640709877e-02" rms="4.6446624398231506e-01" purity="4.5195668935775757e-01" nType="0">
          <Node pos="l" depth="2" NCoef="0" IVar="-1" Cut="0.0000000000000000e+00" cType="1" res="-3.5657768603414297e-03" rms="4.3698731064796448e-01" purity="3.3138051629066467e-01" nType="-99"/>
          <Node pos="r" depth="2" NCoef="0" IVar="-1" Cut="0.0000000000000000e+00" cType="1" res="2.3916203062981367e-03" rms="4.6706092357635498e-01" purity="4.6986073255538940e-01" nType="-99"/>
        </Node>
        <Node pos="r" depth="1" NCoef="0" IVar="4" Cut="8.0380428698845208e-05" cType="1" res="-1.5854261815547943e-02" rms="4.6761307120323181e-01" purity="5.4543524980545044e-01" nType="0">
          <Node pos="l" depth="2" NCoef="0" IVar="-1" Cut="0.0000000000000000e+00" cType="1" res="3.1369202770292759e-03" rms="4.0645447373390198e-01" purity="7.5214928388595581e-01" nType="-99"/>
          <Node pos="r" depth="2" NCoef="0" IVar="-1" Cut="0.0000000000000000e+00" cType="1" res="-1.3947674306109548e-03" rms="4.7432997822761536e-01" purity="5.1948410272598267e-01" nType="-99"/>
        </Node>
      </Node>
    </BinaryTree>
    <BinaryTree type="DecisionTree" boostWeight="1.0000000000000000e+00" itree="208">
      <Node pos="s" depth="0" NCoef="0" IVar="6" Cut="2.1062116622924805e+00" cType="1" res="-4.4354009442031384e-03" rms="4.6544784307479858e-01" purity="5.0136226415634155e-01" nType="0">
        <Node pos="l" depth="1" NCoef="0" IVar="5" Cut="7.0311456298828125e+02" cType="1" res="-4.8116080462932587e-02" rms="4.3412759900093079e-01" purity="2.6651382446289062e-01" nType="0">
          <Node pos="l" depth="2" NCoef="0" IVar="-1" Cut="0.0000000000000000e+00" cType="1" res="-4.6203979291021824e-03" rms="4.0530705451965332e-01" purity="2.1561223268508911e-01" nType="-99"/>
          <Node pos="r" depth="2" NCoef="0" IVar="-1" Cut="0.0000000000000000e+00" cType="1" res="-8.2993635442107916e-04" rms="4.6855223178863525e-01" purity="3.3626332879066467e-01" nType="-99"/>
        </Node>
        <Node pos="r" depth="1" NCoef="0" IVar="2" Cut="8.0883193016052246e-01" cType="1" res="1.8715090118348598e-03" rms="4.6946194767951965e-01" purity="5.3527122735977173e-01" nType="0">
          <Node pos="l" depth="2" NCoef="0" IVar="-1" Cut="0.0000000000000000e+00" cType="1" res="-2.9541770345531404e-04" rms="4.7363710403442383e-01" purity="5.1300704479217529e-01" nType="-99"/>
          <Node pos="r" depth="2" NCoef="0" IVar="-1" Cut="0.0000000000000000e+00" cType="1" res="4.8042386770248413e-03" rms="4.2462825775146484e-01" purity="7.3865985870361328e-01" nType="-99"/>
        </Node>
      </Node>
    </BinaryTree>
    <BinaryTree type="DecisionTree" boostWeight="1.0000000000000000e+00" itree="209">
      <Node pos="s" depth="0" NCoef="0" IVar="3" Cut="6.0478740930557251e-01" cType="1" res="-1.0038278996944427e-02" rms="4.6248072385787964e-01" purity="4.9210271239280701e-01" nType="0">
        <Node pos="l" depth="1" NCoef="0" IVar="-1" Cut="0.0000000000000000e+00" cType="1" res="4.1867350228130817e-03" rms="4.6321481466293335e-01" purity="5.9078389406204224e-01" nType="-99"/>
        <Node pos="r" depth="1" NCoef="0" IVar="1" Cut="2.1852724552154541e+00" cType="1" res="-1.5966830775141716e-02" rms="4.6190524101257324e-01" purity="4.8427179455757141e-01" nType="0">
          <Node pos="l" depth="2" NCoef="0" IVar="-1" Cut="0.0000000000000000e+00" cType="1" res="-5.3018057951703668e-04" rms="4.6760404109954834e-01" purity="5.1309573650360107e-01" nType="-99"/>
          <Node pos="r" depth="2" NCoef="0" IVar="-1" Cut="0.0000000000000000e+00" cType="1" res="-4.1018868796527386e-03" rms="4.1642224788665771e-01" purity="2.8427270054817200e-01" nType="-99"/>
        </Node>
      </Node>
    </BinaryTree>
    <BinaryTree type="DecisionTree" boostWeight="1.0000000000000000e+00" itree="210">
      <Node pos="s" depth="0" NCoef="0" IVar="3" Cut="2.2388734817504883e+00" cType="1" res="4.9603725783526897e-03" rms="4.6250832080841064e-01" purity="5.0510984659194946e-01" nType="0">
        <Node pos="l" depth="1" NCoef="0" IVar="2" Cut="3.9202862977981567e-01" cType="1" res="1.1307727545499802e-02" rms="4.6469068527221680e-01" purity="5.2369314432144165e-01" nType="0">
          <Node pos="l" depth="2" NCoef="0" IVar="-1" Cut="0.0000000000000000e+00" cType="1" res="-3.4852351527661085e-03" rms="4.6117475628852844e-01" purity="3.5896521806716919e-01" nType="-99"/>
          <Node pos="r" depth="2" NCoef="0" IVar="-1" Cut="0.0000000000000000e+00" cType="1" res="1.0633948259055614e-03" rms="4.6449768543243408e-01" purity="5.3619617223739624e-01" nType="-99"/>
        </Node>
        <Node pos="r" depth="1" NCoef="0" IVar="-1" Cut="0.0000000000000000e+00" cType="1" res="-5.1439735107123852e-03" rms="4.2143946886062622e-01" purity="2.4778412282466888e-01" nType="-99"/>
      </Node>
    </BinaryTree>
    <BinaryTree type="DecisionTree" boostWeight="1.0000000000000000e+00" itree="211">
      <Node pos="s" depth="0" NCoef="0" IVar="1" Cut="2.4440956115722656e+00" cType="1" res="-7.7182622626423836e-03" rms="4.6406927704811096e-01" purity="4.9141737818717957e-01" nType="0">
        <Node pos="l" depth="1" NCoef="0" IVar="2" Cut="6.0861039161682129e-01" cType="1" res="9.3166588339954615e-04" rms="4.6954327821731567e-01" purity="5.1635199785232544e-01" nType="0">
          <Node pos="l" depth="2" NCoef="0" IVar="-1" Cut="0.0000000000000000e+00" cType="1" res="1.2182079954072833e-03" rms="4.7231176495552063e-01" purity="4.7222214937210083e-01" nType="-99"/>
          <Node pos="r" depth="2" NCoef="0" IVar="-1" Cut="0.0000000000000000e+00" cType="1" res="-1.1058705858886242e-03" rms="4.6621417999267578e-01" purity="5.5783987045288086e-01" nType="-99"/>
        </Node>
        <Node pos="r" depth="1" NCoef="0" IVar="-1" Cut="0.0000000000000000e+00" cType="1" res="-5.6916270405054092e-03" rms="3.9414262771606445e-01" purity="2.3955225944519043e-01" nType="-99"/>
      </Node>
    </BinaryTree>
    <BinaryTree type="DecisionTree" boostWeight="1.0000000000000000e+00" itree="212">
      <Node pos="s" depth="0" NCoef="0" IVar="0" Cut="2.0448556542396545e-01" cType="1" res="-4.9335663206875324e-03" rms="4.6820780634880066e-01" purity="5.0041049718856812e-01" nType="0">
        <Node pos="l" depth="1" NCoef="0" IVar="2" Cut="7.3067265748977661e-01" cType="1" res="-1.0071576572954655e-02" rms="4.6997535228729248e-01" purity="4.8684677481651306e-01" nType="0">
          <Node pos="l" depth="2" NCoef="0" IVar="-1" Cut="0.0000000000000000e+00" cType="1" res="5.5343429266940802e-05" rms="4.6840554475784302e-01" purity="4.7002279758453369e-01" nType="-99"/>
          <Node pos="r" depth="2" NCoef="0" IVar="-1" Cut="0.0000000000000000e+00" cType="1" res="-3.6486634053289890e-03" rms="4.7370007634162903e-01" purity="5.5550056695938110e-01" nType="-99"/>
        </Node>
        <Node pos="r" depth="1" NCoef="0" IVar="-1" Cut="0.0000000000000000e+00" cType="1" res="3.6198724992573261e-03" rms="4.4441267848014832e-01" purity="6.4955192804336548e-01" nType="-99"/>
      </Node>
    </BinaryTree>
    <BinaryTree type="DecisionTree" boostWeight="1.0000000000000000e+00" itree="213">
      <Node pos="s" depth="0" NCoef="0" IVar="6" Cut="2.3543295860290527e+00" cType="1" res="-7.7963732182979584e-03" rms="4.6500635147094727e-01" purity="4.8834121227264404e-01" nType="0">
        <Node pos="l" depth="1" NCoef="0" IVar="4" Cut="2.6853247545659542e-03" cType="1" res="-4.5820053666830063e-02" rms="4.3527510762214661e-01" purity="2.6688742637634277e-01" nType="0">
          <Node pos="l" depth="2" NCoef="0" IVar="-1" Cut="0.0000000000000000e+00" cType="1" res="-4.1758762672543526e-03" rms="4.2746546864509583e-01" purity="2.5594791769981384e-01" nType="-99"/>
          <Node pos="r" depth="2" NCoef="0" IVar="-1" Cut="0.0000000000000000e+00" cType="1" res="-5.4980558343231678e-04" rms="4.4627240300178528e-01" purity="2.8616771101951599e-01" nType="-99"/>
        </Node>
        <Node pos="r" depth="1" NCoef="0" IVar="3" Cut="1.7695238590240479e+00" cType="1" res="1.1965342564508319e-03" rms="4.7131577134132385e-01" purity="5.4071682691574097e-01" nType="0">
          <Node pos="l" depth="2" NCoef="0" IVar="-1" Cut="0.0000000000000000e+00" cType="1" res="9.5484982011839747e-04" rms="4.7231695055961609e-01" purity="5.8405321836471558e-01" nType="-99"/>
          <Node pos="r" depth="2" NCoef="0" IVar="-1" Cut="0.0000000000000000e+00" cType="1" res="-2.6206797920167446e-03" rms="4.6500897407531738e-01" purity="3.9528185129165649e-01" nType="-99"/>
        </Node>
      </Node>
    </BinaryTree>
    <BinaryTree type="DecisionTree" boostWeight="1.0000000000000000e+00" itree="214">
      <Node pos="s" depth="0" NCoef="0" IVar="2" Cut="8.0369108915328979e-01" cType="1" res="2.0306482911109924e-03" rms="4.6465075016021729e-01" purity="5.0508224964141846e-01" nType="0">
        <Node pos="l" depth="1" NCoef="0" IVar="3" Cut="5.9313404560089111e-01" cType="1" res="-6.6450652666389942e-03" rms="4.6800860762596130e-01" purity="4.8052281141281128e-01" nType="0">
          <Node pos="l" depth="2" NCoef="0" IVar="-1" Cut="0.0000000000000000e+00" cType="1" res="-4.4827084057033062e-03" rms="4.7167471051216125e-01" purity="4.2132982611656189e-01" nType="-99"/>
          <Node pos="r" depth="2" NCoef="0" IVar="-1" Cut="0.0000000000000000e+00" cType="1" res="-9.7971395007334650e-05" rms="4.6733704209327698e-01" purity="4.8493388295173645e-01" nType="-99"/>
        </Node>
        <Node pos="r" depth="1" NCoef="0" IVar="1" Cut="6.4736986160278320e-01" cType="1" res="7.4874505400657654e-02" rms="4.2856401205062866e-01" purity="7.1129059791564941e-01" nType="0">
          <Node pos="l" depth="2" NCoef="0" IVar="-1" Cut="0.0000000000000000e+00" cType="1" res="7.7926469966769218e-03" rms="3.9856413006782532e-01" purity="7.6550269126892090e-01" nType="-99"/>
          <Node pos="r" depth="2" NCoef="0" IVar="-1" Cut="0.0000000000000000e+00" cType="1" res="3.2546021975576878e-03" rms="4.5510447025299072e-01" purity="6.5658491849899292e-01" nType="-99"/>
        </Node>
      </Node>
    </BinaryTree>
    <BinaryTree type="DecisionTree" boostWeight="1.0000000000000000e+00" itree="215">
      <Node pos="s" depth="0" NCoef="0" IVar="1" Cut="4.6661689877510071e-01" cType="1" res="1.0421925690025091e-03" rms="4.6709114313125610e-01" purity="5.0162678956985474e-01" nType="0">
        <Node pos="l" depth="1" NCoef="0" IVar="6" Cut="3.3695230484008789e+00" cType="1" res="-3.1091133132576942e-02" rms="4.7168555855751038e-01" purity="5.3631585836410522e-01" nType="0">
          <Node pos="l" depth="2" NCoef="0" IVar="-1" Cut="0.0000000000000000e+00" cType="1" res="4.1112958570010960e-04" rms="4.7536748647689819e-01" purity="4.3987363576889038e-01" nType="-99"/>
          <Node pos="r" depth="2" NCoef="0" IVar="-1" Cut="0.0000000000000000e+00" cType="1" res="-4.1857869364321232e-03" rms="4.6660527586936951e-01" purity="6.1191821098327637e-01" nType="-99"/>
        </Node>
        <Node pos="r" depth="1" NCoef="0" IVar="6" Cut="5.1672487258911133e+00" cType="1" res="9.0857949107885361e-03" rms="4.6558704972267151e-01" purity="4.9294343590736389e-01" nType="0">
          <Node pos="l" depth="2" NCoef="0" IVar="-1" Cut="0.0000000000000000e+00" cType="1" res="1.1844062828458846e-04" rms="4.7235471010208130e-01" purity="4.4952377676963806e-01" nType="-99"/>
          <Node pos="r" depth="2" NCoef="0" IVar="-1" Cut="0.0000000000000000e+00" cType="1" res="4.2400322854518890e-03" rms="4.1917327046394348e-01" purity="7.5863236188888550e-01" nType="-99"/>
        </Node>
      </Node>
    </BinaryTree>
    <BinaryTree type="DecisionTree" boostWeight="1.0000000000000000e+00" itree="216">
      <Node pos="s" depth="0" NCoef="0" IVar="4" Cut="1.5196219319477677e-03" cType="1" res="4.8232325352728367e-03" rms="4.6271300315856934e-01" purity="5.0696563720703125e-01" nType="0">
        <Node pos="l" depth="1" NCoef="0" IVar="3" Cut="8.7637108564376831e-01" cType="1" res="2.3228306323289871e-02" rms="4.6054473519325256e-01" purity="5.7287627458572388e-01" nType="0">
          <Node pos="l" depth="2" NCoef="0" IVar="-1" Cut="0.0000000000000000e+00" cType="1" res="-6.0757756000384688e-04" rms="4.7097903490066528e-01" purity="5.8178621530532837e-01" nType="-99"/>
          <Node pos="r" depth="2" NCoef="0" IVar="-1" Cut="0.0000000000000000e+00" cType="1" res="2.1449259947985411e-03" rms="4.5711851119995117e-01" purity="5.7034325599670410e-01" nType="-99"/>
        </Node>
        <Node pos="r" depth="1" NCoef="0" IVar="2" Cut="7.5984996557235718e-01" cType="1" res="-2.2557744756340981e-02" rms="4.6457272768020630e-01" purity="4.0891122817993164e-01" nType="0">
          <Node pos="l" depth="2" NCoef="0" IVar="-1" Cut="0.0000000000000000e+00" cType="1" res="-6.1560282483696938e-04" rms="4.6215227246284485e-01" purity="3.9534321427345276e-01" nType="-99"/>
          <Node pos="r" depth="2" NCoef="0" IVar="-1" Cut="0.0000000000000000e+00" cType="1" res="-4.8886574804782867e-03" rms="4.7178921103477478e-01" purity="4.7637009620666504e-01" nType="-99"/>
        </Node>
      </Node>
    </BinaryTree>
    <BinaryTree type="DecisionTree" boostWeight="1.0000000000000000e+00" itree="217">
      <Node pos="s" depth="0" NCoef="0" IVar="6" Cut="5.3799366950988770e+00" cType="1" res="-9.0024480596184731e-03" rms="4.5860072970390320e-01" purity="4.8916330933570862e-01" nType="0">
        <Node pos="l" depth="1" NCoef="0" IVar="6" Cut="1.7785105705261230e+00" cType="1" res="-1.8491536378860474e-02" rms="4.6580454707145691e-01" purity="4.5049878954887390e-01" nType="0">
          <Node pos="l" depth="2" NCoef="0" IVar="-1" Cut="0.0000000000000000e+00" cType="1" res="-5.5998545140028000e-03" rms="4.0316632390022278e-01" purity="2.1577984094619751e-01" nType="-99"/>
          <Node pos="r" depth="2" NCoef="0" IVar="-1" Cut="0.0000000000000000e+00" cType="1" res="-7.3070224607363343e-04" rms="4.7069516777992249e-01" purity="4.7232437133789062e-01" nType="-99"/>
        </Node>
        <Node pos="r" depth="1" NCoef="0" IVar="3" Cut="1.2182904481887817e+00" cType="1" res="6.6076502203941345e-02" rms="3.8894280791282654e-01" purity="7.9508244991302490e-01" nType="0">
          <Node pos="l" depth="2" NCoef="0" IVar="-1" Cut="0.0000000000000000e+00" cType="1" res="9.4703938812017441e-03" rms="3.4632039070129395e-01" purity="8.5609698295593262e-01" nType="-99"/>
          <Node pos="r" depth="2" NCoef="0" IVar="-1" Cut="0.0000000000000000e+00" cType="1" res="2.6805337984114885e-03" rms="4.1919124126434326e-01" purity="7.4301707744598389e-01" nType="-99"/>
        </Node>
      </Node>
    </BinaryTree>
    <BinaryTree type="DecisionTree" boostWeight="1.0000000000000000e+00" itree="218">
      <Node pos="s" depth="0" NCoef="0" IVar="3" Cut="2.2097523212432861e+00" cType="1" res="8.3534875884652138e-03" rms="4.6542271971702576e-01" purity="5.0616967678070068e-01" nType="0">
        <Node pos="l" depth="1" NCoef="0" IVar="0" Cut="3.3507656306028366e-02" cType="1" res="1.3195717707276344e-02" rms="4.6809199452400208e-01" purity="5.2467423677444458e-01" nType="0">
          <Node pos="l" depth="2" NCoef="0" IVar="-1" Cut="0.0000000000000000e+00" cType="1" res="-1.2782288249582052e-03" rms="4.7255179286003113e-01" purity="4.2889919877052307e-01" nType="-99"/>
          <Node pos="r" depth="2" NCoef="0" IVar="-1" Cut="0.0000000000000000e+00" cType="1" res="1.2915371917188168e-03" rms="4.6689516305923462e-01" purity="5.4366892576217651e-01" nType="-99"/>
        </Node>
        <Node pos="r" depth="1" NCoef="0" IVar="-1" Cut="0.0000000000000000e+00" cType="1" res="-3.1427657231688499e-03" rms="4.2749330401420593e-01" purity="2.8226247429847717e-01" nType="-99"/>
      </Node>
    </BinaryTree>
    <BinaryTree type="DecisionTree" boostWeight="1.0000000000000000e+00" itree="219">
      <Node pos="s" depth="0" NCoef="0" IVar="1" Cut="6.5932482481002808e-01" cType="1" res="-3.1994541641324759e-03" rms="4.6926262974739075e-01" purity="5.0331944227218628e-01" nType="0">
        <Node pos="l" depth="1" NCoef="0" IVar="6" Cut="2.4493904113769531e+00" cType="1" res="2.4393200874328613e-02" rms="4.5893147587776184e-01" purity="5.9031349420547485e-01" nType="0">
          <Node pos="l" depth="2" NCoef="0" IVar="-1" Cut="0.0000000000000000e+00" cType="1" res="-2.4003440048545599e-03" rms="4.5971861481666565e-01" purity="3.3269152045249939e-01" nType="-99"/>
          <Node pos="r" depth="2" NCoef="0" IVar="-1" Cut="0.0000000000000000e+00" cType="1" res="2.7995668351650238e-03" rms="4.5724847912788391e-01" purity="6.5562635660171509e-01" nType="-99"/>
        </Node>
        <Node pos="r" depth="1" NCoef="0" IVar="6" Cut="4.5917053222656250e+00" cType="1" res="-1.6489703208208084e-02" rms="4.7358509898185730e-01" purity="4.6141794323921204e-01" nType="0">
          <Node pos="l" depth="2" NCoef="0" IVar="-1" Cut="0.0000000000000000e+00" cType="1" res="-2.3659229918848723e-04" rms="4.7273406386375427e-01" purity="4.0963810682296753e-01" nType="-99"/>
          <Node pos="r" depth="2" NCoef="0" IVar="-1" Cut="0.0000000000000000e+00" cType="1" res="-3.4004561603069305e-03" rms="4.7419482469558716e-01" purity="6.0490882396697998e-01" nType="-99"/>
        </Node>
      </Node>
    </BinaryTree>
    <BinaryTree type="DecisionTree" boostWeight="1.0000000000000000e+00" itree="220">
      <Node pos="s" depth="0" NCoef="0" IVar="0" Cut="2.6736343279480934e-02" cType="1" res="-9.8098190501332283e-03" rms="4.6729382872581482e-01" purity="4.8958569765090942e-01" nType="0">
        <Node pos="l" depth="1" NCoef="0" IVar="5" Cut="9.0188598632812500e+02" cType="1" res="-6.5260082483291626e-02" rms="4.5957103371620178e-01" purity="3.7451791763305664e-01" nType="0">
          <Node pos="l" depth="2" NCoef="0" IVar="-1" Cut="0.0000000000000000e+00" cType="1" res="-6.1658103950321674e-03" rms="4.3651795387268066e-01" purity="2.9181736707687378e-01" nType="-99"/>
          <Node pos="r" depth="2" NCoef="0" IVar="-1" Cut="0.0000000000000000e+00" cType="1" res="-8.4689498180523515e-04" rms="4.7818949818611145e-01" purity="4.6412971615791321e-01" nType="-99"/>
        </Node>
        <Node pos="r" depth="1" NCoef="0" IVar="0" Cut="2.1233427524566650e-01" cType="1" res="-2.6569152250885963e-03" rms="4.6780240535736084e-01" purity="5.0442904233932495e-01" nType="0">
          <Node pos="l" depth="2" NCoef="0" IVar="-1" Cut="0.0000000000000000e+00" cType="1" res="1.5644791710656136e-04" rms="4.6666923165321350e-01" purity="5.0112813711166382e-01" nType="-99"/>
          <Node pos="r" depth="2" NCoef="0" IVar="-1" Cut="0.0000000000000000e+00" cType="1" res="-4.0855854749679565e-03" rms="4.7668939828872681e-01" purity="5.4266089200973511e-01" nType="-99"/>
        </Node>
      </Node>
    </BinaryTree>
    <BinaryTree type="DecisionTree" boostWeight="1.0000000000000000e+00" itree="221">
      <Node pos="s" depth="0" NCoef="0" IVar="6" Cut="5.6528077125549316e+00" cType="1" res="7.9289022833108902e-03" rms="4.6347445249557495e-01" purity="5.0603163242340088e-01" nType="0">
        <Node pos="l" depth="1" NCoef="0" IVar="5" Cut="4.8845822143554688e+02" cType="1" res="2.0986779127269983e-03" rms="4.6966761350631714e-01" purity="4.7981059551239014e-01" nType="0">
          <Node pos="l" depth="2" NCoef="0" IVar="-1" Cut="0.0000000000000000e+00" cType="1" res="-2.5526899844408035e-03" rms="4.4636428356170654e-01" purity="3.4190744161605835e-01" nType="-99"/>
          <Node pos="r" depth="2" NCoef="0" IVar="-1" Cut="0.0000000000000000e+00" cType="1" res="5.6996656348928809e-04" rms="4.7285762429237366e-01" purity="5.0160294771194458e-01" nType="-99"/>
        </Node>
        <Node pos="r" depth="1" NCoef="0" IVar="-1" Cut="0.0000000000000000e+00" cType="1" res="6.6820057108998299e-03" rms="3.7630799412727356e-01" purity="8.1493812799453735e-01" nType="-99"/>
      </Node>
    </BinaryTree>
    <BinaryTree type="DecisionTree" boostWeight="1.0000000000000000e+00" itree="222">
      <Node pos="s" depth="0" NCoef="0" IVar="0" Cut="7.6479010283946991e-02" cType="1" res="-3.9334562607109547e-03" rms="4.6065351366996765e-01" purity="4.8984479904174805e-01" nType="0">
        <Node pos="l" depth="1" NCoef="0" IVar="6" Cut="4.2780132293701172e+00" cType="1" res="-2.6270374655723572e-02" rms="4.5949208736419678e-01" purity="4.2389529943466187e-01" nType="0">
          <Node pos="l" depth="2" NCoef="0" IVar="-1" Cut="0.0000000000000000e+00" cType="1" res="-2.4937191046774387e-03" rms="4.5442363619804382e-01" purity="3.4066864848136902e-01" nType="-99"/>
          <Node pos="r" depth="2" NCoef="0" IVar="-1" Cut="0.0000000000000000e+00" cType="1" res="7.7745236922055483e-04" rms="4.6925908327102661e-01" purity="6.2379533052444458e-01" nType="-99"/>
        </Node>
        <Node pos="r" depth="1" NCoef="0" IVar="5" Cut="6.7528637695312500e+02" cType="1" res="1.7770232632756233e-02" rms="4.6074309945106506e-01" purity="5.5392462015151978e-01" nType="0">
          <Node pos="l" depth="2" NCoef="0" IVar="-1" Cut="0.0000000000000000e+00" cType="1" res="-8.2397848018445075e-05" rms="4.6854066848754883e-01" purity="4.9179947376251221e-01" nType="-99"/>
          <Node pos="r" depth="2" NCoef="0" IVar="-1" Cut="0.0000000000000000e+00" cType="1" res="3.1114830635488033e-03" rms="4.4786310195922852e-01" purity="6.4330440759658813e-01" nType="-99"/>
        </Node>
      </Node>
    </BinaryTree>
    <BinaryTree type="DecisionTree" boostWeight="1.0000000000000000e+00" itree="223">
      <Node pos="s" depth="0" NCoef="0" IVar="3" Cut="5.9541541337966919e-01" cType="1" res="-1.1326297186315060e-02" rms="4.6728512644767761e-01" purity="4.8802056908607483e-01" nType="0">
        <Node pos="l" depth="1" NCoef="0" IVar="-1" Cut="0.0000000000000000e+00" cType="1" res="-4.3474812991917133e-03" rms="4.9191433191299438e-01" purity="4.5592698454856873e-01" nType="-99"/>
        <Node pos="r" depth="1" NCoef="0" IVar="3" Cut="1.8843476772308350e+00" cType="1" res="-7.0064379833638668e-03" rms="4.6514061093330383e-01" purity="4.9036455154418945e-01" nType="0">
          <Node pos="l" depth="2" NCoef="0" IVar="-1" Cut="0.0000000000000000e+00" cType="1" res="1.0949556599371135e-04" rms="4.6730890870094299e-01" purity="5.2427971363067627e-01" nType="-99"/>
          <Node pos="r" depth="2" NCoef="0" IVar="-1" Cut="0.0000000000000000e+00" cType="1" res="-2.7723875828087330e-03" rms="4.5348572731018066e-01" purity="3.4113493561744690e-01" nType="-99"/>
        </Node>
      </Node>
    </BinaryTree>
    <BinaryTree type="DecisionTree" boostWeight="1.0000000000000000e+00" itree="224">
      <Node pos="s" depth="0" NCoef="0" IVar="0" Cut="3.9181079715490341e-02" cType="1" res="1.3096214970573783e-03" rms="4.6224775910377502e-01" purity="4.9896559119224548e-01" nType="0">
        <Node pos="l" depth="1" NCoef="0" IVar="4" Cut="8.1074924673885107e-04" cType="1" res="-4.0778778493404388e-02" rms="4.4582736492156982e-01" purity="3.9530563354492188e-01" nType="0">
          <Node pos="l" depth="2" NCoef="0" IVar="-1" Cut="0.0000000000000000e+00" cType="1" res="5.3651625057682395e-04" rms="4.5474642515182495e-01" purity="5.2654165029525757e-01" nType="-99"/>
          <Node pos="r" depth="2" NCoef="0" IVar="-1" Cut="0.0000000000000000e+00" cType="1" res="-4.1308715008199215e-03" rms="4.3721753358840942e-01" purity="3.1197834014892578e-01" nType="-99"/>
        </Node>
        <Node pos="r" depth="1" NCoef="0" IVar="2" Cut="4.8965051770210266e-01" cType="1" res="1.2770872563123703e-02" rms="4.6596103906631470e-01" purity="5.2719366550445557e-01" nType="0">
          <Node pos="l" depth="2" NCoef="0" IVar="-1" Cut="0.0000000000000000e+00" cType="1" res="4.3256394565105438e-03" rms="4.7234636545181274e-01" purity="4.7773987054824829e-01" nType="-99"/>
          <Node pos="r" depth="2" NCoef="0" IVar="-1" Cut="0.0000000000000000e+00" cType="1" res="1.7546142044011503e-04" rms="4.6408250927925110e-01" purity="5.3620970249176025e-01" nType="-99"/>
        </Node>
      </Node>
    </BinaryTree>
    <BinaryTree type="DecisionTree" boostWeight="1.0000000000000000e+00" itree="225">
      <Node pos="s" depth="0" NCoef="0" IVar="1" Cut="2.7048261165618896e+00" cType="1" res="-2.0271029789000750e-03" rms="4.6542242169380188e-01" purity="5.0010603666305542e-01" nType="0">
        <Node pos="l" depth="1" NCoef="0" IVar="5" Cut="6.2340405273437500e+02" cType="1" res="2.6102340780198574e-03" rms="4.6735349297523499e-01" purity="5.1622664928436279e-01" nType="0">
          <Node pos="l" depth="2" NCoef="0" IVar="-1" Cut="0.0000000000000000e+00" cType="1" res="-1.1808581184595823e-03" rms="4.6817383170127869e-01" purity="4.4003850221633911e-01" nType="-99"/>
          <Node pos="r" depth="2" NCoef="0" IVar="-1" Cut="0.0000000000000000e+00" cType="1" res="9.7731896676123142e-04" rms="4.6642097830772400e-01" purity="5.5998665094375610e-01" nType="-99"/>
        </Node>
        <Node pos="r" depth="1" NCoef="0" IVar="-1" Cut="0.0000000000000000e+00" cType="1" res="-4.4122529216110706e-03" rms="4.2967969179153442e-01" purity="2.5951689481735229e-01" nType="-99"/>
      </Node>
    </BinaryTree>
    <BinaryTree type="DecisionTree" boostWeight="1.0000000000000000e+00" itree="226">
      <Node pos="s" depth="0" NCoef="0" IVar="5" Cut="1.2286145019531250e+03" cType="1" res="4.8658656887710094e-03" rms="4.6904373168945312e-01" purity="5.1144254207611084e-01" nType="0">
        <Node pos="l" depth="1" NCoef="0" IVar="6" Cut="3.7961955070495605e+00" cType="1" res="-1.8515324336476624e-04" rms="4.6896702051162720e-01" purity="5.0265812873840332e-01" nType="0">
          <Node pos="l" depth="2" NCoef="0" IVar="-1" Cut="0.0000000000000000e+00" cType="1" res="9.6242962172254920e-04" rms="4.6926140785217285e-01" purity="4.0455812215805054e-01" nType="-99"/>
          <Node pos="r" depth="2" NCoef="0" IVar="-1" Cut="0.0000000000000000e+00" cType="1" res="-1.2541278265416622e-03" rms="4.6793922781944275e-01" purity="6.1671096086502075e-01" nType="-99"/>
        </Node>
        <Node pos="r" depth="1" NCoef="0" IVar="-1" Cut="0.0000000000000000e+00" cType="1" res="4.6396497637033463e-03" rms="4.6501740813255310e-01" purity="6.2638920545578003e-01" nType="-99"/>
      </Node>
    </BinaryTree>
    <BinaryTree type="DecisionTree" boostWeight="1.0000000000000000e+00" itree="227">
      <Node pos="s" depth="0" NCoef="0" IVar="2" Cut="8.1528025865554810e-01" cType="1" res="-1.5348915942013264e-02" rms="4.6713900566101074e-01" purity="4.8986697196960449e-01" nType="0">
        <Node pos="l" depth="1" NCoef="0" IVar="2" Cut="5.9167158603668213e-01" cType="1" res="-2.0404547452926636e-02" rms="4.6965730190277100e-01" purity="4.7058349847793579e-01" nType="0">
          <Node pos="l" depth="2" NCoef="0" IVar="-1" Cut="0.0000000000000000e+00" cType="1" res="5.4626061682938598e-06" rms="4.6518003940582275e-01" purity="4.3318498134613037e-01" nType="-99"/>
          <Node pos="r" depth="2" NCoef="0" IVar="-1" Cut="0.0000000000000000e+00" cType="1" res="-2.6288155931979418e-03" rms="4.7334063053131104e-01" purity="5.0962680578231812e-01" nType="-99"/>
        </Node>
        <Node pos="r" depth="1" NCoef="0" IVar="-1" Cut="0.0000000000000000e+00" cType="1" res="2.5719678960740566e-03" rms="4.3774515390396118e-01" purity="6.8400090932846069e-01" nType="-99"/>
      </Node>
    </BinaryTree>
    <BinaryTree type="DecisionTree" boostWeight="1.0000000000000000e+00" itree="228">
      <Node pos="s" depth="0" NCoef="0" IVar="6" Cut="4.2102465629577637e+00" cType="1" res="6.1794760404154658e-04" rms="4.6248856186866760e-01" purity="5.0158363580703735e-01" nType="0">
        <Node pos="l" depth="1" NCoef="0" IVar="1" Cut="2.4200921058654785e+00" cType="1" res="-1.5111682936549187e-02" rms="4.7022119164466858e-01" purity="4.0565213561058044e-01" nType="0">
          <Node pos="l" depth="2" NCoef="0" IVar="-1" Cut="0.0000000000000000e+00" cType="1" res="-4.3216795893386006e-04" rms="4.7774043679237366e-01" purity="4.2830803990364075e-01" nType="-99"/>
          <Node pos="r" depth="2" NCoef="0" IVar="-1" Cut="0.0000000000000000e+00" cType="1" res="-5.1731886342167854e-03" rms="3.9183294773101807e-01" purity="2.0757414400577545e-01" nType="-99"/>
        </Node>
        <Node pos="r" depth="1" NCoef="0" IVar="5" Cut="6.1382946777343750e+02" cType="1" res="3.0445318669080734e-02" rms="4.4593772292137146e-01" purity="6.8349403142929077e-01" nType="0">
          <Node pos="l" depth="2" NCoef="0" IVar="-1" Cut="0.0000000000000000e+00" cType="1" res="-6.2159157823771238e-04" rms="4.6516376733779907e-01" purity="6.0228168964385986e-01" nType="-99"/>
          <Node pos="r" depth="2" NCoef="0" IVar="-1" Cut="0.0000000000000000e+00" cType="1" res="3.5032872110605240e-03" rms="4.3607673048973083e-01" purity="7.1916103363037109e-01" nType="-99"/>
        </Node>
      </Node>
    </BinaryTree>
    <BinaryTree type="DecisionTree" boostWeight="1.0000000000000000e+00" itree="229">
      <Node pos="s" depth="0" NCoef="0" IVar="6" Cut="2.0323007106781006e+00" cType="1" res="3.2465148251503706e-03" rms="4.6199637651443481e-01" purity="5.0283914804458618e-01" nType="0">
        <Node pos="l" depth="1" NCoef="0" IVar="1" Cut="9.8111456632614136e-01" cType="1" res="-4.6891979873180389e-02" rms="4.2711138725280762e-01" purity="2.6234400272369385e-01" nType="0">
          <Node pos="l" depth="2" NCoef="0" IVar="-1" Cut="0.0000000000000000e+00" cType="1" res="-1.1964045697823167e-03" rms="4.6182495355606079e-01" purity="3.3073568344116211e-01" nType="-99"/>
          <Node pos="r" depth="2" NCoef="0" IVar="-1" Cut="0.0000000000000000e+00" cType="1" res="-4.9711721949279308e-03" rms="3.8911804556846619e-01" purity="1.9678480923175812e-01" nType="-99"/>
        </Node>
        <Node pos="r" depth="1" NCoef="0" IVar="5" Cut="5.7817242431640625e+02" cType="1" res="9.9120279774069786e-03" rms="4.6603155136108398e-01" purity="5.3481101989746094e-01" nType="0">
          <Node pos="l" depth="2" NCoef="0" IVar="-1" Cut="0.0000000000000000e+00" cType="1" res="-1.1834652395918965e-03" rms="4.6414697170257568e-01" purity="4.3404939770698547e-01" nType="-99"/>
          <Node pos="r" depth="2" NCoef="0" IVar="-1" Cut="0.0000000000000000e+00" cType="1" res="1.3433217536658049e-03" rms="4.6625900268554688e-01" purity="5.7355540990829468e-01" nType="-99"/>
        </Node>
      </Node>
    </BinaryTree>
    <BinaryTree type="DecisionTree" boostWeight="1.0000000000000000e+00" itree="230">
      <Node pos="s" depth="0" NCoef="0" IVar="2" Cut="6.6953164339065552e-01" cType="1" res="-2.1008856128901243e-03" rms="4.6566569805145264e-01" purity="4.9738031625747681e-01" nType="0">
        <Node pos="l" depth="1" NCoef="0" IVar="1" Cut="2.2039575576782227e+00" cType="1" res="1.2222332879900932e-02" rms="4.6354049444198608e-01" purity="4.6315449476242065e-01" nType="0">
          <Node pos="l" depth="2" NCoef="0" IVar="-1" Cut="0.0000000000000000e+00" cType="1" res="1.5223721275106072e-03" rms="4.6832185983657837e-01" purity="4.9731865525245667e-01" nType="-99"/>
          <Node pos="r" depth="2" NCoef="0" IVar="-1" Cut="0.0000000000000000e+00" cType="1" res="-3.1725000590085983e-03" rms="4.3259060382843018e-01" purity="2.8746315836906433e-01" nType="-99"/>
        </Node>
        <Node pos="r" depth="1" NCoef="0" IVar="0" Cut="2.0670260488986969e-01" cType="1" res="-2.9716249555349350e-02" rms="4.6850153803825378e-01" purity="5.6336802244186401e-01" nType="0">
          <Node pos="l" depth="2" NCoef="0" IVar="-1" Cut="0.0000000000000000e+00" cType="1" res="-2.6789912953972816e-03" rms="4.6764436364173889e-01" purity="5.4763031005859375e-01" nType="-99"/>
          <Node pos="r" depth="2" NCoef="0" IVar="-1" Cut="0.0000000000000000e+00" cType="1" res="1.1874902993440628e-03" rms="4.6927943825721741e-01" purity="6.3062191009521484e-01" nType="-99"/>
        </Node>
      </Node>
    </BinaryTree>
    <BinaryTree type="DecisionTree" boostWeight="1.0000000000000000e+00" itree="231">
      <Node pos="s" depth="0" NCoef="0" IVar="3" Cut="1.5959095954895020e+00" cType="1" res="5.2506588399410248e-03" rms="4.6717053651809692e-01" purity="5.0346654653549194e-01" nType="0">
        <Node pos="l" depth="1" NCoef="0" IVar="1" Cut="2.8157028555870056e-01" cType="1" res="1.6468418762087822e-02" rms="4.6657940745353699e-01" purity="5.4442185163497925e-01" nType="0">
          <Node pos="l" depth="2" NCoef="0" IVar="-1" Cut="0.0000000000000000e+00" cType="1" res="5.1262266933917999e-03" rms="4.5406273007392883e-01" purity="6.7096769809722900e-01" nType="-99"/>
          <Node pos="r" depth="2" NCoef="0" IVar="-1" Cut="0.0000000000000000e+00" cType="1" res="6.6340906778350472e-04" rms="4.6749892830848694e-01" purity="5.3085744380950928e-01" nType="-99"/>
        </Node>
        <Node pos="r" depth="1" NCoef="0" IVar="2" Cut="5.5219036340713501e-01" cType="1" res="-1.9184384495019913e-02" rms="4.6752482652664185e-01" purity="4.1425576806068420e-01" nType="0">
          <Node pos="l" depth="2" NCoef="0" IVar="-1" Cut="0.0000000000000000e+00" cType="1" res="9.2771556228399277e-04" rms="4.5988544821739197e-01" purity="3.7528607249259949e-01" nType="-99"/>
          <Node pos="r" depth="2" NCoef="0" IVar="-1" Cut="0.0000000000000000e+00" cType="1" res="-2.6707358192652464e-03" rms="4.7155541181564331e-01" purity="4.4336134195327759e-01" nType="-99"/>
        </Node>
      </Node>
    </BinaryTree>
    <BinaryTree type="DecisionTree" boostWeight="1.0000000000000000e+00" itree="232">
      <Node pos="s" depth="0" NCoef="0" IVar="1" Cut="7.4604821205139160e-01" cType="1" res="-4.1023599915206432e-03" rms="4.6778339147567749e-01" purity="4.9890530109405518e-01" nType="0">
        <Node pos="l" depth="1" NCoef="0" IVar="6" Cut="2.3352420330047607e+00" cType="1" res="1.6891989856958389e-02" rms="4.6790483593940735e-01" purity="5.8880478143692017e-01" nType="0">
          <Node pos="l" depth="2" NCoef="0" IVar="-1" Cut="0.0000000000000000e+00" cType="1" res="5.5333902128040791e-03" rms="4.9410578608512878e-01" purity="4.5809519290924072e-01" nType="-99"/>
          <Node pos="r" depth="2" NCoef="0" IVar="-1" Cut="0.0000000000000000e+00" cType="1" res="2.7320967637933791e-04" rms="4.6184247732162476e-01" purity="6.1249864101409912e-01" nType="-99"/>
        </Node>
        <Node pos="r" depth="1" NCoef="0" IVar="2" Cut="7.7396464347839355e-01" cType="1" res="-1.6064545139670372e-02" rms="4.6729254722595215e-01" purity="4.4768232107162476e-01" nType="0">
          <Node pos="l" depth="2" NCoef="0" IVar="-1" Cut="0.0000000000000000e+00" cType="1" res="-1.3587616849690676e-03" rms="4.6933746337890625e-01" purity="4.2485731840133667e-01" nType="-99"/>
          <Node pos="r" depth="2" NCoef="0" IVar="-1" Cut="0.0000000000000000e+00" cType="1" res="2.7368688024580479e-03" rms="4.4509604573249817e-01" purity="6.4926838874816895e-01" nType="-99"/>
        </Node>
      </Node>
    </BinaryTree>
    <BinaryTree type="DecisionTree" boostWeight="1.0000000000000000e+00" itree="233">
      <Node pos="s" depth="0" NCoef="0" IVar="5" Cut="1.1857205810546875e+03" cType="1" res="6.7416266538202763e-03" rms="4.6885186433792114e-01" purity="5.0936836004257202e-01" nType="0">
        <Node pos="l" depth="1" NCoef="0" IVar="6" Cut="5.4595222473144531e+00" cType="1" res="4.1479375795461237e-04" rms="4.6828266978263855e-01" purity="4.9801337718963623e-01" nType="0">
          <Node pos="l" depth="2" NCoef="0" IVar="-1" Cut="0.0000000000000000e+00" cType="1" res="3.1517006573267281e-04" rms="4.7008392214775085e-01" purity="4.7373539209365845e-01" nType="-99"/>
          <Node pos="r" depth="2" NCoef="0" IVar="-1" Cut="0.0000000000000000e+00" cType="1" res="-3.2085471320897341e-03" rms="4.5097765326499939e-01" purity="7.0184761285781860e-01" nType="-99"/>
        </Node>
        <Node pos="r" depth="1" NCoef="0" IVar="-1" Cut="0.0000000000000000e+00" cType="1" res="4.7801840119063854e-03" rms="4.6968981623649597e-01" purity="6.2796962261199951e-01" nType="-99"/>
      </Node>
    </BinaryTree>
    <BinaryTree type="DecisionTree" boostWeight="1.0000000000000000e+00" itree="234">
      <Node pos="s" depth="0" NCoef="0" IVar="0" Cut="1.6994114220142365e-01" cType="1" res="-1.3388329185545444e-02" rms="4.6132567524909973e-01" purity="4.8767882585525513e-01" nType="0">
        <Node pos="l" depth="1" NCoef="0" IVar="5" Cut="8.4829846191406250e+02" cType="1" res="-2.3181751370429993e-02" rms="4.6327951550483704e-01" purity="4.6229383349418640e-01" nType="0">
          <Node pos="l" depth="2" NCoef="0" IVar="-1" Cut="0.0000000000000000e+00" cType="1" res="-2.1750659216195345e-03" rms="4.6381139755249023e-01" purity="4.2536985874176025e-01" nType="-99"/>
          <Node pos="r" depth="2" NCoef="0" IVar="-1" Cut="0.0000000000000000e+00" cType="1" res="2.5054541765712202e-04" rms="4.6096032857894897e-01" purity="5.4227519035339355e-01" nType="-99"/>
        </Node>
        <Node pos="r" depth="1" NCoef="0" IVar="5" Cut="5.5478613281250000e+02" cType="1" res="4.7748271375894547e-02" rms="4.4408053159713745e-01" purity="6.4614766836166382e-01" nType="0">
          <Node pos="l" depth="2" NCoef="0" IVar="-1" Cut="0.0000000000000000e+00" cType="1" res="6.5112831071019173e-03" rms="4.5341625809669495e-01" purity="6.2541157007217407e-01" nType="-99"/>
          <Node pos="r" depth="2" NCoef="0" IVar="-1" Cut="0.0000000000000000e+00" cType="1" res="1.2246281839907169e-03" rms="4.3543839454650879e-01" purity="6.5865820646286011e-01" nType="-99"/>
        </Node>
      </Node>
    </BinaryTree>
    <BinaryTree type="DecisionTree" boostWeight="1.0000000000000000e+00" itree="235">
      <Node pos="s" depth="0" NCoef="0" IVar="0" Cut="7.5347676873207092e-02" cType="1" res="-1.4834162779152393e-02" rms="4.6405383944511414e-01" purity="4.8539552092552185e-01" nType="0">
        <Node pos="l" depth="1" NCoef="0" IVar="2" Cut="6.3793867826461792e-01" cType="1" res="-3.2706696540117264e-02" rms="4.6287393569946289e-01" purity="4.2332863807678223e-01" nType="0">
          <Node pos="l" depth="2" NCoef="0" IVar="-1" Cut="0.0000000000000000e+00" cType="1" res="-1.2553478591144085e-03" rms="4.5982500910758972e-01" purity="4.0785968303680420e-01" nType="-99"/>
          <Node pos="r" depth="2" NCoef="0" IVar="-1" Cut="0.0000000000000000e+00" cType="1" res="-4.3602264486253262e-03" rms="4.7058400511741638e-01" purity="4.7344779968261719e-01" nType="-99"/>
        </Node>
        <Node pos="r" depth="1" NCoef="0" IVar="6" Cut="2.0388028621673584e+00" cType="1" res="1.3108227867633104e-03" rms="4.6452632546424866e-01" purity="5.4146307706832886e-01" nType="0">
          <Node pos="l" depth="2" NCoef="0" IVar="-1" Cut="0.0000000000000000e+00" cType="1" res="-3.3891985658556223e-03" rms="4.3690276145935059e-01" purity="2.7064302563667297e-01" nType="-99"/>
          <Node pos="r" depth="2" NCoef="0" IVar="-1" Cut="0.0000000000000000e+00" cType="1" res="5.5977038573473692e-04" rms="4.6750023961067200e-01" purity="5.7662081718444824e-01" nType="-99"/>
        </Node>
      </Node>
    </BinaryTree>
    <BinaryTree type="DecisionTree" boostWeight="1.0000000000000000e+00" itree="236">
      <Node pos="s" depth="0" NCoef="0" IVar="5" Cut="6.2324414062500000e+02" cType="1" res="-1.3048808090388775e-02" rms="4.6636611223220825e-01" purity="4.8995053768157959e-01" nType="0">
        <Node pos="l" depth="1" NCoef="0" IVar="4" Cut="8.9183240197598934e-04" cType="1" res="-3.7238955497741699e-02" rms="4.5911410450935364e-01" purity="4.0831428766250610e-01" nType="0">
          <Node pos="l" depth="2" NCoef="0" IVar="-1" Cut="0.0000000000000000e+00" cType="1" res="-8.4242771845310926e-04" rms="4.7378462553024292e-01" purity="5.1787412166595459e-01" nType="-99"/>
          <Node pos="r" depth="2" NCoef="0" IVar="-1" Cut="0.0000000000000000e+00" cType="1" res="-3.2441685907542706e-03" rms="4.4735002517700195e-01" purity="3.2888707518577576e-01" nType="-99"/>
        </Node>
        <Node pos="r" depth="1" NCoef="0" IVar="3" Cut="9.3631374835968018e-01" cType="1" res="8.2823127740994096e-04" rms="4.6991416811943054e-01" purity="5.3678232431411743e-01" nType="0">
          <Node pos="l" depth="2" NCoef="0" IVar="-1" Cut="0.0000000000000000e+00" cType="1" res="2.7763566467911005e-03" rms="4.6963238716125488e-01" purity="6.0785955190658569e-01" nType="-99"/>
          <Node pos="r" depth="2" NCoef="0" IVar="-1" Cut="0.0000000000000000e+00" cType="1" res="-9.9437066819518805e-04" rms="4.6899172663688660e-01" purity="5.0864666700363159e-01" nType="-99"/>
        </Node>
      </Node>
    </BinaryTree>
    <BinaryTree type="DecisionTree" boostWeight="1.0000000000000000e+00" itree="237">
      <Node pos="s" depth="0" NCoef="0" IVar="0" Cut="3.9515685290098190e-02" cType="1" res="-4.2783617973327637e-03" rms="4.6508231759071350e-01" purity="4.9781897664070129e-01" nType="0">
        <Node pos="l" depth="1" NCoef="0" IVar="5" Cut="7.6985717773437500e+02" cType="1" res="-3.7292029708623886e-02" rms="4.6708634495735168e-01" purity="3.9749777317047119e-01" nType="0">
          <Node pos="l" depth="2" NCoef="0" IVar="-1" Cut="0.0000000000000000e+00" cType="1" res="-4.5803599059581757e-03" rms="4.4428715109825134e-01" purity="3.0683097243309021e-01" nType="-99"/>
          <Node pos="r" depth="2" NCoef="0" IVar="-1" Cut="0.0000000000000000e+00" cType="1" res="-4.8040231922641397e-04" rms="4.8031193017959595e-01" purity="4.6111375093460083e-01" nType="-99"/>
        </Node>
        <Node pos="r" depth="1" NCoef="0" IVar="1" Cut="2.0788979530334473e+00" cType="1" res="4.7237291000783443e-03" rms="4.6412706375122070e-01" purity="5.2517431974411011e-01" nType="0">
          <Node pos="l" depth="2" NCoef="0" IVar="-1" Cut="0.0000000000000000e+00" cType="1" res="7.2062300750985742e-04" rms="4.6748265624046326e-01" purity="5.5300539731979370e-01" nType="-99"/>
          <Node pos="r" depth="2" NCoef="0" IVar="-1" Cut="0.0000000000000000e+00" cType="1" res="-2.3288910742849112e-03" rms="4.3858310580253601e-01" purity="3.3837336301803589e-01" nType="-99"/>
        </Node>
      </Node>
    </BinaryTree>
    <BinaryTree type="DecisionTree" boostWeight="1.0000000000000000e+00" itree="238">
      <Node pos="s" depth="0" NCoef="0" IVar="3" Cut="5.9231513738632202e-01" cType="1" res="-2.1700626239180565e-03" rms="4.6508041024208069e-01" purity="4.9719303846359253e-01" nType="0">
        <Node pos="l" depth="1" NCoef="0" IVar="-1" Cut="0.0000000000000000e+00" cType="1" res="-5.2856700494885445e-03" rms="4.6084654331207275e-01" purity="4.1134491562843323e-01" nType="-99"/>
        <Node pos="r" depth="1" NCoef="0" IVar="5" Cut="9.7932183837890625e+02" cType="1" res="4.8781400546431541e-03" rms="4.6470373868942261e-01" purity="5.0411123037338257e-01" nType="0">
          <Node pos="l" depth="2" NCoef="0" IVar="-1" Cut="0.0000000000000000e+00" cType="1" res="-1.5633775910828263e-04" rms="4.6263915300369263e-01" purity="4.8371180891990662e-01" nType="-99"/>
          <Node pos="r" depth="2" NCoef="0" IVar="-1" Cut="0.0000000000000000e+00" cType="1" res="2.7712732553482056e-03" rms="4.7315609455108643e-01" purity="6.0568463802337646e-01" nType="-99"/>
        </Node>
      </Node>
    </BinaryTree>
    <BinaryTree type="DecisionTree" boostWeight="1.0000000000000000e+00" itree="239">
      <Node pos="s" depth="0" NCoef="0" IVar="3" Cut="1.4670591354370117e+00" cType="1" res="-3.1787962652742863e-03" rms="4.6678954362869263e-01" purity="4.9670615792274475e-01" nType="0">
        <Node pos="l" depth="1" NCoef="0" IVar="5" Cut="1.2154381103515625e+03" cType="1" res="1.1035392060875893e-02" rms="4.6551066637039185e-01" purity="5.4104983806610107e-01" nType="0">
          <Node pos="l" depth="2" NCoef="0" IVar="-1" Cut="0.0000000000000000e+00" cType="1" res="3.2551455660723150e-04" rms="4.6703433990478516e-01" purity="5.2988201379776001e-01" nType="-99"/>
          <Node pos="r" depth="2" NCoef="0" IVar="-1" Cut="0.0000000000000000e+00" cType="1" res="4.5580640435218811e-03" rms="4.4632467627525330e-01" purity="6.4970308542251587e-01" nType="-99"/>
        </Node>
        <Node pos="r" depth="1" NCoef="0" IVar="6" Cut="4.0497021675109863e+00" cType="1" res="-2.5896821171045303e-02" rms="4.6793058514595032e-01" purity="4.2583331465721130e-01" nType="0">
          <Node pos="l" depth="2" NCoef="0" IVar="-1" Cut="0.0000000000000000e+00" cType="1" res="-6.4347014995291829e-04" rms="4.5897227525711060e-01" purity="3.6055362224578857e-01" nType="-99"/>
          <Node pos="r" depth="2" NCoef="0" IVar="-1" Cut="0.0000000000000000e+00" cType="1" res="-3.3087534829974174e-03" rms="4.8214340209960938e-01" purity="5.4097372293472290e-01" nType="-99"/>
        </Node>
      </Node>
    </BinaryTree>
    <BinaryTree type="DecisionTree" boostWeight="1.0000000000000000e+00" itree="240">
      <Node pos="s" depth="0" NCoef="0" IVar="1" Cut="4.6115294098854065e-01" cType="1" res="-7.3929288191720843e-04" rms="4.6962752938270569e-01" purity="5.0190675258636475e-01" nType="0">
        <Node pos="l" depth="1" NCoef="0" IVar="2" Cut="6.1429125070571899e-01" cType="1" res="4.4587925076484680e-02" rms="4.6808269619941711e-01" purity="6.1348354816436768e-01" nType="0">
          <Node pos="l" depth="2" NCoef="0" IVar="-1" Cut="0.0000000000000000e+00" cType="1" res="6.2714796513319016e-03" rms="4.7513628005981445e-01" purity="6.0197466611862183e-01" nType="-99"/>
          <Node pos="r" depth="2" NCoef="0" IVar="-1" Cut="0.0000000000000000e+00" cType="1" res="5.8777449885383248e-04" rms="4.5962876081466675e-01" purity="6.2168097496032715e-01" nType="-99"/>
        </Node>
        <Node pos="r" depth="1" NCoef="0" IVar="5" Cut="5.3178930664062500e+02" cType="1" res="-1.1431734077632427e-02" rms="4.6935352683067322e-01" purity="4.7558644413948059e-01" nType="0">
          <Node pos="l" depth="2" NCoef="0" IVar="-1" Cut="0.0000000000000000e+00" cType="1" res="-3.3378154039382935e-03" rms="4.5788404345512390e-01" purity="3.5829746723175049e-01" nType="-99"/>
          <Node pos="r" depth="2" NCoef="0" IVar="-1" Cut="0.0000000000000000e+00" cType="1" res="-5.7042972912313417e-05" rms="4.7149646282196045e-01" purity="5.0407665967941284e-01" nType="-99"/>
        </Node>
      </Node>
    </BinaryTree>
    <BinaryTree type="DecisionTree" boostWeight="1.0000000000000000e+00" itree="241">
      <Node pos="s" depth="0" NCoef="0" IVar="5" Cut="4.5914001464843750e+02" cType="1" res="-3.0153554398566484e-03" rms="4.6377426385879517e-01" purity="4.9467650055885315e-01" nType="0">
        <Node pos="l" depth="1" NCoef="0" IVar="-1" Cut="0.0000000000000000e+00" cType="1" res="-3.9088139310479164e-03" rms="4.3592992424964905e-01" purity="3.1607499718666077e-01" nType="-99"/>
        <Node pos="r" depth="1" NCoef="0" IVar="0" Cut="2.2524192929267883e-02" cType="1" res="2.5567668490111828e-03" rms="4.6583697199821472e-01" purity="5.1099163293838501e-01" nType="0">
          <Node pos="l" depth="2" NCoef="0" IVar="-1" Cut="0.0000000000000000e+00" cType="1" res="-3.0386636499315500e-03" rms="4.5786529779434204e-01" purity="3.6284139752388000e-01" nType="-99"/>
          <Node pos="r" depth="2" NCoef="0" IVar="-1" Cut="0.0000000000000000e+00" cType="1" res="5.5143580539152026e-04" rms="4.6630057692527771e-01" purity="5.2716451883316040e-01" nType="-99"/>
        </Node>
      </Node>
    </BinaryTree>
    <BinaryTree type="DecisionTree" boostWeight="1.0000000000000000e+00" itree="242">
      <Node pos="s" depth="0" NCoef="0" IVar="4" Cut="2.7528912760317326e-03" cType="1" res="3.4470502287149429e-03" rms="4.6344995498657227e-01" purity="5.0258684158325195e-01" nType="0">
        <Node pos="l" depth="1" NCoef="0" IVar="5" Cut="6.2326617431640625e+02" cType="1" res="1.2838187627494335e-02" rms="4.6438038349151611e-01" purity="5.3281897306442261e-01" nType="0">
          <Node pos="l" depth="2" NCoef="0" IVar="-1" Cut="0.0000000000000000e+00" cType="1" res="-5.1988189807161689e-04" rms="4.6130540966987610e-01" purity="4.5865964889526367e-01" nType="-99"/>
          <Node pos="r" depth="2" NCoef="0" IVar="-1" Cut="0.0000000000000000e+00" cType="1" res="1.7085012514144182e-03" rms="4.6579509973526001e-01" purity="5.7873368263244629e-01" nType="-99"/>
        </Node>
        <Node pos="r" depth="1" NCoef="0" IVar="3" Cut="1.4579879045486450e+00" cType="1" res="-3.7315394729375839e-02" rms="4.5715901255607605e-01" purity="3.7136355042457581e-01" nType="0">
          <Node pos="l" depth="2" NCoef="0" IVar="-1" Cut="0.0000000000000000e+00" cType="1" res="-6.3031195895746350e-04" rms="4.6344357728958130e-01" purity="4.3263098597526550e-01" nType="-99"/>
          <Node pos="r" depth="2" NCoef="0" IVar="-1" Cut="0.0000000000000000e+00" cType="1" res="-4.1784285567700863e-03" rms="4.4582957029342651e-01" purity="2.8722545504570007e-01" nType="-99"/>
        </Node>
      </Node>
    </BinaryTree>
    <BinaryTree type="DecisionTree" boostWeight="1.0000000000000000e+00" itree="243">
      <Node pos="s" depth="0" NCoef="0" IVar="0" Cut="4.4765170663595200e-02" cType="1" res="-1.0085618123412132e-02" rms="4.6433079242706299e-01" purity="4.9170252680778503e-01" nType="0">
        <Node pos="l" depth="1" NCoef="0" IVar="3" Cut="1.5520606040954590e+00" cType="1" res="-3.3211365342140198e-02" rms="4.5839586853981018e-01" purity="4.0694651007652283e-01" nType="0">
          <Node pos="l" depth="2" NCoef="0" IVar="-1" Cut="0.0000000000000000e+00" cType="1" res="-7.0678268093615770e-04" rms="4.7574087977409363e-01" purity="4.6551439166069031e-01" nType="-99"/>
          <Node pos="r" depth="2" NCoef="0" IVar="-1" Cut="0.0000000000000000e+00" cType="1" res="-4.4741923920810223e-03" rms="4.1970109939575195e-01" purity="2.9346293210983276e-01" nType="-99"/>
        </Node>
        <Node pos="r" depth="1" NCoef="0" IVar="5" Cut="5.9898583984375000e+02" cType="1" res="-1.6779249999672174e-03" rms="4.6618551015853882e-01" purity="5.2251678705215454e-01" nType="0">
          <Node pos="l" depth="2" NCoef="0" IVar="-1" Cut="0.0000000000000000e+00" cType="1" res="-1.8321028910577297e-03" rms="4.6289089322090149e-01" purity="4.1823679208755493e-01" nType="-99"/>
          <Node pos="r" depth="2" NCoef="0" IVar="-1" Cut="0.0000000000000000e+00" cType="1" res="1.0024204384535551e-03" rms="4.6736550331115723e-01" purity="5.8572995662689209e-01" nType="-99"/>
        </Node>
      </Node>
    </BinaryTree>
    <BinaryTree type="DecisionTree" boostWeight="1.0000000000000000e+00" itree="244">
      <Node pos="s" depth="0" NCoef="0" IVar="5" Cut="4.8687164306640625e+02" cType="1" res="8.8624889031052589e-03" rms="4.6029332280158997e-01" purity="5.0554281473159790e-01" nType="0">
        <Node pos="l" depth="1" NCoef="0" IVar="4" Cut="1.2681542430073023e-03" cType="1" res="-5.2099257707595825e-02" rms="4.4401201605796814e-01" purity="3.1403714418411255e-01" nType="0">
          <Node pos="l" depth="2" NCoef="0" IVar="-1" Cut="0.0000000000000000e+00" cType="1" res="-5.3702611476182938e-03" rms="4.4067290425300598e-01" purity="3.4182941913604736e-01" nType="-99"/>
          <Node pos="r" depth="2" NCoef="0" IVar="-1" Cut="0.0000000000000000e+00" cType="1" res="-8.4779463941231370e-04" rms="4.4411113858222961e-01" purity="2.8508764505386353e-01" nType="-99"/>
        </Node>
        <Node pos="r" depth="1" NCoef="0" IVar="1" Cut="2.1068866252899170e+00" cType="1" res="1.7073391005396843e-02" rms="4.6182793378829956e-01" purity="5.3133666515350342e-01" nType="0">
          <Node pos="l" depth="2" NCoef="0" IVar="-1" Cut="0.0000000000000000e+00" cType="1" res="1.6389153897762299e-03" rms="4.6305474638938904e-01" purity="5.6048345565795898e-01" nType="-99"/>
          <Node pos="r" depth="2" NCoef="0" IVar="-1" Cut="0.0000000000000000e+00" cType="1" res="-2.2630793973803520e-03" rms="4.4985359907150269e-01" purity="3.3950832486152649e-01" nType="-99"/>
        </Node>
      </Node>
    </BinaryTree>
    <BinaryTree type="DecisionTree" boostWeight="1.0000000000000000e+00" itree="245">
      <Node pos="s" depth="0" NCoef="0" IVar="0" Cut="8.7659783661365509e-02" cType="1" res="-1.4090281911194324e-03" rms="4.6687406301498413e-01" purity="4.9585071206092834e-01" nType="0">
        <Node pos="l" depth="1" NCoef="0" IVar="0" Cut="6.7896835505962372e-02" cType="1" res="-1.6679255291819572e-02" rms="4.6704658865928650e-01" purity="4.4255870580673218e-01" nType="0">
          <Node pos="l" depth="2" NCoef="0" IVar="-1" Cut="0.0000000000000000e+00" cType="1" res="-4.0232195169664919e-04" rms="4.6797257661819458e-01" purity="4.4349902868270874e-01" nType="-99"/>
          <Node pos="r" depth="2" NCoef="0" IVar="-1" Cut="0.0000000000000000e+00" cType="1" res="-3.2695215195417404e-03" rms="4.6192079782485962e-01" purity="4.3919500708580017e-01" nType="-99"/>
        </Node>
        <Node pos="r" depth="1" NCoef="0" IVar="5" Cut="9.0088128662109375e+02" cType="1" res="1.7319325357675552e-02" rms="4.6597963571548462e-01" purity="5.6121134757995605e-01" nType="0">
          <Node pos="l" depth="2" NCoef="0" IVar="-1" Cut="0.0000000000000000e+00" cType="1" res="1.9008306553587317e-03" rms="4.6455460786819458e-01" purity="5.5792003870010376e-01" nType="-99"/>
          <Node pos="r" depth="2" NCoef="0" IVar="-1" Cut="0.0000000000000000e+00" cType="1" res="-3.3899922855198383e-03" rms="4.6836522221565247e-01" purity="5.7999080419540405e-01" nType="-99"/>
        </Node>
      </Node>
    </BinaryTree>
    <BinaryTree type="DecisionTree" boostWeight="1.0000000000000000e+00" itree="246">
      <Node pos="s" depth="0" NCoef="0" IVar="1" Cut="2.3486237525939941e+00" cType="1" res="5.6978738866746426e-03" rms="4.6287235617637634e-01" purity="5.0553828477859497e-01" nType="0">
        <Node pos="l" depth="1" NCoef="0" IVar="3" Cut="1.6299692392349243e+00" cType="1" res="1.1774824932217598e-02" rms="4.6690854430198669e-01" purity="5.3043448925018311e-01" nType="0">
          <Node pos="l" depth="2" NCoef="0" IVar="-1" Cut="0.0000000000000000e+00" cType="1" res="1.5309412265196443e-03" rms="4.6377080678939819e-01" purity="5.7027578353881836e-01" nType="-99"/>
          <Node pos="r" depth="2" NCoef="0" IVar="-1" Cut="0.0000000000000000e+00" cType="1" res="-1.0531006846576929e-03" rms="4.7319728136062622e-01" purity="4.3364042043685913e-01" nType="-99"/>
        </Node>
        <Node pos="r" depth="1" NCoef="0" IVar="-1" Cut="0.0000000000000000e+00" cType="1" res="-2.6773100253194571e-03" rms="4.2584562301635742e-01" purity="3.0508920550346375e-01" nType="-99"/>
      </Node>
    </BinaryTree>
    <BinaryTree type="DecisionTree" boostWeight="1.0000000000000000e+00" itree="247">
      <Node pos="s" depth="0" NCoef="0" IVar="3" Cut="1.8352675437927246e+00" cType="1" res="7.3318565264344215e-03" rms="4.6339586377143860e-01" purity="5.0717538595199585e-01" nType="0">
        <Node pos="l" depth="1" NCoef="0" IVar="3" Cut="5.6806081533432007e-01" cType="1" res="1.6275094822049141e-02" rms="4.6577054262161255e-01" purity="5.4449659585952759e-01" nType="0">
          <Node pos="l" depth="2" NCoef="0" IVar="-1" Cut="0.0000000000000000e+00" cType="1" res="-2.2712280042469501e-03" rms="4.8402553796768188e-01" purity="4.9376496672630310e-01" nType="-99"/>
          <Node pos="r" depth="2" NCoef="0" IVar="-1" Cut="0.0000000000000000e+00" cType="1" res="1.3231814373284578e-03" rms="4.6402519941329956e-01" purity="5.4851150512695312e-01" nType="-99"/>
        </Node>
        <Node pos="r" depth="1" NCoef="0" IVar="4" Cut="1.7606460023671389e-03" cType="1" res="-2.8734847903251648e-02" rms="4.5190042257308960e-01" purity="3.5666459798812866e-01" nType="0">
          <Node pos="l" depth="2" NCoef="0" IVar="-1" Cut="0.0000000000000000e+00" cType="1" res="9.8207339760847390e-05" rms="4.7025176882743835e-01" purity="4.3200850486755371e-01" nType="-99"/>
          <Node pos="r" depth="2" NCoef="0" IVar="-1" Cut="0.0000000000000000e+00" cType="1" res="-4.4018710032105446e-03" rms="4.1859203577041626e-01" purity="2.4303385615348816e-01" nType="-99"/>
        </Node>
      </Node>
    </BinaryTree>
    <BinaryTree type="DecisionTree" boostWeight="1.0000000000000000e+00" itree="248">
      <Node pos="s" depth="0" NCoef="0" IVar="1" Cut="1.3664996623992920e+00" cType="1" res="3.1998180784285069e-03" rms="4.6732878684997559e-01" purity="5.0645506381988525e-01" nType="0">
        <Node pos="l" depth="1" NCoef="0" IVar="2" Cut="5.0560575723648071e-01" cType="1" res="1.5446964651346207e-02" rms="4.6828797459602356e-01" purity="5.6434828042984009e-01" nType="0">
          <Node pos="l" depth="2" NCoef="0" IVar="-1" Cut="0.0000000000000000e+00" cType="1" res="3.8620578125119209e-03" rms="4.6697431802749634e-01" purity="5.3154706954956055e-01" nType="-99"/>
          <Node pos="r" depth="2" NCoef="0" IVar="-1" Cut="0.0000000000000000e+00" cType="1" res="1.3013645366299897e-04" rms="4.6778488159179688e-01" purity="5.7368987798690796e-01" nType="-99"/>
        </Node>
        <Node pos="r" depth="1" NCoef="0" IVar="1" Cut="1.6137579679489136e+00" cType="1" res="-2.1287543699145317e-02" rms="4.6443766355514526e-01" purity="3.9070135354995728e-01" nType="0">
          <Node pos="l" depth="2" NCoef="0" IVar="-1" Cut="0.0000000000000000e+00" cType="1" res="-4.1064666584134102e-03" rms="4.6879440546035767e-01" purity="4.0319505333900452e-01" nType="-99"/>
          <Node pos="r" depth="2" NCoef="0" IVar="-1" Cut="0.0000000000000000e+00" cType="1" res="-3.6032241769134998e-04" rms="4.6193665266036987e-01" purity="3.8651800155639648e-01" nType="-99"/>
        </Node>
      </Node>
    </BinaryTree>
    <BinaryTree type="DecisionTree" boostWeight="1.0000000000000000e+00" itree="249">
      <Node pos="s" depth="0" NCoef="0" IVar="5" Cut="4.4348458862304688e+02" cType="1" res="-2.3911958560347557e-03" rms="4.6173015236854553e-01" purity="4.9701404571533203e-01" nType="0">
        <Node pos="l" depth="1" NCoef="0" IVar="-1" Cut="0.0000000000000000e+00" cType="1" res="-5.0222915597259998e-03" rms="3.9653590321540833e-01" purity="2.7344027161598206e-01" nType="-99"/>
        <Node pos="r" depth="1" NCoef="0" IVar="1" Cut="2.2012429237365723e+00" cType="1" res="3.1026899814605713e-03" rms="4.6538823843002319e-01" purity="5.1243436336517334e-01" nType="0">
          <Node pos="l" depth="2" NCoef="0" IVar="-1" Cut="0.0000000000000000e+00" cType="1" res="6.1732972972095013e-04" rms="4.6973183751106262e-01" purity="5.4041039943695068e-01" nType="-99"/>
          <Node pos="r" depth="2" NCoef="0" IVar="-1" Cut="0.0000000000000000e+00" cType="1" res="-2.6179277338087559e-03" rms="4.3051183223724365e-01" purity="3.1427192687988281e-01" nType="-99"/>
        </Node>
      </Node>
    </BinaryTree>
    <BinaryTree type="DecisionTree" boostWeight="1.0000000000000000e+00" itree="250">
      <Node pos="s" depth="0" NCoef="0" IVar="1" Cut="5.2140659093856812e-01" cType="1" res="2.1191085688769817e-03" rms="4.6331447362899780e-01" purity="5.0580847263336182e-01" nType="0">
        <Node pos="l" depth="1" NCoef="0" IVar="4" Cut="1.6733868978917599e-03" cType="1" res="4.5065794140100479e-02" rms="4.5742133259773254e-01" purity="6.2369114160537720e-01" nType="0">
          <Node pos="l" depth="2" NCoef="0" IVar="-1" Cut="0.0000000000000000e+00" cType="1" res="1.1814199388027191e-03" rms="4.5168095827102661e-01" purity="6.3669890165328979e-01" nType="-99"/>
          <Node pos="r" depth="2" NCoef="0" IVar="-1" Cut="0.0000000000000000e+00" cType="1" res="5.9875156730413437e-03" rms="4.6316629648208618e-01" purity="6.0070496797561646e-01" nType="-99"/>
        </Node>
        <Node pos="r" depth="1" NCoef="0" IVar="0" Cut="1.7899462580680847e-01" cType="1" res="-1.1461284942924976e-02" rms="4.6433657407760620e-01" purity="4.6853208541870117e-01" nType="0">
          <Node pos="l" depth="2" NCoef="0" IVar="-1" Cut="0.0000000000000000e+00" cType="1" res="-1.1172674130648375e-03" rms="4.6581628918647766e-01" purity="4.4977632164955139e-01" nType="-99"/>
          <Node pos="r" depth="2" NCoef="0" IVar="-1" Cut="0.0000000000000000e+00" cType="1" res="2.6222823653370142e-03" rms="4.4966790080070496e-01" purity="6.1243140697479248e-01" nType="-99"/>
        </Node>
      </Node>
    </BinaryTree>
    <BinaryTree type="DecisionTree" boostWeight="1.0000000000000000e+00" itree="251">
      <Node pos="s" depth="0" NCoef="0" IVar="3" Cut="1.1258096694946289e+00" cType="1" res="1.3904740335419774e-03" rms="4.6638962626457214e-01" purity="5.0438690185546875e-01" nType="0">
        <Node pos="l" depth="1" NCoef="0" IVar="5" Cut="1.1177384033203125e+03" cType="1" res="-2.1856363862752914e-02" rms="4.6587583422660828e-01" purity="5.1913589239120483e-01" nType="0">
          <Node pos="l" depth="2" NCoef="0" IVar="-1" Cut="0.0000000000000000e+00" cType="1" res="-2.0550398621708155e-03" rms="4.6605417132377625e-01" purity="4.9892607331275940e-01" nType="-99"/>
          <Node pos="r" depth="2" NCoef="0" IVar="-1" Cut="0.0000000000000000e+00" cType="1" res="2.6529713068157434e-03" rms="4.5995306968688965e-01" purity="6.3915520906448364e-01" nType="-99"/>
        </Node>
        <Node pos="r" depth="1" NCoef="0" IVar="0" Cut="8.5385955870151520e-02" cType="1" res="1.6586182639002800e-02" rms="4.6609896421432495e-01" purity="4.9474599957466125e-01" nType="0">
          <Node pos="l" depth="2" NCoef="0" IVar="-1" Cut="0.0000000000000000e+00" cType="1" res="-1.3213261263445020e-04" rms="4.6710905432701111e-01" purity="4.3324181437492371e-01" nType="-99"/>
          <Node pos="r" depth="2" NCoef="0" IVar="-1" Cut="0.0000000000000000e+00" cType="1" res="2.3632810916751623e-03" rms="4.6426659822463989e-01" purity="5.5813163518905640e-01" nType="-99"/>
        </Node>
      </Node>
    </BinaryTree>
    <BinaryTree type="DecisionTree" boostWeight="1.0000000000000000e+00" itree="252">
      <Node pos="s" depth="0" NCoef="0" IVar="3" Cut="1.2193524837493896e+00" cType="1" res="-8.9410375803709030e-03" rms="4.6042194962501526e-01" purity="4.9501815438270569e-01" nType="0">
        <Node pos="l" depth="1" NCoef="0" IVar="6" Cut="2.6034836769104004e+00" cType="1" res="1.9477512687444687e-02" rms="4.6087592840194702e-01" purity="5.5763280391693115e-01" nType="0">
          <Node pos="l" depth="2" NCoef="0" IVar="-1" Cut="0.0000000000000000e+00" cType="1" res="-1.0004019131883979e-03" rms="4.6398881077766418e-01" purity="3.3741435408592224e-01" nType="-99"/>
          <Node pos="r" depth="2" NCoef="0" IVar="-1" Cut="0.0000000000000000e+00" cType="1" res="2.0224405452609062e-03" rms="4.5932239294052124e-01" purity="6.2632298469543457e-01" nType="-99"/>
        </Node>
        <Node pos="r" depth="1" NCoef="0" IVar="2" Cut="7.6333004236221313e-01" cType="1" res="-3.1932156533002853e-02" rms="4.5876795053482056e-01" purity="4.4436180591583252e-01" nType="0">
          <Node pos="l" depth="2" NCoef="0" IVar="-1" Cut="0.0000000000000000e+00" cType="1" res="-2.7267741970717907e-03" rms="4.6147316694259644e-01" purity="4.0941098332405090e-01" nType="-99"/>
          <Node pos="r" depth="2" NCoef="0" IVar="-1" Cut="0.0000000000000000e+00" cType="1" res="3.9754123426973820e-03" rms="4.3039551377296448e-01" purity="6.7776793241500854e-01" nType="-99"/>
        </Node>
      </Node>
    </BinaryTree>
    <BinaryTree type="DecisionTree" boostWeight="1.0000000000000000e+00" itree="253">
      <Node pos="s" depth="0" NCoef="0" IVar="3" Cut="1.0866653919219971e+00" cType="1" res="2.9329762328416109e-03" rms="4.6401619911193848e-01" purity="5.0278162956237793e-01" nType="0">
        <Node pos="l" depth="1" NCoef="0" IVar="3" Cut="9.2809998989105225e-01" cType="1" res="2.8298942372202873e-02" rms="4.6284294128417969e-01" purity="5.6632798910140991e-01" nType="0">
          <Node pos="l" depth="2" NCoef="0" IVar="-1" Cut="0.0000000000000000e+00" cType="1" res="5.5883283494040370e-04" rms="4.6589839458465576e-01" purity="5.4583656787872314e-01" nType="-99"/>
          <Node pos="r" depth="2" NCoef="0" IVar="-1" Cut="0.0000000000000000e+00" cType="1" res="5.3107687272131443e-03" rms="4.5076048374176025e-01" purity="6.1980354785919189e-01" nType="-99"/>
        </Node>
        <Node pos="r" depth="1" NCoef="0" IVar="6" Cut="2.9201984405517578e+00" cType="1" res="-1.1793510988354683e-02" rms="4.6406024694442749e-01" purity="4.6588906645774841e-01" nType="0">
          <Node pos="l" depth="2" NCoef="0" IVar="-1" Cut="0.0000000000000000e+00" cType="1" res="-2.7742283418774605e-03" rms="4.4289726018905640e-01" purity="2.8861197829246521e-01" nType="-99"/>
          <Node pos="r" depth="2" NCoef="0" IVar="-1" Cut="0.0000000000000000e+00" cType="1" res="2.2676491062156856e-04" rms="4.7271543741226196e-01" purity="5.4772514104843140e-01" nType="-99"/>
        </Node>
      </Node>
    </BinaryTree>
    <BinaryTree type="DecisionTree" boostWeight="1.0000000000000000e+00" itree="254">
      <Node pos="s" depth="0" NCoef="0" IVar="6" Cut="5.5550260543823242e+00" cType="1" res="1.5545215457677841e-02" rms="4.6705460548400879e-01" purity="5.1761651039123535e-01" nType="0">
        <Node pos="l" depth="1" NCoef="0" IVar="0" Cut="4.0674157440662384e-02" cType="1" res="2.1946635097265244e-02" rms="4.6882987022399902e-01" purity="4.9733194708824158e-01" nType="0">
          <Node pos="l" depth="2" NCoef="0" IVar="-1" Cut="0.0000000000000000e+00" cType="1" res="-5.6428363313898444e-04" rms="4.6512803435325623e-01" purity="4.0107756853103638e-01" nType="-99"/>
          <Node pos="r" depth="2" NCoef="0" IVar="-1" Cut="0.0000000000000000e+00" cType="1" res="1.9770020153373480e-03" rms="4.6951767802238464e-01" purity="5.2570056915283203e-01" nType="-99"/>
        </Node>
        <Node pos="r" depth="1" NCoef="0" IVar="-1" Cut="0.0000000000000000e+00" cType="1" res="-3.4490576945245266e-03" rms="4.4648212194442749e-01" purity="7.0144563913345337e-01" nType="-99"/>
      </Node>
    </BinaryTree>
    <BinaryTree type="DecisionTree" boostWeight="1.0000000000000000e+00" itree="255">
      <Node pos="s" depth="0" NCoef="0" IVar="0" Cut="1.6705019772052765e-01" cType="1" res="-1.6657749190926552e-02" rms="4.6979516744613647e-01" purity="4.8649555444717407e-01" nType="0">
        <Node pos="l" depth="1" NCoef="0" IVar="0" Cut="1.2890960276126862e-01" cType="1" res="-9.1557865962386131e-03" rms="4.6987885236740112e-01" purity="4.7897389531135559e-01" nType="0">
          <Node pos="l" depth="2" NCoef="0" IVar="-1" Cut="0.0000000000000000e+00" cType="1" res="-1.1607843916863203e-03" rms="4.7085946798324585e-01" purity="4.6147918701171875e-01" nType="-99"/>
          <Node pos="r" depth="2" NCoef="0" IVar="-1" Cut="0.0000000000000000e+00" cType="1" res="3.8588941097259521e-03" rms="4.5766466856002808e-01" purity="5.9923988580703735e-01" nType="-99"/>
        </Node>
        <Node pos="r" depth="1" NCoef="0" IVar="5" Cut="6.0293273925781250e+02" cType="1" res="-5.9691935777664185e-02" rms="4.6699196100234985e-01" purity="5.2964264154434204e-01" nType="0">
          <Node pos="l" depth="2" NCoef="0" IVar="-1" Cut="0.0000000000000000e+00" cType="1" res="-1.2447906192392111e-03" rms="4.5422670245170593e-01" purity="4.9903759360313416e-01" nType="-99"/>
          <Node pos="r" depth="2" NCoef="0" IVar="-1" Cut="0.0000000000000000e+00" cType="1" res="-7.0003066211938858e-03" rms="4.7610837221145630e-01" purity="5.6033378839492798e-01" nType="-99"/>
        </Node>
      </Node>
    </BinaryTree>
    <BinaryTree type="DecisionTree" boostWeight="1.0000000000000000e+00" itree="256">
      <Node pos="s" depth="0" NCoef="0" IVar="5" Cut="4.6399209594726562e+02" cType="1" res="-2.3722073528915644e-03" rms="4.6403092145919800e-01" purity="4.9981594085693359e-01" nType="0">
        <Node pos="l" depth="1" NCoef="0" IVar="-1" Cut="0.0000000000000000e+00" cType="1" res="-2.8885065112262964e-03" rms="4.5045435428619385e-01" purity="3.4034508466720581e-01" nType="-99"/>
        <Node pos="r" depth="1" NCoef="0" IVar="0" Cut="9.4816133379936218e-02" cType="1" res="2.3188602644950151e-03" rms="4.6516484022140503e-01" purity="5.1635694503784180e-01" nType="0">
          <Node pos="l" depth="2" NCoef="0" IVar="-1" Cut="0.0000000000000000e+00" cType="1" res="-6.8964215461164713e-04" rms="4.6647408604621887e-01" purity="4.6188977360725403e-01" nType="-99"/>
          <Node pos="r" depth="2" NCoef="0" IVar="-1" Cut="0.0000000000000000e+00" cType="1" res="1.5584933571517467e-03" rms="4.6237272024154663e-01" purity="6.0008436441421509e-01" nType="-99"/>
        </Node>
      </Node>
    </BinaryTree>
    <BinaryTree type="DecisionTree" boostWeight="1.0000000000000000e+00" itree="257">
      <Node pos="s" depth="0" NCoef="0" IVar="6" Cut="4.5269398689270020e+00" cType="1" res="-1.2806596714654006e-05" rms="4.6726685762405396e-01" purity="5.0166869163513184e-01" nType="0">
        <Node pos="l" depth="1" NCoef="0" IVar="3" Cut="1.3762243986129761e+00" cType="1" res="8.7917335331439972e-03" rms="4.7259932756423950e-01" purity="4.4124248623847961e-01" nType="0">
          <Node pos="l" depth="2" NCoef="0" IVar="-1" Cut="0.0000000000000000e+00" cType="1" res="-4.4317232095636427e-04" rms="4.7537258267402649e-01" purity="4.5463815331459045e-01" nType="-99"/>
          <Node pos="r" depth="2" NCoef="0" IVar="-1" Cut="0.0000000000000000e+00" cType="1" res="1.8222751095890999e-03" rms="4.6827358007431030e-01" purity="4.2433312535285950e-01" nType="-99"/>
        </Node>
        <Node pos="r" depth="1" NCoef="0" IVar="6" Cut="5.5876164436340332e+00" cType="1" res="-2.2868921980261803e-02" rms="4.5233204960823059e-01" purity="6.5853178501129150e-01" nType="0">
          <Node pos="l" depth="2" NCoef="0" IVar="-1" Cut="0.0000000000000000e+00" cType="1" res="-3.6999548319727182e-03" rms="4.6972629427909851e-01" purity="5.9409308433532715e-01" nType="-99"/>
          <Node pos="r" depth="2" NCoef="0" IVar="-1" Cut="0.0000000000000000e+00" cType="1" res="4.3222107924520969e-03" rms="4.0298405289649963e-01" purity="7.9764539003372192e-01" nType="-99"/>
        </Node>
      </Node>
    </BinaryTree>
    <BinaryTree type="DecisionTree" boostWeight="1.0000000000000000e+00" itree="258">
      <Node pos="s" depth="0" NCoef="0" IVar="3" Cut="7.6024353504180908e-01" cType="1" res="-9.0454211458563805e-03" rms="4.6724894642829895e-01" purity="4.9396303296089172e-01" nType="0">
        <Node pos="l" depth="1" NCoef="0" IVar="5" Cut="6.4371520996093750e+02" cType="1" res="-4.3593283742666245e-02" rms="4.6814772486686707e-01" purity="4.8335674405097961e-01" nType="0">
          <Node pos="l" depth="2" NCoef="0" IVar="-1" Cut="0.0000000000000000e+00" cType="1" res="-5.2578831091523170e-03" rms="4.5187965035438538e-01" purity="3.7744310498237610e-01" nType="-99"/>
          <Node pos="r" depth="2" NCoef="0" IVar="-1" Cut="0.0000000000000000e+00" cType="1" res="-9.7263947827741504e-04" rms="4.7584316134452820e-01" purity="5.4930746555328369e-01" nType="-99"/>
        </Node>
        <Node pos="r" depth="1" NCoef="0" IVar="3" Cut="1.1722588539123535e+00" cType="1" res="-1.8227047985419631e-03" rms="4.6673774719238281e-01" purity="4.9618047475814819e-01" nType="0">
          <Node pos="l" depth="2" NCoef="0" IVar="-1" Cut="0.0000000000000000e+00" cType="1" res="1.4457887737080455e-03" rms="4.6146100759506226e-01" purity="5.6768751144409180e-01" nType="-99"/>
          <Node pos="r" depth="2" NCoef="0" IVar="-1" Cut="0.0000000000000000e+00" cType="1" res="-7.6303677633404732e-04" rms="4.6860876679420471e-01" purity="4.6551460027694702e-01" nType="-99"/>
        </Node>
      </Node>
    </BinaryTree>
    <BinaryTree type="DecisionTree" boostWeight="1.0000000000000000e+00" itree="259">
      <Node pos="s" depth="0" NCoef="0" IVar="1" Cut="2.1415111422538757e-01" cType="1" res="-2.7884414885193110e-03" rms="4.6632799506187439e-01" purity="4.9848127365112305e-01" nType="0">
        <Node pos="l" depth="1" NCoef="0" IVar="-1" Cut="0.0000000000000000e+00" cType="1" res="5.1118000410497189e-03" rms="4.3649882078170776e-01" purity="6.6659694910049438e-01" nType="-99"/>
        <Node pos="r" depth="1" NCoef="0" IVar="3" Cut="8.8793677091598511e-01" cType="1" res="-7.9980669543147087e-03" rms="4.6777805685997009e-01" purity="4.8730722069740295e-01" nType="0">
          <Node pos="l" depth="2" NCoef="0" IVar="-1" Cut="0.0000000000000000e+00" cType="1" res="-2.1142130717635155e-03" rms="4.6984925866127014e-01" purity="4.9398952722549438e-01" nType="-99"/>
          <Node pos="r" depth="2" NCoef="0" IVar="-1" Cut="0.0000000000000000e+00" cType="1" res="3.8787784433225170e-05" rms="4.6677109599113464e-01" purity="4.8509499430656433e-01" nType="-99"/>
        </Node>
      </Node>
    </BinaryTree>
    <BinaryTree type="DecisionTree" boostWeight="1.0000000000000000e+00" itree="260">
      <Node pos="s" depth="0" NCoef="0" IVar="4" Cut="2.2670729085803032e-03" cType="1" res="1.1407552286982536e-02" rms="4.6154335141181946e-01" purity="5.1292729377746582e-01" nType="0">
        <Node pos="l" depth="1" NCoef="0" IVar="4" Cut="1.4864756667520851e-04" cType="1" res="2.2419961169362068e-02" rms="4.6115377545356750e-01" purity="5.5472409725189209e-01" nType="0">
          <Node pos="l" depth="2" NCoef="0" IVar="-1" Cut="0.0000000000000000e+00" cType="1" res="4.6097277663648129e-03" rms="4.3564751744270325e-01" purity="7.1082639694213867e-01" nType="-99"/>
          <Node pos="r" depth="2" NCoef="0" IVar="-1" Cut="0.0000000000000000e+00" cType="1" res="8.3546404493972659e-04" rms="4.6697428822517395e-01" purity="5.1499360799789429e-01" nType="-99"/>
        </Node>
        <Node pos="r" depth="1" NCoef="0" IVar="6" Cut="4.0058317184448242e+00" cType="1" res="-2.0411452278494835e-02" rms="4.6119198203086853e-01" purity="3.9216053485870361e-01" nType="0">
          <Node pos="l" depth="2" NCoef="0" IVar="-1" Cut="0.0000000000000000e+00" cType="1" res="-2.0362830255180597e-03" rms="4.5843955874443054e-01" purity="3.3697366714477539e-01" nType="-99"/>
          <Node pos="r" depth="2" NCoef="0" IVar="-1" Cut="0.0000000000000000e+00" cType="1" res="2.3243448231369257e-03" rms="4.6764877438545227e-01" purity="6.1604273319244385e-01" nType="-99"/>
        </Node>
      </Node>
    </BinaryTree>
    <BinaryTree type="DecisionTree" boostWeight="1.0000000000000000e+00" itree="261">
      <Node pos="s" depth="0" NCoef="0" IVar="4" Cut="5.6961731752380729e-04" cType="1" res="-1.2853566557168961e-02" rms="4.7037121653556824e-01" purity="4.8879885673522949e-01" nType="0">
        <Node pos="l" depth="1" NCoef="0" IVar="0" Cut="9.1527402400970459e-02" cType="1" res="-3.7218544632196426e-02" rms="4.6940338611602783e-01" purity="5.6115776300430298e-01" nType="0">
          <Node pos="l" depth="2" NCoef="0" IVar="-1" Cut="0.0000000000000000e+00" cType="1" res="-3.4721142146736383e-03" rms="4.7215527296066284e-01" purity="5.0221711397171021e-01" nType="-99"/>
          <Node pos="r" depth="2" NCoef="0" IVar="-1" Cut="0.0000000000000000e+00" cType="1" res="-9.2825823230668902e-04" rms="4.6445852518081665e-01" purity="6.4226388931274414e-01" nType="-99"/>
        </Node>
        <Node pos="r" depth="1" NCoef="0" IVar="4" Cut="7.8584277071058750e-04" cType="1" res="-9.6156343352049589e-04" rms="4.7038477659225464e-01" purity="4.5348203182220459e-01" nType="0">
          <Node pos="l" depth="2" NCoef="0" IVar="-1" Cut="0.0000000000000000e+00" cType="1" res="3.9849332533776760e-03" rms="4.7523713111877441e-01" purity="5.6720995903015137e-01" nType="-99"/>
          <Node pos="r" depth="2" NCoef="0" IVar="-1" Cut="0.0000000000000000e+00" cType="1" res="-5.1796447951346636e-04" rms="4.6922069787979126e-01" purity="4.3991959095001221e-01" nType="-99"/>
        </Node>
      </Node>
    </BinaryTree>
    <BinaryTree type="DecisionTree" boostWeight="1.0000000000000000e+00" itree="262">
      <Node pos="s" depth="0" NCoef="0" IVar="2" Cut="8.0543619394302368e-01" cType="1" res="-1.4990107156336308e-02" rms="4.6360611915588379e-01" purity="4.8290270566940308e-01" nType="0">
        <Node pos="l" depth="1" NCoef="0" IVar="6" Cut="4.7303848266601562e+00" cType="1" res="-1.9605910405516624e-02" rms="4.6485990285873413e-01" purity="4.6122887730598450e-01" nType="0">
          <Node pos="l" depth="2" NCoef="0" IVar="-1" Cut="0.0000000000000000e+00" cType="1" res="-1.6149876173585653e-03" rms="4.6824336051940918e-01" purity="3.9836782217025757e-01" nType="-99"/>
          <Node pos="r" depth="2" NCoef="0" IVar="-1" Cut="0.0000000000000000e+00" cType="1" res="5.0463277148082852e-04" rms="4.5167091488838196e-01" purity="6.8398654460906982e-01" nType="-99"/>
        </Node>
        <Node pos="r" depth="1" NCoef="0" IVar="-1" Cut="0.0000000000000000e+00" cType="1" res="2.0638287533074617e-03" rms="4.4960680603981018e-01" purity="6.8333446979522705e-01" nType="-99"/>
      </Node>
    </BinaryTree>
    <BinaryTree type="DecisionTree" boostWeight="1.0000000000000000e+00" itree="263">
      <Node pos="s" depth="0" NCoef="0" IVar="3" Cut="2.2937502861022949e+00" cType="1" res="2.0884820260107517e-03" rms="4.6127998828887939e-01" purity="5.0164365768432617e-01" nType="0">
        <Node pos="l" depth="1" NCoef="0" IVar="6" Cut="3.0822474956512451e+00" cType="1" res="6.0246419161558151e-03" rms="4.6380040049552917e-01" purity="5.1690131425857544e-01" nType="0">
          <Node pos="l" depth="2" NCoef="0" IVar="-1" Cut="0.0000000000000000e+00" cType="1" res="-1.0268841870129108e-03" rms="4.6399563550949097e-01" purity="3.4381490945816040e-01" nType="-99"/>
          <Node pos="r" depth="2" NCoef="0" IVar="-1" Cut="0.0000000000000000e+00" cType="1" res="1.1952306376770139e-03" rms="4.6323096752166748e-01" purity="6.1012983322143555e-01" nType="-99"/>
        </Node>
        <Node pos="r" depth="1" NCoef="0" IVar="-1" Cut="0.0000000000000000e+00" cType="1" res="-3.7128538824617863e-03" rms="4.1420522332191467e-01" purity="2.5916594266891479e-01" nType="-99"/>
      </Node>
    </BinaryTree>
    <BinaryTree type="DecisionTree" boostWeight="1.0000000000000000e+00" itree="264">
      <Node pos="s" depth="0" NCoef="0" IVar="6" Cut="4.8674664497375488e+00" cType="1" res="-1.0609346441924572e-02" rms="4.6139913797378540e-01" purity="4.8603969812393188e-01" nType="0">
        <Node pos="l" depth="1" NCoef="0" IVar="5" Cut="5.1337573242187500e+02" cType="1" res="-2.1171944215893745e-02" rms="4.6907380223274231e-01" purity="4.2727288603782654e-01" nType="0">
          <Node pos="l" depth="2" NCoef="0" IVar="-1" Cut="0.0000000000000000e+00" cType="1" res="-3.8752844557166100e-03" rms="4.3687596917152405e-01" purity="3.0192133784294128e-01" nType="-99"/>
          <Node pos="r" depth="2" NCoef="0" IVar="-1" Cut="0.0000000000000000e+00" cType="1" res="-7.4223399860784411e-04" rms="4.7491830587387085e-01" purity="4.5299282670021057e-01" nType="-99"/>
        </Node>
        <Node pos="r" depth="1" NCoef="0" IVar="3" Cut="1.0428687334060669e+00" cType="1" res="3.4408733248710632e-02" rms="4.2420694231987000e-01" purity="7.3650550842285156e-01" nType="0">
          <Node pos="l" depth="2" NCoef="0" IVar="-1" Cut="0.0000000000000000e+00" cType="1" res="-4.5249782851897180e-04" rms="4.2719963192939758e-01" purity="7.2492313385009766e-01" nType="-99"/>
          <Node pos="r" depth="2" NCoef="0" IVar="-1" Cut="0.0000000000000000e+00" cType="1" res="4.2833974584937096e-03" rms="4.2116820812225342e-01" purity="7.4249160289764404e-01" nType="-99"/>
        </Node>
      </Node>
    </BinaryTree>
    <BinaryTree type="DecisionTree" boostWeight="1.0000000000000000e+00" itree="265">
      <Node pos="s" depth="0" NCoef="0" IVar="5" Cut="1.2891231689453125e+03" cType="1" res="-8.1842262297868729e-03" rms="4.7194609045982361e-01" purity="4.9836540222167969e-01" nType="0">
        <Node pos="l" depth="1" NCoef="0" IVar="6" Cut="5.0057840347290039e+00" cType="1" res="-1.3728776015341282e-02" rms="4.7198301553726196e-01" purity="4.8938360810279846e-01" nType="0">
          <Node pos="l" depth="2" NCoef="0" IVar="-1" Cut="0.0000000000000000e+00" cType="1" res="-3.1255226349458098e-04" rms="4.7468587756156921e-01" purity="4.5327416062355042e-01" nType="-99"/>
          <Node pos="r" depth="2" NCoef="0" IVar="-1" Cut="0.0000000000000000e+00" cType="1" res="-4.0025501511991024e-03" rms="4.5742309093475342e-01" purity="6.5388983488082886e-01" nType="-99"/>
        </Node>
        <Node pos="r" depth="1" NCoef="0" IVar="-1" Cut="0.0000000000000000e+00" cType="1" res="6.0712508857250214e-03" rms="4.6002277731895447e-01" purity="6.5981316566467285e-01" nType="-99"/>
      </Node>
    </BinaryTree>
    <BinaryTree type="DecisionTree" boostWeight="1.0000000000000000e+00" itree="266">
      <Node pos="s" depth="0" NCoef="0" IVar="2" Cut="3.9360776543617249e-01" cType="1" res="-1.2033859966322780e-03" rms="4.6288427710533142e-01" purity="4.9737671017646790e-01" nType="0">
        <Node pos="l" depth="1" NCoef="0" IVar="-1" Cut="0.0000000000000000e+00" cType="1" res="-5.2380659617483616e-03" rms="4.3800359964370728e-01" purity="2.9676488041877747e-01" nType="-99"/>
        <Node pos="r" depth="1" NCoef="0" IVar="2" Cut="6.3591504096984863e-01" cType="1" res="5.6128976866602898e-03" rms="4.6401318907737732e-01" purity="5.1262778043746948e-01" nType="0">
          <Node pos="l" depth="2" NCoef="0" IVar="-1" Cut="0.0000000000000000e+00" cType="1" res="-4.7670176718384027e-04" rms="4.6704059839248657e-01" purity="4.4076174497604370e-01" nType="-99"/>
          <Node pos="r" depth="2" NCoef="0" IVar="-1" Cut="0.0000000000000000e+00" cType="1" res="1.5187213430181146e-03" rms="4.5961576700210571e-01" purity="6.0324442386627197e-01" nType="-99"/>
        </Node>
      </Node>
    </BinaryTree>
    <BinaryTree type="DecisionTree" boostWeight="1.0000000000000000e+00" itree="267">
      <Node pos="s" depth="0" NCoef="0" IVar="3" Cut="2.2602491378784180e+00" cType="1" res="9.1502554714679718e-03" rms="4.6505612134933472e-01" purity="5.1118528842926025e-01" nType="0">
        <Node pos="l" depth="1" NCoef="0" IVar="2" Cut="6.3501316308975220e-01" cType="1" res="1.4352872967720032e-02" rms="4.6789959073066711e-01" purity="5.2979761362075806e-01" nType="0">
          <Node pos="l" depth="2" NCoef="0" IVar="-1" Cut="0.0000000000000000e+00" cType="1" res="1.9224793650209904e-03" rms="4.6832308173179626e-01" purity="4.8487284779548645e-01" nType="-99"/>
          <Node pos="r" depth="2" NCoef="0" IVar="-1" Cut="0.0000000000000000e+00" cType="1" res="-4.5818727812729776e-04" rms="4.6650078892707825e-01" purity="5.8685678243637085e-01" nType="-99"/>
        </Node>
        <Node pos="r" depth="1" NCoef="0" IVar="-1" Cut="0.0000000000000000e+00" cType="1" res="-4.0552737191319466e-03" rms="4.1628155112266541e-01" purity="2.4972900748252869e-01" nType="-99"/>
      </Node>
    </BinaryTree>
    <BinaryTree type="DecisionTree" boostWeight="1.0000000000000000e+00" itree="268">
      <Node pos="s" depth="0" NCoef="0" IVar="2" Cut="7.5837641954421997e-01" cType="1" res="-3.2881025690585375e-03" rms="4.6618101000785828e-01" purity="4.9475178122520447e-01" nType="0">
        <Node pos="l" depth="1" NCoef="0" IVar="1" Cut="2.3470222949981689e+00" cType="1" res="5.6262682192027569e-03" rms="4.6792951226234436e-01" purity="4.7736921906471252e-01" nType="0">
          <Node pos="l" depth="2" NCoef="0" IVar="-1" Cut="0.0000000000000000e+00" cType="1" res="7.0502841845154762e-04" rms="4.7115933895111084e-01" purity="4.9981486797332764e-01" nType="-99"/>
          <Node pos="r" depth="2" NCoef="0" IVar="-1" Cut="0.0000000000000000e+00" cType="1" res="-2.5008867960423231e-03" rms="4.3845456838607788e-01" purity="2.9702478647232056e-01" nType="-99"/>
        </Node>
        <Node pos="r" depth="1" NCoef="0" IVar="6" Cut="4.3969335556030273e+00" cType="1" res="-4.5676417648792267e-02" rms="4.5539405941963196e-01" purity="5.7740670442581177e-01" nType="0">
          <Node pos="l" depth="2" NCoef="0" IVar="-1" Cut="0.0000000000000000e+00" cType="1" res="-4.5803701505064964e-03" rms="4.7873169183731079e-01" purity="4.7557929158210754e-01" nType="-99"/>
          <Node pos="r" depth="2" NCoef="0" IVar="-1" Cut="0.0000000000000000e+00" cType="1" res="2.7909567579627037e-03" rms="3.8688167929649353e-01" purity="8.1110650300979614e-01" nType="-99"/>
        </Node>
      </Node>
    </BinaryTree>
    <BinaryTree type="DecisionTree" boostWeight="1.0000000000000000e+00" itree="269">
      <Node pos="s" depth="0" NCoef="0" IVar="4" Cut="7.2834611637517810e-04" cType="1" res="-1.0851864702999592e-02" rms="4.6430718898773193e-01" purity="4.8968431353569031e-01" nType="0">
        <Node pos="l" depth="1" NCoef="0" IVar="4" Cut="7.1557340561412275e-05" cType="1" res="1.7059491947293282e-02" rms="4.5609983801841736e-01" purity="6.0060644149780273e-01" nType="0">
          <Node pos="l" depth="2" NCoef="0" IVar="-1" Cut="0.0000000000000000e+00" cType="1" res="4.1896975599229336e-03" rms="4.0854996442794800e-01" purity="7.2760814428329468e-01" nType="-99"/>
          <Node pos="r" depth="2" NCoef="0" IVar="-1" Cut="0.0000000000000000e+00" cType="1" res="3.2077977084554732e-04" rms="4.7070771455764771e-01" purity="5.5700492858886719e-01" nType="-99"/>
        </Node>
        <Node pos="r" depth="1" NCoef="0" IVar="1" Cut="7.1370136737823486e-01" cType="1" res="-2.7914147824048996e-02" rms="4.6843531727790833e-01" purity="4.2187729477882385e-01" nType="0">
          <Node pos="l" depth="2" NCoef="0" IVar="-1" Cut="0.0000000000000000e+00" cType="1" res="-2.9989655595272779e-03" rms="4.7562602162361145e-01" purity="4.7158819437026978e-01" nType="-99"/>
          <Node pos="r" depth="2" NCoef="0" IVar="-1" Cut="0.0000000000000000e+00" cType="1" res="-9.5804879674687982e-04" rms="4.6421530842781067e-01" purity="3.9606809616088867e-01" nType="-99"/>
        </Node>
      </Node>
    </BinaryTree>
    <BinaryTree type="DecisionTree" boostWeight="1.0000000000000000e+00" itree="270">
      <Node pos="s" depth="0" NCoef="0" IVar="6" Cut="1.6971929073333740e+00" cType="1" res="-5.3141224198043346e-03" rms="4.6677905321121216e-01" purity="4.9112492799758911e-01" nType="0">
        <Node pos="l" depth="1" NCoef="0" IVar="-1" Cut="0.0000000000000000e+00" cType="1" res="-3.7755332887172699e-03" rms="4.2464819550514221e-01" purity="2.4502828717231750e-01" nType="-99"/>
        <Node pos="r" depth="1" NCoef="0" IVar="2" Cut="4.4984814524650574e-01" cType="1" res="-1.5884601743891835e-03" rms="4.6943747997283936e-01" purity="5.0879156589508057e-01" nType="0">
          <Node pos="l" depth="2" NCoef="0" IVar="-1" Cut="0.0000000000000000e+00" cType="1" res="2.0680767484009266e-03" rms="4.6368989348411560e-01" purity="4.4186788797378540e-01" nType="-99"/>
          <Node pos="r" depth="2" NCoef="0" IVar="-1" Cut="0.0000000000000000e+00" cType="1" res="-5.2251492161303759e-04" rms="4.7022041678428650e-01" purity="5.2139306068420410e-01" nType="-99"/>
        </Node>
      </Node>
    </BinaryTree>
    <BinaryTree type="DecisionTree" boostWeight="1.0000000000000000e+00" itree="271">
      <Node pos="s" depth="0" NCoef="0" IVar="3" Cut="8.6908400058746338e-01" cType="1" res="-3.0189789831638336e-03" rms="4.6909755468368530e-01" purity="4.9748069047927856e-01" nType="0">
        <Node pos="l" depth="1" NCoef="0" IVar="2" Cut="5.9153658151626587e-01" cType="1" res="-3.1208144500851631e-02" rms="4.7811001539230347e-01" purity="5.0813180208206177e-01" nType="0">
          <Node pos="l" depth="2" NCoef="0" IVar="-1" Cut="0.0000000000000000e+00" cType="1" res="4.4840318150818348e-04" rms="4.7865676879882812e-01" purity="4.8875194787979126e-01" nType="-99"/>
          <Node pos="r" depth="2" NCoef="0" IVar="-1" Cut="0.0000000000000000e+00" cType="1" res="-3.8150595501065254e-03" rms="4.7567674517631531e-01" purity="5.2247643470764160e-01" nType="-99"/>
        </Node>
        <Node pos="r" depth="1" NCoef="0" IVar="0" Cut="6.6444210708141327e-02" cType="1" res="5.6833806447684765e-03" rms="4.6593570709228516e-01" purity="4.9419254064559937e-01" nType="0">
          <Node pos="l" depth="2" NCoef="0" IVar="-1" Cut="0.0000000000000000e+00" cType="1" res="-1.0561061790212989e-03" rms="4.6642431616783142e-01" purity="4.1881179809570312e-01" nType="-99"/>
          <Node pos="r" depth="2" NCoef="0" IVar="-1" Cut="0.0000000000000000e+00" cType="1" res="1.4135302044451237e-03" rms="4.6493765711784363e-01" purity="5.4653465747833252e-01" nType="-99"/>
        </Node>
      </Node>
    </BinaryTree>
    <BinaryTree type="DecisionTree" boostWeight="1.0000000000000000e+00" itree="272">
      <Node pos="s" depth="0" NCoef="0" IVar="2" Cut="8.0276143550872803e-01" cType="1" res="-8.8498555123806000e-03" rms="4.6336859464645386e-01" purity="4.8769029974937439e-01" nType="0">
        <Node pos="l" depth="1" NCoef="0" IVar="2" Cut="5.8004754781723022e-01" cType="1" res="-1.6180662438273430e-02" rms="4.6655854582786560e-01" purity="4.6278217434883118e-01" nType="0">
          <Node pos="l" depth="2" NCoef="0" IVar="-1" Cut="0.0000000000000000e+00" cType="1" res="-3.8127160223666579e-05" rms="4.6251279115676880e-01" purity="4.2267745733261108e-01" nType="-99"/>
          <Node pos="r" depth="2" NCoef="0" IVar="-1" Cut="0.0000000000000000e+00" cType="1" res="-2.0238782744854689e-03" rms="4.7015714645385742e-01" purity="5.0416451692581177e-01" nType="-99"/>
        </Node>
        <Node pos="r" depth="1" NCoef="0" IVar="1" Cut="6.5074688196182251e-01" cType="1" res="5.3242485970258713e-02" rms="4.3043479323387146e-01" purity="6.9866359233856201e-01" nType="0">
          <Node pos="l" depth="2" NCoef="0" IVar="-1" Cut="0.0000000000000000e+00" cType="1" res="3.7096760934218764e-04" rms="4.3386855721473694e-01" purity="6.8017560243606567e-01" nType="-99"/>
          <Node pos="r" depth="2" NCoef="0" IVar="-1" Cut="0.0000000000000000e+00" cType="1" res="7.3997322469949722e-03" rms="4.2113754153251648e-01" purity="7.1769481897354126e-01" nType="-99"/>
        </Node>
      </Node>
    </BinaryTree>
    <BinaryTree type="DecisionTree" boostWeight="1.0000000000000000e+00" itree="273">
      <Node pos="s" depth="0" NCoef="0" IVar="1" Cut="1.7669644355773926e+00" cType="1" res="-6.1607053503394127e-03" rms="4.6489837765693665e-01" purity="4.9008682370185852e-01" nType="0">
        <Node pos="l" depth="1" NCoef="0" IVar="5" Cut="6.5914837646484375e+02" cType="1" res="-1.4665816910564899e-02" rms="4.6629083156585693e-01" purity="5.1324725151062012e-01" nType="0">
          <Node pos="l" depth="2" NCoef="0" IVar="-1" Cut="0.0000000000000000e+00" cType="1" res="-2.2981795482337475e-03" rms="4.6142283082008362e-01" purity="4.4151404500007629e-01" nType="-99"/>
          <Node pos="r" depth="2" NCoef="0" IVar="-1" Cut="0.0000000000000000e+00" cType="1" res="1.3106610276736319e-04" rms="4.6917599439620972e-01" purity="5.6647878885269165e-01" nType="-99"/>
        </Node>
        <Node pos="r" depth="1" NCoef="0" IVar="2" Cut="6.0557126998901367e-01" cType="1" res="2.4795530363917351e-02" rms="4.5846435427665710e-01" purity="4.0578943490982056e-01" nType="0">
          <Node pos="l" depth="2" NCoef="0" IVar="-1" Cut="0.0000000000000000e+00" cType="1" res="-5.6052544096019119e-05" rms="4.4566944241523743e-01" purity="3.4864392876625061e-01" nType="-99"/>
          <Node pos="r" depth="2" NCoef="0" IVar="-1" Cut="0.0000000000000000e+00" cType="1" res="5.7421475648880005e-03" rms="4.8251256346702576e-01" purity="5.4474389553070068e-01" nType="-99"/>
        </Node>
      </Node>
    </BinaryTree>
    <BinaryTree type="DecisionTree" boostWeight="1.0000000000000000e+00" itree="274">
      <Node pos="s" depth="0" NCoef="0" IVar="5" Cut="1.1083585205078125e+03" cType="1" res="1.8567787483334541e-03" rms="4.6370387077331543e-01" purity="5.0167059898376465e-01" nType="0">
        <Node pos="l" depth="1" NCoef="0" IVar="4" Cut="5.6844431674107909e-04" cType="1" res="-4.4853771105408669e-03" rms="4.6398201584815979e-01" purity="4.8715046048164368e-01" nType="0">
          <Node pos="l" depth="2" NCoef="0" IVar="-1" Cut="0.0000000000000000e+00" cType="1" res="1.1370955035090446e-03" rms="4.5428106188774109e-01" purity="6.0457134246826172e-01" nType="-99"/>
          <Node pos="r" depth="2" NCoef="0" IVar="-1" Cut="0.0000000000000000e+00" cType="1" res="-8.7902980158105493e-04" rms="4.6824601292610168e-01" purity="4.3073308467864990e-01" nType="-99"/>
        </Node>
        <Node pos="r" depth="1" NCoef="0" IVar="6" Cut="3.7347817420959473e+00" cType="1" res="5.1800154149532318e-02" rms="4.5845210552215576e-01" purity="6.1601364612579346e-01" nType="0">
          <Node pos="l" depth="2" NCoef="0" IVar="-1" Cut="0.0000000000000000e+00" cType="1" res="5.5288807488977909e-03" rms="4.7754836082458496e-01" purity="5.3516250848770142e-01" nType="-99"/>
          <Node pos="r" depth="2" NCoef="0" IVar="-1" Cut="0.0000000000000000e+00" cType="1" res="1.4222650788724422e-03" rms="4.3833366036415100e-01" purity="6.8768471479415894e-01" nType="-99"/>
        </Node>
      </Node>
    </BinaryTree>
    <BinaryTree type="DecisionTree" boostWeight="1.0000000000000000e+00" itree="275">
      <Node pos="s" depth="0" NCoef="0" IVar="5" Cut="4.6378732299804688e+02" cType="1" res="-7.6784500852227211e-03" rms="4.6651673316955566e-01" purity="4.9287694692611694e-01" nType="0">
        <Node pos="l" depth="1" NCoef="0" IVar="-1" Cut="0.0000000000000000e+00" cType="1" res="-3.7303362041711807e-03" rms="4.2999938130378723e-01" purity="3.0792516469955444e-01" nType="-99"/>
        <Node pos="r" depth="1" NCoef="0" IVar="5" Cut="9.4067785644531250e+02" cType="1" res="-2.6427339762449265e-03" rms="4.6950903534889221e-01" purity="5.1035892963409424e-01" nType="0">
          <Node pos="l" depth="2" NCoef="0" IVar="-1" Cut="0.0000000000000000e+00" cType="1" res="5.9833284467458725e-04" rms="4.6543550491333008e-01" purity="5.0577193498611450e-01" nType="-99"/>
          <Node pos="r" depth="2" NCoef="0" IVar="-1" Cut="0.0000000000000000e+00" cType="1" res="-2.5857065338641405e-03" rms="4.8036447167396545e-01" purity="5.2511376142501831e-01" nType="-99"/>
        </Node>
      </Node>
    </BinaryTree>
    <BinaryTree type="DecisionTree" boostWeight="1.0000000000000000e+00" itree="276">
      <Node pos="s" depth="0" NCoef="0" IVar="3" Cut="2.2445333003997803e+00" cType="1" res="6.5529844723641872e-03" rms="4.6335622668266296e-01" purity="5.0624930858612061e-01" nType="0">
        <Node pos="l" depth="1" NCoef="0" IVar="3" Cut="2.0026900768280029e+00" cType="1" res="1.2643573805689812e-02" rms="4.6641668677330017e-01" purity="5.2508044242858887e-01" nType="0">
          <Node pos="l" depth="2" NCoef="0" IVar="-1" Cut="0.0000000000000000e+00" cType="1" res="5.0756114069372416e-04" rms="4.6584236621856689e-01" purity="5.2892458438873291e-01" nType="-99"/>
          <Node pos="r" depth="2" NCoef="0" IVar="-1" Cut="0.0000000000000000e+00" cType="1" res="5.1736827008426189e-03" rms="4.6947285532951355e-01" purity="4.7061064839363098e-01" nType="-99"/>
        </Node>
        <Node pos="r" depth="1" NCoef="0" IVar="-1" Cut="0.0000000000000000e+00" cType="1" res="-5.2461610175669193e-03" rms="4.0510237216949463e-01" purity="2.2848229110240936e-01" nType="-99"/>
      </Node>
    </BinaryTree>
    <BinaryTree type="DecisionTree" boostWeight="1.0000000000000000e+00" itree="277">
      <Node pos="s" depth="0" NCoef="0" IVar="6" Cut="5.8461608886718750e+00" cType="1" res="6.1079808510839939e-03" rms="4.6321341395378113e-01" purity="5.0637418031692505e-01" nType="0">
        <Node pos="l" depth="1" NCoef="0" IVar="0" Cut="1.8559883534908295e-01" cType="1" res="2.4436828680336475e-03" rms="4.6870750188827515e-01" purity="4.8491925001144409e-01" nType="0">
          <Node pos="l" depth="2" NCoef="0" IVar="-1" Cut="0.0000000000000000e+00" cType="1" res="4.4955752673558891e-04" rms="4.6856632828712463e-01" purity="4.7796478867530823e-01" nType="-99"/>
          <Node pos="r" depth="2" NCoef="0" IVar="-1" Cut="0.0000000000000000e+00" cType="1" res="-2.5516424793750048e-03" rms="4.6789431571960449e-01" purity="5.4545569419860840e-01" nType="-99"/>
        </Node>
        <Node pos="r" depth="1" NCoef="0" IVar="-1" Cut="0.0000000000000000e+00" cType="1" res="5.3731761872768402e-03" rms="3.7005782127380371e-01" purity="8.1889063119888306e-01" nType="-99"/>
      </Node>
    </BinaryTree>
    <BinaryTree type="DecisionTree" boostWeight="1.0000000000000000e+00" itree="278">
      <Node pos="s" depth="0" NCoef="0" IVar="5" Cut="7.5480895996093750e+02" cType="1" res="-4.2858351953327656e-03" rms="4.6953439712524414e-01" purity="4.9659493565559387e-01" nType="0">
        <Node pos="l" depth="1" NCoef="0" IVar="0" Cut="6.5996564924716949e-02" cType="1" res="1.1819102801382542e-02" rms="4.6771267056465149e-01" purity="4.8233142495155334e-01" nType="0">
          <Node pos="l" depth="2" NCoef="0" IVar="-1" Cut="0.0000000000000000e+00" cType="1" res="3.3662135247141123e-03" rms="4.6169799566268921e-01" purity="4.3971365690231323e-01" nType="-99"/>
          <Node pos="r" depth="2" NCoef="0" IVar="-1" Cut="0.0000000000000000e+00" cType="1" res="-4.4644906301982701e-04" rms="4.6928885579109192e-01" purity="5.0209808349609375e-01" nType="-99"/>
        </Node>
        <Node pos="r" depth="1" NCoef="0" IVar="0" Cut="1.2765848636627197e-01" cType="1" res="-2.6077743619680405e-02" rms="4.7111254930496216e-01" purity="5.1589518785476685e-01" nType="0">
          <Node pos="l" depth="2" NCoef="0" IVar="-1" Cut="0.0000000000000000e+00" cType="1" res="-2.2837265860289335e-03" rms="4.7353169322013855e-01" purity="4.8447331786155701e-01" nType="-99"/>
          <Node pos="r" depth="2" NCoef="0" IVar="-1" Cut="0.0000000000000000e+00" cType="1" res="2.5372654199600220e-03" rms="4.5264434814453125e-01" purity="6.9009566307067871e-01" nType="-99"/>
        </Node>
      </Node>
    </BinaryTree>
    <BinaryTree type="DecisionTree" boostWeight="1.0000000000000000e+00" itree="279">
      <Node pos="s" depth="0" NCoef="0" IVar="0" Cut="2.2215457260608673e-01" cType="1" res="-3.8697298150509596e-03" rms="4.6725076436996460e-01" purity="4.9436071515083313e-01" nType="0">
        <Node pos="l" depth="1" NCoef="0" IVar="1" Cut="2.1653422713279724e-01" cType="1" res="-7.6272124424576759e-03" rms="4.6773293614387512e-01" purity="4.8327699303627014e-01" nType="0">
          <Node pos="l" depth="2" NCoef="0" IVar="-1" Cut="0.0000000000000000e+00" cType="1" res="2.7589984238147736e-03" rms="4.4343963265419006e-01" purity="6.1828309297561646e-01" nType="-99"/>
          <Node pos="r" depth="2" NCoef="0" IVar="-1" Cut="0.0000000000000000e+00" cType="1" res="-6.8370386725291610e-04" rms="4.6915164589881897e-01" purity="4.7418639063835144e-01" nType="-99"/>
        </Node>
        <Node pos="r" depth="1" NCoef="0" IVar="-1" Cut="0.0000000000000000e+00" cType="1" res="4.3526701629161835e-03" rms="4.5444408059120178e-01" purity="6.8066298961639404e-01" nType="-99"/>
      </Node>
    </BinaryTree>
    <BinaryTree type="DecisionTree" boostWeight="1.0000000000000000e+00" itree="280">
      <Node pos="s" depth="0" NCoef="0" IVar="0" Cut="1.5183053910732269e-01" cType="1" res="-4.4536911882460117e-03" rms="4.6473741531372070e-01" purity="4.9087342619895935e-01" nType="0">
        <Node pos="l" depth="1" NCoef="0" IVar="6" Cut="4.4129281044006348e+00" cType="1" res="2.7456979732960463e-03" rms="4.6366655826568604e-01" purity="4.8083713650703430e-01" nType="0">
          <Node pos="l" depth="2" NCoef="0" IVar="-1" Cut="0.0000000000000000e+00" cType="1" res="-5.3191732149571180e-04" rms="4.6638137102127075e-01" purity="3.9689722657203674e-01" nType="-99"/>
          <Node pos="r" depth="2" NCoef="0" IVar="-1" Cut="0.0000000000000000e+00" cType="1" res="2.1586210932582617e-03" rms="4.5594602823257446e-01" purity="6.8115866184234619e-01" nType="-99"/>
        </Node>
        <Node pos="r" depth="1" NCoef="0" IVar="2" Cut="7.3446577787399292e-01" cType="1" res="-3.8240220397710800e-02" rms="4.6825388073921204e-01" purity="5.3797334432601929e-01" nType="0">
          <Node pos="l" depth="2" NCoef="0" IVar="-1" Cut="0.0000000000000000e+00" cType="1" res="-7.7127857366576791e-04" rms="4.6821811795234680e-01" purity="5.2632856369018555e-01" nType="-99"/>
          <Node pos="r" depth="2" NCoef="0" IVar="-1" Cut="0.0000000000000000e+00" cType="1" res="-5.3488304838538170e-03" rms="4.6550112962722778e-01" purity="5.5545866489410400e-01" nType="-99"/>
        </Node>
      </Node>
    </BinaryTree>
    <BinaryTree type="DecisionTree" boostWeight="1.0000000000000000e+00" itree="281">
      <Node pos="s" depth="0" NCoef="0" IVar="3" Cut="5.6111299991607666e-01" cType="1" res="5.8566471561789513e-03" rms="4.6547514200210571e-01" purity="5.0820386409759521e-01" nType="0">
        <Node pos="l" depth="1" NCoef="0" IVar="-1" Cut="0.0000000000000000e+00" cType="1" res="-6.2443041242659092e-03" rms="4.7005236148834229e-01" purity="4.2412355542182922e-01" nType="-99"/>
        <Node pos="r" depth="1" NCoef="0" IVar="6" Cut="3.9325444698333740e+00" cType="1" res="1.2571892701089382e-02" rms="4.6434834599494934e-01" purity="5.1330977678298950e-01" nType="0">
          <Node pos="l" depth="2" NCoef="0" IVar="-1" Cut="0.0000000000000000e+00" cType="1" res="1.4529456384480000e-03" rms="4.6894469857215881e-01" purity="4.1872400045394897e-01" nType="-99"/>
          <Node pos="r" depth="2" NCoef="0" IVar="-1" Cut="0.0000000000000000e+00" cType="1" res="-1.9512772269081324e-04" rms="4.5740944147109985e-01" purity="6.4541375637054443e-01" nType="-99"/>
        </Node>
      </Node>
    </BinaryTree>
    <BinaryTree type="DecisionTree" boostWeight="1.0000000000000000e+00" itree="282">
      <Node pos="s" depth="0" NCoef="0" IVar="6" Cut="4.3107209205627441e+00" cType="1" res="6.6622910089790821e-03" rms="4.6196857094764709e-01" purity="5.1071941852569580e-01" nType="0">
        <Node pos="l" depth="1" NCoef="0" IVar="0" Cut="2.3087974637746811e-02" cType="1" res="-5.0076562911272049e-03" rms="4.7067743539810181e-01" purity="4.1771322488784790e-01" nType="0">
          <Node pos="l" depth="2" NCoef="0" IVar="-1" Cut="0.0000000000000000e+00" cType="1" res="-3.9077573455870152e-03" rms="4.3759727478027344e-01" purity="2.8110399842262268e-01" nType="-99"/>
          <Node pos="r" depth="2" NCoef="0" IVar="-1" Cut="0.0000000000000000e+00" cType="1" res="9.4343304226640612e-05" rms="4.7357717156410217e-01" purity="4.3220490217208862e-01" nType="-99"/>
        </Node>
        <Node pos="r" depth="1" NCoef="0" IVar="3" Cut="8.9350485801696777e-01" cType="1" res="3.0825806781649590e-02" rms="4.4241523742675781e-01" purity="7.0329594612121582e-01" nType="0">
          <Node pos="l" depth="2" NCoef="0" IVar="-1" Cut="0.0000000000000000e+00" cType="1" res="-8.3354301750659943e-04" rms="4.5334169268608093e-01" purity="6.8791878223419189e-01" nType="-99"/>
          <Node pos="r" depth="2" NCoef="0" IVar="-1" Cut="0.0000000000000000e+00" cType="1" res="3.3938752021640539e-03" rms="4.3733802437782288e-01" purity="7.0892196893692017e-01" nType="-99"/>
        </Node>
      </Node>
    </BinaryTree>
    <BinaryTree type="DecisionTree" boostWeight="1.0000000000000000e+00" itree="283">
      <Node pos="s" depth="0" NCoef="0" IVar="2" Cut="8.2203876972198486e-01" cType="1" res="8.0513540888205171e-04" rms="4.6806684136390686e-01" purity="5.0233894586563110e-01" nType="0">
        <Node pos="l" depth="1" NCoef="0" IVar="6" Cut="1.9103356599807739e+00" cType="1" res="5.3779524751007557e-03" rms="4.6858099102973938e-01" purity="4.9486514925956726e-01" nType="0">
          <Node pos="l" depth="2" NCoef="0" IVar="-1" Cut="0.0000000000000000e+00" cType="1" res="4.3334369547665119e-03" rms="4.6239206194877625e-01" purity="3.5304847359657288e-01" nType="-99"/>
          <Node pos="r" depth="2" NCoef="0" IVar="-1" Cut="0.0000000000000000e+00" cType="1" res="-4.7153243940556422e-05" rms="4.6882119774818420e-01" purity="5.0999861955642700e-01" nType="-99"/>
        </Node>
        <Node pos="r" depth="1" NCoef="0" IVar="-1" Cut="0.0000000000000000e+00" cType="1" res="-3.7146701943129301e-03" rms="4.5853984355926514e-01" purity="5.9043073654174805e-01" nType="-99"/>
      </Node>
    </BinaryTree>
    <BinaryTree type="DecisionTree" boostWeight="1.0000000000000000e+00" itree="284">
      <Node pos="s" depth="0" NCoef="0" IVar="5" Cut="6.5282489013671875e+02" cType="1" res="2.1816666703671217e-03" rms="4.6677067875862122e-01" purity="5.0381577014923096e-01" nType="0">
        <Node pos="l" depth="1" NCoef="0" IVar="6" Cut="5.0032100677490234e+00" cType="1" res="3.0154079198837280e-02" rms="4.6171039342880249e-01" purity="4.7711235284805298e-01" nType="0">
          <Node pos="l" depth="2" NCoef="0" IVar="-1" Cut="0.0000000000000000e+00" cType="1" res="1.2595504522323608e-03" rms="4.7135150432586670e-01" purity="4.2797979712486267e-01" nType="-99"/>
          <Node pos="r" depth="2" NCoef="0" IVar="-1" Cut="0.0000000000000000e+00" cType="1" res="7.1570291183888912e-03" rms="3.9261609315872192e-01" purity="7.7563303709030151e-01" nType="-99"/>
        </Node>
        <Node pos="r" depth="1" NCoef="0" IVar="3" Cut="1.3938093185424805e+00" cType="1" res="-1.9024707376956940e-02" rms="4.6946129202842712e-01" purity="5.2406018972396851e-01" nType="0">
          <Node pos="l" depth="2" NCoef="0" IVar="-1" Cut="0.0000000000000000e+00" cType="1" res="-6.5095569880213588e-05" rms="4.6800938248634338e-01" purity="5.7484459877014160e-01" nType="-99"/>
          <Node pos="r" depth="2" NCoef="0" IVar="-1" Cut="0.0000000000000000e+00" cType="1" res="-2.8069431427866220e-03" rms="4.7033658623695374e-01" purity="4.4811630249023438e-01" nType="-99"/>
        </Node>
      </Node>
    </BinaryTree>
    <BinaryTree type="DecisionTree" boostWeight="1.0000000000000000e+00" itree="285">
      <Node pos="s" depth="0" NCoef="0" IVar="1" Cut="1.4690003395080566e+00" cType="1" res="2.8019035235047340e-03" rms="4.6511200070381165e-01" purity="5.0241065025329590e-01" nType="0">
        <Node pos="l" depth="1" NCoef="0" IVar="0" Cut="1.8800196051597595e-01" cType="1" res="1.5720296651124954e-02" rms="4.6854296326637268e-01" purity="5.5749803781509399e-01" nType="0">
          <Node pos="l" depth="2" NCoef="0" IVar="-1" Cut="0.0000000000000000e+00" cType="1" res="5.5269303265959024e-04" rms="4.7162497043609619e-01" purity="5.3933709859848022e-01" nType="-99"/>
          <Node pos="r" depth="2" NCoef="0" IVar="-1" Cut="0.0000000000000000e+00" cType="1" res="5.2094748243689537e-03" rms="4.4053888320922852e-01" purity="6.9632786512374878e-01" nType="-99"/>
        </Node>
        <Node pos="r" depth="1" NCoef="0" IVar="5" Cut="7.4650964355468750e+02" cType="1" res="-2.7488255873322487e-02" rms="4.5553195476531982e-01" purity="3.7324571609497070e-01" nType="0">
          <Node pos="l" depth="2" NCoef="0" IVar="-1" Cut="0.0000000000000000e+00" cType="1" res="-3.0529778450727463e-03" rms="4.4552659988403320e-01" purity="3.3293101191520691e-01" nType="-99"/>
          <Node pos="r" depth="2" NCoef="0" IVar="-1" Cut="0.0000000000000000e+00" cType="1" res="6.9878605427220464e-04" rms="4.7065165638923645e-01" purity="4.4663143157958984e-01" nType="-99"/>
        </Node>
      </Node>
    </BinaryTree>
    <BinaryTree type="DecisionTree" boostWeight="1.0000000000000000e+00" itree="286">
      <Node pos="s" depth="0" NCoef="0" IVar="2" Cut="4.1018238663673401e-01" cType="1" res="3.9811227470636368e-03" rms="4.6541905403137207e-01" purity="5.0549519062042236e-01" nType="0">
        <Node pos="l" depth="1" NCoef="0" IVar="-1" Cut="0.0000000000000000e+00" cType="1" res="-2.5992726441472769e-03" rms="4.4227772951126099e-01" purity="3.4195858240127563e-01" nType="-99"/>
        <Node pos="r" depth="1" NCoef="0" IVar="2" Cut="5.2416211366653442e-01" cType="1" res="9.5245204865932465e-03" rms="4.6779349446296692e-01" purity="5.2499246597290039e-01" nType="0">
          <Node pos="l" depth="2" NCoef="0" IVar="-1" Cut="0.0000000000000000e+00" cType="1" res="2.8170177247375250e-03" rms="4.6624335646629333e-01" purity="4.7602173686027527e-01" nType="-99"/>
          <Node pos="r" depth="2" NCoef="0" IVar="-1" Cut="0.0000000000000000e+00" cType="1" res="-1.3617677905131131e-04" rms="4.6772471070289612e-01" purity="5.4121255874633789e-01" nType="-99"/>
        </Node>
      </Node>
    </BinaryTree>
    <BinaryTree type="DecisionTree" boostWeight="1.0000000000000000e+00" itree="287">
      <Node pos="s" depth="0" NCoef="0" IVar="2" Cut="5.4501301050186157e-01" cType="1" res="-1.2993389740586281e-02" rms="4.6394070982933044e-01" purity="4.8910820484161377e-01" nType="0">
        <Node pos="l" depth="1" NCoef="0" IVar="2" Cut="4.3389201164245605e-01" cType="1" res="1.2077613733708858e-02" rms="4.5686641335487366e-01" purity="4.2571505904197693e-01" nType="0">
          <Node pos="l" depth="2" NCoef="0" IVar="-1" Cut="0.0000000000000000e+00" cType="1" res="-1.8304070690646768e-03" rms="4.4174194335937500e-01" purity="3.4977406263351440e-01" nType="-99"/>
          <Node pos="r" depth="2" NCoef="0" IVar="-1" Cut="0.0000000000000000e+00" cType="1" res="2.2117153275758028e-03" rms="4.6338388323783875e-01" purity="4.6764576435089111e-01" nType="-99"/>
        </Node>
        <Node pos="r" depth="1" NCoef="0" IVar="5" Cut="9.3155371093750000e+02" cType="1" res="-2.6993658393621445e-02" rms="4.6725967526435852e-01" purity="5.2450847625732422e-01" nType="0">
          <Node pos="l" depth="2" NCoef="0" IVar="-1" Cut="0.0000000000000000e+00" cType="1" res="-2.4199797771871090e-03" rms="4.6785902976989746e-01" purity="4.9837732315063477e-01" nType="-99"/>
          <Node pos="r" depth="2" NCoef="0" IVar="-1" Cut="0.0000000000000000e+00" cType="1" res="7.2787975659593940e-04" rms="4.6325397491455078e-01" purity="6.1262297630310059e-01" nType="-99"/>
        </Node>
      </Node>
    </BinaryTree>
    <BinaryTree type="DecisionTree" boostWeight="1.0000000000000000e+00" itree="288">
      <Node pos="s" depth="0" NCoef="0" IVar="3" Cut="1.5540825128555298e+00" cType="1" res="-1.4296744484454393e-03" rms="4.6433928608894348e-01" purity="4.9716451764106750e-01" nType="0">
        <Node pos="l" depth="1" NCoef="0" IVar="0" Cut="1.1093661189079285e-01" cType="1" res="9.5187881961464882e-03" rms="4.6366596221923828e-01" purity="5.3995335102081299e-01" nType="0">
          <Node pos="l" depth="2" NCoef="0" IVar="-1" Cut="0.0000000000000000e+00" cType="1" res="-5.1158998394384980e-04" rms="4.6996557712554932e-01" purity="4.9285033345222473e-01" nType="-99"/>
          <Node pos="r" depth="2" NCoef="0" IVar="-1" Cut="0.0000000000000000e+00" cType="1" res="3.2171017955988646e-03" rms="4.4841521978378296e-01" purity="6.3566488027572632e-01" nType="-99"/>
        </Node>
        <Node pos="r" depth="1" NCoef="0" IVar="6" Cut="3.7832808494567871e+00" cType="1" res="-2.3295566439628601e-02" rms="4.6491008996963501e-01" purity="4.1170802712440491e-01" nType="0">
          <Node pos="l" depth="2" NCoef="0" IVar="-1" Cut="0.0000000000000000e+00" cType="1" res="-4.6259256123448722e-06" rms="4.5030325651168823e-01" purity="3.3127501606941223e-01" nType="-99"/>
          <Node pos="r" depth="2" NCoef="0" IVar="-1" Cut="0.0000000000000000e+00" cType="1" res="-3.1335344538092613e-03" rms="4.8028916120529175e-01" purity="5.0765609741210938e-01" nType="-99"/>
        </Node>
      </Node>
    </BinaryTree>
    <BinaryTree type="DecisionTree" boostWeight="1.0000000000000000e+00" itree="289">
      <Node pos="s" depth="0" NCoef="0" IVar="3" Cut="1.2683963775634766e+00" cType="1" res="7.0745898410677910e-03" rms="4.6508553624153137e-01" purity="5.0692182779312134e-01" nType="0">
        <Node pos="l" depth="1" NCoef="0" IVar="6" Cut="2.0205414295196533e+00" cType="1" res="2.6279341429471970e-02" rms="4.6325227618217468e-01" purity="5.6317335367202759e-01" nType="0">
          <Node pos="l" depth="2" NCoef="0" IVar="-1" Cut="0.0000000000000000e+00" cType="1" res="-2.0588063634932041e-03" rms="4.4726890325546265e-01" purity="2.8796041011810303e-01" nType="-99"/>
          <Node pos="r" depth="2" NCoef="0" IVar="-1" Cut="0.0000000000000000e+00" cType="1" res="2.2472487762570381e-03" rms="4.6473696827888489e-01" purity="5.9911787509918213e-01" nType="-99"/>
        </Node>
        <Node pos="r" depth="1" NCoef="0" IVar="4" Cut="1.2145407963544130e-03" cType="1" res="-1.1133999563753605e-02" rms="4.6608680486679077e-01" purity="4.5358800888061523e-01" nType="0">
          <Node pos="l" depth="2" NCoef="0" IVar="-1" Cut="0.0000000000000000e+00" cType="1" res="-2.2659285459667444e-03" rms="4.6519136428833008e-01" purity="4.8380666971206665e-01" nType="-99"/>
          <Node pos="r" depth="2" NCoef="0" IVar="-1" Cut="0.0000000000000000e+00" cType="1" res="1.0023376671597362e-03" rms="4.6553978323936462e-01" purity="4.2009466886520386e-01" nType="-99"/>
        </Node>
      </Node>
    </BinaryTree>
    <BinaryTree type="DecisionTree" boostWeight="1.0000000000000000e+00" itree="290">
      <Node pos="s" depth="0" NCoef="0" IVar="2" Cut="6.5086960792541504e-01" cType="1" res="-5.8088605292141438e-03" rms="4.6905809640884399e-01" purity="4.9246630072593689e-01" nType="0">
        <Node pos="l" depth="1" NCoef="0" IVar="2" Cut="6.0360854864120483e-01" cType="1" res="6.5805022604763508e-03" rms="4.6700671315193176e-01" purity="4.5270577073097229e-01" nType="0">
          <Node pos="l" depth="2" NCoef="0" IVar="-1" Cut="0.0000000000000000e+00" cType="1" res="-3.9903033757582307e-04" rms="4.6615394949913025e-01" purity="4.2540940642356873e-01" nType="-99"/>
          <Node pos="r" depth="2" NCoef="0" IVar="-1" Cut="0.0000000000000000e+00" cType="1" res="4.7289235517382622e-03" rms="4.6577668190002441e-01" purity="5.8937770128250122e-01" nType="-99"/>
        </Node>
        <Node pos="r" depth="1" NCoef="0" IVar="3" Cut="1.5909839868545532e+00" cType="1" res="-2.5851495563983917e-02" rms="4.7166922688484192e-01" purity="5.5678808689117432e-01" nType="0">
          <Node pos="l" depth="2" NCoef="0" IVar="-1" Cut="0.0000000000000000e+00" cType="1" res="-3.0043718870729208e-03" rms="4.7137087583541870e-01" purity="5.5362874269485474e-01" nType="-99"/>
          <Node pos="r" depth="2" NCoef="0" IVar="-1" Cut="0.0000000000000000e+00" cType="1" res="2.0763059146702290e-03" rms="4.6780496835708618e-01" purity="5.6617450714111328e-01" nType="-99"/>
        </Node>
      </Node>
    </BinaryTree>
    <BinaryTree type="DecisionTree" boostWeight="1.0000000000000000e+00" itree="291">
      <Node pos="s" depth="0" NCoef="0" IVar="0" Cut="5.9060085564851761e-02" cType="1" res="1.5068600187078118e-03" rms="4.6693414449691772e-01" purity="5.0189679861068726e-01" nType="0">
        <Node pos="l" depth="1" NCoef="0" IVar="3" Cut="1.9256838560104370e+00" cType="1" res="2.4419642984867096e-02" rms="4.6401786804199219e-01" purity="4.6784126758575439e-01" nType="0">
          <Node pos="l" depth="2" NCoef="0" IVar="-1" Cut="0.0000000000000000e+00" cType="1" res="2.1386798471212387e-03" rms="4.6898671984672546e-01" purity="5.0394618511199951e-01" nType="-99"/>
          <Node pos="r" depth="2" NCoef="0" IVar="-1" Cut="0.0000000000000000e+00" cType="1" res="-1.6855710418894887e-03" rms="4.3419650197029114e-01" purity="2.8306031227111816e-01" nType="-99"/>
        </Node>
        <Node pos="r" depth="1" NCoef="0" IVar="3" Cut="2.0559580326080322e+00" cType="1" res="-1.1288953013718128e-02" rms="4.6806699037551880e-01" purity="5.2091538906097412e-01" nType="0">
          <Node pos="l" depth="2" NCoef="0" IVar="-1" Cut="0.0000000000000000e+00" cType="1" res="-1.1709980899468064e-03" rms="4.6811676025390625e-01" purity="5.2955514192581177e-01" nType="-99"/>
          <Node pos="r" depth="2" NCoef="0" IVar="-1" Cut="0.0000000000000000e+00" cType="1" res="3.4253622870892286e-03" rms="4.6271035075187683e-01" purity="4.3999105691909790e-01" nType="-99"/>
        </Node>
      </Node>
    </BinaryTree>
    <BinaryTree type="DecisionTree" boostWeight="1.0000000000000000e+00" itree="292">
      <Node pos="s" depth="0" NCoef="0" IVar="5" Cut="1.1929312744140625e+03" cType="1" res="5.3973197937011719e-03" rms="4.6503773331642151e-01" purity="5.0427567958831787e-01" nType="0">
        <Node pos="l" depth="1" NCoef="0" IVar="5" Cut="9.3567498779296875e+02" cType="1" res="6.5452326089143753e-04" rms="4.6464449167251587e-01" purity="4.9430009722709656e-01" nType="0">
          <Node pos="l" depth="2" NCoef="0" IVar="-1" Cut="0.0000000000000000e+00" cType="1" res="5.2266631973907351e-04" rms="4.6289336681365967e-01" purity="4.9240875244140625e-01" nType="-99"/>
          <Node pos="r" depth="2" NCoef="0" IVar="-1" Cut="0.0000000000000000e+00" cType="1" res="-2.8332329820841551e-03" rms="4.7262713313102722e-01" purity="5.0585699081420898e-01" nType="-99"/>
        </Node>
        <Node pos="r" depth="1" NCoef="0" IVar="-1" Cut="0.0000000000000000e+00" cType="1" res="4.0725674480199814e-03" rms="4.6604770421981812e-01" purity="6.2071025371551514e-01" nType="-99"/>
      </Node>
    </BinaryTree>
    <BinaryTree type="DecisionTree" boostWeight="1.0000000000000000e+00" itree="293">
      <Node pos="s" depth="0" NCoef="0" IVar="1" Cut="6.7233783006668091e-01" cType="1" res="-8.2126827910542488e-03" rms="4.6570071578025818e-01" purity="4.9129560589790344e-01" nType="0">
        <Node pos="l" depth="1" NCoef="0" IVar="4" Cut="2.3920214734971523e-03" cType="1" res="2.2533871233463287e-02" rms="4.6295806765556335e-01" purity="5.9704184532165527e-01" nType="0">
          <Node pos="l" depth="2" NCoef="0" IVar="-1" Cut="0.0000000000000000e+00" cType="1" res="2.5954712182283401e-03" rms="4.5881032943725586e-01" purity="6.4149808883666992e-01" nType="-99"/>
          <Node pos="r" depth="2" NCoef="0" IVar="-1" Cut="0.0000000000000000e+00" cType="1" res="-1.4176093973219395e-03" rms="4.7298938035964966e-01" purity="4.5425856113433838e-01" nType="-99"/>
        </Node>
        <Node pos="r" depth="1" NCoef="0" IVar="6" Cut="4.2317261695861816e+00" cType="1" res="-2.3264370858669281e-02" rms="4.6629893779754639e-01" purity="4.3952855467796326e-01" nType="0">
          <Node pos="l" depth="2" NCoef="0" IVar="-1" Cut="0.0000000000000000e+00" cType="1" res="-6.1265868134796619e-04" rms="4.6209317445755005e-01" purity="3.7622451782226562e-01" nType="-99"/>
          <Node pos="r" depth="2" NCoef="0" IVar="-1" Cut="0.0000000000000000e+00" cType="1" res="-3.4213426988571882e-03" rms="4.7410574555397034e-01" purity="5.7770371437072754e-01" nType="-99"/>
        </Node>
      </Node>
    </BinaryTree>
    <BinaryTree type="DecisionTree" boostWeight="1.0000000000000000e+00" itree="294">
      <Node pos="s" depth="0" NCoef="0" IVar="5" Cut="6.3527911376953125e+02" cType="1" res="1.0623499751091003e-02" rms="4.6298509836196899e-01" purity="5.1083236932754517e-01" nType="0">
        <Node pos="l" depth="1" NCoef="0" IVar="3" Cut="1.6870014667510986e+00" cType="1" res="-7.8356619924306870e-03" rms="4.6329015493392944e-01" purity="4.3789780139923096e-01" nType="0">
          <Node pos="l" depth="2" NCoef="0" IVar="-1" Cut="0.0000000000000000e+00" cType="1" res="-1.8803214188665152e-03" rms="4.6089088916778564e-01" purity="4.4602948427200317e-01" nType="-99"/>
          <Node pos="r" depth="2" NCoef="0" IVar="-1" Cut="0.0000000000000000e+00" cType="1" res="3.0106275808066130e-03" rms="4.6464833617210388e-01" purity="4.1826501488685608e-01" nType="-99"/>
        </Node>
        <Node pos="r" depth="1" NCoef="0" IVar="2" Cut="6.3847869634628296e-01" cType="1" res="2.3046024143695831e-02" rms="4.6236500144004822e-01" purity="5.5991536378860474e-01" nType="0">
          <Node pos="l" depth="2" NCoef="0" IVar="-1" Cut="0.0000000000000000e+00" cType="1" res="2.6717043947428465e-03" rms="4.6811410784721375e-01" purity="5.2305239439010620e-01" nType="-99"/>
          <Node pos="r" depth="2" NCoef="0" IVar="-1" Cut="0.0000000000000000e+00" cType="1" res="-1.7988553736358881e-04" rms="4.5356625318527222e-01" purity="6.0738253593444824e-01" nType="-99"/>
        </Node>
      </Node>
    </BinaryTree>
    <BinaryTree type="DecisionTree" boostWeight="1.0000000000000000e+00" itree="295">
      <Node pos="s" depth="0" NCoef="0" IVar="0" Cut="2.3649889975786209e-02" cType="1" res="-1.6166892601177096e-03" rms="4.6588218212127686e-01" purity="4.9765822291374207e-01" nType="0">
        <Node pos="l" depth="1" NCoef="0" IVar="-1" Cut="0.0000000000000000e+00" cType="1" res="-3.0329581350088120e-03" rms="4.5284721255302429e-01" purity="3.6434397101402283e-01" nType="-99"/>
        <Node pos="r" depth="1" NCoef="0" IVar="6" Cut="2.3117544651031494e+00" cType="1" res="3.4301187843084335e-03" rms="4.6689611673355103e-01" purity="5.1125097274780273e-01" nType="0">
          <Node pos="l" depth="2" NCoef="0" IVar="-1" Cut="0.0000000000000000e+00" cType="1" res="-1.8867779290303588e-03" rms="4.4497030973434448e-01" purity="2.8757724165916443e-01" nType="-99"/>
          <Node pos="r" depth="2" NCoef="0" IVar="-1" Cut="0.0000000000000000e+00" cType="1" res="6.6163198789581656e-04" rms="4.7100979089736938e-01" purity="5.5749952793121338e-01" nType="-99"/>
        </Node>
      </Node>
    </BinaryTree>
    <BinaryTree type="DecisionTree" boostWeight="1.0000000000000000e+00" itree="296">
      <Node pos="s" depth="0" NCoef="0" IVar="0" Cut="5.5870123207569122e-02" cType="1" res="1.5750791877508163e-02" rms="4.6114653348922729e-01" purity="5.1517570018768311e-01" nType="0">
        <Node pos="l" depth="1" NCoef="0" IVar="6" Cut="4.6445355415344238e+00" cType="1" res="-1.3071629218757153e-02" rms="4.6020045876502991e-01" purity="4.2939808964729309e-01" nType="0">
          <Node pos="l" depth="2" NCoef="0" IVar="-1" Cut="0.0000000000000000e+00" cType="1" res="-1.8287474522367120e-03" rms="4.5821163058280945e-01" purity="3.5980343818664551e-01" nType="-99"/>
          <Node pos="r" depth="2" NCoef="0" IVar="-1" Cut="0.0000000000000000e+00" cType="1" res="3.3487060572952032e-03" rms="4.6197456121444702e-01" purity="6.7564100027084351e-01" nType="-99"/>
        </Node>
        <Node pos="r" depth="1" NCoef="0" IVar="3" Cut="1.1791405677795410e+00" cType="1" res="3.0308784916996956e-02" rms="4.6093910932540894e-01" purity="5.5850136280059814e-01" nType="0">
          <Node pos="l" depth="2" NCoef="0" IVar="-1" Cut="0.0000000000000000e+00" cType="1" res="4.0950779803097248e-03" rms="4.5218905806541443e-01" purity="6.2177854776382446e-01" nType="-99"/>
          <Node pos="r" depth="2" NCoef="0" IVar="-1" Cut="0.0000000000000000e+00" cType="1" res="6.4121506875380874e-04" rms="4.6572285890579224e-01" purity="5.1529914140701294e-01" nType="-99"/>
        </Node>
      </Node>
    </BinaryTree>
    <BinaryTree type="DecisionTree" boostWeight="1.0000000000000000e+00" itree="297">
      <Node pos="s" depth="0" NCoef="0" IVar="4" Cut="8.1079648225568235e-05" cType="1" res="1.7019369406625628e-03" rms="4.6434637904167175e-01" purity="5.0462692975997925e-01" nType="0">
        <Node pos="l" depth="1" NCoef="0" IVar="0" Cut="8.4961846470832825e-02" cType="1" res="5.8800317347049713e-02" rms="4.3853363394737244e-01" purity="7.3209375143051147e-01" nType="0">
          <Node pos="l" depth="2" NCoef="0" IVar="-1" Cut="0.0000000000000000e+00" cType="1" res="6.9177616387605667e-03" rms="4.4402021169662476e-01" purity="7.2275984287261963e-01" nType="-99"/>
          <Node pos="r" depth="2" NCoef="0" IVar="-1" Cut="0.0000000000000000e+00" cType="1" res="2.1723662503063679e-03" rms="4.3046331405639648e-01" purity="7.4108779430389404e-01" nType="-99"/>
        </Node>
        <Node pos="r" depth="1" NCoef="0" IVar="4" Cut="4.7993136104196310e-04" cType="1" res="-4.9005188047885895e-03" rms="4.6678891777992249e-01" purity="4.7832429409027100e-01" nType="0">
          <Node pos="l" depth="2" NCoef="0" IVar="-1" Cut="0.0000000000000000e+00" cType="1" res="-2.1248268894851208e-03" rms="4.6009948849678040e-01" purity="5.3648829460144043e-01" nType="-99"/>
          <Node pos="r" depth="2" NCoef="0" IVar="-1" Cut="0.0000000000000000e+00" cType="1" res="1.8311773601453751e-04" rms="4.6838068962097168e-01" purity="4.6172669529914856e-01" nType="-99"/>
        </Node>
      </Node>
    </BinaryTree>
    <BinaryTree type="DecisionTree" boostWeight="1.0000000000000000e+00" itree="298">
      <Node pos="s" depth="0" NCoef="0" IVar="5" Cut="1.0823078613281250e+03" cType="1" res="9.2862425372004509e-03" rms="4.6378389000892639e-01" purity="5.0788700580596924e-01" nType="0">
        <Node pos="l" depth="1" NCoef="0" IVar="6" Cut="2.0031034946441650e+00" cType="1" res="3.8776644505560398e-03" rms="4.6179270744323730e-01" purity="4.9505341053009033e-01" nType="0">
          <Node pos="l" depth="2" NCoef="0" IVar="-1" Cut="0.0000000000000000e+00" cType="1" res="-2.8512391727417707e-03" rms="4.2928239703178406e-01" purity="2.4299292266368866e-01" nType="-99"/>
          <Node pos="r" depth="2" NCoef="0" IVar="-1" Cut="0.0000000000000000e+00" cType="1" res="6.4581324113532901e-04" rms="4.6553164720535278e-01" purity="5.2813130617141724e-01" nType="-99"/>
        </Node>
        <Node pos="r" depth="1" NCoef="0" IVar="3" Cut="1.2501901388168335e+00" cType="1" res="4.6022053807973862e-02" rms="4.7546300292015076e-01" purity="5.9505468606948853e-01" nType="0">
          <Node pos="l" depth="2" NCoef="0" IVar="-1" Cut="0.0000000000000000e+00" cType="1" res="6.1631714925169945e-03" rms="4.5818957686424255e-01" purity="6.7119711637496948e-01" nType="-99"/>
          <Node pos="r" depth="2" NCoef="0" IVar="-1" Cut="0.0000000000000000e+00" cType="1" res="-9.6116319764405489e-04" rms="4.9139630794525146e-01" purity="4.9108704924583435e-01" nType="-99"/>
        </Node>
      </Node>
    </BinaryTree>
    <BinaryTree type="DecisionTree" boostWeight="1.0000000000000000e+00" itree="299">
      <Node pos="s" depth="0" NCoef="0" IVar="3" Cut="2.0245215892791748e+00" cType="1" res="-8.8899937691166997e-04" rms="4.6467733383178711e-01" purity="5.0268024206161499e-01" nType="0">
        <Node pos="l" depth="1" NCoef="0" IVar="3" Cut="1.1716537475585938e+00" cType="1" res="-7.3507856577634811e-03" rms="4.6547317504882812e-01" purity="5.1674985885620117e-01" nType="0">
          <Node pos="l" depth="2" NCoef="0" IVar="-1" Cut="0.0000000000000000e+00" cType="1" res="5.2528880769386888e-04" rms="4.6196496486663818e-01" purity="5.5078452825546265e-01" nType="-99"/>
          <Node pos="r" depth="2" NCoef="0" IVar="-1" Cut="0.0000000000000000e+00" cType="1" res="-1.2999353930354118e-03" rms="4.6805864572525024e-01" purity="4.8750078678131104e-01" nType="-99"/>
        </Node>
        <Node pos="r" depth="1" NCoef="0" IVar="2" Cut="5.4810023307800293e-01" cType="1" res="4.6028353273868561e-02" rms="4.5612037181854248e-01" purity="4.0052464604377747e-01" nType="0">
          <Node pos="l" depth="2" NCoef="0" IVar="-1" Cut="0.0000000000000000e+00" cType="1" res="4.6553253923775628e-05" rms="4.3843650817871094e-01" purity="2.9985344409942627e-01" nType="-99"/>
          <Node pos="r" depth="2" NCoef="0" IVar="-1" Cut="0.0000000000000000e+00" cType="1" res="5.9893308207392693e-03" rms="4.6921736001968384e-01" purity="5.0550776720046997e-01" nType="-99"/>
        </Node>
      </Node>
    </BinaryTree>
    <BinaryTree type="DecisionTree" boostWeight="1.0000000000000000e+00" itree="300">
      <Node pos="s" depth="0" NCoef="0" IVar="5" Cut="1.2358325195312500e+03" cType="1" res="-9.1096721589565277e-03" rms="4.6857267618179321e-01" purity="4.9434280395507812e-01" nType="0">
        <Node pos="l" depth="1" NCoef="0" IVar="3" Cut="6.5531194210052490e-01" cType="1" res="-4.6923249028623104e-03" rms="4.6736139059066772e-01" purity="4.9295008182525635e-01" nType="0">
          <Node pos="l" depth="2" NCoef="0" IVar="-1" Cut="0.0000000000000000e+00" cType="1" res="-3.5464628599584103e-03" rms="4.7494721412658691e-01" purity="4.7135677933692932e-01" nType="-99"/>
          <Node pos="r" depth="2" NCoef="0" IVar="-1" Cut="0.0000000000000000e+00" cType="1" res="4.1768427763599902e-05" rms="4.6625551581382751e-01" purity="4.9512535333633423e-01" nType="-99"/>
        </Node>
        <Node pos="r" depth="1" NCoef="0" IVar="-1" Cut="0.0000000000000000e+00" cType="1" res="-4.0460117161273956e-03" rms="4.8000895977020264e-01" purity="5.1168441772460938e-01" nType="-99"/>
      </Node>
    </BinaryTree>
    <BinaryTree type="DecisionTree" boostWeight="1.0000000000000000e+00" itree="301">
      <Node pos="s" depth="0" NCoef="0" IVar="1" Cut="8.2978141307830811e-01" cType="1" res="7.0393562782555819e-04" rms="4.6294161677360535e-01" purity="5.0005972385406494e-01" nType="0">
        <Node pos="l" depth="1" NCoef="0" IVar="3" Cut="1.4729835987091064e+00" cType="1" res="2.2713562473654747e-02" rms="4.6229779720306396e-01" purity="5.9150737524032593e-01" nType="0">
          <Node pos="l" depth="2" NCoef="0" IVar="-1" Cut="0.0000000000000000e+00" cType="1" res="2.6422077789902687e-03" rms="4.5553195476531982e-01" purity="6.2956851720809937e-01" nType="-99"/>
          <Node pos="r" depth="2" NCoef="0" IVar="-1" Cut="0.0000000000000000e+00" cType="1" res="-5.6276447139680386e-04" rms="4.7395181655883789e-01" purity="5.1545548439025879e-01" nType="-99"/>
        </Node>
        <Node pos="r" depth="1" NCoef="0" IVar="0" Cut="6.7187123000621796e-02" cType="1" res="-1.5242505818605423e-02" rms="4.6275398135185242e-01" purity="4.3380397558212280e-01" nType="0">
          <Node pos="l" depth="2" NCoef="0" IVar="-1" Cut="0.0000000000000000e+00" cType="1" res="-1.8991996766999364e-03" rms="4.5862945914268494e-01" purity="3.7114042043685913e-01" nType="-99"/>
          <Node pos="r" depth="2" NCoef="0" IVar="-1" Cut="0.0000000000000000e+00" cType="1" res="-5.8221328799845651e-05" rms="4.6583744883537292e-01" purity="4.8829600214958191e-01" nType="-99"/>
        </Node>
      </Node>
    </BinaryTree>
    <BinaryTree type="DecisionTree" boostWeight="1.0000000000000000e+00" itree="302">
      <Node pos="s" depth="0" NCoef="0" IVar="0" Cut="9.7975313663482666e-02" cType="1" res="-6.6825910471379757e-03" rms="4.6754074096679688e-01" purity="4.9735283851623535e-01" nType="0">
        <Node pos="l" depth="1" NCoef="0" IVar="6" Cut="4.9117345809936523e+00" cType="1" res="8.3234887570142746e-03" rms="4.6366336941719055e-01" purity="4.7384819388389587e-01" nType="0">
          <Node pos="l" depth="2" NCoef="0" IVar="-1" Cut="0.0000000000000000e+00" cType="1" res="-2.5066011585295200e-04" rms="4.6868801116943359e-01" purity="4.1655531525611877e-01" nType="-99"/>
          <Node pos="r" depth="2" NCoef="0" IVar="-1" Cut="0.0000000000000000e+00" cType="1" res="4.8907608725130558e-03" rms="4.3559116125106812e-01" purity="7.3471295833587646e-01" nType="-99"/>
        </Node>
        <Node pos="r" depth="1" NCoef="0" IVar="4" Cut="5.6020898045971990e-04" cType="1" res="-2.8899027034640312e-02" rms="4.7234830260276794e-01" purity="5.3215134143829346e-01" nType="0">
          <Node pos="l" depth="2" NCoef="0" IVar="-1" Cut="0.0000000000000000e+00" cType="1" res="-5.7207848876714706e-03" rms="4.6973207592964172e-01" purity="5.8533114194869995e-01" nType="-99"/>
          <Node pos="r" depth="2" NCoef="0" IVar="-1" Cut="0.0000000000000000e+00" cType="1" res="-2.7889889315702021e-04" rms="4.7174179553985596e-01" purity="5.0577878952026367e-01" nType="-99"/>
        </Node>
      </Node>
    </BinaryTree>
    <BinaryTree type="DecisionTree" boostWeight="1.0000000000000000e+00" itree="303">
      <Node pos="s" depth="0" NCoef="0" IVar="2" Cut="4.9337330460548401e-01" cType="1" res="-1.8414108490105718e-04" rms="4.6360287070274353e-01" purity="5.0237733125686646e-01" nType="0">
        <Node pos="l" depth="1" NCoef="0" IVar="1" Cut="1.3874343633651733e+00" cType="1" res="-2.8579512611031532e-02" rms="4.5084199309349060e-01" purity="3.7524768710136414e-01" nType="0">
          <Node pos="l" depth="2" NCoef="0" IVar="-1" Cut="0.0000000000000000e+00" cType="1" res="7.5111602200195193e-04" rms="4.7183769941329956e-01" purity="4.6723890304565430e-01" nType="-99"/>
          <Node pos="r" depth="2" NCoef="0" IVar="-1" Cut="0.0000000000000000e+00" cType="1" res="-4.7013442963361740e-03" rms="4.1798344254493713e-01" purity="2.6153612136840820e-01" nType="-99"/>
        </Node>
        <Node pos="r" depth="1" NCoef="0" IVar="2" Cut="5.9354460239410400e-01" cType="1" res="9.4348145648837090e-03" rms="4.6745574474334717e-01" purity="5.4544264078140259e-01" nType="0">
          <Node pos="l" depth="2" NCoef="0" IVar="-1" Cut="0.0000000000000000e+00" cType="1" res="2.6112182531505823e-03" rms="4.6891817450523376e-01" purity="5.0485575199127197e-01" nType="-99"/>
          <Node pos="r" depth="2" NCoef="0" IVar="-1" Cut="0.0000000000000000e+00" cType="1" res="-3.2872075098566711e-04" rms="4.6608158946037292e-01" purity="5.6361901760101318e-01" nType="-99"/>
        </Node>
      </Node>
    </BinaryTree>
    <BinaryTree type="DecisionTree" boostWeight="1.0000000000000000e+00" itree="304">
      <Node pos="s" depth="0" NCoef="0" IVar="1" Cut="5.0847923755645752e-01" cType="1" res="-6.1983531340956688e-03" rms="4.7026443481445312e-01" purity="4.9633684754371643e-01" nType="0">
        <Node pos="l" depth="1" NCoef="0" IVar="2" Cut="6.1606889963150024e-01" cType="1" res="-4.1500780731439590e-02" rms="4.7419905662536621e-01" purity="5.4181826114654541e-01" nType="0">
          <Node pos="l" depth="2" NCoef="0" IVar="-1" Cut="0.0000000000000000e+00" cType="1" res="-2.2900239855516702e-04" rms="4.7959616780281067e-01" purity="5.1777386665344238e-01" nType="-99"/>
          <Node pos="r" depth="2" NCoef="0" IVar="-1" Cut="0.0000000000000000e+00" cType="1" res="-4.7050477005541325e-03" rms="4.6819198131561279e-01" purity="5.5962777137756348e-01" nType="-99"/>
        </Node>
        <Node pos="r" depth="1" NCoef="0" IVar="0" Cut="2.0868180692195892e-01" cType="1" res="4.3155462481081486e-03" rms="4.6857249736785889e-01" purity="4.8279142379760742e-01" nType="0">
          <Node pos="l" depth="2" NCoef="0" IVar="-1" Cut="0.0000000000000000e+00" cType="1" res="6.4244470559060574e-04" rms="4.6818131208419800e-01" purity="4.8139864206314087e-01" nType="-99"/>
          <Node pos="r" depth="2" NCoef="0" IVar="-1" Cut="0.0000000000000000e+00" cType="1" res="-4.5494069345295429e-03" rms="4.6704950928688049e-01" purity="5.0109982490539551e-01" nType="-99"/>
        </Node>
      </Node>
    </BinaryTree>
    <BinaryTree type="DecisionTree" boostWeight="1.0000000000000000e+00" itree="305">
      <Node pos="s" depth="0" NCoef="0" IVar="5" Cut="6.5734954833984375e+02" cType="1" res="-2.4127853102982044e-03" rms="4.6499434113502502e-01" purity="4.9733781814575195e-01" nType="0">
        <Node pos="l" depth="1" NCoef="0" IVar="6" Cut="2.3992969989776611e+00" cType="1" res="1.7776766791939735e-02" rms="4.6007868647575378e-01" purity="4.6935048699378967e-01" nType="0">
          <Node pos="l" depth="2" NCoef="0" IVar="-1" Cut="0.0000000000000000e+00" cType="1" res="-1.8628666875883937e-03" rms="4.2556473612785339e-01" purity="2.4851483106613159e-01" nType="-99"/>
          <Node pos="r" depth="2" NCoef="0" IVar="-1" Cut="0.0000000000000000e+00" cType="1" res="1.8721432425081730e-03" rms="4.6819856762886047e-01" purity="5.2881944179534912e-01" nType="-99"/>
        </Node>
        <Node pos="r" depth="1" NCoef="0" IVar="2" Cut="7.6880234479904175e-01" cType="1" res="-1.7664415761828423e-02" rms="4.6809655427932739e-01" purity="5.1848006248474121e-01" nType="0">
          <Node pos="l" depth="2" NCoef="0" IVar="-1" Cut="0.0000000000000000e+00" cType="1" res="-1.5719556249678135e-03" rms="4.7147175669670105e-01" purity="4.8480001091957092e-01" nType="-99"/>
          <Node pos="r" depth="2" NCoef="0" IVar="-1" Cut="0.0000000000000000e+00" cType="1" res="1.3624170096591115e-03" rms="4.5017021894454956e-01" purity="6.7655515670776367e-01" nType="-99"/>
        </Node>
      </Node>
    </BinaryTree>
    <BinaryTree type="DecisionTree" boostWeight="1.0000000000000000e+00" itree="306">
      <Node pos="s" depth="0" NCoef="0" IVar="5" Cut="9.7773846435546875e+02" cType="1" res="-3.4788035554811358e-04" rms="4.6428871154785156e-01" purity="5.0302183628082275e-01" nType="0">
        <Node pos="l" depth="1" NCoef="0" IVar="2" Cut="4.7254991531372070e-01" cType="1" res="-8.0523630604147911e-03" rms="4.6458429098129272e-01" purity="4.8473870754241943e-01" nType="0">
          <Node pos="l" depth="2" NCoef="0" IVar="-1" Cut="0.0000000000000000e+00" cType="1" res="1.4559212140738964e-03" rms="4.5355394482612610e-01" purity="4.1192954778671265e-01" nType="-99"/>
          <Node pos="r" depth="2" NCoef="0" IVar="-1" Cut="0.0000000000000000e+00" cType="1" res="-9.9310174118727446e-04" rms="4.6689820289611816e-01" purity="5.0235539674758911e-01" nType="-99"/>
        </Node>
        <Node pos="r" depth="1" NCoef="0" IVar="4" Cut="1.7388232517987490e-03" cType="1" res="3.6818135529756546e-02" rms="4.6105518937110901e-01" purity="5.9121841192245483e-01" nType="0">
          <Node pos="l" depth="2" NCoef="0" IVar="-1" Cut="0.0000000000000000e+00" cType="1" res="4.1658491827547550e-03" rms="4.5107460021972656e-01" purity="6.6081076860427856e-01" nType="-99"/>
          <Node pos="r" depth="2" NCoef="0" IVar="-1" Cut="0.0000000000000000e+00" cType="1" res="1.0949370334856212e-04" rms="4.7518926858901978e-01" purity="4.7511312365531921e-01" nType="-99"/>
        </Node>
      </Node>
    </BinaryTree>
    <BinaryTree type="DecisionTree" boostWeight="1.0000000000000000e+00" itree="307">
      <Node pos="s" depth="0" NCoef="0" IVar="4" Cut="1.8715412588790059e-03" cType="1" res="-4.7572255134582520e-03" rms="4.6556916832923889e-01" purity="4.9381330609321594e-01" nType="0">
        <Node pos="l" depth="1" NCoef="0" IVar="4" Cut="1.2268550926819444e-04" cType="1" res="-1.3599579222500324e-02" rms="4.6294665336608887e-01" purity="5.2557414770126343e-01" nType="0">
          <Node pos="l" depth="2" NCoef="0" IVar="-1" Cut="0.0000000000000000e+00" cType="1" res="1.6103020170703530e-03" rms="4.5069426298141479e-01" purity="6.7787986993789673e-01" nType="-99"/>
          <Node pos="r" depth="2" NCoef="0" IVar="-1" Cut="0.0000000000000000e+00" cType="1" res="-1.4225631020963192e-03" rms="4.6557268500328064e-01" purity="4.8715770244598389e-01" nType="-99"/>
        </Node>
        <Node pos="r" depth="1" NCoef="0" IVar="2" Cut="7.5548017024993896e-01" cType="1" res="1.3283633626997471e-02" rms="4.7035929560661316e-01" purity="4.2901241779327393e-01" nType="0">
          <Node pos="l" depth="2" NCoef="0" IVar="-1" Cut="0.0000000000000000e+00" cType="1" res="1.4396316837519407e-03" rms="4.6908277273178101e-01" purity="4.1751146316528320e-01" nType="-99"/>
          <Node pos="r" depth="2" NCoef="0" IVar="-1" Cut="0.0000000000000000e+00" cType="1" res="-2.6149789337068796e-03" rms="4.7295743227005005e-01" purity="4.9085909128189087e-01" nType="-99"/>
        </Node>
      </Node>
    </BinaryTree>
    <BinaryTree type="DecisionTree" boostWeight="1.0000000000000000e+00" itree="308">
      <Node pos="s" depth="0" NCoef="0" IVar="4" Cut="1.7147443722933531e-03" cType="1" res="-2.9477793723344803e-03" rms="4.6345636248588562e-01" purity="4.9813354015350342e-01" nType="0">
        <Node pos="l" depth="1" NCoef="0" IVar="4" Cut="1.0114152682945132e-03" cType="1" res="1.3170241378247738e-02" rms="4.6249791979789734e-01" purity="5.6158179044723511e-01" nType="0">
          <Node pos="l" depth="2" NCoef="0" IVar="-1" Cut="0.0000000000000000e+00" cType="1" res="-7.1510192356072366e-05" rms="4.5787823200225830e-01" purity="5.7153254747390747e-01" nType="-99"/>
          <Node pos="r" depth="2" NCoef="0" IVar="-1" Cut="0.0000000000000000e+00" cType="1" res="3.2970956526696682e-03" rms="4.7261622548103333e-01" purity="5.3470665216445923e-01" nType="-99"/>
        </Node>
        <Node pos="r" depth="1" NCoef="0" IVar="0" Cut="1.0692614316940308e-01" cType="1" res="-2.9834512621164322e-02" rms="4.6380594372749329e-01" purity="3.9229449629783630e-01" nType="0">
          <Node pos="l" depth="2" NCoef="0" IVar="-1" Cut="0.0000000000000000e+00" cType="1" res="-4.8714660806581378e-04" rms="4.6565243601799011e-01" purity="3.8769924640655518e-01" nType="-99"/>
          <Node pos="r" depth="2" NCoef="0" IVar="-1" Cut="0.0000000000000000e+00" cType="1" res="-3.8689232897013426e-03" rms="4.5819771289825439e-01" purity="4.0020236372947693e-01" nType="-99"/>
        </Node>
      </Node>
    </BinaryTree>
    <BinaryTree type="DecisionTree" boostWeight="1.0000000000000000e+00" itree="309">
      <Node pos="s" depth="0" NCoef="0" IVar="2" Cut="6.0758692026138306e-01" cType="1" res="4.2543853633105755e-03" rms="4.6449935436248779e-01" purity="5.0954782962799072e-01" nType="0">
        <Node pos="l" depth="1" NCoef="0" IVar="6" Cut="4.2697458267211914e+00" cType="1" res="-1.0052290745079517e-02" rms="4.6206822991371155e-01" purity="4.3118536472320557e-01" nType="0">
          <Node pos="l" depth="2" NCoef="0" IVar="-1" Cut="0.0000000000000000e+00" cType="1" res="-1.5241854125633836e-03" rms="4.5828416943550110e-01" purity="3.3795344829559326e-01" nType="-99"/>
          <Node pos="r" depth="2" NCoef="0" IVar="-1" Cut="0.0000000000000000e+00" cType="1" res="1.3227566378191113e-03" rms="4.6823918819427490e-01" purity="6.2282031774520874e-01" nType="-99"/>
        </Node>
        <Node pos="r" depth="1" NCoef="0" IVar="3" Cut="1.8314294815063477e+00" cType="1" res="1.9692111760377884e-02" rms="4.6661666035652161e-01" purity="5.9410548210144043e-01" nType="0">
          <Node pos="l" depth="2" NCoef="0" IVar="-1" Cut="0.0000000000000000e+00" cType="1" res="6.0064852004870772e-04" rms="4.6607187390327454e-01" purity="5.9900969266891479e-01" nType="-99"/>
          <Node pos="r" depth="2" NCoef="0" IVar="-1" Cut="0.0000000000000000e+00" cType="1" res="5.4168333299458027e-03" rms="4.6480873227119446e-01" purity="5.6520581245422363e-01" nType="-99"/>
        </Node>
      </Node>
    </BinaryTree>
    <BinaryTree type="DecisionTree" boostWeight="1.0000000000000000e+00" itree="310">
      <Node pos="s" depth="0" NCoef="0" IVar="6" Cut="2.7992782592773438e+00" cType="1" res="5.2262754179537296e-03" rms="4.6047756075859070e-01" purity="5.0390928983688354e-01" nType="0">
        <Node pos="l" depth="1" NCoef="0" IVar="2" Cut="7.2155058383941650e-01" cType="1" res="-2.4573056027293205e-02" rms="4.4851139187812805e-01" purity="3.0918869376182556e-01" nType="0">
          <Node pos="l" depth="2" NCoef="0" IVar="-1" Cut="0.0000000000000000e+00" cType="1" res="-2.3506407160311937e-03" rms="4.3255221843719482e-01" purity="2.7153843641281128e-01" nType="-99"/>
          <Node pos="r" depth="2" NCoef="0" IVar="-1" Cut="0.0000000000000000e+00" cType="1" res="1.5219221822917461e-03" rms="5.0281393527984619e-01" purity="4.5598128437995911e-01" nType="-99"/>
        </Node>
        <Node pos="r" depth="1" NCoef="0" IVar="3" Cut="7.2783583402633667e-01" cType="1" res="1.7518134787678719e-02" rms="4.6476757526397705e-01" purity="5.8422911167144775e-01" nType="0">
          <Node pos="l" depth="2" NCoef="0" IVar="-1" Cut="0.0000000000000000e+00" cType="1" res="-2.1571626421064138e-03" rms="4.7442483901977539e-01" purity="5.5601519346237183e-01" nType="-99"/>
          <Node pos="r" depth="2" NCoef="0" IVar="-1" Cut="0.0000000000000000e+00" cType="1" res="1.7418916104361415e-03" rms="4.6243256330490112e-01" purity="5.8922111988067627e-01" nType="-99"/>
        </Node>
      </Node>
    </BinaryTree>
    <BinaryTree type="DecisionTree" boostWeight="1.0000000000000000e+00" itree="311">
      <Node pos="s" depth="0" NCoef="0" IVar="0" Cut="9.3481644988059998e-02" cType="1" res="2.5573873426765203e-03" rms="4.6700349450111389e-01" purity="5.0535696744918823e-01" nType="0">
        <Node pos="l" depth="1" NCoef="0" IVar="0" Cut="2.8067555278539658e-02" cType="1" res="-1.4947349205613136e-02" rms="4.6755573153495789e-01" purity="4.4680500030517578e-01" nType="0">
          <Node pos="l" depth="2" NCoef="0" IVar="-1" Cut="0.0000000000000000e+00" cType="1" res="1.7736037261784077e-03" rms="4.7065261006355286e-01" purity="4.4237652420997620e-01" nType="-99"/>
          <Node pos="r" depth="2" NCoef="0" IVar="-1" Cut="0.0000000000000000e+00" cType="1" res="-1.6555174952372909e-03" rms="4.6600857377052307e-01" purity="4.4800606369972229e-01" nType="-99"/>
        </Node>
        <Node pos="r" depth="1" NCoef="0" IVar="6" Cut="4.0432629585266113e+00" cType="1" res="2.6562239974737167e-02" rms="4.6517533063888550e-01" purity="5.8565133810043335e-01" nType="0">
          <Node pos="l" depth="2" NCoef="0" IVar="-1" Cut="0.0000000000000000e+00" cType="1" res="2.7643460780382156e-03" rms="4.7970533370971680e-01" purity="4.9675434827804565e-01" nType="-99"/>
          <Node pos="r" depth="2" NCoef="0" IVar="-1" Cut="0.0000000000000000e+00" cType="1" res="3.8710604712832719e-05" rms="4.4219350814819336e-01" purity="7.1320873498916626e-01" nType="-99"/>
        </Node>
      </Node>
    </BinaryTree>
    <BinaryTree type="DecisionTree" boostWeight="1.0000000000000000e+00" itree="312">
      <Node pos="s" depth="0" NCoef="0" IVar="0" Cut="2.3269884288311005e-02" cType="1" res="2.6853894814848900e-03" rms="4.6727550029754639e-01" purity="5.0769084692001343e-01" nType="0">
        <Node pos="l" depth="1" NCoef="0" IVar="-1" Cut="0.0000000000000000e+00" cType="1" res="-2.6641266886144876e-03" rms="4.5901986956596375e-01" purity="3.8030093908309937e-01" nType="-99"/>
        <Node pos="r" depth="1" NCoef="0" IVar="6" Cut="5.6267471313476562e+00" cType="1" res="7.9365456476807594e-03" rms="4.6784326434135437e-01" purity="5.2129554748535156e-01" nType="0">
          <Node pos="l" depth="2" NCoef="0" IVar="-1" Cut="0.0000000000000000e+00" cType="1" res="8.2643103087320924e-04" rms="4.7104817628860474e-01" purity="5.0162076950073242e-01" nType="-99"/>
          <Node pos="r" depth="2" NCoef="0" IVar="-1" Cut="0.0000000000000000e+00" cType="1" res="-3.7071993574500084e-03" rms="4.3185126781463623e-01" purity="7.1405917406082153e-01" nType="-99"/>
        </Node>
      </Node>
    </BinaryTree>
    <BinaryTree type="DecisionTree" boostWeight="1.0000000000000000e+00" itree="313">
      <Node pos="s" depth="0" NCoef="0" IVar="1" Cut="2.7238073348999023e+00" cType="1" res="1.2953005498275161e-03" rms="4.6833977103233337e-01" purity="5.0678366422653198e-01" nType="0">
        <Node pos="l" depth="1" NCoef="0" IVar="1" Cut="9.3771988153457642e-01" cType="1" res="5.7095526717603207e-03" rms="4.7111830115318298e-01" purity="5.2189415693283081e-01" nType="0">
          <Node pos="l" depth="2" NCoef="0" IVar="-1" Cut="0.0000000000000000e+00" cType="1" res="-1.0334099642932415e-03" rms="4.7422704100608826e-01" purity="5.5452966690063477e-01" nType="-99"/>
          <Node pos="r" depth="2" NCoef="0" IVar="-1" Cut="0.0000000000000000e+00" cType="1" res="1.8051462247967720e-03" rms="4.6672752499580383e-01" purity="4.8746183514595032e-01" nType="-99"/>
        </Node>
        <Node pos="r" depth="1" NCoef="0" IVar="-1" Cut="0.0000000000000000e+00" cType="1" res="-4.2761201038956642e-03" rms="4.1592344641685486e-01" purity="2.6834350824356079e-01" nType="-99"/>
      </Node>
    </BinaryTree>
    <BinaryTree type="DecisionTree" boostWeight="1.0000000000000000e+00" itree="314">
      <Node pos="s" depth="0" NCoef="0" IVar="1" Cut="2.4589700698852539e+00" cType="1" res="-9.5648999558761716e-04" rms="4.6122747659683228e-01" purity="5.0027209520339966e-01" nType="0">
        <Node pos="l" depth="1" NCoef="0" IVar="0" Cut="3.3615969121456146e-02" cType="1" res="4.4890767894685268e-03" rms="4.6560651063919067e-01" purity="5.2391225099563599e-01" nType="0">
          <Node pos="l" depth="2" NCoef="0" IVar="-1" Cut="0.0000000000000000e+00" cType="1" res="-2.2249589674174786e-03" rms="4.8161035776138306e-01" purity="4.1493067145347595e-01" nType="-99"/>
          <Node pos="r" depth="2" NCoef="0" IVar="-1" Cut="0.0000000000000000e+00" cType="1" res="8.1155006773769855e-04" rms="4.6209192276000977e-01" purity="5.4447120428085327e-01" nType="-99"/>
        </Node>
        <Node pos="r" depth="1" NCoef="0" IVar="-1" Cut="0.0000000000000000e+00" cType="1" res="-3.7792066577821970e-03" rms="4.0647622942924500e-01" purity="2.4548257887363434e-01" nType="-99"/>
      </Node>
    </BinaryTree>
    <BinaryTree type="DecisionTree" boostWeight="1.0000000000000000e+00" itree="315">
      <Node pos="s" depth="0" NCoef="0" IVar="2" Cut="7.6069068908691406e-01" cType="1" res="-7.6618818566203117e-03" rms="4.6670725941658020e-01" purity="4.9081590771675110e-01" nType="0">
        <Node pos="l" depth="1" NCoef="0" IVar="5" Cut="1.1845418701171875e+03" cType="1" res="4.3998970795655623e-05" rms="4.6772074699401855e-01" purity="4.7321784496307373e-01" nType="0">
          <Node pos="l" depth="2" NCoef="0" IVar="-1" Cut="0.0000000000000000e+00" cType="1" res="-3.7303371937014163e-04" rms="4.6754494309425354e-01" purity="4.6250241994857788e-01" nType="-99"/>
          <Node pos="r" depth="2" NCoef="0" IVar="-1" Cut="0.0000000000000000e+00" cType="1" res="4.2563728056848049e-03" rms="4.6444424986839294e-01" purity="5.9260064363479614e-01" nType="-99"/>
        </Node>
        <Node pos="r" depth="1" NCoef="0" IVar="6" Cut="3.1393246650695801e+00" cType="1" res="-4.7892376780509949e-02" rms="4.5928522944450378e-01" purity="5.8269119262695312e-01" nType="0">
          <Node pos="l" depth="2" NCoef="0" IVar="-1" Cut="0.0000000000000000e+00" cType="1" res="-5.2232998423278332e-03" rms="4.6792748570442200e-01" purity="3.7743893265724182e-01" nType="-99"/>
          <Node pos="r" depth="2" NCoef="0" IVar="-1" Cut="0.0000000000000000e+00" cType="1" res="-1.8463905435055494e-03" rms="4.5273140072822571e-01" purity="6.9195944070816040e-01" nType="-99"/>
        </Node>
      </Node>
    </BinaryTree>
    <BinaryTree type="DecisionTree" boostWeight="1.0000000000000000e+00" itree="316">
      <Node pos="s" depth="0" NCoef="0" IVar="4" Cut="2.9186189640313387e-03" cType="1" res="6.4155887812376022e-03" rms="4.6474087238311768e-01" purity="5.0870603322982788e-01" nType="0">
        <Node pos="l" depth="1" NCoef="0" IVar="0" Cut="1.3606709241867065e-01" cType="1" res="1.4095976017415524e-02" rms="4.6646770834922791e-01" purity="5.3561508655548096e-01" nType="0">
          <Node pos="l" depth="2" NCoef="0" IVar="-1" Cut="0.0000000000000000e+00" cType="1" res="1.5106014325283468e-04" rms="4.6809968352317810e-01" purity="5.0121337175369263e-01" nType="-99"/>
          <Node pos="r" depth="2" NCoef="0" IVar="-1" Cut="0.0000000000000000e+00" cType="1" res="3.6437178496271372e-03" rms="4.5914337038993835e-01" purity="6.4636576175689697e-01" nType="-99"/>
        </Node>
        <Node pos="r" depth="1" NCoef="0" IVar="5" Cut="7.0662994384765625e+02" cType="1" res="-3.5736177116632462e-02" rms="4.5283341407775879e-01" purity="3.6102309823036194e-01" nType="0">
          <Node pos="l" depth="2" NCoef="0" IVar="-1" Cut="0.0000000000000000e+00" cType="1" res="-9.1020646505057812e-04" rms="4.4162917137145996e-01" purity="3.3787024021148682e-01" nType="-99"/>
          <Node pos="r" depth="2" NCoef="0" IVar="-1" Cut="0.0000000000000000e+00" cType="1" res="-3.4602943342179060e-03" rms="4.6402207016944885e-01" purity="3.8719770312309265e-01" nType="-99"/>
        </Node>
      </Node>
    </BinaryTree>
    <BinaryTree type="DecisionTree" boostWeight="1.0000000000000000e+00" itree="317">
      <Node pos="s" depth="0" NCoef="0" IVar="2" Cut="4.1306307911872864e-01" cType="1" res="5.5678160861134529e-03" rms="4.6532788872718811e-01" purity="5.0591301918029785e-01" nType="0">
        <Node pos="l" depth="1" NCoef="0" IVar="-1" Cut="0.0000000000000000e+00" cType="1" res="3.3990535885095596e-03" rms="4.7022727131843567e-01" purity="4.2344826459884644e-01" nType="-99"/>
        <Node pos="r" depth="1" NCoef="0" IVar="0" Cut="9.7576856613159180e-02" cType="1" res="5.8711721794679761e-04" rms="4.6453136205673218e-01" purity="5.1451152563095093e-01" nType="0">
          <Node pos="l" depth="2" NCoef="0" IVar="-1" Cut="0.0000000000000000e+00" cType="1" res="-9.4271503621712327e-04" rms="4.7121182084083557e-01" purity="4.6173745393753052e-01" nType="-99"/>
          <Node pos="r" depth="2" NCoef="0" IVar="-1" Cut="0.0000000000000000e+00" cType="1" res="1.4100359985604882e-03" rms="4.5490685105323792e-01" purity="5.8293932676315308e-01" nType="-99"/>
        </Node>
      </Node>
    </BinaryTree>
    <BinaryTree type="DecisionTree" boostWeight="1.0000000000000000e+00" itree="318">
      <Node pos="s" depth="0" NCoef="0" IVar="3" Cut="1.6438138484954834e+00" cType="1" res="3.9204889908432961e-03" rms="4.6627205610275269e-01" purity="5.0509679317474365e-01" nType="0">
        <Node pos="l" depth="1" NCoef="0" IVar="6" Cut="5.6869692802429199e+00" cType="1" res="-3.9864983409643173e-03" rms="4.6865212917327881e-01" purity="5.2789998054504395e-01" nType="0">
          <Node pos="l" depth="2" NCoef="0" IVar="-1" Cut="0.0000000000000000e+00" cType="1" res="-5.5754720233380795e-04" rms="4.7627693414688110e-01" purity="5.0102323293685913e-01" nType="-99"/>
          <Node pos="r" depth="2" NCoef="0" IVar="-1" Cut="0.0000000000000000e+00" cType="1" res="5.1156068220734596e-03" rms="3.6716446280479431e-01" purity="8.3146637678146362e-01" nType="-99"/>
        </Node>
        <Node pos="r" depth="1" NCoef="0" IVar="2" Cut="6.8807756900787354e-01" cType="1" res="2.4744734168052673e-02" rms="4.5929399132728577e-01" purity="4.4504126906394958e-01" nType="0">
          <Node pos="l" depth="2" NCoef="0" IVar="-1" Cut="0.0000000000000000e+00" cType="1" res="3.9269877015613019e-04" rms="4.5708164572715759e-01" purity="3.8600170612335205e-01" nType="-99"/>
          <Node pos="r" depth="2" NCoef="0" IVar="-1" Cut="0.0000000000000000e+00" cType="1" res="6.1280764639377594e-03" rms="4.6102824807167053e-01" purity="6.5742152929306030e-01" nType="-99"/>
        </Node>
      </Node>
    </BinaryTree>
    <BinaryTree type="DecisionTree" boostWeight="1.0000000000000000e+00" itree="319">
      <Node pos="s" depth="0" NCoef="0" IVar="6" Cut="5.4914321899414062e+00" cType="1" res="2.8086272068321705e-03" rms="4.7047007083892822e-01" purity="5.1191973686218262e-01" nType="0">
        <Node pos="l" depth="1" NCoef="0" IVar="2" Cut="7.6779210567474365e-01" cType="1" res="9.2210182920098305e-03" rms="4.7283664345741272e-01" purity="4.8985144495964050e-01" nType="0">
          <Node pos="l" depth="2" NCoef="0" IVar="-1" Cut="0.0000000000000000e+00" cType="1" res="9.1949518537148833e-04" rms="4.7367262840270996e-01" purity="4.7119101881980896e-01" nType="-99"/>
          <Node pos="r" depth="2" NCoef="0" IVar="-1" Cut="0.0000000000000000e+00" cType="1" res="-1.3606335269287229e-03" rms="4.6720170974731445e-01" purity="5.8968532085418701e-01" nType="-99"/>
        </Node>
        <Node pos="r" depth="1" NCoef="0" IVar="0" Cut="9.2375963926315308e-02" cType="1" res="-4.8565831035375595e-02" rms="4.4775888323783875e-01" purity="6.8872505426406860e-01" nType="0">
          <Node pos="l" depth="2" NCoef="0" IVar="-1" Cut="0.0000000000000000e+00" cType="1" res="-5.8315537171438336e-04" rms="4.4135174155235291e-01" purity="6.9217312335968018e-01" nType="-99"/>
          <Node pos="r" depth="2" NCoef="0" IVar="-1" Cut="0.0000000000000000e+00" cType="1" res="-8.8789351284503937e-03" rms="4.5050373673439026e-01" purity="6.8459600210189819e-01" nType="-99"/>
        </Node>
      </Node>
    </BinaryTree>
    <BinaryTree type="DecisionTree" boostWeight="1.0000000000000000e+00" itree="320">
      <Node pos="s" depth="0" NCoef="0" IVar="5" Cut="1.1797241210937500e+03" cType="1" res="1.1344194412231445e-02" rms="4.6571508049964905e-01" purity="5.1327592134475708e-01" nType="0">
        <Node pos="l" depth="1" NCoef="0" IVar="4" Cut="2.0241725724190474e-03" cType="1" res="1.7163915559649467e-02" rms="4.6401330828666687e-01" purity="5.1192867755889893e-01" nType="0">
          <Node pos="l" depth="2" NCoef="0" IVar="-1" Cut="0.0000000000000000e+00" cType="1" res="1.8480361904948950e-03" rms="4.6178439259529114e-01" purity="5.5920463800430298e-01" nType="-99"/>
          <Node pos="r" depth="2" NCoef="0" IVar="-1" Cut="0.0000000000000000e+00" cType="1" res="-4.0191566222347319e-04" rms="4.6819144487380981e-01" purity="4.0392404794692993e-01" nType="-99"/>
        </Node>
        <Node pos="r" depth="1" NCoef="0" IVar="-1" Cut="0.0000000000000000e+00" cType="1" res="-2.9107911977916956e-03" rms="4.7850370407104492e-01" purity="5.2671623229980469e-01" nType="-99"/>
      </Node>
    </BinaryTree>
    <BinaryTree type="DecisionTree" boostWeight="1.0000000000000000e+00" itree="321">
      <Node pos="s" depth="0" NCoef="0" IVar="3" Cut="7.5559759140014648e-01" cType="1" res="3.1550507992506027e-03" rms="4.6520224213600159e-01" purity="5.0516581535339355e-01" nType="0">
        <Node pos="l" depth="1" NCoef="0" IVar="4" Cut="1.3432402629405260e-03" cType="1" res="-4.1233252733945847e-02" rms="4.5943784713745117e-01" purity="4.8663091659545898e-01" nType="0">
          <Node pos="l" depth="2" NCoef="0" IVar="-1" Cut="0.0000000000000000e+00" cType="1" res="-5.0233345245942473e-04" rms="4.5835721492767334e-01" purity="5.8460539579391479e-01" nType="-99"/>
          <Node pos="r" depth="2" NCoef="0" IVar="-1" Cut="0.0000000000000000e+00" cType="1" res="-4.4817761518061161e-03" rms="4.5750531554222107e-01" purity="3.7080514430999756e-01" nType="-99"/>
        </Node>
        <Node pos="r" depth="1" NCoef="0" IVar="0" Cut="5.2346304059028625e-02" cType="1" res="1.2553462758660316e-02" rms="4.6587139368057251e-01" purity="5.0909024477005005e-01" nType="0">
          <Node pos="l" depth="2" NCoef="0" IVar="-1" Cut="0.0000000000000000e+00" cType="1" res="2.8394644614309072e-03" rms="4.5942795276641846e-01" purity="4.7067099809646606e-01" nType="-99"/>
          <Node pos="r" depth="2" NCoef="0" IVar="-1" Cut="0.0000000000000000e+00" cType="1" res="-7.7561962825711817e-05" rms="4.6794357895851135e-01" purity="5.2561056613922119e-01" nType="-99"/>
        </Node>
      </Node>
    </BinaryTree>
    <BinaryTree type="DecisionTree" boostWeight="1.0000000000000000e+00" itree="322">
      <Node pos="s" depth="0" NCoef="0" IVar="6" Cut="4.4619293212890625e+00" cType="1" res="-1.3679681345820427e-02" rms="4.6662122011184692e-01" purity="4.8920547962188721e-01" nType="0">
        <Node pos="l" depth="1" NCoef="0" IVar="6" Cut="2.8726117610931396e+00" cType="1" res="-1.1710561811923981e-03" rms="4.6781027317047119e-01" purity="4.2974817752838135e-01" nType="0">
          <Node pos="l" depth="2" NCoef="0" IVar="-1" Cut="0.0000000000000000e+00" cType="1" res="-1.8437813268974423e-03" rms="4.5207121968269348e-01" purity="3.0993854999542236e-01" nType="-99"/>
          <Node pos="r" depth="2" NCoef="0" IVar="-1" Cut="0.0000000000000000e+00" cType="1" res="1.2461490696296096e-03" rms="4.7843003273010254e-01" purity="5.2218085527420044e-01" nType="-99"/>
        </Node>
        <Node pos="r" depth="1" NCoef="0" IVar="4" Cut="1.1657974682748318e-03" cType="1" res="-4.4102419167757034e-02" rms="4.6230611205101013e-01" purity="6.3381403684616089e-01" nType="0">
          <Node pos="l" depth="2" NCoef="0" IVar="-1" Cut="0.0000000000000000e+00" cType="1" res="-1.9386671483516693e-03" rms="4.5366877317428589e-01" purity="6.6764646768569946e-01" nType="-99"/>
          <Node pos="r" depth="2" NCoef="0" IVar="-1" Cut="0.0000000000000000e+00" cType="1" res="-6.0958289541304111e-03" rms="4.8326298594474792e-01" purity="5.3173214197158813e-01" nType="-99"/>
        </Node>
      </Node>
    </BinaryTree>
    <BinaryTree type="DecisionTree" boostWeight="1.0000000000000000e+00" itree="323">
      <Node pos="s" depth="0" NCoef="0" IVar="3" Cut="6.7360180616378784e-01" cType="1" res="-6.7785754799842834e-03" rms="4.6648204326629639e-01" purity="4.9498787522315979e-01" nType="0">
        <Node pos="l" depth="1" NCoef="0" IVar="6" Cut="3.7864031791687012e+00" cType="1" res="-5.2650392055511475e-02" rms="4.7669157385826111e-01" purity="4.8244056105613708e-01" nType="0">
          <Node pos="l" depth="2" NCoef="0" IVar="-1" Cut="0.0000000000000000e+00" cType="1" res="1.7031590687111020e-04" rms="4.6199631690979004e-01" purity="4.1299933195114136e-01" nType="-99"/>
          <Node pos="r" depth="2" NCoef="0" IVar="-1" Cut="0.0000000000000000e+00" cType="1" res="-6.7469603382050991e-03" rms="4.8453491926193237e-01" purity="5.5013227462768555e-01" nType="-99"/>
        </Node>
        <Node pos="r" depth="1" NCoef="0" IVar="4" Cut="8.1077669165097177e-05" cType="1" res="-3.9329717401415110e-04" rms="4.6468424797058105e-01" purity="4.9673444032669067e-01" nType="0">
          <Node pos="l" depth="2" NCoef="0" IVar="-1" Cut="0.0000000000000000e+00" cType="1" res="3.7543724756687880e-03" rms="4.1440120339393616e-01" purity="7.1641403436660767e-01" nType="-99"/>
          <Node pos="r" depth="2" NCoef="0" IVar="-1" Cut="0.0000000000000000e+00" cType="1" res="-4.0137462201528251e-04" rms="4.7021123766899109e-01" purity="4.6943163871765137e-01" nType="-99"/>
        </Node>
      </Node>
    </BinaryTree>
    <BinaryTree type="DecisionTree" boostWeight="1.0000000000000000e+00" itree="324">
      <Node pos="s" depth="0" NCoef="0" IVar="1" Cut="1.2500100135803223e+00" cType="1" res="-6.3115889206528664e-03" rms="4.6719682216644287e-01" purity="4.9375513195991516e-01" nType="0">
        <Node pos="l" depth="1" NCoef="0" IVar="0" Cut="9.1792136430740356e-02" cType="1" res="-1.9753411412239075e-02" rms="4.6870321035385132e-01" purity="5.2636259794235229e-01" nType="0">
          <Node pos="l" depth="2" NCoef="0" IVar="-1" Cut="0.0000000000000000e+00" cType="1" res="9.1108078777324408e-05" rms="4.6643251180648804e-01" purity="5.1308852434158325e-01" nType="-99"/>
          <Node pos="r" depth="2" NCoef="0" IVar="-1" Cut="0.0000000000000000e+00" cType="1" res="-2.8476670850068331e-03" rms="4.7009074687957764e-01" purity="5.4104679822921753e-01" nType="-99"/>
        </Node>
        <Node pos="r" depth="1" NCoef="0" IVar="0" Cut="8.4973238408565521e-02" cType="1" res="1.7648754641413689e-02" rms="4.6353387832641602e-01" purity="4.3563157320022583e-01" nType="0">
          <Node pos="l" depth="2" NCoef="0" IVar="-1" Cut="0.0000000000000000e+00" cType="1" res="-8.2638941239565611e-04" rms="4.6399733424186707e-01" purity="3.7447804212570190e-01" nType="-99"/>
          <Node pos="r" depth="2" NCoef="0" IVar="-1" Cut="0.0000000000000000e+00" cType="1" res="4.1143535636365414e-03" rms="4.5910283923149109e-01" purity="5.2451372146606445e-01" nType="-99"/>
        </Node>
      </Node>
    </BinaryTree>
    <BinaryTree type="DecisionTree" boostWeight="1.0000000000000000e+00" itree="325">
      <Node pos="s" depth="0" NCoef="0" IVar="3" Cut="7.8736400604248047e-01" cType="1" res="5.3252134239301085e-04" rms="4.6523144841194153e-01" purity="4.9856734275817871e-01" nType="0">
        <Node pos="l" depth="1" NCoef="0" IVar="2" Cut="7.2418022155761719e-01" cType="1" res="-4.4995203614234924e-02" rms="4.7796374559402466e-01" purity="4.7719702124595642e-01" nType="0">
          <Node pos="l" depth="2" NCoef="0" IVar="-1" Cut="0.0000000000000000e+00" cType="1" res="-3.8871243596076965e-03" rms="4.7912800312042236e-01" purity="4.2494526505470276e-01" nType="-99"/>
          <Node pos="r" depth="2" NCoef="0" IVar="-1" Cut="0.0000000000000000e+00" cType="1" res="4.5640169992111623e-04" rms="4.7100570797920227e-01" purity="6.1402434110641479e-01" nType="-99"/>
        </Node>
        <Node pos="r" depth="1" NCoef="0" IVar="4" Cut="8.0984180385712534e-05" cType="1" res="1.1141194961965084e-02" rms="4.6156957745552063e-01" purity="5.0354695320129395e-01" nType="0">
          <Node pos="l" depth="2" NCoef="0" IVar="-1" Cut="0.0000000000000000e+00" cType="1" res="4.3277344666421413e-03" rms="4.2570462822914124e-01" purity="7.4074912071228027e-01" nType="-99"/>
          <Node pos="r" depth="2" NCoef="0" IVar="-1" Cut="0.0000000000000000e+00" cType="1" res="4.0882083703763783e-04" rms="4.6517375111579895e-01" purity="4.7702971100807190e-01" nType="-99"/>
        </Node>
      </Node>
    </BinaryTree>
    <BinaryTree type="DecisionTree" boostWeight="1.0000000000000000e+00" itree="326">
      <Node pos="s" depth="0" NCoef="0" IVar="1" Cut="6.9569653272628784e-01" cType="1" res="-5.5355825461447239e-03" rms="4.6299090981483459e-01" purity="4.9489578604698181e-01" nType="0">
        <Node pos="l" depth="1" NCoef="0" IVar="0" Cut="6.0326017439365387e-02" cType="1" res="1.5474488958716393e-02" rms="4.5895272493362427e-01" purity="5.8246207237243652e-01" nType="0">
          <Node pos="l" depth="2" NCoef="0" IVar="-1" Cut="0.0000000000000000e+00" cType="1" res="-1.5589095419272780e-03" rms="4.6911165118217468e-01" purity="4.8210611939430237e-01" nType="-99"/>
          <Node pos="r" depth="2" NCoef="0" IVar="-1" Cut="0.0000000000000000e+00" cType="1" res="2.2905184887349606e-03" rms="4.5341819524765015e-01" purity="6.2535649538040161e-01" nType="-99"/>
        </Node>
        <Node pos="r" depth="1" NCoef="0" IVar="2" Cut="4.2852041125297546e-01" cType="1" res="-1.6314670443534851e-02" rms="4.6468049287796021e-01" purity="4.4997045397758484e-01" nType="0">
          <Node pos="l" depth="2" NCoef="0" IVar="-1" Cut="0.0000000000000000e+00" cType="1" res="2.7917716652154922e-03" rms="4.5499357581138611e-01" purity="3.9769807457923889e-01" nType="-99"/>
          <Node pos="r" depth="2" NCoef="0" IVar="-1" Cut="0.0000000000000000e+00" cType="1" res="-1.5566876390948892e-03" rms="4.6544447541236877e-01" purity="4.5774096250534058e-01" nType="-99"/>
        </Node>
      </Node>
    </BinaryTree>
    <BinaryTree type="DecisionTree" boostWeight="1.0000000000000000e+00" itree="327">
      <Node pos="s" depth="0" NCoef="0" IVar="3" Cut="1.6122937202453613e+00" cType="1" res="4.3687005527317524e-03" rms="4.6179449558258057e-01" purity="5.0206720829010010e-01" nType="0">
        <Node pos="l" depth="1" NCoef="0" IVar="0" Cut="3.2755721360445023e-02" cType="1" res="1.7349159345030785e-02" rms="4.6430617570877075e-01" purity="5.4705077409744263e-01" nType="0">
          <Node pos="l" depth="2" NCoef="0" IVar="-1" Cut="0.0000000000000000e+00" cType="1" res="-2.0429859869182110e-03" rms="4.7698688507080078e-01" purity="4.2572849988937378e-01" nType="-99"/>
          <Node pos="r" depth="2" NCoef="0" IVar="-1" Cut="0.0000000000000000e+00" cType="1" res="1.7872821772471070e-03" rms="4.6129634976387024e-01" purity="5.6934660673141479e-01" nType="-99"/>
        </Node>
        <Node pos="r" depth="1" NCoef="0" IVar="1" Cut="1.9681751728057861e+00" cType="1" res="-2.5052191689610481e-02" rms="4.5468068122863770e-01" purity="4.0010961890220642e-01" nType="0">
          <Node pos="l" depth="2" NCoef="0" IVar="-1" Cut="0.0000000000000000e+00" cType="1" res="-2.0853460300713778e-03" rms="4.6122342348098755e-01" purity="4.2612633109092712e-01" nType="-99"/>
          <Node pos="r" depth="2" NCoef="0" IVar="-1" Cut="0.0000000000000000e+00" cType="1" res="4.0446143248118460e-04" rms="4.2966800928115845e-01" purity="3.0949100852012634e-01" nType="-99"/>
        </Node>
      </Node>
    </BinaryTree>
    <BinaryTree type="DecisionTree" boostWeight="1.0000000000000000e+00" itree="328">
      <Node pos="s" depth="0" NCoef="0" IVar="2" Cut="3.7981158494949341e-01" cType="1" res="-2.1552162070292979e-04" rms="4.6267405152320862e-01" purity="5.0140190124511719e-01" nType="0">
        <Node pos="l" depth="1" NCoef="0" IVar="-1" Cut="0.0000000000000000e+00" cType="1" res="-3.6696798633784056e-03" rms="4.3687459826469421e-01" purity="3.1799754500389099e-01" nType="-99"/>
        <Node pos="r" depth="1" NCoef="0" IVar="6" Cut="4.9537162780761719e+00" cType="1" res="3.3886285964399576e-03" rms="4.6393024921417236e-01" purity="5.1241302490234375e-01" nType="0">
          <Node pos="l" depth="2" NCoef="0" IVar="-1" Cut="0.0000000000000000e+00" cType="1" res="-2.8153593302704394e-04" rms="4.7394561767578125e-01" purity="4.5587027072906494e-01" nType="-99"/>
          <Node pos="r" depth="2" NCoef="0" IVar="-1" Cut="0.0000000000000000e+00" cType="1" res="3.2121133990585804e-03" rms="4.1524311900138855e-01" purity="7.6096975803375244e-01" nType="-99"/>
        </Node>
      </Node>
    </BinaryTree>
    <BinaryTree type="DecisionTree" boostWeight="1.0000000000000000e+00" itree="329">
      <Node pos="s" depth="0" NCoef="0" IVar="2" Cut="7.8269690275192261e-01" cType="1" res="3.1959596090018749e-03" rms="4.6705400943756104e-01" purity="5.0577455759048462e-01" nType="0">
        <Node pos="l" depth="1" NCoef="0" IVar="4" Cut="3.2424870878458023e-03" cType="1" res="1.0378408245742321e-02" rms="4.6698939800262451e-01" purity="4.9036368727684021e-01" nType="0">
          <Node pos="l" depth="2" NCoef="0" IVar="-1" Cut="0.0000000000000000e+00" cType="1" res="3.6378204822540283e-04" rms="4.6663337945938110e-01" purity="4.9676519632339478e-01" nType="-99"/>
          <Node pos="r" depth="2" NCoef="0" IVar="-1" Cut="0.0000000000000000e+00" cType="1" res="3.1342222355306149e-03" rms="4.6810916066169739e-01" purity="4.3322402238845825e-01" nType="-99"/>
        </Node>
        <Node pos="r" depth="1" NCoef="0" IVar="1" Cut="5.5544376373291016e-01" cType="1" res="-4.1047278791666031e-02" rms="4.6501186490058899e-01" purity="6.0070389509201050e-01" nType="0">
          <Node pos="l" depth="2" NCoef="0" IVar="-1" Cut="0.0000000000000000e+00" cType="1" res="-7.8848451375961304e-03" rms="4.6720558404922485e-01" purity="5.5913120508193970e-01" nType="-99"/>
          <Node pos="r" depth="2" NCoef="0" IVar="-1" Cut="0.0000000000000000e+00" cType="1" res="6.0519058024510741e-04" rms="4.5696258544921875e-01" purity="6.2936121225357056e-01" nType="-99"/>
        </Node>
      </Node>
    </BinaryTree>
    <BinaryTree type="DecisionTree" boostWeight="1.0000000000000000e+00" itree="330">
      <Node pos="s" depth="0" NCoef="0" IVar="5" Cut="6.8701086425781250e+02" cType="1" res="4.5997952111065388e-03" rms="4.6505963802337646e-01" purity="5.0367140769958496e-01" nType="0">
        <Node pos="l" depth="1" NCoef="0" IVar="3" Cut="2.0614559650421143e+00" cType="1" res="-8.7081901729106903e-03" rms="4.6691134572029114e-01" purity="4.4752335548400879e-01" nType="0">
          <Node pos="l" depth="2" NCoef="0" IVar="-1" Cut="0.0000000000000000e+00" cType="1" res="-1.0556847555562854e-03" rms="4.6782770752906799e-01" purity="4.5772063732147217e-01" nType="-99"/>
          <Node pos="r" depth="2" NCoef="0" IVar="-1" Cut="0.0000000000000000e+00" cType="1" res="3.5014394670724869e-03" rms="4.5558479428291321e-01" purity="3.7219905853271484e-01" nType="-99"/>
        </Node>
        <Node pos="r" depth="1" NCoef="0" IVar="2" Cut="5.4592370986938477e-01" cType="1" res="1.7255807295441628e-02" rms="4.6293699741363525e-01" purity="5.5706870555877686e-01" nType="0">
          <Node pos="l" depth="2" NCoef="0" IVar="-1" Cut="0.0000000000000000e+00" cType="1" res="-5.9319863794371486e-04" rms="4.6925756335258484e-01" purity="4.4431841373443604e-01" nType="-99"/>
          <Node pos="r" depth="2" NCoef="0" IVar="-1" Cut="0.0000000000000000e+00" cType="1" res="2.1092460956424475e-03" rms="4.5897823572158813e-01" purity="6.1575752496719360e-01" nType="-99"/>
        </Node>
      </Node>
    </BinaryTree>
    <BinaryTree type="DecisionTree" boostWeight="1.0000000000000000e+00" itree="331">
      <Node pos="s" depth="0" NCoef="0" IVar="5" Cut="4.3653106689453125e+02" cType="1" res="-1.9131361041218042e-03" rms="4.6112903952598572e-01" purity="5.0007331371307373e-01" nType="0">
        <Node pos="l" depth="1" NCoef="0" IVar="-1" Cut="0.0000000000000000e+00" cType="1" res="-4.6466314233839512e-03" rms="4.2090663313865662e-01" purity="2.8842139244079590e-01" nType="-99"/>
        <Node pos="r" depth="1" NCoef="0" IVar="3" Cut="1.2695777416229248e+00" cType="1" res="2.2864711936563253e-03" rms="4.6304962038993835e-01" purity="5.1255214214324951e-01" nType="0">
          <Node pos="l" depth="2" NCoef="0" IVar="-1" Cut="0.0000000000000000e+00" cType="1" res="1.2808531755581498e-03" rms="4.6079954504966736e-01" purity="5.6913644075393677e-01" nType="-99"/>
          <Node pos="r" depth="2" NCoef="0" IVar="-1" Cut="0.0000000000000000e+00" cType="1" res="-8.9594314340502024e-04" rms="4.6460223197937012e-01" purity="4.5807978510856628e-01" nType="-99"/>
        </Node>
      </Node>
    </BinaryTree>
    <BinaryTree type="DecisionTree" boostWeight="1.0000000000000000e+00" itree="332">
      <Node pos="s" depth="0" NCoef="0" IVar="3" Cut="2.2946536540985107e+00" cType="1" res="1.7761087510734797e-03" rms="4.6169278025627136e-01" purity="5.0208383798599243e-01" nType="0">
        <Node pos="l" depth="1" NCoef="0" IVar="1" Cut="9.3422508239746094e-01" cType="1" res="5.5175479501485825e-03" rms="4.6320572495460510e-01" purity="5.1729208230972290e-01" nType="0">
          <Node pos="l" depth="2" NCoef="0" IVar="-1" Cut="0.0000000000000000e+00" cType="1" res="1.5260793734341860e-03" rms="4.6465793251991272e-01" purity="5.9685599803924561e-01" nType="-99"/>
          <Node pos="r" depth="2" NCoef="0" IVar="-1" Cut="0.0000000000000000e+00" cType="1" res="-5.9452641289681196e-04" rms="4.6139496564865112e-01" purity="4.4730803370475769e-01" nType="-99"/>
        </Node>
        <Node pos="r" depth="1" NCoef="0" IVar="-1" Cut="0.0000000000000000e+00" cType="1" res="-3.9440006949007511e-03" rms="4.3012741208076477e-01" purity="2.4291008710861206e-01" nType="-99"/>
      </Node>
    </BinaryTree>
    <BinaryTree type="DecisionTree" boostWeight="1.0000000000000000e+00" itree="333">
      <Node pos="s" depth="0" NCoef="0" IVar="4" Cut="1.8677477492019534e-03" cType="1" res="-5.6172194890677929e-03" rms="4.6274182200431824e-01" purity="4.9679738283157349e-01" nType="0">
        <Node pos="l" depth="1" NCoef="0" IVar="6" Cut="2.7695355415344238e+00" cType="1" res="7.0110242813825607e-03" rms="4.5971098542213440e-01" purity="5.5007016658782959e-01" nType="0">
          <Node pos="l" depth="2" NCoef="0" IVar="-1" Cut="0.0000000000000000e+00" cType="1" res="-1.9236908992752433e-03" rms="4.4484195113182068e-01" purity="3.1883069872856140e-01" nType="-99"/>
          <Node pos="r" depth="2" NCoef="0" IVar="-1" Cut="0.0000000000000000e+00" cType="1" res="1.0831336257979274e-03" rms="4.6272343397140503e-01" purity="6.0508656501770020e-01" nType="-99"/>
        </Node>
        <Node pos="r" depth="1" NCoef="0" IVar="5" Cut="5.8645947265625000e+02" cType="1" res="-3.1098950654268265e-02" rms="4.6776095032691956e-01" purity="3.8930174708366394e-01" nType="0">
          <Node pos="l" depth="2" NCoef="0" IVar="-1" Cut="0.0000000000000000e+00" cType="1" res="2.0292210392653942e-03" rms="4.6400910615921021e-01" purity="3.7489461898803711e-01" nType="-99"/>
          <Node pos="r" depth="2" NCoef="0" IVar="-1" Cut="0.0000000000000000e+00" cType="1" res="-3.1669342424720526e-03" rms="4.6687251329421997e-01" purity="3.9501509070396423e-01" nType="-99"/>
        </Node>
      </Node>
    </BinaryTree>
    <BinaryTree type="DecisionTree" boostWeight="1.0000000000000000e+00" itree="334">
      <Node pos="s" depth="0" NCoef="0" IVar="4" Cut="1.3596655335277319e-03" cType="1" res="7.0141773903742433e-04" rms="4.6686092019081116e-01" purity="5.0200080871582031e-01" nType="0">
        <Node pos="l" depth="1" NCoef="0" IVar="4" Cut="8.9143868535757065e-05" cType="1" res="-1.4935916289687157e-02" rms="4.6211221814155579e-01" purity="5.4320019483566284e-01" nType="0">
          <Node pos="l" depth="2" NCoef="0" IVar="-1" Cut="0.0000000000000000e+00" cType="1" res="3.1565022654831409e-03" rms="4.3304449319839478e-01" purity="7.0811486244201660e-01" nType="-99"/>
          <Node pos="r" depth="2" NCoef="0" IVar="-1" Cut="0.0000000000000000e+00" cType="1" res="-1.8750983290374279e-03" rms="4.6829667687416077e-01" purity="5.0063830614089966e-01" nType="-99"/>
        </Node>
        <Node pos="r" depth="1" NCoef="0" IVar="6" Cut="4.4728522300720215e+00" cType="1" res="2.0794495940208435e-02" rms="4.7213301062583923e-01" purity="4.4906190037727356e-01" nType="0">
          <Node pos="l" depth="2" NCoef="0" IVar="-1" Cut="0.0000000000000000e+00" cType="1" res="7.9639378236606717e-04" rms="4.7362318634986877e-01" purity="4.1064742207527161e-01" nType="-99"/>
          <Node pos="r" depth="2" NCoef="0" IVar="-1" Cut="0.0000000000000000e+00" cType="1" res="4.5492732897400856e-03" rms="4.5956864953041077e-01" purity="6.9398546218872070e-01" nType="-99"/>
        </Node>
      </Node>
    </BinaryTree>
    <BinaryTree type="DecisionTree" boostWeight="1.0000000000000000e+00" itree="335">
      <Node pos="s" depth="0" NCoef="0" IVar="0" Cut="2.0662061870098114e-01" cType="1" res="-1.2700991937890649e-03" rms="4.6201029419898987e-01" purity="5.0288730859756470e-01" nType="0">
        <Node pos="l" depth="1" NCoef="0" IVar="5" Cut="6.0645306396484375e+02" cType="1" res="-6.2107271514832973e-03" rms="4.6365964412689209e-01" purity="4.8826521635055542e-01" nType="0">
          <Node pos="l" depth="2" NCoef="0" IVar="-1" Cut="0.0000000000000000e+00" cType="1" res="-2.1406128071248531e-03" rms="4.6096175909042358e-01" purity="3.8300931453704834e-01" nType="-99"/>
          <Node pos="r" depth="2" NCoef="0" IVar="-1" Cut="0.0000000000000000e+00" cType="1" res="4.7329379594884813e-04" rms="4.6435332298278809e-01" purity="5.3906440734863281e-01" nType="-99"/>
        </Node>
        <Node pos="r" depth="1" NCoef="0" IVar="-1" Cut="0.0000000000000000e+00" cType="1" res="4.2069847695529461e-03" rms="4.3718156218528748e-01" purity="6.7969715595245361e-01" nType="-99"/>
      </Node>
    </BinaryTree>
    <BinaryTree type="DecisionTree" boostWeight="1.0000000000000000e+00" itree="336">
      <Node pos="s" depth="0" NCoef="0" IVar="3" Cut="1.8668953180313110e+00" cType="1" res="1.2783403508365154e-02" rms="4.6397852897644043e-01" purity="5.1532143354415894e-01" nType="0">
        <Node pos="l" depth="1" NCoef="0" IVar="3" Cut="7.6480376720428467e-01" cType="1" res="2.0774193108081818e-02" rms="4.6277141571044922e-01" purity="5.4741579294204712e-01" nType="0">
          <Node pos="l" depth="2" NCoef="0" IVar="-1" Cut="0.0000000000000000e+00" cType="1" res="-1.0643870336934924e-03" rms="4.6167704463005066e-01" purity="5.1197344064712524e-01" nType="-99"/>
          <Node pos="r" depth="2" NCoef="0" IVar="-1" Cut="0.0000000000000000e+00" cType="1" res="1.9990580622106791e-03" rms="4.6256241202354431e-01" purity="5.5639928579330444e-01" nType="-99"/>
        </Node>
        <Node pos="r" depth="1" NCoef="0" IVar="3" Cut="2.0479333400726318e+00" cType="1" res="-2.3146100342273712e-02" rms="4.6768379211425781e-01" purity="3.7101352214813232e-01" nType="0">
          <Node pos="l" depth="2" NCoef="0" IVar="-1" Cut="0.0000000000000000e+00" cType="1" res="-5.0997356884181499e-03" rms="4.5646187663078308e-01" purity="3.6637103557586670e-01" nType="-99"/>
          <Node pos="r" depth="2" NCoef="0" IVar="-1" Cut="0.0000000000000000e+00" cType="1" res="1.0750672081485391e-03" rms="4.7035172581672668e-01" purity="3.7395182251930237e-01" nType="-99"/>
        </Node>
      </Node>
    </BinaryTree>
    <BinaryTree type="DecisionTree" boostWeight="1.0000000000000000e+00" itree="337">
      <Node pos="s" depth="0" NCoef="0" IVar="1" Cut="1.7011816501617432e+00" cType="1" res="-7.4928174726665020e-03" rms="4.6452447772026062e-01" purity="4.9376946687698364e-01" nType="0">
        <Node pos="l" depth="1" NCoef="0" IVar="0" Cut="1.9824445247650146e-01" cType="1" res="3.8496982306241989e-03" rms="4.6876209974288940e-01" purity="5.4096633195877075e-01" nType="0">
          <Node pos="l" depth="2" NCoef="0" IVar="-1" Cut="0.0000000000000000e+00" cType="1" res="7.2549865581095219e-04" rms="4.6847519278526306e-01" purity="5.3849446773529053e-01" nType="-99"/>
          <Node pos="r" depth="2" NCoef="0" IVar="-1" Cut="0.0000000000000000e+00" cType="1" res="-4.0717823430895805e-03" rms="4.6645292639732361e-01" purity="5.6161051988601685e-01" nType="-99"/>
        </Node>
        <Node pos="r" depth="1" NCoef="0" IVar="0" Cut="1.0415842384099960e-01" cType="1" res="-4.5368511229753494e-02" rms="4.4800931215286255e-01" purity="3.3616641163825989e-01" nType="0">
          <Node pos="l" depth="2" NCoef="0" IVar="-1" Cut="0.0000000000000000e+00" cType="1" res="-4.1231140494346619e-03" rms="4.3832898139953613e-01" purity="2.9547694325447083e-01" nType="-99"/>
          <Node pos="r" depth="2" NCoef="0" IVar="-1" Cut="0.0000000000000000e+00" cType="1" res="1.0498994961380959e-03" rms="4.6710571646690369e-01" purity="4.4400420784950256e-01" nType="-99"/>
        </Node>
      </Node>
    </BinaryTree>
    <BinaryTree type="DecisionTree" boostWeight="1.0000000000000000e+00" itree="338">
      <Node pos="s" depth="0" NCoef="0" IVar="2" Cut="8.2243627309799194e-01" cType="1" res="-1.0266778990626335e-02" rms="4.6483248472213745e-01" purity="4.9088785052299500e-01" nType="0">
        <Node pos="l" depth="1" NCoef="0" IVar="0" Cut="2.1090787649154663e-01" cType="1" res="-1.5373296104371548e-02" rms="4.6666502952575684e-01" purity="4.7492191195487976e-01" nType="0">
          <Node pos="l" depth="2" NCoef="0" IVar="-1" Cut="0.0000000000000000e+00" cType="1" res="-1.2123088818043470e-03" rms="4.6720814704895020e-01" purity="4.6482494473457336e-01" nType="-99"/>
          <Node pos="r" depth="2" NCoef="0" IVar="-1" Cut="0.0000000000000000e+00" cType="1" res="2.9672109521925449e-03" rms="4.5406559109687805e-01" purity="6.3081049919128418e-01" nType="-99"/>
        </Node>
        <Node pos="r" depth="1" NCoef="0" IVar="-1" Cut="0.0000000000000000e+00" cType="1" res="3.9179269224405289e-03" rms="4.3606257438659668e-01" purity="6.9167143106460571e-01" nType="-99"/>
      </Node>
    </BinaryTree>
    <BinaryTree type="DecisionTree" boostWeight="1.0000000000000000e+00" itree="339">
      <Node pos="s" depth="0" NCoef="0" IVar="6" Cut="2.9958124160766602e+00" cType="1" res="1.6625488642603159e-03" rms="4.6938589215278625e-01" purity="5.0761300325393677e-01" nType="0">
        <Node pos="l" depth="1" NCoef="0" IVar="0" Cut="1.2909021973609924e-01" cType="1" res="2.9310112819075584e-02" rms="4.7264963388442993e-01" purity="3.8201305270195007e-01" nType="0">
          <Node pos="l" depth="2" NCoef="0" IVar="-1" Cut="0.0000000000000000e+00" cType="1" res="2.9260064475238323e-03" rms="4.6976193785667419e-01" purity="3.8077905774116516e-01" nType="-99"/>
          <Node pos="r" depth="2" NCoef="0" IVar="-1" Cut="0.0000000000000000e+00" cType="1" res="-7.2558462852612138e-04" rms="4.7755026817321777e-01" purity="3.8520240783691406e-01" nType="-99"/>
        </Node>
        <Node pos="r" depth="1" NCoef="0" IVar="0" Cut="4.4591240584850311e-02" cType="1" res="-1.2286893092095852e-02" rms="4.6710985898971558e-01" purity="5.7098382711410522e-01" nType="0">
          <Node pos="l" depth="2" NCoef="0" IVar="-1" Cut="0.0000000000000000e+00" cType="1" res="-2.6598295662552118e-03" rms="4.6671101450920105e-01" purity="4.5889329910278320e-01" nType="-99"/>
          <Node pos="r" depth="2" NCoef="0" IVar="-1" Cut="0.0000000000000000e+00" cType="1" res="-1.3318564742803574e-04" rms="4.6676573157310486e-01" purity="6.0646504163742065e-01" nType="-99"/>
        </Node>
      </Node>
    </BinaryTree>
    <BinaryTree type="DecisionTree" boostWeight="1.0000000000000000e+00" itree="340">
      <Node pos="s" depth="0" NCoef="0" IVar="0" Cut="2.1625915169715881e-01" cType="1" res="-6.0112238861620426e-03" rms="4.6652951836585999e-01" purity="4.9722149968147278e-01" nType="0">
        <Node pos="l" depth="1" NCoef="0" IVar="1" Cut="5.2326762676239014e-01" cType="1" res="-9.6206869930028915e-03" rms="4.6718829870223999e-01" purity="4.8664319515228271e-01" nType="0">
          <Node pos="l" depth="2" NCoef="0" IVar="-1" Cut="0.0000000000000000e+00" cType="1" res="1.0061862412840128e-03" rms="4.5884382724761963e-01" purity="5.9104645252227783e-01" nType="-99"/>
          <Node pos="r" depth="2" NCoef="0" IVar="-1" Cut="0.0000000000000000e+00" cType="1" res="-1.0722135193645954e-03" rms="4.6943324804306030e-01" purity="4.5496642589569092e-01" nType="-99"/>
        </Node>
        <Node pos="r" depth="1" NCoef="0" IVar="-1" Cut="0.0000000000000000e+00" cType="1" res="3.5472919698804617e-03" rms="4.5280829071998596e-01" purity="6.5859603881835938e-01" nType="-99"/>
      </Node>
    </BinaryTree>
    <BinaryTree type="DecisionTree" boostWeight="1.0000000000000000e+00" itree="341">
      <Node pos="s" depth="0" NCoef="0" IVar="5" Cut="7.5562078857421875e+02" cType="1" res="6.3958606915548444e-04" rms="4.6853122115135193e-01" purity="5.0656330585479736e-01" nType="0">
        <Node pos="l" depth="1" NCoef="0" IVar="2" Cut="7.7666234970092773e-01" cType="1" res="-1.1875156313180923e-02" rms="4.6406787633895874e-01" purity="4.6481639146804810e-01" nType="0">
          <Node pos="l" depth="2" NCoef="0" IVar="-1" Cut="0.0000000000000000e+00" cType="1" res="-1.1789095588028431e-03" rms="4.6475204825401306e-01" purity="4.3764868378639221e-01" nType="-99"/>
          <Node pos="r" depth="2" NCoef="0" IVar="-1" Cut="0.0000000000000000e+00" cType="1" res="2.3554409854114056e-03" rms="4.5697700977325439e-01" purity="6.4151537418365479e-01" nType="-99"/>
        </Node>
        <Node pos="r" depth="1" NCoef="0" IVar="6" Cut="4.3477272987365723e+00" cType="1" res="1.8932377919554710e-02" rms="4.7438624501228333e-01" purity="5.6758475303649902e-01" nType="0">
          <Node pos="l" depth="2" NCoef="0" IVar="-1" Cut="0.0000000000000000e+00" cType="1" res="2.6213934179395437e-03" rms="4.8339384794235229e-01" purity="5.0981265306472778e-01" nType="-99"/>
          <Node pos="r" depth="2" NCoef="0" IVar="-1" Cut="0.0000000000000000e+00" cType="1" res="-1.5889029018580914e-03" rms="4.5558017492294312e-01" purity="6.6710585355758667e-01" nType="-99"/>
        </Node>
      </Node>
    </BinaryTree>
    <BinaryTree type="DecisionTree" boostWeight="1.0000000000000000e+00" itree="342">
      <Node pos="s" depth="0" NCoef="0" IVar="3" Cut="2.3091738224029541e+00" cType="1" res="-8.3101009950041771e-03" rms="4.6334511041641235e-01" purity="4.9172323942184448e-01" nType="0">
        <Node pos="l" depth="1" NCoef="0" IVar="2" Cut="7.6014959812164307e-01" cType="1" res="-1.9604663830250502e-03" rms="4.6689108014106750e-01" purity="5.1057970523834229e-01" nType="0">
          <Node pos="l" depth="2" NCoef="0" IVar="-1" Cut="0.0000000000000000e+00" cType="1" res="3.0129752121865749e-04" rms="4.6703219413757324e-01" purity="4.9100181460380554e-01" nType="-99"/>
          <Node pos="r" depth="2" NCoef="0" IVar="-1" Cut="0.0000000000000000e+00" cType="1" res="-2.2470920812338591e-03" rms="4.6506789326667786e-01" purity="5.9808778762817383e-01" nType="-99"/>
        </Node>
        <Node pos="r" depth="1" NCoef="0" IVar="-1" Cut="0.0000000000000000e+00" cType="1" res="-6.8380157463252544e-03" rms="3.9212220907211304e-01" purity="2.0154869556427002e-01" nType="-99"/>
      </Node>
    </BinaryTree>
    <BinaryTree type="DecisionTree" boostWeight="1.0000000000000000e+00" itree="343">
      <Node pos="s" depth="0" NCoef="0" IVar="4" Cut="2.9132361523807049e-03" cType="1" res="-2.3857287596911192e-03" rms="4.6408569812774658e-01" purity="4.9830201268196106e-01" nType="0">
        <Node pos="l" depth="1" NCoef="0" IVar="4" Cut="1.8142830813303590e-03" cType="1" res="4.1864388622343540e-03" rms="4.6481353044509888e-01" purity="5.2564328908920288e-01" nType="0">
          <Node pos="l" depth="2" NCoef="0" IVar="-1" Cut="0.0000000000000000e+00" cType="1" res="-3.3990561496466398e-04" rms="4.6327501535415649e-01" purity="5.4131811857223511e-01" nType="-99"/>
          <Node pos="r" depth="2" NCoef="0" IVar="-1" Cut="0.0000000000000000e+00" cType="1" res="2.2129951976239681e-03" rms="4.6869817376136780e-01" purity="4.7079953551292419e-01" nType="-99"/>
        </Node>
        <Node pos="r" depth="1" NCoef="0" IVar="1" Cut="9.7914677858352661e-01" cType="1" res="-3.7458926439285278e-02" rms="4.5859238505363464e-01" purity="3.5239163041114807e-01" nType="0">
          <Node pos="l" depth="2" NCoef="0" IVar="-1" Cut="0.0000000000000000e+00" cType="1" res="-4.5739156194031239e-03" rms="4.6754890680313110e-01" purity="3.8302895426750183e-01" nType="-99"/>
          <Node pos="r" depth="2" NCoef="0" IVar="-1" Cut="0.0000000000000000e+00" cType="1" res="-4.5646505896002054e-05" rms="4.4782418012619019e-01" purity="3.2742083072662354e-01" nType="-99"/>
        </Node>
      </Node>
    </BinaryTree>
    <BinaryTree type="DecisionTree" boostWeight="1.0000000000000000e+00" itree="344">
      <Node pos="s" depth="0" NCoef="0" IVar="2" Cut="5.4002898931503296e-01" cType="1" res="-1.0256472975015640e-02" rms="4.6454173326492310e-01" purity="4.9279975891113281e-01" nType="0">
        <Node pos="l" depth="1" NCoef="0" IVar="3" Cut="1.8652809858322144e+00" cType="1" res="6.8423543125391006e-03" rms="4.6090283989906311e-01" purity="4.2260909080505371e-01" nType="0">
          <Node pos="l" depth="2" NCoef="0" IVar="-1" Cut="0.0000000000000000e+00" cType="1" res="1.7095588846132159e-03" rms="4.7094389796257019e-01" purity="4.7395047545433044e-01" nType="-99"/>
          <Node pos="r" depth="2" NCoef="0" IVar="-1" Cut="0.0000000000000000e+00" cType="1" res="-3.7573885638266802e-03" rms="4.2107897996902466e-01" purity="2.6064202189445496e-01" nType="-99"/>
        </Node>
        <Node pos="r" depth="1" NCoef="0" IVar="3" Cut="7.6673364639282227e-01" cType="1" res="-1.9042879343032837e-02" rms="4.6615666151046753e-01" purity="5.2886795997619629e-01" nType="0">
          <Node pos="l" depth="2" NCoef="0" IVar="-1" Cut="0.0000000000000000e+00" cType="1" res="-3.8263124879449606e-03" rms="4.6859309077262878e-01" purity="5.0044417381286621e-01" nType="-99"/>
          <Node pos="r" depth="2" NCoef="0" IVar="-1" Cut="0.0000000000000000e+00" cType="1" res="-6.4595154253765941e-04" rms="4.6512410044670105e-01" purity="5.3508067131042480e-01" nType="-99"/>
        </Node>
      </Node>
    </BinaryTree>
    <BinaryTree type="DecisionTree" boostWeight="1.0000000000000000e+00" itree="345">
      <Node pos="s" depth="0" NCoef="0" IVar="1" Cut="2.7278659343719482e+00" cType="1" res="-7.5365542434155941e-03" rms="4.6343135833740234e-01" purity="4.9187919497489929e-01" nType="0">
        <Node pos="l" depth="1" NCoef="0" IVar="1" Cut="1.9241614341735840e+00" cType="1" res="-3.8656359538435936e-03" rms="4.6611782908439636e-01" purity="5.0617223978042603e-01" nType="0">
          <Node pos="l" depth="2" NCoef="0" IVar="-1" Cut="0.0000000000000000e+00" cType="1" res="-7.0800218963995576e-04" rms="4.6681135892868042e-01" purity="5.1645106077194214e-01" nType="-99"/>
          <Node pos="r" depth="2" NCoef="0" IVar="-1" Cut="0.0000000000000000e+00" cType="1" res="3.4904161002486944e-03" rms="4.5649385452270508e-01" purity="4.2468759417533875e-01" nType="-99"/>
        </Node>
        <Node pos="r" depth="1" NCoef="0" IVar="-1" Cut="0.0000000000000000e+00" cType="1" res="-4.5198230072855949e-03" rms="4.0998449921607971e-01" purity="2.4838979542255402e-01" nType="-99"/>
      </Node>
    </BinaryTree>
    <BinaryTree type="DecisionTree" boostWeight="1.0000000000000000e+00" itree="346">
      <Node pos="s" depth="0" NCoef="0" IVar="3" Cut="1.7982509136199951e+00" cType="1" res="-4.0712617337703705e-03" rms="4.6807777881622314e-01" purity="5.0385534763336182e-01" nType="0">
        <Node pos="l" depth="1" NCoef="0" IVar="5" Cut="5.2325189208984375e+02" cType="1" res="-1.4295752160251141e-02" rms="4.6941652894020081e-01" purity="5.2048510313034058e-01" nType="0">
          <Node pos="l" depth="2" NCoef="0" IVar="-1" Cut="0.0000000000000000e+00" cType="1" res="-3.9524701423943043e-03" rms="4.6207156777381897e-01" purity="3.7391132116317749e-01" nType="-99"/>
          <Node pos="r" depth="2" NCoef="0" IVar="-1" Cut="0.0000000000000000e+00" cType="1" res="-2.3111139307729900e-04" rms="4.7020050883293152e-01" purity="5.5071294307708740e-01" nType="-99"/>
        </Node>
        <Node pos="r" depth="1" NCoef="0" IVar="6" Cut="4.0967164039611816e+00" cType="1" res="3.7346158176660538e-02" rms="4.6029758453369141e-01" purity="4.3649157881736755e-01" nType="0">
          <Node pos="l" depth="2" NCoef="0" IVar="-1" Cut="0.0000000000000000e+00" cType="1" res="8.8954222155734897e-04" rms="4.5541262626647949e-01" purity="3.4062615036964417e-01" nType="-99"/>
          <Node pos="r" depth="2" NCoef="0" IVar="-1" Cut="0.0000000000000000e+00" cType="1" res="5.3030271083116531e-03" rms="4.6609765291213989e-01" purity="6.1675465106964111e-01" nType="-99"/>
        </Node>
      </Node>
    </BinaryTree>
    <BinaryTree type="DecisionTree" boostWeight="1.0000000000000000e+00" itree="347">
      <Node pos="s" depth="0" NCoef="0" IVar="3" Cut="5.8320665359497070e-01" cType="1" res="-1.7263274639844894e-03" rms="4.6473366022109985e-01" purity="5.0015068054199219e-01" nType="0">
        <Node pos="l" depth="1" NCoef="0" IVar="-1" Cut="0.0000000000000000e+00" cType="1" res="-4.6085570938885212e-03" rms="4.7398349642753601e-01" purity="4.3980965018272400e-01" nType="-99"/>
        <Node pos="r" depth="1" NCoef="0" IVar="0" Cut="2.9350478202104568e-02" cType="1" res="3.6592739634215832e-03" rms="4.6358478069305420e-01" purity="5.0466907024383545e-01" nType="0">
          <Node pos="l" depth="2" NCoef="0" IVar="-1" Cut="0.0000000000000000e+00" cType="1" res="-2.5366530753672123e-03" rms="4.4869220256805420e-01" purity="3.7395831942558289e-01" nType="-99"/>
          <Node pos="r" depth="2" NCoef="0" IVar="-1" Cut="0.0000000000000000e+00" cType="1" res="6.8211124744266272e-04" rms="4.6543711423873901e-01" purity="5.2469557523727417e-01" nType="-99"/>
        </Node>
      </Node>
    </BinaryTree>
    <BinaryTree type="DecisionTree" boostWeight="1.0000000000000000e+00" itree="348">
      <Node pos="s" depth="0" NCoef="0" IVar="1" Cut="7.3718428611755371e-01" cType="1" res="-7.1328552439808846e-03" rms="4.6447923779487610e-01" purity="4.9184495210647583e-01" nType="0">
        <Node pos="l" depth="1" NCoef="0" IVar="5" Cut="1.0769676513671875e+03" cType="1" res="1.9040083512663841e-02" rms="4.6564403176307678e-01" purity="5.9814709424972534e-01" nType="0">
          <Node pos="l" depth="2" NCoef="0" IVar="-1" Cut="0.0000000000000000e+00" cType="1" res="2.3843122180551291e-03" rms="4.6047818660736084e-01" purity="6.0549139976501465e-01" nType="-99"/>
          <Node pos="r" depth="2" NCoef="0" IVar="-1" Cut="0.0000000000000000e+00" cType="1" res="-4.9643847160041332e-03" rms="4.8278099298477173e-01" purity="5.5726993083953857e-01" nType="-99"/>
        </Node>
        <Node pos="r" depth="1" NCoef="0" IVar="4" Cut="3.3196434378623962e-03" cType="1" res="-2.0947450771927834e-02" rms="4.6326741576194763e-01" purity="4.3573659658432007e-01" nType="0">
          <Node pos="l" depth="2" NCoef="0" IVar="-1" Cut="0.0000000000000000e+00" cType="1" res="-1.7525780713185668e-03" rms="4.6227890253067017e-01" purity="4.3908089399337769e-01" nType="-99"/>
          <Node pos="r" depth="2" NCoef="0" IVar="-1" Cut="0.0000000000000000e+00" cType="1" res="2.8426495846360922e-03" rms="4.6708220243453979e-01" purity="4.0446579456329346e-01" nType="-99"/>
        </Node>
      </Node>
    </BinaryTree>
    <BinaryTree type="DecisionTree" boostWeight="1.0000000000000000e+00" itree="349">
      <Node pos="s" depth="0" NCoef="0" IVar="6" Cut="2.0487260818481445e+00" cType="1" res="1.1782237328588963e-02" rms="4.6354082226753235e-01" purity="5.1877319812774658e-01" nType="0">
        <Node pos="l" depth="1" NCoef="0" IVar="2" Cut="6.2357932329177856e-01" cType="1" res="-3.7428312003612518e-02" rms="4.3053618073463440e-01" purity="2.6207363605499268e-01" nType="0">
          <Node pos="l" depth="2" NCoef="0" IVar="-1" Cut="0.0000000000000000e+00" cType="1" res="-2.6025998522527516e-04" rms="4.2162269353866577e-01" purity="2.5059396028518677e-01" nType="-99"/>
          <Node pos="r" depth="2" NCoef="0" IVar="-1" Cut="0.0000000000000000e+00" cType="1" res="-4.5761070214211941e-03" rms="4.3724280595779419e-01" purity="2.7501839399337769e-01" nType="-99"/>
        </Node>
        <Node pos="r" depth="1" NCoef="0" IVar="6" Cut="2.4211342334747314e+00" cType="1" res="1.8171032890677452e-02" rms="4.6727493405342102e-01" purity="5.5209940671920776e-01" nType="0">
          <Node pos="l" depth="2" NCoef="0" IVar="-1" Cut="0.0000000000000000e+00" cType="1" res="6.4367582090198994e-03" rms="4.7241839766502380e-01" purity="4.3192666769027710e-01" nType="-99"/>
          <Node pos="r" depth="2" NCoef="0" IVar="-1" Cut="0.0000000000000000e+00" cType="1" res="6.9136364618316293e-04" rms="4.6610173583030701e-01" purity="5.6337898969650269e-01" nType="-99"/>
        </Node>
      </Node>
    </BinaryTree>
    <BinaryTree type="DecisionTree" boostWeight="1.0000000000000000e+00" itree="350">
      <Node pos="s" depth="0" NCoef="0" IVar="4" Cut="1.8572910921648145e-03" cType="1" res="5.2414676174521446e-03" rms="4.6900829672813416e-01" purity="5.0968134403228760e-01" nType="0">
        <Node pos="l" depth="1" NCoef="0" IVar="6" Cut="2.5987756252288818e+00" cType="1" res="-5.9740510769188404e-03" rms="4.6461063623428345e-01" purity="5.3846520185470581e-01" nType="0">
          <Node pos="l" depth="2" NCoef="0" IVar="-1" Cut="0.0000000000000000e+00" cType="1" res="-3.1174765899777412e-03" rms="4.4527876377105713e-01" purity="2.9138919711112976e-01" nType="-99"/>
          <Node pos="r" depth="2" NCoef="0" IVar="-1" Cut="0.0000000000000000e+00" cType="1" res="1.6797492571640760e-04" rms="4.6776628494262695e-01" purity="5.8604717254638672e-01" nType="-99"/>
        </Node>
        <Node pos="r" depth="1" NCoef="0" IVar="6" Cut="2.7500143051147461e+00" cType="1" res="2.8558515012264252e-02" rms="4.7717860341072083e-01" purity="4.4983959197998047e-01" nType="0">
          <Node pos="l" depth="2" NCoef="0" IVar="-1" Cut="0.0000000000000000e+00" cType="1" res="4.1751405224204063e-03" rms="4.7157880663871765e-01" purity="3.8027334213256836e-01" nType="-99"/>
          <Node pos="r" depth="2" NCoef="0" IVar="-1" Cut="0.0000000000000000e+00" cType="1" res="9.6314543043263257e-05" rms="4.7973290085792542e-01" purity="5.0357419252395630e-01" nType="-99"/>
        </Node>
      </Node>
    </BinaryTree>
    <BinaryTree type="DecisionTree" boostWeight="1.0000000000000000e+00" itree="351">
      <Node pos="s" depth="0" NCoef="0" IVar="2" Cut="6.9144105911254883e-01" cType="1" res="4.5309825800359249e-03" rms="4.6583136916160583e-01" purity="5.0469726324081421e-01" nType="0">
        <Node pos="l" depth="1" NCoef="0" IVar="0" Cut="6.0511484742164612e-02" cType="1" res="-6.7013795487582684e-03" rms="4.6835422515869141e-01" purity="4.5287749171257019e-01" nType="0">
          <Node pos="l" depth="2" NCoef="0" IVar="-1" Cut="0.0000000000000000e+00" cType="1" res="1.2048945063725114e-03" rms="4.6462875604629517e-01" purity="4.4468551874160767e-01" nType="-99"/>
          <Node pos="r" depth="2" NCoef="0" IVar="-1" Cut="0.0000000000000000e+00" cType="1" res="-1.7572531942278147e-03" rms="4.7032308578491211e-01" purity="4.5966047048568726e-01" nType="-99"/>
        </Node>
        <Node pos="r" depth="1" NCoef="0" IVar="5" Cut="6.2014910888671875e+02" cType="1" res="3.0938394367694855e-02" rms="4.5876350998878479e-01" purity="6.2652599811553955e-01" nType="0">
          <Node pos="l" depth="2" NCoef="0" IVar="-1" Cut="0.0000000000000000e+00" cType="1" res="4.2998874559998512e-03" rms="4.6698904037475586e-01" purity="5.9815138578414917e-01" nType="-99"/>
          <Node pos="r" depth="2" NCoef="0" IVar="-1" Cut="0.0000000000000000e+00" cType="1" res="9.9595205392688513e-04" rms="4.5376098155975342e-01" purity="6.4044111967086792e-01" nType="-99"/>
        </Node>
      </Node>
    </BinaryTree>
    <BinaryTree type="DecisionTree" boostWeight="1.0000000000000000e+00" itree="352">
      <Node pos="s" depth="0" NCoef="0" IVar="5" Cut="7.9480627441406250e+02" cType="1" res="-7.0494902320206165e-03" rms="4.6142882108688354e-01" purity="4.9357587099075317e-01" nType="0">
        <Node pos="l" depth="1" NCoef="0" IVar="0" Cut="1.6167606413364410e-01" cType="1" res="-2.0646102726459503e-02" rms="4.5899084210395813e-01" purity="4.5514357089996338e-01" nType="0">
          <Node pos="l" depth="2" NCoef="0" IVar="-1" Cut="0.0000000000000000e+00" cType="1" res="-1.8826464656740427e-03" rms="4.5904442667961121e-01" purity="4.2300340533256531e-01" nType="-99"/>
          <Node pos="r" depth="2" NCoef="0" IVar="-1" Cut="0.0000000000000000e+00" cType="1" res="1.1583621380850673e-03" rms="4.5682358741760254e-01" purity="5.8170700073242188e-01" nType="-99"/>
        </Node>
        <Node pos="r" depth="1" NCoef="0" IVar="3" Cut="1.4354516267776489e+00" cType="1" res="1.8663544207811356e-02" rms="4.6491873264312744e-01" purity="5.6625652313232422e-01" nType="0">
          <Node pos="l" depth="2" NCoef="0" IVar="-1" Cut="0.0000000000000000e+00" cType="1" res="2.5568939745426178e-03" rms="4.6132814884185791e-01" purity="6.1577737331390381e-01" nType="-99"/>
          <Node pos="r" depth="2" NCoef="0" IVar="-1" Cut="0.0000000000000000e+00" cType="1" res="-9.7121990984305739e-04" rms="4.6943023800849915e-01" purity="4.7660461068153381e-01" nType="-99"/>
        </Node>
      </Node>
    </BinaryTree>
    <BinaryTree type="DecisionTree" boostWeight="1.0000000000000000e+00" itree="353">
      <Node pos="s" depth="0" NCoef="0" IVar="5" Cut="4.6399209594726562e+02" cType="1" res="-3.3146336209028959e-03" rms="4.6415954828262329e-01" purity="4.9818885326385498e-01" nType="0">
        <Node pos="l" depth="1" NCoef="0" IVar="-1" Cut="0.0000000000000000e+00" cType="1" res="-3.2012427691370249e-03" rms="4.3279701471328735e-01" purity="3.1144174933433533e-01" nType="-99"/>
        <Node pos="r" depth="1" NCoef="0" IVar="1" Cut="1.8353103399276733e+00" cType="1" res="1.1906191939488053e-03" rms="4.6671700477600098e-01" purity="5.1557517051696777e-01" nType="0">
          <Node pos="l" depth="2" NCoef="0" IVar="-1" Cut="0.0000000000000000e+00" cType="1" res="7.2256283601745963e-04" rms="4.6904912590980530e-01" purity="5.5741590261459351e-01" nType="-99"/>
          <Node pos="r" depth="2" NCoef="0" IVar="-1" Cut="0.0000000000000000e+00" cType="1" res="-2.3883024696260691e-03" rms="4.5479807257652283e-01" purity="3.4440580010414124e-01" nType="-99"/>
        </Node>
      </Node>
    </BinaryTree>
    <BinaryTree type="DecisionTree" boostWeight="1.0000000000000000e+00" itree="354">
      <Node pos="s" depth="0" NCoef="0" IVar="5" Cut="1.2738463134765625e+03" cType="1" res="1.6478934558108449e-03" rms="4.6507585048675537e-01" purity="5.0100642442703247e-01" nType="0">
        <Node pos="l" depth="1" NCoef="0" IVar="6" Cut="1.9920058250427246e+00" cType="1" res="-3.5138847306370735e-03" rms="4.6398559212684631e-01" purity="4.9163052439689636e-01" nType="0">
          <Node pos="l" depth="2" NCoef="0" IVar="-1" Cut="0.0000000000000000e+00" cType="1" res="-3.2207267358899117e-03" rms="4.1569364070892334e-01" purity="2.4147810041904449e-01" nType="-99"/>
          <Node pos="r" depth="2" NCoef="0" IVar="-1" Cut="0.0000000000000000e+00" cType="1" res="1.1520649422891438e-04" rms="4.6910318732261658e-01" purity="5.2132576704025269e-01" nType="-99"/>
        </Node>
        <Node pos="r" depth="1" NCoef="0" IVar="-1" Cut="0.0000000000000000e+00" cType="1" res="5.0111794844269753e-03" rms="4.7423464059829712e-01" purity="6.3294965028762817e-01" nType="-99"/>
      </Node>
    </BinaryTree>
    <BinaryTree type="DecisionTree" boostWeight="1.0000000000000000e+00" itree="355">
      <Node pos="s" depth="0" NCoef="0" IVar="5" Cut="6.7891314697265625e+02" cType="1" res="1.6878297552466393e-02" rms="4.6544909477233887e-01" purity="5.1496154069900513e-01" nType="0">
        <Node pos="l" depth="1" NCoef="0" IVar="0" Cut="7.8834220767021179e-02" cType="1" res="2.5585533585399389e-03" rms="4.6300441026687622e-01" purity="4.5839086174964905e-01" nType="0">
          <Node pos="l" depth="2" NCoef="0" IVar="-1" Cut="0.0000000000000000e+00" cType="1" res="-1.6095403116196394e-03" rms="4.5554018020629883e-01" purity="3.6148190498352051e-01" nType="-99"/>
          <Node pos="r" depth="2" NCoef="0" IVar="-1" Cut="0.0000000000000000e+00" cType="1" res="1.3846309157088399e-03" rms="4.6686699986457825e-01" purity="5.2158772945404053e-01" nType="-99"/>
        </Node>
        <Node pos="r" depth="1" NCoef="0" IVar="6" Cut="3.0404088497161865e+00" cType="1" res="2.9940024018287659e-02" rms="4.6728533506393433e-01" purity="5.6656229496002197e-01" nType="0">
          <Node pos="l" depth="2" NCoef="0" IVar="-1" Cut="0.0000000000000000e+00" cType="1" res="3.4397691488265991e-03" rms="4.8050114512443542e-01" purity="4.4446140527725220e-01" nType="-99"/>
          <Node pos="r" depth="2" NCoef="0" IVar="-1" Cut="0.0000000000000000e+00" cType="1" res="1.2270569568499923e-03" rms="4.6072632074356079e-01" purity="6.2171995639801025e-01" nType="-99"/>
        </Node>
      </Node>
    </BinaryTree>
    <BinaryTree type="DecisionTree" boostWeight="1.0000000000000000e+00" itree="356">
      <Node pos="s" depth="0" NCoef="0" IVar="6" Cut="4.6900000572204590e+00" cType="1" res="-2.7345947455614805e-03" rms="4.6359410881996155e-01" purity="4.9810501933097839e-01" nType="0">
        <Node pos="l" depth="1" NCoef="0" IVar="3" Cut="1.4286193847656250e+00" cType="1" res="-1.3373794965445995e-02" rms="4.7211804986000061e-01" purity="4.2822170257568359e-01" nType="0">
          <Node pos="l" depth="2" NCoef="0" IVar="-1" Cut="0.0000000000000000e+00" cType="1" res="2.4611741537228227e-04" rms="4.7409856319427490e-01" purity="4.7490170598030090e-01" nType="-99"/>
          <Node pos="r" depth="2" NCoef="0" IVar="-1" Cut="0.0000000000000000e+00" cType="1" res="-2.2119488567113876e-03" rms="4.6847715973854065e-01" purity="3.6626029014587402e-01" nType="-99"/>
        </Node>
        <Node pos="r" depth="1" NCoef="0" IVar="5" Cut="9.6702215576171875e+02" cType="1" res="3.2377153635025024e-02" rms="4.3242412805557251e-01" purity="7.2873568534851074e-01" nType="0">
          <Node pos="l" depth="2" NCoef="0" IVar="-1" Cut="0.0000000000000000e+00" cType="1" res="4.1140802204608917e-03" rms="4.2359894514083862e-01" purity="7.4422645568847656e-01" nType="-99"/>
          <Node pos="r" depth="2" NCoef="0" IVar="-1" Cut="0.0000000000000000e+00" cType="1" res="-2.2196895442903042e-03" rms="4.5227417349815369e-01" purity="6.8236130475997925e-01" nType="-99"/>
        </Node>
      </Node>
    </BinaryTree>
    <BinaryTree type="DecisionTree" boostWeight="1.0000000000000000e+00" itree="357">
      <Node pos="s" depth="0" NCoef="0" IVar="2" Cut="6.5037238597869873e-01" cType="1" res="8.3265674766153097e-04" rms="4.6437987685203552e-01" purity="5.0185924768447876e-01" nType="0">
        <Node pos="l" depth="1" NCoef="0" IVar="0" Cut="1.3355286419391632e-01" cType="1" res="9.0579325333237648e-03" rms="4.6511775255203247e-01" purity="4.5738330483436584e-01" nType="0">
          <Node pos="l" depth="2" NCoef="0" IVar="-1" Cut="0.0000000000000000e+00" cType="1" res="1.2394072837196290e-04" rms="4.6503502130508423e-01" purity="4.4153609871864319e-01" nType="-99"/>
          <Node pos="r" depth="2" NCoef="0" IVar="-1" Cut="0.0000000000000000e+00" cType="1" res="3.9027351886034012e-03" rms="4.6256080269813538e-01" purity="5.7132196426391602e-01" nType="-99"/>
        </Node>
        <Node pos="r" depth="1" NCoef="0" IVar="2" Cut="7.1185576915740967e-01" cType="1" res="-1.1987762525677681e-02" rms="4.6293610334396362e-01" purity="5.7118219137191772e-01" nType="0">
          <Node pos="l" depth="2" NCoef="0" IVar="-1" Cut="0.0000000000000000e+00" cType="1" res="-3.0749903526157141e-03" rms="4.7576552629470825e-01" purity="4.8231050372123718e-01" nType="-99"/>
          <Node pos="r" depth="2" NCoef="0" IVar="-1" Cut="0.0000000000000000e+00" cType="1" res="6.3583318842574954e-04" rms="4.5414793491363525e-01" purity="6.2153130769729614e-01" nType="-99"/>
        </Node>
      </Node>
    </BinaryTree>
    <BinaryTree type="DecisionTree" boostWeight="1.0000000000000000e+00" itree="358">
      <Node pos="s" depth="0" NCoef="0" IVar="1" Cut="2.1915991306304932e+00" cType="1" res="-3.6592516116797924e-03" rms="4.6535357832908630e-01" purity="4.9778190255165100e-01" nType="0">
        <Node pos="l" depth="1" NCoef="0" IVar="4" Cut="1.8406510353088379e-03" cType="1" res="3.0714084859937429e-03" rms="4.6990039944648743e-01" purity="5.2937638759613037e-01" nType="0">
          <Node pos="l" depth="2" NCoef="0" IVar="-1" Cut="0.0000000000000000e+00" cType="1" res="-6.3569756457582116e-04" rms="4.6599122881889343e-01" purity="5.5691319704055786e-01" nType="-99"/>
          <Node pos="r" depth="2" NCoef="0" IVar="-1" Cut="0.0000000000000000e+00" cType="1" res="1.7497035441920161e-03" rms="4.7685620188713074e-01" purity="4.7215342521667480e-01" nType="-99"/>
        </Node>
        <Node pos="r" depth="1" NCoef="0" IVar="0" Cut="5.7063788175582886e-02" cType="1" res="-4.7511845827102661e-02" rms="4.3200656771659851e-01" purity="2.9193297028541565e-01" nType="0">
          <Node pos="l" depth="2" NCoef="0" IVar="-1" Cut="0.0000000000000000e+00" cType="1" res="-5.0946660339832306e-03" rms="4.1504487395286560e-01" purity="2.3682449758052826e-01" nType="-99"/>
          <Node pos="r" depth="2" NCoef="0" IVar="-1" Cut="0.0000000000000000e+00" cType="1" res="-6.7823164863511920e-04" rms="4.4632998108863831e-01" purity="3.5032123327255249e-01" nType="-99"/>
        </Node>
      </Node>
    </BinaryTree>
    <BinaryTree type="DecisionTree" boostWeight="1.0000000000000000e+00" itree="359">
      <Node pos="s" depth="0" NCoef="0" IVar="5" Cut="9.8204394531250000e+02" cType="1" res="6.2352921813726425e-03" rms="4.6697914600372314e-01" purity="5.0705552101135254e-01" nType="0">
        <Node pos="l" depth="1" NCoef="0" IVar="4" Cut="1.1143808951601386e-03" cType="1" res="-5.9591806493699551e-03" rms="4.6616104245185852e-01" purity="4.8434281349182129e-01" nType="0">
          <Node pos="l" depth="2" NCoef="0" IVar="-1" Cut="0.0000000000000000e+00" cType="1" res="-1.5117496950551867e-03" rms="4.6750402450561523e-01" purity="5.3330755233764648e-01" nType="-99"/>
          <Node pos="r" depth="2" NCoef="0" IVar="-1" Cut="0.0000000000000000e+00" cType="1" res="6.2658166280016303e-04" rms="4.6428692340850830e-01" purity="4.3713545799255371e-01" nType="-99"/>
        </Node>
        <Node pos="r" depth="1" NCoef="0" IVar="0" Cut="7.0919714868068695e-02" cType="1" res="6.2802411615848541e-02" rms="4.6660599112510681e-01" purity="6.1241412162780762e-01" nType="0">
          <Node pos="l" depth="2" NCoef="0" IVar="-1" Cut="0.0000000000000000e+00" cType="1" res="6.2624197453260422e-03" rms="4.6465817093849182e-01" purity="6.0771983861923218e-01" nType="-99"/>
          <Node pos="r" depth="2" NCoef="0" IVar="-1" Cut="0.0000000000000000e+00" cType="1" res="-1.9216471991967410e-04" rms="4.6326968073844910e-01" purity="6.2137013673782349e-01" nType="-99"/>
        </Node>
      </Node>
    </BinaryTree>
    <BinaryTree type="DecisionTree" boostWeight="1.0000000000000000e+00" itree="360">
      <Node pos="s" depth="0" NCoef="0" IVar="0" Cut="1.4606527984142303e-01" cType="1" res="-1.0370417498052120e-02" rms="4.6427345275878906e-01" purity="4.9248400330543518e-01" nType="0">
        <Node pos="l" depth="1" NCoef="0" IVar="1" Cut="6.5806758403778076e-01" cType="1" res="-2.2425418719649315e-02" rms="4.6712112426757812e-01" purity="4.6101549267768860e-01" nType="0">
          <Node pos="l" depth="2" NCoef="0" IVar="-1" Cut="0.0000000000000000e+00" cType="1" res="-2.9128370806574821e-03" rms="4.6935319900512695e-01" purity="5.0931984186172485e-01" nType="-99"/>
          <Node pos="r" depth="2" NCoef="0" IVar="-1" Cut="0.0000000000000000e+00" cType="1" res="-7.4486777884885669e-04" rms="4.6576210856437683e-01" purity="4.3990150094032288e-01" nType="-99"/>
        </Node>
        <Node pos="r" depth="1" NCoef="0" IVar="4" Cut="7.9408660531044006e-04" cType="1" res="4.0156349539756775e-02" rms="4.4863247871398926e-01" purity="6.2437969446182251e-01" nType="0">
          <Node pos="l" depth="2" NCoef="0" IVar="-1" Cut="0.0000000000000000e+00" cType="1" res="6.6470517776906490e-03" rms="4.1002768278121948e-01" purity="7.5343579053878784e-01" nType="-99"/>
          <Node pos="r" depth="2" NCoef="0" IVar="-1" Cut="0.0000000000000000e+00" cType="1" res="7.0266443071886897e-04" rms="4.7225272655487061e-01" purity="5.3194272518157959e-01" nType="-99"/>
        </Node>
      </Node>
    </BinaryTree>
    <BinaryTree type="DecisionTree" boostWeight="1.0000000000000000e+00" itree="361">
      <Node pos="s" depth="0" NCoef="0" IVar="0" Cut="2.1372193470597267e-02" cType="1" res="1.1824090033769608e-02" rms="4.6171262860298157e-01" purity="5.1249653100967407e-01" nType="0">
        <Node pos="l" depth="1" NCoef="0" IVar="-1" Cut="0.0000000000000000e+00" cType="1" res="-2.4807346053421497e-03" rms="4.5374572277069092e-01" purity="3.7868481874465942e-01" nType="-99"/>
        <Node pos="r" depth="1" NCoef="0" IVar="5" Cut="6.2054284667968750e+02" cType="1" res="1.6332985833287239e-02" rms="4.6210005879402161e-01" purity="5.2383738756179810e-01" nType="0">
          <Node pos="l" depth="2" NCoef="0" IVar="-1" Cut="0.0000000000000000e+00" cType="1" res="-5.8140380133409053e-05" rms="4.6395695209503174e-01" purity="4.4392228126525879e-01" nType="-99"/>
          <Node pos="r" depth="2" NCoef="0" IVar="-1" Cut="0.0000000000000000e+00" cType="1" res="1.8438214901834726e-03" rms="4.6050104498863220e-01" purity="5.7705616950988770e-01" nType="-99"/>
        </Node>
      </Node>
    </BinaryTree>
    <BinaryTree type="DecisionTree" boostWeight="1.0000000000000000e+00" itree="362">
      <Node pos="s" depth="0" NCoef="0" IVar="1" Cut="2.3880448341369629e+00" cType="1" res="-2.4644057266414165e-03" rms="4.6461614966392517e-01" purity="4.9595019221305847e-01" nType="0">
        <Node pos="l" depth="1" NCoef="0" IVar="2" Cut="4.5413607358932495e-01" cType="1" res="3.1643155962228775e-03" rms="4.6815094351768494e-01" purity="5.1920670270919800e-01" nType="0">
          <Node pos="l" depth="2" NCoef="0" IVar="-1" Cut="0.0000000000000000e+00" cType="1" res="2.7707088738679886e-03" rms="4.6911486983299255e-01" purity="4.6241924166679382e-01" nType="-99"/>
          <Node pos="r" depth="2" NCoef="0" IVar="-1" Cut="0.0000000000000000e+00" cType="1" res="-2.5499559706076980e-04" rms="4.6761560440063477e-01" purity="5.2895653247833252e-01" nType="-99"/>
        </Node>
        <Node pos="r" depth="1" NCoef="0" IVar="-1" Cut="0.0000000000000000e+00" cType="1" res="-3.4245564602315426e-03" rms="4.2657658457756042e-01" purity="2.7846485376358032e-01" nType="-99"/>
      </Node>
    </BinaryTree>
    <BinaryTree type="DecisionTree" boostWeight="1.0000000000000000e+00" itree="363">
      <Node pos="s" depth="0" NCoef="0" IVar="6" Cut="4.7546415328979492e+00" cType="1" res="-4.9078483134508133e-03" rms="4.6722638607025146e-01" purity="4.9848660826683044e-01" nType="0">
        <Node pos="l" depth="1" NCoef="0" IVar="3" Cut="1.2075771093368530e+00" cType="1" res="4.6946546062827110e-03" rms="4.7008517384529114e-01" purity="4.5008423924446106e-01" nType="0">
          <Node pos="l" depth="2" NCoef="0" IVar="-1" Cut="0.0000000000000000e+00" cType="1" res="-1.3344563776627183e-03" rms="4.7580453753471375e-01" purity="4.6330818533897400e-01" nType="-99"/>
          <Node pos="r" depth="2" NCoef="0" IVar="-1" Cut="0.0000000000000000e+00" cType="1" res="1.7619986319914460e-03" rms="4.6380442380905151e-01" purity="4.3863591551780701e-01" nType="-99"/>
        </Node>
        <Node pos="r" depth="1" NCoef="0" IVar="3" Cut="1.1525623798370361e+00" cType="1" res="-3.7701625376939774e-02" rms="4.5580595731735229e-01" purity="6.6378694772720337e-01" nType="0">
          <Node pos="l" depth="2" NCoef="0" IVar="-1" Cut="0.0000000000000000e+00" cType="1" res="6.2168500153347850e-04" rms="4.3106433749198914e-01" purity="7.3521482944488525e-01" nType="-99"/>
          <Node pos="r" depth="2" NCoef="0" IVar="-1" Cut="0.0000000000000000e+00" cType="1" res="-5.2505852654576302e-03" rms="4.7138679027557373e-01" purity="6.0722494125366211e-01" nType="-99"/>
        </Node>
      </Node>
    </BinaryTree>
    <BinaryTree type="DecisionTree" boostWeight="1.0000000000000000e+00" itree="364">
      <Node pos="s" depth="0" NCoef="0" IVar="0" Cut="2.8563253581523895e-02" cType="1" res="-1.2810854241251945e-03" rms="4.6531176567077637e-01" purity="5.0205540657043457e-01" nType="0">
        <Node pos="l" depth="1" NCoef="0" IVar="4" Cut="1.4145136810839176e-03" cType="1" res="3.7055682390928268e-02" rms="4.6242868900299072e-01" purity="4.6543681621551514e-01" nType="0">
          <Node pos="l" depth="2" NCoef="0" IVar="-1" Cut="0.0000000000000000e+00" cType="1" res="4.9694832414388657e-03" rms="4.6648216247558594e-01" purity="5.6663048267364502e-01" nType="-99"/>
          <Node pos="r" depth="2" NCoef="0" IVar="-1" Cut="0.0000000000000000e+00" cType="1" res="-5.5935001000761986e-04" rms="4.5322284102439880e-01" purity="3.4573698043823242e-01" nType="-99"/>
        </Node>
        <Node pos="r" depth="1" NCoef="0" IVar="2" Cut="5.3598225116729736e-01" cType="1" res="-6.7080962471663952e-03" rms="4.6546339988708496e-01" purity="5.0723922252655029e-01" nType="0">
          <Node pos="l" depth="2" NCoef="0" IVar="-1" Cut="0.0000000000000000e+00" cType="1" res="-2.0067980512976646e-03" rms="4.6023014187812805e-01" purity="3.9387440681457520e-01" nType="-99"/>
          <Node pos="r" depth="2" NCoef="0" IVar="-1" Cut="0.0000000000000000e+00" cType="1" res="3.3048450131900609e-04" rms="4.6727803349494934e-01" purity="5.5731767416000366e-01" nType="-99"/>
        </Node>
      </Node>
    </BinaryTree>
    <BinaryTree type="DecisionTree" boostWeight="1.0000000000000000e+00" itree="365">
      <Node pos="s" depth="0" NCoef="0" IVar="6" Cut="3.2644665241241455e+00" cType="1" res="1.7843191744759679e-03" rms="4.6241697669029236e-01" purity="5.0258082151412964e-01" nType="0">
        <Node pos="l" depth="1" NCoef="0" IVar="2" Cut="6.2695670127868652e-01" cType="1" res="-1.6400886699557304e-02" rms="4.6081021428108215e-01" purity="3.4644359350204468e-01" nType="0">
          <Node pos="l" depth="2" NCoef="0" IVar="-1" Cut="0.0000000000000000e+00" cType="1" res="-2.1824070718139410e-03" rms="4.4203487038612366e-01" purity="2.8113868832588196e-01" nType="-99"/>
          <Node pos="r" depth="2" NCoef="0" IVar="-1" Cut="0.0000000000000000e+00" cType="1" res="5.3989677689969540e-04" rms="4.8452135920524597e-01" purity="4.3709918856620789e-01" nType="-99"/>
        </Node>
        <Node pos="r" depth="1" NCoef="0" IVar="4" Cut="4.8214240814559162e-04" cType="1" res="1.4268594793975353e-02" rms="4.6310359239578247e-01" purity="6.0977017879486084e-01" nType="0">
          <Node pos="l" depth="2" NCoef="0" IVar="-1" Cut="0.0000000000000000e+00" cType="1" res="-7.4818526627495885e-04" rms="4.5001399517059326e-01" purity="6.3885211944580078e-01" nType="-99"/>
          <Node pos="r" depth="2" NCoef="0" IVar="-1" Cut="0.0000000000000000e+00" cType="1" res="2.0146777387708426e-03" rms="4.7169986367225647e-01" purity="5.8832955360412598e-01" nType="-99"/>
        </Node>
      </Node>
    </BinaryTree>
    <BinaryTree type="DecisionTree" boostWeight="1.0000000000000000e+00" itree="366">
      <Node pos="s" depth="0" NCoef="0" IVar="6" Cut="1.7564660310745239e+00" cType="1" res="6.4078317955136299e-03" rms="4.6450322866439819e-01" purity="5.0895029306411743e-01" nType="0">
        <Node pos="l" depth="1" NCoef="0" IVar="-1" Cut="0.0000000000000000e+00" cType="1" res="-2.7348368894308805e-03" rms="4.2130920290946960e-01" purity="2.4462565779685974e-01" nType="-99"/>
        <Node pos="r" depth="1" NCoef="0" IVar="1" Cut="3.2825627923011780e-01" cType="1" res="9.9146254360675812e-03" rms="4.6741679310798645e-01" purity="5.2891737222671509e-01" nType="0">
          <Node pos="l" depth="2" NCoef="0" IVar="-1" Cut="0.0000000000000000e+00" cType="1" res="3.3548395149409771e-03" rms="4.5341661572456360e-01" purity="6.5465569496154785e-01" nType="-99"/>
          <Node pos="r" depth="2" NCoef="0" IVar="-1" Cut="0.0000000000000000e+00" cType="1" res="3.0288918060250580e-04" rms="4.6900629997253418e-01" purity="5.1216161251068115e-01" nType="-99"/>
        </Node>
      </Node>
    </BinaryTree>
    <BinaryTree type="DecisionTree" boostWeight="1.0000000000000000e+00" itree="367">
      <Node pos="s" depth="0" NCoef="0" IVar="5" Cut="9.8811273193359375e+02" cType="1" res="-1.1238406412303448e-02" rms="4.6749791502952576e-01" purity="4.9065977334976196e-01" nType="0">
        <Node pos="l" depth="1" NCoef="0" IVar="6" Cut="5.6687507629394531e+00" cType="1" res="-2.5052819401025772e-03" rms="4.6473088860511780e-01" purity="4.8628091812133789e-01" nType="0">
          <Node pos="l" depth="2" NCoef="0" IVar="-1" Cut="0.0000000000000000e+00" cType="1" res="1.8763764819595963e-04" rms="4.6560269594192505e-01" purity="4.6857962012290955e-01" nType="-99"/>
          <Node pos="r" depth="2" NCoef="0" IVar="-1" Cut="0.0000000000000000e+00" cType="1" res="-5.3275697864592075e-03" rms="4.5030453801155090e-01" purity="6.8423646688461304e-01" nType="-99"/>
        </Node>
        <Node pos="r" depth="1" NCoef="0" IVar="0" Cut="7.0265643298625946e-02" cType="1" res="-5.0209596753120422e-02" rms="4.7770932316780090e-01" purity="5.1020008325576782e-01" nType="0">
          <Node pos="l" depth="2" NCoef="0" IVar="-1" Cut="0.0000000000000000e+00" cType="1" res="-1.7778195906430483e-03" rms="4.7121438384056091e-01" purity="4.9258688092231750e-01" nType="-99"/>
          <Node pos="r" depth="2" NCoef="0" IVar="-1" Cut="0.0000000000000000e+00" cType="1" res="-6.1615416780114174e-03" rms="4.8762673139572144e-01" purity="5.4495620727539062e-01" nType="-99"/>
        </Node>
      </Node>
    </BinaryTree>
    <BinaryTree type="DecisionTree" boostWeight="1.0000000000000000e+00" itree="368">
      <Node pos="s" depth="0" NCoef="0" IVar="0" Cut="6.7872889339923859e-02" cType="1" res="-4.1116019710898399e-03" rms="4.6631669998168945e-01" purity="5.0151443481445312e-01" nType="0">
        <Node pos="l" depth="1" NCoef="0" IVar="5" Cut="7.6020953369140625e+02" cType="1" res="2.0277718082070351e-02" rms="4.6829190850257874e-01" purity="4.7111344337463379e-01" nType="0">
          <Node pos="l" depth="2" NCoef="0" IVar="-1" Cut="0.0000000000000000e+00" cType="1" res="-1.8588572856970131e-04" rms="4.5528185367584229e-01" purity="3.8550433516502380e-01" nType="-99"/>
          <Node pos="r" depth="2" NCoef="0" IVar="-1" Cut="0.0000000000000000e+00" cType="1" res="2.6372454594820738e-03" rms="4.7894296050071716e-01" purity="5.4976958036422729e-01" nType="-99"/>
        </Node>
        <Node pos="r" depth="1" NCoef="0" IVar="0" Cut="9.5290735363960266e-02" cType="1" res="-2.1958317607641220e-02" rms="4.6405455470085144e-01" purity="5.2376008033752441e-01" nType="0">
          <Node pos="l" depth="2" NCoef="0" IVar="-1" Cut="0.0000000000000000e+00" cType="1" res="-3.9386623539030552e-03" rms="4.7425633668899536e-01" purity="4.3669196963310242e-01" nType="-99"/>
          <Node pos="r" depth="2" NCoef="0" IVar="-1" Cut="0.0000000000000000e+00" cType="1" res="-3.3673187135718763e-04" rms="4.5880204439163208e-01" purity="5.5880689620971680e-01" nType="-99"/>
        </Node>
      </Node>
    </BinaryTree>
    <BinaryTree type="DecisionTree" boostWeight="1.0000000000000000e+00" itree="369">
      <Node pos="s" depth="0" NCoef="0" IVar="0" Cut="2.1350089460611343e-02" cType="1" res="-4.1306996718049049e-03" rms="4.6387511491775513e-01" purity="4.9514347314834595e-01" nType="0">
        <Node pos="l" depth="1" NCoef="0" IVar="-1" Cut="0.0000000000000000e+00" cType="1" res="-4.0939319878816605e-03" rms="4.4948348402976990e-01" purity="3.4557369351387024e-01" nType="-99"/>
        <Node pos="r" depth="1" NCoef="0" IVar="5" Cut="9.7717742919921875e+02" cType="1" res="1.6195214120671153e-03" rms="4.6469566226005554e-01" purity="5.0842612981796265e-01" nType="0">
          <Node pos="l" depth="2" NCoef="0" IVar="-1" Cut="0.0000000000000000e+00" cType="1" res="5.8045546757057309e-04" rms="4.6178969740867615e-01" purity="5.0333321094512939e-01" nType="-99"/>
          <Node pos="r" depth="2" NCoef="0" IVar="-1" Cut="0.0000000000000000e+00" cType="1" res="-2.3930321913212538e-03" rms="4.7784936428070068e-01" purity="5.3531819581985474e-01" nType="-99"/>
        </Node>
      </Node>
    </BinaryTree>
    <BinaryTree type="DecisionTree" boostWeight="1.0000000000000000e+00" itree="370">
      <Node pos="s" depth="0" NCoef="0" IVar="6" Cut="3.4065115451812744e+00" cType="1" res="-4.1884365491569042e-03" rms="4.6404987573623657e-01" purity="4.9833780527114868e-01" nType="0">
        <Node pos="l" depth="1" NCoef="0" IVar="3" Cut="1.3572703599929810e+00" cType="1" res="1.0924326255917549e-02" rms="4.6495696902275085e-01" purity="3.8050514459609985e-01" nType="0">
          <Node pos="l" depth="2" NCoef="0" IVar="-1" Cut="0.0000000000000000e+00" cType="1" res="-9.4072771025821567e-04" rms="4.7228455543518066e-01" purity="3.8203239440917969e-01" nType="-99"/>
          <Node pos="r" depth="2" NCoef="0" IVar="-1" Cut="0.0000000000000000e+00" cType="1" res="2.7870754711329937e-03" rms="4.5391234755516052e-01" purity="3.7866571545600891e-01" nType="-99"/>
        </Node>
        <Node pos="r" depth="1" NCoef="0" IVar="6" Cut="5.0732049942016602e+00" cType="1" res="-1.6459761187434196e-02" rms="4.6294924616813660e-01" purity="5.9401607513427734e-01" nType="0">
          <Node pos="l" depth="2" NCoef="0" IVar="-1" Cut="0.0000000000000000e+00" cType="1" res="-2.1394649520516396e-03" rms="4.7718405723571777e-01" purity="5.2763485908508301e-01" nType="-99"/>
          <Node pos="r" depth="2" NCoef="0" IVar="-1" Cut="0.0000000000000000e+00" cType="1" res="2.3446897976100445e-03" rms="4.2410078644752502e-01" purity="7.5080084800720215e-01" nType="-99"/>
        </Node>
      </Node>
    </BinaryTree>
    <BinaryTree type="DecisionTree" boostWeight="1.0000000000000000e+00" itree="371">
      <Node pos="s" depth="0" NCoef="0" IVar="1" Cut="1.7436059713363647e+00" cType="1" res="1.4751590788364410e-02" rms="4.6553114056587219e-01" purity="5.2099317312240601e-01" nType="0">
        <Node pos="l" depth="1" NCoef="0" IVar="2" Cut="5.7005769014358521e-01" cType="1" res="2.3198420181870461e-02" rms="4.6884402632713318e-01" purity="5.6351083517074585e-01" nType="0">
          <Node pos="l" depth="2" NCoef="0" IVar="-1" Cut="0.0000000000000000e+00" cType="1" res="3.2627256587147713e-03" rms="4.7406572103500366e-01" purity="5.2081495523452759e-01" nType="-99"/>
          <Node pos="r" depth="2" NCoef="0" IVar="-1" Cut="0.0000000000000000e+00" cType="1" res="4.3636979535222054e-04" rms="4.6493950486183167e-01" purity="5.8859574794769287e-01" nType="-99"/>
        </Node>
        <Node pos="r" depth="1" NCoef="0" IVar="0" Cut="1.0565984994173050e-01" cType="1" res="-1.6047464683651924e-02" rms="4.5191112160682678e-01" purity="3.6596411466598511e-01" nType="0">
          <Node pos="l" depth="2" NCoef="0" IVar="-1" Cut="0.0000000000000000e+00" cType="1" res="-2.3799489717930555e-03" rms="4.4282475113868713e-01" purity="3.2055014371871948e-01" nType="-99"/>
          <Node pos="r" depth="2" NCoef="0" IVar="-1" Cut="0.0000000000000000e+00" cType="1" res="3.0312179587781429e-03" rms="4.7103375196456909e-01" purity="4.9527126550674438e-01" nType="-99"/>
        </Node>
      </Node>
    </BinaryTree>
    <BinaryTree type="DecisionTree" boostWeight="1.0000000000000000e+00" itree="372">
      <Node pos="s" depth="0" NCoef="0" IVar="5" Cut="4.9493365478515625e+02" cType="1" res="4.4423458166420460e-03" rms="4.6105602383613586e-01" purity="5.0442415475845337e-01" nType="0">
        <Node pos="l" depth="1" NCoef="0" IVar="4" Cut="1.3223740970715880e-03" cType="1" res="-4.2894151061773300e-02" rms="4.4131153821945190e-01" purity="3.4244638681411743e-01" nType="0">
          <Node pos="l" depth="2" NCoef="0" IVar="-1" Cut="0.0000000000000000e+00" cType="1" res="-1.0176909854635596e-03" rms="4.6060779690742493e-01" purity="4.2594918608665466e-01" nType="-99"/>
          <Node pos="r" depth="2" NCoef="0" IVar="-1" Cut="0.0000000000000000e+00" cType="1" res="-4.4345385394990444e-03" rms="4.1659343242645264e-01" purity="2.4888128042221069e-01" nType="-99"/>
        </Node>
        <Node pos="r" depth="1" NCoef="0" IVar="3" Cut="7.8773409128189087e-01" cType="1" res="1.2208588421344757e-02" rms="4.6375405788421631e-01" purity="5.3099894523620605e-01" nType="0">
          <Node pos="l" depth="2" NCoef="0" IVar="-1" Cut="0.0000000000000000e+00" cType="1" res="-1.4094735961407423e-03" rms="4.6899303793907166e-01" purity="5.1627224683761597e-01" nType="-99"/>
          <Node pos="r" depth="2" NCoef="0" IVar="-1" Cut="0.0000000000000000e+00" cType="1" res="1.2731067836284637e-03" rms="4.6225929260253906e-01" purity="5.3422367572784424e-01" nType="-99"/>
        </Node>
      </Node>
    </BinaryTree>
    <BinaryTree type="DecisionTree" boostWeight="1.0000000000000000e+00" itree="373">
      <Node pos="s" depth="0" NCoef="0" IVar="2" Cut="5.5818241834640503e-01" cType="1" res="1.0251695290207863e-02" rms="4.6768638491630554e-01" purity="5.1150465011596680e-01" nType="0">
        <Node pos="l" depth="1" NCoef="0" IVar="0" Cut="2.1905619651079178e-02" cType="1" res="3.0898455530405045e-02" rms="4.7130513191223145e-01" purity="4.5031186938285828e-01" nType="0">
          <Node pos="l" depth="2" NCoef="0" IVar="-1" Cut="0.0000000000000000e+00" cType="1" res="-1.7241095192730427e-03" rms="4.5843645930290222e-01" purity="3.7389490008354187e-01" nType="-99"/>
          <Node pos="r" depth="2" NCoef="0" IVar="-1" Cut="0.0000000000000000e+00" cType="1" res="2.7190584223717451e-03" rms="4.7294279932975769e-01" purity="4.6548470854759216e-01" nType="-99"/>
        </Node>
        <Node pos="r" depth="1" NCoef="0" IVar="1" Cut="9.1138094663619995e-01" cType="1" res="-3.5865984391421080e-03" rms="4.6473208069801331e-01" purity="5.5251848697662354e-01" nType="0">
          <Node pos="l" depth="2" NCoef="0" IVar="-1" Cut="0.0000000000000000e+00" cType="1" res="-1.0457393946126103e-03" rms="4.6792075037956238e-01" purity="5.9167265892028809e-01" nType="-99"/>
          <Node pos="r" depth="2" NCoef="0" IVar="-1" Cut="0.0000000000000000e+00" cType="1" res="5.4850091692060232e-04" rms="4.6104633808135986e-01" purity="5.1146066188812256e-01" nType="-99"/>
        </Node>
      </Node>
    </BinaryTree>
    <BinaryTree type="DecisionTree" boostWeight="1.0000000000000000e+00" itree="374">
      <Node pos="s" depth="0" NCoef="0" IVar="3" Cut="8.3360195159912109e-01" cType="1" res="5.6227965978905559e-04" rms="4.6611025929450989e-01" purity="5.0463032722473145e-01" nType="0">
        <Node pos="l" depth="1" NCoef="0" IVar="5" Cut="9.0995471191406250e+02" cType="1" res="-4.4051948934793472e-02" rms="4.6486181020736694e-01" purity="4.9568703770637512e-01" nType="0">
          <Node pos="l" depth="2" NCoef="0" IVar="-1" Cut="0.0000000000000000e+00" cType="1" res="-4.3177609331905842e-03" rms="4.5587033033370972e-01" purity="4.5124188065528870e-01" nType="-99"/>
          <Node pos="r" depth="2" NCoef="0" IVar="-1" Cut="0.0000000000000000e+00" cType="1" res="4.9014273099601269e-04" rms="4.7881564497947693e-01" purity="5.8771085739135742e-01" nType="-99"/>
        </Node>
        <Node pos="r" depth="1" NCoef="0" IVar="3" Cut="9.5756864547729492e-01" cType="1" res="1.2238447554409504e-02" rms="4.6573135256767273e-01" purity="5.0697094202041626e-01" nType="0">
          <Node pos="l" depth="2" NCoef="0" IVar="-1" Cut="0.0000000000000000e+00" cType="1" res="3.6681678611785173e-03" rms="4.6003317832946777e-01" purity="6.0749506950378418e-01" nType="-99"/>
          <Node pos="r" depth="2" NCoef="0" IVar="-1" Cut="0.0000000000000000e+00" cType="1" res="5.0486437976360321e-04" rms="4.6611988544464111e-01" purity="4.9621760845184326e-01" nType="-99"/>
        </Node>
      </Node>
    </BinaryTree>
    <BinaryTree type="DecisionTree" boostWeight="1.0000000000000000e+00" itree="375">
      <Node pos="s" depth="0" NCoef="0" IVar="3" Cut="7.7800530195236206e-01" cType="1" res="2.1559498272836208e-03" rms="4.6714752912521362e-01" purity="5.0463378429412842e-01" nType="0">
        <Node pos="l" depth="1" NCoef="0" IVar="2" Cut="6.6482985019683838e-01" cType="1" res="5.3151678293943405e-02" rms="4.6879383921623230e-01" purity="5.7262444496154785e-01" nType="0">
          <Node pos="l" depth="2" NCoef="0" IVar="-1" Cut="0.0000000000000000e+00" cType="1" res="8.0730335321277380e-04" rms="4.8621502518653870e-01" purity="4.9133944511413574e-01" nType="-99"/>
          <Node pos="r" depth="2" NCoef="0" IVar="-1" Cut="0.0000000000000000e+00" cType="1" res="8.7615232914686203e-03" rms="4.2890191078186035e-01" purity="7.1144980192184448e-01" nType="-99"/>
        </Node>
        <Node pos="r" depth="1" NCoef="0" IVar="5" Cut="4.4798345947265625e+02" cType="1" res="-8.6583364754915237e-03" rms="4.6608111262321472e-01" purity="4.9021548032760620e-01" nType="0">
          <Node pos="l" depth="2" NCoef="0" IVar="-1" Cut="0.0000000000000000e+00" cType="1" res="-4.9603739753365517e-03" rms="4.3806973099708557e-01" purity="2.9169252514839172e-01" nType="-99"/>
          <Node pos="r" depth="2" NCoef="0" IVar="-1" Cut="0.0000000000000000e+00" cType="1" res="-1.5253658057190478e-04" rms="4.6795526146888733e-01" purity="5.0773972272872925e-01" nType="-99"/>
        </Node>
      </Node>
    </BinaryTree>
    <BinaryTree type="DecisionTree" boostWeight="1.0000000000000000e+00" itree="376">
      <Node pos="s" depth="0" NCoef="0" IVar="4" Cut="2.1886965259909630e-03" cType="1" res="-4.6495771966874599e-03" rms="4.6592539548873901e-01" purity="4.9757459759712219e-01" nType="0">
        <Node pos="l" depth="1" NCoef="0" IVar="3" Cut="9.7145009040832520e-01" cType="1" res="-1.4470634050667286e-02" rms="4.6538114547729492e-01" purity="5.1941466331481934e-01" nType="0">
          <Node pos="l" depth="2" NCoef="0" IVar="-1" Cut="0.0000000000000000e+00" cType="1" res="-2.8648965526372194e-03" rms="4.6625849604606628e-01" purity="5.2556699514389038e-01" nType="-99"/>
          <Node pos="r" depth="2" NCoef="0" IVar="-1" Cut="0.0000000000000000e+00" cType="1" res="-1.2488178617786616e-04" rms="4.6443870663642883e-01" purity="5.1676875352859497e-01" nType="-99"/>
        </Node>
        <Node pos="r" depth="1" NCoef="0" IVar="5" Cut="5.5278167724609375e+02" cType="1" res="2.2939326241612434e-02" rms="4.6634557843208313e-01" purity="4.3622246384620667e-01" nType="0">
          <Node pos="l" depth="2" NCoef="0" IVar="-1" Cut="0.0000000000000000e+00" cType="1" res="-2.2111169528216124e-03" rms="4.3252870440483093e-01" purity="2.8670853376388550e-01" nType="-99"/>
          <Node pos="r" depth="2" NCoef="0" IVar="-1" Cut="0.0000000000000000e+00" cType="1" res="2.5787956546992064e-03" rms="4.7553056478500366e-01" purity="4.8620152473449707e-01" nType="-99"/>
        </Node>
      </Node>
    </BinaryTree>
    <BinaryTree type="DecisionTree" boostWeight="1.0000000000000000e+00" itree="377">
      <Node pos="s" depth="0" NCoef="0" IVar="3" Cut="7.5642853975296021e-01" cType="1" res="-1.5558975748717785e-02" rms="4.6574309468269348e-01" purity="4.8821738362312317e-01" nType="0">
        <Node pos="l" depth="1" NCoef="0" IVar="4" Cut="1.8119369633495808e-03" cType="1" res="-5.4977800697088242e-02" rms="4.6991708874702454e-01" purity="4.6751236915588379e-01" nType="0">
          <Node pos="l" depth="2" NCoef="0" IVar="-1" Cut="0.0000000000000000e+00" cType="1" res="-2.2415588609874249e-03" rms="4.7400298714637756e-01" purity="5.3785926103591919e-01" nType="-99"/>
          <Node pos="r" depth="2" NCoef="0" IVar="-1" Cut="0.0000000000000000e+00" cType="1" res="-5.0480240024626255e-03" rms="4.6028715372085571e-01" purity="3.4352284669876099e-01" nType="-99"/>
        </Node>
        <Node pos="r" depth="1" NCoef="0" IVar="3" Cut="9.3598222732543945e-01" cType="1" res="-8.1221116706728935e-03" rms="4.6457654237747192e-01" purity="4.9212360382080078e-01" nType="0">
          <Node pos="l" depth="2" NCoef="0" IVar="-1" Cut="0.0000000000000000e+00" cType="1" res="2.7388674207031727e-03" rms="4.5983749628067017e-01" purity="5.9218817949295044e-01" nType="-99"/>
          <Node pos="r" depth="2" NCoef="0" IVar="-1" Cut="0.0000000000000000e+00" cType="1" res="-9.4897445524111390e-04" rms="4.6482831239700317e-01" purity="4.7805634140968323e-01" nType="-99"/>
        </Node>
      </Node>
    </BinaryTree>
    <BinaryTree type="DecisionTree" boostWeight="1.0000000000000000e+00" itree="378">
      <Node pos="s" depth="0" NCoef="0" IVar="4" Cut="2.7193198911845684e-03" cType="1" res="-3.8715524133294821e-03" rms="4.6675348281860352e-01" purity="4.9801903963088989e-01" nType="0">
        <Node pos="l" depth="1" NCoef="0" IVar="1" Cut="2.5716309547424316e+00" cType="1" res="-1.1988129466772079e-02" rms="4.6719104051589966e-01" purity="5.1052767038345337e-01" nType="0">
          <Node pos="l" depth="2" NCoef="0" IVar="-1" Cut="0.0000000000000000e+00" cType="1" res="-1.1361003853380680e-03" rms="4.6872884035110474e-01" purity="5.2123594284057617e-01" nType="-99"/>
          <Node pos="r" depth="2" NCoef="0" IVar="-1" Cut="0.0000000000000000e+00" cType="1" res="3.5512398462742567e-03" rms="4.4351717829704285e-01" purity="3.8397368788719177e-01" nType="-99"/>
        </Node>
        <Node pos="r" depth="1" NCoef="0" IVar="6" Cut="2.7335348129272461e+00" cType="1" res="3.3708732575178146e-02" rms="4.6287086606025696e-01" purity="4.4010308384895325e-01" nType="0">
          <Node pos="l" depth="2" NCoef="0" IVar="-1" Cut="0.0000000000000000e+00" cType="1" res="-1.1592329246923327e-03" rms="4.4564458727836609e-01" purity="2.9747346043586731e-01" nType="-99"/>
          <Node pos="r" depth="2" NCoef="0" IVar="-1" Cut="0.0000000000000000e+00" cType="1" res="4.9823555164039135e-03" rms="4.7353556752204895e-01" purity="5.7889807224273682e-01" nType="-99"/>
        </Node>
      </Node>
    </BinaryTree>
    <BinaryTree type="DecisionTree" boostWeight="1.0000000000000000e+00" itree="379">
      <Node pos="s" depth="0" NCoef="0" IVar="3" Cut="2.0962762832641602e+00" cType="1" res="2.3723598569631577e-03" rms="4.6455857157707214e-01" purity="5.0522810220718384e-01" nType="0">
        <Node pos="l" depth="1" NCoef="0" IVar="5" Cut="6.1560711669921875e+02" cType="1" res="7.9333223402500153e-03" rms="4.6739527583122253e-01" purity="5.2760148048400879e-01" nType="0">
          <Node pos="l" depth="2" NCoef="0" IVar="-1" Cut="0.0000000000000000e+00" cType="1" res="-6.5726973116397858e-04" rms="4.6509918570518494e-01" purity="4.5037889480590820e-01" nType="-99"/>
          <Node pos="r" depth="2" NCoef="0" IVar="-1" Cut="0.0000000000000000e+00" cType="1" res="1.1452792678028345e-03" rms="4.6832150220870972e-01" purity="5.6876713037490845e-01" nType="-99"/>
        </Node>
        <Node pos="r" depth="1" NCoef="0" IVar="-1" Cut="0.0000000000000000e+00" cType="1" res="-3.1289402395486832e-03" rms="4.3324226140975952e-01" purity="2.9325628280639648e-01" nType="-99"/>
      </Node>
    </BinaryTree>
    <BinaryTree type="DecisionTree" boostWeight="1.0000000000000000e+00" itree="380">
      <Node pos="s" depth="0" NCoef="0" IVar="4" Cut="1.8644520314410329e-03" cType="1" res="5.1677087321877480e-03" rms="4.6623706817626953e-01" purity="5.0449049472808838e-01" nType="0">
        <Node pos="l" depth="1" NCoef="0" IVar="3" Cut="1.5894597768783569e+00" cType="1" res="-6.6080796532332897e-03" rms="4.6566328406333923e-01" purity="5.3146594762802124e-01" nType="0">
          <Node pos="l" depth="2" NCoef="0" IVar="-1" Cut="0.0000000000000000e+00" cType="1" res="4.4764167978428304e-04" rms="4.6159493923187256e-01" purity="5.7713186740875244e-01" nType="-99"/>
          <Node pos="r" depth="2" NCoef="0" IVar="-1" Cut="0.0000000000000000e+00" cType="1" res="-2.3558665998280048e-03" rms="4.7343522310256958e-01" purity="4.2726084589958191e-01" nType="-99"/>
        </Node>
        <Node pos="r" depth="1" NCoef="0" IVar="3" Cut="1.1722309589385986e+00" cType="1" res="2.9579395428299904e-02" rms="4.6647843718528748e-01" purity="4.4856947660446167e-01" nType="0">
          <Node pos="l" depth="2" NCoef="0" IVar="-1" Cut="0.0000000000000000e+00" cType="1" res="1.0987164569087327e-04" rms="4.7199514508247375e-01" purity="4.5867046713829041e-01" nType="-99"/>
          <Node pos="r" depth="2" NCoef="0" IVar="-1" Cut="0.0000000000000000e+00" cType="1" res="3.0804455745965242e-03" rms="4.6151843667030334e-01" purity="4.4140613079071045e-01" nType="-99"/>
        </Node>
      </Node>
    </BinaryTree>
    <BinaryTree type="DecisionTree" boostWeight="1.0000000000000000e+00" itree="381">
      <Node pos="s" depth="0" NCoef="0" IVar="6" Cut="2.8197996616363525e+00" cType="1" res="3.6361448001116514e-03" rms="4.6265292167663574e-01" purity="5.0487750768661499e-01" nType="0">
        <Node pos="l" depth="1" NCoef="0" IVar="1" Cut="1.6721333265304565e+00" cType="1" res="-2.7271043509244919e-02" rms="4.5438641309738159e-01" purity="3.1343191862106323e-01" nType="0">
          <Node pos="l" depth="2" NCoef="0" IVar="-1" Cut="0.0000000000000000e+00" cType="1" res="-2.7604987844824791e-03" rms="4.5508247613906860e-01" purity="3.2085388898849487e-01" nType="-99"/>
          <Node pos="r" depth="2" NCoef="0" IVar="-1" Cut="0.0000000000000000e+00" cType="1" res="3.2400193158537149e-03" rms="4.4463858008384705e-01" purity="2.8612384200096130e-01" nType="-99"/>
        </Node>
        <Node pos="r" depth="1" NCoef="0" IVar="6" Cut="4.0247144699096680e+00" cType="1" res="1.6650281846523285e-02" rms="4.6547624468803406e-01" purity="5.8548980951309204e-01" nType="0">
          <Node pos="l" depth="2" NCoef="0" IVar="-1" Cut="0.0000000000000000e+00" cType="1" res="2.4976597633212805e-03" rms="4.8148629069328308e-01" purity="5.0825566053390503e-01" nType="-99"/>
          <Node pos="r" depth="2" NCoef="0" IVar="-1" Cut="0.0000000000000000e+00" cType="1" res="-2.5438942248001695e-04" rms="4.5097106695175171e-01" purity="6.4853996038436890e-01" nType="-99"/>
        </Node>
      </Node>
    </BinaryTree>
    <BinaryTree type="DecisionTree" boostWeight="1.0000000000000000e+00" itree="382">
      <Node pos="s" depth="0" NCoef="0" IVar="4" Cut="4.0685667772777379e-04" cType="1" res="-7.7425581403076649e-03" rms="4.6173146367073059e-01" purity="4.9200290441513062e-01" nType="0">
        <Node pos="l" depth="1" NCoef="0" IVar="3" Cut="9.8958253860473633e-01" cType="1" res="2.0823476836085320e-02" rms="4.5031088590621948e-01" purity="6.4337527751922607e-01" nType="0">
          <Node pos="l" depth="2" NCoef="0" IVar="-1" Cut="0.0000000000000000e+00" cType="1" res="-2.2724741138517857e-03" rms="4.6540266275405884e-01" purity="6.2852579355239868e-01" nType="-99"/>
          <Node pos="r" depth="2" NCoef="0" IVar="-1" Cut="0.0000000000000000e+00" cType="1" res="3.2095422502607107e-03" rms="4.4157564640045166e-01" purity="6.4997166395187378e-01" nType="-99"/>
        </Node>
        <Node pos="r" depth="1" NCoef="0" IVar="0" Cut="1.9046388566493988e-01" cType="1" res="-1.7556328326463699e-02" rms="4.6518567204475403e-01" purity="4.3999940156936646e-01" nType="0">
          <Node pos="l" depth="2" NCoef="0" IVar="-1" Cut="0.0000000000000000e+00" cType="1" res="-1.5241478104144335e-03" rms="4.6552518010139465e-01" purity="4.2182722687721252e-01" nType="-99"/>
          <Node pos="r" depth="2" NCoef="0" IVar="-1" Cut="0.0000000000000000e+00" cType="1" res="3.9472114294767380e-03" rms="4.5495334267616272e-01" purity="6.1838763952255249e-01" nType="-99"/>
        </Node>
      </Node>
    </BinaryTree>
    <BinaryTree type="DecisionTree" boostWeight="1.0000000000000000e+00" itree="383">
      <Node pos="s" depth="0" NCoef="0" IVar="6" Cut="4.7127027511596680e+00" cType="1" res="-1.0819124057888985e-02" rms="4.6858727931976318e-01" purity="4.9370157718658447e-01" nType="0">
        <Node pos="l" depth="1" NCoef="0" IVar="2" Cut="5.1470482349395752e-01" cType="1" res="-2.2067737299948931e-03" rms="4.7267305850982666e-01" purity="4.4285473227500916e-01" nType="0">
          <Node pos="l" depth="2" NCoef="0" IVar="-1" Cut="0.0000000000000000e+00" cType="1" res="1.2946695787832141e-03" rms="4.6945482492446899e-01" purity="3.8422712683677673e-01" nType="-99"/>
          <Node pos="r" depth="2" NCoef="0" IVar="-1" Cut="0.0000000000000000e+00" cType="1" res="-7.1348802885040641e-04" rms="4.7368514537811279e-01" purity="4.6736007928848267e-01" nType="-99"/>
        </Node>
        <Node pos="r" depth="1" NCoef="0" IVar="6" Cut="5.2451281547546387e+00" cType="1" res="-3.8634710013866425e-02" rms="4.5402640104293823e-01" purity="6.5792334079742432e-01" nType="0">
          <Node pos="l" depth="2" NCoef="0" IVar="-1" Cut="0.0000000000000000e+00" cType="1" res="-4.5720855705440044e-03" rms="4.7679859399795532e-01" purity="5.7821351289749146e-01" nType="-99"/>
          <Node pos="r" depth="2" NCoef="0" IVar="-1" Cut="0.0000000000000000e+00" cType="1" res="-1.4513202477246523e-03" rms="4.3609958887100220e-01" purity="7.1399945020675659e-01" nType="-99"/>
        </Node>
      </Node>
    </BinaryTree>
    <BinaryTree type="DecisionTree" boostWeight="1.0000000000000000e+00" itree="384">
      <Node pos="s" depth="0" NCoef="0" IVar="4" Cut="6.4849888440221548e-04" cType="1" res="-2.5793882086873055e-03" rms="4.6959123015403748e-01" purity="5.0191098451614380e-01" nType="0">
        <Node pos="l" depth="1" NCoef="0" IVar="5" Cut="5.5012817382812500e+02" cType="1" res="-2.5830985978245735e-02" rms="4.6631583571434021e-01" purity="5.7136225700378418e-01" nType="0">
          <Node pos="l" depth="2" NCoef="0" IVar="-1" Cut="0.0000000000000000e+00" cType="1" res="1.8717143684625626e-03" rms="4.5498681068420410e-01" purity="5.3328031301498413e-01" nType="-99"/>
          <Node pos="r" depth="2" NCoef="0" IVar="-1" Cut="0.0000000000000000e+00" cType="1" res="-2.8645999263972044e-03" rms="4.6825775504112244e-01" purity="5.8182263374328613e-01" nType="-99"/>
        </Node>
        <Node pos="r" depth="1" NCoef="0" IVar="2" Cut="4.6597954630851746e-01" cType="1" res="1.0437733493745327e-02" rms="4.7091397643089294e-01" purity="4.6302959322929382e-01" nType="0">
          <Node pos="l" depth="2" NCoef="0" IVar="-1" Cut="0.0000000000000000e+00" cType="1" res="3.7161337677389383e-03" rms="4.6767443418502808e-01" purity="4.1872465610504150e-01" nType="-99"/>
          <Node pos="r" depth="2" NCoef="0" IVar="-1" Cut="0.0000000000000000e+00" cType="1" res="-1.0375698911957443e-04" rms="4.7094166278839111e-01" purity="4.7412562370300293e-01" nType="-99"/>
        </Node>
      </Node>
    </BinaryTree>
    <BinaryTree type="DecisionTree" boostWeight="1.0000000000000000e+00" itree="385">
      <Node pos="s" depth="0" NCoef="0" IVar="1" Cut="2.7271037101745605e+00" cType="1" res="1.2914640828967094e-03" rms="4.6399709582328796e-01" purity="5.0527721643447876e-01" nType="0">
        <Node pos="l" depth="1" NCoef="0" IVar="5" Cut="7.1013433837890625e+02" cType="1" res="5.1866844296455383e-03" rms="4.6629008650779724e-01" purity="5.2189725637435913e-01" nType="0">
          <Node pos="l" depth="2" NCoef="0" IVar="-1" Cut="0.0000000000000000e+00" cType="1" res="-5.6790985399857163e-04" rms="4.6934077143669128e-01" purity="4.6924719214439392e-01" nType="-99"/>
          <Node pos="r" depth="2" NCoef="0" IVar="-1" Cut="0.0000000000000000e+00" cType="1" res="1.3220906257629395e-03" rms="4.6258714795112610e-01" purity="5.7738244533538818e-01" nType="-99"/>
        </Node>
        <Node pos="r" depth="1" NCoef="0" IVar="-1" Cut="0.0000000000000000e+00" cType="1" res="-3.5517904907464981e-03" rms="4.2433643341064453e-01" purity="2.5857365131378174e-01" nType="-99"/>
      </Node>
    </BinaryTree>
    <BinaryTree type="DecisionTree" boostWeight="1.0000000000000000e+00" itree="386">
      <Node pos="s" depth="0" NCoef="0" IVar="0" Cut="1.4255125820636749e-01" cType="1" res="-2.2870246903039515e-04" rms="4.6246629953384399e-01" purity="4.9917191267013550e-01" nType="0">
        <Node pos="l" depth="1" NCoef="0" IVar="3" Cut="2.0525548458099365e+00" cType="1" res="-1.1959112249314785e-02" rms="4.6496731042861938e-01" purity="4.6647354960441589e-01" nType="0">
          <Node pos="l" depth="2" NCoef="0" IVar="-1" Cut="0.0000000000000000e+00" cType="1" res="-4.2664300417527556e-04" rms="4.6862241625785828e-01" purity="4.9060231447219849e-01" nType="-99"/>
          <Node pos="r" depth="2" NCoef="0" IVar="-1" Cut="0.0000000000000000e+00" cType="1" res="-3.1681484542787075e-03" rms="4.3486118316650391e-01" purity="2.8673809766769409e-01" nType="-99"/>
        </Node>
        <Node pos="r" depth="1" NCoef="0" IVar="4" Cut="2.0089289173483849e-03" cType="1" res="4.3159056454896927e-02" rms="4.5044907927513123e-01" purity="6.2011486291885376e-01" nType="0">
          <Node pos="l" depth="2" NCoef="0" IVar="-1" Cut="0.0000000000000000e+00" cType="1" res="5.2025299519300461e-03" rms="4.3757116794586182e-01" purity="6.8202537298202515e-01" nType="-99"/>
          <Node pos="r" depth="2" NCoef="0" IVar="-1" Cut="0.0000000000000000e+00" cType="1" res="-1.4898753724992275e-03" rms="4.7488248348236084e-01" purity="4.6281594038009644e-01" nType="-99"/>
        </Node>
      </Node>
    </BinaryTree>
    <BinaryTree type="DecisionTree" boostWeight="1.0000000000000000e+00" itree="387">
      <Node pos="s" depth="0" NCoef="0" IVar="4" Cut="2.6704703923314810e-03" cType="1" res="5.1649333909153938e-03" rms="4.6267992258071899e-01" purity="5.0681293010711670e-01" nType="0">
        <Node pos="l" depth="1" NCoef="0" IVar="6" Cut="5.3787331581115723e+00" cType="1" res="1.3523799367249012e-02" rms="4.6343728899955750e-01" purity="5.3877878189086914e-01" nType="0">
          <Node pos="l" depth="2" NCoef="0" IVar="-1" Cut="0.0000000000000000e+00" cType="1" res="1.3049835106357932e-03" rms="4.6726977825164795e-01" purity="5.0950312614440918e-01" nType="-99"/>
          <Node pos="r" depth="2" NCoef="0" IVar="-1" Cut="0.0000000000000000e+00" cType="1" res="-2.2763500455766916e-03" rms="4.3794423341751099e-01" purity="7.1130990982055664e-01" nType="-99"/>
        </Node>
        <Node pos="r" depth="1" NCoef="0" IVar="0" Cut="1.0551971197128296e-01" cType="1" res="-3.0286001041531563e-02" rms="4.5776063203811646e-01" purity="3.7124222517013550e-01" nType="0">
          <Node pos="l" depth="2" NCoef="0" IVar="-1" Cut="0.0000000000000000e+00" cType="1" res="-4.8756541218608618e-04" rms="4.5616856217384338e-01" purity="3.7237107753753662e-01" nType="-99"/>
          <Node pos="r" depth="2" NCoef="0" IVar="-1" Cut="0.0000000000000000e+00" cType="1" res="-3.9913086220622063e-03" rms="4.5795071125030518e-01" purity="3.6924958229064941e-01" nType="-99"/>
        </Node>
      </Node>
    </BinaryTree>
    <BinaryTree type="DecisionTree" boostWeight="1.0000000000000000e+00" itree="388">
      <Node pos="s" depth="0" NCoef="0" IVar="0" Cut="1.8636839091777802e-01" cType="1" res="-6.0991765931248665e-03" rms="4.6789714694023132e-01" purity="4.9689793586730957e-01" nType="0">
        <Node pos="l" depth="1" NCoef="0" IVar="4" Cut="2.3576812236569822e-04" cType="1" res="6.9969706237316132e-04" rms="4.6783986687660217e-01" purity="4.9052530527114868e-01" nType="0">
          <Node pos="l" depth="2" NCoef="0" IVar="-1" Cut="0.0000000000000000e+00" cType="1" res="2.6159072294831276e-03" rms="4.5187571644783020e-01" purity="6.6439217329025269e-01" nType="-99"/>
          <Node pos="r" depth="2" NCoef="0" IVar="-1" Cut="0.0000000000000000e+00" cType="1" res="-4.4936939957551658e-04" rms="4.7118231654167175e-01" purity="4.4936051964759827e-01" nType="-99"/>
        </Node>
        <Node pos="r" depth="1" NCoef="0" IVar="5" Cut="6.1829235839843750e+02" cType="1" res="-6.1048943549394608e-02" rms="4.6472352743148804e-01" purity="5.4840242862701416e-01" nType="0">
          <Node pos="l" depth="2" NCoef="0" IVar="-1" Cut="0.0000000000000000e+00" cType="1" res="-1.6719101695343852e-03" rms="4.6584165096282959e-01" purity="5.4121690988540649e-01" nType="-99"/>
          <Node pos="r" depth="2" NCoef="0" IVar="-1" Cut="0.0000000000000000e+00" cType="1" res="-7.0418147370219231e-03" rms="4.6000471711158752e-01" purity="5.5675232410430908e-01" nType="-99"/>
        </Node>
      </Node>
    </BinaryTree>
    <BinaryTree type="DecisionTree" boostWeight="1.0000000000000000e+00" itree="389">
      <Node pos="s" depth="0" NCoef="0" IVar="1" Cut="2.7788731455802917e-01" cType="1" res="4.6420921571552753e-03" rms="4.6283954381942749e-01" purity="5.0478905439376831e-01" nType="0">
        <Node pos="l" depth="1" NCoef="0" IVar="-1" Cut="0.0000000000000000e+00" cType="1" res="3.8205238524824381e-03" rms="4.6211367845535278e-01" purity="6.3765275478363037e-01" nType="-99"/>
        <Node pos="r" depth="1" NCoef="0" IVar="1" Cut="1.5915027856826782e+00" cType="1" res="-7.3417765088379383e-04" rms="4.6258911490440369e-01" purity="4.9076062440872192e-01" nType="0">
          <Node pos="l" depth="2" NCoef="0" IVar="-1" Cut="0.0000000000000000e+00" cType="1" res="-7.2345975786447525e-04" rms="4.6427804231643677e-01" purity="5.2223163843154907e-01" nType="-99"/>
          <Node pos="r" depth="2" NCoef="0" IVar="-1" Cut="0.0000000000000000e+00" cType="1" res="1.7338694306090474e-03" rms="4.5696941018104553e-01" purity="4.0819308161735535e-01" nType="-99"/>
        </Node>
      </Node>
    </BinaryTree>
    <BinaryTree type="DecisionTree" boostWeight="1.0000000000000000e+00" itree="390">
      <Node pos="s" depth="0" NCoef="0" IVar="4" Cut="2.9957792721688747e-03" cType="1" res="-1.9692009664140642e-04" rms="4.6314743161201477e-01" purity="5.0463175773620605e-01" nType="0">
        <Node pos="l" depth="1" NCoef="0" IVar="1" Cut="2.3204593658447266e+00" cType="1" res="-6.4939688891172409e-03" rms="4.6363165974617004e-01" purity="5.1331436634063721e-01" nType="0">
          <Node pos="l" depth="2" NCoef="0" IVar="-1" Cut="0.0000000000000000e+00" cType="1" res="-9.5121329650282860e-04" rms="4.6246582269668579e-01" purity="5.2366620302200317e-01" nType="-99"/>
          <Node pos="r" depth="2" NCoef="0" IVar="-1" Cut="0.0000000000000000e+00" cType="1" res="4.3188105337321758e-03" rms="4.6744409203529358e-01" purity="4.2266127467155457e-01" nType="-99"/>
        </Node>
        <Node pos="r" depth="1" NCoef="0" IVar="5" Cut="6.7807336425781250e+02" cType="1" res="4.1113846004009247e-02" rms="4.5781505107879639e-01" purity="4.4767105579376221e-01" nType="0">
          <Node pos="l" depth="2" NCoef="0" IVar="-1" Cut="0.0000000000000000e+00" cType="1" res="-6.2262936262413859e-04" rms="4.5203834772109985e-01" purity="3.4170907735824585e-01" nType="-99"/>
          <Node pos="r" depth="2" NCoef="0" IVar="-1" Cut="0.0000000000000000e+00" cType="1" res="5.5659655481576920e-03" rms="4.5792767405509949e-01" purity="5.5025207996368408e-01" nType="-99"/>
        </Node>
      </Node>
    </BinaryTree>
    <BinaryTree type="DecisionTree" boostWeight="1.0000000000000000e+00" itree="391">
      <Node pos="s" depth="0" NCoef="0" IVar="3" Cut="1.4295821189880371e+00" cType="1" res="2.3575819795951247e-04" rms="4.6176627278327942e-01" purity="4.9609169363975525e-01" nType="0">
        <Node pos="l" depth="1" NCoef="0" IVar="5" Cut="7.0605261230468750e+02" cType="1" res="1.5087331645190716e-02" rms="4.6092098951339722e-01" purity="5.4433745145797729e-01" nType="0">
          <Node pos="l" depth="2" NCoef="0" IVar="-1" Cut="0.0000000000000000e+00" cType="1" res="-1.4701591862831265e-04" rms="4.6531772613525391e-01" purity="4.7953242063522339e-01" nType="-99"/>
          <Node pos="r" depth="2" NCoef="0" IVar="-1" Cut="0.0000000000000000e+00" cType="1" res="2.0825383253395557e-03" rms="4.5611807703971863e-01" purity="6.0557186603546143e-01" nType="-99"/>
        </Node>
        <Node pos="r" depth="1" NCoef="0" IVar="6" Cut="2.3338079452514648e+00" cType="1" res="-2.0987931638956070e-02" rms="4.6214392781257629e-01" purity="4.2714589834213257e-01" nType="0">
          <Node pos="l" depth="2" NCoef="0" IVar="-1" Cut="0.0000000000000000e+00" cType="1" res="1.9652077462524176e-03" rms="4.3332651257514954e-01" purity="2.9705315828323364e-01" nType="-99"/>
          <Node pos="r" depth="2" NCoef="0" IVar="-1" Cut="0.0000000000000000e+00" cType="1" res="-1.9595993217080832e-03" rms="4.6769568324089050e-01" purity="4.5647853612899780e-01" nType="-99"/>
        </Node>
      </Node>
    </BinaryTree>
    <BinaryTree type="DecisionTree" boostWeight="1.0000000000000000e+00" itree="392">
      <Node pos="s" depth="0" NCoef="0" IVar="1" Cut="1.1053897142410278e+00" cType="1" res="3.4037178847938776e-03" rms="4.6481186151504517e-01" purity="5.0249224901199341e-01" nType="0">
        <Node pos="l" depth="1" NCoef="0" IVar="6" Cut="3.1555359363555908e+00" cType="1" res="-1.6645936295390129e-02" rms="4.6344485878944397e-01" purity="5.3841370344161987e-01" nType="0">
          <Node pos="l" depth="2" NCoef="0" IVar="-1" Cut="0.0000000000000000e+00" cType="1" res="-2.5241610128432512e-03" rms="4.7070476412773132e-01" purity="3.6141577363014221e-01" nType="-99"/>
          <Node pos="r" depth="2" NCoef="0" IVar="-1" Cut="0.0000000000000000e+00" cType="1" res="1.6784177205408923e-05" rms="4.5803689956665039e-01" purity="6.4913231134414673e-01" nType="-99"/>
        </Node>
        <Node pos="r" depth="1" NCoef="0" IVar="1" Cut="1.3270885944366455e+00" cType="1" res="2.9793197289109230e-02" rms="4.6528992056846619e-01" purity="4.5521226525306702e-01" nType="0">
          <Node pos="l" depth="2" NCoef="0" IVar="-1" Cut="0.0000000000000000e+00" cType="1" res="4.1851960122585297e-03" rms="4.5484897494316101e-01" purity="5.5758929252624512e-01" nType="-99"/>
          <Node pos="r" depth="2" NCoef="0" IVar="-1" Cut="0.0000000000000000e+00" cType="1" res="1.2529568048194051e-03" rms="4.6764853596687317e-01" purity="4.2694449424743652e-01" nType="-99"/>
        </Node>
      </Node>
    </BinaryTree>
    <BinaryTree type="DecisionTree" boostWeight="1.0000000000000000e+00" itree="393">
      <Node pos="s" depth="0" NCoef="0" IVar="5" Cut="1.3128948974609375e+03" cType="1" res="-1.0909817181527615e-02" rms="4.6331074833869934e-01" purity="4.9351051449775696e-01" nType="0">
        <Node pos="l" depth="1" NCoef="0" IVar="6" Cut="4.2125701904296875e+00" cType="1" res="-6.8464041687548161e-03" rms="4.6184307336807251e-01" purity="4.9372050166130066e-01" nType="0">
          <Node pos="l" depth="2" NCoef="0" IVar="-1" Cut="0.0000000000000000e+00" cType="1" res="-1.1225885245949030e-03" rms="4.6917662024497986e-01" purity="4.0013217926025391e-01" nType="-99"/>
          <Node pos="r" depth="2" NCoef="0" IVar="-1" Cut="0.0000000000000000e+00" cType="1" res="1.1994715314358473e-03" rms="4.4608390331268311e-01" purity="6.7849093675613403e-01" nType="-99"/>
        </Node>
        <Node pos="r" depth="1" NCoef="0" IVar="-1" Cut="0.0000000000000000e+00" cType="1" res="-5.3897430188953876e-03" rms="4.8348277807235718e-01" purity="4.8964434862136841e-01" nType="-99"/>
      </Node>
    </BinaryTree>
    <BinaryTree type="DecisionTree" boostWeight="1.0000000000000000e+00" itree="394">
      <Node pos="s" depth="0" NCoef="0" IVar="1" Cut="3.8830175995826721e-01" cType="1" res="-1.0203662095591426e-03" rms="4.6640989184379578e-01" purity="5.0049895048141479e-01" nType="0">
        <Node pos="l" depth="1" NCoef="0" IVar="3" Cut="1.3978536128997803e+00" cType="1" res="2.6927201077342033e-02" rms="4.5146286487579346e-01" purity="6.0917299985885620e-01" nType="0">
          <Node pos="l" depth="2" NCoef="0" IVar="-1" Cut="0.0000000000000000e+00" cType="1" res="3.7072473205626011e-03" rms="4.3917670845985413e-01" purity="6.5624827146530151e-01" nType="-99"/>
          <Node pos="r" depth="2" NCoef="0" IVar="-1" Cut="0.0000000000000000e+00" cType="1" res="-8.7842450011521578e-04" rms="4.6677020192146301e-01" purity="5.3706341981887817e-01" nType="-99"/>
        </Node>
        <Node pos="r" depth="1" NCoef="0" IVar="2" Cut="8.1731808185577393e-01" cType="1" res="-6.4518023282289505e-03" rms="4.6906629204750061e-01" purity="4.7937878966331482e-01" nType="0">
          <Node pos="l" depth="2" NCoef="0" IVar="-1" Cut="0.0000000000000000e+00" cType="1" res="-3.4783479350153357e-05" rms="4.6800363063812256e-01" purity="4.7367087006568909e-01" nType="-99"/>
          <Node pos="r" depth="2" NCoef="0" IVar="-1" Cut="0.0000000000000000e+00" cType="1" res="-5.3639463149011135e-03" rms="4.7600969672203064e-01" purity="5.4924529790878296e-01" nType="-99"/>
        </Node>
      </Node>
    </BinaryTree>
    <BinaryTree type="DecisionTree" boostWeight="1.0000000000000000e+00" itree="395">
      <Node pos="s" depth="0" NCoef="0" IVar="6" Cut="3.7513387203216553e+00" cType="1" res="-2.2266043350100517e-02" rms="4.6738207340240479e-01" purity="4.8119178414344788e-01" nType="0">
        <Node pos="l" depth="1" NCoef="0" IVar="5" Cut="8.1419036865234375e+02" cType="1" res="-6.2281289137899876e-03" rms="4.6634647250175476e-01" purity="3.8276734948158264e-01" nType="0">
          <Node pos="l" depth="2" NCoef="0" IVar="-1" Cut="0.0000000000000000e+00" cType="1" res="-1.3718728441745043e-03" rms="4.5989114046096802e-01" purity="3.4591850638389587e-01" nType="-99"/>
          <Node pos="r" depth="2" NCoef="0" IVar="-1" Cut="0.0000000000000000e+00" cType="1" res="2.0396255422383547e-03" rms="4.7938975691795349e-01" purity="4.7254326939582825e-01" nType="-99"/>
        </Node>
        <Node pos="r" depth="1" NCoef="0" IVar="6" Cut="4.2630362510681152e+00" cType="1" res="-4.0333546698093414e-02" rms="4.6788793802261353e-01" purity="5.9207171201705933e-01" nType="0">
          <Node pos="l" depth="2" NCoef="0" IVar="-1" Cut="0.0000000000000000e+00" cType="1" res="-5.0473636947572231e-03" rms="4.8304122686386108e-01" purity="4.6756726503372192e-01" nType="-99"/>
          <Node pos="r" depth="2" NCoef="0" IVar="-1" Cut="0.0000000000000000e+00" cType="1" res="-1.5598613535985351e-03" rms="4.6058717370033264e-01" purity="6.4041107892990112e-01" nType="-99"/>
        </Node>
      </Node>
    </BinaryTree>
    <BinaryTree type="DecisionTree" boostWeight="1.0000000000000000e+00" itree="396">
      <Node pos="s" depth="0" NCoef="0" IVar="3" Cut="5.9360378980636597e-01" cType="1" res="-4.4403347419574857e-04" rms="4.6575281023979187e-01" purity="4.9898856878280640e-01" nType="0">
        <Node pos="l" depth="1" NCoef="0" IVar="-1" Cut="0.0000000000000000e+00" cType="1" res="-3.3420710824429989e-03" rms="4.7091016173362732e-01" purity="4.6981859207153320e-01" nType="-99"/>
        <Node pos="r" depth="1" NCoef="0" IVar="2" Cut="4.3018788099288940e-01" cType="1" res="4.4221887364983559e-03" rms="4.6498140692710876e-01" purity="5.0155723094940186e-01" nType="0">
          <Node pos="l" depth="2" NCoef="0" IVar="-1" Cut="0.0000000000000000e+00" cType="1" res="-2.3526975419372320e-03" rms="4.5242443680763245e-01" purity="3.5536563396453857e-01" nType="-99"/>
          <Node pos="r" depth="2" NCoef="0" IVar="-1" Cut="0.0000000000000000e+00" cType="1" res="6.9503660779446363e-04" rms="4.6642547845840454e-01" purity="5.2254784107208252e-01" nType="-99"/>
        </Node>
      </Node>
    </BinaryTree>
    <BinaryTree type="DecisionTree" boostWeight="1.0000000000000000e+00" itree="397">
      <Node pos="s" depth="0" NCoef="0" IVar="4" Cut="2.4129595840349793e-04" cType="1" res="-7.3980032466351986e-03" rms="4.6604251861572266e-01" purity="4.9720332026481628e-01" nType="0">
        <Node pos="l" depth="1" NCoef="0" IVar="2" Cut="5.2125746011734009e-01" cType="1" res="-3.9887111634016037e-02" rms="4.6128028631210327e-01" purity="6.0034787654876709e-01" nType="0">
          <Node pos="l" depth="2" NCoef="0" IVar="-1" Cut="0.0000000000000000e+00" cType="1" res="-5.3452267311513424e-03" rms="4.7183829545974731e-01" purity="4.6753957867622375e-01" nType="-99"/>
          <Node pos="r" depth="2" NCoef="0" IVar="-1" Cut="0.0000000000000000e+00" cType="1" res="-1.5601997729390860e-03" rms="4.5524591207504272e-01" purity="6.5784329175949097e-01" nType="-99"/>
        </Node>
        <Node pos="r" depth="1" NCoef="0" IVar="1" Cut="7.6323765516281128e-01" cType="1" res="1.1128133628517389e-03" rms="4.6690848469734192e-01" purity="4.7018367052078247e-01" nType="0">
          <Node pos="l" depth="2" NCoef="0" IVar="-1" Cut="0.0000000000000000e+00" cType="1" res="1.4669828815385699e-03" rms="4.6598637104034424e-01" purity="5.6344830989837646e-01" nType="-99"/>
          <Node pos="r" depth="2" NCoef="0" IVar="-1" Cut="0.0000000000000000e+00" cType="1" res="-7.0543488254770637e-04" rms="4.6698239445686340e-01" purity="4.1491803526878357e-01" nType="-99"/>
        </Node>
      </Node>
    </BinaryTree>
    <BinaryTree type="DecisionTree" boostWeight="1.0000000000000000e+00" itree="398">
      <Node pos="s" depth="0" NCoef="0" IVar="6" Cut="2.1681540012359619e+00" cType="1" res="-4.3746596202254295e-03" rms="4.6429151296615601e-01" purity="4.9236059188842773e-01" nType="0">
        <Node pos="l" depth="1" NCoef="0" IVar="5" Cut="7.1144317626953125e+02" cType="1" res="-3.6993574351072311e-02" rms="4.2521035671234131e-01" purity="2.6160115003585815e-01" nType="0">
          <Node pos="l" depth="2" NCoef="0" IVar="-1" Cut="0.0000000000000000e+00" cType="1" res="-4.2593982070684433e-03" rms="3.9366027712821960e-01" purity="1.9890135526657104e-01" nType="-99"/>
          <Node pos="r" depth="2" NCoef="0" IVar="-1" Cut="0.0000000000000000e+00" cType="1" res="9.7555195679888129e-05" rms="4.6515628695487976e-01" purity="3.5397306084632874e-01" nType="-99"/>
        </Node>
        <Node pos="r" depth="1" NCoef="0" IVar="3" Cut="1.9498156309127808e+00" cType="1" res="1.5102789038792253e-03" rms="4.7075656056404114e-01" purity="5.3399300575256348e-01" nType="0">
          <Node pos="l" depth="2" NCoef="0" IVar="-1" Cut="0.0000000000000000e+00" cType="1" res="-3.2270984956994653e-04" rms="4.7213116288185120e-01" purity="5.5118429660797119e-01" nType="-99"/>
          <Node pos="r" depth="2" NCoef="0" IVar="-1" Cut="0.0000000000000000e+00" cType="1" res="2.4769997689872980e-03" rms="4.6071878075599670e-01" purity="4.3304261565208435e-01" nType="-99"/>
        </Node>
      </Node>
    </BinaryTree>
    <BinaryTree type="DecisionTree" boostWeight="1.0000000000000000e+00" itree="399">
      <Node pos="s" depth="0" NCoef="0" IVar="1" Cut="1.7607353925704956e+00" cType="1" res="-4.9135033041238785e-03" rms="4.6762812137603760e-01" purity="4.9368354678153992e-01" nType="0">
        <Node pos="l" depth="1" NCoef="0" IVar="1" Cut="1.5298835039138794e+00" cType="1" res="-1.3450868427753448e-02" rms="4.6860492229461670e-01" purity="5.1630729436874390e-01" nType="0">
          <Node pos="l" depth="2" NCoef="0" IVar="-1" Cut="0.0000000000000000e+00" cType="1" res="-4.4716862612403929e-04" rms="4.6765831112861633e-01" purity="5.2977174520492554e-01" nType="-99"/>
          <Node pos="r" depth="2" NCoef="0" IVar="-1" Cut="0.0000000000000000e+00" cType="1" res="-4.5061968266963959e-03" rms="4.7308847308158875e-01" purity="3.8493046164512634e-01" nType="-99"/>
        </Node>
        <Node pos="r" depth="1" NCoef="0" IVar="2" Cut="5.3825503587722778e-01" cType="1" res="2.7933439239859581e-02" rms="4.6238318085670471e-01" purity="4.0664017200469971e-01" nType="0">
          <Node pos="l" depth="2" NCoef="0" IVar="-1" Cut="0.0000000000000000e+00" cType="1" res="1.3603598927147686e-04" rms="4.4838583469390869e-01" purity="3.3293935656547546e-01" nType="-99"/>
          <Node pos="r" depth="2" NCoef="0" IVar="-1" Cut="0.0000000000000000e+00" cType="1" res="3.5238973796367645e-03" rms="4.7541955113410950e-01" purity="4.8587942123413086e-01" nType="-99"/>
        </Node>
      </Node>
    </BinaryTree>
    <BinaryTree type="DecisionTree" boostWeight="1.0000000000000000e+00" itree="400">
      <Node pos="s" depth="0" NCoef="0" IVar="4" Cut="2.4292043235618621e-04" cType="1" res="-1.7692715628072619e-03" rms="4.6306613087654114e-01" purity="5.0249832868576050e-01" nType="0">
        <Node pos="l" depth="1" NCoef="0" IVar="5" Cut="8.9695941162109375e+02" cType="1" res="3.4470561891794205e-02" rms="4.3853569030761719e-01" purity="6.7287766933441162e-01" nType="0">
          <Node pos="l" depth="2" NCoef="0" IVar="-1" Cut="0.0000000000000000e+00" cType="1" res="1.4095276128500700e-03" rms="4.4756045937538147e-01" purity="6.4658224582672119e-01" nType="-99"/>
          <Node pos="r" depth="2" NCoef="0" IVar="-1" Cut="0.0000000000000000e+00" cType="1" res="6.2009408138692379e-03" rms="4.0968611836433411e-01" purity="7.4485212564468384e-01" nType="-99"/>
        </Node>
        <Node pos="r" depth="1" NCoef="0" IVar="3" Cut="7.8215968608856201e-01" cType="1" res="-1.1020854115486145e-02" rms="4.6867415308952332e-01" purity="4.5900255441665649e-01" nType="0">
          <Node pos="l" depth="2" NCoef="0" IVar="-1" Cut="0.0000000000000000e+00" cType="1" res="1.6718850238248706e-03" rms="4.6732848882675171e-01" purity="5.1595813035964966e-01" nType="-99"/>
          <Node pos="r" depth="2" NCoef="0" IVar="-1" Cut="0.0000000000000000e+00" cType="1" res="-1.1951504275202751e-03" rms="4.6856200695037842e-01" purity="4.4656071066856384e-01" nType="-99"/>
        </Node>
      </Node>
    </BinaryTree>
    <BinaryTree type="DecisionTree" boostWeight="1.0000000000000000e+00" itree="401">
      <Node pos="s" depth="0" NCoef="0" IVar="0" Cut="2.8292963281273842e-02" cType="1" res="-2.4292874149978161e-03" rms="4.6352005004882812e-01" purity="4.9889943003654480e-01" nType="0">
        <Node pos="l" depth="1" NCoef="0" IVar="1" Cut="1.2929986715316772e+00" cType="1" res="-4.1552003473043442e-02" rms="4.5273387432098389e-01" purity="3.7003540992736816e-01" nType="0">
          <Node pos="l" depth="2" NCoef="0" IVar="-1" Cut="0.0000000000000000e+00" cType="1" res="-3.3837072551250458e-03" rms="4.6056815981864929e-01" purity="4.0820389986038208e-01" nType="-99"/>
          <Node pos="r" depth="2" NCoef="0" IVar="-1" Cut="0.0000000000000000e+00" cType="1" res="-1.3026773231104016e-03" rms="4.4181257486343384e-01" purity="3.2195675373077393e-01" nType="-99"/>
        </Node>
        <Node pos="r" depth="1" NCoef="0" IVar="0" Cut="8.3903186023235321e-02" cType="1" res="3.2978500239551067e-03" rms="4.6480178833007812e-01" purity="5.1776373386383057e-01" nType="0">
          <Node pos="l" depth="2" NCoef="0" IVar="-1" Cut="0.0000000000000000e+00" cType="1" res="1.1533709475770593e-03" rms="4.6972957253456116e-01" purity="4.9303692579269409e-01" nType="-99"/>
          <Node pos="r" depth="2" NCoef="0" IVar="-1" Cut="0.0000000000000000e+00" cType="1" res="-6.0010142624378204e-04" rms="4.6028760075569153e-01" purity="5.3837811946868896e-01" nType="-99"/>
        </Node>
      </Node>
    </BinaryTree>
    <BinaryTree type="DecisionTree" boostWeight="1.0000000000000000e+00" itree="402">
      <Node pos="s" depth="0" NCoef="0" IVar="6" Cut="4.0671114921569824e+00" cType="1" res="-6.8708686158061028e-03" rms="4.6718353033065796e-01" purity="4.9217438697814941e-01" nType="0">
        <Node pos="l" depth="1" NCoef="0" IVar="0" Cut="1.8767906725406647e-01" cType="1" res="6.1232489533722401e-03" rms="4.6892404556274414e-01" purity="4.1351938247680664e-01" nType="0">
          <Node pos="l" depth="2" NCoef="0" IVar="-1" Cut="0.0000000000000000e+00" cType="1" res="2.7352778488420881e-05" rms="4.6832394599914551e-01" purity="3.9873147010803223e-01" nType="-99"/>
          <Node pos="r" depth="2" NCoef="0" IVar="-1" Cut="0.0000000000000000e+00" cType="1" res="3.6452028434723616e-03" rms="4.7120934724807739e-01" purity="5.5068701505661011e-01" nType="-99"/>
        </Node>
        <Node pos="r" depth="1" NCoef="0" IVar="6" Cut="5.3885116577148438e+00" cType="1" res="-2.8006685897707939e-02" rms="4.6356114745140076e-01" purity="6.2011212110519409e-01" nType="0">
          <Node pos="l" depth="2" NCoef="0" IVar="-1" Cut="0.0000000000000000e+00" cType="1" res="-2.9856634791940451e-03" rms="4.7785943746566772e-01" purity="5.6550735235214233e-01" nType="-99"/>
          <Node pos="r" depth="2" NCoef="0" IVar="-1" Cut="0.0000000000000000e+00" cType="1" res="1.7266412032768130e-03" rms="4.2165634036064148e-01" purity="7.5738376379013062e-01" nType="-99"/>
        </Node>
      </Node>
    </BinaryTree>
    <BinaryTree type="DecisionTree" boostWeight="1.0000000000000000e+00" itree="403">
      <Node pos="s" depth="0" NCoef="0" IVar="0" Cut="4.4584132730960846e-02" cType="1" res="7.7935407171025872e-04" rms="4.6437662839889526e-01" purity="5.0036710500717163e-01" nType="0">
        <Node pos="l" depth="1" NCoef="0" IVar="4" Cut="1.8592283595353365e-03" cType="1" res="-3.1483318656682968e-02" rms="4.6396598219871521e-01" purity="4.0734037756919861e-01" nType="0">
          <Node pos="l" depth="2" NCoef="0" IVar="-1" Cut="0.0000000000000000e+00" cType="1" res="-3.0316429911181331e-04" rms="4.7667869925498962e-01" purity="4.7299784421920776e-01" nType="-99"/>
          <Node pos="r" depth="2" NCoef="0" IVar="-1" Cut="0.0000000000000000e+00" cType="1" res="-4.9128248356282711e-03" rms="4.3232470750808716e-01" purity="2.7514365315437317e-01" nType="-99"/>
        </Node>
        <Node pos="r" depth="1" NCoef="0" IVar="2" Cut="7.5932610034942627e-01" cType="1" res="1.2237868271768093e-02" rms="4.6398282051086426e-01" purity="5.3340673446655273e-01" nType="0">
          <Node pos="l" depth="2" NCoef="0" IVar="-1" Cut="0.0000000000000000e+00" cType="1" res="1.3543772511184216e-03" rms="4.6368321776390076e-01" purity="5.1175010204315186e-01" nType="-99"/>
          <Node pos="r" depth="2" NCoef="0" IVar="-1" Cut="0.0000000000000000e+00" cType="1" res="-1.4047869481146336e-03" rms="4.6365481615066528e-01" purity="6.1368864774703979e-01" nType="-99"/>
        </Node>
      </Node>
    </BinaryTree>
    <BinaryTree type="DecisionTree" boostWeight="1.0000000000000000e+00" itree="404">
      <Node pos="s" depth="0" NCoef="0" IVar="0" Cut="1.2712545692920685e-01" cType="1" res="2.7509729843586683e-03" rms="4.6393054723739624e-01" purity="5.0289642810821533e-01" nType="0">
        <Node pos="l" depth="1" NCoef="0" IVar="5" Cut="5.8603082275390625e+02" cType="1" res="-8.4997452795505524e-03" rms="4.6661975979804993e-01" purity="4.6658822894096375e-01" nType="0">
          <Node pos="l" depth="2" NCoef="0" IVar="-1" Cut="0.0000000000000000e+00" cType="1" res="-2.3254028055816889e-03" rms="4.4740813970565796e-01" purity="3.3155030012130737e-01" nType="-99"/>
          <Node pos="r" depth="2" NCoef="0" IVar="-1" Cut="0.0000000000000000e+00" cType="1" res="3.9146856579463929e-05" rms="4.7227129340171814e-01" purity="5.1002418994903564e-01" nType="-99"/>
        </Node>
        <Node pos="r" depth="1" NCoef="0" IVar="3" Cut="1.5668427944183350e+00" cType="1" res="3.3794242888689041e-02" rms="4.5498770475387573e-01" purity="6.0307884216308594e-01" nType="0">
          <Node pos="l" depth="2" NCoef="0" IVar="-1" Cut="0.0000000000000000e+00" cType="1" res="9.4993150560185313e-04" rms="4.5716896653175354e-01" purity="6.1025327444076538e-01" nType="-99"/>
          <Node pos="r" depth="2" NCoef="0" IVar="-1" Cut="0.0000000000000000e+00" cType="1" res="5.1261717453598976e-03" rms="4.4740849733352661e-01" purity="5.8791720867156982e-01" nType="-99"/>
        </Node>
      </Node>
    </BinaryTree>
    <BinaryTree type="DecisionTree" boostWeight="1.0000000000000000e+00" itree="405">
      <Node pos="s" depth="0" NCoef="0" IVar="0" Cut="2.1935386955738068e-01" cType="1" res="1.1850359849631786e-02" rms="4.6434101462364197e-01" purity="5.1359540224075317e-01" nType="0">
        <Node pos="l" depth="1" NCoef="0" IVar="3" Cut="2.2225468158721924e+00" cType="1" res="8.2647698000073433e-03" rms="4.6506911516189575e-01" purity="5.0342333316802979e-01" nType="0">
          <Node pos="l" depth="2" NCoef="0" IVar="-1" Cut="0.0000000000000000e+00" cType="1" res="7.7040115138515830e-04" rms="4.6694567799568176e-01" purity="5.2020144462585449e-01" nType="-99"/>
          <Node pos="r" depth="2" NCoef="0" IVar="-1" Cut="0.0000000000000000e+00" cType="1" res="-2.8483909554779530e-03" rms="4.3504998087882996e-01" purity="2.7210485935211182e-01" nType="-99"/>
        </Node>
        <Node pos="r" depth="1" NCoef="0" IVar="-1" Cut="0.0000000000000000e+00" cType="1" res="5.8206249959766865e-03" rms="4.4571435451507568e-01" purity="6.9998186826705933e-01" nType="-99"/>
      </Node>
    </BinaryTree>
    <BinaryTree type="DecisionTree" boostWeight="1.0000000000000000e+00" itree="406">
      <Node pos="s" depth="0" NCoef="0" IVar="1" Cut="1.6155289411544800e+00" cType="1" res="2.2008579690009356e-03" rms="4.6268990635871887e-01" purity="5.0199323892593384e-01" nType="0">
        <Node pos="l" depth="1" NCoef="0" IVar="3" Cut="1.3529037237167358e+00" cType="1" res="1.4379632659256458e-02" rms="4.6555340290069580e-01" purity="5.5154788494110107e-01" nType="0">
          <Node pos="l" depth="2" NCoef="0" IVar="-1" Cut="0.0000000000000000e+00" cType="1" res="-2.5515275774523616e-04" rms="4.6228465437889099e-01" purity="5.6635230779647827e-01" nType="-99"/>
          <Node pos="r" depth="2" NCoef="0" IVar="-1" Cut="0.0000000000000000e+00" cType="1" res="2.5223868433386087e-03" rms="4.6881377696990967e-01" purity="5.3146684169769287e-01" nType="-99"/>
        </Node>
        <Node pos="r" depth="1" NCoef="0" IVar="0" Cut="6.8925432860851288e-02" cType="1" res="-3.3523477613925934e-02" rms="4.5229831337928772e-01" purity="3.5663342475891113e-01" nType="0">
          <Node pos="l" depth="2" NCoef="0" IVar="-1" Cut="0.0000000000000000e+00" cType="1" res="-3.9706616662442684e-03" rms="4.4054937362670898e-01" purity="2.8811180591583252e-01" nType="-99"/>
          <Node pos="r" depth="2" NCoef="0" IVar="-1" Cut="0.0000000000000000e+00" cType="1" res="5.2501996833598241e-05" rms="4.6281448006629944e-01" purity="4.3403801321983337e-01" nType="-99"/>
        </Node>
      </Node>
    </BinaryTree>
    <BinaryTree type="DecisionTree" boostWeight="1.0000000000000000e+00" itree="407">
      <Node pos="s" depth="0" NCoef="0" IVar="2" Cut="5.2145802974700928e-01" cType="1" res="-4.9116602167487144e-03" rms="4.6755880117416382e-01" purity="4.9734804034233093e-01" nType="0">
        <Node pos="l" depth="1" NCoef="0" IVar="4" Cut="8.9177436893805861e-04" cType="1" res="4.3114248663187027e-02" rms="4.6153318881988525e-01" purity="4.5393386483192444e-01" nType="0">
          <Node pos="l" depth="2" NCoef="0" IVar="-1" Cut="0.0000000000000000e+00" cType="1" res="5.7711764238774776e-03" rms="4.5606094598770142e-01" purity="5.7102996110916138e-01" nType="-99"/>
          <Node pos="r" depth="2" NCoef="0" IVar="-1" Cut="0.0000000000000000e+00" cType="1" res="8.2166149513795972e-04" rms="4.6286222338676453e-01" purity="3.7372621893882751e-01" nType="-99"/>
        </Node>
        <Node pos="r" depth="1" NCoef="0" IVar="4" Cut="2.2658519446849823e-03" cType="1" res="-2.6134662330150604e-02" rms="4.6863150596618652e-01" purity="5.1653307676315308e-01" nType="0">
          <Node pos="l" depth="2" NCoef="0" IVar="-1" Cut="0.0000000000000000e+00" cType="1" res="-2.4859136901795864e-03" rms="4.6784287691116333e-01" purity="5.3757196664810181e-01" nType="-99"/>
          <Node pos="r" depth="2" NCoef="0" IVar="-1" Cut="0.0000000000000000e+00" cType="1" res="4.3202709639444947e-04" rms="4.6936231851577759e-01" purity="4.5437681674957275e-01" nType="-99"/>
        </Node>
      </Node>
    </BinaryTree>
    <BinaryTree type="DecisionTree" boostWeight="1.0000000000000000e+00" itree="408">
      <Node pos="s" depth="0" NCoef="0" IVar="2" Cut="6.2517505884170532e-01" cType="1" res="-5.1435767672955990e-03" rms="4.6122062206268311e-01" purity="4.9521765112876892e-01" nType="0">
        <Node pos="l" depth="1" NCoef="0" IVar="1" Cut="7.7287077903747559e-01" cType="1" res="1.1389618739485741e-02" rms="4.6188890933990479e-01" purity="4.4921037554740906e-01" nType="0">
          <Node pos="l" depth="2" NCoef="0" IVar="-1" Cut="0.0000000000000000e+00" cType="1" res="3.0598531011492014e-03" rms="4.6334201097488403e-01" purity="5.5794280767440796e-01" nType="-99"/>
          <Node pos="r" depth="2" NCoef="0" IVar="-1" Cut="0.0000000000000000e+00" cType="1" res="-3.5347216180525720e-04" rms="4.6021538972854614e-01" purity="3.9892482757568359e-01" nType="-99"/>
        </Node>
        <Node pos="r" depth="1" NCoef="0" IVar="6" Cut="5.0877346992492676e+00" cType="1" res="-2.4515965953469276e-02" rms="4.5968037843704224e-01" purity="5.4912555217742920e-01" nType="0">
          <Node pos="l" depth="2" NCoef="0" IVar="-1" Cut="0.0000000000000000e+00" cType="1" res="-2.2288446780294180e-03" rms="4.7370538115501404e-01" purity="4.9513426423072815e-01" nType="-99"/>
          <Node pos="r" depth="2" NCoef="0" IVar="-1" Cut="0.0000000000000000e+00" cType="1" res="3.3805875573307276e-03" rms="3.7676066160202026e-01" purity="8.1814074516296387e-01" nType="-99"/>
        </Node>
      </Node>
    </BinaryTree>
    <BinaryTree type="DecisionTree" boostWeight="1.0000000000000000e+00" itree="409">
      <Node pos="s" depth="0" NCoef="0" IVar="3" Cut="1.4928326606750488e+00" cType="1" res="3.5908403806388378e-03" rms="4.6774369478225708e-01" purity="5.0518566370010376e-01" nType="0">
        <Node pos="l" depth="1" NCoef="0" IVar="0" Cut="8.0297216773033142e-02" cType="1" res="1.6795815899968147e-02" rms="4.6897619962692261e-01" purity="5.5288702249526978e-01" nType="0">
          <Node pos="l" depth="2" NCoef="0" IVar="-1" Cut="0.0000000000000000e+00" cType="1" res="-7.4573571328073740e-04" rms="4.7504091262817383e-01" purity="4.8546922206878662e-01" nType="-99"/>
          <Node pos="r" depth="2" NCoef="0" IVar="-1" Cut="0.0000000000000000e+00" cType="1" res="3.2661561854183674e-03" rms="4.6048486232757568e-01" purity="6.2443399429321289e-01" nType="-99"/>
        </Node>
        <Node pos="r" depth="1" NCoef="0" IVar="6" Cut="4.4886994361877441e+00" cType="1" res="-1.8388584256172180e-02" rms="4.6485394239425659e-01" purity="4.2578759789466858e-01" nType="0">
          <Node pos="l" depth="2" NCoef="0" IVar="-1" Cut="0.0000000000000000e+00" cType="1" res="-2.8703358839266002e-04" rms="4.5907944440841675e-01" purity="3.7173774838447571e-01" nType="-99"/>
          <Node pos="r" depth="2" NCoef="0" IVar="-1" Cut="0.0000000000000000e+00" cType="1" res="-3.5575458314269781e-03" rms="4.7785204648971558e-01" purity="5.6822752952575684e-01" nType="-99"/>
        </Node>
      </Node>
    </BinaryTree>
    <BinaryTree type="DecisionTree" boostWeight="1.0000000000000000e+00" itree="410">
      <Node pos="s" depth="0" NCoef="0" IVar="0" Cut="8.0170683562755585e-02" cType="1" res="1.3718215748667717e-02" rms="4.6698620915412903e-01" purity="5.1693081855773926e-01" nType="0">
        <Node pos="l" depth="1" NCoef="0" IVar="6" Cut="4.1189599037170410e+00" cType="1" res="-9.5234215259552002e-03" rms="4.6979385614395142e-01" purity="4.5001339912414551e-01" nType="0">
          <Node pos="l" depth="2" NCoef="0" IVar="-1" Cut="0.0000000000000000e+00" cType="1" res="5.0763104809448123e-04" rms="4.6768346428871155e-01" purity="3.7941348552703857e-01" nType="-99"/>
          <Node pos="r" depth="2" NCoef="0" IVar="-1" Cut="0.0000000000000000e+00" cType="1" res="-2.4126304779201746e-03" rms="4.7176679968833923e-01" purity="5.6382012367248535e-01" nType="-99"/>
        </Node>
        <Node pos="r" depth="1" NCoef="0" IVar="1" Cut="2.0788979530334473e+00" cType="1" res="3.7067290395498276e-02" rms="4.6297511458396912e-01" purity="5.8415752649307251e-01" nType="0">
          <Node pos="l" depth="2" NCoef="0" IVar="-1" Cut="0.0000000000000000e+00" cType="1" res="1.8214052543044090e-03" rms="4.6092543005943298e-01" purity="5.9130436182022095e-01" nType="-99"/>
          <Node pos="r" depth="2" NCoef="0" IVar="-1" Cut="0.0000000000000000e+00" cType="1" res="7.7085071243345737e-03" rms="4.7160431742668152e-01" purity="5.2679663896560669e-01" nType="-99"/>
        </Node>
      </Node>
    </BinaryTree>
    <BinaryTree type="DecisionTree" boostWeight="1.0000000000000000e+00" itree="411">
      <Node pos="s" depth="0" NCoef="0" IVar="5" Cut="1.0241214599609375e+03" cType="1" res="1.8641959177330136e-03" rms="4.6386861801147461e-01" purity="5.0239449739456177e-01" nType="0">
        <Node pos="l" depth="1" NCoef="0" IVar="5" Cut="7.9820263671875000e+02" cType="1" res="8.7288031354546547e-03" rms="4.6049791574478149e-01" purity="4.9914336204528809e-01" nType="0">
          <Node pos="l" depth="2" NCoef="0" IVar="-1" Cut="0.0000000000000000e+00" cType="1" res="-1.0135370393982157e-04" rms="4.6205860376358032e-01" purity="4.7270223498344421e-01" nType="-99"/>
          <Node pos="r" depth="2" NCoef="0" IVar="-1" Cut="0.0000000000000000e+00" cType="1" res="2.8899996541440487e-03" rms="4.5361196994781494e-01" purity="5.8678442239761353e-01" nType="-99"/>
        </Node>
        <Node pos="r" depth="1" NCoef="0" IVar="3" Cut="1.1317223310470581e+00" cType="1" res="-3.4466691315174103e-02" rms="4.7968211770057678e-01" purity="5.1960086822509766e-01" nType="0">
          <Node pos="l" depth="2" NCoef="0" IVar="-1" Cut="0.0000000000000000e+00" cType="1" res="1.6271850327029824e-03" rms="4.7280561923980713e-01" purity="6.1223900318145752e-01" nType="-99"/>
          <Node pos="r" depth="2" NCoef="0" IVar="-1" Cut="0.0000000000000000e+00" cType="1" res="-5.5212397128343582e-03" rms="4.7929140925407410e-01" purity="4.2871722579002380e-01" nType="-99"/>
        </Node>
      </Node>
    </BinaryTree>
    <BinaryTree type="DecisionTree" boostWeight="1.0000000000000000e+00" itree="412">
      <Node pos="s" depth="0" NCoef="0" IVar="3" Cut="1.0023376941680908e+00" cType="1" res="-5.8275548508390784e-04" rms="4.6830183267593384e-01" purity="5.0117486715316772e-01" nType="0">
        <Node pos="l" depth="1" NCoef="0" IVar="5" Cut="9.7509973144531250e+02" cType="1" res="-2.8802184388041496e-02" rms="4.7000417113304138e-01" purity="5.0188285112380981e-01" nType="0">
          <Node pos="l" depth="2" NCoef="0" IVar="-1" Cut="0.0000000000000000e+00" cType="1" res="-2.6690973900258541e-03" rms="4.7323322296142578e-01" purity="4.7413197159767151e-01" nType="-99"/>
          <Node pos="r" depth="2" NCoef="0" IVar="-1" Cut="0.0000000000000000e+00" cType="1" res="5.8189447736367583e-04" rms="4.5871061086654663e-01" purity="5.7993453741073608e-01" nType="-99"/>
        </Node>
        <Node pos="r" depth="1" NCoef="0" IVar="4" Cut="5.7163246674463153e-04" cType="1" res="1.2439805082976818e-02" rms="4.6693938970565796e-01" purity="5.0084811449050903e-01" nType="0">
          <Node pos="l" depth="2" NCoef="0" IVar="-1" Cut="0.0000000000000000e+00" cType="1" res="-1.5035785036161542e-03" rms="4.5758742094039917e-01" purity="5.5932939052581787e-01" nType="-99"/>
          <Node pos="r" depth="2" NCoef="0" IVar="-1" Cut="0.0000000000000000e+00" cType="1" res="1.8236536998301744e-03" rms="4.7055605053901672e-01" purity="4.7211501002311707e-01" nType="-99"/>
        </Node>
      </Node>
    </BinaryTree>
    <BinaryTree type="DecisionTree" boostWeight="1.0000000000000000e+00" itree="413">
      <Node pos="s" depth="0" NCoef="0" IVar="0" Cut="3.3865727484226227e-02" cType="1" res="-5.5639748461544514e-03" rms="4.6456369757652283e-01" purity="4.9840006232261658e-01" nType="0">
        <Node pos="l" depth="1" NCoef="0" IVar="3" Cut="1.3396745920181274e+00" cType="1" res="-4.0598027408123016e-02" rms="4.4964617490768433e-01" purity="3.7930610775947571e-01" nType="0">
          <Node pos="l" depth="2" NCoef="0" IVar="-1" Cut="0.0000000000000000e+00" cType="1" res="2.6190676726400852e-04" rms="4.6496161818504333e-01" purity="4.6305966377258301e-01" nType="-99"/>
          <Node pos="r" depth="2" NCoef="0" IVar="-1" Cut="0.0000000000000000e+00" cType="1" res="-5.9171863831579685e-03" rms="4.2229083180427551e-01" purity="2.7183222770690918e-01" nType="-99"/>
        </Node>
        <Node pos="r" depth="1" NCoef="0" IVar="2" Cut="6.7615389823913574e-01" cType="1" res="1.5539256855845451e-03" rms="4.6721535921096802e-01" purity="5.2259647846221924e-01" nType="0">
          <Node pos="l" depth="2" NCoef="0" IVar="-1" Cut="0.0000000000000000e+00" cType="1" res="1.1162986047565937e-03" rms="4.6307238936424255e-01" purity="4.8387426137924194e-01" nType="-99"/>
          <Node pos="r" depth="2" NCoef="0" IVar="-1" Cut="0.0000000000000000e+00" cType="1" res="-1.6648900927975774e-03" rms="4.7266009449958801e-01" purity="5.8512854576110840e-01" nType="-99"/>
        </Node>
      </Node>
    </BinaryTree>
    <BinaryTree type="DecisionTree" boostWeight="1.0000000000000000e+00" itree="414">
      <Node pos="s" depth="0" NCoef="0" IVar="5" Cut="6.9210534667968750e+02" cType="1" res="7.5419916538521647e-04" rms="4.6716696023941040e-01" purity="5.0534415245056152e-01" nType="0">
        <Node pos="l" depth="1" NCoef="0" IVar="3" Cut="1.4379816055297852e+00" cType="1" res="-1.2842447496950626e-02" rms="4.6644675731658936e-01" purity="4.4432714581489563e-01" nType="0">
          <Node pos="l" depth="2" NCoef="0" IVar="-1" Cut="0.0000000000000000e+00" cType="1" res="-2.2202527616173029e-03" rms="4.6876931190490723e-01" purity="4.5747566223144531e-01" nType="-99"/>
          <Node pos="r" depth="2" NCoef="0" IVar="-1" Cut="0.0000000000000000e+00" cType="1" res="9.7554794047027826e-04" rms="4.6201130747795105e-01" purity="4.2796745896339417e-01" nType="-99"/>
        </Node>
        <Node pos="r" depth="1" NCoef="0" IVar="5" Cut="8.4445623779296875e+02" cType="1" res="1.4488358981907368e-02" rms="4.6749201416969299e-01" purity="5.6697827577590942e-01" nType="0">
          <Node pos="l" depth="2" NCoef="0" IVar="-1" Cut="0.0000000000000000e+00" cType="1" res="3.7864870391786098e-03" rms="4.6046862006187439e-01" purity="5.9585684537887573e-01" nType="-99"/>
          <Node pos="r" depth="2" NCoef="0" IVar="-1" Cut="0.0000000000000000e+00" cType="1" res="-8.7725516641512513e-04" rms="4.7018459439277649e-01" purity="5.4715991020202637e-01" nType="-99"/>
        </Node>
      </Node>
    </BinaryTree>
    <BinaryTree type="DecisionTree" boostWeight="1.0000000000000000e+00" itree="415">
      <Node pos="s" depth="0" NCoef="0" IVar="4" Cut="2.8009938541799784e-03" cType="1" res="4.9635297618806362e-03" rms="4.6524912118911743e-01" purity="5.0740861892700195e-01" nType="0">
        <Node pos="l" depth="1" NCoef="0" IVar="4" Cut="1.0100923245772719e-03" cType="1" res="1.3731106184422970e-02" rms="4.6636265516281128e-01" purity="5.3773689270019531e-01" nType="0">
          <Node pos="l" depth="2" NCoef="0" IVar="-1" Cut="0.0000000000000000e+00" cType="1" res="-3.3499381970614195e-04" rms="4.6124815940856934e-01" purity="5.7115340232849121e-01" nType="-99"/>
          <Node pos="r" depth="2" NCoef="0" IVar="-1" Cut="0.0000000000000000e+00" cType="1" res="2.3470772430300713e-03" rms="4.7174954414367676e-01" purity="4.9503573775291443e-01" nType="-99"/>
        </Node>
        <Node pos="r" depth="1" NCoef="0" IVar="6" Cut="2.4192965030670166e+00" cType="1" res="-3.7262868136167526e-02" rms="4.5750111341476440e-01" purity="3.6134159564971924e-01" nType="0">
          <Node pos="l" depth="2" NCoef="0" IVar="-1" Cut="0.0000000000000000e+00" cType="1" res="-2.2794994583819062e-04" rms="4.4028413295745850e-01" purity="2.8191626071929932e-01" nType="-99"/>
          <Node pos="r" depth="2" NCoef="0" IVar="-1" Cut="0.0000000000000000e+00" cType="1" res="-3.0900738202035427e-03" rms="4.6590936183929443e-01" purity="4.0644231438636780e-01" nType="-99"/>
        </Node>
      </Node>
    </BinaryTree>
    <BinaryTree type="DecisionTree" boostWeight="1.0000000000000000e+00" itree="416">
      <Node pos="s" depth="0" NCoef="0" IVar="2" Cut="7.1243196725845337e-01" cType="1" res="-9.2880526790395379e-04" rms="4.6304753422737122e-01" purity="4.9720439314842224e-01" nType="0">
        <Node pos="l" depth="1" NCoef="0" IVar="4" Cut="6.5323885064572096e-04" cType="1" res="-9.7828023135662079e-03" rms="4.6472257375717163e-01" purity="4.5187216997146606e-01" nType="0">
          <Node pos="l" depth="2" NCoef="0" IVar="-1" Cut="0.0000000000000000e+00" cType="1" res="5.9114774921908975e-04" rms="4.6970555186271667e-01" purity="5.6262028217315674e-01" nType="-99"/>
          <Node pos="r" depth="2" NCoef="0" IVar="-1" Cut="0.0000000000000000e+00" cType="1" res="-1.1940286494791508e-03" rms="4.6175763010978699e-01" purity="3.9330223202705383e-01" nType="-99"/>
        </Node>
        <Node pos="r" depth="1" NCoef="0" IVar="4" Cut="2.1715373732149601e-03" cType="1" res="2.6396138593554497e-02" rms="4.5675855875015259e-01" purity="6.3710731267929077e-01" nType="0">
          <Node pos="l" depth="2" NCoef="0" IVar="-1" Cut="0.0000000000000000e+00" cType="1" res="9.1475120279937983e-04" rms="4.5140579342842102e-01" purity="6.5647047758102417e-01" nType="-99"/>
          <Node pos="r" depth="2" NCoef="0" IVar="-1" Cut="0.0000000000000000e+00" cType="1" res="4.3729743920266628e-03" rms="4.7046917676925659e-01" purity="5.7624679803848267e-01" nType="-99"/>
        </Node>
      </Node>
    </BinaryTree>
    <BinaryTree type="DecisionTree" boostWeight="1.0000000000000000e+00" itree="417">
      <Node pos="s" depth="0" NCoef="0" IVar="1" Cut="2.1578156948089600e+00" cType="1" res="-5.9173121117055416e-03" rms="4.6455538272857666e-01" purity="4.9208602309226990e-01" nType="0">
        <Node pos="l" depth="1" NCoef="0" IVar="1" Cut="7.4901163578033447e-01" cType="1" res="-5.8557273587211967e-04" rms="4.6964707970619202e-01" purity="5.2187448740005493e-01" nType="0">
          <Node pos="l" depth="2" NCoef="0" IVar="-1" Cut="0.0000000000000000e+00" cType="1" res="-1.1914452770724893e-03" rms="4.6814480423927307e-01" purity="5.5237674713134766e-01" nType="-99"/>
          <Node pos="r" depth="2" NCoef="0" IVar="-1" Cut="0.0000000000000000e+00" cType="1" res="7.6920539140701294e-04" rms="4.7032248973846436e-01" purity="4.9983564019203186e-01" nType="-99"/>
        </Node>
        <Node pos="r" depth="1" NCoef="0" IVar="1" Cut="2.7301249504089355e+00" cType="1" res="-4.0461719036102295e-02" rms="4.2850390076637268e-01" purity="2.9908588528633118e-01" nType="0">
          <Node pos="l" depth="2" NCoef="0" IVar="-1" Cut="0.0000000000000000e+00" cType="1" res="-3.8247567135840654e-03" rms="4.3851208686828613e-01" purity="3.0136775970458984e-01" nType="-99"/>
          <Node pos="r" depth="2" NCoef="0" IVar="-1" Cut="0.0000000000000000e+00" cType="1" res="-7.0392532506957650e-04" rms="4.1367149353027344e-01" purity="2.9622542858123779e-01" nType="-99"/>
        </Node>
      </Node>
    </BinaryTree>
    <BinaryTree type="DecisionTree" boostWeight="1.0000000000000000e+00" itree="418">
      <Node pos="s" depth="0" NCoef="0" IVar="6" Cut="5.3916387557983398e+00" cType="1" res="-1.0860661044716835e-02" rms="4.6916308999061584e-01" purity="4.9200928211212158e-01" nType="0">
        <Node pos="l" depth="1" NCoef="0" IVar="3" Cut="1.5444302558898926e+00" cType="1" res="-9.0967305004596710e-04" rms="4.6826064586639404e-01" purity="4.7066900134086609e-01" nType="0">
          <Node pos="l" depth="2" NCoef="0" IVar="-1" Cut="0.0000000000000000e+00" cType="1" res="-9.4240641919896007e-04" rms="4.7153338789939880e-01" purity="4.8841929435729980e-01" nType="-99"/>
          <Node pos="r" depth="2" NCoef="0" IVar="-1" Cut="0.0000000000000000e+00" cType="1" res="1.7472180770710111e-03" rms="4.6036714315414429e-01" purity="4.3538770079612732e-01" nType="-99"/>
        </Node>
        <Node pos="r" depth="1" NCoef="0" IVar="2" Cut="6.4137291908264160e-01" cType="1" res="-8.5723921656608582e-02" rms="4.6917918324470520e-01" purity="6.5255671739578247e-01" nType="0">
          <Node pos="l" depth="2" NCoef="0" IVar="-1" Cut="0.0000000000000000e+00" cType="1" res="-1.9420068711042404e-03" rms="4.6276235580444336e-01" purity="6.5380078554153442e-01" nType="-99"/>
          <Node pos="r" depth="2" NCoef="0" IVar="-1" Cut="0.0000000000000000e+00" cType="1" res="-1.4497543685138226e-02" rms="4.6753007173538208e-01" purity="6.5110367536544800e-01" nType="-99"/>
        </Node>
      </Node>
    </BinaryTree>
    <BinaryTree type="DecisionTree" boostWeight="1.0000000000000000e+00" itree="419">
      <Node pos="s" depth="0" NCoef="0" IVar="0" Cut="1.8531520664691925e-01" cType="1" res="8.1379513721913099e-04" rms="4.6753621101379395e-01" purity="5.0537467002868652e-01" nType="0">
        <Node pos="l" depth="1" NCoef="0" IVar="3" Cut="1.3026336431503296e+00" cType="1" res="9.6747558563947678e-03" rms="4.6638068556785583e-01" purity="4.9991574883460999e-01" nType="0">
          <Node pos="l" depth="2" NCoef="0" IVar="-1" Cut="0.0000000000000000e+00" cType="1" res="1.8561556935310364e-03" rms="4.6573558449745178e-01" purity="5.5994939804077148e-01" nType="-99"/>
          <Node pos="r" depth="2" NCoef="0" IVar="-1" Cut="0.0000000000000000e+00" cType="1" res="-5.8195827296003699e-04" rms="4.6627154946327209e-01" purity="4.3866804242134094e-01" nType="-99"/>
        </Node>
        <Node pos="r" depth="1" NCoef="0" IVar="2" Cut="7.4256432056427002e-01" cType="1" res="-7.2174571454524994e-02" rms="4.7064328193664551e-01" purity="5.5034005641937256e-01" nType="0">
          <Node pos="l" depth="2" NCoef="0" IVar="-1" Cut="0.0000000000000000e+00" cType="1" res="-6.4241997897624969e-03" rms="4.7713598608970642e-01" purity="4.9174714088439941e-01" nType="-99"/>
          <Node pos="r" depth="2" NCoef="0" IVar="-1" Cut="0.0000000000000000e+00" cType="1" res="-3.1825320329517126e-03" rms="4.6176102757453918e-01" purity="6.1480456590652466e-01" nType="-99"/>
        </Node>
      </Node>
    </BinaryTree>
    <BinaryTree type="DecisionTree" boostWeight="1.0000000000000000e+00" itree="420">
      <Node pos="s" depth="0" NCoef="0" IVar="5" Cut="7.3403503417968750e+02" cType="1" res="4.1343891061842442e-03" rms="4.6809867024421692e-01" purity="5.0625979900360107e-01" nType="0">
        <Node pos="l" depth="1" NCoef="0" IVar="0" Cut="1.9422709941864014e-01" cType="1" res="1.9750250503420830e-02" rms="4.6248763799667358e-01" purity="4.8164650797843933e-01" nType="0">
          <Node pos="l" depth="2" NCoef="0" IVar="-1" Cut="0.0000000000000000e+00" cType="1" res="7.7324174344539642e-04" rms="4.6592885255813599e-01" purity="4.5987367630004883e-01" nType="-99"/>
          <Node pos="r" depth="2" NCoef="0" IVar="-1" Cut="0.0000000000000000e+00" cType="1" res="5.7757855392992496e-03" rms="4.2883470654487610e-01" purity="6.5643805265426636e-01" nType="-99"/>
        </Node>
        <Node pos="r" depth="1" NCoef="0" IVar="6" Cut="5.1473817825317383e+00" cType="1" res="-1.5432900749146938e-02" rms="4.7431081533432007e-01" purity="5.3710126876831055e-01" nType="0">
          <Node pos="l" depth="2" NCoef="0" IVar="-1" Cut="0.0000000000000000e+00" cType="1" res="-2.8765214665327221e-05" rms="4.7622600197792053e-01" purity="5.0698286294937134e-01" nType="-99"/>
          <Node pos="r" depth="2" NCoef="0" IVar="-1" Cut="0.0000000000000000e+00" cType="1" res="-6.4336978830397129e-03" rms="4.6055150032043457e-01" purity="6.6606688499450684e-01" nType="-99"/>
        </Node>
      </Node>
    </BinaryTree>
    <BinaryTree type="DecisionTree" boostWeight="1.0000000000000000e+00" itree="421">
      <Node pos="s" depth="0" NCoef="0" IVar="0" Cut="1.1023493856191635e-01" cType="1" res="4.0359287522733212e-03" rms="4.6265837550163269e-01" purity="5.0430244207382202e-01" nType="0">
        <Node pos="l" depth="1" NCoef="0" IVar="6" Cut="2.7049362659454346e+00" cType="1" res="-6.7655649036169052e-03" rms="4.6384781599044800e-01" purity="4.6173629164695740e-01" nType="0">
          <Node pos="l" depth="2" NCoef="0" IVar="-1" Cut="0.0000000000000000e+00" cType="1" res="-2.4900885764509439e-03" rms="4.4168752431869507e-01" purity="2.7357017993927002e-01" nType="-99"/>
          <Node pos="r" depth="2" NCoef="0" IVar="-1" Cut="0.0000000000000000e+00" cType="1" res="2.6580548728816211e-04" rms="4.7070088982582092e-01" purity="5.2628558874130249e-01" nType="-99"/>
        </Node>
        <Node pos="r" depth="1" NCoef="0" IVar="6" Cut="5.0812034606933594e+00" cType="1" res="2.5583157315850258e-02" rms="4.5951864123344421e-01" purity="5.8921492099761963e-01" nType="0">
          <Node pos="l" depth="2" NCoef="0" IVar="-1" Cut="0.0000000000000000e+00" cType="1" res="1.1798775522038341e-03" rms="4.7410190105438232e-01" purity="5.4091769456863403e-01" nType="-99"/>
          <Node pos="r" depth="2" NCoef="0" IVar="-1" Cut="0.0000000000000000e+00" cType="1" res="6.3693495467305183e-03" rms="3.7238687276840210e-01" purity="8.4032130241394043e-01" nType="-99"/>
        </Node>
      </Node>
    </BinaryTree>
    <BinaryTree type="DecisionTree" boostWeight="1.0000000000000000e+00" itree="422">
      <Node pos="s" depth="0" NCoef="0" IVar="0" Cut="1.8811377882957458e-01" cType="1" res="-1.2764149345457554e-02" rms="4.6704259514808655e-01" purity="4.9256035685539246e-01" nType="0">
        <Node pos="l" depth="1" NCoef="0" IVar="4" Cut="3.4796998370438814e-03" cType="1" res="-6.6144252195954323e-03" rms="4.6651858091354370e-01" purity="4.8604744672775269e-01" nType="0">
          <Node pos="l" depth="2" NCoef="0" IVar="-1" Cut="0.0000000000000000e+00" cType="1" res="-1.6224930004682392e-04" rms="4.6786022186279297e-01" purity="4.9740165472030640e-01" nType="-99"/>
          <Node pos="r" depth="2" NCoef="0" IVar="-1" Cut="0.0000000000000000e+00" cType="1" res="-3.1890524551272392e-03" rms="4.4640320539474487e-01" purity="3.4485855698585510e-01" nType="-99"/>
        </Node>
        <Node pos="r" depth="1" NCoef="0" IVar="3" Cut="1.3207875490188599e+00" cType="1" res="-6.5322734415531158e-02" rms="4.6821358799934387e-01" purity="5.4822278022766113e-01" nType="0">
          <Node pos="l" depth="2" NCoef="0" IVar="-1" Cut="0.0000000000000000e+00" cType="1" res="-2.6675751432776451e-03" rms="4.5260086655616760e-01" purity="6.1699551343917847e-01" nType="-99"/>
          <Node pos="r" depth="2" NCoef="0" IVar="-1" Cut="0.0000000000000000e+00" cType="1" res="-5.8562802150845528e-03" rms="4.8072499036788940e-01" purity="4.8400285840034485e-01" nType="-99"/>
        </Node>
      </Node>
    </BinaryTree>
    <BinaryTree type="DecisionTree" boostWeight="1.0000000000000000e+00" itree="423">
      <Node pos="s" depth="0" NCoef="0" IVar="1" Cut="2.7277806401252747e-01" cType="1" res="-9.6184695139527321e-03" rms="4.6727186441421509e-01" purity="4.8968902230262756e-01" nType="0">
        <Node pos="l" depth="1" NCoef="0" IVar="-1" Cut="0.0000000000000000e+00" cType="1" res="-4.6107228845357895e-03" rms="4.6027573943138123e-01" purity="5.2212256193161011e-01" nType="-99"/>
        <Node pos="r" depth="1" NCoef="0" IVar="3" Cut="6.8936342000961304e-01" cType="1" res="-3.1008825171738863e-03" rms="4.6753117442131042e-01" purity="4.8625802993774414e-01" nType="0">
          <Node pos="l" depth="2" NCoef="0" IVar="-1" Cut="0.0000000000000000e+00" cType="1" res="-3.0760942026972771e-03" rms="4.7204059362411499e-01" purity="4.3148100376129150e-01" nType="-99"/>
          <Node pos="r" depth="2" NCoef="0" IVar="-1" Cut="0.0000000000000000e+00" cType="1" res="2.0947912707924843e-04" rms="4.6656078100204468e-01" purity="4.9355074763298035e-01" nType="-99"/>
        </Node>
      </Node>
    </BinaryTree>
    <BinaryTree type="DecisionTree" boostWeight="1.0000000000000000e+00" itree="424">
      <Node pos="s" depth="0" NCoef="0" IVar="6" Cut="3.2964890003204346e+00" cType="1" res="-8.2052685320377350e-03" rms="4.6117249131202698e-01" purity="4.8790067434310913e-01" nType="0">
        <Node pos="l" depth="1" NCoef="0" IVar="5" Cut="1.0463406982421875e+03" cType="1" res="-3.2907377928495407e-02" rms="4.5510226488113403e-01" purity="3.3029672503471375e-01" nType="0">
          <Node pos="l" depth="2" NCoef="0" IVar="-1" Cut="0.0000000000000000e+00" cType="1" res="-1.5299578662961721e-03" rms="4.5260575413703918e-01" purity="3.3013963699340820e-01" nType="-99"/>
          <Node pos="r" depth="2" NCoef="0" IVar="-1" Cut="0.0000000000000000e+00" cType="1" res="-4.7501549124717712e-03" rms="4.6782362461090088e-01" purity="3.3132755756378174e-01" nType="-99"/>
        </Node>
        <Node pos="r" depth="1" NCoef="0" IVar="0" Cut="3.2900437712669373e-02" cType="1" res="1.0479597374796867e-02" rms="4.6484032273292542e-01" purity="6.0711354017257690e-01" nType="0">
          <Node pos="l" depth="2" NCoef="0" IVar="-1" Cut="0.0000000000000000e+00" cType="1" res="3.2244187314063311e-03" rms="4.6229824423789978e-01" purity="5.5271422863006592e-01" nType="-99"/>
          <Node pos="r" depth="2" NCoef="0" IVar="-1" Cut="0.0000000000000000e+00" cType="1" res="1.6843811317812651e-04" rms="4.6488302946090698e-01" purity="6.1731445789337158e-01" nType="-99"/>
        </Node>
      </Node>
    </BinaryTree>
    <BinaryTree type="DecisionTree" boostWeight="1.0000000000000000e+00" itree="425">
      <Node pos="s" depth="0" NCoef="0" IVar="0" Cut="1.5202225744724274e-01" cType="1" res="3.5114272031933069e-03" rms="4.6348485350608826e-01" purity="5.0530695915222168e-01" nType="0">
        <Node pos="l" depth="1" NCoef="0" IVar="2" Cut="6.3422626256942749e-01" cType="1" res="-4.2559476569294930e-03" rms="4.6704486012458801e-01" purity="4.8059943318367004e-01" nType="0">
          <Node pos="l" depth="2" NCoef="0" IVar="-1" Cut="0.0000000000000000e+00" cType="1" res="3.9356830529868603e-04" rms="4.6317383646965027e-01" purity="4.4862860441207886e-01" nType="-99"/>
          <Node pos="r" depth="2" NCoef="0" IVar="-1" Cut="0.0000000000000000e+00" cType="1" res="-1.6129122814163566e-03" rms="4.7382938861846924e-01" purity="5.4295980930328369e-01" nType="-99"/>
        </Node>
        <Node pos="r" depth="1" NCoef="0" IVar="3" Cut="1.3063215017318726e+00" cType="1" res="4.1929356753826141e-02" rms="4.4346255064010620e-01" purity="6.2751221656799316e-01" nType="0">
          <Node pos="l" depth="2" NCoef="0" IVar="-1" Cut="0.0000000000000000e+00" cType="1" res="2.3434017202816904e-04" rms="4.5279181003570557e-01" purity="6.0846018791198730e-01" nType="-99"/>
          <Node pos="r" depth="2" NCoef="0" IVar="-1" Cut="0.0000000000000000e+00" cType="1" res="5.4898280650377274e-03" rms="4.3116790056228638e-01" purity="6.4569246768951416e-01" nType="-99"/>
        </Node>
      </Node>
    </BinaryTree>
    <BinaryTree type="DecisionTree" boostWeight="1.0000000000000000e+00" itree="426">
      <Node pos="s" depth="0" NCoef="0" IVar="2" Cut="5.3327667713165283e-01" cType="1" res="6.1317556537687778e-03" rms="4.6573781967163086e-01" purity="5.0960749387741089e-01" nType="0">
        <Node pos="l" depth="1" NCoef="0" IVar="0" Cut="2.3529065772891045e-02" cType="1" res="-1.6389084979891777e-02" rms="4.5999631285667419e-01" purity="4.0253064036369324e-01" nType="0">
          <Node pos="l" depth="2" NCoef="0" IVar="-1" Cut="0.0000000000000000e+00" cType="1" res="-3.7099099718034267e-03" rms="4.4764199852943420e-01" purity="3.2267501950263977e-01" nType="-99"/>
          <Node pos="r" depth="2" NCoef="0" IVar="-1" Cut="0.0000000000000000e+00" cType="1" res="-2.7246103854849935e-04" rms="4.6235418319702148e-01" purity="4.2302200198173523e-01" nType="-99"/>
        </Node>
        <Node pos="r" depth="1" NCoef="0" IVar="2" Cut="7.7739042043685913e-01" cType="1" res="1.7978591844439507e-02" rms="4.6829533576965332e-01" purity="5.6593406200408936e-01" nType="0">
          <Node pos="l" depth="2" NCoef="0" IVar="-1" Cut="0.0000000000000000e+00" cType="1" res="1.9526504911482334e-03" rms="4.6946853399276733e-01" purity="5.5205899477005005e-01" nType="-99"/>
          <Node pos="r" depth="2" NCoef="0" IVar="-1" Cut="0.0000000000000000e+00" cType="1" res="-1.4964699512347579e-03" rms="4.6227762103080750e-01" purity="6.1108648777008057e-01" nType="-99"/>
        </Node>
      </Node>
    </BinaryTree>
    <BinaryTree type="DecisionTree" boostWeight="1.0000000000000000e+00" itree="427">
      <Node pos="s" depth="0" NCoef="0" IVar="3" Cut="2.1504161357879639e+00" cType="1" res="1.2638160958886147e-02" rms="4.6542033553123474e-01" purity="5.1733791828155518e-01" nType="0">
        <Node pos="l" depth="1" NCoef="0" IVar="2" Cut="8.3422631025314331e-01" cType="1" res="8.1259403377771378e-03" rms="4.6630764007568359e-01" purity="5.2882701158523560e-01" nType="0">
          <Node pos="l" depth="2" NCoef="0" IVar="-1" Cut="0.0000000000000000e+00" cType="1" res="2.2774557874072343e-04" rms="4.6825861930847168e-01" purity="5.1393347978591919e-01" nType="-99"/>
          <Node pos="r" depth="2" NCoef="0" IVar="-1" Cut="0.0000000000000000e+00" cType="1" res="4.9438909627497196e-03" rms="4.3699240684509277e-01" purity="7.1599918603897095e-01" nType="-99"/>
        </Node>
        <Node pos="r" depth="1" NCoef="0" IVar="-1" Cut="0.0000000000000000e+00" cType="1" res="4.4080833904445171e-03" rms="4.5166572928428650e-01" purity="3.8364195823669434e-01" nType="-99"/>
      </Node>
    </BinaryTree>
    <BinaryTree type="DecisionTree" boostWeight="1.0000000000000000e+00" itree="428">
      <Node pos="s" depth="0" NCoef="0" IVar="2" Cut="6.3520574569702148e-01" cType="1" res="-5.0713280215859413e-03" rms="4.6900632977485657e-01" purity="5.0081765651702881e-01" nType="0">
        <Node pos="l" depth="1" NCoef="0" IVar="5" Cut="8.8239544677734375e+02" cType="1" res="6.6435285843908787e-03" rms="4.6905103325843811e-01" purity="4.5859780907630920e-01" nType="0">
          <Node pos="l" depth="2" NCoef="0" IVar="-1" Cut="0.0000000000000000e+00" cType="1" res="1.0273613734170794e-03" rms="4.6743765473365784e-01" purity="4.5204412937164307e-01" nType="-99"/>
          <Node pos="r" depth="2" NCoef="0" IVar="-1" Cut="0.0000000000000000e+00" cType="1" res="-1.4205491170287132e-03" rms="4.7283911705017090e-01" purity="4.7929471731185913e-01" nType="-99"/>
        </Node>
        <Node pos="r" depth="1" NCoef="0" IVar="4" Cut="2.9096871148794889e-03" cType="1" res="-2.1305900067090988e-02" rms="4.6846032142639160e-01" purity="5.5932623147964478e-01" nType="0">
          <Node pos="l" depth="2" NCoef="0" IVar="-1" Cut="0.0000000000000000e+00" cType="1" res="-2.0627044141292572e-03" rms="4.6810105443000793e-01" purity="5.6679362058639526e-01" nType="-99"/>
          <Node pos="r" depth="2" NCoef="0" IVar="-1" Cut="0.0000000000000000e+00" cType="1" res="2.2485535591840744e-03" rms="4.6628123521804810e-01" purity="5.1310098171234131e-01" nType="-99"/>
        </Node>
      </Node>
    </BinaryTree>
    <BinaryTree type="DecisionTree" boostWeight="1.0000000000000000e+00" itree="429">
      <Node pos="s" depth="0" NCoef="0" IVar="1" Cut="1.1432313919067383e+00" cType="1" res="3.0829923343844712e-04" rms="4.6764141321182251e-01" purity="4.9960714578628540e-01" nType="0">
        <Node pos="l" depth="1" NCoef="0" IVar="0" Cut="6.4069449901580811e-02" cType="1" res="-1.8072461709380150e-02" rms="4.7297778725624084e-01" purity="5.3570586442947388e-01" nType="0">
          <Node pos="l" depth="2" NCoef="0" IVar="-1" Cut="0.0000000000000000e+00" cType="1" res="6.5434491261839867e-04" rms="4.8146855831146240e-01" purity="5.2218639850616455e-01" nType="-99"/>
          <Node pos="r" depth="2" NCoef="0" IVar="-1" Cut="0.0000000000000000e+00" cType="1" res="-2.2329487837851048e-03" rms="4.6750539541244507e-01" purity="5.4313623905181885e-01" nType="-99"/>
        </Node>
        <Node pos="r" depth="1" NCoef="0" IVar="2" Cut="4.8770841956138611e-01" cType="1" res="2.5945076718926430e-02" rms="4.5886713266372681e-01" purity="4.4925802946090698e-01" nType="0">
          <Node pos="l" depth="2" NCoef="0" IVar="-1" Cut="0.0000000000000000e+00" cType="1" res="-2.1961510647088289e-03" rms="4.4571033120155334e-01" purity="3.1694671511650085e-01" nType="-99"/>
          <Node pos="r" depth="2" NCoef="0" IVar="-1" Cut="0.0000000000000000e+00" cType="1" res="3.5090739838778973e-03" rms="4.6201452612876892e-01" purity="5.1001626253128052e-01" nType="-99"/>
        </Node>
      </Node>
    </BinaryTree>
    <BinaryTree type="DecisionTree" boostWeight="1.0000000000000000e+00" itree="430">
      <Node pos="s" depth="0" NCoef="0" IVar="4" Cut="2.4290554574690759e-04" cType="1" res="-1.8050747457891703e-03" rms="4.6325564384460449e-01" purity="4.9965378642082214e-01" nType="0">
        <Node pos="l" depth="1" NCoef="0" IVar="1" Cut="9.2185127735137939e-01" cType="1" res="3.7987720221281052e-02" rms="4.4372564554214478e-01" purity="6.7969989776611328e-01" nType="0">
          <Node pos="l" depth="2" NCoef="0" IVar="-1" Cut="0.0000000000000000e+00" cType="1" res="2.3987656459212303e-04" rms="4.3655216693878174e-01" purity="7.0074832439422607e-01" nType="-99"/>
          <Node pos="r" depth="2" NCoef="0" IVar="-1" Cut="0.0000000000000000e+00" cType="1" res="5.3955120965838432e-03" rms="4.4817811250686646e-01" purity="6.5763044357299805e-01" nType="-99"/>
        </Node>
        <Node pos="r" depth="1" NCoef="0" IVar="6" Cut="1.7478860616683960e+00" cType="1" res="-1.1554954573512077e-02" rms="4.6740004420280457e-01" purity="4.5553955435752869e-01" nType="0">
          <Node pos="l" depth="2" NCoef="0" IVar="-1" Cut="0.0000000000000000e+00" cType="1" res="3.0519724823534489e-03" rms="4.5775640010833740e-01" purity="3.2752960920333862e-01" nType="-99"/>
          <Node pos="r" depth="2" NCoef="0" IVar="-1" Cut="0.0000000000000000e+00" cType="1" res="-9.7067153546959162e-04" rms="4.6791219711303711e-01" purity="4.6621060371398926e-01" nType="-99"/>
        </Node>
      </Node>
    </BinaryTree>
    <BinaryTree type="DecisionTree" boostWeight="1.0000000000000000e+00" itree="431">
      <Node pos="s" depth="0" NCoef="0" IVar="6" Cut="3.3905525207519531e+00" cType="1" res="-1.3702353462576866e-02" rms="4.6238791942596436e-01" purity="4.8626074194908142e-01" nType="0">
        <Node pos="l" depth="1" NCoef="0" IVar="5" Cut="5.7632995605468750e+02" cType="1" res="-3.2276704907417297e-02" rms="4.5315852761268616e-01" purity="3.3281090855598450e-01" nType="0">
          <Node pos="l" depth="2" NCoef="0" IVar="-1" Cut="0.0000000000000000e+00" cType="1" res="-5.4237083531916142e-04" rms="4.3533217906951904e-01" purity="2.9497554898262024e-01" nType="-99"/>
          <Node pos="r" depth="2" NCoef="0" IVar="-1" Cut="0.0000000000000000e+00" cType="1" res="-2.6350142434239388e-03" rms="4.6147549152374268e-01" purity="3.5202735662460327e-01" nType="-99"/>
        </Node>
        <Node pos="r" depth="1" NCoef="0" IVar="3" Cut="1.5660293102264404e+00" cType="1" res="1.3635683571919799e-03" rms="4.6920105814933777e-01" purity="6.1072617769241333e-01" nType="0">
          <Node pos="l" depth="2" NCoef="0" IVar="-1" Cut="0.0000000000000000e+00" cType="1" res="-9.7812409512698650e-04" rms="4.6691539883613586e-01" purity="6.2751650810241699e-01" nType="-99"/>
          <Node pos="r" depth="2" NCoef="0" IVar="-1" Cut="0.0000000000000000e+00" cType="1" res="2.3227781057357788e-03" rms="4.7240602970123291e-01" purity="5.7245653867721558e-01" nType="-99"/>
        </Node>
      </Node>
    </BinaryTree>
    <BinaryTree type="DecisionTree" boostWeight="1.0000000000000000e+00" itree="432">
      <Node pos="s" depth="0" NCoef="0" IVar="1" Cut="1.2822471857070923e+00" cType="1" res="1.1227553710341454e-02" rms="4.6559506654739380e-01" purity="5.1416301727294922e-01" nType="0">
        <Node pos="l" depth="1" NCoef="0" IVar="4" Cut="8.0370053183287382e-05" cType="1" res="-6.3011604361236095e-03" rms="4.6509405970573425e-01" purity="5.4432541131973267e-01" nType="0">
          <Node pos="l" depth="2" NCoef="0" IVar="-1" Cut="0.0000000000000000e+00" cType="1" res="4.7416053712368011e-03" rms="4.0166163444519043e-01" purity="7.6993906497955322e-01" nType="-99"/>
          <Node pos="r" depth="2" NCoef="0" IVar="-1" Cut="0.0000000000000000e+00" cType="1" res="-8.9049135567620397e-04" rms="4.7197645902633667e-01" purity="5.1564598083496094e-01" nType="-99"/>
        </Node>
        <Node pos="r" depth="1" NCoef="0" IVar="4" Cut="2.4291724548675120e-04" cType="1" res="4.2251616716384888e-02" rms="4.6486315131187439e-01" purity="4.6077865362167358e-01" nType="0">
          <Node pos="l" depth="2" NCoef="0" IVar="-1" Cut="0.0000000000000000e+00" cType="1" res="-3.5862423828803003e-04" rms="4.6323427557945251e-01" purity="5.4440355300903320e-01" nType="-99"/>
          <Node pos="r" depth="2" NCoef="0" IVar="-1" Cut="0.0000000000000000e+00" cType="1" res="3.4016214776784182e-03" rms="4.6451380848884583e-01" purity="4.4026091694831848e-01" nType="-99"/>
        </Node>
      </Node>
    </BinaryTree>
    <BinaryTree type="DecisionTree" boostWeight="1.0000000000000000e+00" itree="433">
      <Node pos="s" depth="0" NCoef="0" IVar="2" Cut="5.7406324148178101e-01" cType="1" res="-1.1149711906909943e-02" rms="4.6860218048095703e-01" purity="4.9035292863845825e-01" nType="0">
        <Node pos="l" depth="1" NCoef="0" IVar="0" Cut="6.6281400620937347e-02" cType="1" res="8.7599372491240501e-03" rms="4.6493813395500183e-01" purity="4.3343809247016907e-01" nType="0">
          <Node pos="l" depth="2" NCoef="0" IVar="-1" Cut="0.0000000000000000e+00" cType="1" res="-8.1327254883944988e-04" rms="4.6150699257850647e-01" purity="3.9742851257324219e-01" nType="-99"/>
          <Node pos="r" depth="2" NCoef="0" IVar="-1" Cut="0.0000000000000000e+00" cType="1" res="3.1486900988966227e-03" rms="4.6843269467353821e-01" purity="4.9879747629165649e-01" nType="-99"/>
        </Node>
        <Node pos="r" depth="1" NCoef="0" IVar="5" Cut="9.5046459960937500e+02" cType="1" res="-2.6135139167308807e-02" rms="4.7078618407249451e-01" purity="5.3319114446640015e-01" nType="0">
          <Node pos="l" depth="2" NCoef="0" IVar="-1" Cut="0.0000000000000000e+00" cType="1" res="-9.2435552505776286e-04" rms="4.6774241328239441e-01" purity="5.3327912092208862e-01" nType="-99"/>
          <Node pos="r" depth="2" NCoef="0" IVar="-1" Cut="0.0000000000000000e+00" cType="1" res="-4.2820181697607040e-03" rms="4.7908315062522888e-01" purity="5.3287708759307861e-01" nType="-99"/>
        </Node>
      </Node>
    </BinaryTree>
    <BinaryTree type="DecisionTree" boostWeight="1.0000000000000000e+00" itree="434">
      <Node pos="s" depth="0" NCoef="0" IVar="2" Cut="7.0073634386062622e-01" cType="1" res="-1.9714520312845707e-03" rms="4.6646222472190857e-01" purity="4.9956813454627991e-01" nType="0">
        <Node pos="l" depth="1" NCoef="0" IVar="0" Cut="3.5216573625802994e-02" cType="1" res="9.3983197584748268e-03" rms="4.6490597724914551e-01" purity="4.7166457772254944e-01" nType="0">
          <Node pos="l" depth="2" NCoef="0" IVar="-1" Cut="0.0000000000000000e+00" cType="1" res="-1.5207490650936961e-03" rms="4.5477810502052307e-01" purity="3.9072456955909729e-01" nType="-99"/>
          <Node pos="r" depth="2" NCoef="0" IVar="-1" Cut="0.0000000000000000e+00" cType="1" res="1.2576049193739891e-03" rms="4.6739831566810608e-01" purity="4.9579116702079773e-01" nType="-99"/>
        </Node>
        <Node pos="r" depth="1" NCoef="0" IVar="1" Cut="3.8028755784034729e-01" cType="1" res="-3.2951001077890396e-02" rms="4.6928066015243530e-01" purity="5.7559758424758911e-01" nType="0">
          <Node pos="l" depth="2" NCoef="0" IVar="-1" Cut="0.0000000000000000e+00" cType="1" res="-7.7327634207904339e-03" rms="4.7765493392944336e-01" purity="5.3438836336135864e-01" nType="-99"/>
          <Node pos="r" depth="2" NCoef="0" IVar="-1" Cut="0.0000000000000000e+00" cType="1" res="-7.2789349360391498e-04" rms="4.6450221538543701e-01" purity="5.8703553676605225e-01" nType="-99"/>
        </Node>
      </Node>
    </BinaryTree>
    <BinaryTree type="DecisionTree" boostWeight="1.0000000000000000e+00" itree="435">
      <Node pos="s" depth="0" NCoef="0" IVar="4" Cut="3.6482606083154678e-03" cType="1" res="9.6732173115015030e-03" rms="4.6371838450431824e-01" purity="5.0578463077545166e-01" nType="0">
        <Node pos="l" depth="1" NCoef="0" IVar="3" Cut="2.0161757469177246e+00" cType="1" res="5.4894988425076008e-03" rms="4.6252918243408203e-01" purity="5.0749093294143677e-01" nType="0">
          <Node pos="l" depth="2" NCoef="0" IVar="-1" Cut="0.0000000000000000e+00" cType="1" res="7.8740221215412021e-04" rms="4.6586370468139648e-01" purity="5.3653991222381592e-01" nType="-99"/>
          <Node pos="r" depth="2" NCoef="0" IVar="-1" Cut="0.0000000000000000e+00" cType="1" res="-2.2977623157203197e-03" rms="4.3828374147415161e-01" purity="3.2177582383155823e-01" nType="-99"/>
        </Node>
        <Node pos="r" depth="1" NCoef="0" IVar="-1" Cut="0.0000000000000000e+00" cType="1" res="4.9706865102052689e-03" rms="4.7793725132942200e-01" purity="4.7670808434486389e-01" nType="-99"/>
      </Node>
    </BinaryTree>
    <BinaryTree type="DecisionTree" boostWeight="1.0000000000000000e+00" itree="436">
      <Node pos="s" depth="0" NCoef="0" IVar="5" Cut="1.0874128417968750e+03" cType="1" res="-2.0598780247382820e-04" rms="4.6916487812995911e-01" purity="5.0511735677719116e-01" nType="0">
        <Node pos="l" depth="1" NCoef="0" IVar="0" Cut="1.0428936779499054e-01" cType="1" res="-7.1627069264650345e-03" rms="4.6709939837455750e-01" purity="4.8887792229652405e-01" nType="0">
          <Node pos="l" depth="2" NCoef="0" IVar="-1" Cut="0.0000000000000000e+00" cType="1" res="-1.4431132003664970e-03" rms="4.6888831257820129e-01" purity="4.3190154433250427e-01" nType="-99"/>
          <Node pos="r" depth="2" NCoef="0" IVar="-1" Cut="0.0000000000000000e+00" cType="1" res="1.2184004299342632e-03" rms="4.6310114860534668e-01" purity="5.7925194501876831e-01" nType="-99"/>
        </Node>
        <Node pos="r" depth="1" NCoef="0" IVar="6" Cut="3.6100683212280273e+00" cType="1" res="4.8357237130403519e-02" rms="4.8054048418998718e-01" purity="6.1848121881484985e-01" nType="0">
          <Node pos="l" depth="2" NCoef="0" IVar="-1" Cut="0.0000000000000000e+00" cType="1" res="9.2822974547743797e-03" rms="4.8648685216903687e-01" purity="5.8127480745315552e-01" nType="-99"/>
          <Node pos="r" depth="2" NCoef="0" IVar="-1" Cut="0.0000000000000000e+00" cType="1" res="-1.4080461114645004e-03" rms="4.6415787935256958e-01" purity="6.4455312490463257e-01" nType="-99"/>
        </Node>
      </Node>
    </BinaryTree>
    <BinaryTree type="DecisionTree" boostWeight="1.0000000000000000e+00" itree="437">
      <Node pos="s" depth="0" NCoef="0" IVar="2" Cut="8.1569063663482666e-01" cType="1" res="1.2638161424547434e-03" rms="4.6347919106483459e-01" purity="5.0360202789306641e-01" nType="0">
        <Node pos="l" depth="1" NCoef="0" IVar="0" Cut="1.6844767332077026e-01" cType="1" res="-5.1902323029935360e-03" rms="4.6669736504554749e-01" purity="4.8447400331497192e-01" nType="0">
          <Node pos="l" depth="2" NCoef="0" IVar="-1" Cut="0.0000000000000000e+00" cType="1" res="-7.7427434735000134e-04" rms="4.6924665570259094e-01" purity="4.6374541521072388e-01" nType="-99"/>
          <Node pos="r" depth="2" NCoef="0" IVar="-1" Cut="0.0000000000000000e+00" cType="1" res="3.2216631807386875e-03" rms="4.4466692209243774e-01" purity="6.3242012262344360e-01" nType="-99"/>
        </Node>
        <Node pos="r" depth="1" NCoef="0" IVar="-1" Cut="0.0000000000000000e+00" cType="1" res="5.2768723107874393e-03" rms="4.2136082053184509e-01" purity="7.0838510990142822e-01" nType="-99"/>
      </Node>
    </BinaryTree>
    <BinaryTree type="DecisionTree" boostWeight="1.0000000000000000e+00" itree="438">
      <Node pos="s" depth="0" NCoef="0" IVar="2" Cut="6.9494950771331787e-01" cType="1" res="1.3709184713661671e-03" rms="4.6681338548660278e-01" purity="5.0074607133865356e-01" nType="0">
        <Node pos="l" depth="1" NCoef="0" IVar="1" Cut="2.2470974922180176e+00" cType="1" res="1.3710376806557178e-02" rms="4.6805885434150696e-01" purity="4.7293007373809814e-01" nType="0">
          <Node pos="l" depth="2" NCoef="0" IVar="-1" Cut="0.0000000000000000e+00" cType="1" res="1.6252114437520504e-03" rms="4.7405749559402466e-01" purity="5.0816130638122559e-01" nType="-99"/>
          <Node pos="r" depth="2" NCoef="0" IVar="-1" Cut="0.0000000000000000e+00" cType="1" res="-3.3661313354969025e-03" rms="4.2688795924186707e-01" purity="2.7668231725692749e-01" nType="-99"/>
        </Node>
        <Node pos="r" depth="1" NCoef="0" IVar="4" Cut="3.1976465834304690e-04" cType="1" res="-2.7950026094913483e-02" rms="4.6252194046974182e-01" purity="5.6684231758117676e-01" nType="0">
          <Node pos="l" depth="2" NCoef="0" IVar="-1" Cut="0.0000000000000000e+00" cType="1" res="1.3924124650657177e-03" rms="4.1584840416908264e-01" purity="7.3455613851547241e-01" nType="-99"/>
          <Node pos="r" depth="2" NCoef="0" IVar="-1" Cut="0.0000000000000000e+00" cType="1" res="-2.6544514112174511e-03" rms="4.7617718577384949e-01" purity="5.1090753078460693e-01" nType="-99"/>
        </Node>
      </Node>
    </BinaryTree>
    <BinaryTree type="DecisionTree" boostWeight="1.0000000000000000e+00" itree="439">
      <Node pos="s" depth="0" NCoef="0" IVar="3" Cut="1.7492502927780151e+00" cType="1" res="3.7784760352224112e-03" rms="4.6606203913688660e-01" purity="5.0398892164230347e-01" nType="0">
        <Node pos="l" depth="1" NCoef="0" IVar="3" Cut="9.5115619897842407e-01" cType="1" res="1.7072679474949837e-02" rms="4.6847307682037354e-01" purity="5.4573702812194824e-01" nType="0">
          <Node pos="l" depth="2" NCoef="0" IVar="-1" Cut="0.0000000000000000e+00" cType="1" res="-9.2489598318934441e-04" rms="4.6759170293807983e-01" purity="5.1549845933914185e-01" nType="-99"/>
          <Node pos="r" depth="2" NCoef="0" IVar="-1" Cut="0.0000000000000000e+00" cType="1" res="2.3467165883630514e-03" rms="4.6799889206886292e-01" purity="5.6356686353683472e-01" nType="-99"/>
        </Node>
        <Node pos="r" depth="1" NCoef="0" IVar="1" Cut="1.6089975833892822e+00" cType="1" res="-3.8323171436786652e-02" rms="4.5579144358634949e-01" purity="3.7177622318267822e-01" nType="0">
          <Node pos="l" depth="2" NCoef="0" IVar="-1" Cut="0.0000000000000000e+00" cType="1" res="-3.4214928746223450e-03" rms="4.6625027060508728e-01" purity="3.9828214049339294e-01" nType="-99"/>
          <Node pos="r" depth="2" NCoef="0" IVar="-1" Cut="0.0000000000000000e+00" cType="1" res="6.0382437368389219e-05" rms="4.3078666925430298e-01" purity="3.1712713837623596e-01" nType="-99"/>
        </Node>
      </Node>
    </BinaryTree>
    <BinaryTree type="DecisionTree" boostWeight="1.0000000000000000e+00" itree="440">
      <Node pos="s" depth="0" NCoef="0" IVar="2" Cut="8.3014762401580811e-01" cType="1" res="2.3460548836737871e-03" rms="4.6523427963256836e-01" purity="5.0462877750396729e-01" nType="0">
        <Node pos="l" depth="1" NCoef="0" IVar="0" Cut="1.9339525699615479e-01" cType="1" res="-2.5259645190089941e-03" rms="4.6778729557991028e-01" purity="4.8824143409729004e-01" nType="0">
          <Node pos="l" depth="2" NCoef="0" IVar="-1" Cut="0.0000000000000000e+00" cType="1" res="-4.7323235776275396e-04" rms="4.6795445680618286e-01" purity="4.7177433967590332e-01" nType="-99"/>
          <Node pos="r" depth="2" NCoef="0" IVar="-1" Cut="0.0000000000000000e+00" cType="1" res="3.6349280271679163e-03" rms="4.6261677145957947e-01" purity="6.6578954458236694e-01" nType="-99"/>
        </Node>
        <Node pos="r" depth="1" NCoef="0" IVar="-1" Cut="0.0000000000000000e+00" cType="1" res="5.6963497772812843e-03" rms="4.2199102044105530e-01" purity="7.3423165082931519e-01" nType="-99"/>
      </Node>
    </BinaryTree>
    <BinaryTree type="DecisionTree" boostWeight="1.0000000000000000e+00" itree="441">
      <Node pos="s" depth="0" NCoef="0" IVar="3" Cut="7.3055630922317505e-01" cType="1" res="1.3935775496065617e-03" rms="4.6545413136482239e-01" purity="5.0551110506057739e-01" nType="0">
        <Node pos="l" depth="1" NCoef="0" IVar="4" Cut="7.8938837395980954e-04" cType="1" res="4.4714555144309998e-02" rms="4.6986716985702515e-01" purity="5.6555962562561035e-01" nType="0">
          <Node pos="l" depth="2" NCoef="0" IVar="-1" Cut="0.0000000000000000e+00" cType="1" res="-3.6972711677663028e-04" rms="4.7486999630928040e-01" purity="6.0043686628341675e-01" nType="-99"/>
          <Node pos="r" depth="2" NCoef="0" IVar="-1" Cut="0.0000000000000000e+00" cType="1" res="4.7878581099212170e-03" rms="4.6381887793540955e-01" purity="5.4324972629547119e-01" nType="-99"/>
        </Node>
        <Node pos="r" depth="1" NCoef="0" IVar="0" Cut="1.0076715052127838e-01" cType="1" res="-6.3468613661825657e-03" rms="4.6423572301864624e-01" purity="4.9478185176849365e-01" nType="0">
          <Node pos="l" depth="2" NCoef="0" IVar="-1" Cut="0.0000000000000000e+00" cType="1" res="6.2892405549064279e-04" rms="4.5809859037399292e-01" purity="4.7019794583320618e-01" nType="-99"/>
          <Node pos="r" depth="2" NCoef="0" IVar="-1" Cut="0.0000000000000000e+00" cType="1" res="-2.0376422908157110e-03" rms="4.7240796685218811e-01" purity="5.3251045942306519e-01" nType="-99"/>
        </Node>
      </Node>
    </BinaryTree>
    <BinaryTree type="DecisionTree" boostWeight="1.0000000000000000e+00" itree="442">
      <Node pos="s" depth="0" NCoef="0" IVar="4" Cut="1.7812756123021245e-03" cType="1" res="-3.3768860157579184e-03" rms="4.6677705645561218e-01" purity="4.9771887063980103e-01" nType="0">
        <Node pos="l" depth="1" NCoef="0" IVar="4" Cut="2.9199669370427728e-05" cType="1" res="7.5747878290712833e-03" rms="4.6368515491485596e-01" purity="5.4960799217224121e-01" nType="0">
          <Node pos="l" depth="2" NCoef="0" IVar="-1" Cut="0.0000000000000000e+00" cType="1" res="6.0912189073860645e-03" rms="4.1067653894424438e-01" purity="7.6834052801132202e-01" nType="-99"/>
          <Node pos="r" depth="2" NCoef="0" IVar="-1" Cut="0.0000000000000000e+00" cType="1" res="1.0238842514809221e-04" rms="4.6772891283035278e-01" purity="5.2977919578552246e-01" nType="-99"/>
        </Node>
        <Node pos="r" depth="1" NCoef="0" IVar="0" Cut="1.0438951849937439e-01" cType="1" res="-2.3768497630953789e-02" rms="4.7180333733558655e-01" purity="4.0110319852828979e-01" nType="0">
          <Node pos="l" depth="2" NCoef="0" IVar="-1" Cut="0.0000000000000000e+00" cType="1" res="-7.7137148764450103e-05" rms="4.6430349349975586e-01" purity="3.8489583134651184e-01" nType="-99"/>
          <Node pos="r" depth="2" NCoef="0" IVar="-1" Cut="0.0000000000000000e+00" cType="1" res="-3.5021533258259296e-03" rms="4.8137098550796509e-01" purity="4.2701199650764465e-01" nType="-99"/>
        </Node>
      </Node>
    </BinaryTree>
    <BinaryTree type="DecisionTree" boostWeight="1.0000000000000000e+00" itree="443">
      <Node pos="s" depth="0" NCoef="0" IVar="0" Cut="3.6501247435808182e-02" cType="1" res="2.4895090609788895e-03" rms="4.6521678566932678e-01" purity="5.0249040126800537e-01" nType="0">
        <Node pos="l" depth="1" NCoef="0" IVar="6" Cut="2.9059526920318604e+00" cType="1" res="3.4262713044881821e-02" rms="4.6034809947013855e-01" purity="4.5163360238075256e-01" nType="0">
          <Node pos="l" depth="2" NCoef="0" IVar="-1" Cut="0.0000000000000000e+00" cType="1" res="-2.1966676285956055e-04" rms="4.4575682282447815e-01" purity="2.9090219736099243e-01" nType="-99"/>
          <Node pos="r" depth="2" NCoef="0" IVar="-1" Cut="0.0000000000000000e+00" cType="1" res="3.3696733880788088e-03" rms="4.6638989448547363e-01" purity="5.3280985355377197e-01" nType="-99"/>
        </Node>
        <Node pos="r" depth="1" NCoef="0" IVar="1" Cut="2.8080344200134277e-01" cType="1" res="-4.7373403795063496e-03" rms="4.6601477265357971e-01" purity="5.1405781507492065e-01" nType="0">
          <Node pos="l" depth="2" NCoef="0" IVar="-1" Cut="0.0000000000000000e+00" cType="1" res="-4.1157258674502373e-03" rms="4.6628066897392273e-01" purity="5.2028441429138184e-01" nType="-99"/>
          <Node pos="r" depth="2" NCoef="0" IVar="-1" Cut="0.0000000000000000e+00" cType="1" res="1.4686987560708076e-04" rms="4.6548339724540710e-01" purity="5.1332104206085205e-01" nType="-99"/>
        </Node>
      </Node>
    </BinaryTree>
    <BinaryTree type="DecisionTree" boostWeight="1.0000000000000000e+00" itree="444">
      <Node pos="s" depth="0" NCoef="0" IVar="3" Cut="8.0963075160980225e-01" cType="1" res="-4.1006375104188919e-03" rms="4.6667054295539856e-01" purity="4.9387842416763306e-01" nType="0">
        <Node pos="l" depth="1" NCoef="0" IVar="6" Cut="3.6675803661346436e+00" cType="1" res="-3.9735086262226105e-02" rms="4.7782048583030701e-01" purity="4.9571463465690613e-01" nType="0">
          <Node pos="l" depth="2" NCoef="0" IVar="-1" Cut="0.0000000000000000e+00" cType="1" res="5.6768517242744565e-04" rms="4.6629223227500916e-01" purity="4.0852722525596619e-01" nType="-99"/>
          <Node pos="r" depth="2" NCoef="0" IVar="-1" Cut="0.0000000000000000e+00" cType="1" res="-5.1868003793060780e-03" rms="4.8329448699951172e-01" purity="5.6614744663238525e-01" nType="-99"/>
        </Node>
        <Node pos="r" depth="1" NCoef="0" IVar="1" Cut="7.6688259840011597e-01" cType="1" res="4.6761445701122284e-03" rms="4.6346282958984375e-01" purity="4.9342617392539978e-01" nType="0">
          <Node pos="l" depth="2" NCoef="0" IVar="-1" Cut="0.0000000000000000e+00" cType="1" res="2.1177646704018116e-03" rms="4.6241298317909241e-01" purity="5.9433555603027344e-01" nType="-99"/>
          <Node pos="r" depth="2" NCoef="0" IVar="-1" Cut="0.0000000000000000e+00" cType="1" res="-6.5439409809187055e-04" rms="4.6337080001831055e-01" purity="4.3667921423912048e-01" nType="-99"/>
        </Node>
      </Node>
    </BinaryTree>
    <BinaryTree type="DecisionTree" boostWeight="1.0000000000000000e+00" itree="445">
      <Node pos="s" depth="0" NCoef="0" IVar="6" Cut="4.4976778030395508e+00" cType="1" res="-1.1007759720087051e-02" rms="4.6706473827362061e-01" purity="4.9680697917938232e-01" nType="0">
        <Node pos="l" depth="1" NCoef="0" IVar="5" Cut="6.0768951416015625e+02" cType="1" res="-1.6773819224908948e-03" rms="4.6966147422790527e-01" purity="4.3418726325035095e-01" nType="0">
          <Node pos="l" depth="2" NCoef="0" IVar="-1" Cut="0.0000000000000000e+00" cType="1" res="-1.5944379847496748e-03" rms="4.5412498712539673e-01" purity="3.4682467579841614e-01" nType="-99"/>
          <Node pos="r" depth="2" NCoef="0" IVar="-1" Cut="0.0000000000000000e+00" cType="1" res="8.1188825424760580e-04" rms="4.7824189066886902e-01" purity="4.8731276392936707e-01" nType="-99"/>
        </Node>
        <Node pos="r" depth="1" NCoef="0" IVar="4" Cut="2.2408936638385057e-04" cType="1" res="-3.3806256949901581e-02" rms="4.5986244082450867e-01" purity="6.4981615543365479e-01" nType="0">
          <Node pos="l" depth="2" NCoef="0" IVar="-1" Cut="0.0000000000000000e+00" cType="1" res="2.6052957400679588e-04" rms="4.3129205703735352e-01" purity="7.3088991641998291e-01" nType="-99"/>
          <Node pos="r" depth="2" NCoef="0" IVar="-1" Cut="0.0000000000000000e+00" cType="1" res="-3.7518606986850500e-03" rms="4.7549560666084290e-01" purity="5.9879428148269653e-01" nType="-99"/>
        </Node>
      </Node>
    </BinaryTree>
    <BinaryTree type="DecisionTree" boostWeight="1.0000000000000000e+00" itree="446">
      <Node pos="s" depth="0" NCoef="0" IVar="5" Cut="1.2855993652343750e+03" cType="1" res="-1.4089688658714294e-02" rms="4.6738740801811218e-01" purity="4.8643374443054199e-01" nType="0">
        <Node pos="l" depth="1" NCoef="0" IVar="0" Cut="1.9480305910110474e-01" cType="1" res="-6.3990755006670952e-03" rms="4.6544423699378967e-01" purity="4.8854327201843262e-01" nType="0">
          <Node pos="l" depth="2" NCoef="0" IVar="-1" Cut="0.0000000000000000e+00" cType="1" res="1.1918402742594481e-04" rms="4.6426346898078918e-01" purity="4.8453852534294128e-01" nType="-99"/>
          <Node pos="r" depth="2" NCoef="0" IVar="-1" Cut="0.0000000000000000e+00" cType="1" res="-5.1969317719340324e-03" rms="4.6944174170494080e-01" purity="5.2382332086563110e-01" nType="-99"/>
        </Node>
        <Node pos="r" depth="1" NCoef="0" IVar="-1" Cut="0.0000000000000000e+00" cType="1" res="-7.3076421394944191e-03" rms="4.8105904459953308e-01" purity="4.5666402578353882e-01" nType="-99"/>
      </Node>
    </BinaryTree>
    <BinaryTree type="DecisionTree" boostWeight="1.0000000000000000e+00" itree="447">
      <Node pos="s" depth="0" NCoef="0" IVar="6" Cut="4.0498213768005371e+00" cType="1" res="-6.6720824688673019e-03" rms="4.7020384669303894e-01" purity="4.9757954478263855e-01" nType="0">
        <Node pos="l" depth="1" NCoef="0" IVar="5" Cut="1.1415767822265625e+03" cType="1" res="1.0339417494833469e-02" rms="4.7245445847511292e-01" purity="4.1924485564231873e-01" nType="0">
          <Node pos="l" depth="2" NCoef="0" IVar="-1" Cut="0.0000000000000000e+00" cType="1" res="3.2307306537404656e-04" rms="4.6955201029777527e-01" purity="4.0885609388351440e-01" nType="-99"/>
          <Node pos="r" depth="2" NCoef="0" IVar="-1" Cut="0.0000000000000000e+00" cType="1" res="3.6891342606395483e-03" rms="4.9812871217727661e-01" purity="5.2501815557479858e-01" nType="-99"/>
        </Node>
        <Node pos="r" depth="1" NCoef="0" IVar="0" Cut="3.1073916703462601e-02" cType="1" res="-3.3672213554382324e-02" rms="4.6533435583114624e-01" purity="6.2190991640090942e-01" nType="0">
          <Node pos="l" depth="2" NCoef="0" IVar="-1" Cut="0.0000000000000000e+00" cType="1" res="2.1477842237800360e-03" rms="4.5322462916374207e-01" purity="5.9652763605117798e-01" nType="-99"/>
          <Node pos="r" depth="2" NCoef="0" IVar="-1" Cut="0.0000000000000000e+00" cType="1" res="-3.1044986099004745e-03" rms="4.6627515554428101e-01" purity="6.2579464912414551e-01" nType="-99"/>
        </Node>
      </Node>
    </BinaryTree>
    <BinaryTree type="DecisionTree" boostWeight="1.0000000000000000e+00" itree="448">
      <Node pos="s" depth="0" NCoef="0" IVar="2" Cut="4.4353064894676208e-01" cType="1" res="-5.0284499302506447e-03" rms="4.6594387292861938e-01" purity="4.9712720513343811e-01" nType="0">
        <Node pos="l" depth="1" NCoef="0" IVar="0" Cut="3.4060351550579071e-02" cType="1" res="3.2187938690185547e-02" rms="4.6604734659194946e-01" purity="4.2737379670143127e-01" nType="0">
          <Node pos="l" depth="2" NCoef="0" IVar="-1" Cut="0.0000000000000000e+00" cType="1" res="-9.1768335551023483e-04" rms="4.6159783005714417e-01" purity="3.7574407458305359e-01" nType="-99"/>
          <Node pos="r" depth="2" NCoef="0" IVar="-1" Cut="0.0000000000000000e+00" cType="1" res="5.3266561590135098e-03" rms="4.6567454934120178e-01" purity="4.8090082406997681e-01" nType="-99"/>
        </Node>
        <Node pos="r" depth="1" NCoef="0" IVar="2" Cut="6.1684352159500122e-01" cType="1" res="-1.1424169875681400e-02" rms="4.6562668681144714e-01" purity="5.0911450386047363e-01" nType="0">
          <Node pos="l" depth="2" NCoef="0" IVar="-1" Cut="0.0000000000000000e+00" cType="1" res="-1.9441001350060105e-03" rms="4.5999193191528320e-01" purity="4.2640832066535950e-01" nType="-99"/>
          <Node pos="r" depth="2" NCoef="0" IVar="-1" Cut="0.0000000000000000e+00" cType="1" res="4.0671043097972870e-04" rms="4.6966075897216797e-01" purity="5.7956826686859131e-01" nType="-99"/>
        </Node>
      </Node>
    </BinaryTree>
    <BinaryTree type="DecisionTree" boostWeight="1.0000000000000000e+00" itree="449">
      <Node pos="s" depth="0" NCoef="0" IVar="3" Cut="5.6051689386367798e-01" cType="1" res="-1.4262381941080093e-02" rms="4.6446147561073303e-01" purity="4.8554277420043945e-01" nType="0">
        <Node pos="l" depth="1" NCoef="0" IVar="-1" Cut="0.0000000000000000e+00" cType="1" res="-6.8772397935390472e-03" rms="4.7842171788215637e-01" purity="4.0466308593750000e-01" nType="-99"/>
        <Node pos="r" depth="1" NCoef="0" IVar="2" Cut="6.6777199506759644e-01" cType="1" res="-8.1413751468062401e-03" rms="4.6289107203483582e-01" purity="4.9051961302757263e-01" nType="0">
          <Node pos="l" depth="2" NCoef="0" IVar="-1" Cut="0.0000000000000000e+00" cType="1" res="-1.2333729537203908e-03" rms="4.6456882357597351e-01" purity="4.3240511417388916e-01" nType="-99"/>
          <Node pos="r" depth="2" NCoef="0" IVar="-1" Cut="0.0000000000000000e+00" cType="1" res="1.0329172946512699e-03" rms="4.5867556333541870e-01" purity="6.0528451204299927e-01" nType="-99"/>
        </Node>
      </Node>
    </BinaryTree>
    <BinaryTree type="DecisionTree" boostWeight="1.0000000000000000e+00" itree="450">
      <Node pos="s" depth="0" NCoef="0" IVar="6" Cut="3.5775587558746338e+00" cType="1" res="-9.4211334362626076e-03" rms="4.6515068411827087e-01" purity="4.9062219262123108e-01" nType="0">
        <Node pos="l" depth="1" NCoef="0" IVar="4" Cut="1.9491049461066723e-03" cType="1" res="5.9005264192819595e-03" rms="4.6693682670593262e-01" purity="3.7989449501037598e-01" nType="0">
          <Node pos="l" depth="2" NCoef="0" IVar="-1" Cut="0.0000000000000000e+00" cType="1" res="1.4821974327787757e-03" rms="4.7392579913139343e-01" purity="4.1806527972221375e-01" nType="-99"/>
          <Node pos="r" depth="2" NCoef="0" IVar="-1" Cut="0.0000000000000000e+00" cType="1" res="-9.2718069208785892e-04" rms="4.5749744772911072e-01" purity="3.3407473564147949e-01" nType="-99"/>
        </Node>
        <Node pos="r" depth="1" NCoef="0" IVar="6" Cut="4.3072452545166016e+00" cType="1" res="-2.3758552968502045e-02" rms="4.6301409602165222e-01" purity="5.9423691034317017e-01" nType="0">
          <Node pos="l" depth="2" NCoef="0" IVar="-1" Cut="0.0000000000000000e+00" cType="1" res="-3.6125541664659977e-03" rms="4.7929310798645020e-01" purity="4.7742262482643127e-01" nType="-99"/>
          <Node pos="r" depth="2" NCoef="0" IVar="-1" Cut="0.0000000000000000e+00" cType="1" res="-8.8535693066660315e-05" rms="4.5167735219001770e-01" purity="6.6275870800018311e-01" nType="-99"/>
        </Node>
      </Node>
    </BinaryTree>
    <BinaryTree type="DecisionTree" boostWeight="1.0000000000000000e+00" itree="451">
      <Node pos="s" depth="0" NCoef="0" IVar="0" Cut="2.2331032156944275e-01" cType="1" res="1.6092776786535978e-03" rms="4.6208027005195618e-01" purity="5.0271785259246826e-01" nType="0">
        <Node pos="l" depth="1" NCoef="0" IVar="3" Cut="1.2123810052871704e+00" cType="1" res="-3.6704591475427151e-03" rms="4.6377545595169067e-01" purity="4.9165064096450806e-01" nType="0">
          <Node pos="l" depth="2" NCoef="0" IVar="-1" Cut="0.0000000000000000e+00" cType="1" res="1.4447827124968171e-03" rms="4.6323379874229431e-01" purity="5.5328851938247681e-01" nType="-99"/>
          <Node pos="r" depth="2" NCoef="0" IVar="-1" Cut="0.0000000000000000e+00" cType="1" res="-1.5070867957547307e-03" rms="4.6319127082824707e-01" purity="4.4372227787971497e-01" nType="-99"/>
        </Node>
        <Node pos="r" depth="1" NCoef="0" IVar="-1" Cut="0.0000000000000000e+00" cType="1" res="6.8913437426090240e-03" rms="4.1984307765960693e-01" purity="6.9964909553527832e-01" nType="-99"/>
      </Node>
    </BinaryTree>
    <BinaryTree type="DecisionTree" boostWeight="1.0000000000000000e+00" itree="452">
      <Node pos="s" depth="0" NCoef="0" IVar="4" Cut="3.2482612878084183e-03" cType="1" res="2.1933205425739288e-03" rms="4.6634852886199951e-01" purity="5.0554084777832031e-01" nType="0">
        <Node pos="l" depth="1" NCoef="0" IVar="4" Cut="1.2221162905916572e-03" cType="1" res="9.4241593033075333e-03" rms="4.6659785509109497e-01" purity="5.2305877208709717e-01" nType="0">
          <Node pos="l" depth="2" NCoef="0" IVar="-1" Cut="0.0000000000000000e+00" cType="1" res="-4.6218209899961948e-04" rms="4.5998466014862061e-01" purity="5.5665910243988037e-01" nType="-99"/>
          <Node pos="r" depth="2" NCoef="0" IVar="-1" Cut="0.0000000000000000e+00" cType="1" res="2.0159578416496515e-03" rms="4.7482621669769287e-01" purity="4.7560113668441772e-01" nType="-99"/>
        </Node>
        <Node pos="r" depth="1" NCoef="0" IVar="-1" Cut="0.0000000000000000e+00" cType="1" res="-3.5368148237466812e-03" rms="4.5915243029594421e-01" purity="3.4987875819206238e-01" nType="-99"/>
      </Node>
    </BinaryTree>
    <BinaryTree type="DecisionTree" boostWeight="1.0000000000000000e+00" itree="453">
      <Node pos="s" depth="0" NCoef="0" IVar="5" Cut="8.0626806640625000e+02" cType="1" res="1.7084671417251229e-03" rms="4.6307036280632019e-01" purity="5.0134825706481934e-01" nType="0">
        <Node pos="l" depth="1" NCoef="0" IVar="4" Cut="9.6224789740517735e-04" cType="1" res="1.5299079008400440e-02" rms="4.6134901046752930e-01" purity="4.8729297518730164e-01" nType="0">
          <Node pos="l" depth="2" NCoef="0" IVar="-1" Cut="0.0000000000000000e+00" cType="1" res="-6.9026619894430041e-04" rms="4.5780694484710693e-01" purity="5.4304391145706177e-01" nType="-99"/>
          <Node pos="r" depth="2" NCoef="0" IVar="-1" Cut="0.0000000000000000e+00" cType="1" res="2.2294516675174236e-03" rms="4.6312797069549561e-01" purity="4.4335666298866272e-01" nType="-99"/>
        </Node>
        <Node pos="r" depth="1" NCoef="0" IVar="3" Cut="1.4773068428039551e+00" cType="1" res="-2.4584840983152390e-02" rms="4.6525689959526062e-01" purity="5.2854043245315552e-01" nType="0">
          <Node pos="l" depth="2" NCoef="0" IVar="-1" Cut="0.0000000000000000e+00" cType="1" res="-2.8058877796866000e-04" rms="4.6829858422279358e-01" purity="5.8301115036010742e-01" nType="-99"/>
          <Node pos="r" depth="2" NCoef="0" IVar="-1" Cut="0.0000000000000000e+00" cType="1" res="-4.0578842163085938e-03" rms="4.5557451248168945e-01" purity="4.1106259822845459e-01" nType="-99"/>
        </Node>
      </Node>
    </BinaryTree>
    <BinaryTree type="DecisionTree" boostWeight="1.0000000000000000e+00" itree="454">
      <Node pos="s" depth="0" NCoef="0" IVar="3" Cut="2.2490439414978027e+00" cType="1" res="-1.1307382024824619e-02" rms="4.6494141221046448e-01" purity="4.8976194858551025e-01" nType="0">
        <Node pos="l" depth="1" NCoef="0" IVar="5" Cut="4.7771615600585938e+02" cType="1" res="-6.4152511768043041e-03" rms="4.6736782789230347e-01" purity="5.0654160976409912e-01" nType="0">
          <Node pos="l" depth="2" NCoef="0" IVar="-1" Cut="0.0000000000000000e+00" cType="1" res="-2.6529012247920036e-03" rms="4.4839549064636230e-01" purity="3.5480111837387085e-01" nType="-99"/>
          <Node pos="r" depth="2" NCoef="0" IVar="-1" Cut="0.0000000000000000e+00" cType="1" res="-1.1504527356009930e-04" rms="4.6944913268089294e-01" purity="5.2525568008422852e-01" nType="-99"/>
        </Node>
        <Node pos="r" depth="1" NCoef="0" IVar="-1" Cut="0.0000000000000000e+00" cType="1" res="-5.4432488977909088e-03" rms="4.1911894083023071e-01" purity="2.3342439532279968e-01" nType="-99"/>
      </Node>
    </BinaryTree>
    <BinaryTree type="DecisionTree" boostWeight="1.0000000000000000e+00" itree="455">
      <Node pos="s" depth="0" NCoef="0" IVar="3" Cut="6.7788577079772949e-01" cType="1" res="-2.7402918785810471e-03" rms="4.6178737282752991e-01" purity="4.9416580796241760e-01" nType="0">
        <Node pos="l" depth="1" NCoef="0" IVar="3" Cut="5.6967431306838989e-01" cType="1" res="5.8491822332143784e-02" rms="4.7619339823722839e-01" purity="5.6817865371704102e-01" nType="0">
          <Node pos="l" depth="2" NCoef="0" IVar="-1" Cut="0.0000000000000000e+00" cType="1" res="1.2385598383843899e-03" rms="4.9130681157112122e-01" purity="5.1152455806732178e-01" nType="-99"/>
          <Node pos="r" depth="2" NCoef="0" IVar="-1" Cut="0.0000000000000000e+00" cType="1" res="6.7792623303830624e-03" rms="4.5595243573188782e-01" purity="6.2857466936111450e-01" nType="-99"/>
        </Node>
        <Node pos="r" depth="1" NCoef="0" IVar="6" Cut="5.8017940521240234e+00" cType="1" res="-1.0811904445290565e-02" rms="4.5924609899520874e-01" purity="4.8440948128700256e-01" nType="0">
          <Node pos="l" depth="2" NCoef="0" IVar="-1" Cut="0.0000000000000000e+00" cType="1" res="-1.0531243169680238e-03" rms="4.6507555246353149e-01" purity="4.5879998803138733e-01" nType="-99"/>
          <Node pos="r" depth="2" NCoef="0" IVar="-1" Cut="0.0000000000000000e+00" cType="1" res="6.4401938579976559e-03" rms="3.6393785476684570e-01" purity="8.2374942302703857e-01" nType="-99"/>
        </Node>
      </Node>
    </BinaryTree>
    <BinaryTree type="DecisionTree" boostWeight="1.0000000000000000e+00" itree="456">
      <Node pos="s" depth="0" NCoef="0" IVar="4" Cut="1.1265593348070979e-03" cType="1" res="-8.2084268797188997e-04" rms="4.6629533171653748e-01" purity="4.9717080593109131e-01" nType="0">
        <Node pos="l" depth="1" NCoef="0" IVar="1" Cut="1.6440848112106323e+00" cType="1" res="1.0273593477904797e-02" rms="4.6399980783462524e-01" purity="5.7645672559738159e-01" nType="0">
          <Node pos="l" depth="2" NCoef="0" IVar="-1" Cut="0.0000000000000000e+00" cType="1" res="-1.9049615366384387e-04" rms="4.6060183644294739e-01" purity="5.9927916526794434e-01" nType="-99"/>
          <Node pos="r" depth="2" NCoef="0" IVar="-1" Cut="0.0000000000000000e+00" cType="1" res="3.6544147878885269e-03" rms="4.7284868359565735e-01" purity="4.9707403779029846e-01" nType="-99"/>
        </Node>
        <Node pos="r" depth="1" NCoef="0" IVar="1" Cut="2.1904335021972656e+00" cType="1" res="-1.1332916095852852e-02" rms="4.6821749210357666e-01" purity="4.2204669117927551e-01" nType="0">
          <Node pos="l" depth="2" NCoef="0" IVar="-1" Cut="0.0000000000000000e+00" cType="1" res="-1.5896344848442823e-04" rms="4.7769963741302490e-01" purity="4.5396807789802551e-01" nType="-99"/>
          <Node pos="r" depth="2" NCoef="0" IVar="-1" Cut="0.0000000000000000e+00" cType="1" res="-4.4672843068838120e-03" rms="3.9480105042457581e-01" purity="2.1018451452255249e-01" nType="-99"/>
        </Node>
      </Node>
    </BinaryTree>
    <BinaryTree type="DecisionTree" boostWeight="1.0000000000000000e+00" itree="457">
      <Node pos="s" depth="0" NCoef="0" IVar="2" Cut="7.4929398298263550e-01" cType="1" res="9.0154744684696198e-03" rms="4.6361112594604492e-01" purity="5.1204496622085571e-01" nType="0">
        <Node pos="l" depth="1" NCoef="0" IVar="0" Cut="1.9303089007735252e-02" cType="1" res="1.6379570588469505e-02" rms="4.6334677934646606e-01" purity="4.8989206552505493e-01" nType="0">
          <Node pos="l" depth="2" NCoef="0" IVar="-1" Cut="0.0000000000000000e+00" cType="1" res="-2.4372728075832129e-03" rms="4.4335937500000000e-01" purity="3.5805961489677429e-01" nType="-99"/>
          <Node pos="r" depth="2" NCoef="0" IVar="-1" Cut="0.0000000000000000e+00" cType="1" res="1.3679570984095335e-03" rms="4.6478602290153503e-01" purity="5.0200110673904419e-01" nType="-99"/>
        </Node>
        <Node pos="r" depth="1" NCoef="0" IVar="2" Cut="8.0034148693084717e-01" cType="1" res="-2.2260416299104691e-02" rms="4.6343019604682922e-01" purity="6.0612988471984863e-01" nType="0">
          <Node pos="l" depth="2" NCoef="0" IVar="-1" Cut="0.0000000000000000e+00" cType="1" res="-4.2652226984500885e-03" rms="4.7909072041511536e-01" purity="5.4828715324401855e-01" nType="-99"/>
          <Node pos="r" depth="2" NCoef="0" IVar="-1" Cut="0.0000000000000000e+00" cType="1" res="8.0223381519317627e-04" rms="4.4749069213867188e-01" purity="6.5334439277648926e-01" nType="-99"/>
        </Node>
      </Node>
    </BinaryTree>
    <BinaryTree type="DecisionTree" boostWeight="1.0000000000000000e+00" itree="458">
      <Node pos="s" depth="0" NCoef="0" IVar="6" Cut="4.8697657585144043e+00" cType="1" res="1.1043680133298039e-03" rms="4.6824756264686584e-01" purity="5.0221961736679077e-01" nType="0">
        <Node pos="l" depth="1" NCoef="0" IVar="0" Cut="4.2620357125997543e-02" cType="1" res="9.7468532621860504e-03" rms="4.7238406538963318e-01" purity="4.5907431840896606e-01" nType="0">
          <Node pos="l" depth="2" NCoef="0" IVar="-1" Cut="0.0000000000000000e+00" cType="1" res="-1.1579972924664617e-03" rms="4.6322852373123169e-01" purity="3.6527186632156372e-01" nType="-99"/>
          <Node pos="r" depth="2" NCoef="0" IVar="-1" Cut="0.0000000000000000e+00" cType="1" res="1.1475406354293227e-03" rms="4.7475257515907288e-01" purity="4.8725619912147522e-01" nType="-99"/>
        </Node>
        <Node pos="r" depth="1" NCoef="0" IVar="1" Cut="1.3433620929718018e+00" cType="1" res="-3.2305594533681870e-02" rms="4.5034348964691162e-01" purity="6.6900962591171265e-01" nType="0">
          <Node pos="l" depth="2" NCoef="0" IVar="-1" Cut="0.0000000000000000e+00" cType="1" res="-1.2356713414192200e-03" rms="4.3860119581222534e-01" purity="7.3215764760971069e-01" nType="-99"/>
          <Node pos="r" depth="2" NCoef="0" IVar="-1" Cut="0.0000000000000000e+00" cType="1" res="-4.2969123460352421e-03" rms="4.7283044457435608e-01" purity="5.3008913993835449e-01" nType="-99"/>
        </Node>
      </Node>
    </BinaryTree>
    <BinaryTree type="DecisionTree" boostWeight="1.0000000000000000e+00" itree="459">
      <Node pos="s" depth="0" NCoef="0" IVar="4" Cut="1.6214554198086262e-03" cType="1" res="1.9640292972326279e-02" rms="4.6608671545982361e-01" purity="5.2740108966827393e-01" nType="0">
        <Node pos="l" depth="1" NCoef="0" IVar="2" Cut="4.3588197231292725e-01" cType="1" res="2.9504871927201748e-03" rms="4.6368420124053955e-01" purity="5.6243443489074707e-01" nType="0">
          <Node pos="l" depth="2" NCoef="0" IVar="-1" Cut="0.0000000000000000e+00" cType="1" res="-3.1371049117296934e-03" rms="4.6057236194610596e-01" purity="3.8310366868972778e-01" nType="-99"/>
          <Node pos="r" depth="2" NCoef="0" IVar="-1" Cut="0.0000000000000000e+00" cType="1" res="7.6208636164665222e-04" rms="4.6359601616859436e-01" purity="5.8935165405273438e-01" nType="-99"/>
        </Node>
        <Node pos="r" depth="1" NCoef="0" IVar="4" Cut="3.0395938083529472e-03" cType="1" res="4.8413477838039398e-02" rms="4.6880671381950378e-01" purity="4.6700370311737061e-01" nType="0">
          <Node pos="l" depth="2" NCoef="0" IVar="-1" Cut="0.0000000000000000e+00" cType="1" res="4.5802430249750614e-03" rms="4.7158166766166687e-01" purity="5.0112116336822510e-01" nType="-99"/>
          <Node pos="r" depth="2" NCoef="0" IVar="-1" Cut="0.0000000000000000e+00" cType="1" res="2.2560956131201237e-04" rms="4.6024200320243835e-01" purity="4.0298384428024292e-01" nType="-99"/>
        </Node>
      </Node>
    </BinaryTree>
    <BinaryTree type="DecisionTree" boostWeight="1.0000000000000000e+00" itree="460">
      <Node pos="s" depth="0" NCoef="0" IVar="1" Cut="2.1457350254058838e-01" cType="1" res="6.2944521196186543e-03" rms="4.6368500590324402e-01" purity="5.0951939821243286e-01" nType="0">
        <Node pos="l" depth="1" NCoef="0" IVar="-1" Cut="0.0000000000000000e+00" cType="1" res="-2.6676596608012915e-03" rms="4.6593433618545532e-01" purity="5.4521924257278442e-01" nType="-99"/>
        <Node pos="r" depth="1" NCoef="0" IVar="4" Cut="2.5609119329601526e-03" cType="1" res="9.9527463316917419e-03" rms="4.6330878138542175e-01" purity="5.0685417652130127e-01" nType="0">
          <Node pos="l" depth="2" NCoef="0" IVar="-1" Cut="0.0000000000000000e+00" cType="1" res="2.0161905558779836e-04" rms="4.6232381463050842e-01" purity="5.2533656358718872e-01" nType="-99"/>
          <Node pos="r" depth="2" NCoef="0" IVar="-1" Cut="0.0000000000000000e+00" cType="1" res="2.2553468588739634e-03" rms="4.6617493033409119e-01" purity="4.3429517745971680e-01" nType="-99"/>
        </Node>
      </Node>
    </BinaryTree>
    <BinaryTree type="DecisionTree" boostWeight="1.0000000000000000e+00" itree="461">
      <Node pos="s" depth="0" NCoef="0" IVar="5" Cut="8.1722991943359375e+02" cType="1" res="-3.0970380175858736e-03" rms="4.6251055598258972e-01" purity="4.9831488728523254e-01" nType="0">
        <Node pos="l" depth="1" NCoef="0" IVar="5" Cut="7.2944177246093750e+02" cType="1" res="-1.5547920018434525e-02" rms="4.6106547117233276e-01" purity="4.5979315042495728e-01" nType="0">
          <Node pos="l" depth="2" NCoef="0" IVar="-1" Cut="0.0000000000000000e+00" cType="1" res="-2.7512796805240214e-04" rms="4.6057865023612976e-01" purity="4.5871520042419434e-01" nType="-99"/>
          <Node pos="r" depth="2" NCoef="0" IVar="-1" Cut="0.0000000000000000e+00" cType="1" res="-3.9483052678406239e-03" rms="4.6004134416580200e-01" purity="4.6444216370582581e-01" nType="-99"/>
        </Node>
        <Node pos="r" depth="1" NCoef="0" IVar="1" Cut="1.6472338438034058e+00" cType="1" res="2.4170570075511932e-02" rms="4.6449530124664307e-01" purity="5.8267813920974731e-01" nType="0">
          <Node pos="l" depth="2" NCoef="0" IVar="-1" Cut="0.0000000000000000e+00" cType="1" res="2.7703004889190197e-03" rms="4.6597099304199219e-01" purity="6.3300603628158569e-01" nType="-99"/>
          <Node pos="r" depth="2" NCoef="0" IVar="-1" Cut="0.0000000000000000e+00" cType="1" res="-2.3457938805222511e-03" rms="4.5289936661720276e-01" purity="3.8818949460983276e-01" nType="-99"/>
        </Node>
      </Node>
    </BinaryTree>
    <BinaryTree type="DecisionTree" boostWeight="1.0000000000000000e+00" itree="462">
      <Node pos="s" depth="0" NCoef="0" IVar="3" Cut="1.4540321826934814e+00" cType="1" res="1.9817292690277100e-02" rms="4.6323469281196594e-01" purity="5.1658946275711060e-01" nType="0">
        <Node pos="l" depth="1" NCoef="0" IVar="0" Cut="1.7356173694133759e-01" cType="1" res="3.3176559954881668e-02" rms="4.5966500043869019e-01" purity="5.6357616186141968e-01" nType="0">
          <Node pos="l" depth="2" NCoef="0" IVar="-1" Cut="0.0000000000000000e+00" cType="1" res="1.5632134163752198e-03" rms="4.6334633231163025e-01" purity="5.4135072231292725e-01" nType="-99"/>
          <Node pos="r" depth="2" NCoef="0" IVar="-1" Cut="0.0000000000000000e+00" cType="1" res="7.2956909425556660e-03" rms="4.2758399248123169e-01" purity="7.2001659870147705e-01" nType="-99"/>
        </Node>
        <Node pos="r" depth="1" NCoef="0" IVar="6" Cut="3.1697692871093750e+00" cType="1" res="-3.8258335553109646e-04" rms="4.6785667538642883e-01" purity="4.4554314017295837e-01" nType="0">
          <Node pos="l" depth="2" NCoef="0" IVar="-1" Cut="0.0000000000000000e+00" cType="1" res="2.1068758796900511e-03" rms="4.6260720491409302e-01" purity="3.4302091598510742e-01" nType="-99"/>
          <Node pos="r" depth="2" NCoef="0" IVar="-1" Cut="0.0000000000000000e+00" cType="1" res="-1.3221546541899443e-03" rms="4.7003191709518433e-01" purity="5.1183599233627319e-01" nType="-99"/>
        </Node>
      </Node>
    </BinaryTree>
    <BinaryTree type="DecisionTree" boostWeight="1.0000000000000000e+00" itree="463">
      <Node pos="s" depth="0" NCoef="0" IVar="0" Cut="1.4700537919998169e-01" cType="1" res="-1.4278574846684933e-02" rms="4.6196347475051880e-01" purity="4.9248725175857544e-01" nType="0">
        <Node pos="l" depth="1" NCoef="0" IVar="2" Cut="5.2663356065750122e-01" cType="1" res="-2.1718086674809456e-02" rms="4.6533527970314026e-01" purity="4.6123859286308289e-01" nType="0">
          <Node pos="l" depth="2" NCoef="0" IVar="-1" Cut="0.0000000000000000e+00" cType="1" res="2.9863210511393845e-04" rms="4.6163752675056458e-01" purity="4.1388258337974548e-01" nType="-99"/>
          <Node pos="r" depth="2" NCoef="0" IVar="-1" Cut="0.0000000000000000e+00" cType="1" res="-2.3523676209151745e-03" rms="4.6683156490325928e-01" purity="4.8998755216598511e-01" nType="-99"/>
        </Node>
        <Node pos="r" depth="1" NCoef="0" IVar="6" Cut="3.2794864177703857e+00" cType="1" res="1.3173142448067665e-02" rms="4.4823542237281799e-01" purity="6.0779452323913574e-01" nType="0">
          <Node pos="l" depth="2" NCoef="0" IVar="-1" Cut="0.0000000000000000e+00" cType="1" res="-2.0288394298404455e-03" rms="4.8105388879776001e-01" purity="4.0567830204963684e-01" nType="-99"/>
          <Node pos="r" depth="2" NCoef="0" IVar="-1" Cut="0.0000000000000000e+00" cType="1" res="3.5305577330291271e-03" rms="4.2162808775901794e-01" purity="7.4442505836486816e-01" nType="-99"/>
        </Node>
      </Node>
    </BinaryTree>
    <BinaryTree type="DecisionTree" boostWeight="1.0000000000000000e+00" itree="464">
      <Node pos="s" depth="0" NCoef="0" IVar="0" Cut="4.4248189777135849e-02" cType="1" res="4.1047106496989727e-03" rms="4.6376484632492065e-01" purity="5.0279933214187622e-01" nType="0">
        <Node pos="l" depth="1" NCoef="0" IVar="3" Cut="1.5485271215438843e+00" cType="1" res="-1.8459595739841461e-02" rms="4.6411454677581787e-01" purity="4.1406685113906860e-01" nType="0">
          <Node pos="l" depth="2" NCoef="0" IVar="-1" Cut="0.0000000000000000e+00" cType="1" res="3.2620399724692106e-04" rms="4.7904208302497864e-01" purity="4.8105931282043457e-01" nType="-99"/>
          <Node pos="r" depth="2" NCoef="0" IVar="-1" Cut="0.0000000000000000e+00" cType="1" res="-4.1759880259633064e-03" rms="4.2785143852233887e-01" purity="2.7698346972465515e-01" nType="-99"/>
        </Node>
        <Node pos="r" depth="1" NCoef="0" IVar="0" Cut="1.5573681890964508e-01" cType="1" res="1.1384758166968822e-02" rms="4.6341758966445923e-01" purity="5.3142762184143066e-01" nType="0">
          <Node pos="l" depth="2" NCoef="0" IVar="-1" Cut="0.0000000000000000e+00" cType="1" res="1.2942176545038819e-03" rms="4.6100842952728271e-01" purity="5.1742702722549438e-01" nType="-99"/>
          <Node pos="r" depth="2" NCoef="0" IVar="-1" Cut="0.0000000000000000e+00" cType="1" res="-1.1654231930151582e-03" rms="4.6999496221542358e-01" purity="5.7654207944869995e-01" nType="-99"/>
        </Node>
      </Node>
    </BinaryTree>
    <BinaryTree type="DecisionTree" boostWeight="1.0000000000000000e+00" itree="465">
      <Node pos="s" depth="0" NCoef="0" IVar="1" Cut="2.7145359516143799e+00" cType="1" res="-4.3932939297519624e-04" rms="4.6714061498641968e-01" purity="4.9938574433326721e-01" nType="0">
        <Node pos="l" depth="1" NCoef="0" IVar="3" Cut="1.3784139156341553e+00" cType="1" res="-4.4027785770595074e-03" rms="4.6769654750823975e-01" purity="5.0821715593338013e-01" nType="0">
          <Node pos="l" depth="2" NCoef="0" IVar="-1" Cut="0.0000000000000000e+00" cType="1" res="-1.1226788628846407e-03" rms="4.6965676546096802e-01" purity="5.2865028381347656e-01" nType="-99"/>
          <Node pos="r" depth="2" NCoef="0" IVar="-1" Cut="0.0000000000000000e+00" cType="1" res="8.2946021575480700e-04" rms="4.6449041366577148e-01" purity="4.8100703954696655e-01" nType="-99"/>
        </Node>
        <Node pos="r" depth="1" NCoef="0" IVar="-1" Cut="0.0000000000000000e+00" cType="1" res="4.2183166369795799e-03" rms="4.5422101020812988e-01" purity="3.6396649479866028e-01" nType="-99"/>
      </Node>
    </BinaryTree>
    <BinaryTree type="DecisionTree" boostWeight="1.0000000000000000e+00" itree="466">
      <Node pos="s" depth="0" NCoef="0" IVar="0" Cut="1.9999766349792480e-01" cType="1" res="-1.2805509380996227e-02" rms="4.6406531333923340e-01" purity="4.8500430583953857e-01" nType="0">
        <Node pos="l" depth="1" NCoef="0" IVar="0" Cut="1.7390862107276917e-01" cType="1" res="-8.3612855523824692e-03" rms="4.6320956945419312e-01" purity="4.7794494032859802e-01" nType="0">
          <Node pos="l" depth="2" NCoef="0" IVar="-1" Cut="0.0000000000000000e+00" cType="1" res="-7.6273479498922825e-04" rms="4.6405005455017090e-01" purity="4.6967577934265137e-01" nType="-99"/>
          <Node pos="r" depth="2" NCoef="0" IVar="-1" Cut="0.0000000000000000e+00" cType="1" res="4.0210415609180927e-03" rms="4.4328805804252625e-01" purity="6.2043005228042603e-01" nType="-99"/>
        </Node>
        <Node pos="r" depth="1" NCoef="0" IVar="-1" Cut="0.0000000000000000e+00" cType="1" res="-4.2690262198448181e-03" rms="4.7062185406684875e-01" purity="5.6280094385147095e-01" nType="-99"/>
      </Node>
    </BinaryTree>
    <BinaryTree type="DecisionTree" boostWeight="1.0000000000000000e+00" itree="467">
      <Node pos="s" depth="0" NCoef="0" IVar="5" Cut="4.7072988891601562e+02" cType="1" res="8.3056621951982379e-04" rms="4.6475297212600708e-01" purity="5.0382465124130249e-01" nType="0">
        <Node pos="l" depth="1" NCoef="0" IVar="-1" Cut="0.0000000000000000e+00" cType="1" res="-2.6854400057345629e-03" rms="4.4918513298034668e-01" purity="3.3054822683334351e-01" nType="-99"/>
        <Node pos="r" depth="1" NCoef="0" IVar="0" Cut="5.0509627908468246e-02" cType="1" res="5.0151650793850422e-03" rms="4.6602079272270203e-01" purity="5.2061039209365845e-01" nType="0">
          <Node pos="l" depth="2" NCoef="0" IVar="-1" Cut="0.0000000000000000e+00" cType="1" res="-8.6763169383630157e-04" rms="4.6491754055023193e-01" purity="4.3453350663185120e-01" nType="-99"/>
          <Node pos="r" depth="2" NCoef="0" IVar="-1" Cut="0.0000000000000000e+00" cType="1" res="8.8588643120601773e-04" rms="4.6626451611518860e-01" purity="5.5915844440460205e-01" nType="-99"/>
        </Node>
      </Node>
    </BinaryTree>
    <BinaryTree type="DecisionTree" boostWeight="1.0000000000000000e+00" itree="468">
      <Node pos="s" depth="0" NCoef="0" IVar="5" Cut="7.3106506347656250e+02" cType="1" res="8.3984769880771637e-03" rms="4.5950999855995178e-01" purity="5.0613123178482056e-01" nType="0">
        <Node pos="l" depth="1" NCoef="0" IVar="2" Cut="6.2532520294189453e-01" cType="1" res="-1.6051311045885086e-02" rms="4.5795080065727234e-01" purity="4.4324138760566711e-01" nType="0">
          <Node pos="l" depth="2" NCoef="0" IVar="-1" Cut="0.0000000000000000e+00" cType="1" res="-2.4944860488176346e-03" rms="4.4935175776481628e-01" purity="3.5855039954185486e-01" nType="-99"/>
          <Node pos="r" depth="2" NCoef="0" IVar="-1" Cut="0.0000000000000000e+00" cType="1" res="1.2850593775510788e-03" rms="4.6800974011421204e-01" purity="5.6775259971618652e-01" nType="-99"/>
        </Node>
        <Node pos="r" depth="1" NCoef="0" IVar="4" Cut="7.0899433922022581e-04" cType="1" res="3.9267010986804962e-02" rms="4.5961707830429077e-01" purity="5.8553141355514526e-01" nType="0">
          <Node pos="l" depth="2" NCoef="0" IVar="-1" Cut="0.0000000000000000e+00" cType="1" res="5.4854406043887138e-03" rms="4.3042224645614624e-01" purity="6.9885778427124023e-01" nType="-99"/>
          <Node pos="r" depth="2" NCoef="0" IVar="-1" Cut="0.0000000000000000e+00" cType="1" res="1.1153166415169835e-03" rms="4.7587835788726807e-01" purity="5.1428520679473877e-01" nType="-99"/>
        </Node>
      </Node>
    </BinaryTree>
    <BinaryTree type="DecisionTree" boostWeight="1.0000000000000000e+00" itree="469">
      <Node pos="s" depth="0" NCoef="0" IVar="2" Cut="4.0924787521362305e-01" cType="1" res="1.0565188713371754e-03" rms="4.6484974026679993e-01" purity="5.0575006008148193e-01" nType="0">
        <Node pos="l" depth="1" NCoef="0" IVar="-1" Cut="0.0000000000000000e+00" cType="1" res="4.1056829504668713e-03" rms="4.5331138372421265e-01" purity="4.3774047493934631e-01" nType="-99"/>
        <Node pos="r" depth="1" NCoef="0" IVar="1" Cut="2.6464545726776123e+00" cType="1" res="-4.9391319043934345e-03" rms="4.6551454067230225e-01" purity="5.1233476400375366e-01" nType="0">
          <Node pos="l" depth="2" NCoef="0" IVar="-1" Cut="0.0000000000000000e+00" cType="1" res="-5.4392300080507994e-04" rms="4.6700537204742432e-01" purity="5.1918947696685791e-01" nType="-99"/>
          <Node pos="r" depth="2" NCoef="0" IVar="-1" Cut="0.0000000000000000e+00" cType="1" res="3.6857677623629570e-03" rms="4.3544667959213257e-01" purity="3.9756262302398682e-01" nType="-99"/>
        </Node>
      </Node>
    </BinaryTree>
    <BinaryTree type="DecisionTree" boostWeight="1.0000000000000000e+00" itree="470">
      <Node pos="s" depth="0" NCoef="0" IVar="4" Cut="3.3294479362666607e-03" cType="1" res="1.9181866664439440e-03" rms="4.6619790792465210e-01" purity="5.0222426652908325e-01" nType="0">
        <Node pos="l" depth="1" NCoef="0" IVar="5" Cut="8.5850891113281250e+02" cType="1" res="-3.1073589343577623e-03" rms="4.6364009380340576e-01" purity="5.0743663311004639e-01" nType="0">
          <Node pos="l" depth="2" NCoef="0" IVar="-1" Cut="0.0000000000000000e+00" cType="1" res="-7.1953301085159183e-04" rms="4.6054527163505554e-01" purity="4.7889977693557739e-01" nType="-99"/>
          <Node pos="r" depth="2" NCoef="0" IVar="-1" Cut="0.0000000000000000e+00" cType="1" res="1.1180480942130089e-03" rms="4.7062942385673523e-01" purity="5.7818669080734253e-01" nType="-99"/>
        </Node>
        <Node pos="r" depth="1" NCoef="0" IVar="-1" Cut="0.0000000000000000e+00" cType="1" res="3.1376287806779146e-03" rms="4.8799911141395569e-01" purity="4.5067217946052551e-01" nType="-99"/>
      </Node>
    </BinaryTree>
    <BinaryTree type="DecisionTree" boostWeight="1.0000000000000000e+00" itree="471">
      <Node pos="s" depth="0" NCoef="0" IVar="1" Cut="1.3266407251358032e+00" cType="1" res="-3.1323258299380541e-03" rms="4.6642643213272095e-01" purity="5.0336265563964844e-01" nType="0">
        <Node pos="l" depth="1" NCoef="0" IVar="4" Cut="1.2711061863228679e-03" cType="1" res="-1.6879051923751831e-02" rms="4.6837240457534790e-01" purity="5.3546959161758423e-01" nType="0">
          <Node pos="l" depth="2" NCoef="0" IVar="-1" Cut="0.0000000000000000e+00" cType="1" res="-2.5716822128742933e-03" rms="4.6327936649322510e-01" purity="5.7275462150573730e-01" nType="-99"/>
          <Node pos="r" depth="2" NCoef="0" IVar="-1" Cut="0.0000000000000000e+00" cType="1" res="4.0262515540234745e-04" rms="4.7303476929664612e-01" purity="4.9279618263244629e-01" nType="-99"/>
        </Node>
        <Node pos="r" depth="1" NCoef="0" IVar="2" Cut="4.8297244310379028e-01" cType="1" res="2.5138927623629570e-02" rms="4.6111240983009338e-01" purity="4.3733218312263489e-01" nType="0">
          <Node pos="l" depth="2" NCoef="0" IVar="-1" Cut="0.0000000000000000e+00" cType="1" res="-1.9098480697721243e-03" rms="4.3720018863677979e-01" purity="3.0360308289527893e-01" nType="-99"/>
          <Node pos="r" depth="2" NCoef="0" IVar="-1" Cut="0.0000000000000000e+00" cType="1" res="3.0601785983890295e-03" rms="4.6871218085289001e-01" purity="4.9258914589881897e-01" nType="-99"/>
        </Node>
      </Node>
    </BinaryTree>
    <BinaryTree type="DecisionTree" boostWeight="1.0000000000000000e+00" itree="472">
      <Node pos="s" depth="0" NCoef="0" IVar="2" Cut="3.8955333828926086e-01" cType="1" res="-2.5543943047523499e-03" rms="4.6524220705032349e-01" purity="5.0207519531250000e-01" nType="0">
        <Node pos="l" depth="1" NCoef="0" IVar="-1" Cut="0.0000000000000000e+00" cType="1" res="5.0507485866546631e-03" rms="4.6556290984153748e-01" purity="4.4631817936897278e-01" nType="-99"/>
        <Node pos="r" depth="1" NCoef="0" IVar="5" Cut="5.1520214843750000e+02" cType="1" res="-7.6113399118185043e-03" rms="4.6476161479949951e-01" purity="5.0561827421188354e-01" nType="0">
          <Node pos="l" depth="2" NCoef="0" IVar="-1" Cut="0.0000000000000000e+00" cType="1" res="-3.1853490509092808e-03" rms="4.4211411476135254e-01" purity="3.6476817727088928e-01" nType="-99"/>
          <Node pos="r" depth="2" NCoef="0" IVar="-1" Cut="0.0000000000000000e+00" cType="1" res="1.3652160123456270e-04" rms="4.6905124187469482e-01" purity="5.3667008876800537e-01" nType="-99"/>
        </Node>
      </Node>
    </BinaryTree>
    <BinaryTree type="DecisionTree" boostWeight="1.0000000000000000e+00" itree="473">
      <Node pos="s" depth="0" NCoef="0" IVar="3" Cut="5.9452736377716064e-01" cType="1" res="-4.9323425628244877e-03" rms="4.6418243646621704e-01" purity="4.9710831046104431e-01" nType="0">
        <Node pos="l" depth="1" NCoef="0" IVar="-1" Cut="0.0000000000000000e+00" cType="1" res="-4.2779091745615005e-03" rms="4.7665423154830933e-01" purity="4.4581207633018494e-01" nType="-99"/>
        <Node pos="r" depth="1" NCoef="0" IVar="0" Cut="1.4390626549720764e-01" cType="1" res="1.9833620171993971e-04" rms="4.6280616521835327e-01" purity="5.0108659267425537e-01" nType="0">
          <Node pos="l" depth="2" NCoef="0" IVar="-1" Cut="0.0000000000000000e+00" cType="1" res="-5.0798483425751328e-04" rms="4.6553263068199158e-01" purity="4.6827256679534912e-01" nType="-99"/>
          <Node pos="r" depth="2" NCoef="0" IVar="-1" Cut="0.0000000000000000e+00" cType="1" res="2.1521933376789093e-03" rms="4.5126911997795105e-01" purity="6.2234848737716675e-01" nType="-99"/>
        </Node>
      </Node>
    </BinaryTree>
    <BinaryTree type="DecisionTree" boostWeight="1.0000000000000000e+00" itree="474">
      <Node pos="s" depth="0" NCoef="0" IVar="0" Cut="1.0567185282707214e-01" cType="1" res="-9.7031667828559875e-03" rms="4.6583923697471619e-01" purity="4.9355402588844299e-01" nType="0">
        <Node pos="l" depth="1" NCoef="0" IVar="2" Cut="5.9532660245895386e-01" cType="1" res="-2.3700995370745659e-02" rms="4.6971648931503296e-01" purity="4.4398763775825500e-01" nType="0">
          <Node pos="l" depth="2" NCoef="0" IVar="-1" Cut="0.0000000000000000e+00" cType="1" res="-6.4269313588738441e-04" rms="4.6706259250640869e-01" purity="4.1555985808372498e-01" nType="-99"/>
          <Node pos="r" depth="2" NCoef="0" IVar="-1" Cut="0.0000000000000000e+00" cType="1" res="-2.8357824776321650e-03" rms="4.7326692938804626e-01" purity="4.9087768793106079e-01" nType="-99"/>
        </Node>
        <Node pos="r" depth="1" NCoef="0" IVar="0" Cut="1.9835241138935089e-01" cType="1" res="1.6453851014375687e-02" rms="4.5735931396484375e-01" purity="5.8617609739303589e-01" nType="0">
          <Node pos="l" depth="2" NCoef="0" IVar="-1" Cut="0.0000000000000000e+00" cType="1" res="2.0756379235535860e-03" rms="4.5577374100685120e-01" purity="5.8546018600463867e-01" nType="-99"/>
          <Node pos="r" depth="2" NCoef="0" IVar="-1" Cut="0.0000000000000000e+00" cType="1" res="-1.9718280527740717e-03" rms="4.5937904715538025e-01" purity="5.8842462301254272e-01" nType="-99"/>
        </Node>
      </Node>
    </BinaryTree>
    <BinaryTree type="DecisionTree" boostWeight="1.0000000000000000e+00" itree="475">
      <Node pos="s" depth="0" NCoef="0" IVar="1" Cut="6.2874662876129150e-01" cType="1" res="-2.2541293874382973e-03" rms="4.6723189949989319e-01" purity="5.0150609016418457e-01" nType="0">
        <Node pos="l" depth="1" NCoef="0" IVar="1" Cut="5.4588568210601807e-01" cType="1" res="-2.5229902938008308e-02" rms="4.7178140282630920e-01" purity="5.5200886726379395e-01" nType="0">
          <Node pos="l" depth="2" NCoef="0" IVar="-1" Cut="0.0000000000000000e+00" cType="1" res="-7.1944139199331403e-04" rms="4.7114339470863342e-01" purity="5.6973874568939209e-01" nType="-99"/>
          <Node pos="r" depth="2" NCoef="0" IVar="-1" Cut="0.0000000000000000e+00" cType="1" res="-5.3805508650839329e-03" rms="4.6954795718193054e-01" purity="4.7708386182785034e-01" nType="-99"/>
        </Node>
        <Node pos="r" depth="1" NCoef="0" IVar="5" Cut="7.2080987548828125e+02" cType="1" res="7.0851850323379040e-03" rms="4.6504551172256470e-01" purity="4.8097753524780273e-01" nType="0">
          <Node pos="l" depth="2" NCoef="0" IVar="-1" Cut="0.0000000000000000e+00" cType="1" res="-6.1349157476797700e-04" rms="4.5787748694419861e-01" purity="4.2427203059196472e-01" nType="-99"/>
          <Node pos="r" depth="2" NCoef="0" IVar="-1" Cut="0.0000000000000000e+00" cType="1" res="1.7877847421914339e-03" rms="4.7304651141166687e-01" purity="5.5219590663909912e-01" nType="-99"/>
        </Node>
      </Node>
    </BinaryTree>
    <BinaryTree type="DecisionTree" boostWeight="1.0000000000000000e+00" itree="476">
      <Node pos="s" depth="0" NCoef="0" IVar="2" Cut="7.5959461927413940e-01" cType="1" res="-8.6695784702897072e-03" rms="4.6257239580154419e-01" purity="4.9526536464691162e-01" nType="0">
        <Node pos="l" depth="1" NCoef="0" IVar="5" Cut="1.1263593750000000e+03" cType="1" res="-1.4545951969921589e-02" rms="4.6567952632904053e-01" purity="4.6253424882888794e-01" nType="0">
          <Node pos="l" depth="2" NCoef="0" IVar="-1" Cut="0.0000000000000000e+00" cType="1" res="-1.2533456319943070e-03" rms="4.6484062075614929e-01" purity="4.5044982433319092e-01" nType="-99"/>
          <Node pos="r" depth="2" NCoef="0" IVar="-1" Cut="0.0000000000000000e+00" cType="1" res="2.0984492730349302e-03" rms="4.7015684843063354e-01" purity="5.6640207767486572e-01" nType="-99"/>
        </Node>
        <Node pos="r" depth="1" NCoef="0" IVar="4" Cut="4.0180917130783200e-04" cType="1" res="1.9194144755601883e-02" rms="4.4649437069892883e-01" purity="6.5046507120132446e-01" nType="0">
          <Node pos="l" depth="2" NCoef="0" IVar="-1" Cut="0.0000000000000000e+00" cType="1" res="6.2307636253535748e-03" rms="3.7119853496551514e-01" purity="7.9964429140090942e-01" nType="-99"/>
          <Node pos="r" depth="2" NCoef="0" IVar="-1" Cut="0.0000000000000000e+00" cType="1" res="-1.0464127262821421e-04" rms="4.7278276085853577e-01" purity="5.8835053443908691e-01" nType="-99"/>
        </Node>
      </Node>
    </BinaryTree>
    <BinaryTree type="DecisionTree" boostWeight="1.0000000000000000e+00" itree="477">
      <Node pos="s" depth="0" NCoef="0" IVar="2" Cut="6.7981004714965820e-01" cType="1" res="-5.0806713989004493e-04" rms="4.6721819043159485e-01" purity="5.0661945343017578e-01" nType="0">
        <Node pos="l" depth="1" NCoef="0" IVar="3" Cut="1.4111154079437256e+00" cType="1" res="1.1419336311519146e-02" rms="4.6705117821693420e-01" purity="4.7247558832168579e-01" nType="0">
          <Node pos="l" depth="2" NCoef="0" IVar="-1" Cut="0.0000000000000000e+00" cType="1" res="1.7242798348888755e-03" rms="4.6683132648468018e-01" purity="5.2635705471038818e-01" nType="-99"/>
          <Node pos="r" depth="2" NCoef="0" IVar="-1" Cut="0.0000000000000000e+00" cType="1" res="-4.9693253822624683e-04" rms="4.6658354997634888e-01" purity="4.0696385502815247e-01" nType="-99"/>
        </Node>
        <Node pos="r" depth="1" NCoef="0" IVar="1" Cut="9.9607521295547485e-01" cType="1" res="-2.4807440117001534e-02" rms="4.6661594510078430e-01" purity="5.7617968320846558e-01" nType="0">
          <Node pos="l" depth="2" NCoef="0" IVar="-1" Cut="0.0000000000000000e+00" cType="1" res="-3.3684982918202877e-03" rms="4.6382665634155273e-01" purity="5.8677041530609131e-01" nType="-99"/>
          <Node pos="r" depth="2" NCoef="0" IVar="-1" Cut="0.0000000000000000e+00" cType="1" res="1.4142267173156142e-03" rms="4.6850827336311340e-01" purity="5.5547028779983521e-01" nType="-99"/>
        </Node>
      </Node>
    </BinaryTree>
    <BinaryTree type="DecisionTree" boostWeight="1.0000000000000000e+00" itree="478">
      <Node pos="s" depth="0" NCoef="0" IVar="3" Cut="5.6056743860244751e-01" cType="1" res="-5.1939156837761402e-03" rms="4.6654072403907776e-01" purity="4.9457162618637085e-01" nType="0">
        <Node pos="l" depth="1" NCoef="0" IVar="-1" Cut="0.0000000000000000e+00" cType="1" res="-5.0158998928964138e-03" rms="4.5182138681411743e-01" purity="4.1952532529830933e-01" nType="-99"/>
        <Node pos="r" depth="1" NCoef="0" IVar="0" Cut="9.7694694995880127e-02" cType="1" res="-6.2882859492674470e-04" rms="4.6699228882789612e-01" purity="4.9899196624755859e-01" nType="0">
          <Node pos="l" depth="2" NCoef="0" IVar="-1" Cut="0.0000000000000000e+00" cType="1" res="8.6915394058451056e-04" rms="4.6660813689231873e-01" purity="4.7363844513893127e-01" nType="-99"/>
          <Node pos="r" depth="2" NCoef="0" IVar="-1" Cut="0.0000000000000000e+00" cType="1" res="-1.3846204383298755e-03" rms="4.6676811575889587e-01" purity="5.3496217727661133e-01" nType="-99"/>
        </Node>
      </Node>
    </BinaryTree>
    <BinaryTree type="DecisionTree" boostWeight="1.0000000000000000e+00" itree="479">
      <Node pos="s" depth="0" NCoef="0" IVar="4" Cut="2.0413671154528856e-03" cType="1" res="4.7531406744383276e-04" rms="4.6040761470794678e-01" purity="5.0056034326553345e-01" nType="0">
        <Node pos="l" depth="1" NCoef="0" IVar="4" Cut="1.2044548057019711e-03" cType="1" res="1.2096988968551159e-02" rms="4.5934984087944031e-01" purity="5.4934823513031006e-01" nType="0">
          <Node pos="l" depth="2" NCoef="0" IVar="-1" Cut="0.0000000000000000e+00" cType="1" res="1.9550972865545191e-05" rms="4.5886176824569702e-01" purity="5.6492757797241211e-01" nType="-99"/>
          <Node pos="r" depth="2" NCoef="0" IVar="-1" Cut="0.0000000000000000e+00" cType="1" res="2.6868868153542280e-03" rms="4.5918118953704834e-01" purity="5.0829887390136719e-01" nType="-99"/>
        </Node>
        <Node pos="r" depth="1" NCoef="0" IVar="1" Cut="1.3277585506439209e+00" cType="1" res="-2.5182617828249931e-02" rms="4.6169969439506531e-01" purity="3.9284837245941162e-01" nType="0">
          <Node pos="l" depth="2" NCoef="0" IVar="-1" Cut="0.0000000000000000e+00" cType="1" res="-2.4862638674676418e-03" rms="4.6701675653457642e-01" purity="4.2324686050415039e-01" nType="-99"/>
          <Node pos="r" depth="2" NCoef="0" IVar="-1" Cut="0.0000000000000000e+00" cType="1" res="5.2311870967969298e-04" rms="4.4981205463409424e-01" purity="3.3689653873443604e-01" nType="-99"/>
        </Node>
      </Node>
    </BinaryTree>
    <BinaryTree type="DecisionTree" boostWeight="1.0000000000000000e+00" itree="480">
      <Node pos="s" depth="0" NCoef="0" IVar="1" Cut="7.3830437660217285e-01" cType="1" res="-2.1685578394681215e-03" rms="4.6542656421661377e-01" purity="4.9577680230140686e-01" nType="0">
        <Node pos="l" depth="1" NCoef="0" IVar="2" Cut="4.9758082628250122e-01" cType="1" res="2.3846564814448357e-02" rms="4.6381023526191711e-01" purity="5.9540909528732300e-01" nType="0">
          <Node pos="l" depth="2" NCoef="0" IVar="-1" Cut="0.0000000000000000e+00" cType="1" res="5.2845086902379990e-03" rms="4.5558547973632812e-01" purity="5.9126806259155273e-01" nType="-99"/>
          <Node pos="r" depth="2" NCoef="0" IVar="-1" Cut="0.0000000000000000e+00" cType="1" res="6.1428773915395141e-04" rms="4.6473720669746399e-01" purity="5.9646630287170410e-01" nType="-99"/>
        </Node>
        <Node pos="r" depth="1" NCoef="0" IVar="1" Cut="1.0585604906082153e+00" cType="1" res="-1.6539396718144417e-02" rms="4.6569430828094482e-01" purity="4.4073963165283203e-01" nType="0">
          <Node pos="l" depth="2" NCoef="0" IVar="-1" Cut="0.0000000000000000e+00" cType="1" res="-3.2932430040091276e-03" rms="4.7690105438232422e-01" purity="4.7486674785614014e-01" nType="-99"/>
          <Node pos="r" depth="2" NCoef="0" IVar="-1" Cut="0.0000000000000000e+00" cType="1" res="-1.5249189164023846e-04" rms="4.6045625209808350e-01" purity="4.2734324932098389e-01" nType="-99"/>
        </Node>
      </Node>
    </BinaryTree>
    <BinaryTree type="DecisionTree" boostWeight="1.0000000000000000e+00" itree="481">
      <Node pos="s" depth="0" NCoef="0" IVar="3" Cut="6.2000000476837158e-01" cType="1" res="-3.2337591983377934e-03" rms="4.6697717905044556e-01" purity="4.9895274639129639e-01" nType="0">
        <Node pos="l" depth="1" NCoef="0" IVar="-1" Cut="0.0000000000000000e+00" cType="1" res="-4.0154713205993176e-03" rms="4.7701600193977356e-01" purity="4.3827608227729797e-01" nType="-99"/>
        <Node pos="r" depth="1" NCoef="0" IVar="3" Cut="1.0758827924728394e+00" cType="1" res="2.5361147709190845e-03" rms="4.6561980247497559e-01" purity="5.0452262163162231e-01" nType="0">
          <Node pos="l" depth="2" NCoef="0" IVar="-1" Cut="0.0000000000000000e+00" cType="1" res="2.2924356162548065e-03" rms="4.5865660905838013e-01" purity="5.7578843832015991e-01" nType="-99"/>
          <Node pos="r" depth="2" NCoef="0" IVar="-1" Cut="0.0000000000000000e+00" cType="1" res="-7.2967953747138381e-04" rms="4.6794575452804565e-01" purity="4.7336760163307190e-01" nType="-99"/>
        </Node>
      </Node>
    </BinaryTree>
    <BinaryTree type="DecisionTree" boostWeight="1.0000000000000000e+00" itree="482">
      <Node pos="s" depth="0" NCoef="0" IVar="1" Cut="2.0884406566619873e-01" cType="1" res="2.9441644437611103e-03" rms="4.6439221501350403e-01" purity="5.0692975521087646e-01" nType="0">
        <Node pos="l" depth="1" NCoef="0" IVar="-1" Cut="0.0000000000000000e+00" cType="1" res="4.3590534478425980e-03" rms="4.6998053789138794e-01" purity="6.4813172817230225e-01" nType="-99"/>
        <Node pos="r" depth="1" NCoef="0" IVar="6" Cut="2.8445360660552979e+00" cType="1" res="-1.0405412176623940e-03" rms="4.6374464035034180e-01" purity="4.9761295318603516e-01" nType="0">
          <Node pos="l" depth="2" NCoef="0" IVar="-1" Cut="0.0000000000000000e+00" cType="1" res="-1.3175195781514049e-03" rms="4.5240873098373413e-01" purity="3.1041154265403748e-01" nType="-99"/>
          <Node pos="r" depth="2" NCoef="0" IVar="-1" Cut="0.0000000000000000e+00" cType="1" res="4.6798412222415209e-04" rms="4.6813288331031799e-01" purity="5.7556235790252686e-01" nType="-99"/>
        </Node>
      </Node>
    </BinaryTree>
    <BinaryTree type="DecisionTree" boostWeight="1.0000000000000000e+00" itree="483">
      <Node pos="s" depth="0" NCoef="0" IVar="3" Cut="5.8976340293884277e-01" cType="1" res="1.5194813720881939e-02" rms="4.6594235301017761e-01" purity="5.1757949590682983e-01" nType="0">
        <Node pos="l" depth="1" NCoef="0" IVar="-1" Cut="0.0000000000000000e+00" cType="1" res="-3.4868333023041487e-03" rms="4.7967281937599182e-01" purity="4.4436261057853699e-01" nType="-99"/>
        <Node pos="r" depth="1" NCoef="0" IVar="4" Cut="3.1192293390631676e-03" cType="1" res="2.0597159862518311e-02" rms="4.6445587277412415e-01" purity="5.2298444509506226e-01" nType="0">
          <Node pos="l" depth="2" NCoef="0" IVar="-1" Cut="0.0000000000000000e+00" cType="1" res="8.6912984261289239e-04" rms="4.6307134628295898e-01" purity="5.2824330329895020e-01" nType="-99"/>
          <Node pos="r" depth="2" NCoef="0" IVar="-1" Cut="0.0000000000000000e+00" cType="1" res="4.8503908328711987e-03" rms="4.7116735577583313e-01" purity="4.8225802183151245e-01" nType="-99"/>
        </Node>
      </Node>
    </BinaryTree>
    <BinaryTree type="DecisionTree" boostWeight="1.0000000000000000e+00" itree="484">
      <Node pos="s" depth="0" NCoef="0" IVar="1" Cut="2.2045445442199707e+00" cType="1" res="-1.1328704655170441e-02" rms="4.6317985653877258e-01" purity="4.9030801653862000e-01" nType="0">
        <Node pos="l" depth="1" NCoef="0" IVar="6" Cut="5.4992599487304688e+00" cType="1" res="-5.0406977534294128e-03" rms="4.6741393208503723e-01" purity="5.2015626430511475e-01" nType="0">
          <Node pos="l" depth="2" NCoef="0" IVar="-1" Cut="0.0000000000000000e+00" cType="1" res="-3.0721883376827464e-05" rms="4.7072762250900269e-01" purity="4.9550405144691467e-01" nType="-99"/>
          <Node pos="r" depth="2" NCoef="0" IVar="-1" Cut="0.0000000000000000e+00" cType="1" res="-3.6716633476316929e-03" rms="4.3786570429801941e-01" purity="7.2016948461532593e-01" nType="-99"/>
        </Node>
        <Node pos="r" depth="1" NCoef="0" IVar="5" Cut="6.5157525634765625e+02" cType="1" res="-5.4615460336208344e-02" rms="4.3042442202568054e-01" purity="2.8483203053474426e-01" nType="0">
          <Node pos="l" depth="2" NCoef="0" IVar="-1" Cut="0.0000000000000000e+00" cType="1" res="-5.3934054449200630e-03" rms="4.0535029768943787e-01" purity="2.2330851852893829e-01" nType="-99"/>
          <Node pos="r" depth="2" NCoef="0" IVar="-1" Cut="0.0000000000000000e+00" cType="1" res="-1.5857615508139133e-03" rms="4.5203644037246704e-01" purity="3.4570223093032837e-01" nType="-99"/>
        </Node>
      </Node>
    </BinaryTree>
    <BinaryTree type="DecisionTree" boostWeight="1.0000000000000000e+00" itree="485">
      <Node pos="s" depth="0" NCoef="0" IVar="6" Cut="3.5198698043823242e+00" cType="1" res="-1.7789141274988651e-03" rms="4.6932023763656616e-01" purity="4.9843400716781616e-01" nType="0">
        <Node pos="l" depth="1" NCoef="0" IVar="6" Cut="2.9504032135009766e+00" cType="1" res="1.3701735064387321e-02" rms="4.7189491987228394e-01" purity="3.9456847310066223e-01" nType="0">
          <Node pos="l" depth="2" NCoef="0" IVar="-1" Cut="0.0000000000000000e+00" cType="1" res="-2.0024497644044459e-05" rms="4.6489948034286499e-01" purity="3.4516614675521851e-01" nType="-99"/>
          <Node pos="r" depth="2" NCoef="0" IVar="-1" Cut="0.0000000000000000e+00" cType="1" res="2.5108477566391230e-03" rms="4.8457327485084534e-01" purity="4.9514597654342651e-01" nType="-99"/>
        </Node>
        <Node pos="r" depth="1" NCoef="0" IVar="1" Cut="1.5342761278152466e+00" cType="1" res="-1.6298808157444000e-02" rms="4.6642568707466125e-01" purity="5.9585344791412354e-01" nType="0">
          <Node pos="l" depth="2" NCoef="0" IVar="-1" Cut="0.0000000000000000e+00" cType="1" res="-1.5256018377840519e-04" rms="4.5981770753860474e-01" purity="6.5593004226684570e-01" nType="-99"/>
          <Node pos="r" depth="2" NCoef="0" IVar="-1" Cut="0.0000000000000000e+00" cType="1" res="-3.0583657789975405e-03" rms="4.8114332556724548e-01" purity="4.4082951545715332e-01" nType="-99"/>
        </Node>
      </Node>
    </BinaryTree>
    <BinaryTree type="DecisionTree" boostWeight="1.0000000000000000e+00" itree="486">
      <Node pos="s" depth="0" NCoef="0" IVar="1" Cut="9.6518659591674805e-01" cType="1" res="5.0376360304653645e-03" rms="4.6539980173110962e-01" purity="5.0276869535446167e-01" nType="0">
        <Node pos="l" depth="1" NCoef="0" IVar="1" Cut="7.9169970750808716e-01" cType="1" res="-6.9995545782148838e-03" rms="4.6643206477165222e-01" purity="5.5001550912857056e-01" nType="0">
          <Node pos="l" depth="2" NCoef="0" IVar="-1" Cut="0.0000000000000000e+00" cType="1" res="4.5990527723915875e-04" rms="4.6407708525657654e-01" purity="5.6998640298843384e-01" nType="-99"/>
          <Node pos="r" depth="2" NCoef="0" IVar="-1" Cut="0.0000000000000000e+00" cType="1" res="-4.2699025943875313e-03" rms="4.7175788879394531e-01" purity="4.6072688698768616e-01" nType="-99"/>
        </Node>
        <Node pos="r" depth="1" NCoef="0" IVar="2" Cut="4.7334831953048706e-01" cType="1" res="1.6721114516258240e-02" rms="4.6409717202186584e-01" purity="4.5691028237342834e-01" nType="0">
          <Node pos="l" depth="2" NCoef="0" IVar="-1" Cut="0.0000000000000000e+00" cType="1" res="-1.1754991719499230e-03" rms="4.4614028930664062e-01" purity="3.2893317937850952e-01" nType="-99"/>
          <Node pos="r" depth="2" NCoef="0" IVar="-1" Cut="0.0000000000000000e+00" cType="1" res="1.8156652804464102e-03" rms="4.6939754486083984e-01" purity="5.0012230873107910e-01" nType="-99"/>
        </Node>
      </Node>
    </BinaryTree>
    <BinaryTree type="DecisionTree" boostWeight="1.0000000000000000e+00" itree="487">
      <Node pos="s" depth="0" NCoef="0" IVar="4" Cut="1.6799676232039928e-03" cType="1" res="8.4800375625491142e-03" rms="4.6129077672958374e-01" purity="5.0711381435394287e-01" nType="0">
        <Node pos="l" depth="1" NCoef="0" IVar="3" Cut="1.8442107439041138e+00" cType="1" res="2.1165683865547180e-02" rms="4.5843547582626343e-01" purity="5.6806164979934692e-01" nType="0">
          <Node pos="l" depth="2" NCoef="0" IVar="-1" Cut="0.0000000000000000e+00" cType="1" res="2.2855009883642197e-03" rms="4.5487585663795471e-01" purity="6.0951232910156250e-01" nType="-99"/>
          <Node pos="r" depth="2" NCoef="0" IVar="-1" Cut="0.0000000000000000e+00" cType="1" res="-1.8378897802904248e-03" rms="4.6964612603187561e-01" purity="3.9403977990150452e-01" nType="-99"/>
        </Node>
        <Node pos="r" depth="1" NCoef="0" IVar="4" Cut="2.2570884320884943e-03" cType="1" res="-1.2327234260737896e-02" rms="4.6518775820732117e-01" purity="4.0714588761329651e-01" nType="0">
          <Node pos="l" depth="2" NCoef="0" IVar="-1" Cut="0.0000000000000000e+00" cType="1" res="-3.1290606129914522e-03" rms="4.6983706951141357e-01" purity="3.9227193593978882e-01" nType="-99"/>
          <Node pos="r" depth="2" NCoef="0" IVar="-1" Cut="0.0000000000000000e+00" cType="1" res="2.7144062914885581e-04" rms="4.6215933561325073e-01" purity="4.1348698735237122e-01" nType="-99"/>
        </Node>
      </Node>
    </BinaryTree>
    <BinaryTree type="DecisionTree" boostWeight="1.0000000000000000e+00" itree="488">
      <Node pos="s" depth="0" NCoef="0" IVar="6" Cut="5.4590225219726562e+00" cType="1" res="1.3821098953485489e-02" rms="4.6828740835189819e-01" purity="5.2178096771240234e-01" nType="0">
        <Node pos="l" depth="1" NCoef="0" IVar="4" Cut="8.0346173490397632e-05" cType="1" res="2.2464361041784286e-02" rms="4.7027271986007690e-01" purity="4.9967801570892334e-01" nType="0">
          <Node pos="l" depth="2" NCoef="0" IVar="-1" Cut="0.0000000000000000e+00" cType="1" res="5.4584359750151634e-03" rms="4.4147148728370667e-01" purity="6.9246625900268555e-01" nType="-99"/>
          <Node pos="r" depth="2" NCoef="0" IVar="-1" Cut="0.0000000000000000e+00" cType="1" res="1.1268375674262643e-03" rms="4.7238010168075562e-01" purity="4.8328641057014465e-01" nType="-99"/>
        </Node>
        <Node pos="r" depth="1" NCoef="0" IVar="4" Cut="1.2891677033621818e-04" cType="1" res="-5.2743256092071533e-02" rms="4.4714298844337463e-01" purity="6.9200199842453003e-01" nType="0">
          <Node pos="l" depth="2" NCoef="0" IVar="-1" Cut="0.0000000000000000e+00" cType="1" res="-8.9000836014747620e-03" rms="4.5506766438484192e-01" purity="6.5923047065734863e-01" nType="-99"/>
          <Node pos="r" depth="2" NCoef="0" IVar="-1" Cut="0.0000000000000000e+00" cType="1" res="1.9649883324746042e-04" rms="4.3190976977348328e-01" purity="7.2607403993606567e-01" nType="-99"/>
        </Node>
      </Node>
    </BinaryTree>
    <BinaryTree type="DecisionTree" boostWeight="1.0000000000000000e+00" itree="489">
      <Node pos="s" depth="0" NCoef="0" IVar="4" Cut="2.7762565296143293e-03" cType="1" res="-9.0339031885378063e-05" rms="4.6539109945297241e-01" purity="5.0171947479248047e-01" nType="0">
        <Node pos="l" depth="1" NCoef="0" IVar="4" Cut="8.6436385754495859e-04" cType="1" res="-5.3986627608537674e-03" rms="4.6561664342880249e-01" purity="5.1622241735458374e-01" nType="0">
          <Node pos="l" depth="2" NCoef="0" IVar="-1" Cut="0.0000000000000000e+00" cType="1" res="5.1475351210683584e-04" rms="4.6315890550613403e-01" purity="5.8842599391937256e-01" nType="-99"/>
          <Node pos="r" depth="2" NCoef="0" IVar="-1" Cut="0.0000000000000000e+00" cType="1" res="-1.1497596278786659e-03" rms="4.6778219938278198e-01" purity="4.4125497341156006e-01" nType="-99"/>
        </Node>
        <Node pos="r" depth="1" NCoef="0" IVar="3" Cut="1.3876023292541504e+00" cType="1" res="2.5640787556767464e-02" rms="4.6343541145324707e-01" purity="4.3141874670982361e-01" nType="0">
          <Node pos="l" depth="2" NCoef="0" IVar="-1" Cut="0.0000000000000000e+00" cType="1" res="3.2361301127821207e-03" rms="4.6983441710472107e-01" purity="4.8856016993522644e-01" nType="-99"/>
          <Node pos="r" depth="2" NCoef="0" IVar="-1" Cut="0.0000000000000000e+00" cType="1" res="-7.1920623304322362e-04" rms="4.5234936475753784e-01" purity="3.5803139209747314e-01" nType="-99"/>
        </Node>
      </Node>
    </BinaryTree>
    <BinaryTree type="DecisionTree" boostWeight="1.0000000000000000e+00" itree="490">
      <Node pos="s" depth="0" NCoef="0" IVar="3" Cut="1.8895797729492188e+00" cType="1" res="-1.0306684300303459e-02" rms="4.6564120054244995e-01" purity="4.8957130312919617e-01" nType="0">
        <Node pos="l" depth="1" NCoef="0" IVar="3" Cut="1.0635613203048706e+00" cType="1" res="-1.7412509769201279e-02" rms="4.6659058332443237e-01" purity="5.0673669576644897e-01" nType="0">
          <Node pos="l" depth="2" NCoef="0" IVar="-1" Cut="0.0000000000000000e+00" cType="1" res="4.4981023529544473e-04" rms="4.6157985925674438e-01" purity="5.4380524158477783e-01" nType="-99"/>
          <Node pos="r" depth="2" NCoef="0" IVar="-1" Cut="0.0000000000000000e+00" cType="1" res="-2.2251524496823549e-03" rms="4.6942383050918579e-01" purity="4.7958523035049438e-01" nType="-99"/>
        </Node>
        <Node pos="r" depth="1" NCoef="0" IVar="0" Cut="5.1846124231815338e-02" cType="1" res="2.5850631296634674e-02" rms="4.5907959342002869e-01" purity="4.0222701430320740e-01" nType="0">
          <Node pos="l" depth="2" NCoef="0" IVar="-1" Cut="0.0000000000000000e+00" cType="1" res="-7.5466081034392118e-04" rms="4.3342906236648560e-01" purity="3.0063027143478394e-01" nType="-99"/>
          <Node pos="r" depth="2" NCoef="0" IVar="-1" Cut="0.0000000000000000e+00" cType="1" res="2.9361220076680183e-03" rms="4.7136101126670837e-01" purity="4.5813795924186707e-01" nType="-99"/>
        </Node>
      </Node>
    </BinaryTree>
    <BinaryTree type="DecisionTree" boostWeight="1.0000000000000000e+00" itree="491">
      <Node pos="s" depth="0" NCoef="0" IVar="1" Cut="1.6837443113327026e+00" cType="1" res="4.2390488088130951e-03" rms="4.6235090494155884e-01" purity="5.0488853454589844e-01" nType="0">
        <Node pos="l" depth="1" NCoef="0" IVar="0" Cut="1.6777878999710083e-01" cType="1" res="1.4652996324002743e-02" rms="4.6365365386009216e-01" purity="5.5093055963516235e-01" nType="0">
          <Node pos="l" depth="2" NCoef="0" IVar="-1" Cut="0.0000000000000000e+00" cType="1" res="1.5531970420852304e-03" rms="4.6177959442138672e-01" purity="5.4560786485671997e-01" nType="-99"/>
          <Node pos="r" depth="2" NCoef="0" IVar="-1" Cut="0.0000000000000000e+00" cType="1" res="-2.5872488040477037e-03" rms="4.7042575478553772e-01" purity="5.8023154735565186e-01" nType="-99"/>
        </Node>
        <Node pos="r" depth="1" NCoef="0" IVar="1" Cut="1.9929788112640381e+00" cType="1" res="-2.9939591884613037e-02" rms="4.5638257265090942e-01" purity="3.5377836227416992e-01" nType="0">
          <Node pos="l" depth="2" NCoef="0" IVar="-1" Cut="0.0000000000000000e+00" cType="1" res="-4.6043293550610542e-03" rms="4.5866218209266663e-01" purity="3.6145016551017761e-01" nType="-99"/>
          <Node pos="r" depth="2" NCoef="0" IVar="-1" Cut="0.0000000000000000e+00" cType="1" res="-4.7070777509361506e-04" rms="4.5355519652366638e-01" purity="3.5028547048568726e-01" nType="-99"/>
        </Node>
      </Node>
    </BinaryTree>
    <BinaryTree type="DecisionTree" boostWeight="1.0000000000000000e+00" itree="492">
      <Node pos="s" depth="0" NCoef="0" IVar="4" Cut="1.5401871642097831e-03" cType="1" res="-3.4457836300134659e-03" rms="4.6698498725891113e-01" purity="4.9794515967369080e-01" nType="0">
        <Node pos="l" depth="1" NCoef="0" IVar="6" Cut="5.4033002853393555e+00" cType="1" res="7.6081366278231144e-03" rms="4.6617606282234192e-01" purity="5.6251853704452515e-01" nType="0">
          <Node pos="l" depth="2" NCoef="0" IVar="-1" Cut="0.0000000000000000e+00" cType="1" res="1.1751500423997641e-03" rms="4.7053167223930359e-01" purity="5.3371542692184448e-01" nType="-99"/>
          <Node pos="r" depth="2" NCoef="0" IVar="-1" Cut="0.0000000000000000e+00" cType="1" res="-3.2015561591833830e-03" rms="4.4302695989608765e-01" purity="6.9179135560989380e-01" nType="-99"/>
        </Node>
        <Node pos="r" depth="1" NCoef="0" IVar="6" Cut="4.5306239128112793e+00" cType="1" res="-1.9313152879476547e-02" rms="4.6768724918365479e-01" purity="4.0525317192077637e-01" nType="0">
          <Node pos="l" depth="2" NCoef="0" IVar="-1" Cut="0.0000000000000000e+00" cType="1" res="-6.7285372642800212e-04" rms="4.6699205040931702e-01" purity="3.8749819993972778e-01" nType="-99"/>
          <Node pos="r" depth="2" NCoef="0" IVar="-1" Cut="0.0000000000000000e+00" cType="1" res="-4.6210186555981636e-03" rms="4.6877047419548035e-01" purity="5.3309875726699829e-01" nType="-99"/>
        </Node>
      </Node>
    </BinaryTree>
    <BinaryTree type="DecisionTree" boostWeight="1.0000000000000000e+00" itree="493">
      <Node pos="s" depth="0" NCoef="0" IVar="1" Cut="1.3070595264434814e+00" cType="1" res="-1.2175095267593861e-02" rms="4.6317300200462341e-01" purity="4.8616832494735718e-01" nType="0">
        <Node pos="l" depth="1" NCoef="0" IVar="0" Cut="4.8564415425062180e-02" cType="1" res="-2.6854673400521278e-02" rms="4.6516418457031250e-01" purity="5.1913541555404663e-01" nType="0">
          <Node pos="l" depth="2" NCoef="0" IVar="-1" Cut="0.0000000000000000e+00" cType="1" res="-3.8269702345132828e-03" rms="4.6755868196487427e-01" purity="4.2586320638656616e-01" nType="-99"/>
          <Node pos="r" depth="2" NCoef="0" IVar="-1" Cut="0.0000000000000000e+00" cType="1" res="-9.7005901625379920e-04" rms="4.6374958753585815e-01" purity="5.4925084114074707e-01" nType="-99"/>
        </Node>
        <Node pos="r" depth="1" NCoef="0" IVar="2" Cut="5.8910608291625977e-01" cType="1" res="1.5214393846690655e-02" rms="4.5817899703979492e-01" purity="4.2465761303901672e-01" nType="0">
          <Node pos="l" depth="2" NCoef="0" IVar="-1" Cut="0.0000000000000000e+00" cType="1" res="-5.5997149320319295e-04" rms="4.4380724430084229e-01" purity="3.5349988937377930e-01" nType="-99"/>
          <Node pos="r" depth="2" NCoef="0" IVar="-1" Cut="0.0000000000000000e+00" cType="1" res="3.3682379871606827e-03" rms="4.7697484493255615e-01" purity="5.3349077701568604e-01" nType="-99"/>
        </Node>
      </Node>
    </BinaryTree>
    <BinaryTree type="DecisionTree" boostWeight="1.0000000000000000e+00" itree="494">
      <Node pos="s" depth="0" NCoef="0" IVar="1" Cut="2.1166656911373138e-01" cType="1" res="-1.8182016210630536e-03" rms="4.6378937363624573e-01" purity="4.9838924407958984e-01" nType="0">
        <Node pos="l" depth="1" NCoef="0" IVar="-1" Cut="0.0000000000000000e+00" cType="1" res="-6.1555681750178337e-03" rms="4.6186465024948120e-01" purity="4.9797835946083069e-01" nType="-99"/>
        <Node pos="r" depth="1" NCoef="0" IVar="1" Cut="1.6107211112976074e+00" cType="1" res="3.9398120716214180e-03" rms="4.6329873800277710e-01" purity="4.9841487407684326e-01" nType="0">
          <Node pos="l" depth="2" NCoef="0" IVar="-1" Cut="0.0000000000000000e+00" cType="1" res="9.4121298752725124e-04" rms="4.6580708026885986e-01" purity="5.5053633451461792e-01" nType="-99"/>
          <Node pos="r" depth="2" NCoef="0" IVar="-1" Cut="0.0000000000000000e+00" cType="1" res="-1.4931220794096589e-03" rms="4.5535862445831299e-01" purity="3.5950446128845215e-01" nType="-99"/>
        </Node>
      </Node>
    </BinaryTree>
    <BinaryTree type="DecisionTree" boostWeight="1.0000000000000000e+00" itree="495">
      <Node pos="s" depth="0" NCoef="0" IVar="5" Cut="9.0240081787109375e+02" cType="1" res="1.0652723722159863e-03" rms="4.6415689587593079e-01" purity="5.0467783212661743e-01" nType="0">
        <Node pos="l" depth="1" NCoef="0" IVar="5" Cut="4.4469885253906250e+02" cType="1" res="1.0339627042412758e-02" rms="4.5977717638015747e-01" purity="4.9453735351562500e-01" nType="0">
          <Node pos="l" depth="2" NCoef="0" IVar="-1" Cut="0.0000000000000000e+00" cType="1" res="-2.4927384220063686e-03" rms="4.2010104656219482e-01" purity="3.0893582105636597e-01" nType="-99"/>
          <Node pos="r" depth="2" NCoef="0" IVar="-1" Cut="0.0000000000000000e+00" cType="1" res="9.5403619343414903e-04" rms="4.6291899681091309e-01" purity="5.1119643449783325e-01" nType="-99"/>
        </Node>
        <Node pos="r" depth="1" NCoef="0" IVar="1" Cut="8.9084655046463013e-01" cType="1" res="-2.6771651580929756e-02" rms="4.7597718238830566e-01" purity="5.3511434793472290e-01" nType="0">
          <Node pos="l" depth="2" NCoef="0" IVar="-1" Cut="0.0000000000000000e+00" cType="1" res="-4.0587573312222958e-03" rms="4.7739785909652710e-01" purity="5.5661916732788086e-01" nType="-99"/>
          <Node pos="r" depth="2" NCoef="0" IVar="-1" Cut="0.0000000000000000e+00" cType="1" res="7.0546893402934074e-04" rms="4.7146466374397278e-01" purity="5.1161819696426392e-01" nType="-99"/>
        </Node>
      </Node>
    </BinaryTree>
    <BinaryTree type="DecisionTree" boostWeight="1.0000000000000000e+00" itree="496">
      <Node pos="s" depth="0" NCoef="0" IVar="3" Cut="7.3782265186309814e-01" cType="1" res="1.7113520298153162e-03" rms="4.6574375033378601e-01" purity="5.0911599397659302e-01" nType="0">
        <Node pos="l" depth="1" NCoef="0" IVar="2" Cut="6.5452229976654053e-01" cType="1" res="2.6167176663875580e-02" rms="4.7491583228111267e-01" purity="5.5644673109054565e-01" nType="0">
          <Node pos="l" depth="2" NCoef="0" IVar="-1" Cut="0.0000000000000000e+00" cType="1" res="3.6262946669012308e-03" rms="4.8188364505767822e-01" purity="5.3154671192169189e-01" nType="-99"/>
          <Node pos="r" depth="2" NCoef="0" IVar="-1" Cut="0.0000000000000000e+00" cType="1" res="-6.8368541542440653e-04" rms="4.6404525637626648e-01" purity="5.8534532785415649e-01" nType="-99"/>
        </Node>
        <Node pos="r" depth="1" NCoef="0" IVar="3" Cut="8.2350671291351318e-01" cType="1" res="-2.6231622323393822e-03" rms="4.6396473050117493e-01" purity="5.0072723627090454e-01" nType="0">
          <Node pos="l" depth="2" NCoef="0" IVar="-1" Cut="0.0000000000000000e+00" cType="1" res="-3.4362755250185728e-03" rms="4.7013396024703979e-01" purity="4.9937677383422852e-01" nType="-99"/>
          <Node pos="r" depth="2" NCoef="0" IVar="-1" Cut="0.0000000000000000e+00" cType="1" res="7.8173783549573272e-05" rms="4.6327978372573853e-01" purity="5.0082474946975708e-01" nType="-99"/>
        </Node>
      </Node>
    </BinaryTree>
    <BinaryTree type="DecisionTree" boostWeight="1.0000000000000000e+00" itree="497">
      <Node pos="s" depth="0" NCoef="0" IVar="3" Cut="2.0069105625152588e+00" cType="1" res="-1.6191352158784866e-02" rms="4.6784919500350952e-01" purity="4.8376789689064026e-01" nType="0">
        <Node pos="l" depth="1" NCoef="0" IVar="2" Cut="8.3374357223510742e-01" cType="1" res="-2.3000968620181084e-02" rms="4.6773272752761841e-01" purity="4.9682751297950745e-01" nType="0">
          <Node pos="l" depth="2" NCoef="0" IVar="-1" Cut="0.0000000000000000e+00" cType="1" res="-1.7201978480443358e-03" rms="4.6991237998008728e-01" purity="4.8325291275978088e-01" nType="-99"/>
          <Node pos="r" depth="2" NCoef="0" IVar="-1" Cut="0.0000000000000000e+00" cType="1" res="3.4256060607731342e-03" rms="4.2843744158744812e-01" purity="6.9736844301223755e-01" nType="-99"/>
        </Node>
        <Node pos="r" depth="1" NCoef="0" IVar="3" Cut="2.2610328197479248e+00" cType="1" res="3.3211745321750641e-02" rms="4.6572127938270569e-01" purity="3.8902169466018677e-01" nType="0">
          <Node pos="l" depth="2" NCoef="0" IVar="-1" Cut="0.0000000000000000e+00" cType="1" res="5.6910840794444084e-03" rms="4.8893395066261292e-01" purity="4.9032869935035706e-01" nType="-99"/>
          <Node pos="r" depth="2" NCoef="0" IVar="-1" Cut="0.0000000000000000e+00" cType="1" res="-1.5450688078999519e-03" rms="4.3332591652870178e-01" purity="2.8459748625755310e-01" nType="-99"/>
        </Node>
      </Node>
    </BinaryTree>
    <BinaryTree type="DecisionTree" boostWeight="1.0000000000000000e+00" itree="498">
      <Node pos="s" depth="0" NCoef="0" IVar="6" Cut="4.8007378578186035e+00" cType="1" res="-8.1699199654394761e-06" rms="4.6124279499053955e-01" purity="4.9867698550224304e-01" nType="0">
        <Node pos="l" depth="1" NCoef="0" IVar="3" Cut="2.1193156242370605e+00" cType="1" res="-1.1620228178799152e-02" rms="4.7058743238449097e-01" purity="4.3740570545196533e-01" nType="0">
          <Node pos="l" depth="2" NCoef="0" IVar="-1" Cut="0.0000000000000000e+00" cType="1" res="-9.3838432803750038e-04" rms="4.7250878810882568e-01" purity="4.4938778877258301e-01" nType="-99"/>
          <Node pos="r" depth="2" NCoef="0" IVar="-1" Cut="0.0000000000000000e+00" cType="1" res="1.9222155679017305e-03" rms="4.4903656840324402e-01" purity="3.1756773591041565e-01" nType="-99"/>
        </Node>
        <Node pos="r" depth="1" NCoef="0" IVar="4" Cut="9.0429856209084392e-04" cType="1" res="4.5808609575033188e-02" rms="4.1923347115516663e-01" purity="7.4043011665344238e-01" nType="0">
          <Node pos="l" depth="2" NCoef="0" IVar="-1" Cut="0.0000000000000000e+00" cType="1" res="5.7041491381824017e-03" rms="4.0069621801376343e-01" purity="7.7829802036285400e-01" nType="-99"/>
          <Node pos="r" depth="2" NCoef="0" IVar="-1" Cut="0.0000000000000000e+00" cType="1" res="-1.1655956041067839e-03" rms="4.6243628859519958e-01" purity="6.3225901126861572e-01" nType="-99"/>
        </Node>
      </Node>
    </BinaryTree>
    <BinaryTree type="DecisionTree" boostWeight="1.0000000000000000e+00" itree="499">
      <Node pos="s" depth="0" NCoef="0" IVar="0" Cut="3.5630393773317337e-02" cType="1" res="-7.6192575506865978e-03" rms="4.6567100286483765e-01" purity="4.9416342377662659e-01" nType="0">
        <Node pos="l" depth="1" NCoef="0" IVar="4" Cut="7.9033052315935493e-04" cType="1" res="2.2961733862757683e-02" rms="4.6684533357620239e-01" purity="4.5148092508316040e-01" nType="0">
          <Node pos="l" depth="2" NCoef="0" IVar="-1" Cut="0.0000000000000000e+00" cType="1" res="4.2264834046363831e-03" rms="4.6195781230926514e-01" purity="5.6502377986907959e-01" nType="-99"/>
          <Node pos="r" depth="2" NCoef="0" IVar="-1" Cut="0.0000000000000000e+00" cType="1" res="-1.1333837028359994e-04" rms="4.6806028485298157e-01" purity="3.8228702545166016e-01" nType="-99"/>
        </Node>
        <Node pos="r" depth="1" NCoef="0" IVar="1" Cut="2.1028509140014648e+00" cType="1" res="-1.4071653597056866e-02" rms="4.6516606211662292e-01" purity="5.0316917896270752e-01" nType="0">
          <Node pos="l" depth="2" NCoef="0" IVar="-1" Cut="0.0000000000000000e+00" cType="1" res="-1.2626654934138060e-03" rms="4.6555024385452271e-01" purity="5.1893395185470581e-01" nType="-99"/>
          <Node pos="r" depth="2" NCoef="0" IVar="-1" Cut="0.0000000000000000e+00" cType="1" res="1.5954987611621618e-03" rms="4.6055349707603455e-01" purity="3.9307734370231628e-01" nType="-99"/>
        </Node>
      </Node>
    </BinaryTree>
    <BinaryTree type="DecisionTree" boostWeight="1.0000000000000000e+00" itree="500">
      <Node pos="s" depth="0" NCoef="0" IVar="2" Cut="3.9124959707260132e-01" cType="1" res="3.5956739448010921e-03" rms="4.6076020598411560e-01" purity="5.0489687919616699e-01" nType="0">
        <Node pos="l" depth="1" NCoef="0" IVar="-1" Cut="0.0000000000000000e+00" cType="1" res="-4.4169072061777115e-03" rms="4.1827633976936340e-01" purity="3.1154137849807739e-01" nType="-99"/>
        <Node pos="r" depth="1" NCoef="0" IVar="0" Cut="2.3247722536325455e-02" cType="1" res="9.0070879086852074e-03" rms="4.6319013833999634e-01" purity="5.1878392696380615e-01" nType="0">
          <Node pos="l" depth="2" NCoef="0" IVar="-1" Cut="0.0000000000000000e+00" cType="1" res="4.6465429477393627e-03" rms="4.6743914484977722e-01" purity="5.0604122877120972e-01" nType="-99"/>
          <Node pos="r" depth="2" NCoef="0" IVar="-1" Cut="0.0000000000000000e+00" cType="1" res="3.0176865402609110e-04" rms="4.6257925033569336e-01" purity="5.1963865756988525e-01" nType="-99"/>
        </Node>
      </Node>
    </BinaryTree>
    <BinaryTree type="DecisionTree" boostWeight="1.0000000000000000e+00" itree="501">
      <Node pos="s" depth="0" NCoef="0" IVar="2" Cut="6.5840709209442139e-01" cType="1" res="1.8946622731164098e-03" rms="4.6694493293762207e-01" purity="5.0594872236251831e-01" nType="0">
        <Node pos="l" depth="1" NCoef="0" IVar="2" Cut="6.3162857294082642e-01" cType="1" res="1.2407881207764149e-02" rms="4.6874159574508667e-01" purity="4.6658450365066528e-01" nType="0">
          <Node pos="l" depth="2" NCoef="0" IVar="-1" Cut="0.0000000000000000e+00" cType="1" res="3.8473322638310492e-04" rms="4.6823462843894958e-01" purity="4.5218268036842346e-01" nType="-99"/>
          <Node pos="r" depth="2" NCoef="0" IVar="-1" Cut="0.0000000000000000e+00" cType="1" res="4.6898536384105682e-03" rms="4.6939930319786072e-01" purity="6.0205274820327759e-01" nType="-99"/>
        </Node>
        <Node pos="r" depth="1" NCoef="0" IVar="2" Cut="7.4289274215698242e-01" cType="1" res="-1.6488634049892426e-02" rms="4.6321356296539307e-01" purity="5.7478064298629761e-01" nType="0">
          <Node pos="l" depth="2" NCoef="0" IVar="-1" Cut="0.0000000000000000e+00" cType="1" res="-2.8047829400748014e-03" rms="4.6884804964065552e-01" purity="5.1182544231414795e-01" nType="-99"/>
          <Node pos="r" depth="2" NCoef="0" IVar="-1" Cut="0.0000000000000000e+00" cType="1" res="4.0483500924892724e-04" rms="4.5733183622360229e-01" purity="6.2659257650375366e-01" nType="-99"/>
        </Node>
      </Node>
    </BinaryTree>
    <BinaryTree type="DecisionTree" boostWeight="1.0000000000000000e+00" itree="502">
      <Node pos="s" depth="0" NCoef="0" IVar="6" Cut="3.4348881244659424e+00" cType="1" res="-2.0246359053999186e-03" rms="4.6579506993293762e-01" purity="4.9768444895744324e-01" nType="0">
        <Node pos="l" depth="1" NCoef="0" IVar="6" Cut="2.5011482238769531e+00" cType="1" res="1.3705429621040821e-02" rms="4.6313974261283875e-01" purity="3.8351997733116150e-01" nType="0">
          <Node pos="l" depth="2" NCoef="0" IVar="-1" Cut="0.0000000000000000e+00" cType="1" res="-1.1926773004233837e-03" rms="4.4449412822723389e-01" purity="2.9646143317222595e-01" nType="-99"/>
          <Node pos="r" depth="2" NCoef="0" IVar="-1" Cut="0.0000000000000000e+00" cType="1" res="2.6391355786472559e-03" rms="4.7776430845260620e-01" purity="4.6376085281372070e-01" nType="-99"/>
        </Node>
        <Node pos="r" depth="1" NCoef="0" IVar="3" Cut="8.3242243528366089e-01" cType="1" res="-1.5149110928177834e-02" rms="4.6759426593780518e-01" purity="5.9293824434280396e-01" nType="0">
          <Node pos="l" depth="2" NCoef="0" IVar="-1" Cut="0.0000000000000000e+00" cType="1" res="-3.3128662034869194e-03" rms="4.7581326961517334e-01" purity="5.8132839202880859e-01" nType="-99"/>
          <Node pos="r" depth="2" NCoef="0" IVar="-1" Cut="0.0000000000000000e+00" cType="1" res="-3.4864115878008306e-04" rms="4.6482557058334351e-01" purity="5.9612172842025757e-01" nType="-99"/>
        </Node>
      </Node>
    </BinaryTree>
    <BinaryTree type="DecisionTree" boostWeight="1.0000000000000000e+00" itree="503">
      <Node pos="s" depth="0" NCoef="0" IVar="4" Cut="4.8824644181877375e-04" cType="1" res="3.1428076326847076e-03" rms="4.6237608790397644e-01" purity="5.0654339790344238e-01" nType="0">
        <Node pos="l" depth="1" NCoef="0" IVar="5" Cut="5.5731066894531250e+02" cType="1" res="2.8726922348141670e-02" rms="4.5035937428474426e-01" purity="6.3631784915924072e-01" nType="0">
          <Node pos="l" depth="2" NCoef="0" IVar="-1" Cut="0.0000000000000000e+00" cType="1" res="4.7287810593843460e-03" rms="4.6794605255126953e-01" purity="5.9518450498580933e-01" nType="-99"/>
          <Node pos="r" depth="2" NCoef="0" IVar="-1" Cut="0.0000000000000000e+00" cType="1" res="1.2634801678359509e-03" rms="4.4437855482101440e-01" purity="6.4839220046997070e-01" nType="-99"/>
        </Node>
        <Node pos="r" depth="1" NCoef="0" IVar="0" Cut="3.4211367368698120e-02" cType="1" res="-7.6819164678454399e-03" rms="4.6694555878639221e-01" purity="4.5163547992706299e-01" nType="0">
          <Node pos="l" depth="2" NCoef="0" IVar="-1" Cut="0.0000000000000000e+00" cType="1" res="-2.5570946745574474e-03" rms="4.5284870266914368e-01" purity="3.4216570854187012e-01" nType="-99"/>
          <Node pos="r" depth="2" NCoef="0" IVar="-1" Cut="0.0000000000000000e+00" cType="1" res="-4.1456405597273260e-05" rms="4.6938902139663696e-01" purity="4.7345006465911865e-01" nType="-99"/>
        </Node>
      </Node>
    </BinaryTree>
    <BinaryTree type="DecisionTree" boostWeight="1.0000000000000000e+00" itree="504">
      <Node pos="s" depth="0" NCoef="0" IVar="6" Cut="1.8993031978607178e+00" cType="1" res="-4.2315963655710220e-03" rms="4.6445178985595703e-01" purity="4.9856993556022644e-01" nType="0">
        <Node pos="l" depth="1" NCoef="0" IVar="-1" Cut="0.0000000000000000e+00" cType="1" res="-3.4000561572611332e-03" rms="4.1972002387046814e-01" purity="2.4615526199340820e-01" nType="-99"/>
        <Node pos="r" depth="1" NCoef="0" IVar="0" Cut="1.6907729208469391e-01" cType="1" res="8.0605380935594440e-04" rms="4.6863263845443726e-01" purity="5.2516609430313110e-01" nType="0">
          <Node pos="l" depth="2" NCoef="0" IVar="-1" Cut="0.0000000000000000e+00" cType="1" res="3.9779327926225960e-04" rms="4.6688973903656006e-01" purity="5.1343971490859985e-01" nType="-99"/>
          <Node pos="r" depth="2" NCoef="0" IVar="-1" Cut="0.0000000000000000e+00" cType="1" res="-2.3682629689574242e-03" rms="4.7805863618850708e-01" purity="5.9938555955886841e-01" nType="-99"/>
        </Node>
      </Node>
    </BinaryTree>
    <BinaryTree type="DecisionTree" boostWeight="1.0000000000000000e+00" itree="505">
      <Node pos="s" depth="0" NCoef="0" IVar="4" Cut="2.6129574980586767e-03" cType="1" res="-1.4418985228985548e-03" rms="4.6540370583534241e-01" purity="4.9499469995498657e-01" nType="0">
        <Node pos="l" depth="1" NCoef="0" IVar="4" Cut="2.1842126734554768e-03" cType="1" res="8.2225520163774490e-03" rms="4.6580487489700317e-01" purity="5.2752619981765747e-01" nType="0">
          <Node pos="l" depth="2" NCoef="0" IVar="-1" Cut="0.0000000000000000e+00" cType="1" res="2.5805388577282429e-04" rms="4.6525871753692627e-01" purity="5.3117156028747559e-01" nType="-99"/>
          <Node pos="r" depth="2" NCoef="0" IVar="-1" Cut="0.0000000000000000e+00" cType="1" res="3.4287746530026197e-03" rms="4.6912604570388794e-01" purity="4.8804870247840881e-01" nType="-99"/>
        </Node>
        <Node pos="r" depth="1" NCoef="0" IVar="1" Cut="7.5198477506637573e-01" cType="1" res="-4.1270464658737183e-02" rms="4.6161660552024841e-01" purity="3.6092782020568848e-01" nType="0">
          <Node pos="l" depth="2" NCoef="0" IVar="-1" Cut="0.0000000000000000e+00" cType="1" res="-4.8485724255442619e-03" rms="4.7080561518669128e-01" purity="3.8786417245864868e-01" nType="-99"/>
          <Node pos="r" depth="2" NCoef="0" IVar="-1" Cut="0.0000000000000000e+00" cType="1" res="-9.4267760869115591e-04" rms="4.5441526174545288e-01" purity="3.4582480788230896e-01" nType="-99"/>
        </Node>
      </Node>
    </BinaryTree>
    <BinaryTree type="DecisionTree" boostWeight="1.0000000000000000e+00" itree="506">
      <Node pos="s" depth="0" NCoef="0" IVar="4" Cut="1.5429200138896704e-03" cType="1" res="2.8330464847385883e-03" rms="4.6615633368492126e-01" purity="5.0362533330917358e-01" nType="0">
        <Node pos="l" depth="1" NCoef="0" IVar="4" Cut="1.1874914634972811e-03" cType="1" res="2.0348524674773216e-02" rms="4.6287107467651367e-01" purity="5.7796287536621094e-01" nType="0">
          <Node pos="l" depth="2" NCoef="0" IVar="-1" Cut="0.0000000000000000e+00" cType="1" res="8.1442191731184721e-04" rms="4.6064409613609314e-01" purity="5.8257746696472168e-01" nType="-99"/>
          <Node pos="r" depth="2" NCoef="0" IVar="-1" Cut="0.0000000000000000e+00" cType="1" res="4.8845736309885979e-03" rms="4.7324371337890625e-01" purity="5.4863190650939941e-01" nType="-99"/>
        </Node>
        <Node pos="r" depth="1" NCoef="0" IVar="2" Cut="6.1308825016021729e-01" cType="1" res="-2.0865047350525856e-02" rms="4.6952575445175171e-01" purity="4.0304809808731079e-01" nType="0">
          <Node pos="l" depth="2" NCoef="0" IVar="-1" Cut="0.0000000000000000e+00" cType="1" res="1.9679442630149424e-04" rms="4.6396249532699585e-01" purity="3.6332491040229797e-01" nType="-99"/>
          <Node pos="r" depth="2" NCoef="0" IVar="-1" Cut="0.0000000000000000e+00" cType="1" res="-2.6606828905642033e-03" rms="4.7403484582901001e-01" purity="4.4541186094284058e-01" nType="-99"/>
        </Node>
      </Node>
    </BinaryTree>
    <BinaryTree type="DecisionTree" boostWeight="1.0000000000000000e+00" itree="507">
      <Node pos="s" depth="0" NCoef="0" IVar="2" Cut="8.1992954015731812e-01" cType="1" res="-5.8904625475406647e-03" rms="4.6463844180107117e-01" purity="4.9479016661643982e-01" nType="0">
        <Node pos="l" depth="1" NCoef="0" IVar="2" Cut="5.1551228761672974e-01" cType="1" res="-1.0843007825314999e-02" rms="4.6700847148895264e-01" purity="4.7553968429565430e-01" nType="0">
          <Node pos="l" depth="2" NCoef="0" IVar="-1" Cut="0.0000000000000000e+00" cType="1" res="1.1091651394963264e-03" rms="4.5715627074241638e-01" purity="4.2939612269401550e-01" nType="-99"/>
          <Node pos="r" depth="2" NCoef="0" IVar="-1" Cut="0.0000000000000000e+00" cType="1" res="-1.5417445683851838e-03" rms="4.7101685404777527e-01" purity="4.9747762084007263e-01" nType="-99"/>
        </Node>
        <Node pos="r" depth="1" NCoef="0" IVar="-1" Cut="0.0000000000000000e+00" cType="1" res="3.5730302333831787e-03" rms="4.3455186486244202e-01" purity="7.0325881242752075e-01" nType="-99"/>
      </Node>
    </BinaryTree>
    <BinaryTree type="DecisionTree" boostWeight="1.0000000000000000e+00" itree="508">
      <Node pos="s" depth="0" NCoef="0" IVar="1" Cut="2.1906077861785889e+00" cType="1" res="5.6239268742501736e-03" rms="4.6262913942337036e-01" purity="5.0436800718307495e-01" nType="0">
        <Node pos="l" depth="1" NCoef="0" IVar="0" Cut="9.8596237599849701e-02" cType="1" res="1.0417019948363304e-02" rms="4.6584445238113403e-01" purity="5.3060287237167358e-01" nType="0">
          <Node pos="l" depth="2" NCoef="0" IVar="-1" Cut="0.0000000000000000e+00" cType="1" res="1.3914403971284628e-03" rms="4.6977475285530090e-01" purity="5.0459182262420654e-01" nType="-99"/>
          <Node pos="r" depth="2" NCoef="0" IVar="-1" Cut="0.0000000000000000e+00" cType="1" res="-3.7843571044504642e-04" rms="4.5980325341224670e-01" purity="5.6703352928161621e-01" nType="-99"/>
        </Node>
        <Node pos="r" depth="1" NCoef="0" IVar="4" Cut="1.0556778870522976e-03" cType="1" res="-2.8969192877411842e-02" rms="4.3716946244239807e-01" purity="3.1502348184585571e-01" nType="0">
          <Node pos="l" depth="2" NCoef="0" IVar="-1" Cut="0.0000000000000000e+00" cType="1" res="1.2437952682375908e-03" rms="4.6029642224311829e-01" purity="4.2415720224380493e-01" nType="-99"/>
          <Node pos="r" depth="2" NCoef="0" IVar="-1" Cut="0.0000000000000000e+00" cType="1" res="-4.4564283452928066e-03" rms="4.1206613183021545e-01" purity="2.2238184511661530e-01" nType="-99"/>
        </Node>
      </Node>
    </BinaryTree>
    <BinaryTree type="DecisionTree" boostWeight="1.0000000000000000e+00" itree="509">
      <Node pos="s" depth="0" NCoef="0" IVar="5" Cut="4.7521231079101562e+02" cType="1" res="5.9901094064116478e-03" rms="4.6325886249542236e-01" purity="5.0616687536239624e-01" nType="0">
        <Node pos="l" depth="1" NCoef="0" IVar="-1" Cut="0.0000000000000000e+00" cType="1" res="-2.5995115283876657e-03" rms="4.4357958436012268e-01" purity="3.3336427807807922e-01" nType="-99"/>
        <Node pos="r" depth="1" NCoef="0" IVar="5" Cut="1.0767210693359375e+03" cType="1" res="1.1202984489500523e-02" rms="4.6507531404495239e-01" purity="5.2515304088592529e-01" nType="0">
          <Node pos="l" depth="2" NCoef="0" IVar="-1" Cut="0.0000000000000000e+00" cType="1" res="2.8279877733439207e-04" rms="4.6545025706291199e-01" purity="5.0970166921615601e-01" nType="-99"/>
          <Node pos="r" depth="2" NCoef="0" IVar="-1" Cut="0.0000000000000000e+00" cType="1" res="3.4122252836823463e-03" rms="4.6083813905715942e-01" purity="6.1574405431747437e-01" nType="-99"/>
        </Node>
      </Node>
    </BinaryTree>
    <BinaryTree type="DecisionTree" boostWeight="1.0000000000000000e+00" itree="510">
      <Node pos="s" depth="0" NCoef="0" IVar="6" Cut="3.7834906578063965e+00" cType="1" res="9.5671666786074638e-03" rms="4.5800730586051941e-01" purity="5.1047688722610474e-01" nType="0">
        <Node pos="l" depth="1" NCoef="0" IVar="4" Cut="2.6946268044412136e-03" cType="1" res="-8.8322758674621582e-03" rms="4.6439027786254883e-01" purity="3.8466835021972656e-01" nType="0">
          <Node pos="l" depth="2" NCoef="0" IVar="-1" Cut="0.0000000000000000e+00" cType="1" res="2.9234139947220683e-04" rms="4.6880745887756348e-01" purity="4.1166105866432190e-01" nType="-99"/>
          <Node pos="r" depth="2" NCoef="0" IVar="-1" Cut="0.0000000000000000e+00" cType="1" res="-2.7927567716687918e-03" rms="4.4931095838546753e-01" purity="3.0765467882156372e-01" nType="-99"/>
        </Node>
        <Node pos="r" depth="1" NCoef="0" IVar="5" Cut="1.0681754150390625e+03" cType="1" res="3.2675348222255707e-02" rms="4.4879519939422607e-01" purity="6.6848206520080566e-01" nType="0">
          <Node pos="l" depth="2" NCoef="0" IVar="-1" Cut="0.0000000000000000e+00" cType="1" res="1.7138984985649586e-03" rms="4.5268520712852478e-01" purity="6.5789669752120972e-01" nType="-99"/>
          <Node pos="r" depth="2" NCoef="0" IVar="-1" Cut="0.0000000000000000e+00" cType="1" res="5.8514438569545746e-03" rms="4.2270734906196594e-01" purity="7.2936052083969116e-01" nType="-99"/>
        </Node>
      </Node>
    </BinaryTree>
    <BinaryTree type="DecisionTree" boostWeight="1.0000000000000000e+00" itree="511">
      <Node pos="s" depth="0" NCoef="0" IVar="1" Cut="1.4731621742248535e+00" cType="1" res="1.7624228494241834e-03" rms="4.6591529250144958e-01" purity="5.0481992959976196e-01" nType="0">
        <Node pos="l" depth="1" NCoef="0" IVar="4" Cut="2.3130527697503567e-03" cType="1" res="-8.7056094780564308e-03" rms="4.6626606583595276e-01" purity="5.3476566076278687e-01" nType="0">
          <Node pos="l" depth="2" NCoef="0" IVar="-1" Cut="0.0000000000000000e+00" cType="1" res="1.4845325495116413e-04" rms="4.6230554580688477e-01" purity="5.7531136274337769e-01" nType="-99"/>
          <Node pos="r" depth="2" NCoef="0" IVar="-1" Cut="0.0000000000000000e+00" cType="1" res="-2.4074418470263481e-03" rms="4.7656479477882385e-01" purity="4.1153678297996521e-01" nType="-99"/>
        </Node>
        <Node pos="r" depth="1" NCoef="0" IVar="6" Cut="4.2841839790344238e+00" cType="1" res="2.8565710410475731e-02" rms="4.6394056081771851e-01" purity="4.2814427614212036e-01" nType="0">
          <Node pos="l" depth="2" NCoef="0" IVar="-1" Cut="0.0000000000000000e+00" cType="1" res="6.5138807985931635e-04" rms="4.6235531568527222e-01" purity="3.4254845976829529e-01" nType="-99"/>
          <Node pos="r" depth="2" NCoef="0" IVar="-1" Cut="0.0000000000000000e+00" cType="1" res="4.5824702829122543e-03" rms="4.6477752923965454e-01" purity="6.3059127330780029e-01" nType="-99"/>
        </Node>
      </Node>
    </BinaryTree>
    <BinaryTree type="DecisionTree" boostWeight="1.0000000000000000e+00" itree="512">
      <Node pos="s" depth="0" NCoef="0" IVar="2" Cut="5.3412997722625732e-01" cType="1" res="-6.0166483744978905e-03" rms="4.6495947241783142e-01" purity="4.9403551220893860e-01" nType="0">
        <Node pos="l" depth="1" NCoef="0" IVar="1" Cut="7.4118423461914062e-01" cType="1" res="1.5328079462051392e-02" rms="4.6473479270935059e-01" purity="4.3720820546150208e-01" nType="0">
          <Node pos="l" depth="2" NCoef="0" IVar="-1" Cut="0.0000000000000000e+00" cType="1" res="4.6882568858563900e-03" rms="4.8037758469581604e-01" purity="5.8797734975814819e-01" nType="-99"/>
          <Node pos="r" depth="2" NCoef="0" IVar="-1" Cut="0.0000000000000000e+00" cType="1" res="-5.2573985885828733e-04" rms="4.5609948039054871e-01" purity="3.7605792284011841e-01" nType="-99"/>
        </Node>
        <Node pos="r" depth="1" NCoef="0" IVar="3" Cut="7.9242467880249023e-01" cType="1" res="-1.6419127583503723e-02" rms="4.6471372246742249e-01" purity="5.2173066139221191e-01" nType="0">
          <Node pos="l" depth="2" NCoef="0" IVar="-1" Cut="0.0000000000000000e+00" cType="1" res="1.6852235421538353e-03" rms="4.5592385530471802e-01" purity="5.7285678386688232e-01" nType="-99"/>
          <Node pos="r" depth="2" NCoef="0" IVar="-1" Cut="0.0000000000000000e+00" cType="1" res="-1.6415601130574942e-03" rms="4.6613815426826477e-01" purity="5.1035845279693604e-01" nType="-99"/>
        </Node>
      </Node>
    </BinaryTree>
    <BinaryTree type="DecisionTree" boostWeight="1.0000000000000000e+00" itree="513">
      <Node pos="s" depth="0" NCoef="0" IVar="4" Cut="3.1272864434868097e-03" cType="1" res="6.3497782684862614e-03" rms="4.6759554743766785e-01" purity="5.0842595100402832e-01" nType="0">
        <Node pos="l" depth="1" NCoef="0" IVar="0" Cut="1.9954524934291840e-01" cType="1" res="1.1862558312714100e-02" rms="4.6768483519554138e-01" purity="5.2923160791397095e-01" nType="0">
          <Node pos="l" depth="2" NCoef="0" IVar="-1" Cut="0.0000000000000000e+00" cType="1" res="1.1099425610154867e-03" rms="4.6777811646461487e-01" purity="5.2371925115585327e-01" nType="-99"/>
          <Node pos="r" depth="2" NCoef="0" IVar="-1" Cut="0.0000000000000000e+00" cType="1" res="-2.8323780279606581e-03" rms="4.6346855163574219e-01" purity="5.8312970399856567e-01" nType="-99"/>
        </Node>
        <Node pos="r" depth="1" NCoef="0" IVar="2" Cut="6.2606322765350342e-01" cType="1" res="-3.0743259936571121e-02" rms="4.6529921889305115e-01" purity="3.6843380331993103e-01" nType="0">
          <Node pos="l" depth="2" NCoef="0" IVar="-1" Cut="0.0000000000000000e+00" cType="1" res="-5.7323672808706760e-04" rms="4.5708480477333069e-01" purity="3.3736282587051392e-01" nType="-99"/>
          <Node pos="r" depth="2" NCoef="0" IVar="-1" Cut="0.0000000000000000e+00" cType="1" res="-3.2618150580674410e-03" rms="4.7387713193893433e-01" purity="4.0658476948738098e-01" nType="-99"/>
        </Node>
      </Node>
    </BinaryTree>
    <BinaryTree type="DecisionTree" boostWeight="1.0000000000000000e+00" itree="514">
      <Node pos="s" depth="0" NCoef="0" IVar="3" Cut="1.1298288106918335e+00" cType="1" res="-3.9888727478682995e-03" rms="4.6606335043907166e-01" purity="4.9771341681480408e-01" nType="0">
        <Node pos="l" depth="1" NCoef="0" IVar="5" Cut="9.7306188964843750e+02" cType="1" res="2.1516604349017143e-02" rms="4.6181958913803101e-01" purity="5.6193685531616211e-01" nType="0">
          <Node pos="l" depth="2" NCoef="0" IVar="-1" Cut="0.0000000000000000e+00" cType="1" res="2.6969783357344568e-04" rms="4.6518135070800781e-01" purity="5.2788311243057251e-01" nType="-99"/>
          <Node pos="r" depth="2" NCoef="0" IVar="-1" Cut="0.0000000000000000e+00" cType="1" res="5.5223405361175537e-03" rms="4.4522839784622192e-01" purity="6.7740541696548462e-01" nType="-99"/>
        </Node>
        <Node pos="r" depth="1" NCoef="0" IVar="5" Cut="1.0900078125000000e+03" cType="1" res="-2.0189397037029266e-02" rms="4.6801763772964478e-01" purity="4.5692005753517151e-01" nType="0">
          <Node pos="l" depth="2" NCoef="0" IVar="-1" Cut="0.0000000000000000e+00" cType="1" res="-7.4308778857812285e-04" rms="4.6653366088867188e-01" purity="4.5800939202308655e-01" nType="-99"/>
          <Node pos="r" depth="2" NCoef="0" IVar="-1" Cut="0.0000000000000000e+00" cType="1" res="-5.7360879145562649e-03" rms="4.7456857562065125e-01" purity="4.4709986448287964e-01" nType="-99"/>
        </Node>
      </Node>
    </BinaryTree>
    <BinaryTree type="DecisionTree" boostWeight="1.0000000000000000e+00" itree="515">
      <Node pos="s" depth="0" NCoef="0" IVar="2" Cut="6.8075889348983765e-01" cType="1" res="8.6371023207902908e-03" rms="4.6431142091751099e-01" purity="5.1035833358764648e-01" nType="0">
        <Node pos="l" depth="1" NCoef="0" IVar="1" Cut="1.2846555709838867e+00" cType="1" res="1.8591919913887978e-02" rms="4.6499937772750854e-01" purity="4.7594887018203735e-01" nType="0">
          <Node pos="l" depth="2" NCoef="0" IVar="-1" Cut="0.0000000000000000e+00" cType="1" res="2.2515135351568460e-03" rms="4.6836298704147339e-01" purity="5.4020047187805176e-01" nType="-99"/>
          <Node pos="r" depth="2" NCoef="0" IVar="-1" Cut="0.0000000000000000e+00" cType="1" res="-2.0072571351192892e-04" rms="4.5952442288398743e-01" purity="3.8925385475158691e-01" nType="-99"/>
        </Node>
        <Node pos="r" depth="1" NCoef="0" IVar="0" Cut="9.0173520147800446e-02" cType="1" res="-1.1931720189750195e-02" rms="4.6220806241035461e-01" purity="5.8145588636398315e-01" nType="0">
          <Node pos="l" depth="2" NCoef="0" IVar="-1" Cut="0.0000000000000000e+00" cType="1" res="-2.9312882106751204e-03" rms="4.6826329827308655e-01" purity="5.3115236759185791e-01" nType="-99"/>
          <Node pos="r" depth="2" NCoef="0" IVar="-1" Cut="0.0000000000000000e+00" cType="1" res="3.2962509430944920e-04" rms="4.5825541019439697e-01" purity="6.0641157627105713e-01" nType="-99"/>
        </Node>
      </Node>
    </BinaryTree>
    <BinaryTree type="DecisionTree" boostWeight="1.0000000000000000e+00" itree="516">
      <Node pos="s" depth="0" NCoef="0" IVar="5" Cut="8.7044677734375000e+02" cType="1" res="-3.4434167901054025e-05" rms="4.6711012721061707e-01" purity="5.0206577777862549e-01" nType="0">
        <Node pos="l" depth="1" NCoef="0" IVar="2" Cut="4.2182946205139160e-01" cType="1" res="1.3161318376660347e-02" rms="4.6346279978752136e-01" purity="4.9421066045761108e-01" nType="0">
          <Node pos="l" depth="2" NCoef="0" IVar="-1" Cut="0.0000000000000000e+00" cType="1" res="4.1461354121565819e-03" rms="4.5866307616233826e-01" purity="4.2331001162528992e-01" nType="-99"/>
          <Node pos="r" depth="2" NCoef="0" IVar="-1" Cut="0.0000000000000000e+00" cType="1" res="4.4036007602699101e-04" rms="4.6369171142578125e-01" purity="5.0328999757766724e-01" nType="-99"/>
        </Node>
        <Node pos="r" depth="1" NCoef="0" IVar="6" Cut="4.0985817909240723e+00" cType="1" res="-3.4685824066400528e-02" rms="4.7481226921081543e-01" purity="5.2269279956817627e-01" nType="0">
          <Node pos="l" depth="2" NCoef="0" IVar="-1" Cut="0.0000000000000000e+00" cType="1" res="-4.0642483509145677e-04" rms="4.7505849599838257e-01" purity="4.5312106609344482e-01" nType="-99"/>
          <Node pos="r" depth="2" NCoef="0" IVar="-1" Cut="0.0000000000000000e+00" cType="1" res="-4.7464757226407528e-03" rms="4.7227415442466736e-01" purity="6.0770589113235474e-01" nType="-99"/>
        </Node>
      </Node>
    </BinaryTree>
    <BinaryTree type="DecisionTree" boostWeight="1.0000000000000000e+00" itree="517">
      <Node pos="s" depth="0" NCoef="0" IVar="6" Cut="5.9696497917175293e+00" cType="1" res="-6.0359463095664978e-03" rms="4.6609151363372803e-01" purity="4.9753999710083008e-01" nType="0">
        <Node pos="l" depth="1" NCoef="0" IVar="0" Cut="2.2423824667930603e-01" cType="1" res="-1.0530288331210613e-02" rms="4.7052815556526184e-01" purity="4.7835355997085571e-01" nType="0">
          <Node pos="l" depth="2" NCoef="0" IVar="-1" Cut="0.0000000000000000e+00" cType="1" res="-4.4787445222027600e-04" rms="4.6947637200355530e-01" purity="4.7510841488838196e-01" nType="-99"/>
          <Node pos="r" depth="2" NCoef="0" IVar="-1" Cut="0.0000000000000000e+00" cType="1" res="-4.2953235097229481e-03" rms="4.8396730422973633e-01" purity="5.3078925609588623e-01" nType="-99"/>
        </Node>
        <Node pos="r" depth="1" NCoef="0" IVar="-1" Cut="0.0000000000000000e+00" cType="1" res="7.0010647177696228e-03" rms="3.7099236249923706e-01" purity="8.3466160297393799e-01" nType="-99"/>
      </Node>
    </BinaryTree>
    <BinaryTree type="DecisionTree" boostWeight="1.0000000000000000e+00" itree="518">
      <Node pos="s" depth="0" NCoef="0" IVar="5" Cut="1.3236955566406250e+03" cType="1" res="6.0217068530619144e-03" rms="4.6647521853446960e-01" purity="5.0127148628234863e-01" nType="0">
        <Node pos="l" depth="1" NCoef="0" IVar="2" Cut="7.1058434247970581e-01" cType="1" res="1.0301461443305016e-02" rms="4.6483588218688965e-01" purity="5.0152558088302612e-01" nType="0">
          <Node pos="l" depth="2" NCoef="0" IVar="-1" Cut="0.0000000000000000e+00" cType="1" res="1.2111017713323236e-04" rms="4.6760812401771545e-01" purity="4.5610490441322327e-01" nType="-99"/>
          <Node pos="r" depth="2" NCoef="0" IVar="-1" Cut="0.0000000000000000e+00" cType="1" res="2.4837956298142672e-03" rms="4.5553141832351685e-01" purity="6.3732457160949707e-01" nType="-99"/>
        </Node>
        <Node pos="r" depth="1" NCoef="0" IVar="-1" Cut="0.0000000000000000e+00" cType="1" res="-3.9670434780418873e-03" rms="4.8766604065895081e-01" purity="4.9698930978775024e-01" nType="-99"/>
      </Node>
    </BinaryTree>
    <BinaryTree type="DecisionTree" boostWeight="1.0000000000000000e+00" itree="519">
      <Node pos="s" depth="0" NCoef="0" IVar="1" Cut="9.3124276399612427e-01" cType="1" res="-4.6194199239835143e-04" rms="4.6035343408584595e-01" purity="5.0236570835113525e-01" nType="0">
        <Node pos="l" depth="1" NCoef="0" IVar="6" Cut="2.8908751010894775e+00" cType="1" res="1.5746302902698517e-02" rms="4.5484203100204468e-01" purity="5.8125072717666626e-01" nType="0">
          <Node pos="l" depth="2" NCoef="0" IVar="-1" Cut="0.0000000000000000e+00" cType="1" res="-1.5125899808481336e-03" rms="4.7352007031440735e-01" purity="3.6512902379035950e-01" nType="-99"/>
          <Node pos="r" depth="2" NCoef="0" IVar="-1" Cut="0.0000000000000000e+00" cType="1" res="2.3431426379829645e-03" rms="4.4543907046318054e-01" purity="6.7357367277145386e-01" nType="-99"/>
        </Node>
        <Node pos="r" depth="1" NCoef="0" IVar="3" Cut="1.3288699388504028e+00" cType="1" res="-1.4780179597437382e-02" rms="4.6469780802726746e-01" purity="4.3267926573753357e-01" nType="0">
          <Node pos="l" depth="2" NCoef="0" IVar="-1" Cut="0.0000000000000000e+00" cType="1" res="-1.9381181336939335e-03" rms="4.7006690502166748e-01" purity="4.5528864860534668e-01" nType="-99"/>
          <Node pos="r" depth="2" NCoef="0" IVar="-1" Cut="0.0000000000000000e+00" cType="1" res="1.3395500718615949e-04" rms="4.5861977338790894e-01" purity="4.0995943546295166e-01" nType="-99"/>
        </Node>
      </Node>
    </BinaryTree>
    <BinaryTree type="DecisionTree" boostWeight="1.0000000000000000e+00" itree="520">
      <Node pos="s" depth="0" NCoef="0" IVar="6" Cut="5.6826047897338867e+00" cType="1" res="1.8502135062590241e-03" rms="4.6283942461013794e-01" purity="5.0248771905899048e-01" nType="0">
        <Node pos="l" depth="1" NCoef="0" IVar="0" Cut="1.0622502863407135e-01" cType="1" res="-4.0288455784320831e-03" rms="4.6952271461486816e-01" purity="4.7544223070144653e-01" nType="0">
          <Node pos="l" depth="2" NCoef="0" IVar="-1" Cut="0.0000000000000000e+00" cType="1" res="5.9411948313936591e-04" rms="4.6828714013099670e-01" purity="4.5291727781295776e-01" nType="-99"/>
          <Node pos="r" depth="2" NCoef="0" IVar="-1" Cut="0.0000000000000000e+00" cType="1" res="-1.7610976938158274e-03" rms="4.7072252631187439e-01" purity="5.1449733972549438e-01" nType="-99"/>
        </Node>
        <Node pos="r" depth="1" NCoef="0" IVar="-1" Cut="0.0000000000000000e+00" cType="1" res="7.0161754265427589e-03" rms="3.6463221907615662e-01" purity="8.3121186494827271e-01" nType="-99"/>
      </Node>
    </BinaryTree>
    <BinaryTree type="DecisionTree" boostWeight="1.0000000000000000e+00" itree="521">
      <Node pos="s" depth="0" NCoef="0" IVar="6" Cut="4.4844918251037598e+00" cType="1" res="-1.8262350931763649e-03" rms="4.6842804551124573e-01" purity="5.0282591581344604e-01" nType="0">
        <Node pos="l" depth="1" NCoef="0" IVar="3" Cut="6.4871239662170410e-01" cType="1" res="8.1646814942359924e-03" rms="4.7259211540222168e-01" purity="4.4320455193519592e-01" nType="0">
          <Node pos="l" depth="2" NCoef="0" IVar="-1" Cut="0.0000000000000000e+00" cType="1" res="3.4641078673303127e-03" rms="4.6693244576454163e-01" purity="5.0245398283004761e-01" nType="-99"/>
          <Node pos="r" depth="2" NCoef="0" IVar="-1" Cut="0.0000000000000000e+00" cType="1" res="2.2519839694723487e-04" rms="4.7287881374359131e-01" purity="4.3758189678192139e-01" nType="-99"/>
        </Node>
        <Node pos="r" depth="1" NCoef="0" IVar="0" Cut="1.6021336615085602e-01" cType="1" res="-2.6094783097505569e-02" rms="4.5724740624427795e-01" purity="6.4764988422393799e-01" nType="0">
          <Node pos="l" depth="2" NCoef="0" IVar="-1" Cut="0.0000000000000000e+00" cType="1" res="-2.7119577862322330e-03" rms="4.6871122717857361e-01" purity="6.1493283510208130e-01" nType="-99"/>
          <Node pos="r" depth="2" NCoef="0" IVar="-1" Cut="0.0000000000000000e+00" cType="1" res="3.4377984702587128e-03" rms="3.9318025112152100e-01" purity="8.0025714635848999e-01" nType="-99"/>
        </Node>
      </Node>
    </BinaryTree>
    <BinaryTree type="DecisionTree" boostWeight="1.0000000000000000e+00" itree="522">
      <Node pos="s" depth="0" NCoef="0" IVar="5" Cut="5.1556884765625000e+02" cType="1" res="8.1386929377913475e-03" rms="4.6394428610801697e-01" purity="5.0953108072280884e-01" nType="0">
        <Node pos="l" depth="1" NCoef="0" IVar="3" Cut="1.3002820014953613e+00" cType="1" res="-2.6178203523159027e-02" rms="4.6270117163658142e-01" purity="3.7677192687988281e-01" nType="0">
          <Node pos="l" depth="2" NCoef="0" IVar="-1" Cut="0.0000000000000000e+00" cType="1" res="-3.8984620478004217e-03" rms="4.6709740161895752e-01" purity="3.7695211172103882e-01" nType="-99"/>
          <Node pos="r" depth="2" NCoef="0" IVar="-1" Cut="0.0000000000000000e+00" cType="1" res="4.8982078442350030e-04" rms="4.5612093806266785e-01" purity="3.7661239504814148e-01" nType="-99"/>
        </Node>
        <Node pos="r" depth="1" NCoef="0" IVar="4" Cut="1.7833737656474113e-03" cType="1" res="1.5021444298326969e-02" rms="4.6388766169548035e-01" purity="5.3615784645080566e-01" nType="0">
          <Node pos="l" depth="2" NCoef="0" IVar="-1" Cut="0.0000000000000000e+00" cType="1" res="1.9130458822473884e-03" rms="4.6094393730163574e-01" purity="5.9540402889251709e-01" nType="-99"/>
          <Node pos="r" depth="2" NCoef="0" IVar="-1" Cut="0.0000000000000000e+00" cType="1" res="-5.3592474432662129e-04" rms="4.6837866306304932e-01" purity="4.2553982138633728e-01" nType="-99"/>
        </Node>
      </Node>
    </BinaryTree>
    <BinaryTree type="DecisionTree" boostWeight="1.0000000000000000e+00" itree="523">
      <Node pos="s" depth="0" NCoef="0" IVar="3" Cut="9.4001513719558716e-01" cType="1" res="-1.0186546482145786e-02" rms="4.6338498592376709e-01" purity="4.9418249726295471e-01" nType="0">
        <Node pos="l" depth="1" NCoef="0" IVar="1" Cut="7.2940790653228760e-01" cType="1" res="-3.9532694965600967e-02" rms="4.7077977657318115e-01" purity="4.9407112598419189e-01" nType="0">
          <Node pos="l" depth="2" NCoef="0" IVar="-1" Cut="0.0000000000000000e+00" cType="1" res="1.1567394249141216e-03" rms="4.6081471443176270e-01" purity="6.1885029077529907e-01" nType="-99"/>
          <Node pos="r" depth="2" NCoef="0" IVar="-1" Cut="0.0000000000000000e+00" cType="1" res="-4.3975776061415672e-03" rms="4.7348150610923767e-01" purity="4.1898563504219055e-01" nType="-99"/>
        </Node>
        <Node pos="r" depth="1" NCoef="0" IVar="4" Cut="8.0204030382446945e-05" cType="1" res="9.0251269284635782e-04" rms="4.6007275581359863e-01" purity="4.9422454833984375e-01" nType="0">
          <Node pos="l" depth="2" NCoef="0" IVar="-1" Cut="0.0000000000000000e+00" cType="1" res="5.7892496697604656e-03" rms="3.9383715391159058e-01" purity="7.4450242519378662e-01" nType="-99"/>
          <Node pos="r" depth="2" NCoef="0" IVar="-1" Cut="0.0000000000000000e+00" cType="1" res="-4.5540649443864822e-04" rms="4.6651357412338257e-01" purity="4.6498051285743713e-01" nType="-99"/>
        </Node>
      </Node>
    </BinaryTree>
    <BinaryTree type="DecisionTree" boostWeight="1.0000000000000000e+00" itree="524">
      <Node pos="s" depth="0" NCoef="0" IVar="2" Cut="6.5752929449081421e-01" cType="1" res="-1.7631412483751774e-03" rms="4.6279323101043701e-01" purity="5.0229173898696899e-01" nType="0">
        <Node pos="l" depth="1" NCoef="0" IVar="4" Cut="1.4395095640793443e-03" cType="1" res="-1.4777826145291328e-02" rms="4.6166414022445679e-01" purity="4.3810567259788513e-01" nType="0">
          <Node pos="l" depth="2" NCoef="0" IVar="-1" Cut="0.0000000000000000e+00" cType="1" res="3.7000329029979184e-05" rms="4.6763432025909424e-01" purity="5.1200759410858154e-01" nType="-99"/>
          <Node pos="r" depth="2" NCoef="0" IVar="-1" Cut="0.0000000000000000e+00" cType="1" res="-2.0200714934617281e-03" rms="4.5336279273033142e-01" purity="3.4575778245925903e-01" nType="-99"/>
        </Node>
        <Node pos="r" depth="1" NCoef="0" IVar="3" Cut="1.6779582500457764e+00" cType="1" res="2.0423585548996925e-02" rms="4.6387061476707458e-01" purity="6.1171275377273560e-01" nType="0">
          <Node pos="l" depth="2" NCoef="0" IVar="-1" Cut="0.0000000000000000e+00" cType="1" res="1.0695419769035652e-04" rms="4.5980304479598999e-01" purity="6.0914939641952515e-01" nType="-99"/>
          <Node pos="r" depth="2" NCoef="0" IVar="-1" Cut="0.0000000000000000e+00" cType="1" res="6.1374288052320480e-03" rms="4.7219252586364746e-01" purity="6.2146008014678955e-01" nType="-99"/>
        </Node>
      </Node>
    </BinaryTree>
    <BinaryTree type="DecisionTree" boostWeight="1.0000000000000000e+00" itree="525">
      <Node pos="s" depth="0" NCoef="0" IVar="0" Cut="8.4714815020561218e-02" cType="1" res="-8.0762375146150589e-03" rms="4.6434628963470459e-01" purity="4.9409225583076477e-01" nType="0">
        <Node pos="l" depth="1" NCoef="0" IVar="6" Cut="4.3706774711608887e+00" cType="1" res="1.0726333595812321e-02" rms="4.6243509650230408e-01" purity="4.6785765886306763e-01" nType="0">
          <Node pos="l" depth="2" NCoef="0" IVar="-1" Cut="0.0000000000000000e+00" cType="1" res="-2.1913606906309724e-04" rms="4.6925279498100281e-01" purity="3.8434830307960510e-01" nType="-99"/>
          <Node pos="r" depth="2" NCoef="0" IVar="-1" Cut="0.0000000000000000e+00" cType="1" res="3.0009979382157326e-03" rms="4.4416540861129761e-01" purity="6.6436260938644409e-01" nType="-99"/>
        </Node>
        <Node pos="r" depth="1" NCoef="0" IVar="5" Cut="8.9119787597656250e+02" cType="1" res="-2.8517577797174454e-02" rms="4.6555441617965698e-01" purity="5.2261340618133545e-01" nType="0">
          <Node pos="l" depth="2" NCoef="0" IVar="-1" Cut="0.0000000000000000e+00" cType="1" res="-2.4010529741644859e-03" rms="4.6443215012550354e-01" purity="4.9835175275802612e-01" nType="-99"/>
          <Node pos="r" depth="2" NCoef="0" IVar="-1" Cut="0.0000000000000000e+00" cType="1" res="9.0244645252823830e-04" rms="4.6850037574768066e-01" purity="6.3540434837341309e-01" nType="-99"/>
        </Node>
      </Node>
    </BinaryTree>
    <BinaryTree type="DecisionTree" boostWeight="1.0000000000000000e+00" itree="526">
      <Node pos="s" depth="0" NCoef="0" IVar="6" Cut="5.5032749176025391e+00" cType="1" res="-5.8860625140368938e-03" rms="4.6786463260650635e-01" purity="4.9353477358818054e-01" nType="0">
        <Node pos="l" depth="1" NCoef="0" IVar="4" Cut="8.1070925807580352e-04" cType="1" res="-2.2603211982641369e-04" rms="4.6916818618774414e-01" purity="4.7181892395019531e-01" nType="0">
          <Node pos="l" depth="2" NCoef="0" IVar="-1" Cut="0.0000000000000000e+00" cType="1" res="1.2742952676489949e-03" rms="4.6639710664749146e-01" purity="5.6493204832077026e-01" nType="-99"/>
          <Node pos="r" depth="2" NCoef="0" IVar="-1" Cut="0.0000000000000000e+00" cType="1" res="-6.2700320268049836e-04" rms="4.7029739618301392e-01" purity="4.2297410964965820e-01" nType="-99"/>
        </Node>
        <Node pos="r" depth="1" NCoef="0" IVar="0" Cut="7.9912744462490082e-02" cType="1" res="-5.4797373712062836e-02" rms="4.5351171493530273e-01" purity="6.8119281530380249e-01" nType="0">
          <Node pos="l" depth="2" NCoef="0" IVar="-1" Cut="0.0000000000000000e+00" cType="1" res="-2.4964828044176102e-03" rms="4.7226184606552124e-01" purity="6.6364830732345581e-01" nType="-99"/>
          <Node pos="r" depth="2" NCoef="0" IVar="-1" Cut="0.0000000000000000e+00" cType="1" res="-6.7677074111998081e-03" rms="4.3301093578338623e-01" purity="6.9872677326202393e-01" nType="-99"/>
        </Node>
      </Node>
    </BinaryTree>
    <BinaryTree type="DecisionTree" boostWeight="1.0000000000000000e+00" itree="527">
      <Node pos="s" depth="0" NCoef="0" IVar="6" Cut="1.7254331111907959e+00" cType="1" res="-2.2355155088007450e-03" rms="4.6246770024299622e-01" purity="4.9809965491294861e-01" nType="0">
        <Node pos="l" depth="1" NCoef="0" IVar="-1" Cut="0.0000000000000000e+00" cType="1" res="2.8917076997458935e-03" rms="4.5509105920791626e-01" purity="3.1756228208541870e-01" nType="-99"/>
        <Node pos="r" depth="1" NCoef="0" IVar="6" Cut="3.2960538864135742e+00" cType="1" res="-5.4294583387672901e-03" rms="4.6284317970275879e-01" purity="5.1134741306304932e-01" nType="0">
          <Node pos="l" depth="2" NCoef="0" IVar="-1" Cut="0.0000000000000000e+00" cType="1" res="-1.4757130993530154e-03" rms="4.6181252598762512e-01" purity="3.5036110877990723e-01" nType="-99"/>
          <Node pos="r" depth="2" NCoef="0" IVar="-1" Cut="0.0000000000000000e+00" cType="1" res="4.2161805322393775e-04" rms="4.6308425068855286e-01" purity="6.1044251918792725e-01" nType="-99"/>
        </Node>
      </Node>
    </BinaryTree>
    <BinaryTree type="DecisionTree" boostWeight="1.0000000000000000e+00" itree="528">
      <Node pos="s" depth="0" NCoef="0" IVar="0" Cut="1.5841886401176453e-01" cType="1" res="-1.1605782434344292e-02" rms="4.6795514225959778e-01" purity="4.9100631475448608e-01" nType="0">
        <Node pos="l" depth="1" NCoef="0" IVar="0" Cut="1.3235986232757568e-01" cType="1" res="-5.3746500052511692e-03" rms="4.6509429812431335e-01" purity="4.7836133837699890e-01" nType="0">
          <Node pos="l" depth="2" NCoef="0" IVar="-1" Cut="0.0000000000000000e+00" cType="1" res="-7.8480318188667297e-04" rms="4.6509933471679688e-01" purity="4.6377998590469360e-01" nType="-99"/>
          <Node pos="r" depth="2" NCoef="0" IVar="-1" Cut="0.0000000000000000e+00" cType="1" res="4.5858877710998058e-03" rms="4.5901677012443542e-01" purity="6.2333947420120239e-01" nType="-99"/>
        </Node>
        <Node pos="r" depth="1" NCoef="0" IVar="6" Cut="2.9663679599761963e+00" cType="1" res="-4.1566152125597000e-02" rms="4.8034596443176270e-01" purity="5.5180567502975464e-01" nType="0">
          <Node pos="l" depth="2" NCoef="0" IVar="-1" Cut="0.0000000000000000e+00" cType="1" res="2.7294212486594915e-03" rms="4.9031516909599304e-01" purity="4.4148054718971252e-01" nType="-99"/>
          <Node pos="r" depth="2" NCoef="0" IVar="-1" Cut="0.0000000000000000e+00" cType="1" res="-5.5721192620694637e-03" rms="4.7112655639648438e-01" purity="5.9968775510787964e-01" nType="-99"/>
        </Node>
      </Node>
    </BinaryTree>
    <BinaryTree type="DecisionTree" boostWeight="1.0000000000000000e+00" itree="529">
      <Node pos="s" depth="0" NCoef="0" IVar="2" Cut="4.2276602983474731e-01" cType="1" res="-7.9378662630915642e-03" rms="4.6776038408279419e-01" purity="4.9400955438613892e-01" nType="0">
        <Node pos="l" depth="1" NCoef="0" IVar="0" Cut="3.2493840903043747e-02" cType="1" res="5.9363916516304016e-02" rms="4.5473805069923401e-01" purity="4.4384893774986267e-01" nType="0">
          <Node pos="l" depth="2" NCoef="0" IVar="-1" Cut="0.0000000000000000e+00" cType="1" res="1.2988812522962689e-03" rms="4.4736453890800476e-01" purity="3.9000442624092102e-01" nType="-99"/>
          <Node pos="r" depth="2" NCoef="0" IVar="-1" Cut="0.0000000000000000e+00" cType="1" res="7.0216050371527672e-03" rms="4.5885875821113586e-01" purity="5.0254005193710327e-01" nType="-99"/>
        </Node>
        <Node pos="r" depth="1" NCoef="0" IVar="1" Cut="3.7810346484184265e-01" cType="1" res="-1.5879817306995392e-02" rms="4.6863609552383423e-01" purity="4.9992877244949341e-01" nType="0">
          <Node pos="l" depth="2" NCoef="0" IVar="-1" Cut="0.0000000000000000e+00" cType="1" res="-4.1237142868340015e-03" rms="4.7341591119766235e-01" purity="5.3274804353713989e-01" nType="-99"/>
          <Node pos="r" depth="2" NCoef="0" IVar="-1" Cut="0.0000000000000000e+00" cType="1" res="-4.6820894931443036e-04" rms="4.6725726127624512e-01" purity="4.9403738975524902e-01" nType="-99"/>
        </Node>
      </Node>
    </BinaryTree>
    <BinaryTree type="DecisionTree" boostWeight="1.0000000000000000e+00" itree="530">
      <Node pos="s" depth="0" NCoef="0" IVar="0" Cut="5.3507898002862930e-02" cType="1" res="-5.7597691193223000e-03" rms="4.6450671553611755e-01" purity="4.9488532543182373e-01" nType="0">
        <Node pos="l" depth="1" NCoef="0" IVar="4" Cut="2.3518980015069246e-03" cType="1" res="-3.0070653185248375e-02" rms="4.5461195707321167e-01" purity="4.0483036637306213e-01" nType="0">
          <Node pos="l" depth="2" NCoef="0" IVar="-1" Cut="0.0000000000000000e+00" cType="1" res="-2.9681406449526548e-03" rms="4.5452257990837097e-01" purity="4.1515365242958069e-01" nType="-99"/>
          <Node pos="r" depth="2" NCoef="0" IVar="-1" Cut="0.0000000000000000e+00" cType="1" res="1.6224998980760574e-03" rms="4.5027521252632141e-01" purity="3.7318125367164612e-01" nType="-99"/>
        </Node>
        <Node pos="r" depth="1" NCoef="0" IVar="2" Cut="5.1235336065292358e-01" cType="1" res="5.4924851283431053e-03" rms="4.6858906745910645e-01" purity="5.3656709194183350e-01" nType="0">
          <Node pos="l" depth="2" NCoef="0" IVar="-1" Cut="0.0000000000000000e+00" cType="1" res="3.6469481419771910e-03" rms="4.7252848744392395e-01" purity="4.9716091156005859e-01" nType="-99"/>
          <Node pos="r" depth="2" NCoef="0" IVar="-1" Cut="0.0000000000000000e+00" cType="1" res="-3.1733434298075736e-04" rms="4.6711224317550659e-01" purity="5.4455977678298950e-01" nType="-99"/>
        </Node>
      </Node>
    </BinaryTree>
    <BinaryTree type="DecisionTree" boostWeight="1.0000000000000000e+00" itree="531">
      <Node pos="s" depth="0" NCoef="0" IVar="0" Cut="2.1990839391946793e-02" cType="1" res="6.0457158833742142e-03" rms="4.6258100867271423e-01" purity="5.0695878267288208e-01" nType="0">
        <Node pos="l" depth="1" NCoef="0" IVar="-1" Cut="0.0000000000000000e+00" cType="1" res="4.2816330678761005e-03" rms="4.5436462759971619e-01" purity="4.7742512822151184e-01" nType="-99"/>
        <Node pos="r" depth="1" NCoef="0" IVar="4" Cut="1.8402095884084702e-03" cType="1" res="7.0274563040584326e-04" rms="4.6291995048522949e-01" purity="5.0956737995147705e-01" nType="0">
          <Node pos="l" depth="2" NCoef="0" IVar="-1" Cut="0.0000000000000000e+00" cType="1" res="-7.5728300726041198e-04" rms="4.6109837293624878e-01" purity="5.4240673780441284e-01" nType="-99"/>
          <Node pos="r" depth="2" NCoef="0" IVar="-1" Cut="0.0000000000000000e+00" cType="1" res="1.5401188284158707e-03" rms="4.6561071276664734e-01" purity="4.4349035620689392e-01" nType="-99"/>
        </Node>
      </Node>
    </BinaryTree>
    <BinaryTree type="DecisionTree" boostWeight="1.0000000000000000e+00" itree="532">
      <Node pos="s" depth="0" NCoef="0" IVar="1" Cut="3.1160208582878113e-01" cType="1" res="-1.0452668648213148e-03" rms="4.6726948022842407e-01" purity="4.9946668744087219e-01" nType="0">
        <Node pos="l" depth="1" NCoef="0" IVar="5" Cut="7.0665985107421875e+02" cType="1" res="4.1978418827056885e-02" rms="4.5879250764846802e-01" purity="6.2445312738418579e-01" nType="0">
          <Node pos="l" depth="2" NCoef="0" IVar="-1" Cut="0.0000000000000000e+00" cType="1" res="5.6107374839484692e-03" rms="4.4803735613822937e-01" purity="6.2356656789779663e-01" nType="-99"/>
          <Node pos="r" depth="2" NCoef="0" IVar="-1" Cut="0.0000000000000000e+00" cType="1" res="2.7638877509161830e-04" rms="4.6563276648521423e-01" purity="6.2529706954956055e-01" nType="-99"/>
        </Node>
        <Node pos="r" depth="1" NCoef="0" IVar="1" Cut="1.9818234443664551e+00" cType="1" res="-6.4514400437474251e-03" rms="4.6804419159889221e-01" purity="4.8376145958900452e-01" nType="0">
          <Node pos="l" depth="2" NCoef="0" IVar="-1" Cut="0.0000000000000000e+00" cType="1" res="1.0569824553385843e-05" rms="4.7286453843116760e-01" purity="5.1903438568115234e-01" nType="-99"/>
          <Node pos="r" depth="2" NCoef="0" IVar="-1" Cut="0.0000000000000000e+00" cType="1" res="-2.4232207797467709e-03" rms="4.4232916831970215e-01" purity="3.1148225069046021e-01" nType="-99"/>
        </Node>
      </Node>
    </BinaryTree>
    <BinaryTree type="DecisionTree" boostWeight="1.0000000000000000e+00" itree="533">
      <Node pos="s" depth="0" NCoef="0" IVar="2" Cut="8.1051117181777954e-01" cType="1" res="9.1965897008776665e-03" rms="4.5913898944854736e-01" purity="5.1026421785354614e-01" nType="0">
        <Node pos="l" depth="1" NCoef="0" IVar="5" Cut="1.0133643188476562e+03" cType="1" res="2.6899459771811962e-03" rms="4.6225073933601379e-01" purity="4.8874381184577942e-01" nType="0">
          <Node pos="l" depth="2" NCoef="0" IVar="-1" Cut="0.0000000000000000e+00" cType="1" res="5.9322756715118885e-04" rms="4.5999634265899658e-01" purity="4.8403799533843994e-01" nType="-99"/>
          <Node pos="r" depth="2" NCoef="0" IVar="-1" Cut="0.0000000000000000e+00" cType="1" res="-2.0259853918105364e-03" rms="4.7270980477333069e-01" purity="5.1423603296279907e-01" nType="-99"/>
        </Node>
        <Node pos="r" depth="1" NCoef="0" IVar="-1" Cut="0.0000000000000000e+00" cType="1" res="5.4935319349169731e-03" rms="4.2253282666206360e-01" purity="7.1941125392913818e-01" nType="-99"/>
      </Node>
    </BinaryTree>
    <BinaryTree type="DecisionTree" boostWeight="1.0000000000000000e+00" itree="534">
      <Node pos="s" depth="0" NCoef="0" IVar="6" Cut="2.8536512851715088e+00" cType="1" res="-6.4894086681306362e-03" rms="4.6707090735435486e-01" purity="4.9665746092796326e-01" nType="0">
        <Node pos="l" depth="1" NCoef="0" IVar="4" Cut="2.8580655343830585e-03" cType="1" res="2.6818854734301567e-02" rms="4.6414813399314880e-01" purity="3.6133223772048950e-01" nType="0">
          <Node pos="l" depth="2" NCoef="0" IVar="-1" Cut="0.0000000000000000e+00" cType="1" res="5.1015376811847091e-04" rms="4.6090909838676453e-01" purity="3.5372763872146606e-01" nType="-99"/>
          <Node pos="r" depth="2" NCoef="0" IVar="-1" Cut="0.0000000000000000e+00" cType="1" res="5.0714495591819286e-03" rms="4.6888777613639832e-01" purity="3.8093620538711548e-01" nType="-99"/>
        </Node>
        <Node pos="r" depth="1" NCoef="0" IVar="0" Cut="4.2590271681547165e-02" cType="1" res="-1.9820420071482658e-02" rms="4.6757119894027710e-01" purity="5.5081892013549805e-01" nType="0">
          <Node pos="l" depth="2" NCoef="0" IVar="-1" Cut="0.0000000000000000e+00" cType="1" res="-2.9385040979832411e-03" rms="4.7516584396362305e-01" purity="4.3215459585189819e-01" nType="-99"/>
          <Node pos="r" depth="2" NCoef="0" IVar="-1" Cut="0.0000000000000000e+00" cType="1" res="-6.5188831649720669e-04" rms="4.6464604139328003e-01" purity="5.8939176797866821e-01" nType="-99"/>
        </Node>
      </Node>
    </BinaryTree>
    <BinaryTree type="DecisionTree" boostWeight="1.0000000000000000e+00" itree="535">
      <Node pos="s" depth="0" NCoef="0" IVar="2" Cut="6.9739955663681030e-01" cType="1" res="1.2583919800817966e-02" rms="4.6574684977531433e-01" purity="5.1353454589843750e-01" nType="0">
        <Node pos="l" depth="1" NCoef="0" IVar="4" Cut="1.9455262226983905e-03" cType="1" res="3.4724227152764797e-03" rms="4.6662554144859314e-01" purity="4.6486154198646545e-01" nType="0">
          <Node pos="l" depth="2" NCoef="0" IVar="-1" Cut="0.0000000000000000e+00" cType="1" res="1.1983196018263698e-03" rms="4.6994721889495850e-01" purity="5.1840305328369141e-01" nType="-99"/>
          <Node pos="r" depth="2" NCoef="0" IVar="-1" Cut="0.0000000000000000e+00" cType="1" res="-1.6645832220092416e-03" rms="4.5799806714057922e-01" purity="3.5328045487403870e-01" nType="-99"/>
        </Node>
        <Node pos="r" depth="1" NCoef="0" IVar="2" Cut="7.4052423238754272e-01" cType="1" res="3.6629598587751389e-02" rms="4.6255883574485779e-01" purity="6.4198493957519531e-01" nType="0">
          <Node pos="l" depth="2" NCoef="0" IVar="-1" Cut="0.0000000000000000e+00" cType="1" res="5.8559561148285866e-03" rms="4.5177257061004639e-01" purity="6.3170325756072998e-01" nType="-99"/>
          <Node pos="r" depth="2" NCoef="0" IVar="-1" Cut="0.0000000000000000e+00" cType="1" res="1.2332809856161475e-03" rms="4.6537330746650696e-01" purity="6.4608347415924072e-01" nType="-99"/>
        </Node>
      </Node>
    </BinaryTree>
    <BinaryTree type="DecisionTree" boostWeight="1.0000000000000000e+00" itree="536">
      <Node pos="s" depth="0" NCoef="0" IVar="5" Cut="1.1036468505859375e+03" cType="1" res="1.4283020282164216e-03" rms="4.6325474977493286e-01" purity="5.0232464075088501e-01" nType="0">
        <Node pos="l" depth="1" NCoef="0" IVar="5" Cut="6.3443328857421875e+02" cType="1" res="6.6964495927095413e-03" rms="4.6152803301811218e-01" purity="4.9829384684562683e-01" nType="0">
          <Node pos="l" depth="2" NCoef="0" IVar="-1" Cut="0.0000000000000000e+00" cType="1" res="-8.8720599887892604e-04" rms="4.5899456739425659e-01" purity="4.2437091469764709e-01" nType="-99"/>
          <Node pos="r" depth="2" NCoef="0" IVar="-1" Cut="0.0000000000000000e+00" cType="1" res="1.5743648400530219e-03" rms="4.6291834115982056e-01" purity="5.5989831686019897e-01" nType="-99"/>
        </Node>
        <Node pos="r" depth="1" NCoef="0" IVar="2" Cut="6.2537193298339844e-01" cType="1" res="-3.6583587527275085e-02" rms="4.7379502654075623e-01" purity="5.3140860795974731e-01" nType="0">
          <Node pos="l" depth="2" NCoef="0" IVar="-1" Cut="0.0000000000000000e+00" cType="1" res="-4.1307448409497738e-03" rms="4.7337752580642700e-01" purity="4.4376423954963684e-01" nType="-99"/>
          <Node pos="r" depth="2" NCoef="0" IVar="-1" Cut="0.0000000000000000e+00" cType="1" res="-6.4124021446332335e-04" rms="4.7253784537315369e-01" purity="6.0996383428573608e-01" nType="-99"/>
        </Node>
      </Node>
    </BinaryTree>
    <BinaryTree type="DecisionTree" boostWeight="1.0000000000000000e+00" itree="537">
      <Node pos="s" depth="0" NCoef="0" IVar="6" Cut="5.9101428985595703e+00" cType="1" res="3.9888708852231503e-03" rms="4.6614208817481995e-01" purity="5.0507479906082153e-01" nType="0">
        <Node pos="l" depth="1" NCoef="0" IVar="4" Cut="1.8481271108612418e-03" cType="1" res="-3.6595742130884901e-05" rms="4.7138312458992004e-01" purity="4.8574581742286682e-01" nType="0">
          <Node pos="l" depth="2" NCoef="0" IVar="-1" Cut="0.0000000000000000e+00" cType="1" res="-7.0873933145776391e-04" rms="4.7007605433464050e-01" purity="5.1281732320785522e-01" nType="-99"/>
          <Node pos="r" depth="2" NCoef="0" IVar="-1" Cut="0.0000000000000000e+00" cType="1" res="1.2053737882524729e-03" rms="4.7310715913772583e-01" purity="4.3613347411155701e-01" nType="-99"/>
        </Node>
        <Node pos="r" depth="1" NCoef="0" IVar="-1" Cut="0.0000000000000000e+00" cType="1" res="7.1093002334237099e-03" rms="3.5533079504966736e-01" purity="8.4260809421539307e-01" nType="-99"/>
      </Node>
    </BinaryTree>
    <BinaryTree type="DecisionTree" boostWeight="1.0000000000000000e+00" itree="538">
      <Node pos="s" depth="0" NCoef="0" IVar="6" Cut="5.9818644523620605e+00" cType="1" res="-1.1874618940055370e-02" rms="4.6578985452651978e-01" purity="4.8817387223243713e-01" nType="0">
        <Node pos="l" depth="1" NCoef="0" IVar="1" Cut="9.3422508239746094e-01" cType="1" res="-7.9724742099642754e-03" rms="4.6667537093162537e-01" purity="4.7760334610939026e-01" nType="0">
          <Node pos="l" depth="2" NCoef="0" IVar="-1" Cut="0.0000000000000000e+00" cType="1" res="-1.7642456805333495e-03" rms="4.6974211931228638e-01" purity="5.2585357427597046e-01" nType="-99"/>
          <Node pos="r" depth="2" NCoef="0" IVar="-1" Cut="0.0000000000000000e+00" cType="1" res="5.6526914704591036e-04" rms="4.6331566572189331e-01" purity="4.3564766645431519e-01" nType="-99"/>
        </Node>
        <Node pos="r" depth="1" NCoef="0" IVar="-1" Cut="0.0000000000000000e+00" cType="1" res="-6.9124400615692139e-03" rms="4.4398871064186096e-01" purity="6.7664110660552979e-01" nType="-99"/>
      </Node>
    </BinaryTree>
    <BinaryTree type="DecisionTree" boostWeight="1.0000000000000000e+00" itree="539">
      <Node pos="s" depth="0" NCoef="0" IVar="0" Cut="1.8299503624439240e-01" cType="1" res="-4.8100613057613373e-03" rms="4.6361488103866577e-01" purity="4.9474340677261353e-01" nType="0">
        <Node pos="l" depth="1" NCoef="0" IVar="0" Cut="1.4436815679073334e-01" cType="1" res="-9.4234962016344070e-03" rms="4.6456375718116760e-01" purity="4.7592008113861084e-01" nType="0">
          <Node pos="l" depth="2" NCoef="0" IVar="-1" Cut="0.0000000000000000e+00" cType="1" res="-1.7620861763134599e-04" rms="4.6207758784294128e-01" purity="4.7350853681564331e-01" nType="-99"/>
          <Node pos="r" depth="2" NCoef="0" IVar="-1" Cut="0.0000000000000000e+00" cType="1" res="-3.8605008739978075e-03" rms="4.7995102405548096e-01" purity="4.9412220716476440e-01" nType="-99"/>
        </Node>
        <Node pos="r" depth="1" NCoef="0" IVar="4" Cut="1.0241385316476226e-03" cType="1" res="3.3082440495491028e-02" rms="4.5397588610649109e-01" purity="6.4934855699539185e-01" nType="0">
          <Node pos="l" depth="2" NCoef="0" IVar="-1" Cut="0.0000000000000000e+00" cType="1" res="3.8845674134790897e-04" rms="4.4766405224800110e-01" purity="6.9792008399963379e-01" nType="-99"/>
          <Node pos="r" depth="2" NCoef="0" IVar="-1" Cut="0.0000000000000000e+00" cType="1" res="3.9231623522937298e-03" rms="4.5844924449920654e-01" purity="6.0114103555679321e-01" nType="-99"/>
        </Node>
      </Node>
    </BinaryTree>
    <BinaryTree type="DecisionTree" boostWeight="1.0000000000000000e+00" itree="540">
      <Node pos="s" depth="0" NCoef="0" IVar="2" Cut="8.4296607971191406e-01" cType="1" res="1.2660391628742218e-02" rms="4.6536853909492493e-01" purity="5.1617121696472168e-01" nType="0">
        <Node pos="l" depth="1" NCoef="0" IVar="3" Cut="1.4328944683074951e+00" cType="1" res="7.7070682309567928e-03" rms="4.6901473402976990e-01" purity="5.0176703929901123e-01" nType="0">
          <Node pos="l" depth="2" NCoef="0" IVar="-1" Cut="0.0000000000000000e+00" cType="1" res="-5.4190307855606079e-04" rms="4.6653941273689270e-01" purity="5.2153170108795166e-01" nType="-99"/>
          <Node pos="r" depth="2" NCoef="0" IVar="-1" Cut="0.0000000000000000e+00" cType="1" res="1.9765282049775124e-03" rms="4.7155106067657471e-01" purity="4.7374206781387329e-01" nType="-99"/>
        </Node>
        <Node pos="r" depth="1" NCoef="0" IVar="-1" Cut="0.0000000000000000e+00" cType="1" res="7.5143072754144669e-03" rms="3.8882920145988464e-01" purity="7.6088678836822510e-01" nType="-99"/>
      </Node>
    </BinaryTree>
    <BinaryTree type="DecisionTree" boostWeight="1.0000000000000000e+00" itree="541">
      <Node pos="s" depth="0" NCoef="0" IVar="6" Cut="2.7703781127929688e+00" cType="1" res="-6.8871644325554371e-03" rms="4.6428966522216797e-01" purity="4.8911589384078979e-01" nType="0">
        <Node pos="l" depth="1" NCoef="0" IVar="6" Cut="2.1181681156158447e+00" cType="1" res="1.4666156843304634e-02" rms="4.6005672216415405e-01" purity="3.4699061512947083e-01" nType="0">
          <Node pos="l" depth="2" NCoef="0" IVar="-1" Cut="0.0000000000000000e+00" cType="1" res="-7.2139868279919028e-04" rms="4.4157645106315613e-01" purity="2.8595077991485596e-01" nType="-99"/>
          <Node pos="r" depth="2" NCoef="0" IVar="-1" Cut="0.0000000000000000e+00" cType="1" res="2.3056131321936846e-03" rms="4.7491896152496338e-01" purity="4.0195384621620178e-01" nType="-99"/>
        </Node>
        <Node pos="r" depth="1" NCoef="0" IVar="4" Cut="1.7812856240198016e-03" cType="1" res="-1.5709534287452698e-02" rms="4.6572363376617432e-01" purity="5.4729175567626953e-01" nType="0">
          <Node pos="l" depth="2" NCoef="0" IVar="-1" Cut="0.0000000000000000e+00" cType="1" res="-8.6309307789633749e-07" rms="4.6312555670738220e-01" purity="5.8902543783187866e-01" nType="-99"/>
          <Node pos="r" depth="2" NCoef="0" IVar="-1" Cut="0.0000000000000000e+00" cType="1" res="-3.0359607189893723e-03" rms="4.6982607245445251e-01" purity="4.4468173384666443e-01" nType="-99"/>
        </Node>
      </Node>
    </BinaryTree>
    <BinaryTree type="DecisionTree" boostWeight="1.0000000000000000e+00" itree="542">
      <Node pos="s" depth="0" NCoef="0" IVar="6" Cut="3.9921631813049316e+00" cType="1" res="-2.0577339455485344e-03" rms="4.6436798572540283e-01" purity="4.9582496285438538e-01" nType="0">
        <Node pos="l" depth="1" NCoef="0" IVar="5" Cut="8.3503393554687500e+02" cType="1" res="1.2947858311235905e-02" rms="4.6713143587112427e-01" purity="4.1365659236907959e-01" nType="0">
          <Node pos="l" depth="2" NCoef="0" IVar="-1" Cut="0.0000000000000000e+00" cType="1" res="-5.0108817958971485e-05" rms="4.6140187978744507e-01" purity="3.8289272785186768e-01" nType="-99"/>
          <Node pos="r" depth="2" NCoef="0" IVar="-1" Cut="0.0000000000000000e+00" cType="1" res="3.0075067188590765e-03" rms="4.8001524806022644e-01" purity="4.9469882249832153e-01" nType="-99"/>
        </Node>
        <Node pos="r" depth="1" NCoef="0" IVar="2" Cut="5.8322513103485107e-01" cType="1" res="-2.4845728650689125e-02" rms="4.5920279622077942e-01" purity="6.2060862779617310e-01" nType="0">
          <Node pos="l" depth="2" NCoef="0" IVar="-1" Cut="0.0000000000000000e+00" cType="1" res="-3.4946778323501348e-03" rms="4.8274642229080200e-01" purity="5.0953215360641479e-01" nType="-99"/>
          <Node pos="r" depth="2" NCoef="0" IVar="-1" Cut="0.0000000000000000e+00" cType="1" res="2.6406304095871747e-04" rms="4.3649476766586304e-01" purity="7.1376067399978638e-01" nType="-99"/>
        </Node>
      </Node>
    </BinaryTree>
    <BinaryTree type="DecisionTree" boostWeight="1.0000000000000000e+00" itree="543">
      <Node pos="s" depth="0" NCoef="0" IVar="3" Cut="6.8430751562118530e-01" cType="1" res="4.0168906562030315e-03" rms="4.6615582704544067e-01" purity="5.0448781251907349e-01" nType="0">
        <Node pos="l" depth="1" NCoef="0" IVar="3" Cut="5.7704913616180420e-01" cType="1" res="7.2003729641437531e-02" rms="4.6395006775856018e-01" purity="5.9155654907226562e-01" nType="0">
          <Node pos="l" depth="2" NCoef="0" IVar="-1" Cut="0.0000000000000000e+00" cType="1" res="7.2061414830386639e-03" rms="4.6735525131225586e-01" purity="6.1027592420578003e-01" nType="-99"/>
          <Node pos="r" depth="2" NCoef="0" IVar="-1" Cut="0.0000000000000000e+00" cType="1" res="2.9274101834744215e-03" rms="4.5906919240951538e-01" purity="5.7442057132720947e-01" nType="-99"/>
        </Node>
        <Node pos="r" depth="1" NCoef="0" IVar="6" Cut="4.1034359931945801e+00" cType="1" res="-4.5634149573743343e-03" rms="4.6572870016098022e-01" purity="4.9349924921989441e-01" nType="0">
          <Node pos="l" depth="2" NCoef="0" IVar="-1" Cut="0.0000000000000000e+00" cType="1" res="5.9033051365986466e-04" rms="4.6632856130599976e-01" purity="4.1689673066139221e-01" nType="-99"/>
          <Node pos="r" depth="2" NCoef="0" IVar="-1" Cut="0.0000000000000000e+00" cType="1" res="-1.9866088405251503e-03" rms="4.6371331810951233e-01" purity="6.2385606765747070e-01" nType="-99"/>
        </Node>
      </Node>
    </BinaryTree>
    <BinaryTree type="DecisionTree" boostWeight="1.0000000000000000e+00" itree="544">
      <Node pos="s" depth="0" NCoef="0" IVar="0" Cut="4.0244791656732559e-02" cType="1" res="-6.9422330707311630e-03" rms="4.6508118510246277e-01" purity="4.9298322200775146e-01" nType="0">
        <Node pos="l" depth="1" NCoef="0" IVar="5" Cut="1.1039973144531250e+03" cType="1" res="-3.3976353704929352e-02" rms="4.6155706048011780e-01" purity="3.9859250187873840e-01" nType="0">
          <Node pos="l" depth="2" NCoef="0" IVar="-1" Cut="0.0000000000000000e+00" cType="1" res="-3.1146190594881773e-03" rms="4.5634481310844421e-01" purity="3.5543102025985718e-01" nType="-99"/>
          <Node pos="r" depth="2" NCoef="0" IVar="-1" Cut="0.0000000000000000e+00" cType="1" res="1.2858544941991568e-03" rms="4.7407948970794678e-01" purity="5.3992617130279541e-01" nType="-99"/>
        </Node>
        <Node pos="r" depth="1" NCoef="0" IVar="3" Cut="9.8597216606140137e-01" cType="1" res="6.5230589825659990e-04" rms="4.6578416228294373e-01" purity="5.1949983835220337e-01" nType="0">
          <Node pos="l" depth="2" NCoef="0" IVar="-1" Cut="0.0000000000000000e+00" cType="1" res="2.5899009779095650e-03" rms="4.6658819913864136e-01" purity="6.0179388523101807e-01" nType="-99"/>
          <Node pos="r" depth="2" NCoef="0" IVar="-1" Cut="0.0000000000000000e+00" cType="1" res="-9.1029686154797673e-04" rms="4.6462342143058777e-01" purity="4.8717197775840759e-01" nType="-99"/>
        </Node>
      </Node>
    </BinaryTree>
    <BinaryTree type="DecisionTree" boostWeight="1.0000000000000000e+00" itree="545">
      <Node pos="s" depth="0" NCoef="0" IVar="3" Cut="7.3117595911026001e-01" cType="1" res="-1.0489184409379959e-02" rms="4.6288716793060303e-01" purity="4.8915243148803711e-01" nType="0">
        <Node pos="l" depth="1" NCoef="0" IVar="2" Cut="5.5412530899047852e-01" cType="1" res="3.5635538399219513e-02" rms="4.6182754635810852e-01" purity="5.6094735860824585e-01" nType="0">
          <Node pos="l" depth="2" NCoef="0" IVar="-1" Cut="0.0000000000000000e+00" cType="1" res="-5.1097461255267262e-04" rms="4.7134134173393250e-01" purity="4.4673550128936768e-01" nType="-99"/>
          <Node pos="r" depth="2" NCoef="0" IVar="-1" Cut="0.0000000000000000e+00" cType="1" res="4.2142583988606930e-03" rms="4.5416444540023804e-01" purity="6.2817281484603882e-01" nType="-99"/>
        </Node>
        <Node pos="r" depth="1" NCoef="0" IVar="1" Cut="2.1247839927673340e-01" cType="1" res="-1.8014449626207352e-02" rms="4.6262368559837341e-01" purity="4.7743904590606689e-01" nType="0">
          <Node pos="l" depth="2" NCoef="0" IVar="-1" Cut="0.0000000000000000e+00" cType="1" res="-4.7329934313893318e-03" rms="4.8111277818679810e-01" purity="5.1521122455596924e-01" nType="-99"/>
          <Node pos="r" depth="2" NCoef="0" IVar="-1" Cut="0.0000000000000000e+00" cType="1" res="-9.0817920863628387e-04" rms="4.6114382147789001e-01" purity="4.7496598958969116e-01" nType="-99"/>
        </Node>
      </Node>
    </BinaryTree>
    <BinaryTree type="DecisionTree" boostWeight="1.0000000000000000e+00" itree="546">
      <Node pos="s" depth="0" NCoef="0" IVar="4" Cut="3.0858267564326525e-03" cType="1" res="-3.5661400761455297e-03" rms="4.6274057030677795e-01" purity="4.9532541632652283e-01" nType="0">
        <Node pos="l" depth="1" NCoef="0" IVar="5" Cut="1.0369447021484375e+03" cType="1" res="-1.0684735141694546e-02" rms="4.6096011996269226e-01" purity="5.0371783971786499e-01" nType="0">
          <Node pos="l" depth="2" NCoef="0" IVar="-1" Cut="0.0000000000000000e+00" cType="1" res="-1.1096623493358493e-03" rms="4.6168425679206848e-01" purity="4.8869451880455017e-01" nType="-99"/>
          <Node pos="r" depth="2" NCoef="0" IVar="-1" Cut="0.0000000000000000e+00" cType="1" res="1.8637180328369141e-03" rms="4.5477876067161560e-01" purity="5.9185653924942017e-01" nType="-99"/>
        </Node>
        <Node pos="r" depth="1" NCoef="0" IVar="0" Cut="8.2224458456039429e-02" cType="1" res="4.8783231526613235e-02" rms="4.7234502434730530e-01" purity="4.3360841274261475e-01" nType="0">
          <Node pos="l" depth="2" NCoef="0" IVar="-1" Cut="0.0000000000000000e+00" cType="1" res="4.8354612663388252e-03" rms="4.6704739332199097e-01" purity="4.3735653162002563e-01" nType="-99"/>
          <Node pos="r" depth="2" NCoef="0" IVar="-1" Cut="0.0000000000000000e+00" cType="1" res="8.8700006017461419e-04" rms="4.7690260410308838e-01" purity="4.2878115177154541e-01" nType="-99"/>
        </Node>
      </Node>
    </BinaryTree>
    <BinaryTree type="DecisionTree" boostWeight="1.0000000000000000e+00" itree="547">
      <Node pos="s" depth="0" NCoef="0" IVar="2" Cut="3.8963669538497925e-01" cType="1" res="-1.2125256471335888e-02" rms="4.6114560961723328e-01" purity="4.8789778351783752e-01" nType="0">
        <Node pos="l" depth="1" NCoef="0" IVar="-1" Cut="0.0000000000000000e+00" cType="1" res="-4.6674953773617744e-03" rms="4.2417514324188232e-01" purity="2.9655331373214722e-01" nType="-99"/>
        <Node pos="r" depth="1" NCoef="0" IVar="4" Cut="8.9822488371282816e-04" cType="1" res="-7.3455199599266052e-03" rms="4.6333852410316467e-01" purity="5.0173044204711914e-01" nType="0">
          <Node pos="l" depth="2" NCoef="0" IVar="-1" Cut="0.0000000000000000e+00" cType="1" res="-1.6449457034468651e-03" rms="4.5757782459259033e-01" purity="5.6720632314682007e-01" nType="-99"/>
          <Node pos="r" depth="2" NCoef="0" IVar="-1" Cut="0.0000000000000000e+00" cType="1" res="3.2117927912622690e-04" rms="4.6725511550903320e-01" purity="4.5220142602920532e-01" nType="-99"/>
        </Node>
      </Node>
    </BinaryTree>
    <BinaryTree type="DecisionTree" boostWeight="1.0000000000000000e+00" itree="548">
      <Node pos="s" depth="0" NCoef="0" IVar="4" Cut="9.7985391039401293e-04" cType="1" res="-6.7772157490253448e-03" rms="4.6371915936470032e-01" purity="4.9474790692329407e-01" nType="0">
        <Node pos="l" depth="1" NCoef="0" IVar="6" Cut="2.6610491275787354e+00" cType="1" res="1.1867338791489601e-02" rms="4.5920917391777039e-01" purity="5.8529078960418701e-01" nType="0">
          <Node pos="l" depth="2" NCoef="0" IVar="-1" Cut="0.0000000000000000e+00" cType="1" res="-2.0614564418792725e-03" rms="4.5365160703659058e-01" purity="3.2405608892440796e-01" nType="-99"/>
          <Node pos="r" depth="2" NCoef="0" IVar="-1" Cut="0.0000000000000000e+00" cType="1" res="1.3141190866008401e-03" rms="4.5965507626533508e-01" purity="6.2482714653015137e-01" nType="-99"/>
        </Node>
        <Node pos="r" depth="1" NCoef="0" IVar="6" Cut="4.5023012161254883e+00" cType="1" res="-2.2210484370589256e-02" rms="4.6685650944709778e-01" purity="4.1979995369911194e-01" nType="0">
          <Node pos="l" depth="2" NCoef="0" IVar="-1" Cut="0.0000000000000000e+00" cType="1" res="-6.5650884062051773e-04" rms="4.6434208750724792e-01" purity="3.9949110150337219e-01" nType="-99"/>
          <Node pos="r" depth="2" NCoef="0" IVar="-1" Cut="0.0000000000000000e+00" cType="1" res="-5.0381328910589218e-03" rms="4.7555229067802429e-01" purity="5.2907609939575195e-01" nType="-99"/>
        </Node>
      </Node>
    </BinaryTree>
    <BinaryTree type="DecisionTree" boostWeight="1.0000000000000000e+00" itree="549">
      <Node pos="s" depth="0" NCoef="0" IVar="1" Cut="4.4445538520812988e-01" cType="1" res="5.1304558292031288e-03" rms="4.6571806073188782e-01" purity="5.0488579273223877e-01" nType="0">
        <Node pos="l" depth="1" NCoef="0" IVar="6" Cut="3.4112122058868408e+00" cType="1" res="3.1783696264028549e-02" rms="4.5877879858016968e-01" purity="6.1969590187072754e-01" nType="0">
          <Node pos="l" depth="2" NCoef="0" IVar="-1" Cut="0.0000000000000000e+00" cType="1" res="4.4016470201313496e-03" rms="4.8339462280273438e-01" purity="5.1934236288070679e-01" nType="-99"/>
          <Node pos="r" depth="2" NCoef="0" IVar="-1" Cut="0.0000000000000000e+00" cType="1" res="3.1284682336263359e-04" rms="4.3807986378669739e-01" purity="6.9214761257171631e-01" nType="-99"/>
        </Node>
        <Node pos="r" depth="1" NCoef="0" IVar="0" Cut="1.8065251410007477e-01" cType="1" res="-9.4669172540307045e-04" rms="4.6707296371459961e-01" purity="4.7870814800262451e-01" nType="0">
          <Node pos="l" depth="2" NCoef="0" IVar="-1" Cut="0.0000000000000000e+00" cType="1" res="3.1448283698409796e-04" rms="4.6667450666427612e-01" purity="4.7310468554496765e-01" nType="-99"/>
          <Node pos="r" depth="2" NCoef="0" IVar="-1" Cut="0.0000000000000000e+00" cType="1" res="-3.3365080598741770e-03" rms="4.6745294332504272e-01" purity="5.2599614858627319e-01" nType="-99"/>
        </Node>
      </Node>
    </BinaryTree>
    <BinaryTree type="DecisionTree" boostWeight="1.0000000000000000e+00" itree="550">
      <Node pos="s" depth="0" NCoef="0" IVar="1" Cut="3.5414457321166992e-01" cType="1" res="-5.0635184161365032e-03" rms="4.6157824993133545e-01" purity="4.9848026037216187e-01" nType="0">
        <Node pos="l" depth="1" NCoef="0" IVar="4" Cut="1.3731596991419792e-03" cType="1" res="3.0745375901460648e-02" rms="4.5760947465896606e-01" purity="6.0862392187118530e-01" nType="0">
          <Node pos="l" depth="2" NCoef="0" IVar="-1" Cut="0.0000000000000000e+00" cType="1" res="-6.1503920005634427e-04" rms="4.4285333156585693e-01" purity="6.2640351057052612e-01" nType="-99"/>
          <Node pos="r" depth="2" NCoef="0" IVar="-1" Cut="0.0000000000000000e+00" cType="1" res="5.2125607617199421e-03" rms="4.7193732857704163e-01" purity="5.8385521173477173e-01" nType="-99"/>
        </Node>
        <Node pos="r" depth="1" NCoef="0" IVar="2" Cut="7.3837268352508545e-01" cType="1" res="-1.0694483295083046e-02" rms="4.6194672584533691e-01" purity="4.8116016387939453e-01" nType="0">
          <Node pos="l" depth="2" NCoef="0" IVar="-1" Cut="0.0000000000000000e+00" cType="1" res="-8.5773521277587861e-05" rms="4.5937246084213257e-01" purity="4.5989930629730225e-01" nType="-99"/>
          <Node pos="r" depth="2" NCoef="0" IVar="-1" Cut="0.0000000000000000e+00" cType="1" res="-3.4697041846811771e-03" rms="4.7067645192146301e-01" purity="5.7157886028289795e-01" nType="-99"/>
        </Node>
      </Node>
    </BinaryTree>
    <BinaryTree type="DecisionTree" boostWeight="1.0000000000000000e+00" itree="551">
      <Node pos="s" depth="0" NCoef="0" IVar="1" Cut="3.7591770291328430e-01" cType="1" res="-1.1170247569680214e-02" rms="4.6272751688957214e-01" purity="4.8860844969749451e-01" nType="0">
        <Node pos="l" depth="1" NCoef="0" IVar="2" Cut="6.0596686601638794e-01" cType="1" res="-4.5248810201883316e-02" rms="4.6866652369499207e-01" purity="5.4052531719207764e-01" nType="0">
          <Node pos="l" depth="2" NCoef="0" IVar="-1" Cut="0.0000000000000000e+00" cType="1" res="1.2631284771487117e-03" rms="4.5000588893890381e-01" purity="5.4112404584884644e-01" nType="-99"/>
          <Node pos="r" depth="2" NCoef="0" IVar="-1" Cut="0.0000000000000000e+00" cType="1" res="-5.5181342177093029e-03" rms="4.7505828738212585e-01" purity="5.4018419981002808e-01" nType="-99"/>
        </Node>
        <Node pos="r" depth="1" NCoef="0" IVar="3" Cut="1.7365566492080688e+00" cType="1" res="-4.8271124251186848e-03" rms="4.6133583784103394e-01" purity="4.7894498705863953e-01" nType="0">
          <Node pos="l" depth="2" NCoef="0" IVar="-1" Cut="0.0000000000000000e+00" cType="1" res="-9.6660491544753313e-04" rms="4.6058535575866699e-01" purity="4.9801424145698547e-01" nType="-99"/>
          <Node pos="r" depth="2" NCoef="0" IVar="-1" Cut="0.0000000000000000e+00" cType="1" res="1.7664696788415313e-03" rms="4.6217226982116699e-01" purity="4.1973277926445007e-01" nType="-99"/>
        </Node>
      </Node>
    </BinaryTree>
    <BinaryTree type="DecisionTree" boostWeight="1.0000000000000000e+00" itree="552">
      <Node pos="s" depth="0" NCoef="0" IVar="0" Cut="7.8336901962757111e-02" cType="1" res="9.8891295492649078e-03" rms="4.6127361059188843e-01" purity="5.1254802942276001e-01" nType="0">
        <Node pos="l" depth="1" NCoef="0" IVar="3" Cut="1.2698763608932495e+00" cType="1" res="-1.3197672553360462e-02" rms="4.6297854185104370e-01" purity="4.4297975301742554e-01" nType="0">
          <Node pos="l" depth="2" NCoef="0" IVar="-1" Cut="0.0000000000000000e+00" cType="1" res="3.8275719271041453e-04" rms="4.6581906080245972e-01" purity="5.0504708290100098e-01" nType="-99"/>
          <Node pos="r" depth="2" NCoef="0" IVar="-1" Cut="0.0000000000000000e+00" cType="1" res="-2.0124414004385471e-03" rms="4.5929390192031860e-01" purity="3.8064140081405640e-01" nType="-99"/>
        </Node>
        <Node pos="r" depth="1" NCoef="0" IVar="4" Cut="1.7559600528329611e-03" cType="1" res="3.0816126614809036e-02" rms="4.5871984958648682e-01" purity="5.7560813426971436e-01" nType="0">
          <Node pos="l" depth="2" NCoef="0" IVar="-1" Cut="0.0000000000000000e+00" cType="1" res="3.8298049475997686e-03" rms="4.4581723213195801e-01" purity="6.4378213882446289e-01" nType="-99"/>
          <Node pos="r" depth="2" NCoef="0" IVar="-1" Cut="0.0000000000000000e+00" cType="1" res="-4.8524825251661241e-04" rms="4.7773048281669617e-01" purity="4.5765906572341919e-01" nType="-99"/>
        </Node>
      </Node>
    </BinaryTree>
    <BinaryTree type="DecisionTree" boostWeight="1.0000000000000000e+00" itree="553">
      <Node pos="s" depth="0" NCoef="0" IVar="3" Cut="5.9205973148345947e-01" cType="1" res="-3.0416701920330524e-03" rms="4.6702006459236145e-01" purity="4.9246931076049805e-01" nType="0">
        <Node pos="l" depth="1" NCoef="0" IVar="-1" Cut="0.0000000000000000e+00" cType="1" res="-3.6574883852154016e-03" rms="4.7597667574882507e-01" purity="4.3888190388679504e-01" nType="-99"/>
        <Node pos="r" depth="1" NCoef="0" IVar="0" Cut="1.3625815510749817e-01" cType="1" res="1.1731343111023307e-03" rms="4.6608051657676697e-01" purity="4.9637106060981750e-01" nType="0">
          <Node pos="l" depth="2" NCoef="0" IVar="-1" Cut="0.0000000000000000e+00" cType="1" res="5.9868925018236041e-04" rms="4.6532431244850159e-01" purity="4.7974565625190735e-01" nType="-99"/>
          <Node pos="r" depth="2" NCoef="0" IVar="-1" Cut="0.0000000000000000e+00" cType="1" res="-1.6646154690533876e-03" rms="4.6751508116722107e-01" purity="5.4943358898162842e-01" nType="-99"/>
        </Node>
      </Node>
    </BinaryTree>
    <BinaryTree type="DecisionTree" boostWeight="1.0000000000000000e+00" itree="554">
      <Node pos="s" depth="0" NCoef="0" IVar="4" Cut="1.9244821742177010e-03" cType="1" res="3.5578999668359756e-03" rms="4.6043854951858521e-01" purity="5.0311273336410522e-01" nType="0">
        <Node pos="l" depth="1" NCoef="0" IVar="6" Cut="4.6640987396240234e+00" cType="1" res="-1.0683348402380943e-02" rms="4.5838519930839539e-01" purity="5.3336280584335327e-01" nType="0">
          <Node pos="l" depth="2" NCoef="0" IVar="-1" Cut="0.0000000000000000e+00" cType="1" res="-1.5429191989824176e-03" rms="4.7133558988571167e-01" purity="4.4688519835472107e-01" nType="-99"/>
          <Node pos="r" depth="2" NCoef="0" IVar="-1" Cut="0.0000000000000000e+00" cType="1" res="1.4696116559207439e-03" rms="4.2842623591423035e-01" purity="7.1474218368530273e-01" nType="-99"/>
        </Node>
        <Node pos="r" depth="1" NCoef="0" IVar="5" Cut="5.3654132080078125e+02" cType="1" res="3.3354159444570541e-02" rms="4.6329137682914734e-01" purity="4.3982189893722534e-01" nType="0">
          <Node pos="l" depth="2" NCoef="0" IVar="-1" Cut="0.0000000000000000e+00" cType="1" res="-1.0459002805873752e-03" rms="4.2904955148696899e-01" purity="3.0204716324806213e-01" nType="-99"/>
          <Node pos="r" depth="2" NCoef="0" IVar="-1" Cut="0.0000000000000000e+00" cType="1" res="2.9339003376662731e-03" rms="4.7216835618019104e-01" purity="4.8172786831855774e-01" nType="-99"/>
        </Node>
      </Node>
    </BinaryTree>
    <BinaryTree type="DecisionTree" boostWeight="1.0000000000000000e+00" itree="555">
      <Node pos="s" depth="0" NCoef="0" IVar="2" Cut="6.8075549602508545e-01" cType="1" res="-1.3136918656527996e-02" rms="4.6608790755271912e-01" purity="4.9050980806350708e-01" nType="0">
        <Node pos="l" depth="1" NCoef="0" IVar="4" Cut="3.2548775197938085e-04" cType="1" res="9.1296102618798614e-04" rms="4.6672639250755310e-01" purity="4.5956027507781982e-01" nType="0">
          <Node pos="l" depth="2" NCoef="0" IVar="-1" Cut="0.0000000000000000e+00" cType="1" res="-2.5002842303365469e-03" rms="4.7139754891395569e-01" purity="5.4711079597473145e-01" nType="-99"/>
          <Node pos="r" depth="2" NCoef="0" IVar="-1" Cut="0.0000000000000000e+00" cType="1" res="7.8230473445728421e-04" rms="4.6463385224342346e-01" purity="4.3250522017478943e-01" nType="-99"/>
        </Node>
        <Node pos="r" depth="1" NCoef="0" IVar="6" Cut="4.7526202201843262e+00" cType="1" res="-4.2262315750122070e-02" rms="4.6340668201446533e-01" purity="5.5466824769973755e-01" nType="0">
          <Node pos="l" depth="2" NCoef="0" IVar="-1" Cut="0.0000000000000000e+00" cType="1" res="-3.4820621367543936e-03" rms="4.7967591881752014e-01" purity="4.8038077354431152e-01" nType="-99"/>
          <Node pos="r" depth="2" NCoef="0" IVar="-1" Cut="0.0000000000000000e+00" cType="1" res="7.3049002094194293e-04" rms="4.0418940782546997e-01" purity="7.8751266002655029e-01" nType="-99"/>
        </Node>
      </Node>
    </BinaryTree>
    <BinaryTree type="DecisionTree" boostWeight="1.0000000000000000e+00" itree="556">
      <Node pos="s" depth="0" NCoef="0" IVar="0" Cut="1.9888512790203094e-01" cType="1" res="-3.7668185541406274e-04" rms="4.6672016382217407e-01" purity="4.9809816479682922e-01" nType="0">
        <Node pos="l" depth="1" NCoef="0" IVar="5" Cut="9.5274957275390625e+02" cType="1" res="3.6322188097983599e-03" rms="4.6656563878059387e-01" purity="4.9386399984359741e-01" nType="0">
          <Node pos="l" depth="2" NCoef="0" IVar="-1" Cut="0.0000000000000000e+00" cType="1" res="6.7275640321895480e-04" rms="4.6362170577049255e-01" purity="4.8561269044876099e-01" nType="-99"/>
          <Node pos="r" depth="2" NCoef="0" IVar="-1" Cut="0.0000000000000000e+00" cType="1" res="-1.3991672312840819e-03" rms="4.7644385695457458e-01" purity="5.2444040775299072e-01" nType="-99"/>
        </Node>
        <Node pos="r" depth="1" NCoef="0" IVar="-1" Cut="0.0000000000000000e+00" cType="1" res="-3.0431023333221674e-03" rms="4.6608361601829529e-01" purity="5.4575645923614502e-01" nType="-99"/>
      </Node>
    </BinaryTree>
    <BinaryTree type="DecisionTree" boostWeight="1.0000000000000000e+00" itree="557">
      <Node pos="s" depth="0" NCoef="0" IVar="2" Cut="7.7142238616943359e-01" cType="1" res="2.6086485013365746e-04" rms="4.6113136410713196e-01" purity="4.9796634912490845e-01" nType="0">
        <Node pos="l" depth="1" NCoef="0" IVar="6" Cut="3.4863619804382324e+00" cType="1" res="-7.3535647243261337e-03" rms="4.6396484971046448e-01" purity="4.6913412213325500e-01" nType="0">
          <Node pos="l" depth="2" NCoef="0" IVar="-1" Cut="0.0000000000000000e+00" cType="1" res="-1.4076108345761895e-03" rms="4.5361322164535522e-01" purity="3.2888871431350708e-01" nType="-99"/>
          <Node pos="r" depth="2" NCoef="0" IVar="-1" Cut="0.0000000000000000e+00" cType="1" res="4.0385694592259824e-04" rms="4.7239542007446289e-01" purity="5.9158563613891602e-01" nType="-99"/>
        </Node>
        <Node pos="r" depth="1" NCoef="0" IVar="3" Cut="1.1698175668716431e+00" cType="1" res="4.4676735997200012e-02" rms="4.4163456559181213e-01" purity="6.6614806652069092e-01" nType="0">
          <Node pos="l" depth="2" NCoef="0" IVar="-1" Cut="0.0000000000000000e+00" cType="1" res="5.6719332933425903e-03" rms="4.3447819352149963e-01" purity="7.0583254098892212e-01" nType="-99"/>
          <Node pos="r" depth="2" NCoef="0" IVar="-1" Cut="0.0000000000000000e+00" cType="1" res="9.7910501062870026e-04" rms="4.4634810090065002e-01" purity="6.2765407562255859e-01" nType="-99"/>
        </Node>
      </Node>
    </BinaryTree>
    <BinaryTree type="DecisionTree" boostWeight="1.0000000000000000e+00" itree="558">
      <Node pos="s" depth="0" NCoef="0" IVar="3" Cut="5.9711557626724243e-01" cType="1" res="-1.0342753492295742e-02" rms="4.6431848406791687e-01" purity="4.8627787828445435e-01" nType="0">
        <Node pos="l" depth="1" NCoef="0" IVar="-1" Cut="0.0000000000000000e+00" cType="1" res="-4.5045162551105022e-03" rms="4.8358786106109619e-01" purity="4.4311171770095825e-01" nType="-99"/>
        <Node pos="r" depth="1" NCoef="0" IVar="4" Cut="1.8780683167278767e-03" cType="1" res="-5.0226198509335518e-03" rms="4.6231257915496826e-01" purity="4.8977893590927124e-01" nType="0">
          <Node pos="l" depth="2" NCoef="0" IVar="-1" Cut="0.0000000000000000e+00" cType="1" res="-1.1092788772657514e-03" rms="4.5871719717979431e-01" purity="5.1628386974334717e-01" nType="-99"/>
          <Node pos="r" depth="2" NCoef="0" IVar="-1" Cut="0.0000000000000000e+00" cType="1" res="1.2245313264429569e-03" rms="4.6884971857070923e-01" purity="4.3362537026405334e-01" nType="-99"/>
        </Node>
      </Node>
    </BinaryTree>
    <BinaryTree type="DecisionTree" boostWeight="1.0000000000000000e+00" itree="559">
      <Node pos="s" depth="0" NCoef="0" IVar="0" Cut="7.0280373096466064e-02" cType="1" res="-2.7491173241287470e-03" rms="4.6470078825950623e-01" purity="4.9749055504798889e-01" nType="0">
        <Node pos="l" depth="1" NCoef="0" IVar="3" Cut="1.1607540845870972e+00" cType="1" res="1.7309052869677544e-02" rms="4.6754983067512512e-01" purity="4.6619838476181030e-01" nType="0">
          <Node pos="l" depth="2" NCoef="0" IVar="-1" Cut="0.0000000000000000e+00" cType="1" res="2.9734033159911633e-03" rms="4.6819615364074707e-01" purity="5.4714983701705933e-01" nType="-99"/>
          <Node pos="r" depth="2" NCoef="0" IVar="-1" Cut="0.0000000000000000e+00" cType="1" res="-2.8744200244545937e-04" rms="4.6587449312210083e-01" purity="4.0531456470489502e-01" nType="-99"/>
        </Node>
        <Node pos="r" depth="1" NCoef="0" IVar="0" Cut="1.7888547480106354e-01" cType="1" res="-1.7753520980477333e-02" rms="4.6198907494544983e-01" purity="5.2089852094650269e-01" nType="0">
          <Node pos="l" depth="2" NCoef="0" IVar="-1" Cut="0.0000000000000000e+00" cType="1" res="-2.1627906244248152e-03" rms="4.6516838669776917e-01" purity="4.8656183481216431e-01" nType="-99"/>
          <Node pos="r" depth="2" NCoef="0" IVar="-1" Cut="0.0000000000000000e+00" cType="1" res="2.7108395006507635e-03" rms="4.4608959555625916e-01" purity="6.4095699787139893e-01" nType="-99"/>
        </Node>
      </Node>
    </BinaryTree>
    <BinaryTree type="DecisionTree" boostWeight="1.0000000000000000e+00" itree="560">
      <Node pos="s" depth="0" NCoef="0" IVar="3" Cut="1.7163707017898560e+00" cType="1" res="7.3233316652476788e-03" rms="4.6869701147079468e-01" purity="5.0706619024276733e-01" nType="0">
        <Node pos="l" depth="1" NCoef="0" IVar="6" Cut="3.2987151145935059e+00" cType="1" res="-2.0684704650193453e-03" rms="4.7051635384559631e-01" purity="5.3122550249099731e-01" nType="0">
          <Node pos="l" depth="2" NCoef="0" IVar="-1" Cut="0.0000000000000000e+00" cType="1" res="1.3214224018156528e-03" rms="4.7318577766418457e-01" purity="4.1105228662490845e-01" nType="-99"/>
          <Node pos="r" depth="2" NCoef="0" IVar="-1" Cut="0.0000000000000000e+00" cType="1" res="-1.1575109092518687e-03" rms="4.6812754869461060e-01" purity="6.0939151048660278e-01" nType="-99"/>
        </Node>
        <Node pos="r" depth="1" NCoef="0" IVar="4" Cut="2.5873521808534861e-03" cType="1" res="3.4476667642593384e-02" rms="4.6232488751411438e-01" purity="4.3721756339073181e-01" nType="0">
          <Node pos="l" depth="2" NCoef="0" IVar="-1" Cut="0.0000000000000000e+00" cType="1" res="1.0358229046687484e-03" rms="4.6523237228393555e-01" purity="4.4142758846282959e-01" nType="-99"/>
          <Node pos="r" depth="2" NCoef="0" IVar="-1" Cut="0.0000000000000000e+00" cType="1" res="7.0206266827881336e-03" rms="4.4526237249374390e-01" purity="4.2189770936965942e-01" nType="-99"/>
        </Node>
      </Node>
    </BinaryTree>
    <BinaryTree type="DecisionTree" boostWeight="1.0000000000000000e+00" itree="561">
      <Node pos="s" depth="0" NCoef="0" IVar="5" Cut="1.0655429687500000e+03" cType="1" res="1.6470875591039658e-02" rms="4.6260261535644531e-01" purity="5.1428407430648804e-01" nType="0">
        <Node pos="l" depth="1" NCoef="0" IVar="4" Cut="3.5667542833834887e-03" cType="1" res="2.2955168038606644e-02" rms="4.6067586541175842e-01" purity="5.1016330718994141e-01" nType="0">
          <Node pos="l" depth="2" NCoef="0" IVar="-1" Cut="0.0000000000000000e+00" cType="1" res="1.2588805984705687e-03" rms="4.6054518222808838e-01" purity="5.1432222127914429e-01" nType="-99"/>
          <Node pos="r" depth="2" NCoef="0" IVar="-1" Cut="0.0000000000000000e+00" cType="1" res="4.3901666067540646e-03" rms="4.5962551236152649e-01" purity="4.5373046398162842e-01" nType="-99"/>
        </Node>
        <Node pos="r" depth="1" NCoef="0" IVar="4" Cut="1.2973883422091603e-03" cType="1" res="-2.1387068554759026e-02" rms="4.7192007303237915e-01" purity="5.3834307193756104e-01" nType="0">
          <Node pos="l" depth="2" NCoef="0" IVar="-1" Cut="0.0000000000000000e+00" cType="1" res="-4.6707196161150932e-03" rms="4.6478414535522461e-01" purity="5.3322565555572510e-01" nType="-99"/>
          <Node pos="r" depth="2" NCoef="0" IVar="-1" Cut="0.0000000000000000e+00" cType="1" res="2.3084259591996670e-03" rms="4.7316837310791016e-01" purity="5.4428863525390625e-01" nType="-99"/>
        </Node>
      </Node>
    </BinaryTree>
    <BinaryTree type="DecisionTree" boostWeight="1.0000000000000000e+00" itree="562">
      <Node pos="s" depth="0" NCoef="0" IVar="1" Cut="6.6031104326248169e-01" cType="1" res="3.6962470039725304e-03" rms="4.6336421370506287e-01" purity="5.0315833091735840e-01" nType="0">
        <Node pos="l" depth="1" NCoef="0" IVar="1" Cut="4.0345960855484009e-01" cType="1" res="3.0612647533416748e-02" rms="4.5752677321434021e-01" purity="6.0929238796234131e-01" nType="0">
          <Node pos="l" depth="2" NCoef="0" IVar="-1" Cut="0.0000000000000000e+00" cType="1" res="-1.2275214248802513e-04" rms="4.5679956674575806e-01" purity="5.7694458961486816e-01" nType="-99"/>
          <Node pos="r" depth="2" NCoef="0" IVar="-1" Cut="0.0000000000000000e+00" cType="1" res="4.5654941350221634e-03" rms="4.5569366216659546e-01" purity="6.4450645446777344e-01" nType="-99"/>
        </Node>
        <Node pos="r" depth="1" NCoef="0" IVar="3" Cut="9.2963176965713501e-01" cType="1" res="-8.6002387106418610e-03" rms="4.6548902988433838e-01" purity="4.5467206835746765e-01" nType="0">
          <Node pos="l" depth="2" NCoef="0" IVar="-1" Cut="0.0000000000000000e+00" cType="1" res="-2.8246622532606125e-03" rms="4.6220082044601440e-01" purity="4.4991695880889893e-01" nType="-99"/>
          <Node pos="r" depth="2" NCoef="0" IVar="-1" Cut="0.0000000000000000e+00" cType="1" res="2.7680632774718106e-04" rms="4.6591567993164062e-01" purity="4.5631343126296997e-01" nType="-99"/>
        </Node>
      </Node>
    </BinaryTree>
    <BinaryTree type="DecisionTree" boostWeight="1.0000000000000000e+00" itree="563">
      <Node pos="s" depth="0" NCoef="0" IVar="2" Cut="5.7677823305130005e-01" cType="1" res="-8.6211171001195908e-03" rms="4.6466833353042603e-01" purity="4.9394950270652771e-01" nType="0">
        <Node pos="l" depth="1" NCoef="0" IVar="4" Cut="2.8955286834388971e-03" cType="1" res="-2.5132898241281509e-02" rms="4.5772477984428406e-01" purity="4.0084707736968994e-01" nType="0">
          <Node pos="l" depth="2" NCoef="0" IVar="-1" Cut="0.0000000000000000e+00" cType="1" res="-7.1960414061322808e-04" rms="4.6376839280128479e-01" purity="4.2883983254432678e-01" nType="-99"/>
          <Node pos="r" depth="2" NCoef="0" IVar="-1" Cut="0.0000000000000000e+00" cType="1" res="-5.7357284240424633e-03" rms="4.1548854112625122e-01" purity="2.4843181669712067e-01" nType="-99"/>
        </Node>
        <Node pos="r" depth="1" NCoef="0" IVar="6" Cut="2.3557348251342773e+00" cType="1" res="4.2567672207951546e-03" rms="4.6960976719856262e-01" purity="5.6656199693679810e-01" nType="0">
          <Node pos="l" depth="2" NCoef="0" IVar="-1" Cut="0.0000000000000000e+00" cType="1" res="4.2728655971586704e-03" rms="4.8330938816070557e-01" purity="4.1418144106864929e-01" nType="-99"/>
          <Node pos="r" depth="2" NCoef="0" IVar="-1" Cut="0.0000000000000000e+00" cType="1" res="-6.3645088812336326e-04" rms="4.6541881561279297e-01" purity="6.0002082586288452e-01" nType="-99"/>
        </Node>
      </Node>
    </BinaryTree>
    <BinaryTree type="DecisionTree" boostWeight="1.0000000000000000e+00" itree="564">
      <Node pos="s" depth="0" NCoef="0" IVar="5" Cut="9.4089910888671875e+02" cType="1" res="2.1268925629556179e-03" rms="4.6558317542076111e-01" purity="5.0671660900115967e-01" nType="0">
        <Node pos="l" depth="1" NCoef="0" IVar="3" Cut="8.1010419130325317e-01" cType="1" res="-5.9374775737524033e-03" rms="4.6618902683258057e-01" purity="4.8465806245803833e-01" nType="0">
          <Node pos="l" depth="2" NCoef="0" IVar="-1" Cut="0.0000000000000000e+00" cType="1" res="-2.9951105825603008e-03" rms="4.6499291062355042e-01" purity="4.6397930383682251e-01" nType="-99"/>
          <Node pos="r" depth="2" NCoef="0" IVar="-1" Cut="0.0000000000000000e+00" cType="1" res="1.5923092723824084e-04" rms="4.6597334742546082e-01" purity="4.8881715536117554e-01" nType="-99"/>
        </Node>
        <Node pos="r" depth="1" NCoef="0" IVar="4" Cut="2.0522051490843296e-03" cType="1" res="3.2742936164140701e-02" rms="4.6199598908424377e-01" purity="5.9046107530593872e-01" nType="0">
          <Node pos="l" depth="2" NCoef="0" IVar="-1" Cut="0.0000000000000000e+00" cType="1" res="6.7794194910675287e-04" rms="4.5694383978843689e-01" purity="6.0100173950195312e-01" nType="-99"/>
          <Node pos="r" depth="2" NCoef="0" IVar="-1" Cut="0.0000000000000000e+00" cType="1" res="5.5269207805395126e-03" rms="4.6959444880485535e-01" purity="5.6443691253662109e-01" nType="-99"/>
        </Node>
      </Node>
    </BinaryTree>
    <BinaryTree type="DecisionTree" boostWeight="1.0000000000000000e+00" itree="565">
      <Node pos="s" depth="0" NCoef="0" IVar="3" Cut="2.1054720878601074e+00" cType="1" res="1.1472329497337341e-02" rms="4.6773409843444824e-01" purity="5.1858335733413696e-01" nType="0">
        <Node pos="l" depth="1" NCoef="0" IVar="6" Cut="5.1301488876342773e+00" cType="1" res="5.6773326359689236e-03" rms="4.6784311532974243e-01" purity="5.2783012390136719e-01" nType="0">
          <Node pos="l" depth="2" NCoef="0" IVar="-1" Cut="0.0000000000000000e+00" cType="1" res="7.2652124799787998e-04" rms="4.7394239902496338e-01" purity="4.9269816279411316e-01" nType="-99"/>
          <Node pos="r" depth="2" NCoef="0" IVar="-1" Cut="0.0000000000000000e+00" cType="1" res="-2.0589111372828484e-03" rms="4.3415072560310364e-01" purity="7.0660525560379028e-01" nType="-99"/>
        </Node>
        <Node pos="r" depth="1" NCoef="0" IVar="-1" Cut="0.0000000000000000e+00" cType="1" res="4.8284842632710934e-03" rms="4.6237161755561829e-01" purity="4.2302104830741882e-01" nType="-99"/>
      </Node>
    </BinaryTree>
    <BinaryTree type="DecisionTree" boostWeight="1.0000000000000000e+00" itree="566">
      <Node pos="s" depth="0" NCoef="0" IVar="2" Cut="7.5270324945449829e-01" cType="1" res="4.4718361459672451e-03" rms="4.6854165196418762e-01" purity="5.1205939054489136e-01" nType="0">
        <Node pos="l" depth="1" NCoef="0" IVar="2" Cut="7.1130341291427612e-01" cType="1" res="1.3636709190905094e-02" rms="4.6428418159484863e-01" purity="4.9043640494346619e-01" nType="0">
          <Node pos="l" depth="2" NCoef="0" IVar="-1" Cut="0.0000000000000000e+00" cType="1" res="4.6153625589795411e-04" rms="4.6502205729484558e-01" purity="4.7449752688407898e-01" nType="-99"/>
          <Node pos="r" depth="2" NCoef="0" IVar="-1" Cut="0.0000000000000000e+00" cType="1" res="5.4143713787198067e-03" rms="4.5173808932304382e-01" purity="6.5204006433486938e-01" nType="-99"/>
        </Node>
        <Node pos="r" depth="1" NCoef="0" IVar="6" Cut="3.9235658645629883e+00" cType="1" res="-3.2943449914455414e-02" rms="4.8373743891716003e-01" purity="6.0033434629440308e-01" nType="0">
          <Node pos="l" depth="2" NCoef="0" IVar="-1" Cut="0.0000000000000000e+00" cType="1" res="1.9747409969568253e-03" rms="4.8876097798347473e-01" purity="5.5513352155685425e-01" nType="-99"/>
          <Node pos="r" depth="2" NCoef="0" IVar="-1" Cut="0.0000000000000000e+00" cType="1" res="-8.3389366045594215e-03" rms="4.6808016300201416e-01" purity="6.4924627542495728e-01" nType="-99"/>
        </Node>
      </Node>
    </BinaryTree>
    <BinaryTree type="DecisionTree" boostWeight="1.0000000000000000e+00" itree="567">
      <Node pos="s" depth="0" NCoef="0" IVar="6" Cut="4.0994009971618652e+00" cType="1" res="-1.3691671192646027e-02" rms="4.7035980224609375e-01" purity="4.8852980136871338e-01" nType="0">
        <Node pos="l" depth="1" NCoef="0" IVar="2" Cut="5.1107096672058105e-01" cType="1" res="3.9584655314683914e-03" rms="4.7057309746742249e-01" purity="4.1600853204727173e-01" nType="0">
          <Node pos="l" depth="2" NCoef="0" IVar="-1" Cut="0.0000000000000000e+00" cType="1" res="3.0183973722159863e-03" rms="4.6113756299018860e-01" purity="3.8064813613891602e-01" nType="-99"/>
          <Node pos="r" depth="2" NCoef="0" IVar="-1" Cut="0.0000000000000000e+00" cType="1" res="-7.9103012103587389e-04" rms="4.7323268651962280e-01" purity="4.3021708726882935e-01" nType="-99"/>
        </Node>
        <Node pos="r" depth="1" NCoef="0" IVar="1" Cut="6.9394421577453613e-01" cType="1" res="-4.3847654014825821e-02" rms="4.6845895051956177e-01" purity="6.1243540048599243e-01" nType="0">
          <Node pos="l" depth="2" NCoef="0" IVar="-1" Cut="0.0000000000000000e+00" cType="1" res="-6.5145092085003853e-03" rms="4.6969655156135559e-01" purity="6.3659238815307617e-01" nType="-99"/>
          <Node pos="r" depth="2" NCoef="0" IVar="-1" Cut="0.0000000000000000e+00" cType="1" res="-1.3348711654543877e-03" rms="4.6607014536857605e-01" purity="5.9896868467330933e-01" nType="-99"/>
        </Node>
      </Node>
    </BinaryTree>
    <BinaryTree type="DecisionTree" boostWeight="1.0000000000000000e+00" itree="568">
      <Node pos="s" depth="0" NCoef="0" IVar="3" Cut="2.0738635063171387e+00" cType="1" res="-6.4307111315429211e-03" rms="4.6465280652046204e-01" purity="4.9763616919517517e-01" nType="0">
        <Node pos="l" depth="1" NCoef="0" IVar="2" Cut="3.9233940839767456e-01" cType="1" res="-1.3310528360307217e-02" rms="4.6490979194641113e-01" purity="5.0786209106445312e-01" nType="0">
          <Node pos="l" depth="2" NCoef="0" IVar="-1" Cut="0.0000000000000000e+00" cType="1" res="-5.0146011635661125e-03" rms="4.4757056236267090e-01" purity="3.2155755162239075e-01" nType="-99"/>
          <Node pos="r" depth="2" NCoef="0" IVar="-1" Cut="0.0000000000000000e+00" cType="1" res="-5.4411642486229539e-04" rms="4.6562683582305908e-01" purity="5.2014386653900146e-01" nType="-99"/>
        </Node>
        <Node pos="r" depth="1" NCoef="0" IVar="-1" Cut="0.0000000000000000e+00" cType="1" res="3.9137834683060646e-03" rms="4.5721688866615295e-01" purity="4.0166604518890381e-01" nType="-99"/>
      </Node>
    </BinaryTree>
    <BinaryTree type="DecisionTree" boostWeight="1.0000000000000000e+00" itree="569">
      <Node pos="s" depth="0" NCoef="0" IVar="2" Cut="7.7011829614639282e-01" cType="1" res="-7.9876853851601481e-04" rms="4.6489730477333069e-01" purity="5.0364387035369873e-01" nType="0">
        <Node pos="l" depth="1" NCoef="0" IVar="2" Cut="6.5880846977233887e-01" cType="1" res="-1.0365388356149197e-02" rms="4.6885815262794495e-01" purity="4.7059071063995361e-01" nType="0">
          <Node pos="l" depth="2" NCoef="0" IVar="-1" Cut="0.0000000000000000e+00" cType="1" res="4.8080517444759607e-05" rms="4.6558642387390137e-01" purity="4.5571610331535339e-01" nType="-99"/>
          <Node pos="r" depth="2" NCoef="0" IVar="-1" Cut="0.0000000000000000e+00" cType="1" res="-2.7447752654552460e-03" rms="4.7691267728805542e-01" purity="5.1477879285812378e-01" nType="-99"/>
        </Node>
        <Node pos="r" depth="1" NCoef="0" IVar="4" Cut="6.2828918453305960e-04" cType="1" res="5.4245769977569580e-02" rms="4.3737033009529114e-01" purity="6.9382530450820923e-01" nType="0">
          <Node pos="l" depth="2" NCoef="0" IVar="-1" Cut="0.0000000000000000e+00" cType="1" res="5.0896679749712348e-04" rms="4.1193437576293945e-01" purity="7.1455961465835571e-01" nType="-99"/>
          <Node pos="r" depth="2" NCoef="0" IVar="-1" Cut="0.0000000000000000e+00" cType="1" res="5.8891125954687595e-03" rms="4.5043513178825378e-01" purity="6.8030047416687012e-01" nType="-99"/>
        </Node>
      </Node>
    </BinaryTree>
    <BinaryTree type="DecisionTree" boostWeight="1.0000000000000000e+00" itree="570">
      <Node pos="s" depth="0" NCoef="0" IVar="2" Cut="3.8719591498374939e-01" cType="1" res="4.8558521084487438e-03" rms="4.6205106377601624e-01" purity="5.0473928451538086e-01" nType="0">
        <Node pos="l" depth="1" NCoef="0" IVar="-1" Cut="0.0000000000000000e+00" cType="1" res="4.6957517042756081e-03" rms="4.8154807090759277e-01" purity="4.4964462518692017e-01" nType="-99"/>
        <Node pos="r" depth="1" NCoef="0" IVar="6" Cut="3.9487175941467285e+00" cType="1" res="7.4474292341619730e-04" rms="4.6053194999694824e-01" purity="5.0804132223129272e-01" nType="0">
          <Node pos="l" depth="2" NCoef="0" IVar="-1" Cut="0.0000000000000000e+00" cType="1" res="-7.8268354991450906e-04" rms="4.7008866071701050e-01" purity="3.9510580897331238e-01" nType="-99"/>
          <Node pos="r" depth="2" NCoef="0" IVar="-1" Cut="0.0000000000000000e+00" cType="1" res="1.4283562777563930e-03" rms="4.4575682282447815e-01" purity="6.6988140344619751e-01" nType="-99"/>
        </Node>
      </Node>
    </BinaryTree>
    <BinaryTree type="DecisionTree" boostWeight="1.0000000000000000e+00" itree="571">
      <Node pos="s" depth="0" NCoef="0" IVar="0" Cut="8.6982905864715576e-02" cType="1" res="5.6905406527221203e-03" rms="4.6487566828727722e-01" purity="5.0503283739089966e-01" nType="0">
        <Node pos="l" depth="1" NCoef="0" IVar="5" Cut="7.8143768310546875e+02" cType="1" res="-7.3059438727796078e-03" rms="4.6498331427574158e-01" purity="4.4937595725059509e-01" nType="0">
          <Node pos="l" depth="2" NCoef="0" IVar="-1" Cut="0.0000000000000000e+00" cType="1" res="-1.6885353252291679e-03" rms="4.5591029524803162e-01" purity="3.7868285179138184e-01" nType="-99"/>
          <Node pos="r" depth="2" NCoef="0" IVar="-1" Cut="0.0000000000000000e+00" cType="1" res="9.7217410802841187e-04" rms="4.7405260801315308e-01" purity="5.2977436780929565e-01" nType="-99"/>
        </Node>
        <Node pos="r" depth="1" NCoef="0" IVar="2" Cut="6.2109571695327759e-01" cType="1" res="2.0950563251972198e-02" rms="4.6428510546684265e-01" purity="5.7038319110870361e-01" nType="0">
          <Node pos="l" depth="2" NCoef="0" IVar="-1" Cut="0.0000000000000000e+00" cType="1" res="3.1933307182043791e-03" rms="4.6594581007957458e-01" purity="5.2849155664443970e-01" nType="-99"/>
          <Node pos="r" depth="2" NCoef="0" IVar="-1" Cut="0.0000000000000000e+00" cType="1" res="3.5532366018742323e-04" rms="4.6262145042419434e-01" purity="5.9324455261230469e-01" nType="-99"/>
        </Node>
      </Node>
    </BinaryTree>
    <BinaryTree type="DecisionTree" boostWeight="1.0000000000000000e+00" itree="572">
      <Node pos="s" depth="0" NCoef="0" IVar="3" Cut="2.2639603614807129e+00" cType="1" res="1.7921437392942607e-04" rms="4.6493732929229736e-01" purity="5.0308245420455933e-01" nType="0">
        <Node pos="l" depth="1" NCoef="0" IVar="5" Cut="1.3028629150390625e+03" cType="1" res="4.5814667828381062e-03" rms="4.6859952807426453e-01" purity="5.2057224512100220e-01" nType="0">
          <Node pos="l" depth="2" NCoef="0" IVar="-1" Cut="0.0000000000000000e+00" cType="1" res="5.6815182324498892e-04" rms="4.6511131525039673e-01" purity="5.2034473419189453e-01" nType="-99"/>
          <Node pos="r" depth="2" NCoef="0" IVar="-1" Cut="0.0000000000000000e+00" cType="1" res="-3.6386016290634871e-03" rms="5.1301103830337524e-01" purity="5.2391165494918823e-01" nType="-99"/>
        </Node>
        <Node pos="r" depth="1" NCoef="0" IVar="-1" Cut="0.0000000000000000e+00" cType="1" res="-4.3449602089822292e-03" rms="3.9833441376686096e-01" purity="2.3394712805747986e-01" nType="-99"/>
      </Node>
    </BinaryTree>
    <BinaryTree type="DecisionTree" boostWeight="1.0000000000000000e+00" itree="573">
      <Node pos="s" depth="0" NCoef="0" IVar="3" Cut="2.1204411983489990e+00" cType="1" res="-8.8303415104746819e-03" rms="4.6240076422691345e-01" purity="4.9433434009552002e-01" nType="0">
        <Node pos="l" depth="1" NCoef="0" IVar="0" Cut="1.0443255305290222e-01" cType="1" res="-4.3287398293614388e-03" rms="4.6479293704032898e-01" purity="5.1662123203277588e-01" nType="0">
          <Node pos="l" depth="2" NCoef="0" IVar="-1" Cut="0.0000000000000000e+00" cType="1" res="-1.0118698701262474e-03" rms="4.6693018078804016e-01" purity="4.7343790531158447e-01" nType="-99"/>
          <Node pos="r" depth="2" NCoef="0" IVar="-1" Cut="0.0000000000000000e+00" cType="1" res="1.0505458340048790e-03" rms="4.6055975556373596e-01" purity="5.8787965774536133e-01" nType="-99"/>
        </Node>
        <Node pos="r" depth="1" NCoef="0" IVar="-1" Cut="0.0000000000000000e+00" cType="1" res="-3.1830067746341228e-03" rms="4.3720006942749023e-01" purity="2.8619682788848877e-01" nType="-99"/>
      </Node>
    </BinaryTree>
    <BinaryTree type="DecisionTree" boostWeight="1.0000000000000000e+00" itree="574">
      <Node pos="s" depth="0" NCoef="0" IVar="4" Cut="2.4320943339262158e-04" cType="1" res="1.0936354286968708e-02" rms="4.6754127740859985e-01" purity="5.1281869411468506e-01" nType="0">
        <Node pos="l" depth="1" NCoef="0" IVar="5" Cut="7.0658459472656250e+02" cType="1" res="-2.6622831821441650e-02" rms="4.5779928565025330e-01" purity="6.1164939403533936e-01" nType="0">
          <Node pos="l" depth="2" NCoef="0" IVar="-1" Cut="0.0000000000000000e+00" cType="1" res="-4.5886775478720665e-03" rms="4.7285914421081543e-01" purity="5.2841651439666748e-01" nType="-99"/>
          <Node pos="r" depth="2" NCoef="0" IVar="-1" Cut="0.0000000000000000e+00" cType="1" res="1.4133837539702654e-03" rms="4.3672993779182434e-01" purity="7.0095360279083252e-01" nType="-99"/>
        </Node>
        <Node pos="r" depth="1" NCoef="0" IVar="3" Cut="1.4955810308456421e+00" cType="1" res="2.0912582054734230e-02" rms="4.6959027647972107e-01" purity="4.8656797409057617e-01" nType="0">
          <Node pos="l" depth="2" NCoef="0" IVar="-1" Cut="0.0000000000000000e+00" cType="1" res="3.1867981306277215e-04" rms="4.7516325116157532e-01" purity="5.0812399387359619e-01" nType="-99"/>
          <Node pos="r" depth="2" NCoef="0" IVar="-1" Cut="0.0000000000000000e+00" cType="1" res="2.9678128194063902e-03" rms="4.5916879177093506e-01" purity="4.5131865143775940e-01" nType="-99"/>
        </Node>
      </Node>
    </BinaryTree>
    <BinaryTree type="DecisionTree" boostWeight="1.0000000000000000e+00" itree="575">
      <Node pos="s" depth="0" NCoef="0" IVar="3" Cut="1.8524328470230103e+00" cType="1" res="-1.0070107877254486e-02" rms="4.6156007051467896e-01" purity="4.8642638325691223e-01" nType="0">
        <Node pos="l" depth="1" NCoef="0" IVar="3" Cut="1.3287453651428223e+00" cType="1" res="-6.3056888757273555e-04" rms="4.6430638432502747e-01" purity="5.2199208736419678e-01" nType="0">
          <Node pos="l" depth="2" NCoef="0" IVar="-1" Cut="0.0000000000000000e+00" cType="1" res="-7.6056795660406351e-04" rms="4.6570792794227600e-01" purity="5.2192240953445435e-01" nType="-99"/>
          <Node pos="r" depth="2" NCoef="0" IVar="-1" Cut="0.0000000000000000e+00" cType="1" res="1.1773512233048677e-03" rms="4.6125259995460510e-01" purity="5.2211201190948486e-01" nType="-99"/>
        </Node>
        <Node pos="r" depth="1" NCoef="0" IVar="3" Cut="2.1721670627593994e+00" cType="1" res="-5.1083926111459732e-02" rms="4.4712477922439575e-01" purity="3.3189713954925537e-01" nType="0">
          <Node pos="l" depth="2" NCoef="0" IVar="-1" Cut="0.0000000000000000e+00" cType="1" res="-4.6699154190719128e-03" rms="4.5354589819908142e-01" purity="3.4733349084854126e-01" nType="-99"/>
          <Node pos="r" depth="2" NCoef="0" IVar="-1" Cut="0.0000000000000000e+00" cType="1" res="-8.6160690989345312e-04" rms="4.3522918224334717e-01" purity="3.1054663658142090e-01" nType="-99"/>
        </Node>
      </Node>
    </BinaryTree>
    <BinaryTree type="DecisionTree" boostWeight="1.0000000000000000e+00" itree="576">
      <Node pos="s" depth="0" NCoef="0" IVar="6" Cut="1.9626700878143311e+00" cType="1" res="-2.6792462449520826e-03" rms="4.6335759758949280e-01" purity="5.0002408027648926e-01" nType="0">
        <Node pos="l" depth="1" NCoef="0" IVar="-1" Cut="0.0000000000000000e+00" cType="1" res="-3.2314339186996222e-03" rms="4.2740499973297119e-01" purity="2.5072216987609863e-01" nType="-99"/>
        <Node pos="r" depth="1" NCoef="0" IVar="4" Cut="9.5290067838504910e-04" cType="1" res="2.5487965904176235e-03" rms="4.6693739295005798e-01" purity="5.2805382013320923e-01" nType="0">
          <Node pos="l" depth="2" NCoef="0" IVar="-1" Cut="0.0000000000000000e+00" cType="1" res="-1.3007345842197537e-03" rms="4.6551406383514404e-01" purity="5.7489281892776489e-01" nType="-99"/>
          <Node pos="r" depth="2" NCoef="0" IVar="-1" Cut="0.0000000000000000e+00" cType="1" res="1.3527189148589969e-03" rms="4.6736910939216614e-01" purity="4.8501983284950256e-01" nType="-99"/>
        </Node>
      </Node>
    </BinaryTree>
    <BinaryTree type="DecisionTree" boostWeight="1.0000000000000000e+00" itree="577">
      <Node pos="s" depth="0" NCoef="0" IVar="2" Cut="6.6041427850723267e-01" cType="1" res="-7.9082315787672997e-03" rms="4.6293514966964722e-01" purity="4.9089512228965759e-01" nType="0">
        <Node pos="l" depth="1" NCoef="0" IVar="1" Cut="1.2293981313705444e+00" cType="1" res="-1.8752839416265488e-02" rms="4.6491047739982605e-01" purity="4.3458110094070435e-01" nType="0">
          <Node pos="l" depth="2" NCoef="0" IVar="-1" Cut="0.0000000000000000e+00" cType="1" res="-3.8412443245761096e-04" rms="4.7426953911781311e-01" purity="4.9761605262756348e-01" nType="-99"/>
          <Node pos="r" depth="2" NCoef="0" IVar="-1" Cut="0.0000000000000000e+00" cType="1" res="-2.0731631666421890e-03" rms="4.5264267921447754e-01" purity="3.5695746541023254e-01" nType="-99"/>
        </Node>
        <Node pos="r" depth="1" NCoef="0" IVar="1" Cut="1.4871363639831543e+00" cType="1" res="1.1789547279477119e-02" rms="4.5867010951042175e-01" purity="5.9318202733993530e-01" nType="0">
          <Node pos="l" depth="2" NCoef="0" IVar="-1" Cut="0.0000000000000000e+00" cType="1" res="-2.6580042322166264e-04" rms="4.5610812306404114e-01" purity="5.9894043207168579e-01" nType="-99"/>
          <Node pos="r" depth="2" NCoef="0" IVar="-1" Cut="0.0000000000000000e+00" cType="1" res="5.1934756338596344e-03" rms="4.6349552273750305e-01" purity="5.6780219078063965e-01" nType="-99"/>
        </Node>
      </Node>
    </BinaryTree>
    <BinaryTree type="DecisionTree" boostWeight="1.0000000000000000e+00" itree="578">
      <Node pos="s" depth="0" NCoef="0" IVar="4" Cut="2.4092284729704261e-04" cType="1" res="8.8298907503485680e-03" rms="4.6178567409515381e-01" purity="5.0819849967956543e-01" nType="0">
        <Node pos="l" depth="1" NCoef="0" IVar="6" Cut="5.2345571517944336e+00" cType="1" res="5.1272738724946976e-02" rms="4.3004953861236572e-01" purity="6.9891077280044556e-01" nType="0">
          <Node pos="l" depth="2" NCoef="0" IVar="-1" Cut="0.0000000000000000e+00" cType="1" res="5.2443072199821472e-03" rms="4.4660484790802002e-01" purity="6.6005057096481323e-01" nType="-99"/>
          <Node pos="r" depth="2" NCoef="0" IVar="-1" Cut="0.0000000000000000e+00" cType="1" res="1.4415378682315350e-03" rms="3.9902970194816589e-01" purity="7.6251745223999023e-01" nType="-99"/>
        </Node>
        <Node pos="r" depth="1" NCoef="0" IVar="6" Cut="4.9819741249084473e+00" cType="1" res="-1.2775921495631337e-03" rms="4.6846038103103638e-01" purity="4.6278166770935059e-01" nType="0">
          <Node pos="l" depth="2" NCoef="0" IVar="-1" Cut="0.0000000000000000e+00" cType="1" res="-4.3211769661866128e-04" rms="4.7208389639854431e-01" purity="4.3001684546470642e-01" nType="-99"/>
          <Node pos="r" depth="2" NCoef="0" IVar="-1" Cut="0.0000000000000000e+00" cType="1" res="3.2303908374160528e-03" rms="4.3658006191253662e-01" purity="7.1729689836502075e-01" nType="-99"/>
        </Node>
      </Node>
    </BinaryTree>
    <BinaryTree type="DecisionTree" boostWeight="1.0000000000000000e+00" itree="579">
      <Node pos="s" depth="0" NCoef="0" IVar="2" Cut="3.8205546140670776e-01" cType="1" res="2.4037478491663933e-02" rms="4.6153637766838074e-01" purity="5.2162063121795654e-01" nType="0">
        <Node pos="l" depth="1" NCoef="0" IVar="-1" Cut="0.0000000000000000e+00" cType="1" res="-2.3190218489617109e-03" rms="4.5278862118721008e-01" purity="3.3226925134658813e-01" nType="-99"/>
        <Node pos="r" depth="1" NCoef="0" IVar="5" Cut="1.0906623535156250e+03" cType="1" res="2.7738155797123909e-02" rms="4.6179398894309998e-01" purity="5.3298038244247437e-01" nType="0">
          <Node pos="l" depth="2" NCoef="0" IVar="-1" Cut="0.0000000000000000e+00" cType="1" res="1.4775737654417753e-03" rms="4.6178027987480164e-01" purity="5.2100259065628052e-01" nType="-99"/>
          <Node pos="r" depth="2" NCoef="0" IVar="-1" Cut="0.0000000000000000e+00" cType="1" res="4.2726439423859119e-03" rms="4.6026071906089783e-01" purity="6.1939507722854614e-01" nType="-99"/>
        </Node>
      </Node>
    </BinaryTree>
    <BinaryTree type="DecisionTree" boostWeight="1.0000000000000000e+00" itree="580">
      <Node pos="s" depth="0" NCoef="0" IVar="3" Cut="1.1687681674957275e+00" cType="1" res="2.8253286145627499e-03" rms="4.6159324049949646e-01" purity="5.0602209568023682e-01" nType="0">
        <Node pos="l" depth="1" NCoef="0" IVar="6" Cut="3.4506564140319824e+00" cType="1" res="2.8034241870045662e-02" rms="4.5874562859535217e-01" purity="5.7589554786682129e-01" nType="0">
          <Node pos="l" depth="2" NCoef="0" IVar="-1" Cut="0.0000000000000000e+00" cType="1" res="2.1527253556996584e-04" rms="4.7341811656951904e-01" purity="4.1366893053054810e-01" nType="-99"/>
          <Node pos="r" depth="2" NCoef="0" IVar="-1" Cut="0.0000000000000000e+00" cType="1" res="3.2773129642009735e-03" rms="4.4672444462776184e-01" purity="6.9588029384613037e-01" nType="-99"/>
        </Node>
        <Node pos="r" depth="1" NCoef="0" IVar="4" Cut="1.7594055971130729e-03" cType="1" res="-1.4337650500237942e-02" rms="4.6273684501647949e-01" purity="4.5845013856887817e-01" nType="0">
          <Node pos="l" depth="2" NCoef="0" IVar="-1" Cut="0.0000000000000000e+00" cType="1" res="-2.1688700653612614e-03" rms="4.6224048733711243e-01" purity="4.8365509510040283e-01" nType="-99"/>
          <Node pos="r" depth="2" NCoef="0" IVar="-1" Cut="0.0000000000000000e+00" cType="1" res="1.4732226263731718e-03" rms="4.6132019162178040e-01" purity="4.0951281785964966e-01" nType="-99"/>
        </Node>
      </Node>
    </BinaryTree>
    <BinaryTree type="DecisionTree" boostWeight="1.0000000000000000e+00" itree="581">
      <Node pos="s" depth="0" NCoef="0" IVar="4" Cut="3.0410664621740580e-03" cType="1" res="9.3685761094093323e-03" rms="4.6352386474609375e-01" purity="5.1104289293289185e-01" nType="0">
        <Node pos="l" depth="1" NCoef="0" IVar="0" Cut="1.8677274882793427e-01" cType="1" res="1.6551183536648750e-02" rms="4.6398842334747314e-01" purity="5.3429353237152100e-01" nType="0">
          <Node pos="l" depth="2" NCoef="0" IVar="-1" Cut="0.0000000000000000e+00" cType="1" res="1.4701709151268005e-03" rms="4.6408653259277344e-01" purity="5.2633255720138550e-01" nType="-99"/>
          <Node pos="r" depth="2" NCoef="0" IVar="-1" Cut="0.0000000000000000e+00" cType="1" res="-2.0374411251395941e-03" rms="4.6061500906944275e-01" purity="5.9517985582351685e-01" nType="-99"/>
        </Node>
        <Node pos="r" depth="1" NCoef="0" IVar="4" Cut="3.4939686302095652e-03" cType="1" res="-3.6507967859506607e-02" rms="4.5789515972137451e-01" purity="3.6253681778907776e-01" nType="0">
          <Node pos="l" depth="2" NCoef="0" IVar="-1" Cut="0.0000000000000000e+00" cType="1" res="-5.9114798204973340e-04" rms="4.6784487366676331e-01" purity="3.9324602484703064e-01" nType="-99"/>
          <Node pos="r" depth="2" NCoef="0" IVar="-1" Cut="0.0000000000000000e+00" cType="1" res="-3.6162969190627337e-03" rms="4.4660061597824097e-01" purity="3.3296364545822144e-01" nType="-99"/>
        </Node>
      </Node>
    </BinaryTree>
    <BinaryTree type="DecisionTree" boostWeight="1.0000000000000000e+00" itree="582">
      <Node pos="s" depth="0" NCoef="0" IVar="6" Cut="5.6482415199279785e+00" cType="1" res="-3.0214197468012571e-03" rms="4.5909088850021362e-01" purity="4.9847030639648438e-01" nType="0">
        <Node pos="l" depth="1" NCoef="0" IVar="0" Cut="7.6579511165618896e-02" cType="1" res="-9.2460829764604568e-03" rms="4.6495395898818970e-01" purity="4.6922838687896729e-01" nType="0">
          <Node pos="l" depth="2" NCoef="0" IVar="-1" Cut="0.0000000000000000e+00" cType="1" res="-1.4821536606177688e-03" rms="4.6249112486839294e-01" purity="4.0515601634979248e-01" nType="-99"/>
          <Node pos="r" depth="2" NCoef="0" IVar="-1" Cut="0.0000000000000000e+00" cType="1" res="2.3880571825429797e-04" rms="4.6670103073120117e-01" purity="5.2501207590103149e-01" nType="-99"/>
        </Node>
        <Node pos="r" depth="1" NCoef="0" IVar="-1" Cut="0.0000000000000000e+00" cType="1" res="5.9148282743990421e-03" rms="3.8294366002082825e-01" purity="8.1739097833633423e-01" nType="-99"/>
      </Node>
    </BinaryTree>
    <BinaryTree type="DecisionTree" boostWeight="1.0000000000000000e+00" itree="583">
      <Node pos="s" depth="0" NCoef="0" IVar="6" Cut="2.2165226936340332e+00" cType="1" res="-7.6275801984593272e-04" rms="4.6071448922157288e-01" purity="4.9606338143348694e-01" nType="0">
        <Node pos="l" depth="1" NCoef="0" IVar="2" Cut="5.9917390346527100e-01" cType="1" res="-3.4292154014110565e-02" rms="4.3436923623085022e-01" purity="2.6756840944290161e-01" nType="0">
          <Node pos="l" depth="2" NCoef="0" IVar="-1" Cut="0.0000000000000000e+00" cType="1" res="-2.4108239449560642e-04" rms="4.2394149303436279e-01" purity="2.5565552711486816e-01" nType="-99"/>
          <Node pos="r" depth="2" NCoef="0" IVar="-1" Cut="0.0000000000000000e+00" cType="1" res="-3.8210139609873295e-03" rms="4.4209006428718567e-01" purity="2.7894896268844604e-01" nType="-99"/>
        </Node>
        <Node pos="r" depth="1" NCoef="0" IVar="2" Cut="6.5287536382675171e-01" cType="1" res="5.6053083389997482e-03" rms="4.6527671813964844e-01" purity="5.3946024179458618e-01" nType="0">
          <Node pos="l" depth="2" NCoef="0" IVar="-1" Cut="0.0000000000000000e+00" cType="1" res="-3.6607033689506352e-04" rms="4.6772885322570801e-01" purity="4.7114965319633484e-01" nType="-99"/>
          <Node pos="r" depth="2" NCoef="0" IVar="-1" Cut="0.0000000000000000e+00" cType="1" res="1.7186505720019341e-03" rms="4.6058526635169983e-01" purity="6.5174919366836548e-01" nType="-99"/>
        </Node>
      </Node>
    </BinaryTree>
    <BinaryTree type="DecisionTree" boostWeight="1.0000000000000000e+00" itree="584">
      <Node pos="s" depth="0" NCoef="0" IVar="3" Cut="2.1347837448120117e+00" cType="1" res="-6.4321956597268581e-03" rms="4.6393424272537231e-01" purity="5.0137025117874146e-01" nType="0">
        <Node pos="l" depth="1" NCoef="0" IVar="5" Cut="1.2066890869140625e+03" cType="1" res="-1.9760166469495744e-04" rms="4.6716237068176270e-01" purity="5.2292156219482422e-01" nType="0">
          <Node pos="l" depth="2" NCoef="0" IVar="-1" Cut="0.0000000000000000e+00" cType="1" res="3.9125612238422036e-04" rms="4.6465340256690979e-01" purity="5.2316534519195557e-01" nType="-99"/>
          <Node pos="r" depth="2" NCoef="0" IVar="-1" Cut="0.0000000000000000e+00" cType="1" res="-4.1198432445526123e-03" rms="4.8815602064132690e-01" purity="5.2031666040420532e-01" nType="-99"/>
        </Node>
        <Node pos="r" depth="1" NCoef="0" IVar="-1" Cut="0.0000000000000000e+00" cType="1" res="-4.4327061623334885e-03" rms="4.2412707209587097e-01" purity="2.8012967109680176e-01" nType="-99"/>
      </Node>
    </BinaryTree>
    <BinaryTree type="DecisionTree" boostWeight="1.0000000000000000e+00" itree="585">
      <Node pos="s" depth="0" NCoef="0" IVar="6" Cut="3.5812721252441406e+00" cType="1" res="-7.4384468607604504e-03" rms="4.5987176895141602e-01" purity="4.9011477828025818e-01" nType="0">
        <Node pos="l" depth="1" NCoef="0" IVar="2" Cut="7.1550869941711426e-01" cType="1" res="-2.4322463199496269e-02" rms="4.5995381474494934e-01" purity="3.5511782765388489e-01" nType="0">
          <Node pos="l" depth="2" NCoef="0" IVar="-1" Cut="0.0000000000000000e+00" cType="1" res="-8.1981858238577843e-04" rms="4.5417997241020203e-01" purity="3.3304125070571899e-01" nType="-99"/>
          <Node pos="r" depth="2" NCoef="0" IVar="-1" Cut="0.0000000000000000e+00" cType="1" res="-3.4216844942420721e-03" rms="4.7549289464950562e-01" purity="4.2225024104118347e-01" nType="-99"/>
        </Node>
        <Node pos="r" depth="1" NCoef="0" IVar="3" Cut="1.4339393377304077e+00" cType="1" res="9.6468059346079826e-03" rms="4.5915719866752625e-01" purity="6.2672072649002075e-01" nType="0">
          <Node pos="l" depth="2" NCoef="0" IVar="-1" Cut="0.0000000000000000e+00" cType="1" res="-7.6033727964386344e-04" rms="4.5525532960891724e-01" purity="6.4386618137359619e-01" nType="-99"/>
          <Node pos="r" depth="2" NCoef="0" IVar="-1" Cut="0.0000000000000000e+00" cType="1" res="2.7186924125999212e-03" rms="4.6331861615180969e-01" purity="6.0017323493957520e-01" nType="-99"/>
        </Node>
      </Node>
    </BinaryTree>
    <BinaryTree type="DecisionTree" boostWeight="1.0000000000000000e+00" itree="586">
      <Node pos="s" depth="0" NCoef="0" IVar="4" Cut="1.4593116939067841e-03" cType="1" res="-4.4023673981428146e-03" rms="4.6509331464767456e-01" purity="4.9610102176666260e-01" nType="0">
        <Node pos="l" depth="1" NCoef="0" IVar="6" Cut="5.5668659210205078e+00" cType="1" res="1.7887737601995468e-02" rms="4.6381866931915283e-01" purity="5.7201272249221802e-01" nType="0">
          <Node pos="l" depth="2" NCoef="0" IVar="-1" Cut="0.0000000000000000e+00" cType="1" res="1.8256448674947023e-03" rms="4.6701043844223022e-01" purity="5.4397535324096680e-01" nType="-99"/>
          <Node pos="r" depth="2" NCoef="0" IVar="-1" Cut="0.0000000000000000e+00" cType="1" res="-2.8338488191366196e-03" rms="4.4354870915412903e-01" purity="7.1618378162384033e-01" nType="-99"/>
        </Node>
        <Node pos="r" depth="1" NCoef="0" IVar="6" Cut="2.6948366165161133e+00" cType="1" res="-3.4844364970922470e-02" rms="4.6510601043701172e-01" purity="3.9242693781852722e-01" nType="0">
          <Node pos="l" depth="2" NCoef="0" IVar="-1" Cut="0.0000000000000000e+00" cType="1" res="-1.4900104724802077e-04" rms="4.5018297433853149e-01" purity="3.1118994951248169e-01" nType="-99"/>
          <Node pos="r" depth="2" NCoef="0" IVar="-1" Cut="0.0000000000000000e+00" cType="1" res="-3.2268434297293425e-03" rms="4.7369420528411865e-01" purity="4.4755557179450989e-01" nType="-99"/>
        </Node>
      </Node>
    </BinaryTree>
    <BinaryTree type="DecisionTree" boostWeight="1.0000000000000000e+00" itree="587">
      <Node pos="s" depth="0" NCoef="0" IVar="4" Cut="2.6129474863409996e-03" cType="1" res="1.5942452475428581e-02" rms="4.6149405837059021e-01" purity="5.1706099510192871e-01" nType="0">
        <Node pos="l" depth="1" NCoef="0" IVar="5" Cut="6.6097491455078125e+02" cType="1" res="2.4930821731686592e-02" rms="4.6200048923492432e-01" purity="5.4985272884368896e-01" nType="0">
          <Node pos="l" depth="2" NCoef="0" IVar="-1" Cut="0.0000000000000000e+00" cType="1" res="-4.3498916966200341e-06" rms="4.6624791622161865e-01" purity="4.7317335009574890e-01" nType="-99"/>
          <Node pos="r" depth="2" NCoef="0" IVar="-1" Cut="0.0000000000000000e+00" cType="1" res="2.9712161049246788e-03" rms="4.5781350135803223e-01" purity="6.0839283466339111e-01" nType="-99"/>
        </Node>
        <Node pos="r" depth="1" NCoef="0" IVar="0" Cut="8.3512753248214722e-02" cType="1" res="-1.8510852009057999e-02" rms="4.5791634917259216e-01" purity="3.9136704802513123e-01" nType="0">
          <Node pos="l" depth="2" NCoef="0" IVar="-1" Cut="0.0000000000000000e+00" cType="1" res="-2.5635506026446819e-03" rms="4.5550850033760071e-01" purity="3.3549821376800537e-01" nType="-99"/>
          <Node pos="r" depth="2" NCoef="0" IVar="-1" Cut="0.0000000000000000e+00" cType="1" res="6.9801381323486567e-04" rms="4.5877665281295776e-01" purity="4.5483788847923279e-01" nType="-99"/>
        </Node>
      </Node>
    </BinaryTree>
    <BinaryTree type="DecisionTree" boostWeight="1.0000000000000000e+00" itree="588">
      <Node pos="s" depth="0" NCoef="0" IVar="1" Cut="2.2052390575408936e+00" cType="1" res="4.7155069187283516e-03" rms="4.6694907546043396e-01" purity="5.0682747364044189e-01" nType="0">
        <Node pos="l" depth="1" NCoef="0" IVar="0" Cut="7.7259734272956848e-02" cType="1" res="-9.5947692170739174e-04" rms="4.6630167961120605e-01" purity="5.2163046598434448e-01" nType="0">
          <Node pos="l" depth="2" NCoef="0" IVar="-1" Cut="0.0000000000000000e+00" cType="1" res="8.3628116408362985e-04" rms="4.6882820129394531e-01" purity="4.8921459913253784e-01" nType="-99"/>
          <Node pos="r" depth="2" NCoef="0" IVar="-1" Cut="0.0000000000000000e+00" cType="1" res="-8.6128298426046968e-04" rms="4.6380937099456787e-01" purity="5.4906588792800903e-01" nType="-99"/>
        </Node>
        <Node pos="r" depth="1" NCoef="0" IVar="1" Cut="2.7230048179626465e+00" cType="1" res="4.9358867108821869e-02" rms="4.6962547302246094e-01" purity="3.9037612080574036e-01" nType="0">
          <Node pos="l" depth="2" NCoef="0" IVar="-1" Cut="0.0000000000000000e+00" cType="1" res="5.9544914402067661e-03" rms="4.7343659400939941e-01" purity="4.6673613786697388e-01" nType="-99"/>
          <Node pos="r" depth="2" NCoef="0" IVar="-1" Cut="0.0000000000000000e+00" cType="1" res="6.7464180756360292e-04" rms="4.6267923712730408e-01" purity="3.2083365321159363e-01" nType="-99"/>
        </Node>
      </Node>
    </BinaryTree>
    <BinaryTree type="DecisionTree" boostWeight="1.0000000000000000e+00" itree="589">
      <Node pos="s" depth="0" NCoef="0" IVar="0" Cut="1.5533293783664703e-01" cType="1" res="-5.0537288188934326e-03" rms="4.6182829141616821e-01" purity="4.9678054451942444e-01" nType="0">
        <Node pos="l" depth="1" NCoef="0" IVar="0" Cut="2.1994801238179207e-02" cType="1" res="2.5788936764001846e-03" rms="4.5980492234230042e-01" purity="4.8627591133117676e-01" nType="0">
          <Node pos="l" depth="2" NCoef="0" IVar="-1" Cut="0.0000000000000000e+00" cType="1" res="-3.3685157541185617e-03" rms="4.5920491218566895e-01" purity="3.7436348199844360e-01" nType="-99"/>
          <Node pos="r" depth="2" NCoef="0" IVar="-1" Cut="0.0000000000000000e+00" cType="1" res="5.9880048502236605e-04" rms="4.5938119292259216e-01" purity="4.9901840090751648e-01" nType="-99"/>
        </Node>
        <Node pos="r" depth="1" NCoef="0" IVar="3" Cut="1.3095118999481201e+00" cType="1" res="-4.0169488638639450e-02" rms="4.6942919492721558e-01" purity="5.4510945081710815e-01" nType="0">
          <Node pos="l" depth="2" NCoef="0" IVar="-1" Cut="0.0000000000000000e+00" cType="1" res="-1.1761618079617620e-03" rms="4.6026319265365601e-01" purity="6.0441488027572632e-01" nType="-99"/>
          <Node pos="r" depth="2" NCoef="0" IVar="-1" Cut="0.0000000000000000e+00" cType="1" res="-4.0988428518176079e-03" rms="4.7738972306251526e-01" purity="4.8472097516059875e-01" nType="-99"/>
        </Node>
      </Node>
    </BinaryTree>
    <BinaryTree type="DecisionTree" boostWeight="1.0000000000000000e+00" itree="590">
      <Node pos="s" depth="0" NCoef="0" IVar="4" Cut="2.0921735558658838e-03" cType="1" res="8.7202135473489761e-03" rms="4.6274471282958984e-01" purity="5.0858455896377563e-01" nType="0">
        <Node pos="l" depth="1" NCoef="0" IVar="4" Cut="4.1157766827382147e-04" cType="1" res="-2.2009692620486021e-03" rms="4.5916259288787842e-01" purity="5.3542822599411011e-01" nType="0">
          <Node pos="l" depth="2" NCoef="0" IVar="-1" Cut="0.0000000000000000e+00" cType="1" res="2.0149773918092251e-03" rms="4.4265151023864746e-01" purity="6.4774507284164429e-01" nType="-99"/>
          <Node pos="r" depth="2" NCoef="0" IVar="-1" Cut="0.0000000000000000e+00" cType="1" res="-1.2103377375751734e-03" rms="4.6768727898597717e-01" purity="4.6982276439666748e-01" nType="-99"/>
        </Node>
        <Node pos="r" depth="1" NCoef="0" IVar="3" Cut="8.2346451282501221e-01" cType="1" res="3.5298895090818405e-02" rms="4.7029018402099609e-01" purity="4.4325569272041321e-01" nType="0">
          <Node pos="l" depth="2" NCoef="0" IVar="-1" Cut="0.0000000000000000e+00" cType="1" res="6.7618181928992271e-03" rms="4.6907261013984680e-01" purity="5.5552768707275391e-01" nType="-99"/>
          <Node pos="r" depth="2" NCoef="0" IVar="-1" Cut="0.0000000000000000e+00" cType="1" res="1.0187191655859351e-03" rms="4.6873527765274048e-01" purity="4.1562086343765259e-01" nType="-99"/>
        </Node>
      </Node>
    </BinaryTree>
    <BinaryTree type="DecisionTree" boostWeight="1.0000000000000000e+00" itree="591">
      <Node pos="s" depth="0" NCoef="0" IVar="6" Cut="3.3326659202575684e+00" cType="1" res="-5.5377050302922726e-03" rms="4.6979370713233948e-01" purity="5.0027084350585938e-01" nType="0">
        <Node pos="l" depth="1" NCoef="0" IVar="6" Cut="2.8610873222351074e+00" cType="1" res="1.8612505868077278e-02" rms="4.6704652905464172e-01" purity="3.8636800646781921e-01" nType="0">
          <Node pos="l" depth="2" NCoef="0" IVar="-1" Cut="0.0000000000000000e+00" cType="1" res="2.8511218260973692e-04" rms="4.6014848351478577e-01" purity="3.4377366304397583e-01" nType="-99"/>
          <Node pos="r" depth="2" NCoef="0" IVar="-1" Cut="0.0000000000000000e+00" cType="1" res="3.3853638451546431e-03" rms="4.8237320780754089e-01" purity="4.9535769224166870e-01" nType="-99"/>
        </Node>
        <Node pos="r" depth="1" NCoef="0" IVar="4" Cut="2.3727361112833023e-03" cType="1" res="-2.2623542696237564e-02" rms="4.7098025679588318e-01" purity="5.8085507154464722e-01" nType="0">
          <Node pos="l" depth="2" NCoef="0" IVar="-1" Cut="0.0000000000000000e+00" cType="1" res="-2.0469089504331350e-03" rms="4.7054719924926758e-01" purity="5.8458232879638672e-01" nType="-99"/>
          <Node pos="r" depth="2" NCoef="0" IVar="-1" Cut="0.0000000000000000e+00" cType="1" res="1.2541154865175486e-03" rms="4.7094333171844482e-01" purity="5.5945789813995361e-01" nType="-99"/>
        </Node>
      </Node>
    </BinaryTree>
    <BinaryTree type="DecisionTree" boostWeight="1.0000000000000000e+00" itree="592">
      <Node pos="s" depth="0" NCoef="0" IVar="3" Cut="7.7806842327117920e-01" cType="1" res="2.5353379896841943e-04" rms="4.6333000063896179e-01" purity="5.0343388319015503e-01" nType="0">
        <Node pos="l" depth="1" NCoef="0" IVar="6" Cut="3.5911340713500977e+00" cType="1" res="-3.2300032675266266e-02" rms="4.7956332564353943e-01" purity="4.9932685494422913e-01" nType="0">
          <Node pos="l" depth="2" NCoef="0" IVar="-1" Cut="0.0000000000000000e+00" cType="1" res="1.8054824322462082e-03" rms="4.7882595658302307e-01" purity="4.3266844749450684e-01" nType="-99"/>
          <Node pos="r" depth="2" NCoef="0" IVar="-1" Cut="0.0000000000000000e+00" cType="1" res="-5.6112087331712246e-03" rms="4.7350785136222839e-01" purity="5.5831366777420044e-01" nType="-99"/>
        </Node>
        <Node pos="r" depth="1" NCoef="0" IVar="3" Cut="9.2260181903839111e-01" cType="1" res="7.4739269912242889e-03" rms="4.5933929085731506e-01" purity="5.0434476137161255e-01" nType="0">
          <Node pos="l" depth="2" NCoef="0" IVar="-1" Cut="0.0000000000000000e+00" cType="1" res="3.3795861527323723e-03" rms="4.3959608674049377e-01" purity="6.0520362854003906e-01" nType="-99"/>
          <Node pos="r" depth="2" NCoef="0" IVar="-1" Cut="0.0000000000000000e+00" cType="1" res="1.5369923494290560e-04" rms="4.6136531233787537e-01" purity="4.9235463142395020e-01" nType="-99"/>
        </Node>
      </Node>
    </BinaryTree>
    <BinaryTree type="DecisionTree" boostWeight="1.0000000000000000e+00" itree="593">
      <Node pos="s" depth="0" NCoef="0" IVar="6" Cut="4.2768988609313965e+00" cType="1" res="-3.9803190156817436e-03" rms="4.6539902687072754e-01" purity="4.9709928035736084e-01" nType="0">
        <Node pos="l" depth="1" NCoef="0" IVar="6" Cut="3.2577688694000244e+00" cType="1" res="4.1943606920540333e-03" rms="4.6766129136085510e-01" purity="4.2399901151657104e-01" nType="0">
          <Node pos="l" depth="2" NCoef="0" IVar="-1" Cut="0.0000000000000000e+00" cType="1" res="-5.4780731443315744e-04" rms="4.6077710390090942e-01" purity="3.5013836622238159e-01" nType="-99"/>
          <Node pos="r" depth="2" NCoef="0" IVar="-1" Cut="0.0000000000000000e+00" cType="1" res="1.4367540134117007e-03" rms="4.7708305716514587e-01" purity="5.3416442871093750e-01" nType="-99"/>
        </Node>
        <Node pos="r" depth="1" NCoef="0" IVar="4" Cut="1.2079088483005762e-03" cType="1" res="-1.9792797043919563e-02" rms="4.6057999134063721e-01" purity="6.3849890232086182e-01" nType="0">
          <Node pos="l" depth="2" NCoef="0" IVar="-1" Cut="0.0000000000000000e+00" cType="1" res="-2.5933035067282617e-04" rms="4.4882297515869141e-01" purity="6.7562192678451538e-01" nType="-99"/>
          <Node pos="r" depth="2" NCoef="0" IVar="-1" Cut="0.0000000000000000e+00" cType="1" res="-3.7678028456866741e-03" rms="4.8687899112701416e-01" purity="5.4358738660812378e-01" nType="-99"/>
        </Node>
      </Node>
    </BinaryTree>
    <BinaryTree type="DecisionTree" boostWeight="1.0000000000000000e+00" itree="594">
      <Node pos="s" depth="0" NCoef="0" IVar="1" Cut="1.2277972698211670e+00" cType="1" res="-8.3478372544050217e-03" rms="4.6493664383888245e-01" purity="4.9435204267501831e-01" nType="0">
        <Node pos="l" depth="1" NCoef="0" IVar="4" Cut="1.1115310480818152e-03" cType="1" res="-1.9827166572213173e-02" rms="4.6774360537528992e-01" purity="5.3251618146896362e-01" nType="0">
          <Node pos="l" depth="2" NCoef="0" IVar="-1" Cut="0.0000000000000000e+00" cType="1" res="-2.9928428120911121e-03" rms="4.6286445856094360e-01" purity="5.7285857200622559e-01" nType="-99"/>
          <Node pos="r" depth="2" NCoef="0" IVar="-1" Cut="0.0000000000000000e+00" cType="1" res="2.3740497999824584e-04" rms="4.7134718298912048e-01" purity="4.9236738681793213e-01" nType="-99"/>
        </Node>
        <Node pos="r" depth="1" NCoef="0" IVar="6" Cut="3.0583565235137939e+00" cType="1" res="1.0466714389622211e-02" rms="4.5967951416969299e-01" purity="4.3180117011070251e-01" nType="0">
          <Node pos="l" depth="2" NCoef="0" IVar="-1" Cut="0.0000000000000000e+00" cType="1" res="-2.0689058583229780e-03" rms="4.2299437522888184e-01" purity="2.5664854049682617e-01" nType="-99"/>
          <Node pos="r" depth="2" NCoef="0" IVar="-1" Cut="0.0000000000000000e+00" cType="1" res="2.0615339744836092e-03" rms="4.7695788741111755e-01" purity="5.2729040384292603e-01" nType="-99"/>
        </Node>
      </Node>
    </BinaryTree>
    <BinaryTree type="DecisionTree" boostWeight="1.0000000000000000e+00" itree="595">
      <Node pos="s" depth="0" NCoef="0" IVar="0" Cut="2.1990839391946793e-02" cType="1" res="-4.1883946396410465e-03" rms="4.6864759922027588e-01" purity="4.9598667025566101e-01" nType="0">
        <Node pos="l" depth="1" NCoef="0" IVar="-1" Cut="0.0000000000000000e+00" cType="1" res="3.3289906568825245e-03" rms="4.7918179631233215e-01" purity="4.6055898070335388e-01" nType="-99"/>
        <Node pos="r" depth="1" NCoef="0" IVar="5" Cut="7.6334252929687500e+02" cType="1" res="-9.1534545645117760e-03" rms="4.6739429235458374e-01" purity="4.9905031919479370e-01" nType="0">
          <Node pos="l" depth="2" NCoef="0" IVar="-1" Cut="0.0000000000000000e+00" cType="1" res="4.6142531209625304e-04" rms="4.6251749992370605e-01" purity="4.7925955057144165e-01" nType="-99"/>
          <Node pos="r" depth="2" NCoef="0" IVar="-1" Cut="0.0000000000000000e+00" cType="1" res="-2.4517965503036976e-03" rms="4.7445377707481384e-01" purity="5.3370481729507446e-01" nType="-99"/>
        </Node>
      </Node>
    </BinaryTree>
    <BinaryTree type="DecisionTree" boostWeight="1.0000000000000000e+00" itree="596">
      <Node pos="s" depth="0" NCoef="0" IVar="4" Cut="2.9996919911354780e-03" cType="1" res="-3.3898355904966593e-03" rms="4.6483942866325378e-01" purity="4.9813997745513916e-01" nType="0">
        <Node pos="l" depth="1" NCoef="0" IVar="4" Cut="1.3766270130872726e-03" cType="1" res="-1.0402258485555649e-02" rms="4.6411445736885071e-01" purity="5.0683319568634033e-01" nType="0">
          <Node pos="l" depth="2" NCoef="0" IVar="-1" Cut="0.0000000000000000e+00" cType="1" res="1.2427900219336152e-04" rms="4.6266230940818787e-01" purity="5.6725823879241943e-01" nType="-99"/>
          <Node pos="r" depth="2" NCoef="0" IVar="-1" Cut="0.0000000000000000e+00" cType="1" res="-1.8147472292184830e-03" rms="4.6581667661666870e-01" purity="4.0580481290817261e-01" nType="-99"/>
        </Node>
        <Node pos="r" depth="1" NCoef="0" IVar="1" Cut="9.5045018196105957e-01" cType="1" res="4.5928969979286194e-02" rms="4.6694117784500122e-01" purity="4.3699997663497925e-01" nType="0">
          <Node pos="l" depth="2" NCoef="0" IVar="-1" Cut="0.0000000000000000e+00" cType="1" res="4.9489988014101982e-03" rms="4.8139327764511108e-01" purity="5.3529226779937744e-01" nType="-99"/>
          <Node pos="r" depth="2" NCoef="0" IVar="-1" Cut="0.0000000000000000e+00" cType="1" res="1.1647441424429417e-03" rms="4.5367878675460815e-01" purity="3.6089682579040527e-01" nType="-99"/>
        </Node>
      </Node>
    </BinaryTree>
    <BinaryTree type="DecisionTree" boostWeight="1.0000000000000000e+00" itree="597">
      <Node pos="s" depth="0" NCoef="0" IVar="6" Cut="2.8593380451202393e+00" cType="1" res="-6.6249198280274868e-03" rms="4.6729132533073425e-01" purity="4.9800696969032288e-01" nType="0">
        <Node pos="l" depth="1" NCoef="0" IVar="3" Cut="1.7794412374496460e+00" cType="1" res="1.6789870336651802e-02" rms="4.5981931686401367e-01" purity="3.5307443141937256e-01" nType="0">
          <Node pos="l" depth="2" NCoef="0" IVar="-1" Cut="0.0000000000000000e+00" cType="1" res="1.7964985454455018e-03" rms="4.7162267565727234e-01" purity="3.8826334476470947e-01" nType="-99"/>
          <Node pos="r" depth="2" NCoef="0" IVar="-1" Cut="0.0000000000000000e+00" cType="1" res="-1.6483492217957973e-03" rms="4.1502025723457336e-01" purity="2.3455983400344849e-01" nType="-99"/>
        </Node>
        <Node pos="r" depth="1" NCoef="0" IVar="1" Cut="5.0313091278076172e-01" cType="1" res="-1.5944644808769226e-02" rms="4.6990785002708435e-01" purity="5.5569398403167725e-01" nType="0">
          <Node pos="l" depth="2" NCoef="0" IVar="-1" Cut="0.0000000000000000e+00" cType="1" res="1.2452665250748396e-03" rms="4.5597344636917114e-01" purity="6.6982120275497437e-01" nType="-99"/>
          <Node pos="r" depth="2" NCoef="0" IVar="-1" Cut="0.0000000000000000e+00" cType="1" res="-1.6070423880591989e-03" rms="4.7351470589637756e-01" purity="5.2179187536239624e-01" nType="-99"/>
        </Node>
      </Node>
    </BinaryTree>
    <BinaryTree type="DecisionTree" boostWeight="1.0000000000000000e+00" itree="598">
      <Node pos="s" depth="0" NCoef="0" IVar="1" Cut="1.0155298709869385e+00" cType="1" res="6.7581387702375650e-04" rms="4.6625038981437683e-01" purity="5.0096362829208374e-01" nType="0">
        <Node pos="l" depth="1" NCoef="0" IVar="5" Cut="8.3650378417968750e+02" cType="1" res="-2.0001860335469246e-02" rms="4.6948370337486267e-01" purity="5.3856152296066284e-01" nType="0">
          <Node pos="l" depth="2" NCoef="0" IVar="-1" Cut="0.0000000000000000e+00" cType="1" res="1.1894157978531439e-05" rms="4.6714788675308228e-01" purity="5.3688758611679077e-01" nType="-99"/>
          <Node pos="r" depth="2" NCoef="0" IVar="-1" Cut="0.0000000000000000e+00" cType="1" res="-3.8147801533341408e-03" rms="4.7152972221374512e-01" purity="5.4185032844543457e-01" nType="-99"/>
        </Node>
        <Node pos="r" depth="1" NCoef="0" IVar="4" Cut="9.5091323601081967e-04" cType="1" res="2.2756941616535187e-02" rms="4.6175146102905273e-01" purity="4.6081385016441345e-01" nType="0">
          <Node pos="l" depth="2" NCoef="0" IVar="-1" Cut="0.0000000000000000e+00" cType="1" res="3.9547202177345753e-03" rms="4.6167814731597900e-01" purity="5.7124871015548706e-01" nType="-99"/>
          <Node pos="r" depth="2" NCoef="0" IVar="-1" Cut="0.0000000000000000e+00" cType="1" res="-2.9488824657164514e-04" rms="4.5989358425140381e-01" purity="3.7692004442214966e-01" nType="-99"/>
        </Node>
      </Node>
    </BinaryTree>
    <BinaryTree type="DecisionTree" boostWeight="1.0000000000000000e+00" itree="599">
      <Node pos="s" depth="0" NCoef="0" IVar="5" Cut="1.2576743164062500e+03" cType="1" res="-1.6835670685395598e-03" rms="4.6644783020019531e-01" purity="5.0348824262619019e-01" nType="0">
        <Node pos="l" depth="1" NCoef="0" IVar="6" Cut="5.3221788406372070e+00" cType="1" res="-6.6080172546207905e-03" rms="4.6546179056167603e-01" purity="4.9393090605735779e-01" nType="0">
          <Node pos="l" depth="2" NCoef="0" IVar="-1" Cut="0.0000000000000000e+00" cType="1" res="-6.5456908487249166e-05" rms="4.6717259287834167e-01" purity="4.6710026264190674e-01" nType="-99"/>
          <Node pos="r" depth="2" NCoef="0" IVar="-1" Cut="0.0000000000000000e+00" cType="1" res="-3.7735300138592720e-03" rms="4.5106199383735657e-01" purity="6.8564355373382568e-01" nType="-99"/>
        </Node>
        <Node pos="r" depth="1" NCoef="0" IVar="-1" Cut="0.0000000000000000e+00" cType="1" res="4.4994200579822063e-03" rms="4.7471755743026733e-01" purity="6.3779062032699585e-01" nType="-99"/>
      </Node>
    </BinaryTree>
    <BinaryTree type="DecisionTree" boostWeight="1.0000000000000000e+00" itree="600">
      <Node pos="s" depth="0" NCoef="0" IVar="2" Cut="8.4657055139541626e-01" cType="1" res="-6.6975490190088749e-03" rms="4.6351671218872070e-01" purity="4.9599197506904602e-01" nType="0">
        <Node pos="l" depth="1" NCoef="0" IVar="2" Cut="3.8942593336105347e-01" cType="1" res="-1.0842915624380112e-02" rms="4.6543636918067932e-01" purity="4.8202973604202271e-01" nType="0">
          <Node pos="l" depth="2" NCoef="0" IVar="-1" Cut="0.0000000000000000e+00" cType="1" res="-3.9248494431376457e-03" rms="4.2800354957580566e-01" purity="3.0300533771514893e-01" nType="-99"/>
          <Node pos="r" depth="2" NCoef="0" IVar="-1" Cut="0.0000000000000000e+00" cType="1" res="-4.4717369019053876e-04" rms="4.6780315041542053e-01" purity="4.9500444531440735e-01" nType="-99"/>
        </Node>
        <Node pos="r" depth="1" NCoef="0" IVar="-1" Cut="0.0000000000000000e+00" cType="1" res="4.9643474631011486e-03" rms="4.2369714379310608e-01" purity="7.3191392421722412e-01" nType="-99"/>
      </Node>
    </BinaryTree>
    <BinaryTree type="DecisionTree" boostWeight="1.0000000000000000e+00" itree="601">
      <Node pos="s" depth="0" NCoef="0" IVar="5" Cut="1.0099662475585938e+03" cType="1" res="-2.4309251457452774e-03" rms="4.5823282003402710e-01" purity="5.0132495164871216e-01" nType="0">
        <Node pos="l" depth="1" NCoef="0" IVar="6" Cut="2.5349800586700439e+00" cType="1" res="-1.1525593698024750e-02" rms="4.5590794086456299e-01" purity="4.8044243454933167e-01" nType="0">
          <Node pos="l" depth="2" NCoef="0" IVar="-1" Cut="0.0000000000000000e+00" cType="1" res="-3.1568247359246016e-03" rms="4.2161223292350769e-01" purity="2.5238847732543945e-01" nType="-99"/>
          <Node pos="r" depth="2" NCoef="0" IVar="-1" Cut="0.0000000000000000e+00" cType="1" res="-2.3586100724060088e-05" rms="4.6509996056556702e-01" purity="5.4868930578231812e-01" nType="-99"/>
        </Node>
        <Node pos="r" depth="1" NCoef="0" IVar="6" Cut="3.9432206153869629e+00" cType="1" res="4.5071333646774292e-02" rms="4.6732139587402344e-01" purity="6.1039620637893677e-01" nType="0">
          <Node pos="l" depth="2" NCoef="0" IVar="-1" Cut="0.0000000000000000e+00" cType="1" res="4.6988306567072868e-03" rms="4.8547512292861938e-01" purity="5.3175491094589233e-01" nType="-99"/>
          <Node pos="r" depth="2" NCoef="0" IVar="-1" Cut="0.0000000000000000e+00" cType="1" res="1.0764291509985924e-03" rms="4.4652086496353149e-01" purity="6.8845254182815552e-01" nType="-99"/>
        </Node>
      </Node>
    </BinaryTree>
    <BinaryTree type="DecisionTree" boostWeight="1.0000000000000000e+00" itree="602">
      <Node pos="s" depth="0" NCoef="0" IVar="2" Cut="4.3396458029747009e-01" cType="1" res="-1.8401902343612164e-04" rms="4.6802052855491638e-01" purity="4.9977457523345947e-01" nType="0">
        <Node pos="l" depth="1" NCoef="0" IVar="3" Cut="1.2558606863021851e+00" cType="1" res="5.0337206572294235e-02" rms="4.6444824337959290e-01" purity="4.3187677860260010e-01" nType="0">
          <Node pos="l" depth="2" NCoef="0" IVar="-1" Cut="0.0000000000000000e+00" cType="1" res="2.9361599445110187e-06" rms="4.5967441797256470e-01" purity="4.3432256579399109e-01" nType="-99"/>
          <Node pos="r" depth="2" NCoef="0" IVar="-1" Cut="0.0000000000000000e+00" cType="1" res="5.8161569759249687e-03" rms="4.6446263790130615e-01" purity="4.3007361888885498e-01" nType="-99"/>
        </Node>
        <Node pos="r" depth="1" NCoef="0" IVar="0" Cut="9.3898743391036987e-02" cType="1" res="-7.4452334083616734e-03" rms="4.6808376908302307e-01" purity="5.0953328609466553e-01" nType="0">
          <Node pos="l" depth="2" NCoef="0" IVar="-1" Cut="0.0000000000000000e+00" cType="1" res="-1.5526313800364733e-03" rms="4.7437256574630737e-01" purity="4.5835322141647339e-01" nType="-99"/>
          <Node pos="r" depth="2" NCoef="0" IVar="-1" Cut="0.0000000000000000e+00" cType="1" res="8.0905994400382042e-04" rms="4.6029308438301086e-01" purity="5.6568449735641479e-01" nType="-99"/>
        </Node>
      </Node>
    </BinaryTree>
    <BinaryTree type="DecisionTree" boostWeight="1.0000000000000000e+00" itree="603">
      <Node pos="s" depth="0" NCoef="0" IVar="4" Cut="2.4225062225013971e-03" cType="1" res="-3.1433631666004658e-03" rms="4.6358340978622437e-01" purity="4.9785664677619934e-01" nType="0">
        <Node pos="l" depth="1" NCoef="0" IVar="4" Cut="1.9853874982800335e-04" cType="1" res="4.2746644467115402e-03" rms="4.6306204795837402e-01" purity="5.3221267461776733e-01" nType="0">
          <Node pos="l" depth="2" NCoef="0" IVar="-1" Cut="0.0000000000000000e+00" cType="1" res="-1.9628710579127073e-03" rms="4.5986476540565491e-01" purity="6.2878483533859253e-01" nType="-99"/>
          <Node pos="r" depth="2" NCoef="0" IVar="-1" Cut="0.0000000000000000e+00" cType="1" res="8.8254181900992990e-04" rms="4.6364471316337585e-01" purity="5.0209575891494751e-01" nType="-99"/>
        </Node>
        <Node pos="r" depth="1" NCoef="0" IVar="1" Cut="1.0258269309997559e+00" cType="1" res="-2.7123808860778809e-02" rms="4.6445491909980774e-01" purity="3.8679292798042297e-01" nType="0">
          <Node pos="l" depth="2" NCoef="0" IVar="-1" Cut="0.0000000000000000e+00" cType="1" res="2.5530051789246500e-04" rms="4.8950836062431335e-01" purity="4.7790804505348206e-01" nType="-99"/>
          <Node pos="r" depth="2" NCoef="0" IVar="-1" Cut="0.0000000000000000e+00" cType="1" res="-3.4565180540084839e-03" rms="4.3477612733840942e-01" purity="2.9298099875450134e-01" nType="-99"/>
        </Node>
      </Node>
    </BinaryTree>
    <BinaryTree type="DecisionTree" boostWeight="1.0000000000000000e+00" itree="604">
      <Node pos="s" depth="0" NCoef="0" IVar="2" Cut="7.4610942602157593e-01" cType="1" res="-4.3542804196476936e-03" rms="4.6615290641784668e-01" purity="4.9906727671623230e-01" nType="0">
        <Node pos="l" depth="1" NCoef="0" IVar="0" Cut="6.6575989127159119e-02" cType="1" res="3.7823396269232035e-03" rms="4.6655565500259399e-01" purity="4.7600132226943970e-01" nType="0">
          <Node pos="l" depth="2" NCoef="0" IVar="-1" Cut="0.0000000000000000e+00" cType="1" res="-8.6020451271906495e-04" rms="4.6272960305213928e-01" purity="4.2563945055007935e-01" nType="-99"/>
          <Node pos="r" depth="2" NCoef="0" IVar="-1" Cut="0.0000000000000000e+00" cType="1" res="1.2326993746683002e-03" rms="4.6929994225502014e-01" purity="5.1956033706665039e-01" nType="-99"/>
        </Node>
        <Node pos="r" depth="1" NCoef="0" IVar="0" Cut="9.0178973972797394e-02" cType="1" res="-3.6648001521825790e-02" rms="4.6314355731010437e-01" purity="5.9061431884765625e-01" nType="0">
          <Node pos="l" depth="2" NCoef="0" IVar="-1" Cut="0.0000000000000000e+00" cType="1" res="-6.0263704508543015e-03" rms="4.6838584542274475e-01" purity="4.9242246150970459e-01" nType="-99"/>
          <Node pos="r" depth="2" NCoef="0" IVar="-1" Cut="0.0000000000000000e+00" cType="1" res="-7.9398247180506587e-04" rms="4.5849105715751648e-01" purity="6.3357114791870117e-01" nType="-99"/>
        </Node>
      </Node>
    </BinaryTree>
    <BinaryTree type="DecisionTree" boostWeight="1.0000000000000000e+00" itree="605">
      <Node pos="s" depth="0" NCoef="0" IVar="3" Cut="1.6842631101608276e+00" cType="1" res="4.2165297782048583e-04" rms="4.6894034743309021e-01" purity="5.0247406959533691e-01" nType="0">
        <Node pos="l" depth="1" NCoef="0" IVar="5" Cut="1.1083745117187500e+03" cType="1" res="-1.1523528955876827e-02" rms="4.7028362751007080e-01" purity="5.2170836925506592e-01" nType="0">
          <Node pos="l" depth="2" NCoef="0" IVar="-1" Cut="0.0000000000000000e+00" cType="1" res="-1.2372056953608990e-03" rms="4.7093272209167480e-01" purity="5.0528603792190552e-01" nType="-99"/>
          <Node pos="r" depth="2" NCoef="0" IVar="-1" Cut="0.0000000000000000e+00" cType="1" res="3.1931146513670683e-03" rms="4.6126368641853333e-01" purity="6.4405798912048340e-01" nType="-99"/>
        </Node>
        <Node pos="r" depth="1" NCoef="0" IVar="3" Cut="2.0791788101196289e+00" cType="1" res="3.3903356641530991e-02" rms="4.6351677179336548e-01" purity="4.4856131076812744e-01" nType="0">
          <Node pos="l" depth="2" NCoef="0" IVar="-1" Cut="0.0000000000000000e+00" cType="1" res="3.7576486356556416e-03" rms="4.6939614415168762e-01" purity="5.1505708694458008e-01" nType="-99"/>
          <Node pos="r" depth="2" NCoef="0" IVar="-1" Cut="0.0000000000000000e+00" cType="1" res="-2.7735627372749150e-04" rms="4.5123723149299622e-01" purity="3.4101131558418274e-01" nType="-99"/>
        </Node>
      </Node>
    </BinaryTree>
    <BinaryTree type="DecisionTree" boostWeight="1.0000000000000000e+00" itree="606">
      <Node pos="s" depth="0" NCoef="0" IVar="0" Cut="1.3509196043014526e-01" cType="1" res="-8.5680168122053146e-03" rms="4.6355536580085754e-01" purity="4.9493521451950073e-01" nType="0">
        <Node pos="l" depth="1" NCoef="0" IVar="2" Cut="6.3300287723541260e-01" cType="1" res="-1.9772889092564583e-02" rms="4.6574422717094421e-01" purity="4.5826065540313721e-01" nType="0">
          <Node pos="l" depth="2" NCoef="0" IVar="-1" Cut="0.0000000000000000e+00" cType="1" res="1.0191435285378247e-04" rms="4.6201726794242859e-01" purity="4.4066959619522095e-01" nType="-99"/>
          <Node pos="r" depth="2" NCoef="0" IVar="-1" Cut="0.0000000000000000e+00" cType="1" res="-4.0602427907288074e-03" rms="4.7031986713409424e-01" purity="4.9523803591728210e-01" nType="-99"/>
        </Node>
        <Node pos="r" depth="1" NCoef="0" IVar="3" Cut="1.4030032157897949e+00" cType="1" res="2.8818778693675995e-02" rms="4.5418027043342590e-01" purity="6.1730551719665527e-01" nType="0">
          <Node pos="l" depth="2" NCoef="0" IVar="-1" Cut="0.0000000000000000e+00" cType="1" res="4.3283225968480110e-03" rms="4.4734656810760498e-01" purity="6.6662418842315674e-01" nType="-99"/>
          <Node pos="r" depth="2" NCoef="0" IVar="-1" Cut="0.0000000000000000e+00" cType="1" res="-5.9453444555401802e-04" rms="4.5972749590873718e-01" purity="5.5621004104614258e-01" nType="-99"/>
        </Node>
      </Node>
    </BinaryTree>
    <BinaryTree type="DecisionTree" boostWeight="1.0000000000000000e+00" itree="607">
      <Node pos="s" depth="0" NCoef="0" IVar="3" Cut="1.9080088138580322e+00" cType="1" res="1.1872962204506621e-04" rms="4.6234685182571411e-01" purity="5.0406569242477417e-01" nType="0">
        <Node pos="l" depth="1" NCoef="0" IVar="3" Cut="1.2896121740341187e+00" cType="1" res="-7.4152480810880661e-03" rms="4.6272960305213928e-01" purity="5.2224624156951904e-01" nType="0">
          <Node pos="l" depth="2" NCoef="0" IVar="-1" Cut="0.0000000000000000e+00" cType="1" res="8.1682309973984957e-04" rms="4.6356672048568726e-01" purity="5.5779457092285156e-01" nType="-99"/>
          <Node pos="r" depth="2" NCoef="0" IVar="-1" Cut="0.0000000000000000e+00" cType="1" res="-2.2132841404527426e-03" rms="4.6008339524269104e-01" purity="4.7215300798416138e-01" nType="-99"/>
        </Node>
        <Node pos="r" depth="1" NCoef="0" IVar="0" Cut="5.5027160793542862e-02" cType="1" res="3.8233809173107147e-02" rms="4.5851218700408936e-01" purity="4.1208881139755249e-01" nType="0">
          <Node pos="l" depth="2" NCoef="0" IVar="-1" Cut="0.0000000000000000e+00" cType="1" res="6.2815975397825241e-03" rms="4.6772810816764832e-01" purity="3.9466115832328796e-01" nType="-99"/>
          <Node pos="r" depth="2" NCoef="0" IVar="-1" Cut="0.0000000000000000e+00" cType="1" res="5.4529769113287330e-04" rms="4.5050993561744690e-01" purity="4.2203989624977112e-01" nType="-99"/>
        </Node>
      </Node>
    </BinaryTree>
    <BinaryTree type="DecisionTree" boostWeight="1.0000000000000000e+00" itree="608">
      <Node pos="s" depth="0" NCoef="0" IVar="2" Cut="6.9978863000869751e-01" cType="1" res="-1.2516817077994347e-02" rms="4.6481329202651978e-01" purity="4.8856228590011597e-01" nType="0">
        <Node pos="l" depth="1" NCoef="0" IVar="4" Cut="1.7964346334338188e-03" cType="1" res="-2.1399604156613350e-02" rms="4.6653822064399719e-01" purity="4.4056713581085205e-01" nType="0">
          <Node pos="l" depth="2" NCoef="0" IVar="-1" Cut="0.0000000000000000e+00" cType="1" res="-5.2601081551983953e-04" rms="4.7063663601875305e-01" purity="4.9853292107582092e-01" nType="-99"/>
          <Node pos="r" depth="2" NCoef="0" IVar="-1" Cut="0.0000000000000000e+00" cType="1" res="-2.7118993457406759e-03" rms="4.5787745714187622e-01" purity="3.3340790867805481e-01" nType="-99"/>
        </Node>
        <Node pos="r" depth="1" NCoef="0" IVar="0" Cut="1.1949901282787323e-01" cType="1" res="1.1020543985068798e-02" rms="4.5938152074813843e-01" purity="6.1573857069015503e-01" nType="0">
          <Node pos="l" depth="2" NCoef="0" IVar="-1" Cut="0.0000000000000000e+00" cType="1" res="-1.3652262277901173e-03" rms="4.7272354364395142e-01" purity="5.5931740999221802e-01" nType="-99"/>
          <Node pos="r" depth="2" NCoef="0" IVar="-1" Cut="0.0000000000000000e+00" cType="1" res="2.9281682800501585e-03" rms="4.4461375474929810e-01" purity="6.6805130243301392e-01" nType="-99"/>
        </Node>
      </Node>
    </BinaryTree>
    <BinaryTree type="DecisionTree" boostWeight="1.0000000000000000e+00" itree="609">
      <Node pos="s" depth="0" NCoef="0" IVar="0" Cut="1.8730583786964417e-01" cType="1" res="-5.0244806334376335e-03" rms="4.6423539519309998e-01" purity="4.9594756960868835e-01" nType="0">
        <Node pos="l" depth="1" NCoef="0" IVar="4" Cut="2.9993790667504072e-03" cType="1" res="-1.1300634592771530e-02" rms="4.6446049213409424e-01" purity="4.7784531116485596e-01" nType="0">
          <Node pos="l" depth="2" NCoef="0" IVar="-1" Cut="0.0000000000000000e+00" cType="1" res="-1.1975149391219020e-03" rms="4.6377345919609070e-01" purity="4.8512470722198486e-01" nType="-99"/>
          <Node pos="r" depth="2" NCoef="0" IVar="-1" Cut="0.0000000000000000e+00" cType="1" res="2.1697932388633490e-03" rms="4.6604907512664795e-01" purity="4.3080016970634460e-01" nType="-99"/>
        </Node>
        <Node pos="r" depth="1" NCoef="0" IVar="4" Cut="1.0328600183129311e-03" cType="1" res="5.0196472555398941e-02" rms="4.5856201648712158e-01" purity="6.5522092580795288e-01" nType="0">
          <Node pos="l" depth="2" NCoef="0" IVar="-1" Cut="0.0000000000000000e+00" cType="1" res="-5.0017138710245490e-04" rms="4.5128545165061951e-01" purity="6.7447245121002197e-01" nType="-99"/>
          <Node pos="r" depth="2" NCoef="0" IVar="-1" Cut="0.0000000000000000e+00" cType="1" res="7.2407475672662258e-03" rms="4.5865330100059509e-01" purity="6.3518697023391724e-01" nType="-99"/>
        </Node>
      </Node>
    </BinaryTree>
    <BinaryTree type="DecisionTree" boostWeight="1.0000000000000000e+00" itree="610">
      <Node pos="s" depth="0" NCoef="0" IVar="0" Cut="3.9445288479328156e-02" cType="1" res="2.8554475866258144e-03" rms="4.6427318453788757e-01" purity="5.0633120536804199e-01" nType="0">
        <Node pos="l" depth="1" NCoef="0" IVar="4" Cut="8.1071391468867660e-04" cType="1" res="3.5441603511571884e-02" rms="4.6632114052772522e-01" purity="4.5597174763679504e-01" nType="0">
          <Node pos="l" depth="2" NCoef="0" IVar="-1" Cut="0.0000000000000000e+00" cType="1" res="6.0770674608647823e-03" rms="4.6923223137855530e-01" purity="5.9205770492553711e-01" nType="-99"/>
          <Node pos="r" depth="2" NCoef="0" IVar="-1" Cut="0.0000000000000000e+00" cType="1" res="6.6571417846716940e-05" rms="4.6117624640464783e-01" purity="3.7146949768066406e-01" nType="-99"/>
        </Node>
        <Node pos="r" depth="1" NCoef="0" IVar="5" Cut="5.8339764404296875e+02" cType="1" res="-5.2326144650578499e-03" rms="4.6340864896774292e-01" purity="5.1883071660995483e-01" nType="0">
          <Node pos="l" depth="2" NCoef="0" IVar="-1" Cut="0.0000000000000000e+00" cType="1" res="1.1787493713200092e-03" rms="4.6370357275009155e-01" purity="4.5875760912895203e-01" nType="-99"/>
          <Node pos="r" depth="2" NCoef="0" IVar="-1" Cut="0.0000000000000000e+00" cType="1" res="-1.1145598255097866e-03" rms="4.6280303597450256e-01" purity="5.4896521568298340e-01" nType="-99"/>
        </Node>
      </Node>
    </BinaryTree>
    <BinaryTree type="DecisionTree" boostWeight="1.0000000000000000e+00" itree="611">
      <Node pos="s" depth="0" NCoef="0" IVar="4" Cut="3.2300449674949050e-04" cType="1" res="6.6438051871955395e-03" rms="4.6625086665153503e-01" purity="5.0547516345977783e-01" nType="0">
        <Node pos="l" depth="1" NCoef="0" IVar="2" Cut="7.4795037508010864e-01" cType="1" res="-2.6525072753429413e-02" rms="4.6162095665931702e-01" purity="5.9723943471908569e-01" nType="0">
          <Node pos="l" depth="2" NCoef="0" IVar="-1" Cut="0.0000000000000000e+00" cType="1" res="-4.4199009425938129e-04" rms="4.5655533671379089e-01" purity="5.8437442779541016e-01" nType="-99"/>
          <Node pos="r" depth="2" NCoef="0" IVar="-1" Cut="0.0000000000000000e+00" cType="1" res="-8.7610492482781410e-03" rms="4.7250339388847351e-01" purity="6.4498311281204224e-01" nType="-99"/>
        </Node>
        <Node pos="r" depth="1" NCoef="0" IVar="2" Cut="5.6839305162429810e-01" cType="1" res="1.7293674871325493e-02" rms="4.6722859144210815e-01" purity="4.7601145505905151e-01" nType="0">
          <Node pos="l" depth="2" NCoef="0" IVar="-1" Cut="0.0000000000000000e+00" cType="1" res="-1.7646620108280331e-04" rms="4.6300968527793884e-01" purity="3.8823619484901428e-01" nType="-99"/>
          <Node pos="r" depth="2" NCoef="0" IVar="-1" Cut="0.0000000000000000e+00" cType="1" res="2.0564065780490637e-03" rms="4.6980285644531250e-01" purity="5.4191309213638306e-01" nType="-99"/>
        </Node>
      </Node>
    </BinaryTree>
    <BinaryTree type="DecisionTree" boostWeight="1.0000000000000000e+00" itree="612">
      <Node pos="s" depth="0" NCoef="0" IVar="2" Cut="5.9316742420196533e-01" cType="1" res="1.1823529377579689e-02" rms="4.6575698256492615e-01" purity="5.1166951656341553e-01" nType="0">
        <Node pos="l" depth="1" NCoef="0" IVar="0" Cut="6.8490594625473022e-02" cType="1" res="2.5185737758874893e-02" rms="4.6686324477195740e-01" purity="4.5743000507354736e-01" nType="0">
          <Node pos="l" depth="2" NCoef="0" IVar="-1" Cut="0.0000000000000000e+00" cType="1" res="3.1422570464201272e-04" rms="4.6884307265281677e-01" purity="4.2373797297477722e-01" nType="-99"/>
          <Node pos="r" depth="2" NCoef="0" IVar="-1" Cut="0.0000000000000000e+00" cType="1" res="4.0160021744668484e-03" rms="4.6104046702384949e-01" purity="5.1836246252059937e-01" nType="-99"/>
        </Node>
        <Node pos="r" depth="1" NCoef="0" IVar="2" Cut="8.1118881702423096e-01" cType="1" res="-2.8402474708855152e-04" rms="4.6442043781280518e-01" purity="5.6081610918045044e-01" nType="0">
          <Node pos="l" depth="2" NCoef="0" IVar="-1" Cut="0.0000000000000000e+00" cType="1" res="-7.9092313535511494e-04" rms="4.7013485431671143e-01" purity="5.2871650457382202e-01" nType="-99"/>
          <Node pos="r" depth="2" NCoef="0" IVar="-1" Cut="0.0000000000000000e+00" cType="1" res="4.2116031982004642e-03" rms="4.3265056610107422e-01" purity="7.0966708660125732e-01" nType="-99"/>
        </Node>
      </Node>
    </BinaryTree>
    <BinaryTree type="DecisionTree" boostWeight="1.0000000000000000e+00" itree="613">
      <Node pos="s" depth="0" NCoef="0" IVar="2" Cut="7.5960850715637207e-01" cType="1" res="-1.6108115669339895e-03" rms="4.6563318371772766e-01" purity="5.0192767381668091e-01" nType="0">
        <Node pos="l" depth="1" NCoef="0" IVar="6" Cut="1.8632115125656128e+00" cType="1" res="3.7914088461548090e-03" rms="4.6613556146621704e-01" purity="4.8259285092353821e-01" nType="0">
          <Node pos="l" depth="2" NCoef="0" IVar="-1" Cut="0.0000000000000000e+00" cType="1" res="3.9279251359403133e-03" rms="4.4626292586326599e-01" purity="3.2251808047294617e-01" nType="-99"/>
          <Node pos="r" depth="2" NCoef="0" IVar="-1" Cut="0.0000000000000000e+00" cType="1" res="-5.8385419833939523e-05" rms="4.6767783164978027e-01" purity="4.9760553240776062e-01" nType="-99"/>
        </Node>
        <Node pos="r" depth="1" NCoef="0" IVar="3" Cut="1.2846390008926392e+00" cType="1" res="-2.7472538873553276e-02" rms="4.6234706044197083e-01" purity="5.9448808431625366e-01" nType="0">
          <Node pos="l" depth="2" NCoef="0" IVar="-1" Cut="0.0000000000000000e+00" cType="1" res="2.8266262961551547e-04" rms="4.4444000720977783e-01" purity="6.3516944646835327e-01" nType="-99"/>
          <Node pos="r" depth="2" NCoef="0" IVar="-1" Cut="0.0000000000000000e+00" cType="1" res="-4.6646944247186184e-03" rms="4.8317843675613403e-01" purity="5.3664904832839966e-01" nType="-99"/>
        </Node>
      </Node>
    </BinaryTree>
    <BinaryTree type="DecisionTree" boostWeight="1.0000000000000000e+00" itree="614">
      <Node pos="s" depth="0" NCoef="0" IVar="1" Cut="1.2920434474945068e+00" cType="1" res="-3.5343549679964781e-03" rms="4.6181204915046692e-01" purity="4.9870291352272034e-01" nType="0">
        <Node pos="l" depth="1" NCoef="0" IVar="2" Cut="5.1141154766082764e-01" cType="1" res="9.6922786906361580e-03" rms="4.6621522307395935e-01" purity="5.6449955701828003e-01" nType="0">
          <Node pos="l" depth="2" NCoef="0" IVar="-1" Cut="0.0000000000000000e+00" cType="1" res="3.8511692546308041e-03" rms="4.7158229351043701e-01" purity="5.4098498821258545e-01" nType="-99"/>
          <Node pos="r" depth="2" NCoef="0" IVar="-1" Cut="0.0000000000000000e+00" cType="1" res="-3.7757077370770276e-04" rms="4.6350085735321045e-01" purity="5.7146841287612915e-01" nType="-99"/>
        </Node>
        <Node pos="r" depth="1" NCoef="0" IVar="2" Cut="6.6552829742431641e-01" cType="1" res="-2.5951648131012917e-02" rms="4.5337146520614624e-01" purity="3.8718685507774353e-01" nType="0">
          <Node pos="l" depth="2" NCoef="0" IVar="-1" Cut="0.0000000000000000e+00" cType="1" res="-2.3424671962857246e-03" rms="4.5048862695693970e-01" purity="3.3942297101020813e-01" nType="-99"/>
          <Node pos="r" depth="2" NCoef="0" IVar="-1" Cut="0.0000000000000000e+00" cType="1" res="7.0432707434520125e-04" rms="4.6038043498992920e-01" purity="5.3809875249862671e-01" nType="-99"/>
        </Node>
      </Node>
    </BinaryTree>
    <BinaryTree type="DecisionTree" boostWeight="1.0000000000000000e+00" itree="615">
      <Node pos="s" depth="0" NCoef="0" IVar="4" Cut="2.4910480715334415e-03" cType="1" res="5.4386635310947895e-03" rms="4.6487298607826233e-01" purity="5.0642395019531250e-01" nType="0">
        <Node pos="l" depth="1" NCoef="0" IVar="6" Cut="5.5108599662780762e+00" cType="1" res="1.4670077711343765e-02" rms="4.6406248211860657e-01" purity="5.4146820306777954e-01" nType="0">
          <Node pos="l" depth="2" NCoef="0" IVar="-1" Cut="0.0000000000000000e+00" cType="1" res="1.3901785714551806e-03" rms="4.6742901206016541e-01" purity="5.1753133535385132e-01" nType="-99"/>
          <Node pos="r" depth="2" NCoef="0" IVar="-1" Cut="0.0000000000000000e+00" cType="1" res="-2.7717787306755781e-03" rms="4.3784323334693909e-01" purity="7.0205593109130859e-01" nType="-99"/>
        </Node>
        <Node pos="r" depth="1" NCoef="0" IVar="6" Cut="2.3400723934173584e+00" cType="1" res="-2.6912370696663857e-02" rms="4.6626189351081848e-01" purity="3.8361299037933350e-01" nType="0">
          <Node pos="l" depth="2" NCoef="0" IVar="-1" Cut="0.0000000000000000e+00" cType="1" res="1.7948014428839087e-03" rms="4.5558515191078186e-01" purity="3.2035428285598755e-01" nType="-99"/>
          <Node pos="r" depth="2" NCoef="0" IVar="-1" Cut="0.0000000000000000e+00" cType="1" res="-2.8723801951855421e-03" rms="4.6898093819618225e-01" purity="4.1239604353904724e-01" nType="-99"/>
        </Node>
      </Node>
    </BinaryTree>
    <BinaryTree type="DecisionTree" boostWeight="1.0000000000000000e+00" itree="616">
      <Node pos="s" depth="0" NCoef="0" IVar="3" Cut="1.6310132741928101e+00" cType="1" res="2.0183916203677654e-03" rms="4.6293669939041138e-01" purity="5.0326734781265259e-01" nType="0">
        <Node pos="l" depth="1" NCoef="0" IVar="3" Cut="1.2475950717926025e+00" cType="1" res="1.3766135089099407e-02" rms="4.6333155035972595e-01" purity="5.4847306013107300e-01" nType="0">
          <Node pos="l" depth="2" NCoef="0" IVar="-1" Cut="0.0000000000000000e+00" cType="1" res="5.0631966587388888e-05" rms="4.6166822314262390e-01" purity="5.4191422462463379e-01" nType="-99"/>
          <Node pos="r" depth="2" NCoef="0" IVar="-1" Cut="0.0000000000000000e+00" cType="1" res="2.7029046323150396e-03" rms="4.6566098928451538e-01" purity="5.6256622076034546e-01" nType="-99"/>
        </Node>
        <Node pos="r" depth="1" NCoef="0" IVar="5" Cut="9.2704162597656250e+02" cType="1" res="-2.5056758895516396e-02" rms="4.6088647842407227e-01" purity="3.9908140897750854e-01" nType="0">
          <Node pos="l" depth="2" NCoef="0" IVar="-1" Cut="0.0000000000000000e+00" cType="1" res="-6.7460170248523355e-04" rms="4.5335581898689270e-01" purity="4.0190988779067993e-01" nType="-99"/>
          <Node pos="r" depth="2" NCoef="0" IVar="-1" Cut="0.0000000000000000e+00" cType="1" res="-4.9721086397767067e-03" rms="4.8659771680831909e-01" purity="3.8720256090164185e-01" nType="-99"/>
        </Node>
      </Node>
    </BinaryTree>
    <BinaryTree type="DecisionTree" boostWeight="1.0000000000000000e+00" itree="617">
      <Node pos="s" depth="0" NCoef="0" IVar="4" Cut="1.8780584214255214e-03" cType="1" res="2.0796335302293301e-03" rms="4.6135371923446655e-01" purity="5.0399494171142578e-01" nType="0">
        <Node pos="l" depth="1" NCoef="0" IVar="1" Cut="2.2214231491088867e+00" cType="1" res="1.3999859802424908e-02" rms="4.5942017436027527e-01" purity="5.5802327394485474e-01" nType="0">
          <Node pos="l" depth="2" NCoef="0" IVar="-1" Cut="0.0000000000000000e+00" cType="1" res="4.7461845679208636e-04" rms="4.5795416831970215e-01" purity="5.7136106491088867e-01" nType="-99"/>
          <Node pos="r" depth="2" NCoef="0" IVar="-1" Cut="0.0000000000000000e+00" cType="1" res="4.8852236941456795e-03" rms="4.6739411354064941e-01" purity="4.4665330648422241e-01" nType="-99"/>
        </Node>
        <Node pos="r" depth="1" NCoef="0" IVar="1" Cut="1.1374673843383789e+00" cType="1" res="-2.2099258378148079e-02" rms="4.6431204676628113e-01" purity="3.9440438151359558e-01" nType="0">
          <Node pos="l" depth="2" NCoef="0" IVar="-1" Cut="0.0000000000000000e+00" cType="1" res="-2.5846180506050587e-03" rms="4.7074192762374878e-01" purity="4.2131343483924866e-01" nType="-99"/>
          <Node pos="r" depth="2" NCoef="0" IVar="-1" Cut="0.0000000000000000e+00" cType="1" res="6.7782989935949445e-04" rms="4.5250877737998962e-01" purity="3.5409840941429138e-01" nType="-99"/>
        </Node>
      </Node>
    </BinaryTree>
    <BinaryTree type="DecisionTree" boostWeight="1.0000000000000000e+00" itree="618">
      <Node pos="s" depth="0" NCoef="0" IVar="4" Cut="1.7901731189340353e-03" cType="1" res="-1.2689884752035141e-02" rms="4.6388328075408936e-01" purity="4.8976078629493713e-01" nType="0">
        <Node pos="l" depth="1" NCoef="0" IVar="4" Cut="2.9301909307832830e-05" cType="1" res="-3.2588819158263505e-04" rms="4.6318092942237854e-01" purity="5.4598307609558105e-01" nType="0">
          <Node pos="l" depth="2" NCoef="0" IVar="-1" Cut="0.0000000000000000e+00" cType="1" res="5.6221708655357361e-03" rms="3.9124596118927002e-01" purity="7.6736885309219360e-01" nType="-99"/>
          <Node pos="r" depth="2" NCoef="0" IVar="-1" Cut="0.0000000000000000e+00" cType="1" res="-3.9197006844915450e-04" rms="4.6833553910255432e-01" purity="5.2719432115554810e-01" nType="-99"/>
        </Node>
        <Node pos="r" depth="1" NCoef="0" IVar="3" Cut="1.8290764093399048e+00" cType="1" res="-3.5259086638689041e-02" rms="4.6431437134742737e-01" purity="3.8713279366493225e-01" nType="0">
          <Node pos="l" depth="2" NCoef="0" IVar="-1" Cut="0.0000000000000000e+00" cType="1" res="-2.9857680201530457e-03" rms="4.6655565500259399e-01" purity="3.9282140135765076e-01" nType="-99"/>
          <Node pos="r" depth="2" NCoef="0" IVar="-1" Cut="0.0000000000000000e+00" cType="1" res="2.7620343025773764e-03" rms="4.4559738039970398e-01" purity="3.6019012331962585e-01" nType="-99"/>
        </Node>
      </Node>
    </BinaryTree>
    <BinaryTree type="DecisionTree" boostWeight="1.0000000000000000e+00" itree="619">
      <Node pos="s" depth="0" NCoef="0" IVar="0" Cut="1.9333972036838531e-01" cType="1" res="-1.1147994548082352e-02" rms="4.6632337570190430e-01" purity="4.9005618691444397e-01" nType="0">
        <Node pos="l" depth="1" NCoef="0" IVar="3" Cut="6.0712856054306030e-01" cType="1" res="-1.6643878072500229e-02" rms="4.6672719717025757e-01" purity="4.7399187088012695e-01" nType="0">
          <Node pos="l" depth="2" NCoef="0" IVar="-1" Cut="0.0000000000000000e+00" cType="1" res="-4.3004187755286694e-03" rms="4.7256371378898621e-01" purity="4.1726651787757874e-01" nType="-99"/>
          <Node pos="r" depth="2" NCoef="0" IVar="-1" Cut="0.0000000000000000e+00" cType="1" res="-7.6622923370450735e-04" rms="4.6594589948654175e-01" purity="4.7872245311737061e-01" nType="-99"/>
        </Node>
        <Node pos="r" depth="1" NCoef="0" IVar="-1" Cut="0.0000000000000000e+00" cType="1" res="3.0450548510998487e-03" rms="4.5869335532188416e-01" purity="6.5018028020858765e-01" nType="-99"/>
      </Node>
    </BinaryTree>
    <BinaryTree type="DecisionTree" boostWeight="1.0000000000000000e+00" itree="620">
      <Node pos="s" depth="0" NCoef="0" IVar="1" Cut="3.1496834754943848e-01" cType="1" res="7.6160994358360767e-03" rms="4.6240288019180298e-01" purity="5.0363081693649292e-01" nType="0">
        <Node pos="l" depth="1" NCoef="0" IVar="6" Cut="3.7501561641693115e+00" cType="1" res="-4.8618208616971970e-02" rms="4.5133990049362183e-01" purity="5.2114814519882202e-01" nType="0">
          <Node pos="l" depth="2" NCoef="0" IVar="-1" Cut="0.0000000000000000e+00" cType="1" res="-5.0427210517227650e-03" rms="4.6117752790451050e-01" purity="3.6552485823631287e-01" nType="-99"/>
          <Node pos="r" depth="2" NCoef="0" IVar="-1" Cut="0.0000000000000000e+00" cType="1" res="3.9629673119634390e-04" rms="4.3280535936355591e-01" purity="7.1565222740173340e-01" nType="-99"/>
        </Node>
        <Node pos="r" depth="1" NCoef="0" IVar="1" Cut="6.0977494716644287e-01" cType="1" res="1.4809271320700645e-02" rms="4.6330684423446655e-01" purity="5.0139015913009644e-01" nType="0">
          <Node pos="l" depth="2" NCoef="0" IVar="-1" Cut="0.0000000000000000e+00" cType="1" res="3.0848882161080837e-03" rms="4.6708944439888000e-01" purity="6.2259042263031006e-01" nType="-99"/>
          <Node pos="r" depth="2" NCoef="0" IVar="-1" Cut="0.0000000000000000e+00" cType="1" res="4.6557837049476802e-04" rms="4.6207490563392639e-01" purity="4.7196102142333984e-01" nType="-99"/>
        </Node>
      </Node>
    </BinaryTree>
    <BinaryTree type="DecisionTree" boostWeight="1.0000000000000000e+00" itree="621">
      <Node pos="s" depth="0" NCoef="0" IVar="6" Cut="3.8526000976562500e+00" cType="1" res="-5.8972234837710857e-03" rms="4.6822053194046021e-01" purity="4.9694603681564331e-01" nType="0">
        <Node pos="l" depth="1" NCoef="0" IVar="1" Cut="8.2527297735214233e-01" cType="1" res="9.0669710189104080e-03" rms="4.6925485134124756e-01" purity="4.0380963683128357e-01" nType="0">
          <Node pos="l" depth="2" NCoef="0" IVar="-1" Cut="0.0000000000000000e+00" cType="1" res="-1.3423843774944544e-03" rms="4.7068771719932556e-01" purity="4.3459323048591614e-01" nType="-99"/>
          <Node pos="r" depth="2" NCoef="0" IVar="-1" Cut="0.0000000000000000e+00" cType="1" res="1.9154248293489218e-03" rms="4.6711710095405579e-01" purity="3.8350611925125122e-01" nType="-99"/>
        </Node>
        <Node pos="r" depth="1" NCoef="0" IVar="5" Cut="9.0919061279296875e+02" cType="1" res="-2.4365495890378952e-02" rms="4.6627920866012573e-01" purity="6.1189156770706177e-01" nType="0">
          <Node pos="l" depth="2" NCoef="0" IVar="-1" Cut="0.0000000000000000e+00" cType="1" res="-5.4152886150404811e-04" rms="4.6725305914878845e-01" purity="6.1681985855102539e-01" nType="-99"/>
          <Node pos="r" depth="2" NCoef="0" IVar="-1" Cut="0.0000000000000000e+00" cType="1" res="-4.5607034116983414e-03" rms="4.6089401841163635e-01" purity="5.9881436824798584e-01" nType="-99"/>
        </Node>
      </Node>
    </BinaryTree>
    <BinaryTree type="DecisionTree" boostWeight="1.0000000000000000e+00" itree="622">
      <Node pos="s" depth="0" NCoef="0" IVar="0" Cut="2.0108115673065186e-01" cType="1" res="4.4385641813278198e-03" rms="4.6132209897041321e-01" purity="5.0445783138275146e-01" nType="0">
        <Node pos="l" depth="1" NCoef="0" IVar="6" Cut="4.7519850730895996e+00" cType="1" res="-2.6958449743688107e-03" rms="4.6272936463356018e-01" purity="4.8720166087150574e-01" nType="0">
          <Node pos="l" depth="2" NCoef="0" IVar="-1" Cut="0.0000000000000000e+00" cType="1" res="-8.4777543088421226e-04" rms="4.7082722187042236e-01" purity="4.2342510819435120e-01" nType="-99"/>
          <Node pos="r" depth="2" NCoef="0" IVar="-1" Cut="0.0000000000000000e+00" cType="1" res="2.9306674841791391e-03" rms="4.2887920141220093e-01" purity="7.2342944145202637e-01" nType="-99"/>
        </Node>
        <Node pos="r" depth="1" NCoef="0" IVar="-1" Cut="0.0000000000000000e+00" cType="1" res="6.0995696112513542e-03" rms="4.3720126152038574e-01" purity="6.9878953695297241e-01" nType="-99"/>
      </Node>
    </BinaryTree>
    <BinaryTree type="DecisionTree" boostWeight="1.0000000000000000e+00" itree="623">
      <Node pos="s" depth="0" NCoef="0" IVar="0" Cut="5.4667893797159195e-02" cType="1" res="-7.2708865627646446e-03" rms="4.6224305033683777e-01" purity="4.9343219399452209e-01" nType="0">
        <Node pos="l" depth="1" NCoef="0" IVar="6" Cut="4.4333114624023438e+00" cType="1" res="-3.9702720940113068e-02" rms="4.5537558197975159e-01" purity="3.9571872353553772e-01" nType="0">
          <Node pos="l" depth="2" NCoef="0" IVar="-1" Cut="0.0000000000000000e+00" cType="1" res="-3.4149223938584328e-03" rms="4.4683939218521118e-01" purity="3.1908017396926880e-01" nType="-99"/>
          <Node pos="r" depth="2" NCoef="0" IVar="-1" Cut="0.0000000000000000e+00" cType="1" res="5.3559418302029371e-04" rms="4.7436287999153137e-01" purity="6.0285609960556030e-01" nType="-99"/>
        </Node>
        <Node pos="r" depth="1" NCoef="0" IVar="4" Cut="2.8288578614592552e-03" cType="1" res="7.9839369282126427e-03" rms="4.6465608477592468e-01" purity="5.3939324617385864e-01" nType="0">
          <Node pos="l" depth="2" NCoef="0" IVar="-1" Cut="0.0000000000000000e+00" cType="1" res="-9.2244219558779150e-05" rms="4.6304857730865479e-01" purity="5.4933738708496094e-01" nType="-99"/>
          <Node pos="r" depth="2" NCoef="0" IVar="-1" Cut="0.0000000000000000e+00" cType="1" res="3.6331668961793184e-03" rms="4.7008571028709412e-01" purity="4.8434749245643616e-01" nType="-99"/>
        </Node>
      </Node>
    </BinaryTree>
    <BinaryTree type="DecisionTree" boostWeight="1.0000000000000000e+00" itree="624">
      <Node pos="s" depth="0" NCoef="0" IVar="4" Cut="4.8495637020096183e-04" cType="1" res="-6.3994136871770024e-04" rms="4.6712994575500488e-01" purity="4.9664026498794556e-01" nType="0">
        <Node pos="l" depth="1" NCoef="0" IVar="3" Cut="1.8124344348907471e+00" cType="1" res="-2.7751391753554344e-02" rms="4.5629268884658813e-01" purity="5.7679706811904907e-01" nType="0">
          <Node pos="l" depth="2" NCoef="0" IVar="-1" Cut="0.0000000000000000e+00" cType="1" res="-9.4447290757670999e-04" rms="4.5389270782470703e-01" purity="6.2014496326446533e-01" nType="-99"/>
          <Node pos="r" depth="2" NCoef="0" IVar="-1" Cut="0.0000000000000000e+00" cType="1" res="-5.5521777831017971e-03" rms="4.6109941601753235e-01" purity="3.9321660995483398e-01" nType="-99"/>
        </Node>
        <Node pos="r" depth="1" NCoef="0" IVar="4" Cut="9.2293135821819305e-04" cType="1" res="1.1158427223563194e-02" rms="4.7128155827522278e-01" purity="4.6175763010978699e-01" nType="0">
          <Node pos="l" depth="2" NCoef="0" IVar="-1" Cut="0.0000000000000000e+00" cType="1" res="3.3253079745918512e-03" rms="4.7342306375503540e-01" purity="5.6002187728881836e-01" nType="-99"/>
          <Node pos="r" depth="2" NCoef="0" IVar="-1" Cut="0.0000000000000000e+00" cType="1" res="1.4186755288392305e-04" rms="4.7034716606140137e-01" purity="4.3964335322380066e-01" nType="-99"/>
        </Node>
      </Node>
    </BinaryTree>
    <BinaryTree type="DecisionTree" boostWeight="1.0000000000000000e+00" itree="625">
      <Node pos="s" depth="0" NCoef="0" IVar="5" Cut="1.3222480468750000e+03" cType="1" res="9.2005627229809761e-03" rms="4.6504256129264832e-01" purity="5.1136785745620728e-01" nType="0">
        <Node pos="l" depth="1" NCoef="0" IVar="0" Cut="1.5779997408390045e-01" cType="1" res="1.3857354409992695e-02" rms="4.6405842900276184e-01" purity="5.1135522127151489e-01" nType="0">
          <Node pos="l" depth="2" NCoef="0" IVar="-1" Cut="0.0000000000000000e+00" cType="1" res="1.3851558323949575e-03" rms="4.6390378475189209e-01" purity="5.0023370981216431e-01" nType="-99"/>
          <Node pos="r" depth="2" NCoef="0" IVar="-1" Cut="0.0000000000000000e+00" cType="1" res="-1.4416611520573497e-03" rms="4.6313235163688660e-01" purity="5.6254827976226807e-01" nType="-99"/>
        </Node>
        <Node pos="r" depth="1" NCoef="0" IVar="-1" Cut="0.0000000000000000e+00" cType="1" res="-4.1457926854491234e-03" rms="4.7434267401695251e-01" purity="5.1157087087631226e-01" nType="-99"/>
      </Node>
    </BinaryTree>
    <BinaryTree type="DecisionTree" boostWeight="1.0000000000000000e+00" itree="626">
      <Node pos="s" depth="0" NCoef="0" IVar="2" Cut="5.3464049100875854e-01" cType="1" res="-7.6232966966927052e-04" rms="4.6852585673332214e-01" purity="5.0250029563903809e-01" nType="0">
        <Node pos="l" depth="1" NCoef="0" IVar="4" Cut="1.2035563122481108e-03" cType="1" res="2.3893829435110092e-02" rms="4.6335485577583313e-01" purity="4.4675505161285400e-01" nType="0">
          <Node pos="l" depth="2" NCoef="0" IVar="-1" Cut="0.0000000000000000e+00" cType="1" res="7.3708564741536975e-05" rms="4.6160513162612915e-01" purity="4.7646692395210266e-01" nType="-99"/>
          <Node pos="r" depth="2" NCoef="0" IVar="-1" Cut="0.0000000000000000e+00" cType="1" res="3.0247424729168415e-03" rms="4.6398806571960449e-01" purity="4.1372439265251160e-01" nType="-99"/>
        </Node>
        <Node pos="r" depth="1" NCoef="0" IVar="5" Cut="7.5978131103515625e+02" cType="1" res="-1.3289086520671844e-02" rms="4.7063669562339783e-01" purity="5.3082209825515747e-01" nType="0">
          <Node pos="l" depth="2" NCoef="0" IVar="-1" Cut="0.0000000000000000e+00" cType="1" res="2.2025498037692159e-04" rms="4.7196874022483826e-01" purity="5.2103430032730103e-01" nType="-99"/>
          <Node pos="r" depth="2" NCoef="0" IVar="-1" Cut="0.0000000000000000e+00" cType="1" res="-2.4052457883954048e-03" rms="4.6759486198425293e-01" purity="5.4521083831787109e-01" nType="-99"/>
        </Node>
      </Node>
    </BinaryTree>
    <BinaryTree type="DecisionTree" boostWeight="1.0000000000000000e+00" itree="627">
      <Node pos="s" depth="0" NCoef="0" IVar="5" Cut="1.2476132812500000e+03" cType="1" res="-8.3283800631761551e-03" rms="4.6556100249290466e-01" purity="4.9224326014518738e-01" nType="0">
        <Node pos="l" depth="1" NCoef="0" IVar="5" Cut="4.7342050170898438e+02" cType="1" res="-1.2277432717382908e-02" rms="4.6539527177810669e-01" purity="4.8381957411766052e-01" nType="0">
          <Node pos="l" depth="2" NCoef="0" IVar="-1" Cut="0.0000000000000000e+00" cType="1" res="2.0287360530346632e-03" rms="4.5303273200988770e-01" purity="3.9649626612663269e-01" nType="-99"/>
          <Node pos="r" depth="2" NCoef="0" IVar="-1" Cut="0.0000000000000000e+00" cType="1" res="-1.0988821741193533e-03" rms="4.6653315424919128e-01" purity="4.9384534358978271e-01" nType="-99"/>
        </Node>
        <Node pos="r" depth="1" NCoef="0" IVar="-1" Cut="0.0000000000000000e+00" cType="1" res="2.8508268296718597e-03" rms="4.6452745795249939e-01" purity="6.0569810867309570e-01" nType="-99"/>
      </Node>
    </BinaryTree>
    <BinaryTree type="DecisionTree" boostWeight="1.0000000000000000e+00" itree="628">
      <Node pos="s" depth="0" NCoef="0" IVar="6" Cut="4.1455225944519043e+00" cType="1" res="-2.4978287983685732e-03" rms="4.6428960561752319e-01" purity="4.9979013204574585e-01" nType="0">
        <Node pos="l" depth="1" NCoef="0" IVar="2" Cut="8.0069351196289062e-01" cType="1" res="-1.3909775763750076e-02" rms="4.7143036127090454e-01" purity="4.0490943193435669e-01" nType="0">
          <Node pos="l" depth="2" NCoef="0" IVar="-1" Cut="0.0000000000000000e+00" cType="1" res="-1.1944120051339269e-03" rms="4.7056907415390015e-01" purity="3.8154593110084534e-01" nType="-99"/>
          <Node pos="r" depth="2" NCoef="0" IVar="-1" Cut="0.0000000000000000e+00" cType="1" res="2.3301623295992613e-03" rms="4.7557833790779114e-01" purity="6.0163748264312744e-01" nType="-99"/>
        </Node>
        <Node pos="r" depth="1" NCoef="0" IVar="6" Cut="5.6413440704345703e+00" cType="1" res="1.8467541784048080e-02" rms="4.5012301206588745e-01" purity="6.7409944534301758e-01" nType="0">
          <Node pos="l" depth="2" NCoef="0" IVar="-1" Cut="0.0000000000000000e+00" cType="1" res="2.3670073132961988e-03" rms="4.5433208346366882e-01" purity="6.6467404365539551e-01" nType="-99"/>
          <Node pos="r" depth="2" NCoef="0" IVar="-1" Cut="0.0000000000000000e+00" cType="1" res="-3.3233815338462591e-03" rms="4.2990258336067200e-01" purity="7.0739978551864624e-01" nType="-99"/>
        </Node>
      </Node>
    </BinaryTree>
    <BinaryTree type="DecisionTree" boostWeight="1.0000000000000000e+00" itree="629">
      <Node pos="s" depth="0" NCoef="0" IVar="0" Cut="1.5368847548961639e-01" cType="1" res="-7.3793204501271248e-03" rms="4.6515813469886780e-01" purity="4.9794483184814453e-01" nType="0">
        <Node pos="l" depth="1" NCoef="0" IVar="0" Cut="1.0618408769369125e-01" cType="1" res="-1.4030891470611095e-02" rms="4.6789932250976562e-01" purity="4.6944457292556763e-01" nType="0">
          <Node pos="l" depth="2" NCoef="0" IVar="-1" Cut="0.0000000000000000e+00" cType="1" res="-1.2349223834462464e-04" rms="4.6793687343597412e-01" purity="4.6502292156219482e-01" nType="-99"/>
          <Node pos="r" depth="2" NCoef="0" IVar="-1" Cut="0.0000000000000000e+00" cType="1" res="-3.5827339161187410e-03" rms="4.6522709727287292e-01" purity="4.8519438505172729e-01" nType="-99"/>
        </Node>
        <Node pos="r" depth="1" NCoef="0" IVar="0" Cut="1.7678225040435791e-01" cType="1" res="2.3089258000254631e-02" rms="4.5113769173622131e-01" purity="6.2849479913711548e-01" nType="0">
          <Node pos="l" depth="2" NCoef="0" IVar="-1" Cut="0.0000000000000000e+00" cType="1" res="4.9720150418579578e-03" rms="4.4193506240844727e-01" purity="6.5995597839355469e-01" nType="-99"/>
          <Node pos="r" depth="2" NCoef="0" IVar="-1" Cut="0.0000000000000000e+00" cType="1" res="1.3815006241202354e-04" rms="4.5365497469902039e-01" purity="6.1429506540298462e-01" nType="-99"/>
        </Node>
      </Node>
    </BinaryTree>
    <BinaryTree type="DecisionTree" boostWeight="1.0000000000000000e+00" itree="630">
      <Node pos="s" depth="0" NCoef="0" IVar="0" Cut="3.8283552974462509e-02" cType="1" res="-9.5857959240674973e-03" rms="4.6306484937667847e-01" purity="4.8774498701095581e-01" nType="0">
        <Node pos="l" depth="1" NCoef="0" IVar="6" Cut="3.7182130813598633e+00" cType="1" res="-4.2849324643611908e-02" rms="4.6201184391975403e-01" purity="3.8944852352142334e-01" nType="0">
          <Node pos="l" depth="2" NCoef="0" IVar="-1" Cut="0.0000000000000000e+00" cType="1" res="-1.4374080346897244e-03" rms="4.3872317671775818e-01" purity="2.9722496867179871e-01" nType="-99"/>
          <Node pos="r" depth="2" NCoef="0" IVar="-1" Cut="0.0000000000000000e+00" cType="1" res="-3.6610935349017382e-03" rms="4.8373839259147644e-01" purity="4.8336189985275269e-01" nType="-99"/>
        </Node>
        <Node pos="r" depth="1" NCoef="0" IVar="6" Cut="4.4613876342773438e+00" cType="1" res="-7.6080841245129704e-04" rms="4.6294283866882324e-01" purity="5.1382350921630859e-01" nType="0">
          <Node pos="l" depth="2" NCoef="0" IVar="-1" Cut="0.0000000000000000e+00" cType="1" res="-7.0900004357099533e-04" rms="4.7351628541946411e-01" purity="4.3450936675071716e-01" nType="-99"/>
          <Node pos="r" depth="2" NCoef="0" IVar="-1" Cut="0.0000000000000000e+00" cType="1" res="2.0986443851143122e-03" rms="4.3325471878051758e-01" purity="7.1814918518066406e-01" nType="-99"/>
        </Node>
      </Node>
    </BinaryTree>
    <BinaryTree type="DecisionTree" boostWeight="1.0000000000000000e+00" itree="631">
      <Node pos="s" depth="0" NCoef="0" IVar="5" Cut="8.0907183837890625e+02" cType="1" res="-3.6687382962554693e-03" rms="4.6123385429382324e-01" purity="4.9241158366203308e-01" nType="0">
        <Node pos="l" depth="1" NCoef="0" IVar="1" Cut="1.5573903322219849e+00" cType="1" res="-1.3995382934808731e-02" rms="4.5858129858970642e-01" purity="4.5508527755737305e-01" nType="0">
          <Node pos="l" depth="2" NCoef="0" IVar="-1" Cut="0.0000000000000000e+00" cType="1" res="-1.9724052981473505e-04" rms="4.6374964714050293e-01" purity="5.1034289598464966e-01" nType="-99"/>
          <Node pos="r" depth="2" NCoef="0" IVar="-1" Cut="0.0000000000000000e+00" cType="1" res="-2.3978040553629398e-03" rms="4.4562432169914246e-01" purity="3.2952299714088440e-01" nType="-99"/>
        </Node>
        <Node pos="r" depth="1" NCoef="0" IVar="3" Cut="1.1213971376419067e+00" cType="1" res="1.7050364986062050e-02" rms="4.6582049131393433e-01" purity="5.6730210781097412e-01" nType="0">
          <Node pos="l" depth="2" NCoef="0" IVar="-1" Cut="0.0000000000000000e+00" cType="1" res="2.9094067867845297e-03" rms="4.5854726433753967e-01" purity="6.2437349557876587e-01" nType="-99"/>
          <Node pos="r" depth="2" NCoef="0" IVar="-1" Cut="0.0000000000000000e+00" cType="1" res="-3.2832115539349616e-04" rms="4.7075009346008301e-01" purity="5.1900637149810791e-01" nType="-99"/>
        </Node>
      </Node>
    </BinaryTree>
    <BinaryTree type="DecisionTree" boostWeight="1.0000000000000000e+00" itree="632">
      <Node pos="s" depth="0" NCoef="0" IVar="2" Cut="5.0565141439437866e-01" cType="1" res="-4.1283019818365574e-03" rms="4.6792289614677429e-01" purity="4.9702769517898560e-01" nType="0">
        <Node pos="l" depth="1" NCoef="0" IVar="0" Cut="6.1106380075216293e-02" cType="1" res="2.0325845107436180e-02" rms="4.7296160459518433e-01" purity="4.3508940935134888e-01" nType="0">
          <Node pos="l" depth="2" NCoef="0" IVar="-1" Cut="0.0000000000000000e+00" cType="1" res="-3.3728087146300822e-05" rms="4.7587010264396667e-01" purity="4.0061721205711365e-01" nType="-99"/>
          <Node pos="r" depth="2" NCoef="0" IVar="-1" Cut="0.0000000000000000e+00" cType="1" res="4.3658115901052952e-03" rms="4.6280345320701599e-01" purity="5.1339370012283325e-01" nType="-99"/>
        </Node>
        <Node pos="r" depth="1" NCoef="0" IVar="3" Cut="1.2261594533920288e+00" cType="1" res="-1.2545846402645111e-02" rms="4.6587899327278137e-01" purity="5.1834797859191895e-01" nType="0">
          <Node pos="l" depth="2" NCoef="0" IVar="-1" Cut="0.0000000000000000e+00" cType="1" res="4.3708717566914856e-04" rms="4.6480390429496765e-01" purity="5.6596183776855469e-01" nType="-99"/>
          <Node pos="r" depth="2" NCoef="0" IVar="-1" Cut="0.0000000000000000e+00" cType="1" res="-1.8508752109482884e-03" rms="4.6616792678833008e-01" purity="4.7668498754501343e-01" nType="-99"/>
        </Node>
      </Node>
    </BinaryTree>
    <BinaryTree type="DecisionTree" boostWeight="1.0000000000000000e+00" itree="633">
      <Node pos="s" depth="0" NCoef="0" IVar="1" Cut="8.3116775751113892e-01" cType="1" res="-7.5091978942509741e-05" rms="4.6787348389625549e-01" purity="5.0176471471786499e-01" nType="0">
        <Node pos="l" depth="1" NCoef="0" IVar="6" Cut="2.9801037311553955e+00" cType="1" res="-1.6935281455516815e-02" rms="4.7106269001960754e-01" purity="5.5493128299713135e-01" nType="0">
          <Node pos="l" depth="2" NCoef="0" IVar="-1" Cut="0.0000000000000000e+00" cType="1" res="1.3764790492132306e-03" rms="4.7895994782447815e-01" purity="4.2112961411476135e-01" nType="-99"/>
          <Node pos="r" depth="2" NCoef="0" IVar="-1" Cut="0.0000000000000000e+00" cType="1" res="-2.3111482150852680e-03" rms="4.6663165092468262e-01" purity="6.1204791069030762e-01" nType="-99"/>
        </Node>
        <Node pos="r" depth="1" NCoef="0" IVar="1" Cut="2.7155168056488037e+00" cType="1" res="1.2266468256711960e-02" rms="4.6513792872428894e-01" purity="4.6284711360931396e-01" nType="0">
          <Node pos="l" depth="2" NCoef="0" IVar="-1" Cut="0.0000000000000000e+00" cType="1" res="1.2159075122326612e-03" rms="4.7055417299270630e-01" purity="4.8511767387390137e-01" nType="-99"/>
          <Node pos="r" depth="2" NCoef="0" IVar="-1" Cut="0.0000000000000000e+00" cType="1" res="-3.0083600431680679e-03" rms="4.1026642918586731e-01" purity="2.6859495043754578e-01" nType="-99"/>
        </Node>
      </Node>
    </BinaryTree>
    <BinaryTree type="DecisionTree" boostWeight="1.0000000000000000e+00" itree="634">
      <Node pos="s" depth="0" NCoef="0" IVar="3" Cut="9.9097055196762085e-01" cType="1" res="1.1197426356375217e-03" rms="4.6973219513893127e-01" purity="5.0454932451248169e-01" nType="0">
        <Node pos="l" depth="1" NCoef="0" IVar="2" Cut="5.9043282270431519e-01" cType="1" res="3.3298555761575699e-02" rms="4.6836084127426147e-01" purity="5.7531559467315674e-01" nType="0">
          <Node pos="l" depth="2" NCoef="0" IVar="-1" Cut="0.0000000000000000e+00" cType="1" res="4.7874776646494865e-03" rms="4.7330757975578308e-01" purity="5.5628603696823120e-01" nType="-99"/>
          <Node pos="r" depth="2" NCoef="0" IVar="-1" Cut="0.0000000000000000e+00" cType="1" res="2.7587806107476354e-04" rms="4.6267119050025940e-01" purity="5.8846127986907959e-01" nType="-99"/>
        </Node>
        <Node pos="r" depth="1" NCoef="0" IVar="6" Cut="3.8577702045440674e+00" cType="1" res="-1.2620946392416954e-02" rms="4.6964529156684875e-01" purity="4.7433140873908997e-01" nType="0">
          <Node pos="l" depth="2" NCoef="0" IVar="-1" Cut="0.0000000000000000e+00" cType="1" res="6.9666974013671279e-04" rms="4.6677875518798828e-01" purity="3.9159840345382690e-01" nType="-99"/>
          <Node pos="r" depth="2" NCoef="0" IVar="-1" Cut="0.0000000000000000e+00" cType="1" res="-2.7809110470116138e-03" rms="4.7151535749435425e-01" purity="5.7835781574249268e-01" nType="-99"/>
        </Node>
      </Node>
    </BinaryTree>
    <BinaryTree type="DecisionTree" boostWeight="1.0000000000000000e+00" itree="635">
      <Node pos="s" depth="0" NCoef="0" IVar="5" Cut="1.1673239746093750e+03" cType="1" res="-3.1986343674361706e-03" rms="4.6338209509849548e-01" purity="4.9691203236579895e-01" nType="0">
        <Node pos="l" depth="1" NCoef="0" IVar="0" Cut="1.5931989252567291e-01" cType="1" res="3.4975069575011730e-03" rms="4.6084541082382202e-01" purity="4.9561229348182678e-01" nType="0">
          <Node pos="l" depth="2" NCoef="0" IVar="-1" Cut="0.0000000000000000e+00" cType="1" res="-2.3788261751178652e-04" rms="4.6320080757141113e-01" purity="4.6662351489067078e-01" nType="-99"/>
          <Node pos="r" depth="2" NCoef="0" IVar="-1" Cut="0.0000000000000000e+00" cType="1" res="2.7093978133052588e-03" rms="4.4770646095275879e-01" purity="6.3490545749664307e-01" nType="-99"/>
        </Node>
        <Node pos="r" depth="1" NCoef="0" IVar="-1" Cut="0.0000000000000000e+00" cType="1" res="-3.7183735985308886e-03" rms="4.8134624958038330e-01" purity="5.0852823257446289e-01" nType="-99"/>
      </Node>
    </BinaryTree>
    <BinaryTree type="DecisionTree" boostWeight="1.0000000000000000e+00" itree="636">
      <Node pos="s" depth="0" NCoef="0" IVar="3" Cut="2.0785129070281982e+00" cType="1" res="-6.9231977686285973e-03" rms="4.6364891529083252e-01" purity="4.9496337771415710e-01" nType="0">
        <Node pos="l" depth="1" NCoef="0" IVar="3" Cut="8.9860975742340088e-01" cType="1" res="1.5741095412522554e-03" rms="4.6689119935035706e-01" purity="5.2372336387634277e-01" nType="0">
          <Node pos="l" depth="2" NCoef="0" IVar="-1" Cut="0.0000000000000000e+00" cType="1" res="-1.3010432012379169e-03" rms="4.7036892175674438e-01" purity="5.1575583219528198e-01" nType="-99"/>
          <Node pos="r" depth="2" NCoef="0" IVar="-1" Cut="0.0000000000000000e+00" cType="1" res="6.6051038447767496e-04" rms="4.6524250507354736e-01" purity="5.2683293819427490e-01" nType="-99"/>
        </Node>
        <Node pos="r" depth="1" NCoef="0" IVar="-1" Cut="0.0000000000000000e+00" cType="1" res="-4.7379313036799431e-03" rms="4.2959403991699219e-01" purity="2.5757211446762085e-01" nType="-99"/>
      </Node>
    </BinaryTree>
    <BinaryTree type="DecisionTree" boostWeight="1.0000000000000000e+00" itree="637">
      <Node pos="s" depth="0" NCoef="0" IVar="0" Cut="3.5094629973173141e-02" cType="1" res="-3.2816233579069376e-03" rms="4.6164849400520325e-01" purity="4.9530407786369324e-01" nType="0">
        <Node pos="l" depth="1" NCoef="0" IVar="6" Cut="2.8625082969665527e+00" cType="1" res="3.7319298833608627e-02" rms="4.6648684144020081e-01" purity="4.5209357142448425e-01" nType="0">
          <Node pos="l" depth="2" NCoef="0" IVar="-1" Cut="0.0000000000000000e+00" cType="1" res="6.1229644343256950e-03" rms="4.5841488242149353e-01" purity="3.5607147216796875e-01" nType="-99"/>
          <Node pos="r" depth="2" NCoef="0" IVar="-1" Cut="0.0000000000000000e+00" cType="1" res="9.5781637355685234e-04" rms="4.6864575147628784e-01" purity="4.9675250053405762e-01" nType="-99"/>
        </Node>
        <Node pos="r" depth="1" NCoef="0" IVar="0" Cut="4.7652605921030045e-02" cType="1" res="-1.1576832272112370e-02" rms="4.6021327376365662e-01" purity="5.0413250923156738e-01" nType="0">
          <Node pos="l" depth="2" NCoef="0" IVar="-1" Cut="0.0000000000000000e+00" cType="1" res="-3.8233262021094561e-03" rms="4.5807960629463196e-01" purity="3.8281905651092529e-01" nType="-99"/>
          <Node pos="r" depth="2" NCoef="0" IVar="-1" Cut="0.0000000000000000e+00" cType="1" res="-2.8307476895861328e-04" rms="4.6003639698028564e-01" purity="5.2076935768127441e-01" nType="-99"/>
        </Node>
      </Node>
    </BinaryTree>
    <BinaryTree type="DecisionTree" boostWeight="1.0000000000000000e+00" itree="638">
      <Node pos="s" depth="0" NCoef="0" IVar="2" Cut="6.3430082798004150e-01" cType="1" res="-4.2530191130936146e-03" rms="4.6575030684471130e-01" purity="4.9806064367294312e-01" nType="0">
        <Node pos="l" depth="1" NCoef="0" IVar="4" Cut="8.1373861758038402e-04" cType="1" res="9.2862751334905624e-03" rms="4.6342355012893677e-01" purity="4.5003917813301086e-01" nType="0">
          <Node pos="l" depth="2" NCoef="0" IVar="-1" Cut="0.0000000000000000e+00" cType="1" res="2.3478649090975523e-03" rms="4.6101513504981995e-01" purity="5.5579626560211182e-01" nType="-99"/>
          <Node pos="r" depth="2" NCoef="0" IVar="-1" Cut="0.0000000000000000e+00" cType="1" res="-4.8017760855145752e-04" rms="4.6416589617729187e-01" purity="3.8171079754829407e-01" nType="-99"/>
        </Node>
        <Node pos="r" depth="1" NCoef="0" IVar="1" Cut="1.6541570425033569e+00" cType="1" res="-2.2089824080467224e-02" rms="4.6820071339607239e-01" purity="5.6132459640502930e-01" nType="0">
          <Node pos="l" depth="2" NCoef="0" IVar="-1" Cut="0.0000000000000000e+00" cType="1" res="-7.6145166531205177e-04" rms="4.6480551362037659e-01" purity="5.8779925107955933e-01" nType="-99"/>
          <Node pos="r" depth="2" NCoef="0" IVar="-1" Cut="0.0000000000000000e+00" cType="1" res="-5.2433353848755360e-03" rms="4.8295074701309204e-01" purity="4.0406212210655212e-01" nType="-99"/>
        </Node>
      </Node>
    </BinaryTree>
    <BinaryTree type="DecisionTree" boostWeight="1.0000000000000000e+00" itree="639">
      <Node pos="s" depth="0" NCoef="0" IVar="6" Cut="5.1478471755981445e+00" cType="1" res="-1.9914861768484116e-03" rms="4.6850550174713135e-01" purity="4.9909248948097229e-01" nType="0">
        <Node pos="l" depth="1" NCoef="0" IVar="3" Cut="5.9147399663925171e-01" cType="1" res="4.5600882731378078e-03" rms="4.7156167030334473e-01" purity="4.6477347612380981e-01" nType="0">
          <Node pos="l" depth="2" NCoef="0" IVar="-1" Cut="0.0000000000000000e+00" cType="1" res="5.4644639603793621e-03" rms="4.7767981886863708e-01" purity="5.4578453302383423e-01" nType="-99"/>
          <Node pos="r" depth="2" NCoef="0" IVar="-1" Cut="0.0000000000000000e+00" cType="1" res="-9.6584502898622304e-05" rms="4.7053202986717224e-01" purity="4.5863902568817139e-01" nType="-99"/>
        </Node>
        <Node pos="r" depth="1" NCoef="0" IVar="2" Cut="5.8924412727355957e-01" cType="1" res="-3.7389021366834641e-02" rms="4.4998881220817566e-01" purity="6.8451476097106934e-01" nType="0">
          <Node pos="l" depth="2" NCoef="0" IVar="-1" Cut="0.0000000000000000e+00" cType="1" res="-2.0990481061744504e-05" rms="4.6296679973602295e-01" purity="6.5061575174331665e-01" nType="-99"/>
          <Node pos="r" depth="2" NCoef="0" IVar="-1" Cut="0.0000000000000000e+00" cType="1" res="-5.6263389997184277e-03" rms="4.3867203593254089e-01" purity="7.0852702856063843e-01" nType="-99"/>
        </Node>
      </Node>
    </BinaryTree>
    <BinaryTree type="DecisionTree" boostWeight="1.0000000000000000e+00" itree="640">
      <Node pos="s" depth="0" NCoef="0" IVar="2" Cut="4.9436920881271362e-01" cType="1" res="9.2625245451927185e-03" rms="4.6634560823440552e-01" purity="5.0885558128356934e-01" nType="0">
        <Node pos="l" depth="1" NCoef="0" IVar="6" Cut="2.6686153411865234e+00" cType="1" res="3.3577773720026016e-02" rms="4.6802759170532227e-01" purity="4.3833532929420471e-01" nType="0">
          <Node pos="l" depth="2" NCoef="0" IVar="-1" Cut="0.0000000000000000e+00" cType="1" res="6.8290191702544689e-03" rms="4.5262405276298523e-01" purity="3.4756544232368469e-01" nType="-99"/>
          <Node pos="r" depth="2" NCoef="0" IVar="-1" Cut="0.0000000000000000e+00" cType="1" res="1.0405692737549543e-03" rms="4.7116667032241821e-01" purity="4.6501794457435608e-01" nType="-99"/>
        </Node>
        <Node pos="r" depth="1" NCoef="0" IVar="4" Cut="8.0186917330138385e-05" cType="1" res="1.1670251842588186e-03" rms="4.6550250053405762e-01" purity="5.3233456611633301e-01" nType="0">
          <Node pos="l" depth="2" NCoef="0" IVar="-1" Cut="0.0000000000000000e+00" cType="1" res="4.4051138684153557e-03" rms="4.1047862172126770e-01" purity="7.6368874311447144e-01" nType="-99"/>
          <Node pos="r" depth="2" NCoef="0" IVar="-1" Cut="0.0000000000000000e+00" cType="1" res="-3.1700998079031706e-04" rms="4.7149705886840820e-01" purity="5.0371205806732178e-01" nType="-99"/>
        </Node>
      </Node>
    </BinaryTree>
    <BinaryTree type="DecisionTree" boostWeight="1.0000000000000000e+00" itree="641">
      <Node pos="s" depth="0" NCoef="0" IVar="1" Cut="2.3679876327514648e+00" cType="1" res="-7.0077478885650635e-03" rms="4.6121397614479065e-01" purity="4.9572813510894775e-01" nType="0">
        <Node pos="l" depth="1" NCoef="0" IVar="1" Cut="1.9414656162261963e+00" cType="1" res="-4.1714945109561086e-04" rms="4.6569907665252686e-01" purity="5.2150857448577881e-01" nType="0">
          <Node pos="l" depth="2" NCoef="0" IVar="-1" Cut="0.0000000000000000e+00" cType="1" res="-2.9979681130498648e-04" rms="4.6460285782814026e-01" purity="5.2822250127792358e-01" nType="-99"/>
          <Node pos="r" depth="2" NCoef="0" IVar="-1" Cut="0.0000000000000000e+00" cType="1" res="3.2180477865040302e-03" rms="4.7565329074859619e-01" purity="4.4135969877243042e-01" nType="-99"/>
        </Node>
        <Node pos="r" depth="1" NCoef="0" IVar="-1" Cut="0.0000000000000000e+00" cType="1" res="-4.1778441518545151e-03" rms="4.1466119885444641e-01" purity="2.6655489206314087e-01" nType="-99"/>
      </Node>
    </BinaryTree>
    <BinaryTree type="DecisionTree" boostWeight="1.0000000000000000e+00" itree="642">
      <Node pos="s" depth="0" NCoef="0" IVar="6" Cut="2.7663888931274414e+00" cType="1" res="-1.7607366316951811e-04" rms="4.6794077754020691e-01" purity="5.0263059139251709e-01" nType="0">
        <Node pos="l" depth="1" NCoef="0" IVar="1" Cut="1.5094306468963623e+00" cType="1" res="2.6701407507061958e-02" rms="4.6461841464042664e-01" purity="3.5823166370391846e-01" nType="0">
          <Node pos="l" depth="2" NCoef="0" IVar="-1" Cut="0.0000000000000000e+00" cType="1" res="3.9839441888034344e-04" rms="4.6580216288566589e-01" purity="3.7025624513626099e-01" nType="-99"/>
          <Node pos="r" depth="2" NCoef="0" IVar="-1" Cut="0.0000000000000000e+00" cType="1" res="5.2739339880645275e-03" rms="4.5859882235527039e-01" purity="3.3092269301414490e-01" nType="-99"/>
        </Node>
        <Node pos="r" depth="1" NCoef="0" IVar="5" Cut="6.0561053466796875e+02" cType="1" res="-1.0226625949144363e-02" rms="4.6878141164779663e-01" purity="5.5662715435028076e-01" nType="0">
          <Node pos="l" depth="2" NCoef="0" IVar="-1" Cut="0.0000000000000000e+00" cType="1" res="-1.7861418891698122e-03" rms="4.7087797522544861e-01" purity="4.8295530676841736e-01" nType="-99"/>
          <Node pos="r" depth="2" NCoef="0" IVar="-1" Cut="0.0000000000000000e+00" cType="1" res="-7.1830501838121563e-05" rms="4.6749243140220642e-01" purity="5.9216630458831787e-01" nType="-99"/>
        </Node>
      </Node>
    </BinaryTree>
    <BinaryTree type="DecisionTree" boostWeight="1.0000000000000000e+00" itree="643">
      <Node pos="s" depth="0" NCoef="0" IVar="6" Cut="5.8835167884826660e+00" cType="1" res="5.7776942849159241e-03" rms="4.6410742402076721e-01" purity="5.0793719291687012e-01" nType="0">
        <Node pos="l" depth="1" NCoef="0" IVar="4" Cut="7.2967732558026910e-04" cType="1" res="1.4043553965166211e-03" rms="4.6922424435615540e-01" purity="4.8803576827049255e-01" nType="0">
          <Node pos="l" depth="2" NCoef="0" IVar="-1" Cut="0.0000000000000000e+00" cType="1" res="-1.3452708953991532e-03" rms="4.6784144639968872e-01" purity="5.3767526149749756e-01" nType="-99"/>
          <Node pos="r" depth="2" NCoef="0" IVar="-1" Cut="0.0000000000000000e+00" cType="1" res="8.2256237510591745e-04" rms="4.6955090761184692e-01" purity="4.6076887845993042e-01" nType="-99"/>
        </Node>
        <Node pos="r" depth="1" NCoef="0" IVar="-1" Cut="0.0000000000000000e+00" cType="1" res="7.2498344816267490e-03" rms="3.6347174644470215e-01" purity="8.3250129222869873e-01" nType="-99"/>
      </Node>
    </BinaryTree>
    <BinaryTree type="DecisionTree" boostWeight="1.0000000000000000e+00" itree="644">
      <Node pos="s" depth="0" NCoef="0" IVar="5" Cut="4.8858261108398438e+02" cType="1" res="5.6220334954559803e-04" rms="4.6165490150451660e-01" purity="5.0337874889373779e-01" nType="0">
        <Node pos="l" depth="1" NCoef="0" IVar="0" Cut="1.1511488258838654e-01" cType="1" res="-4.4713705778121948e-02" rms="4.4014069437980652e-01" purity="3.3811798691749573e-01" nType="0">
          <Node pos="l" depth="2" NCoef="0" IVar="-1" Cut="0.0000000000000000e+00" cType="1" res="-4.4353911653161049e-03" rms="4.1892504692077637e-01" purity="2.6220226287841797e-01" nType="-99"/>
          <Node pos="r" depth="2" NCoef="0" IVar="-1" Cut="0.0000000000000000e+00" cType="1" res="-7.8124791616573930e-04" rms="4.6199339628219604e-01" purity="4.2817631363868713e-01" nType="-99"/>
        </Node>
        <Node pos="r" depth="1" NCoef="0" IVar="5" Cut="6.1395050048828125e+02" cType="1" res="7.0495824329555035e-03" rms="4.6429452300071716e-01" purity="5.2705818414688110e-01" nType="0">
          <Node pos="l" depth="2" NCoef="0" IVar="-1" Cut="0.0000000000000000e+00" cType="1" res="2.2318873088806868e-03" rms="4.6021565794944763e-01" purity="4.9091523885726929e-01" nType="-99"/>
          <Node pos="r" depth="2" NCoef="0" IVar="-1" Cut="0.0000000000000000e+00" cType="1" res="-1.6101023356895894e-04" rms="4.6532467007637024e-01" purity="5.3963583707809448e-01" nType="-99"/>
        </Node>
      </Node>
    </BinaryTree>
    <BinaryTree type="DecisionTree" boostWeight="1.0000000000000000e+00" itree="645">
      <Node pos="s" depth="0" NCoef="0" IVar="1" Cut="9.8274636268615723e-01" cType="1" res="6.3216276466846466e-03" rms="4.6311387419700623e-01" purity="5.0684016942977905e-01" nType="0">
        <Node pos="l" depth="1" NCoef="0" IVar="5" Cut="9.7472155761718750e+02" cType="1" res="2.4453938007354736e-02" rms="4.6015894412994385e-01" purity="5.8272409439086914e-01" nType="0">
          <Node pos="l" depth="2" NCoef="0" IVar="-1" Cut="0.0000000000000000e+00" cType="1" res="9.6310162916779518e-04" rms="4.6252954006195068e-01" purity="5.6065523624420166e-01" nType="-99"/>
          <Node pos="r" depth="2" NCoef="0" IVar="-1" Cut="0.0000000000000000e+00" cType="1" res="4.5006969012320042e-03" rms="4.4759979844093323e-01" purity="6.7627382278442383e-01" nType="-99"/>
        </Node>
        <Node pos="r" depth="1" NCoef="0" IVar="1" Cut="1.0889428853988647e+00" cType="1" res="-1.1372943408787251e-02" rms="4.6529868245124817e-01" purity="4.3278813362121582e-01" nType="0">
          <Node pos="l" depth="2" NCoef="0" IVar="-1" Cut="0.0000000000000000e+00" cType="1" res="-4.1540032252669334e-03" rms="4.8306551575660706e-01" purity="4.6167486906051636e-01" nType="-99"/>
          <Node pos="r" depth="2" NCoef="0" IVar="-1" Cut="0.0000000000000000e+00" cType="1" res="-2.3611691722180694e-04" rms="4.6229115128517151e-01" purity="4.2883419990539551e-01" nType="-99"/>
        </Node>
      </Node>
    </BinaryTree>
    <BinaryTree type="DecisionTree" boostWeight="1.0000000000000000e+00" itree="646">
      <Node pos="s" depth="0" NCoef="0" IVar="3" Cut="1.7925033569335938e+00" cType="1" res="7.5995991937816143e-03" rms="4.6911701560020447e-01" purity="5.0689780712127686e-01" nType="0">
        <Node pos="l" depth="1" NCoef="0" IVar="4" Cut="3.3235347364097834e-03" cType="1" res="-3.2219751738011837e-03" rms="4.6827521920204163e-01" purity="5.2258443832397461e-01" nType="0">
          <Node pos="l" depth="2" NCoef="0" IVar="-1" Cut="0.0000000000000000e+00" cType="1" res="1.4003993419464678e-04" rms="4.6866554021835327e-01" purity="5.3794860839843750e-01" nType="-99"/>
          <Node pos="r" depth="2" NCoef="0" IVar="-1" Cut="0.0000000000000000e+00" cType="1" res="-3.1240901444107294e-03" rms="4.6116107702255249e-01" purity="3.7282052636146545e-01" nType="-99"/>
        </Node>
        <Node pos="r" depth="1" NCoef="0" IVar="4" Cut="1.8879822455346584e-03" cType="1" res="4.8271596431732178e-02" rms="4.7004494071006775e-01" purity="4.4794064760208130e-01" nType="0">
          <Node pos="l" depth="2" NCoef="0" IVar="-1" Cut="0.0000000000000000e+00" cType="1" res="4.5517757534980774e-03" rms="4.7759488224983215e-01" purity="5.1234185695648193e-01" nType="-99"/>
          <Node pos="r" depth="2" NCoef="0" IVar="-1" Cut="0.0000000000000000e+00" cType="1" res="3.5093733458779752e-04" rms="4.5187070965766907e-01" purity="3.2203444838523865e-01" nType="-99"/>
        </Node>
      </Node>
    </BinaryTree>
    <BinaryTree type="DecisionTree" boostWeight="1.0000000000000000e+00" itree="647">
      <Node pos="s" depth="0" NCoef="0" IVar="0" Cut="2.0030330121517181e-01" cType="1" res="2.7756630443036556e-03" rms="4.6458825469017029e-01" purity="5.0330066680908203e-01" nType="0">
        <Node pos="l" depth="1" NCoef="0" IVar="2" Cut="7.4741423130035400e-01" cType="1" res="7.2846286930143833e-03" rms="4.6448150277137756e-01" purity="4.9836996197700500e-01" nType="0">
          <Node pos="l" depth="2" NCoef="0" IVar="-1" Cut="0.0000000000000000e+00" cType="1" res="3.4161719668190926e-05" rms="4.6615633368492126e-01" purity="4.6784701943397522e-01" nType="-99"/>
          <Node pos="r" depth="2" NCoef="0" IVar="-1" Cut="0.0000000000000000e+00" cType="1" res="3.0429691541939974e-03" rms="4.5386171340942383e-01" purity="6.5978175401687622e-01" nType="-99"/>
        </Node>
        <Node pos="r" depth="1" NCoef="0" IVar="-1" Cut="0.0000000000000000e+00" cType="1" res="-3.4580864012241364e-03" rms="4.6248024702072144e-01" purity="5.6214404106140137e-01" nType="-99"/>
      </Node>
    </BinaryTree>
    <BinaryTree type="DecisionTree" boostWeight="1.0000000000000000e+00" itree="648">
      <Node pos="s" depth="0" NCoef="0" IVar="0" Cut="1.5178835391998291e-01" cType="1" res="1.6736692050471902e-03" rms="4.6315848827362061e-01" purity="5.0155448913574219e-01" nType="0">
        <Node pos="l" depth="1" NCoef="0" IVar="0" Cut="6.8157173693180084e-02" cType="1" res="8.9794266968965530e-03" rms="4.6305906772613525e-01" purity="4.9045237898826599e-01" nType="0">
          <Node pos="l" depth="2" NCoef="0" IVar="-1" Cut="0.0000000000000000e+00" cType="1" res="-8.0021709436550736e-04" rms="4.6134251356124878e-01" purity="4.3680042028427124e-01" nType="-99"/>
          <Node pos="r" depth="2" NCoef="0" IVar="-1" Cut="0.0000000000000000e+00" cType="1" res="2.2487721871584654e-03" rms="4.6373021602630615e-01" purity="5.5258637666702271e-01" nType="-99"/>
        </Node>
        <Node pos="r" depth="1" NCoef="0" IVar="3" Cut="1.0049479007720947e+00" cType="1" res="-3.1320277601480484e-02" rms="4.6217098832130432e-01" purity="5.5169349908828735e-01" nType="0">
          <Node pos="l" depth="2" NCoef="0" IVar="-1" Cut="0.0000000000000000e+00" cType="1" res="-4.7162412665784359e-03" rms="4.6450412273406982e-01" purity="5.3855317831039429e-01" nType="-99"/>
          <Node pos="r" depth="2" NCoef="0" IVar="-1" Cut="0.0000000000000000e+00" cType="1" res="-1.0502125369384885e-03" rms="4.6034595370292664e-01" purity="5.5690258741378784e-01" nType="-99"/>
        </Node>
      </Node>
    </BinaryTree>
    <BinaryTree type="DecisionTree" boostWeight="1.0000000000000000e+00" itree="649">
      <Node pos="s" depth="0" NCoef="0" IVar="0" Cut="1.1871006339788437e-01" cType="1" res="-3.7596392212435603e-04" rms="4.6845045685768127e-01" purity="5.0246953964233398e-01" nType="0">
        <Node pos="l" depth="1" NCoef="0" IVar="6" Cut="4.4289431571960449e+00" cType="1" res="8.1818653270602226e-03" rms="4.6969559788703918e-01" purity="4.8188504576683044e-01" nType="0">
          <Node pos="l" depth="2" NCoef="0" IVar="-1" Cut="0.0000000000000000e+00" cType="1" res="1.1167308548465371e-03" rms="4.6945863962173462e-01" purity="4.1883385181427002e-01" nType="-99"/>
          <Node pos="r" depth="2" NCoef="0" IVar="-1" Cut="0.0000000000000000e+00" cType="1" res="-1.0523154633119702e-03" rms="4.6942007541656494e-01" purity="6.3043802976608276e-01" nType="-99"/>
        </Node>
        <Node pos="r" depth="1" NCoef="0" IVar="4" Cut="9.4910181360319257e-04" cType="1" res="-1.9920788705348969e-02" rms="4.6500408649444580e-01" purity="5.4948163032531738e-01" nType="0">
          <Node pos="l" depth="2" NCoef="0" IVar="-1" Cut="0.0000000000000000e+00" cType="1" res="1.1725453659892082e-03" rms="4.4952455163002014e-01" purity="6.6833013296127319e-01" nType="-99"/>
          <Node pos="r" depth="2" NCoef="0" IVar="-1" Cut="0.0000000000000000e+00" cType="1" res="-2.9222203884273767e-03" rms="4.7519913315773010e-01" purity="4.5359975099563599e-01" nType="-99"/>
        </Node>
      </Node>
    </BinaryTree>
    <BinaryTree type="DecisionTree" boostWeight="1.0000000000000000e+00" itree="650">
      <Node pos="s" depth="0" NCoef="0" IVar="6" Cut="4.7480111122131348e+00" cType="1" res="1.2626897078007460e-03" rms="4.6604970097541809e-01" purity="5.0451815128326416e-01" nType="0">
        <Node pos="l" depth="1" NCoef="0" IVar="1" Cut="1.8638073205947876e+00" cType="1" res="-7.9270452260971069e-03" rms="4.7542545199394226e-01" purity="4.3960475921630859e-01" nType="0">
          <Node pos="l" depth="2" NCoef="0" IVar="-1" Cut="0.0000000000000000e+00" cType="1" res="-1.0499120689928532e-03" rms="4.7930237650871277e-01" purity="4.5912608504295349e-01" nType="-99"/>
          <Node pos="r" depth="2" NCoef="0" IVar="-1" Cut="0.0000000000000000e+00" cType="1" res="2.2634649649262428e-03" rms="4.5482853055000305e-01" purity="3.5040324926376343e-01" nType="-99"/>
        </Node>
        <Node pos="r" depth="1" NCoef="0" IVar="5" Cut="9.4959112548828125e+02" cType="1" res="3.2365150749683380e-02" rms="4.3136322498321533e-01" purity="7.2421604394912720e-01" nType="0">
          <Node pos="l" depth="2" NCoef="0" IVar="-1" Cut="0.0000000000000000e+00" cType="1" res="3.7265093997120857e-03" rms="4.2659220099449158e-01" purity="7.3270887136459351e-01" nType="-99"/>
          <Node pos="r" depth="2" NCoef="0" IVar="-1" Cut="0.0000000000000000e+00" cType="1" res="-1.0148785077035427e-03" rms="4.4237455725669861e-01" purity="6.9850873947143555e-01" nType="-99"/>
        </Node>
      </Node>
    </BinaryTree>
    <BinaryTree type="DecisionTree" boostWeight="1.0000000000000000e+00" itree="651">
      <Node pos="s" depth="0" NCoef="0" IVar="3" Cut="1.0311765670776367e+00" cType="1" res="-2.3623832967132330e-03" rms="4.6471789479255676e-01" purity="4.9793621897697449e-01" nType="0">
        <Node pos="l" depth="1" NCoef="0" IVar="2" Cut="5.1158130168914795e-01" cType="1" res="1.6177752986550331e-02" rms="4.6310615539550781e-01" purity="5.5513966083526611e-01" nType="0">
          <Node pos="l" depth="2" NCoef="0" IVar="-1" Cut="0.0000000000000000e+00" cType="1" res="-1.8595078727230430e-03" rms="4.6616879105567932e-01" purity="4.2065444588661194e-01" nType="-99"/>
          <Node pos="r" depth="2" NCoef="0" IVar="-1" Cut="0.0000000000000000e+00" cType="1" res="2.2454208228737116e-03" rms="4.6074464917182922e-01" purity="6.0491991043090820e-01" nType="-99"/>
        </Node>
        <Node pos="r" depth="1" NCoef="0" IVar="5" Cut="6.5773498535156250e+02" cType="1" res="-1.1687424033880234e-02" rms="4.6524727344512939e-01" purity="4.6916490793228149e-01" nType="0">
          <Node pos="l" depth="2" NCoef="0" IVar="-1" Cut="0.0000000000000000e+00" cType="1" res="2.5304898736067116e-04" rms="4.5579060912132263e-01" purity="4.4152957201004028e-01" nType="-99"/>
          <Node pos="r" depth="2" NCoef="0" IVar="-1" Cut="0.0000000000000000e+00" cType="1" res="-1.5771063044667244e-03" rms="4.7286033630371094e-01" purity="4.9307453632354736e-01" nType="-99"/>
        </Node>
      </Node>
    </BinaryTree>
    <BinaryTree type="DecisionTree" boostWeight="1.0000000000000000e+00" itree="652">
      <Node pos="s" depth="0" NCoef="0" IVar="1" Cut="2.4921255111694336e+00" cType="1" res="-1.2614177539944649e-02" rms="4.6692317724227905e-01" purity="4.8759084939956665e-01" nType="0">
        <Node pos="l" depth="1" NCoef="0" IVar="1" Cut="1.5525792837142944e+00" cType="1" res="-1.6998458653688431e-02" rms="4.6881783008575439e-01" purity="5.0083619356155396e-01" nType="0">
          <Node pos="l" depth="2" NCoef="0" IVar="-1" Cut="0.0000000000000000e+00" cType="1" res="-5.0206633750349283e-04" rms="4.7074264287948608e-01" purity="5.3169131278991699e-01" nType="-99"/>
          <Node pos="r" depth="2" NCoef="0" IVar="-1" Cut="0.0000000000000000e+00" cType="1" res="-3.2056162599474192e-03" rms="4.5903304219245911e-01" purity="3.7539479136466980e-01" nType="-99"/>
        </Node>
        <Node pos="r" depth="1" NCoef="0" IVar="-1" Cut="0.0000000000000000e+00" cType="1" res="2.1973955444991589e-03" rms="4.4425469636917114e-01" purity="3.5021609067916870e-01" nType="-99"/>
      </Node>
    </BinaryTree>
    <BinaryTree type="DecisionTree" boostWeight="1.0000000000000000e+00" itree="653">
      <Node pos="s" depth="0" NCoef="0" IVar="2" Cut="4.8655444383621216e-01" cType="1" res="1.5011299401521683e-02" rms="4.6226075291633606e-01" purity="5.1429229974746704e-01" nType="0">
        <Node pos="l" depth="1" NCoef="0" IVar="3" Cut="1.2871900796890259e+00" cType="1" res="-2.2251246497035027e-02" rms="4.5195582509040833e-01" purity="3.8427734375000000e-01" nType="0">
          <Node pos="l" depth="2" NCoef="0" IVar="-1" Cut="0.0000000000000000e+00" cType="1" res="5.8158446336165071e-04" rms="4.5557245612144470e-01" purity="4.5542877912521362e-01" nType="-99"/>
          <Node pos="r" depth="2" NCoef="0" IVar="-1" Cut="0.0000000000000000e+00" cType="1" res="-3.0105507466942072e-03" rms="4.4732949137687683e-01" purity="3.2625895738601685e-01" nType="-99"/>
        </Node>
        <Node pos="r" depth="1" NCoef="0" IVar="2" Cut="5.8005446195602417e-01" cType="1" res="2.6601416990160942e-02" rms="4.6481078863143921e-01" purity="5.5473202466964722e-01" nType="0">
          <Node pos="l" depth="2" NCoef="0" IVar="-1" Cut="0.0000000000000000e+00" cType="1" res="3.7556882016360760e-03" rms="4.6545991301536560e-01" purity="5.1504331827163696e-01" nType="-99"/>
          <Node pos="r" depth="2" NCoef="0" IVar="-1" Cut="0.0000000000000000e+00" cType="1" res="9.5745973521843553e-04" rms="4.6398138999938965e-01" purity="5.6971335411071777e-01" nType="-99"/>
        </Node>
      </Node>
    </BinaryTree>
    <BinaryTree type="DecisionTree" boostWeight="1.0000000000000000e+00" itree="654">
      <Node pos="s" depth="0" NCoef="0" IVar="0" Cut="1.4156146347522736e-01" cType="1" res="7.2231055237352848e-03" rms="4.6371051669120789e-01" purity="5.0879234075546265e-01" nType="0">
        <Node pos="l" depth="1" NCoef="0" IVar="6" Cut="3.6166956424713135e+00" cType="1" res="1.6921058297157288e-02" rms="4.6296727657318115e-01" purity="4.9331781268119812e-01" nType="0">
          <Node pos="l" depth="2" NCoef="0" IVar="-1" Cut="0.0000000000000000e+00" cType="1" res="-9.2855814727954566e-05" rms="4.6715465188026428e-01" purity="3.6136531829833984e-01" nType="-99"/>
          <Node pos="r" depth="2" NCoef="0" IVar="-1" Cut="0.0000000000000000e+00" cType="1" res="2.3219843860715628e-03" rms="4.5794257521629333e-01" purity="6.2672317028045654e-01" nType="-99"/>
        </Node>
        <Node pos="r" depth="1" NCoef="0" IVar="1" Cut="4.9647018313407898e-01" cType="1" res="-2.7444778010249138e-02" rms="4.6470576524734497e-01" purity="5.6411015987396240e-01" nType="0">
          <Node pos="l" depth="2" NCoef="0" IVar="-1" Cut="0.0000000000000000e+00" cType="1" res="-4.9601066857576370e-03" rms="4.6043637394905090e-01" purity="5.8655285835266113e-01" nType="-99"/>
          <Node pos="r" depth="2" NCoef="0" IVar="-1" Cut="0.0000000000000000e+00" cType="1" res="-8.6855224799364805e-04" rms="4.6532973647117615e-01" purity="5.5624443292617798e-01" nType="-99"/>
        </Node>
      </Node>
    </BinaryTree>
    <BinaryTree type="DecisionTree" boostWeight="1.0000000000000000e+00" itree="655">
      <Node pos="s" depth="0" NCoef="0" IVar="1" Cut="2.0356411933898926e+00" cType="1" res="-2.7066748589277267e-03" rms="4.6527627110481262e-01" purity="4.9644127488136292e-01" nType="0">
        <Node pos="l" depth="1" NCoef="0" IVar="6" Cut="4.3524980545043945e+00" cType="1" res="-1.1029050685465336e-02" rms="4.6526470780372620e-01" purity="5.1317858695983887e-01" nType="0">
          <Node pos="l" depth="2" NCoef="0" IVar="-1" Cut="0.0000000000000000e+00" cType="1" res="-1.3714883243665099e-03" rms="4.7329998016357422e-01" purity="4.2611244320869446e-01" nType="-99"/>
          <Node pos="r" depth="2" NCoef="0" IVar="-1" Cut="0.0000000000000000e+00" cType="1" res="1.1998969130218029e-03" rms="4.4578588008880615e-01" purity="7.0580816268920898e-01" nType="-99"/>
        </Node>
        <Node pos="r" depth="1" NCoef="0" IVar="5" Cut="6.1031170654296875e+02" cType="1" res="4.6076204627752304e-02" rms="4.6234104037284851e-01" purity="3.9833277463912964e-01" nType="0">
          <Node pos="l" depth="2" NCoef="0" IVar="-1" Cut="0.0000000000000000e+00" cType="1" res="2.1643808577209711e-04" rms="4.3900126218795776e-01" purity="3.2107645273208618e-01" nType="-99"/>
          <Node pos="r" depth="2" NCoef="0" IVar="-1" Cut="0.0000000000000000e+00" cType="1" res="5.0745033659040928e-03" rms="4.7683098912239075e-01" purity="4.5743677020072937e-01" nType="-99"/>
        </Node>
      </Node>
    </BinaryTree>
    <BinaryTree type="DecisionTree" boostWeight="1.0000000000000000e+00" itree="656">
      <Node pos="s" depth="0" NCoef="0" IVar="3" Cut="1.7374283075332642e+00" cType="1" res="-2.8033258859068155e-03" rms="4.6206185221672058e-01" purity="4.9822241067886353e-01" nType="0">
        <Node pos="l" depth="1" NCoef="0" IVar="6" Cut="3.2957863807678223e+00" cType="1" res="7.8994156792759895e-03" rms="4.6436226367950439e-01" purity="5.3865081071853638e-01" nType="0">
          <Node pos="l" depth="2" NCoef="0" IVar="-1" Cut="0.0000000000000000e+00" cType="1" res="-5.8094377163797617e-04" rms="4.7037097811698914e-01" purity="3.7969374656677246e-01" nType="-99"/>
          <Node pos="r" depth="2" NCoef="0" IVar="-1" Cut="0.0000000000000000e+00" cType="1" res="1.3786712661385536e-03" rms="4.5972302556037903e-01" purity="6.4966893196105957e-01" nType="-99"/>
        </Node>
        <Node pos="r" depth="1" NCoef="0" IVar="2" Cut="6.5139114856719971e-01" cType="1" res="-3.5562243312597275e-02" rms="4.5338106155395508e-01" purity="3.7447947263717651e-01" nType="0">
          <Node pos="l" depth="2" NCoef="0" IVar="-1" Cut="0.0000000000000000e+00" cType="1" res="-3.0674762092530727e-03" rms="4.3992069363594055e-01" purity="3.1815236806869507e-01" nType="-99"/>
          <Node pos="r" depth="2" NCoef="0" IVar="-1" Cut="0.0000000000000000e+00" cType="1" res="-2.8222126275068149e-05" rms="4.8328012228012085e-01" purity="5.1377981901168823e-01" nType="-99"/>
        </Node>
      </Node>
    </BinaryTree>
    <BinaryTree type="DecisionTree" boostWeight="1.0000000000000000e+00" itree="657">
      <Node pos="s" depth="0" NCoef="0" IVar="3" Cut="9.2433476448059082e-01" cType="1" res="-3.0467596370726824e-03" rms="4.6388956904411316e-01" purity="4.9604028463363647e-01" nType="0">
        <Node pos="l" depth="1" NCoef="0" IVar="4" Cut="6.4741162350401282e-04" cType="1" res="2.7798306196928024e-02" rms="4.6324694156646729e-01" purity="5.6081473827362061e-01" nType="0">
          <Node pos="l" depth="2" NCoef="0" IVar="-1" Cut="0.0000000000000000e+00" cType="1" res="4.8122359439730644e-03" rms="4.4345477223396301e-01" purity="6.9096368551254272e-01" nType="-99"/>
          <Node pos="r" depth="2" NCoef="0" IVar="-1" Cut="0.0000000000000000e+00" cType="1" res="4.6587130054831505e-04" rms="4.7245234251022339e-01" purity="4.8989126086235046e-01" nType="-99"/>
        </Node>
        <Node pos="r" depth="1" NCoef="0" IVar="2" Cut="4.6589675545692444e-01" cType="1" res="-1.3190871104598045e-02" rms="4.6365255117416382e-01" purity="4.7473767399787903e-01" nType="0">
          <Node pos="l" depth="2" NCoef="0" IVar="-1" Cut="0.0000000000000000e+00" cType="1" res="1.7603688174858689e-03" rms="4.5698639750480652e-01" purity="4.2113977670669556e-01" nType="-99"/>
          <Node pos="r" depth="2" NCoef="0" IVar="-1" Cut="0.0000000000000000e+00" cType="1" res="-1.5336975920945406e-03" rms="4.6481782197952271e-01" purity="4.8912382125854492e-01" nType="-99"/>
        </Node>
      </Node>
    </BinaryTree>
    <BinaryTree type="DecisionTree" boostWeight="1.0000000000000000e+00" itree="658">
      <Node pos="s" depth="0" NCoef="0" IVar="6" Cut="4.2660069465637207e+00" cType="1" res="-1.3558012433350086e-02" rms="4.6270725131034851e-01" purity="4.8613643646240234e-01" nType="0">
        <Node pos="l" depth="1" NCoef="0" IVar="4" Cut="4.8286491073668003e-04" cType="1" res="-2.4491079151630402e-02" rms="4.6949759125709534e-01" purity="3.9263394474983215e-01" nType="0">
          <Node pos="l" depth="2" NCoef="0" IVar="-1" Cut="0.0000000000000000e+00" cType="1" res="-3.4954615402966738e-03" rms="4.7755861282348633e-01" purity="4.3267276883125305e-01" nType="-99"/>
          <Node pos="r" depth="2" NCoef="0" IVar="-1" Cut="0.0000000000000000e+00" cType="1" res="-9.7370869480073452e-04" rms="4.6698036789894104e-01" purity="3.8207036256790161e-01" nType="-99"/>
        </Node>
        <Node pos="r" depth="1" NCoef="0" IVar="4" Cut="2.3881290690042078e-04" cType="1" res="8.8756410405039787e-03" rms="4.4761687517166138e-01" purity="6.7799502611160278e-01" nType="0">
          <Node pos="l" depth="2" NCoef="0" IVar="-1" Cut="0.0000000000000000e+00" cType="1" res="-2.0590329077094793e-03" rms="4.4333630800247192e-01" purity="6.9278705120086670e-01" nType="-99"/>
          <Node pos="r" depth="2" NCoef="0" IVar="-1" Cut="0.0000000000000000e+00" cType="1" res="2.1617861930280924e-03" rms="4.4895413517951965e-01" purity="6.6833144426345825e-01" nType="-99"/>
        </Node>
      </Node>
    </BinaryTree>
    <BinaryTree type="DecisionTree" boostWeight="1.0000000000000000e+00" itree="659">
      <Node pos="s" depth="0" NCoef="0" IVar="1" Cut="3.0134063959121704e-01" cType="1" res="4.4890079880133271e-04" rms="4.6588280797004700e-01" purity="5.0082045793533325e-01" nType="0">
        <Node pos="l" depth="1" NCoef="0" IVar="3" Cut="1.2070336341857910e+00" cType="1" res="5.1180951297283173e-02" rms="4.4427123665809631e-01" purity="6.3773220777511597e-01" nType="0">
          <Node pos="l" depth="2" NCoef="0" IVar="-1" Cut="0.0000000000000000e+00" cType="1" res="5.7432837784290314e-03" rms="4.3170696496963501e-01" purity="6.9769859313964844e-01" nType="-99"/>
          <Node pos="r" depth="2" NCoef="0" IVar="-1" Cut="0.0000000000000000e+00" cType="1" res="1.5893006930127740e-03" rms="4.5399689674377441e-01" purity="5.8138382434844971e-01" nType="-99"/>
        </Node>
        <Node pos="r" depth="1" NCoef="0" IVar="0" Cut="1.5639299154281616e-01" cType="1" res="-5.5074696429073811e-03" rms="4.6799415349960327e-01" purity="4.8474580049514771e-01" nType="0">
          <Node pos="l" depth="2" NCoef="0" IVar="-1" Cut="0.0000000000000000e+00" cType="1" res="9.2924354248680174e-05" rms="4.6792435646057129e-01" purity="4.7681161761283875e-01" nType="-99"/>
          <Node pos="r" depth="2" NCoef="0" IVar="-1" Cut="0.0000000000000000e+00" cType="1" res="-2.7170490939170122e-03" rms="4.6671155095100403e-01" purity="5.2542525529861450e-01" nType="-99"/>
        </Node>
      </Node>
    </BinaryTree>
    <BinaryTree type="DecisionTree" boostWeight="1.0000000000000000e+00" itree="660">
      <Node pos="s" depth="0" NCoef="0" IVar="5" Cut="1.2020129394531250e+03" cType="1" res="-4.5857168734073639e-03" rms="4.6647357940673828e-01" purity="4.9821221828460693e-01" nType="0">
        <Node pos="l" depth="1" NCoef="0" IVar="4" Cut="2.3549790494143963e-03" cType="1" res="1.7622266896069050e-03" rms="4.6459639072418213e-01" purity="4.9880331754684448e-01" nType="0">
          <Node pos="l" depth="2" NCoef="0" IVar="-1" Cut="0.0000000000000000e+00" cType="1" res="-5.3520378423854709e-04" rms="4.6195557713508606e-01" purity="5.1648736000061035e-01" nType="-99"/>
          <Node pos="r" depth="2" NCoef="0" IVar="-1" Cut="0.0000000000000000e+00" cType="1" res="2.0012205932289362e-03" rms="4.7140809893608093e-01" purity="4.4343179464340210e-01" nType="-99"/>
        </Node>
        <Node pos="r" depth="1" NCoef="0" IVar="-1" Cut="0.0000000000000000e+00" cType="1" res="-4.5014633797109127e-03" rms="4.8116514086723328e-01" purity="4.9169909954071045e-01" nType="-99"/>
      </Node>
    </BinaryTree>
    <BinaryTree type="DecisionTree" boostWeight="1.0000000000000000e+00" itree="661">
      <Node pos="s" depth="0" NCoef="0" IVar="5" Cut="4.7911776733398438e+02" cType="1" res="-1.3737208209931850e-03" rms="4.6262174844741821e-01" purity="4.9573674798011780e-01" nType="0">
        <Node pos="l" depth="1" NCoef="0" IVar="5" Cut="4.3699414062500000e+02" cType="1" res="4.3445240706205368e-02" rms="4.5304039120674133e-01" purity="4.0545094013214111e-01" nType="0">
          <Node pos="l" depth="2" NCoef="0" IVar="-1" Cut="0.0000000000000000e+00" cType="1" res="2.4605176877230406e-03" rms="4.4557794928550720e-01" purity="3.8003101944923401e-01" nType="-99"/>
          <Node pos="r" depth="2" NCoef="0" IVar="-1" Cut="0.0000000000000000e+00" cType="1" res="3.2102901022881269e-03" rms="4.6038508415222168e-01" purity="4.3120837211608887e-01" nType="-99"/>
        </Node>
        <Node pos="r" depth="1" NCoef="0" IVar="2" Cut="4.1464740037918091e-01" cType="1" res="-6.6789300180971622e-03" rms="4.6345597505569458e-01" purity="5.0642383098602295e-01" nType="0">
          <Node pos="l" depth="2" NCoef="0" IVar="-1" Cut="0.0000000000000000e+00" cType="1" res="2.9301268514245749e-03" rms="4.5844125747680664e-01" purity="4.4040289521217346e-01" nType="-99"/>
          <Node pos="r" depth="2" NCoef="0" IVar="-1" Cut="0.0000000000000000e+00" cType="1" res="-8.0753560177981853e-04" rms="4.6363994479179382e-01" purity="5.1381307840347290e-01" nType="-99"/>
        </Node>
      </Node>
    </BinaryTree>
    <BinaryTree type="DecisionTree" boostWeight="1.0000000000000000e+00" itree="662">
      <Node pos="s" depth="0" NCoef="0" IVar="1" Cut="1.0441895723342896e+00" cType="1" res="-5.4768486879765987e-03" rms="4.6555298566818237e-01" purity="4.9716165661811829e-01" nType="0">
        <Node pos="l" depth="1" NCoef="0" IVar="1" Cut="4.5091992616653442e-01" cType="1" res="-2.2043585777282715e-02" rms="4.6692302823066711e-01" purity="5.4126840829849243e-01" nType="0">
          <Node pos="l" depth="2" NCoef="0" IVar="-1" Cut="0.0000000000000000e+00" cType="1" res="4.3208603165112436e-04" rms="4.5569276809692383e-01" purity="5.9611290693283081e-01" nType="-99"/>
          <Node pos="r" depth="2" NCoef="0" IVar="-1" Cut="0.0000000000000000e+00" cType="1" res="-2.4335859343409538e-03" rms="4.7250732779502869e-01" purity="5.0956356525421143e-01" nType="-99"/>
        </Node>
        <Node pos="r" depth="1" NCoef="0" IVar="2" Cut="7.3300635814666748e-01" cType="1" res="1.3620812445878983e-02" rms="4.6323403716087341e-01" purity="4.4631671905517578e-01" nType="0">
          <Node pos="l" depth="2" NCoef="0" IVar="-1" Cut="0.0000000000000000e+00" cType="1" res="3.1825550831854343e-04" rms="4.6284985542297363e-01" purity="4.1884312033653259e-01" nType="-99"/>
          <Node pos="r" depth="2" NCoef="0" IVar="-1" Cut="0.0000000000000000e+00" cType="1" res="5.1773446612060070e-03" rms="4.6130064129829407e-01" purity="6.4718872308731079e-01" nType="-99"/>
        </Node>
      </Node>
    </BinaryTree>
    <BinaryTree type="DecisionTree" boostWeight="1.0000000000000000e+00" itree="663">
      <Node pos="s" depth="0" NCoef="0" IVar="3" Cut="1.7052745819091797e+00" cType="1" res="-1.0306755080819130e-02" rms="4.6233615279197693e-01" purity="4.9046632647514343e-01" nType="0">
        <Node pos="l" depth="1" NCoef="0" IVar="2" Cut="3.9971315860748291e-01" cType="1" res="-3.5049708094447851e-03" rms="4.6472430229187012e-01" purity="5.2813839912414551e-01" nType="0">
          <Node pos="l" depth="2" NCoef="0" IVar="-1" Cut="0.0000000000000000e+00" cType="1" res="3.7333483342081308e-03" rms="4.6803855895996094e-01" purity="4.7890698909759521e-01" nType="-99"/>
          <Node pos="r" depth="2" NCoef="0" IVar="-1" Cut="0.0000000000000000e+00" cType="1" res="-5.2518455777317286e-04" rms="4.6414661407470703e-01" purity="5.3185445070266724e-01" nType="-99"/>
        </Node>
        <Node pos="r" depth="1" NCoef="0" IVar="2" Cut="6.0132044553756714e-01" cType="1" res="-2.9796384274959564e-02" rms="4.5486098527908325e-01" purity="3.8252210617065430e-01" nType="0">
          <Node pos="l" depth="2" NCoef="0" IVar="-1" Cut="0.0000000000000000e+00" cType="1" res="-3.1927013769745827e-03" rms="4.3932038545608521e-01" purity="3.0661419034004211e-01" nType="-99"/>
          <Node pos="r" depth="2" NCoef="0" IVar="-1" Cut="0.0000000000000000e+00" cType="1" res="1.2213292939122766e-04" rms="4.7485214471817017e-01" purity="4.9334526062011719e-01" nType="-99"/>
        </Node>
      </Node>
    </BinaryTree>
    <BinaryTree type="DecisionTree" boostWeight="1.0000000000000000e+00" itree="664">
      <Node pos="s" depth="0" NCoef="0" IVar="4" Cut="2.9293694533407688e-03" cType="1" res="-7.8831030987203121e-04" rms="4.6562230587005615e-01" purity="5.0462138652801514e-01" nType="0">
        <Node pos="l" depth="1" NCoef="0" IVar="4" Cut="2.0649223588407040e-03" cType="1" res="-9.0242763981223106e-03" rms="4.6478375792503357e-01" purity="5.1417732238769531e-01" nType="0">
          <Node pos="l" depth="2" NCoef="0" IVar="-1" Cut="0.0000000000000000e+00" cType="1" res="-5.0530888984212652e-05" rms="4.6510276198387146e-01" purity="5.4265892505645752e-01" nType="-99"/>
          <Node pos="r" depth="2" NCoef="0" IVar="-1" Cut="0.0000000000000000e+00" cType="1" res="-2.8108931146562099e-03" rms="4.6125376224517822e-01" purity="3.7900716066360474e-01" nType="-99"/>
        </Node>
        <Node pos="r" depth="1" NCoef="0" IVar="3" Cut="1.2194814682006836e+00" cType="1" res="4.7368273138999939e-02" rms="4.6760052442550659e-01" purity="4.4874677062034607e-01" nType="0">
          <Node pos="l" depth="2" NCoef="0" IVar="-1" Cut="0.0000000000000000e+00" cType="1" res="-3.7347982288338244e-04" rms="4.6341189742088318e-01" purity="4.3173176050186157e-01" nType="-99"/>
          <Node pos="r" depth="2" NCoef="0" IVar="-1" Cut="0.0000000000000000e+00" cType="1" res="5.7598026469349861e-03" rms="4.6643236279487610e-01" purity="4.6260318160057068e-01" nType="-99"/>
        </Node>
      </Node>
    </BinaryTree>
    <BinaryTree type="DecisionTree" boostWeight="1.0000000000000000e+00" itree="665">
      <Node pos="s" depth="0" NCoef="0" IVar="3" Cut="5.9084808826446533e-01" cType="1" res="4.2237155139446259e-03" rms="4.6458241343498230e-01" purity="5.0420886278152466e-01" nType="0">
        <Node pos="l" depth="1" NCoef="0" IVar="-1" Cut="0.0000000000000000e+00" cType="1" res="-4.1619599796831608e-03" rms="4.6558263897895813e-01" purity="4.4156491756439209e-01" nType="-99"/>
        <Node pos="r" depth="1" NCoef="0" IVar="0" Cut="2.1772606670856476e-01" cType="1" res="9.8476996645331383e-03" rms="4.6402677893638611e-01" purity="5.0900554656982422e-01" nType="0">
          <Node pos="l" depth="2" NCoef="0" IVar="-1" Cut="0.0000000000000000e+00" cType="1" res="3.6237383028492332e-04" rms="4.6576011180877686e-01" purity="4.9751570820808411e-01" nType="-99"/>
          <Node pos="r" depth="2" NCoef="0" IVar="-1" Cut="0.0000000000000000e+00" cType="1" res="5.5002118460834026e-03" rms="4.3055501580238342e-01" purity="6.8979740142822266e-01" nType="-99"/>
        </Node>
      </Node>
    </BinaryTree>
    <BinaryTree type="DecisionTree" boostWeight="1.0000000000000000e+00" itree="666">
      <Node pos="s" depth="0" NCoef="0" IVar="1" Cut="1.6388669013977051e+00" cType="1" res="1.0643707355484366e-04" rms="4.6418452262878418e-01" purity="5.0298839807510376e-01" nType="0">
        <Node pos="l" depth="1" NCoef="0" IVar="5" Cut="7.2154833984375000e+02" cType="1" res="8.9827692136168480e-03" rms="4.6812063455581665e-01" purity="5.4948556423187256e-01" nType="0">
          <Node pos="l" depth="2" NCoef="0" IVar="-1" Cut="0.0000000000000000e+00" cType="1" res="1.7848794814199209e-03" rms="4.6828639507293701e-01" purity="5.3009057044982910e-01" nType="-99"/>
          <Node pos="r" depth="2" NCoef="0" IVar="-1" Cut="0.0000000000000000e+00" cType="1" res="-6.8995845504105091e-04" rms="4.6714633703231812e-01" purity="5.6996661424636841e-01" nType="-99"/>
        </Node>
        <Node pos="r" depth="1" NCoef="0" IVar="3" Cut="1.8458027839660645e+00" cType="1" res="-2.7649059891700745e-02" rms="4.5052838325500488e-01" purity="3.5759603977203369e-01" nType="0">
          <Node pos="l" depth="2" NCoef="0" IVar="-1" Cut="0.0000000000000000e+00" cType="1" res="-2.5567102711647749e-03" rms="4.5708715915679932e-01" purity="3.7168014049530029e-01" nType="-99"/>
          <Node pos="r" depth="2" NCoef="0" IVar="-1" Cut="0.0000000000000000e+00" cType="1" res="7.7847013017162681e-04" rms="4.2984721064567566e-01" purity="3.1951001286506653e-01" nType="-99"/>
        </Node>
      </Node>
    </BinaryTree>
    <BinaryTree type="DecisionTree" boostWeight="1.0000000000000000e+00" itree="667">
      <Node pos="s" depth="0" NCoef="0" IVar="3" Cut="1.2445992231369019e+00" cType="1" res="5.4468032903969288e-03" rms="4.6248993277549744e-01" purity="5.0684690475463867e-01" nType="0">
        <Node pos="l" depth="1" NCoef="0" IVar="6" Cut="4.9306912422180176e+00" cType="1" res="-1.3584828935563564e-02" rms="4.6579846739768982e-01" purity="5.2513986825942993e-01" nType="0">
          <Node pos="l" depth="2" NCoef="0" IVar="-1" Cut="0.0000000000000000e+00" cType="1" res="-1.4673632103949785e-03" rms="4.7640240192413330e-01" purity="4.6709984540939331e-01" nType="-99"/>
          <Node pos="r" depth="2" NCoef="0" IVar="-1" Cut="0.0000000000000000e+00" cType="1" res="2.8975578024983406e-03" rms="4.1293787956237793e-01" purity="7.7936923503875732e-01" nType="-99"/>
        </Node>
        <Node pos="r" depth="1" NCoef="0" IVar="3" Cut="2.1692676544189453e+00" cType="1" res="2.2749008610844612e-02" rms="4.5877671241760254e-01" purity="4.9021634459495544e-01" nType="0">
          <Node pos="l" depth="2" NCoef="0" IVar="-1" Cut="0.0000000000000000e+00" cType="1" res="2.1157530136406422e-03" rms="4.6317154169082642e-01" purity="5.2319663763046265e-01" nType="-99"/>
          <Node pos="r" depth="2" NCoef="0" IVar="-1" Cut="0.0000000000000000e+00" cType="1" res="-2.4315097834914923e-03" rms="4.2683735489845276e-01" purity="2.9447934031486511e-01" nType="-99"/>
        </Node>
      </Node>
    </BinaryTree>
    <BinaryTree type="DecisionTree" boostWeight="1.0000000000000000e+00" itree="668">
      <Node pos="s" depth="0" NCoef="0" IVar="1" Cut="3.6776691675186157e-01" cType="1" res="-1.2394689954817295e-02" rms="4.6880435943603516e-01" purity="4.8816627264022827e-01" nType="0">
        <Node pos="l" depth="1" NCoef="0" IVar="2" Cut="6.9872593879699707e-01" cType="1" res="-5.3788397461175919e-02" rms="4.7475180029869080e-01" purity="5.3096807003021240e-01" nType="0">
          <Node pos="l" depth="2" NCoef="0" IVar="-1" Cut="0.0000000000000000e+00" cType="1" res="-1.3711133506149054e-03" rms="4.7052326798439026e-01" purity="5.0742942094802856e-01" nType="-99"/>
          <Node pos="r" depth="2" NCoef="0" IVar="-1" Cut="0.0000000000000000e+00" cType="1" res="-6.7168539389967918e-03" rms="4.7710490226745605e-01" purity="5.6314074993133545e-01" nType="-99"/>
        </Node>
        <Node pos="r" depth="1" NCoef="0" IVar="5" Cut="8.4753918457031250e+02" cType="1" res="-5.1586618646979332e-03" rms="4.6738064289093018e-01" purity="4.8068407177925110e-01" nType="0">
          <Node pos="l" depth="2" NCoef="0" IVar="-1" Cut="0.0000000000000000e+00" cType="1" res="-9.1929151676595211e-04" rms="4.6415781974792480e-01" purity="4.5511534810066223e-01" nType="-99"/>
          <Node pos="r" depth="2" NCoef="0" IVar="-1" Cut="0.0000000000000000e+00" cType="1" res="1.2515448033809662e-03" rms="4.7478494048118591e-01" purity="5.4723882675170898e-01" nType="-99"/>
        </Node>
      </Node>
    </BinaryTree>
    <BinaryTree type="DecisionTree" boostWeight="1.0000000000000000e+00" itree="669">
      <Node pos="s" depth="0" NCoef="0" IVar="4" Cut="1.6193703049793839e-04" cType="1" res="-3.1064487993717194e-03" rms="4.6280455589294434e-01" purity="4.9561929702758789e-01" nType="0">
        <Node pos="l" depth="1" NCoef="0" IVar="0" Cut="6.9856442511081696e-02" cType="1" res="-5.0368096679449081e-02" rms="4.6227705478668213e-01" purity="6.0476571321487427e-01" nType="0">
          <Node pos="l" depth="2" NCoef="0" IVar="-1" Cut="0.0000000000000000e+00" cType="1" res="-5.9183267876505852e-03" rms="4.7430756688117981e-01" purity="5.0961667299270630e-01" nType="-99"/>
          <Node pos="r" depth="2" NCoef="0" IVar="-1" Cut="0.0000000000000000e+00" cType="1" res="-1.7601192230358720e-03" rms="4.5088085532188416e-01" purity="6.7614752054214478e-01" nType="-99"/>
        </Node>
        <Node pos="r" depth="1" NCoef="0" IVar="6" Cut="4.8993225097656250e+00" cType="1" res="5.8900890871882439e-03" rms="4.6235790848731995e-01" purity="4.7484266757965088e-01" nType="0">
          <Node pos="l" depth="2" NCoef="0" IVar="-1" Cut="0.0000000000000000e+00" cType="1" res="-1.6249218606390059e-04" rms="4.6713867783546448e-01" purity="4.3413501977920532e-01" nType="-99"/>
          <Node pos="r" depth="2" NCoef="0" IVar="-1" Cut="0.0000000000000000e+00" cType="1" res="4.7531453892588615e-03" rms="4.2549037933349609e-01" purity="7.4135792255401611e-01" nType="-99"/>
        </Node>
      </Node>
    </BinaryTree>
    <BinaryTree type="DecisionTree" boostWeight="1.0000000000000000e+00" itree="670">
      <Node pos="s" depth="0" NCoef="0" IVar="3" Cut="1.2092570066452026e+00" cType="1" res="-1.3405408244580030e-03" rms="4.6629133820533752e-01" purity="4.9886900186538696e-01" nType="0">
        <Node pos="l" depth="1" NCoef="0" IVar="2" Cut="4.4068366289138794e-01" cType="1" res="-2.2088237106800079e-02" rms="4.6860277652740479e-01" purity="5.2027595043182373e-01" nType="0">
          <Node pos="l" depth="2" NCoef="0" IVar="-1" Cut="0.0000000000000000e+00" cType="1" res="-4.8453900963068008e-03" rms="4.4616931676864624e-01" purity="3.5628515481948853e-01" nType="-99"/>
          <Node pos="r" depth="2" NCoef="0" IVar="-1" Cut="0.0000000000000000e+00" cType="1" res="-8.4913149476051331e-04" rms="4.7096437215805054e-01" purity="5.4318183660507202e-01" nType="-99"/>
        </Node>
        <Node pos="r" depth="1" NCoef="0" IVar="1" Cut="3.2661947607994080e-01" cType="1" res="1.5610869042575359e-02" rms="4.6370574831962585e-01" purity="4.8137897253036499e-01" nType="0">
          <Node pos="l" depth="2" NCoef="0" IVar="-1" Cut="0.0000000000000000e+00" cType="1" res="4.3954639695584774e-03" rms="4.6691697835922241e-01" purity="6.1925548315048218e-01" nType="-99"/>
          <Node pos="r" depth="2" NCoef="0" IVar="-1" Cut="0.0000000000000000e+00" cType="1" res="6.4032437512651086e-04" rms="4.6299910545349121e-01" purity="4.6550133824348450e-01" nType="-99"/>
        </Node>
      </Node>
    </BinaryTree>
    <BinaryTree type="DecisionTree" boostWeight="1.0000000000000000e+00" itree="671">
      <Node pos="s" depth="0" NCoef="0" IVar="2" Cut="3.7765863537788391e-01" cType="1" res="4.4619650579988956e-03" rms="4.6268093585968018e-01" purity="5.0576883554458618e-01" nType="0">
        <Node pos="l" depth="1" NCoef="0" IVar="-1" Cut="0.0000000000000000e+00" cType="1" res="-3.9066583849489689e-03" rms="4.2443549633026123e-01" purity="3.0908128619194031e-01" nType="-99"/>
        <Node pos="r" depth="1" NCoef="0" IVar="2" Cut="7.2226542234420776e-01" cType="1" res="8.6447112262248993e-03" rms="4.6462479233741760e-01" purity="5.1795667409896851e-01" nType="0">
          <Node pos="l" depth="2" NCoef="0" IVar="-1" Cut="0.0000000000000000e+00" cType="1" res="9.1461595729924738e-05" rms="4.6702864766120911e-01" purity="4.7575980424880981e-01" nType="-99"/>
          <Node pos="r" depth="2" NCoef="0" IVar="-1" Cut="0.0000000000000000e+00" cType="1" res="2.1997743751853704e-03" rms="4.5627188682556152e-01" purity="6.5027409791946411e-01" nType="-99"/>
        </Node>
      </Node>
    </BinaryTree>
    <BinaryTree type="DecisionTree" boostWeight="1.0000000000000000e+00" itree="672">
      <Node pos="s" depth="0" NCoef="0" IVar="2" Cut="5.2880144119262695e-01" cType="1" res="1.0872831568121910e-02" rms="4.5994490385055542e-01" purity="5.0983905792236328e-01" nType="0">
        <Node pos="l" depth="1" NCoef="0" IVar="6" Cut="3.0084626674652100e+00" cType="1" res="-1.2521861121058464e-02" rms="4.6368676424026489e-01" purity="4.0925857424736023e-01" nType="0">
          <Node pos="l" depth="2" NCoef="0" IVar="-1" Cut="0.0000000000000000e+00" cType="1" res="1.9455025903880596e-03" rms="4.4923996925354004e-01" purity="3.0890190601348877e-01" nType="-99"/>
          <Node pos="r" depth="2" NCoef="0" IVar="-1" Cut="0.0000000000000000e+00" cType="1" res="-1.9580945372581482e-03" rms="4.6940931677818298e-01" purity="4.5921754837036133e-01" nType="-99"/>
        </Node>
        <Node pos="r" depth="1" NCoef="0" IVar="6" Cut="4.0309724807739258e+00" cType="1" res="2.2720191627740860e-02" rms="4.5758232474327087e-01" purity="5.6077426671981812e-01" nType="0">
          <Node pos="l" depth="2" NCoef="0" IVar="-1" Cut="0.0000000000000000e+00" cType="1" res="2.0084834250155836e-04" rms="4.7745439410209656e-01" purity="4.4213584065437317e-01" nType="-99"/>
          <Node pos="r" depth="2" NCoef="0" IVar="-1" Cut="0.0000000000000000e+00" cType="1" res="3.9302557706832886e-03" rms="4.2383828759193420e-01" purity="7.4148374795913696e-01" nType="-99"/>
        </Node>
      </Node>
    </BinaryTree>
    <BinaryTree type="DecisionTree" boostWeight="1.0000000000000000e+00" itree="673">
      <Node pos="s" depth="0" NCoef="0" IVar="5" Cut="6.6753991699218750e+02" cType="1" res="-4.4006002135574818e-03" rms="4.6210336685180664e-01" purity="4.9484297633171082e-01" nType="0">
        <Node pos="l" depth="1" NCoef="0" IVar="3" Cut="1.4443093538284302e+00" cType="1" res="-2.3226417601108551e-02" rms="4.5708116888999939e-01" purity="4.2168414592742920e-01" nType="0">
          <Node pos="l" depth="2" NCoef="0" IVar="-1" Cut="0.0000000000000000e+00" cType="1" res="-2.6538332458585501e-03" rms="4.6326392889022827e-01" purity="4.3026047945022583e-01" nType="-99"/>
          <Node pos="r" depth="2" NCoef="0" IVar="-1" Cut="0.0000000000000000e+00" cType="1" res="5.7829165598377585e-05" rms="4.4808933138847351e-01" purity="4.1099759936332703e-01" nType="-99"/>
        </Node>
        <Node pos="r" depth="1" NCoef="0" IVar="1" Cut="9.4354200363159180e-01" cType="1" res="1.1742121540009975e-02" rms="4.6576112508773804e-01" purity="5.5757510662078857e-01" nType="0">
          <Node pos="l" depth="2" NCoef="0" IVar="-1" Cut="0.0000000000000000e+00" cType="1" res="-6.7095400299876928e-04" rms="4.6498277783393860e-01" purity="5.9674817323684692e-01" nType="-99"/>
          <Node pos="r" depth="2" NCoef="0" IVar="-1" Cut="0.0000000000000000e+00" cType="1" res="2.1623852662742138e-03" rms="4.6548807621002197e-01" purity="5.1655751466751099e-01" nType="-99"/>
        </Node>
      </Node>
    </BinaryTree>
    <BinaryTree type="DecisionTree" boostWeight="1.0000000000000000e+00" itree="674">
      <Node pos="s" depth="0" NCoef="0" IVar="3" Cut="5.5805784463882446e-01" cType="1" res="5.9127938002347946e-03" rms="4.6652573347091675e-01" purity="5.0638419389724731e-01" nType="0">
        <Node pos="l" depth="1" NCoef="0" IVar="-1" Cut="0.0000000000000000e+00" cType="1" res="-4.6508782543241978e-03" rms="4.6691417694091797e-01" purity="3.9977917075157166e-01" nType="-99"/>
        <Node pos="r" depth="1" NCoef="0" IVar="0" Cut="4.7745358198881149e-02" cType="1" res="1.0927978903055191e-02" rms="4.6601429581642151e-01" purity="5.1261132955551147e-01" nType="0">
          <Node pos="l" depth="2" NCoef="0" IVar="-1" Cut="0.0000000000000000e+00" cType="1" res="2.8963619843125343e-03" rms="4.6239539980888367e-01" purity="4.6882772445678711e-01" nType="-99"/>
          <Node pos="r" depth="2" NCoef="0" IVar="-1" Cut="0.0000000000000000e+00" cType="1" res="-5.5665597756160423e-05" rms="4.6669971942901611e-01" purity="5.2792662382125854e-01" nType="-99"/>
        </Node>
      </Node>
    </BinaryTree>
    <BinaryTree type="DecisionTree" boostWeight="1.0000000000000000e+00" itree="675">
      <Node pos="s" depth="0" NCoef="0" IVar="4" Cut="2.7480404824018478e-03" cType="1" res="-5.7173846289515495e-03" rms="4.6205314993858337e-01" purity="4.9625793099403381e-01" nType="0">
        <Node pos="l" depth="1" NCoef="0" IVar="6" Cut="5.0086755752563477e+00" cType="1" res="8.0756406532600522e-04" rms="4.6350032091140747e-01" purity="5.2396428585052490e-01" nType="0">
          <Node pos="l" depth="2" NCoef="0" IVar="-1" Cut="0.0000000000000000e+00" cType="1" res="4.5568801579065621e-04" rms="4.6934020519256592e-01" purity="4.7568750381469727e-01" nType="-99"/>
          <Node pos="r" depth="2" NCoef="0" IVar="-1" Cut="0.0000000000000000e+00" cType="1" res="-1.7635739641264081e-03" rms="4.4128143787384033e-01" purity="6.9614630937576294e-01" nType="-99"/>
        </Node>
        <Node pos="r" depth="1" NCoef="0" IVar="0" Cut="1.1631311476230621e-01" cType="1" res="-3.5183366388082504e-02" rms="4.5429489016532898e-01" purity="3.7113887071609497e-01" nType="0">
          <Node pos="l" depth="2" NCoef="0" IVar="-1" Cut="0.0000000000000000e+00" cType="1" res="-7.3240027995780110e-04" rms="4.4773933291435242e-01" purity="3.6738792061805725e-01" nType="-99"/>
          <Node pos="r" depth="2" NCoef="0" IVar="-1" Cut="0.0000000000000000e+00" cType="1" res="-4.6133771538734436e-03" rms="4.6406903862953186e-01" purity="3.7896090745925903e-01" nType="-99"/>
        </Node>
      </Node>
    </BinaryTree>
    <BinaryTree type="DecisionTree" boostWeight="1.0000000000000000e+00" itree="676">
      <Node pos="s" depth="0" NCoef="0" IVar="1" Cut="2.6464545726776123e+00" cType="1" res="9.8895626142621040e-03" rms="4.6171924471855164e-01" purity="5.0907027721405029e-01" nType="0">
        <Node pos="l" depth="1" NCoef="0" IVar="3" Cut="1.4097142219543457e+00" cType="1" res="1.4331082813441753e-02" rms="4.6439483761787415e-01" purity="5.2775692939758301e-01" nType="0">
          <Node pos="l" depth="2" NCoef="0" IVar="-1" Cut="0.0000000000000000e+00" cType="1" res="1.8795715004671365e-04" rms="4.6886205673217773e-01" purity="5.5028086900711060e-01" nType="-99"/>
          <Node pos="r" depth="2" NCoef="0" IVar="-1" Cut="0.0000000000000000e+00" cType="1" res="1.9421752076596022e-03" rms="4.5755812525749207e-01" purity="4.9609509110450745e-01" nType="-99"/>
        </Node>
        <Node pos="r" depth="1" NCoef="0" IVar="-1" Cut="0.0000000000000000e+00" cType="1" res="-2.8195262420922518e-03" rms="4.2399135231971741e-01" purity="2.8103902935981750e-01" nType="-99"/>
      </Node>
    </BinaryTree>
    <BinaryTree type="DecisionTree" boostWeight="1.0000000000000000e+00" itree="677">
      <Node pos="s" depth="0" NCoef="0" IVar="0" Cut="1.3957236707210541e-01" cType="1" res="3.4064499777741730e-04" rms="4.6087810397148132e-01" purity="5.0541573762893677e-01" nType="0">
        <Node pos="l" depth="1" NCoef="0" IVar="6" Cut="2.4420516490936279e+00" cType="1" res="-8.9760860428214073e-03" rms="4.6445509791374207e-01" purity="4.7160455584526062e-01" nType="0">
          <Node pos="l" depth="2" NCoef="0" IVar="-1" Cut="0.0000000000000000e+00" cType="1" res="-2.8038900345563889e-03" rms="4.2368417978286743e-01" purity="2.5334757566452026e-01" nType="-99"/>
          <Node pos="r" depth="2" NCoef="0" IVar="-1" Cut="0.0000000000000000e+00" cType="1" res="2.8100645067752339e-05" rms="4.7447016835212708e-01" purity="5.3079223632812500e-01" nType="-99"/>
        </Node>
        <Node pos="r" depth="1" NCoef="0" IVar="3" Cut="1.3155452013015747e+00" cType="1" res="3.2915297895669937e-02" rms="4.4662216305732727e-01" purity="6.2363189458847046e-01" nType="0">
          <Node pos="l" depth="2" NCoef="0" IVar="-1" Cut="0.0000000000000000e+00" cType="1" res="5.0417128950357437e-03" rms="4.2985528707504272e-01" purity="6.9361305236816406e-01" nType="-99"/>
          <Node pos="r" depth="2" NCoef="0" IVar="-1" Cut="0.0000000000000000e+00" cType="1" res="-2.0352752471808344e-04" rms="4.6102932095527649e-01" purity="5.4935109615325928e-01" nType="-99"/>
        </Node>
      </Node>
    </BinaryTree>
    <BinaryTree type="DecisionTree" boostWeight="1.0000000000000000e+00" itree="678">
      <Node pos="s" depth="0" NCoef="0" IVar="3" Cut="6.7812162637710571e-01" cType="1" res="-3.6957400152459741e-04" rms="4.6157824993133545e-01" purity="5.0064849853515625e-01" nType="0">
        <Node pos="l" depth="1" NCoef="0" IVar="1" Cut="8.8841402530670166e-01" cType="1" res="4.7440335154533386e-02" rms="4.7250369191169739e-01" purity="5.6009334325790405e-01" nType="0">
          <Node pos="l" depth="2" NCoef="0" IVar="-1" Cut="0.0000000000000000e+00" cType="1" res="1.1663561454042792e-03" rms="4.7488829493522644e-01" purity="5.8810871839523315e-01" nType="-99"/>
          <Node pos="r" depth="2" NCoef="0" IVar="-1" Cut="0.0000000000000000e+00" cType="1" res="5.2910330705344677e-03" rms="4.6738252043724060e-01" purity="5.2725398540496826e-01" nType="-99"/>
        </Node>
        <Node pos="r" depth="1" NCoef="0" IVar="1" Cut="5.5384320020675659e-01" cType="1" res="-6.2557817436754704e-03" rms="4.5987167954444885e-01" purity="4.9332985281944275e-01" nType="0">
          <Node pos="l" depth="2" NCoef="0" IVar="-1" Cut="0.0000000000000000e+00" cType="1" res="1.5822213608771563e-03" rms="4.5611619949340820e-01" purity="6.0376381874084473e-01" nType="-99"/>
          <Node pos="r" depth="2" NCoef="0" IVar="-1" Cut="0.0000000000000000e+00" cType="1" res="-9.9463015794754028e-04" rms="4.6066954731941223e-01" purity="4.5784184336662292e-01" nType="-99"/>
        </Node>
      </Node>
    </BinaryTree>
    <BinaryTree type="DecisionTree" boostWeight="1.0000000000000000e+00" itree="679">
      <Node pos="s" depth="0" NCoef="0" IVar="5" Cut="8.6104089355468750e+02" cType="1" res="1.3462475035339594e-03" rms="4.6643564105033875e-01" purity="5.0425601005554199e-01" nType="0">
        <Node pos="l" depth="1" NCoef="0" IVar="0" Cut="2.0675225555896759e-01" cType="1" res="1.3455611653625965e-02" rms="4.6289110183715820e-01" purity="4.9684026837348938e-01" nType="0">
          <Node pos="l" depth="2" NCoef="0" IVar="-1" Cut="0.0000000000000000e+00" cType="1" res="5.0261558499187231e-04" rms="4.6431750059127808e-01" purity="4.7938305139541626e-01" nType="-99"/>
          <Node pos="r" depth="2" NCoef="0" IVar="-1" Cut="0.0000000000000000e+00" cType="1" res="5.5411066859960556e-03" rms="4.4194915890693665e-01" purity="6.8997496366500854e-01" nType="-99"/>
        </Node>
        <Node pos="r" depth="1" NCoef="0" IVar="5" Cut="9.3312780761718750e+02" cType="1" res="-3.0057650059461594e-02" rms="4.7406575083732605e-01" purity="5.2348786592483521e-01" nType="0">
          <Node pos="l" depth="2" NCoef="0" IVar="-1" Cut="0.0000000000000000e+00" cType="1" res="-4.9424176104366779e-03" rms="4.7376656532287598e-01" purity="4.7239923477172852e-01" nType="-99"/>
          <Node pos="r" depth="2" NCoef="0" IVar="-1" Cut="0.0000000000000000e+00" cType="1" res="-9.7149354405701160e-04" rms="4.7318086028099060e-01" purity="5.3930073976516724e-01" nType="-99"/>
        </Node>
      </Node>
    </BinaryTree>
    <BinaryTree type="DecisionTree" boostWeight="1.0000000000000000e+00" itree="680">
      <Node pos="s" depth="0" NCoef="0" IVar="5" Cut="6.6380480957031250e+02" cType="1" res="1.9117792544420809e-04" rms="4.6604478359222412e-01" purity="5.0363856554031372e-01" nType="0">
        <Node pos="l" depth="1" NCoef="0" IVar="0" Cut="1.0683112591505051e-01" cType="1" res="2.0779607817530632e-02" rms="4.6198001503944397e-01" purity="4.7340020537376404e-01" nType="0">
          <Node pos="l" depth="2" NCoef="0" IVar="-1" Cut="0.0000000000000000e+00" cType="1" res="-2.6294132112525403e-04" rms="4.5598474144935608e-01" purity="3.8930490612983704e-01" nType="-99"/>
          <Node pos="r" depth="2" NCoef="0" IVar="-1" Cut="0.0000000000000000e+00" cType="1" res="3.2573111820966005e-03" rms="4.6710482239723206e-01" purity="5.6927168369293213e-01" nType="-99"/>
        </Node>
        <Node pos="r" depth="1" NCoef="0" IVar="0" Cut="1.5606357157230377e-01" cType="1" res="-1.6567461192607880e-02" rms="4.6866020560264587e-01" purity="5.2825206518173218e-01" nType="0">
          <Node pos="l" depth="2" NCoef="0" IVar="-1" Cut="0.0000000000000000e+00" cType="1" res="-5.2306917496025562e-04" rms="4.6826851367950439e-01" purity="5.2037644386291504e-01" nType="-99"/>
          <Node pos="r" depth="2" NCoef="0" IVar="-1" Cut="0.0000000000000000e+00" cType="1" res="-5.2714226767420769e-03" rms="4.6724006533622742e-01" purity="5.8405649662017822e-01" nType="-99"/>
        </Node>
      </Node>
    </BinaryTree>
    <BinaryTree type="DecisionTree" boostWeight="1.0000000000000000e+00" itree="681">
      <Node pos="s" depth="0" NCoef="0" IVar="3" Cut="9.6057736873626709e-01" cType="1" res="-1.7071963520720601e-03" rms="4.6582612395286560e-01" purity="5.0230306386947632e-01" nType="0">
        <Node pos="l" depth="1" NCoef="0" IVar="6" Cut="3.7765696048736572e+00" cType="1" res="-3.0295979231595993e-02" rms="4.6321877837181091e-01" purity="4.9313902854919434e-01" nType="0">
          <Node pos="l" depth="2" NCoef="0" IVar="-1" Cut="0.0000000000000000e+00" cType="1" res="-3.1354406382888556e-03" rms="4.6441084146499634e-01" purity="3.5396233201026917e-01" nType="-99"/>
          <Node pos="r" depth="2" NCoef="0" IVar="-1" Cut="0.0000000000000000e+00" cType="1" res="-1.9899076141882688e-04" rms="4.6025437116622925e-01" purity="6.6686338186264038e-01" nType="-99"/>
        </Node>
        <Node pos="r" depth="1" NCoef="0" IVar="4" Cut="1.2954763369634748e-03" cType="1" res="9.9600916728377342e-03" rms="4.6638277173042297e-01" purity="5.0604289770126343e-01" nType="0">
          <Node pos="l" depth="2" NCoef="0" IVar="-1" Cut="0.0000000000000000e+00" cType="1" res="-4.2535245302133262e-04" rms="4.6466213464736938e-01" purity="5.5332142114639282e-01" nType="-99"/>
          <Node pos="r" depth="2" NCoef="0" IVar="-1" Cut="0.0000000000000000e+00" cType="1" res="1.8219584599137306e-03" rms="4.6769481897354126e-01" purity="4.4936513900756836e-01" nType="-99"/>
        </Node>
      </Node>
    </BinaryTree>
    <BinaryTree type="DecisionTree" boostWeight="1.0000000000000000e+00" itree="682">
      <Node pos="s" depth="0" NCoef="0" IVar="2" Cut="6.5090239048004150e-01" cType="1" res="-7.8124394640326500e-03" rms="4.6541801095008850e-01" purity="4.9235737323760986e-01" nType="0">
        <Node pos="l" depth="1" NCoef="0" IVar="6" Cut="5.5808043479919434e+00" cType="1" res="3.4310456831008196e-03" rms="4.6530717611312866e-01" purity="4.5178562402725220e-01" nType="0">
          <Node pos="l" depth="2" NCoef="0" IVar="-1" Cut="0.0000000000000000e+00" cType="1" res="6.0385814867913723e-04" rms="4.6447506546974182e-01" purity="4.3511265516281128e-01" nType="-99"/>
          <Node pos="r" depth="2" NCoef="0" IVar="-1" Cut="0.0000000000000000e+00" cType="1" res="-4.7105886042118073e-03" rms="4.6875405311584473e-01" purity="6.3392144441604614e-01" nType="-99"/>
        </Node>
        <Node pos="r" depth="1" NCoef="0" IVar="4" Cut="2.9096873477101326e-03" cType="1" res="-2.5345006957650185e-02" rms="4.6504870057106018e-01" purity="5.5562305450439453e-01" nType="0">
          <Node pos="l" depth="2" NCoef="0" IVar="-1" Cut="0.0000000000000000e+00" cType="1" res="-8.2852278137579560e-04" rms="4.6293312311172485e-01" purity="5.8666366338729858e-01" nType="-99"/>
          <Node pos="r" depth="2" NCoef="0" IVar="-1" Cut="0.0000000000000000e+00" cType="1" res="-5.9266416355967522e-03" rms="4.6962550282478333e-01" purity="3.7188294529914856e-01" nType="-99"/>
        </Node>
      </Node>
    </BinaryTree>
    <BinaryTree type="DecisionTree" boostWeight="1.0000000000000000e+00" itree="683">
      <Node pos="s" depth="0" NCoef="0" IVar="1" Cut="1.8710030317306519e+00" cType="1" res="-7.4269450269639492e-03" rms="4.6305093169212341e-01" purity="4.9485766887664795e-01" nType="0">
        <Node pos="l" depth="1" NCoef="0" IVar="1" Cut="8.6138236522674561e-01" cType="1" res="-1.2095401762053370e-03" rms="4.6787539124488831e-01" purity="5.3324264287948608e-01" nType="0">
          <Node pos="l" depth="2" NCoef="0" IVar="-1" Cut="0.0000000000000000e+00" cType="1" res="-1.4445447595790029e-03" rms="4.6803700923919678e-01" purity="5.4831874370574951e-01" nType="-99"/>
          <Node pos="r" depth="2" NCoef="0" IVar="-1" Cut="0.0000000000000000e+00" cType="1" res="1.5633861767128110e-03" rms="4.6638864278793335e-01" purity="5.1466006040573120e-01" nType="-99"/>
        </Node>
        <Node pos="r" depth="1" NCoef="0" IVar="3" Cut="1.4303189516067505e+00" cType="1" res="-3.5170339047908783e-02" rms="4.3981027603149414e-01" purity="3.2357561588287354e-01" nType="0">
          <Node pos="l" depth="2" NCoef="0" IVar="-1" Cut="0.0000000000000000e+00" cType="1" res="-4.2753349989652634e-03" rms="4.5261096954345703e-01" purity="3.2190185785293579e-01" nType="-99"/>
          <Node pos="r" depth="2" NCoef="0" IVar="-1" Cut="0.0000000000000000e+00" cType="1" res="-1.9220479589421302e-04" rms="4.2527338862419128e-01" purity="3.2509934902191162e-01" nType="-99"/>
        </Node>
      </Node>
    </BinaryTree>
    <BinaryTree type="DecisionTree" boostWeight="1.0000000000000000e+00" itree="684">
      <Node pos="s" depth="0" NCoef="0" IVar="6" Cut="1.6795074939727783e+00" cType="1" res="1.9815550185739994e-03" rms="4.6526864171028137e-01" purity="4.9874082207679749e-01" nType="0">
        <Node pos="l" depth="1" NCoef="0" IVar="-1" Cut="0.0000000000000000e+00" cType="1" res="-4.2171562090516090e-03" rms="4.1510391235351562e-01" purity="2.2540771961212158e-01" nType="-99"/>
        <Node pos="r" depth="1" NCoef="0" IVar="2" Cut="4.7560822963714600e-01" cType="1" res="6.5705734305083752e-03" rms="4.6821123361587524e-01" purity="5.1774615049362183e-01" nType="0">
          <Node pos="l" depth="2" NCoef="0" IVar="-1" Cut="0.0000000000000000e+00" cType="1" res="-1.5818472020328045e-03" rms="4.6022024750709534e-01" purity="3.8603553175926208e-01" nType="-99"/>
          <Node pos="r" depth="2" NCoef="0" IVar="-1" Cut="0.0000000000000000e+00" cType="1" res="1.0235948720946908e-03" rms="4.7001332044601440e-01" purity="5.5457186698913574e-01" nType="-99"/>
        </Node>
      </Node>
    </BinaryTree>
    <BinaryTree type="DecisionTree" boostWeight="1.0000000000000000e+00" itree="685">
      <Node pos="s" depth="0" NCoef="0" IVar="3" Cut="8.1958889961242676e-01" cType="1" res="4.1030873544514179e-03" rms="4.6166640520095825e-01" purity="5.0354301929473877e-01" nType="0">
        <Node pos="l" depth="1" NCoef="0" IVar="3" Cut="6.8891441822052002e-01" cType="1" res="4.2974807322025299e-02" rms="4.6228668093681335e-01" purity="5.6905275583267212e-01" nType="0">
          <Node pos="l" depth="2" NCoef="0" IVar="-1" Cut="0.0000000000000000e+00" cType="1" res="1.1549940099939704e-03" rms="4.6987155079841614e-01" purity="5.3034538030624390e-01" nType="-99"/>
          <Node pos="r" depth="2" NCoef="0" IVar="-1" Cut="0.0000000000000000e+00" cType="1" res="5.3097885102033615e-03" rms="4.4818639755249023e-01" purity="6.2683695554733276e-01" nType="-99"/>
        </Node>
        <Node pos="r" depth="1" NCoef="0" IVar="4" Cut="1.0430611437186599e-03" cType="1" res="-5.6015611626207829e-03" rms="4.6100038290023804e-01" purity="4.8718792200088501e-01" nType="0">
          <Node pos="l" depth="2" NCoef="0" IVar="-1" Cut="0.0000000000000000e+00" cType="1" res="1.0553487809374928e-03" rms="4.5732924342155457e-01" purity="5.7794779539108276e-01" nType="-99"/>
          <Node pos="r" depth="2" NCoef="0" IVar="-1" Cut="0.0000000000000000e+00" cType="1" res="-1.4184756437316537e-03" rms="4.6337440609931946e-01" purity="4.0912044048309326e-01" nType="-99"/>
        </Node>
      </Node>
    </BinaryTree>
    <BinaryTree type="DecisionTree" boostWeight="1.0000000000000000e+00" itree="686">
      <Node pos="s" depth="0" NCoef="0" IVar="1" Cut="2.7258300781250000e+00" cType="1" res="-7.4622384272515774e-04" rms="4.6419867873191833e-01" purity="5.0139087438583374e-01" nType="0">
        <Node pos="l" depth="1" NCoef="0" IVar="3" Cut="1.3803486824035645e+00" cType="1" res="4.0749972686171532e-03" rms="4.6839642524719238e-01" purity="5.1910823583602905e-01" nType="0">
          <Node pos="l" depth="2" NCoef="0" IVar="-1" Cut="0.0000000000000000e+00" cType="1" res="-6.7891762591898441e-04" rms="4.6805468201637268e-01" purity="5.3692167997360229e-01" nType="-99"/>
          <Node pos="r" depth="2" NCoef="0" IVar="-1" Cut="0.0000000000000000e+00" cType="1" res="1.4853056054562330e-03" rms="4.6816274523735046e-01" purity="4.9580428004264832e-01" nType="-99"/>
        </Node>
        <Node pos="r" depth="1" NCoef="0" IVar="-1" Cut="0.0000000000000000e+00" cType="1" res="-4.6461611054837704e-03" rms="3.9165431261062622e-01" purity="2.4411061406135559e-01" nType="-99"/>
      </Node>
    </BinaryTree>
    <BinaryTree type="DecisionTree" boostWeight="1.0000000000000000e+00" itree="687">
      <Node pos="s" depth="0" NCoef="0" IVar="2" Cut="7.2385531663894653e-01" cType="1" res="-2.2742117289453745e-03" rms="4.6225410699844360e-01" purity="4.9715206027030945e-01" nType="0">
        <Node pos="l" depth="1" NCoef="0" IVar="3" Cut="1.5169029235839844e+00" cType="1" res="-1.1242601089179516e-02" rms="4.6511369943618774e-01" purity="4.5351991057395935e-01" nType="0">
          <Node pos="l" depth="2" NCoef="0" IVar="-1" Cut="0.0000000000000000e+00" cType="1" res="6.0245387430768460e-05" rms="4.6955028176307678e-01" purity="5.0253200531005859e-01" nType="-99"/>
          <Node pos="r" depth="2" NCoef="0" IVar="-1" Cut="0.0000000000000000e+00" cType="1" res="-1.8798479577526450e-03" rms="4.5740118622779846e-01" purity="3.7653377652168274e-01" nType="-99"/>
        </Node>
        <Node pos="r" depth="1" NCoef="0" IVar="0" Cut="8.1392310559749603e-02" cType="1" res="2.6554254814982414e-02" rms="4.5173534750938416e-01" purity="6.3740539550781250e-01" nType="0">
          <Node pos="l" depth="2" NCoef="0" IVar="-1" Cut="0.0000000000000000e+00" cType="1" res="5.8078556321561337e-03" rms="4.4090154767036438e-01" purity="6.6921353340148926e-01" nType="-99"/>
          <Node pos="r" depth="2" NCoef="0" IVar="-1" Cut="0.0000000000000000e+00" cType="1" res="5.2397733088582754e-04" rms="4.5378902554512024e-01" purity="6.2659090757369995e-01" nType="-99"/>
        </Node>
      </Node>
    </BinaryTree>
    <BinaryTree type="DecisionTree" boostWeight="1.0000000000000000e+00" itree="688">
      <Node pos="s" depth="0" NCoef="0" IVar="3" Cut="7.7378493547439575e-01" cType="1" res="3.7203903775662184e-03" rms="4.6629112958908081e-01" purity="5.0468283891677856e-01" nType="0">
        <Node pos="l" depth="1" NCoef="0" IVar="5" Cut="8.6779040527343750e+02" cType="1" res="-3.5228203982114792e-02" rms="4.6577131748199463e-01" purity="4.8650380969047546e-01" nType="0">
          <Node pos="l" depth="2" NCoef="0" IVar="-1" Cut="0.0000000000000000e+00" cType="1" res="-4.1577937081456184e-03" rms="4.6208468079566956e-01" purity="4.2420205473899841e-01" nType="-99"/>
          <Node pos="r" depth="2" NCoef="0" IVar="-1" Cut="0.0000000000000000e+00" cType="1" res="1.6457630554214120e-03" rms="4.6654856204986572e-01" purity="6.0134369134902954e-01" nType="-99"/>
        </Node>
        <Node pos="r" depth="1" NCoef="0" IVar="2" Cut="5.2890306711196899e-01" cType="1" res="1.1845485307276249e-02" rms="4.6598929166793823e-01" purity="5.0847518444061279e-01" nType="0">
          <Node pos="l" depth="2" NCoef="0" IVar="-1" Cut="0.0000000000000000e+00" cType="1" res="2.7904869057238102e-03" rms="4.6651196479797363e-01" purity="4.5543214678764343e-01" nType="-99"/>
          <Node pos="r" depth="2" NCoef="0" IVar="-1" Cut="0.0000000000000000e+00" cType="1" res="-2.2545957472175360e-04" rms="4.6496894955635071e-01" purity="5.3430587053298950e-01" nType="-99"/>
        </Node>
      </Node>
    </BinaryTree>
    <BinaryTree type="DecisionTree" boostWeight="1.0000000000000000e+00" itree="689">
      <Node pos="s" depth="0" NCoef="0" IVar="3" Cut="1.2683476209640503e+00" cType="1" res="1.0106951231136918e-03" rms="4.6327623724937439e-01" purity="5.0915545225143433e-01" nType="0">
        <Node pos="l" depth="1" NCoef="0" IVar="5" Cut="9.0059606933593750e+02" cType="1" res="2.3564863950014114e-02" rms="4.6030193567276001e-01" purity="5.6910723447799683e-01" nType="0">
          <Node pos="l" depth="2" NCoef="0" IVar="-1" Cut="0.0000000000000000e+00" cType="1" res="3.8705207407474518e-04" rms="4.6091705560684204e-01" purity="5.3415161371231079e-01" nType="-99"/>
          <Node pos="r" depth="2" NCoef="0" IVar="-1" Cut="0.0000000000000000e+00" cType="1" res="4.6202233061194420e-03" rms="4.5567044615745544e-01" purity="6.5781331062316895e-01" nType="-99"/>
        </Node>
        <Node pos="r" depth="1" NCoef="0" IVar="4" Cut="1.5999533934518695e-04" cType="1" res="-1.9902339205145836e-02" rms="4.6504083275794983e-01" purity="4.5356601476669312e-01" nType="0">
          <Node pos="l" depth="2" NCoef="0" IVar="-1" Cut="0.0000000000000000e+00" cType="1" res="3.3328933641314507e-03" rms="4.5092949271202087e-01" purity="6.8115997314453125e-01" nType="-99"/>
          <Node pos="r" depth="2" NCoef="0" IVar="-1" Cut="0.0000000000000000e+00" cType="1" res="-1.9404074409976602e-03" rms="4.6665596961975098e-01" purity="4.1131678223609924e-01" nType="-99"/>
        </Node>
      </Node>
    </BinaryTree>
    <BinaryTree type="DecisionTree" boostWeight="1.0000000000000000e+00" itree="690">
      <Node pos="s" depth="0" NCoef="0" IVar="6" Cut="5.4987368583679199e+00" cType="1" res="-1.9060410559177399e-03" rms="4.6357229351997375e-01" purity="4.9924451112747192e-01" nType="0">
        <Node pos="l" depth="1" NCoef="0" IVar="4" Cut="1.6005744691938162e-04" cType="1" res="2.2690868936479092e-03" rms="4.6676844358444214e-01" purity="4.7436422109603882e-01" nType="0">
          <Node pos="l" depth="2" NCoef="0" IVar="-1" Cut="0.0000000000000000e+00" cType="1" res="2.7515187393873930e-03" rms="4.5854216814041138e-01" purity="6.4211761951446533e-01" nType="-99"/>
          <Node pos="r" depth="2" NCoef="0" IVar="-1" Cut="0.0000000000000000e+00" cType="1" res="-1.3883918290957808e-04" rms="4.6761804819107056e-01" purity="4.5289543271064758e-01" nType="-99"/>
        </Node>
        <Node pos="r" depth="1" NCoef="0" IVar="2" Cut="6.3460177183151245e-01" cType="1" res="-3.6373440176248550e-02" rms="4.3476426601409912e-01" purity="7.0464158058166504e-01" nType="0">
          <Node pos="l" depth="2" NCoef="0" IVar="-1" Cut="0.0000000000000000e+00" cType="1" res="-3.4353188239037991e-03" rms="4.6049717068672180e-01" purity="6.2916487455368042e-01" nType="-99"/>
          <Node pos="r" depth="2" NCoef="0" IVar="-1" Cut="0.0000000000000000e+00" cType="1" res="-2.3611236829310656e-03" rms="4.0675726532936096e-01" purity="7.8070569038391113e-01" nType="-99"/>
        </Node>
      </Node>
    </BinaryTree>
    <BinaryTree type="DecisionTree" boostWeight="1.0000000000000000e+00" itree="691">
      <Node pos="s" depth="0" NCoef="0" IVar="1" Cut="1.0601119995117188e+00" cType="1" res="3.3418238162994385e-03" rms="4.6477165818214417e-01" purity="5.0134652853012085e-01" nType="0">
        <Node pos="l" depth="1" NCoef="0" IVar="4" Cut="1.6083633818197995e-04" cType="1" res="2.2191744297742844e-02" rms="4.6293422579765320e-01" purity="5.7683235406875610e-01" nType="0">
          <Node pos="l" depth="2" NCoef="0" IVar="-1" Cut="0.0000000000000000e+00" cType="1" res="-1.2369477190077305e-03" rms="4.3256568908691406e-01" purity="6.9881081581115723e-01" nType="-99"/>
          <Node pos="r" depth="2" NCoef="0" IVar="-1" Cut="0.0000000000000000e+00" cType="1" res="1.8858044641092420e-03" rms="4.6818885207176208e-01" purity="5.5348509550094604e-01" nType="-99"/>
        </Node>
        <Node pos="r" depth="1" NCoef="0" IVar="1" Cut="1.3423191308975220e+00" cType="1" res="-1.7839653417468071e-02" rms="4.6591868996620178e-01" purity="4.1652387380599976e-01" nType="0">
          <Node pos="l" depth="2" NCoef="0" IVar="-1" Cut="0.0000000000000000e+00" cType="1" res="-3.2902017701417208e-03" rms="4.7017240524291992e-01" purity="4.5629632472991943e-01" nType="-99"/>
          <Node pos="r" depth="2" NCoef="0" IVar="-1" Cut="0.0000000000000000e+00" cType="1" res="-3.3199210884049535e-04" rms="4.6375703811645508e-01" purity="4.0243476629257202e-01" nType="-99"/>
        </Node>
      </Node>
    </BinaryTree>
    <BinaryTree type="DecisionTree" boostWeight="1.0000000000000000e+00" itree="692">
      <Node pos="s" depth="0" NCoef="0" IVar="5" Cut="4.4811209106445312e+02" cType="1" res="6.2735243700444698e-03" rms="4.6747529506683350e-01" purity="5.0577503442764282e-01" nType="0">
        <Node pos="l" depth="1" NCoef="0" IVar="-1" Cut="0.0000000000000000e+00" cType="1" res="4.9874698743224144e-03" rms="4.5169281959533691e-01" purity="4.3398261070251465e-01" nType="-99"/>
        <Node pos="r" depth="1" NCoef="0" IVar="3" Cut="6.0821032524108887e-01" cType="1" res="1.0733096860349178e-03" rms="4.6825876832008362e-01" purity="5.1128166913986206e-01" nType="0">
          <Node pos="l" depth="2" NCoef="0" IVar="-1" Cut="0.0000000000000000e+00" cType="1" res="4.2125321924686432e-03" rms="4.7402232885360718e-01" purity="5.9104037284851074e-01" nType="-99"/>
          <Node pos="r" depth="2" NCoef="0" IVar="-1" Cut="0.0000000000000000e+00" cType="1" res="-2.7701011276803911e-04" rms="4.6737071871757507e-01" purity="5.0462746620178223e-01" nType="-99"/>
        </Node>
      </Node>
    </BinaryTree>
    <BinaryTree type="DecisionTree" boostWeight="1.0000000000000000e+00" itree="693">
      <Node pos="s" depth="0" NCoef="0" IVar="2" Cut="5.2705401182174683e-01" cType="1" res="-2.5740084238350391e-03" rms="4.6011778712272644e-01" purity="4.9765688180923462e-01" nType="0">
        <Node pos="l" depth="1" NCoef="0" IVar="4" Cut="2.7280221693217754e-03" cType="1" res="-2.3944312706589699e-02" rms="4.5891928672790527e-01" purity="3.9098390936851501e-01" nType="0">
          <Node pos="l" depth="2" NCoef="0" IVar="-1" Cut="0.0000000000000000e+00" cType="1" res="-2.3001437075436115e-03" rms="4.6270230412483215e-01" purity="3.9889806509017944e-01" nType="-99"/>
          <Node pos="r" depth="2" NCoef="0" IVar="-1" Cut="0.0000000000000000e+00" cType="1" res="2.1374395582824945e-03" rms="4.3797773122787476e-01" purity="3.5754203796386719e-01" nType="-99"/>
        </Node>
        <Node pos="r" depth="1" NCoef="0" IVar="0" Cut="8.5256651043891907e-02" cType="1" res="7.8893154859542847e-03" rms="4.6034181118011475e-01" purity="5.4988604784011841e-01" nType="0">
          <Node pos="l" depth="2" NCoef="0" IVar="-1" Cut="0.0000000000000000e+00" cType="1" res="2.1895235404372215e-03" rms="4.6114745736122131e-01" purity="5.3527599573135376e-01" nType="-99"/>
          <Node pos="r" depth="2" NCoef="0" IVar="-1" Cut="0.0000000000000000e+00" cType="1" res="-5.9184094425290823e-04" rms="4.5904701948165894e-01" purity="5.5903875827789307e-01" nType="-99"/>
        </Node>
      </Node>
    </BinaryTree>
    <BinaryTree type="DecisionTree" boostWeight="1.0000000000000000e+00" itree="694">
      <Node pos="s" depth="0" NCoef="0" IVar="3" Cut="9.4301068782806396e-01" cType="1" res="1.3973278924822807e-02" rms="4.6430087089538574e-01" purity="5.1795631647109985e-01" nType="0">
        <Node pos="l" depth="1" NCoef="0" IVar="0" Cut="9.8621375858783722e-02" cType="1" res="-2.5842351838946342e-02" rms="4.6608760952949524e-01" purity="5.1488465070724487e-01" nType="0">
          <Node pos="l" depth="2" NCoef="0" IVar="-1" Cut="0.0000000000000000e+00" cType="1" res="-2.7984736952930689e-03" rms="4.6781885623931885e-01" purity="4.6329790353775024e-01" nType="-99"/>
          <Node pos="r" depth="2" NCoef="0" IVar="-1" Cut="0.0000000000000000e+00" cType="1" res="4.5023689744994044e-04" rms="4.6142241358757019e-01" purity="5.9901571273803711e-01" nType="-99"/>
        </Node>
        <Node pos="r" depth="1" NCoef="0" IVar="6" Cut="3.5067679882049561e+00" cType="1" res="2.9655978083610535e-02" rms="4.6265557408332825e-01" purity="5.1916617155075073e-01" nType="0">
          <Node pos="l" depth="2" NCoef="0" IVar="-1" Cut="0.0000000000000000e+00" cType="1" res="4.3095668661408126e-04" rms="4.6626597642898560e-01" purity="3.7342688441276550e-01" nType="-99"/>
          <Node pos="r" depth="2" NCoef="0" IVar="-1" Cut="0.0000000000000000e+00" cType="1" res="3.4056100994348526e-03" rms="4.5845246315002441e-01" purity="6.4940112829208374e-01" nType="-99"/>
        </Node>
      </Node>
    </BinaryTree>
    <BinaryTree type="DecisionTree" boostWeight="1.0000000000000000e+00" itree="695">
      <Node pos="s" depth="0" NCoef="0" IVar="2" Cut="7.8667098283767700e-01" cType="1" res="-6.1401831917464733e-03" rms="4.6298980712890625e-01" purity="4.9174225330352783e-01" nType="0">
        <Node pos="l" depth="1" NCoef="0" IVar="1" Cut="6.9705635309219360e-01" cType="1" res="-1.2482643127441406e-02" rms="4.6616494655609131e-01" purity="4.6662214398384094e-01" nType="0">
          <Node pos="l" depth="2" NCoef="0" IVar="-1" Cut="0.0000000000000000e+00" cType="1" res="-2.2644619457423687e-03" rms="4.6872177720069885e-01" purity="5.1758068799972534e-01" nType="-99"/>
          <Node pos="r" depth="2" NCoef="0" IVar="-1" Cut="0.0000000000000000e+00" cType="1" res="-1.2299919035285711e-04" rms="4.6460562944412231e-01" purity="4.4317254424095154e-01" nType="-99"/>
        </Node>
        <Node pos="r" depth="1" NCoef="0" IVar="5" Cut="7.3600604248046875e+02" cType="1" res="4.0098175406455994e-02" rms="4.3637204170227051e-01" purity="6.7487519979476929e-01" nType="0">
          <Node pos="l" depth="2" NCoef="0" IVar="-1" Cut="0.0000000000000000e+00" cType="1" res="-4.3081448529846966e-04" rms="4.5706418156623840e-01" purity="5.9447658061981201e-01" nType="-99"/>
          <Node pos="r" depth="2" NCoef="0" IVar="-1" Cut="0.0000000000000000e+00" cType="1" res="6.9534042850136757e-03" rms="4.0871450304985046e-01" purity="7.5706714391708374e-01" nType="-99"/>
        </Node>
      </Node>
    </BinaryTree>
    <BinaryTree type="DecisionTree" boostWeight="1.0000000000000000e+00" itree="696">
      <Node pos="s" depth="0" NCoef="0" IVar="2" Cut="7.1222954988479614e-01" cType="1" res="-1.0903254151344299e-02" rms="4.6813240647315979e-01" purity="4.9236345291137695e-01" nType="0">
        <Node pos="l" depth="1" NCoef="0" IVar="0" Cut="6.4056843519210815e-02" cType="1" res="9.4267854001373053e-04" rms="4.6474900841712952e-01" purity="4.6554422378540039e-01" nType="0">
          <Node pos="l" depth="2" NCoef="0" IVar="-1" Cut="0.0000000000000000e+00" cType="1" res="1.3271316420286894e-03" rms="4.6630439162254333e-01" purity="4.5080658793449402e-01" nType="-99"/>
          <Node pos="r" depth="2" NCoef="0" IVar="-1" Cut="0.0000000000000000e+00" cType="1" res="-1.0881503112614155e-03" rms="4.6260556578636169e-01" purity="4.7867870330810547e-01" nType="-99"/>
        </Node>
        <Node pos="r" depth="1" NCoef="0" IVar="1" Cut="1.2478933334350586e+00" cType="1" res="-4.4736787676811218e-02" rms="4.7604331374168396e-01" purity="5.6896251440048218e-01" nType="0">
          <Node pos="l" depth="2" NCoef="0" IVar="-1" Cut="0.0000000000000000e+00" cType="1" res="-4.1274758987128735e-03" rms="4.7716414928436279e-01" purity="5.6646287441253662e-01" nType="-99"/>
          <Node pos="r" depth="2" NCoef="0" IVar="-1" Cut="0.0000000000000000e+00" cType="1" res="1.2026660842821002e-03" rms="4.6629917621612549e-01" purity="5.7872414588928223e-01" nType="-99"/>
        </Node>
      </Node>
    </BinaryTree>
    <BinaryTree type="DecisionTree" boostWeight="1.0000000000000000e+00" itree="697">
      <Node pos="s" depth="0" NCoef="0" IVar="2" Cut="5.7114231586456299e-01" cType="1" res="4.1942764073610306e-03" rms="4.6523684263229370e-01" purity="5.0461924076080322e-01" nType="0">
        <Node pos="l" depth="1" NCoef="0" IVar="4" Cut="1.5402295393869281e-03" cType="1" res="2.7302384376525879e-02" rms="4.6533310413360596e-01" purity="4.5608311891555786e-01" nType="0">
          <Node pos="l" depth="2" NCoef="0" IVar="-1" Cut="0.0000000000000000e+00" cType="1" res="2.8566862456500530e-03" rms="4.6520569920539856e-01" purity="5.2723294496536255e-01" nType="-99"/>
          <Node pos="r" depth="2" NCoef="0" IVar="-1" Cut="0.0000000000000000e+00" cType="1" res="2.2137929045129567e-04" rms="4.6448999643325806e-01" purity="3.5415866971015930e-01" nType="-99"/>
        </Node>
        <Node pos="r" depth="1" NCoef="0" IVar="2" Cut="7.1847164630889893e-01" cType="1" res="-1.2923673726618290e-02" rms="4.6442475914955139e-01" purity="5.4057365655899048e-01" nType="0">
          <Node pos="l" depth="2" NCoef="0" IVar="-1" Cut="0.0000000000000000e+00" cType="1" res="-1.8843368161469698e-03" rms="4.6766224503517151e-01" purity="4.8027992248535156e-01" nType="-99"/>
          <Node pos="r" depth="2" NCoef="0" IVar="-1" Cut="0.0000000000000000e+00" cType="1" res="7.7238189987838268e-04" rms="4.5881155133247375e-01" purity="6.2412023544311523e-01" nType="-99"/>
        </Node>
      </Node>
    </BinaryTree>
    <BinaryTree type="DecisionTree" boostWeight="1.0000000000000000e+00" itree="698">
      <Node pos="s" depth="0" NCoef="0" IVar="2" Cut="3.9749068021774292e-01" cType="1" res="-2.0157112739980221e-03" rms="4.6651539206504822e-01" purity="5.0138759613037109e-01" nType="0">
        <Node pos="l" depth="1" NCoef="0" IVar="-1" Cut="0.0000000000000000e+00" cType="1" res="4.8519540578126907e-03" rms="4.5880845189094543e-01" purity="4.4173130393028259e-01" nType="-99"/>
        <Node pos="r" depth="1" NCoef="0" IVar="5" Cut="9.5150585937500000e+02" cType="1" res="-7.7091800048947334e-03" rms="4.6661359071731567e-01" purity="5.0596183538436890e-01" nType="0">
          <Node pos="l" depth="2" NCoef="0" IVar="-1" Cut="0.0000000000000000e+00" cType="1" res="6.6477419750299305e-05" rms="4.6425870060920715e-01" purity="4.9925211071968079e-01" nType="-99"/>
          <Node pos="r" depth="2" NCoef="0" IVar="-1" Cut="0.0000000000000000e+00" cType="1" res="-2.5312246289104223e-03" rms="4.7387254238128662e-01" purity="5.3097599744796753e-01" nType="-99"/>
        </Node>
      </Node>
    </BinaryTree>
    <BinaryTree type="DecisionTree" boostWeight="1.0000000000000000e+00" itree="699">
      <Node pos="s" depth="0" NCoef="0" IVar="6" Cut="4.4012646675109863e+00" cType="1" res="-2.7345477137714624e-03" rms="4.6689450740814209e-01" purity="4.9940368533134460e-01" nType="0">
        <Node pos="l" depth="1" NCoef="0" IVar="3" Cut="6.3969326019287109e-01" cType="1" res="7.9945353791117668e-03" rms="4.6865132451057434e-01" purity="4.3332704901695251e-01" nType="0">
          <Node pos="l" depth="2" NCoef="0" IVar="-1" Cut="0.0000000000000000e+00" cType="1" res="3.8689929060637951e-03" rms="4.8302924633026123e-01" purity="5.0218176841735840e-01" nType="-99"/>
          <Node pos="r" depth="2" NCoef="0" IVar="-1" Cut="0.0000000000000000e+00" cType="1" res="1.3794939150102437e-04" rms="4.6676108241081238e-01" purity="4.2619714140892029e-01" nType="-99"/>
        </Node>
        <Node pos="r" depth="1" NCoef="0" IVar="1" Cut="6.7153292894363403e-01" cType="1" res="-2.6387723162770271e-02" rms="4.6211889386177063e-01" purity="6.4507526159286499e-01" nType="0">
          <Node pos="l" depth="2" NCoef="0" IVar="-1" Cut="0.0000000000000000e+00" cType="1" res="-4.8341066576540470e-03" rms="4.5205891132354736e-01" purity="6.7203986644744873e-01" nType="-99"/>
          <Node pos="r" depth="2" NCoef="0" IVar="-1" Cut="0.0000000000000000e+00" cType="1" res="-5.9994874754920602e-04" rms="4.6611618995666504e-01" purity="6.3148576021194458e-01" nType="-99"/>
        </Node>
      </Node>
    </BinaryTree>
    <BinaryTree type="DecisionTree" boostWeight="1.0000000000000000e+00" itree="700">
      <Node pos="s" depth="0" NCoef="0" IVar="5" Cut="1.0628039550781250e+03" cType="1" res="-3.6705296952277422e-03" rms="4.6675449609756470e-01" purity="4.9841129779815674e-01" nType="0">
        <Node pos="l" depth="1" NCoef="0" IVar="0" Cut="9.7614042460918427e-02" cType="1" res="6.2057254835963249e-03" rms="4.6412065625190735e-01" purity="4.9801436066627502e-01" nType="0">
          <Node pos="l" depth="2" NCoef="0" IVar="-1" Cut="0.0000000000000000e+00" cType="1" res="-5.2848405903205276e-04" rms="4.6857649087905884e-01" purity="4.3684867024421692e-01" nType="-99"/>
          <Node pos="r" depth="2" NCoef="0" IVar="-1" Cut="0.0000000000000000e+00" cType="1" res="1.7114153597503901e-03" rms="4.5741087198257446e-01" purity="5.7929503917694092e-01" nType="-99"/>
        </Node>
        <Node pos="r" depth="1" NCoef="0" IVar="0" Cut="6.6336378455162048e-02" cType="1" res="-5.9981700032949448e-02" rms="4.7761052846908569e-01" purity="5.0067466497421265e-01" nType="0">
          <Node pos="l" depth="2" NCoef="0" IVar="-1" Cut="0.0000000000000000e+00" cType="1" res="-1.9437674200162292e-03" rms="4.7456505894660950e-01" purity="4.9552756547927856e-01" nType="-99"/>
          <Node pos="r" depth="2" NCoef="0" IVar="-1" Cut="0.0000000000000000e+00" cType="1" res="-7.0694712921977043e-03" rms="4.7892612218856812e-01" purity="5.1003134250640869e-01" nType="-99"/>
        </Node>
      </Node>
    </BinaryTree>
    <BinaryTree type="DecisionTree" boostWeight="1.0000000000000000e+00" itree="701">
      <Node pos="s" depth="0" NCoef="0" IVar="0" Cut="1.7747552692890167e-01" cType="1" res="8.4110349416732788e-03" rms="4.6613910794258118e-01" purity="5.1183807849884033e-01" nType="0">
        <Node pos="l" depth="1" NCoef="0" IVar="4" Cut="3.5530077293515205e-03" cType="1" res="2.6638505514711142e-03" rms="4.6643361449241638e-01" purity="4.9259170889854431e-01" nType="0">
          <Node pos="l" depth="2" NCoef="0" IVar="-1" Cut="0.0000000000000000e+00" cType="1" res="-1.0276385728502646e-04" rms="4.6602106094360352e-01" purity="4.9460494518280029e-01" nType="-99"/>
          <Node pos="r" depth="2" NCoef="0" IVar="-1" Cut="0.0000000000000000e+00" cType="1" res="4.1700890287756920e-03" rms="4.6790200471878052e-01" purity="4.6202105283737183e-01" nType="-99"/>
        </Node>
        <Node pos="r" depth="1" NCoef="0" IVar="3" Cut="1.2424962520599365e+00" cType="1" res="4.8270154744386673e-02" rms="4.6212881803512573e-01" purity="6.4531964063644409e-01" nType="0">
          <Node pos="l" depth="2" NCoef="0" IVar="-1" Cut="0.0000000000000000e+00" cType="1" res="3.1702287378720939e-04" rms="4.6530482172966003e-01" purity="6.2170153856277466e-01" nType="-99"/>
          <Node pos="r" depth="2" NCoef="0" IVar="-1" Cut="0.0000000000000000e+00" cType="1" res="6.1116642318665981e-03" rms="4.5565909147262573e-01" purity="6.6659647226333618e-01" nType="-99"/>
        </Node>
      </Node>
    </BinaryTree>
    <BinaryTree type="DecisionTree" boostWeight="1.0000000000000000e+00" itree="702">
      <Node pos="s" depth="0" NCoef="0" IVar="6" Cut="2.6859958171844482e+00" cType="1" res="-2.2274011280387640e-03" rms="4.6787139773368835e-01" purity="5.0278431177139282e-01" nType="0">
        <Node pos="l" depth="1" NCoef="0" IVar="1" Cut="1.1293308734893799e+00" cType="1" res="2.3550100624561310e-02" rms="4.6343097090721130e-01" purity="3.5437294840812683e-01" nType="0">
          <Node pos="l" depth="2" NCoef="0" IVar="-1" Cut="0.0000000000000000e+00" cType="1" res="3.0012237839400768e-03" rms="4.8626676201820374e-01" purity="4.2658737301826477e-01" nType="-99"/>
          <Node pos="r" depth="2" NCoef="0" IVar="-1" Cut="0.0000000000000000e+00" cType="1" res="-5.1264191279187799e-04" rms="4.3185418844223022e-01" purity="2.6603904366493225e-01" nType="-99"/>
        </Node>
        <Node pos="r" depth="1" NCoef="0" IVar="2" Cut="3.9388969540596008e-01" cType="1" res="-1.0757681913673878e-02" rms="4.6901971101760864e-01" purity="5.5189651250839233e-01" nType="0">
          <Node pos="l" depth="2" NCoef="0" IVar="-1" Cut="0.0000000000000000e+00" cType="1" res="-3.7241359241306782e-03" rms="4.6809300780296326e-01" purity="3.7283873558044434e-01" nType="-99"/>
          <Node pos="r" depth="2" NCoef="0" IVar="-1" Cut="0.0000000000000000e+00" cType="1" res="-4.1168680763803422e-04" rms="4.6883526444435120e-01" purity="5.6684637069702148e-01" nType="-99"/>
        </Node>
      </Node>
    </BinaryTree>
    <BinaryTree type="DecisionTree" boostWeight="1.0000000000000000e+00" itree="703">
      <Node pos="s" depth="0" NCoef="0" IVar="3" Cut="1.8638597726821899e+00" cType="1" res="-7.3741795495152473e-03" rms="4.6346890926361084e-01" purity="4.9150761961936951e-01" nType="0">
        <Node pos="l" depth="1" NCoef="0" IVar="4" Cut="1.0538279311731458e-03" cType="1" res="-1.5231570228934288e-02" rms="4.6364074945449829e-01" purity="5.0894373655319214e-01" nType="0">
          <Node pos="l" depth="2" NCoef="0" IVar="-1" Cut="0.0000000000000000e+00" cType="1" res="4.9944303464144468e-04" rms="4.5583727955818176e-01" purity="6.1240494251251221e-01" nType="-99"/>
          <Node pos="r" depth="2" NCoef="0" IVar="-1" Cut="0.0000000000000000e+00" cType="1" res="-2.0140891429036856e-03" rms="4.6930807828903198e-01" purity="4.2146396636962891e-01" nType="-99"/>
        </Node>
        <Node pos="r" depth="1" NCoef="0" IVar="3" Cut="2.0755081176757812e+00" cType="1" res="2.9413828626275063e-02" rms="4.6088504791259766e-01" purity="4.0987238287925720e-01" nType="0">
          <Node pos="l" depth="2" NCoef="0" IVar="-1" Cut="0.0000000000000000e+00" cType="1" res="4.6708146110177040e-03" rms="4.7804597020149231e-01" purity="5.2085489034652710e-01" nType="-99"/>
          <Node pos="r" depth="2" NCoef="0" IVar="-1" Cut="0.0000000000000000e+00" cType="1" res="9.2021196905989200e-05" rms="4.4682306051254272e-01" purity="3.3540654182434082e-01" nType="-99"/>
        </Node>
      </Node>
    </BinaryTree>
    <BinaryTree type="DecisionTree" boostWeight="1.0000000000000000e+00" itree="704">
      <Node pos="s" depth="0" NCoef="0" IVar="6" Cut="4.1689448356628418e+00" cType="1" res="-8.1946626305580139e-03" rms="4.6303832530975342e-01" purity="4.8865240812301636e-01" nType="0">
        <Node pos="l" depth="1" NCoef="0" IVar="3" Cut="1.3103590011596680e+00" cType="1" res="-2.1858572959899902e-02" rms="4.6839267015457153e-01" purity="3.9155799150466919e-01" nType="0">
          <Node pos="l" depth="2" NCoef="0" IVar="-1" Cut="0.0000000000000000e+00" cType="1" res="-2.7432842180132866e-03" rms="4.6595233678817749e-01" purity="3.9782720804214478e-01" nType="-99"/>
          <Node pos="r" depth="2" NCoef="0" IVar="-1" Cut="0.0000000000000000e+00" cType="1" res="2.6745759532786906e-04" rms="4.6949839591979980e-01" purity="3.8502267003059387e-01" nType="-99"/>
        </Node>
        <Node pos="r" depth="1" NCoef="0" IVar="4" Cut="2.3821218928787857e-04" cType="1" res="1.7795087769627571e-02" rms="4.5153942704200745e-01" purity="6.7333281040191650e-01" nType="0">
          <Node pos="l" depth="2" NCoef="0" IVar="-1" Cut="0.0000000000000000e+00" cType="1" res="4.9622883088886738e-03" rms="4.0517121553421021e-01" purity="7.6849669218063354e-01" nType="-99"/>
          <Node pos="r" depth="2" NCoef="0" IVar="-1" Cut="0.0000000000000000e+00" cType="1" res="-3.5946830757893622e-04" rms="4.7381412982940674e-01" purity="6.2036037445068359e-01" nType="-99"/>
        </Node>
      </Node>
    </BinaryTree>
    <BinaryTree type="DecisionTree" boostWeight="1.0000000000000000e+00" itree="705">
      <Node pos="s" depth="0" NCoef="0" IVar="5" Cut="9.4107287597656250e+02" cType="1" res="9.4204191118478775e-03" rms="4.6540933847427368e-01" purity="5.0920802354812622e-01" nType="0">
        <Node pos="l" depth="1" NCoef="0" IVar="4" Cut="1.2856593821197748e-03" cType="1" res="1.9772132858633995e-02" rms="4.6229007840156555e-01" purity="5.0520801544189453e-01" nType="0">
          <Node pos="l" depth="2" NCoef="0" IVar="-1" Cut="0.0000000000000000e+00" cType="1" res="1.4252928849600721e-05" rms="4.6034133434295654e-01" purity="5.4981273412704468e-01" nType="-99"/>
          <Node pos="r" depth="2" NCoef="0" IVar="-1" Cut="0.0000000000000000e+00" cType="1" res="2.6378768961876631e-03" rms="4.6349570155143738e-01" purity="4.5436593890190125e-01" nType="-99"/>
        </Node>
        <Node pos="r" depth="1" NCoef="0" IVar="5" Cut="1.1705535888671875e+03" cType="1" res="-2.8004415333271027e-02" rms="4.7463634610176086e-01" purity="5.2366960048675537e-01" nType="0">
          <Node pos="l" depth="2" NCoef="0" IVar="-1" Cut="0.0000000000000000e+00" cType="1" res="-3.5274699330329895e-03" rms="4.7382020950317383e-01" purity="4.8895359039306641e-01" nType="-99"/>
          <Node pos="r" depth="2" NCoef="0" IVar="-1" Cut="0.0000000000000000e+00" cType="1" res="7.7118625631555915e-04" rms="4.7275790572166443e-01" purity="5.7111483812332153e-01" nType="-99"/>
        </Node>
      </Node>
    </BinaryTree>
    <BinaryTree type="DecisionTree" boostWeight="1.0000000000000000e+00" itree="706">
      <Node pos="s" depth="0" NCoef="0" IVar="3" Cut="1.3226851224899292e+00" cType="1" res="-1.4491522684693336e-02" rms="4.6147853136062622e-01" purity="4.9111613631248474e-01" nType="0">
        <Node pos="l" depth="1" NCoef="0" IVar="5" Cut="5.3177136230468750e+02" cType="1" res="-2.7897963300347328e-02" rms="4.6362173557281494e-01" purity="5.1496416330337524e-01" nType="0">
          <Node pos="l" depth="2" NCoef="0" IVar="-1" Cut="0.0000000000000000e+00" cType="1" res="-5.0441487692296505e-03" rms="4.6481770277023315e-01" purity="3.6123383045196533e-01" nType="-99"/>
          <Node pos="r" depth="2" NCoef="0" IVar="-1" Cut="0.0000000000000000e+00" cType="1" res="-1.0285145835950971e-03" rms="4.6246078610420227e-01" purity="5.4785925149917603e-01" nType="-99"/>
        </Node>
        <Node pos="r" depth="1" NCoef="0" IVar="3" Cut="1.5572055578231812e+00" cType="1" res="2.3286408395506442e-04" rms="4.5866179466247559e-01" purity="4.6492370963096619e-01" nType="0">
          <Node pos="l" depth="2" NCoef="0" IVar="-1" Cut="0.0000000000000000e+00" cType="1" res="2.4241120554506779e-03" rms="4.6063539385795593e-01" purity="5.6318646669387817e-01" nType="-99"/>
          <Node pos="r" depth="2" NCoef="0" IVar="-1" Cut="0.0000000000000000e+00" cType="1" res="-9.2442811001092196e-04" rms="4.5700719952583313e-01" purity="4.2415699362754822e-01" nType="-99"/>
        </Node>
      </Node>
    </BinaryTree>
    <BinaryTree type="DecisionTree" boostWeight="1.0000000000000000e+00" itree="707">
      <Node pos="s" depth="0" NCoef="0" IVar="4" Cut="1.1350885033607483e-03" cType="1" res="-9.2522772029042244e-03" rms="4.6782052516937256e-01" purity="4.9243119359016418e-01" nType="0">
        <Node pos="l" depth="1" NCoef="0" IVar="0" Cut="1.4426085352897644e-01" cType="1" res="-2.9926156625151634e-02" rms="4.6427434682846069e-01" purity="5.4312992095947266e-01" nType="0">
          <Node pos="l" depth="2" NCoef="0" IVar="-1" Cut="0.0000000000000000e+00" cType="1" res="-1.0850047692656517e-03" rms="4.6386843919754028e-01" purity="5.3390669822692871e-01" nType="-99"/>
          <Node pos="r" depth="2" NCoef="0" IVar="-1" Cut="0.0000000000000000e+00" cType="1" res="-5.7433354668319225e-03" rms="4.6240285038948059e-01" purity="5.7637494802474976e-01" nType="-99"/>
        </Node>
        <Node pos="r" depth="1" NCoef="0" IVar="2" Cut="7.2083014249801636e-01" cType="1" res="1.0445908643305302e-02" rms="4.7032982110977173e-01" purity="4.4412511587142944e-01" nType="0">
          <Node pos="l" depth="2" NCoef="0" IVar="-1" Cut="0.0000000000000000e+00" cType="1" res="3.8330901588778943e-05" rms="4.7128120064735413e-01" purity="4.0554460883140564e-01" nType="-99"/>
          <Node pos="r" depth="2" NCoef="0" IVar="-1" Cut="0.0000000000000000e+00" cType="1" res="2.8026108630001545e-03" rms="4.6532523632049561e-01" purity="5.7989269495010376e-01" nType="-99"/>
        </Node>
      </Node>
    </BinaryTree>
    <BinaryTree type="DecisionTree" boostWeight="1.0000000000000000e+00" itree="708">
      <Node pos="s" depth="0" NCoef="0" IVar="0" Cut="2.0916485786437988e-01" cType="1" res="-5.2005648612976074e-03" rms="4.6365860104560852e-01" purity="4.9159240722656250e-01" nType="0">
        <Node pos="l" depth="1" NCoef="0" IVar="3" Cut="2.2881786823272705e+00" cType="1" res="-8.8171931565739214e-05" rms="4.6290963888168335e-01" purity="4.8822745680809021e-01" nType="0">
          <Node pos="l" depth="2" NCoef="0" IVar="-1" Cut="0.0000000000000000e+00" cType="1" res="2.6379103655926883e-04" rms="4.6744328737258911e-01" purity="5.0697809457778931e-01" nType="-99"/>
          <Node pos="r" depth="2" NCoef="0" IVar="-1" Cut="0.0000000000000000e+00" cType="1" res="-3.7523321807384491e-03" rms="3.9053517580032349e-01" purity="2.2978992760181427e-01" nType="-99"/>
        </Node>
        <Node pos="r" depth="1" NCoef="0" IVar="-1" Cut="0.0000000000000000e+00" cType="1" res="-4.5885718427598476e-03" rms="4.6823641657829285e-01" purity="5.3443014621734619e-01" nType="-99"/>
      </Node>
    </BinaryTree>
    <BinaryTree type="DecisionTree" boostWeight="1.0000000000000000e+00" itree="709">
      <Node pos="s" depth="0" NCoef="0" IVar="0" Cut="1.5961250662803650e-01" cType="1" res="5.0756323616951704e-04" rms="4.6122002601623535e-01" purity="5.0612258911132812e-01" nType="0">
        <Node pos="l" depth="1" NCoef="0" IVar="1" Cut="9.6226477622985840e-01" cType="1" res="-1.0572661645710468e-02" rms="4.6197557449340820e-01" purity="4.7553560137748718e-01" nType="0">
          <Node pos="l" depth="2" NCoef="0" IVar="-1" Cut="0.0000000000000000e+00" cType="1" res="2.0352767023723572e-04" rms="4.6639958024024963e-01" purity="5.5349558591842651e-01" nType="-99"/>
          <Node pos="r" depth="2" NCoef="0" IVar="-1" Cut="0.0000000000000000e+00" cType="1" res="-1.3991595478728414e-03" rms="4.5770686864852905e-01" purity="4.0692064166069031e-01" nType="-99"/>
        </Node>
        <Node pos="r" depth="1" NCoef="0" IVar="2" Cut="6.7022365331649780e-01" cType="1" res="5.5913679301738739e-02" rms="4.5337867736816406e-01" purity="6.5907156467437744e-01" nType="0">
          <Node pos="l" depth="2" NCoef="0" IVar="-1" Cut="0.0000000000000000e+00" cType="1" res="8.4039382636547089e-03" rms="4.3845304846763611e-01" purity="6.7513018846511841e-01" nType="-99"/>
          <Node pos="r" depth="2" NCoef="0" IVar="-1" Cut="0.0000000000000000e+00" cType="1" res="1.7559094121679664e-03" rms="4.5680424571037292e-01" purity="6.5159463882446289e-01" nType="-99"/>
        </Node>
      </Node>
    </BinaryTree>
    <BinaryTree type="DecisionTree" boostWeight="1.0000000000000000e+00" itree="710">
      <Node pos="s" depth="0" NCoef="0" IVar="0" Cut="1.3958092033863068e-01" cType="1" res="-3.0016957316547632e-04" rms="4.6606165170669556e-01" purity="5.0093770027160645e-01" nType="0">
        <Node pos="l" depth="1" NCoef="0" IVar="0" Cut="2.9364423826336861e-02" cType="1" res="1.0059296153485775e-02" rms="4.6725136041641235e-01" purity="4.8488241434097290e-01" nType="0">
          <Node pos="l" depth="2" NCoef="0" IVar="-1" Cut="0.0000000000000000e+00" cType="1" res="-2.4190067779272795e-03" rms="4.5569524168968201e-01" purity="3.8294523954391479e-01" nType="-99"/>
          <Node pos="r" depth="2" NCoef="0" IVar="-1" Cut="0.0000000000000000e+00" cType="1" res="1.2584861833602190e-03" rms="4.6881625056266785e-01" purity="5.0436627864837646e-01" nType="-99"/>
        </Node>
        <Node pos="r" depth="1" NCoef="0" IVar="0" Cut="2.0395416021347046e-01" cType="1" res="-3.5083103924989700e-02" rms="4.6034243702888489e-01" purity="5.5484503507614136e-01" nType="0">
          <Node pos="l" depth="2" NCoef="0" IVar="-1" Cut="0.0000000000000000e+00" cType="1" res="-4.6865264885127544e-03" rms="4.6869483590126038e-01" purity="5.0471514463424683e-01" nType="-99"/>
          <Node pos="r" depth="2" NCoef="0" IVar="-1" Cut="0.0000000000000000e+00" cType="1" res="2.4299002252519131e-03" rms="4.3593877553939819e-01" purity="6.4787310361862183e-01" nType="-99"/>
        </Node>
      </Node>
    </BinaryTree>
    <BinaryTree type="DecisionTree" boostWeight="1.0000000000000000e+00" itree="711">
      <Node pos="s" depth="0" NCoef="0" IVar="1" Cut="2.3497581481933594e-01" cType="1" res="3.0583664774894714e-03" rms="4.6412146091461182e-01" purity="5.0477278232574463e-01" nType="0">
        <Node pos="l" depth="1" NCoef="0" IVar="-1" Cut="0.0000000000000000e+00" cType="1" res="-2.5397602003067732e-03" rms="4.6483674645423889e-01" purity="5.4282915592193604e-01" nType="-99"/>
        <Node pos="r" depth="1" NCoef="0" IVar="0" Cut="3.7240706384181976e-02" cType="1" res="6.4320620149374008e-03" rms="4.6389836072921753e-01" purity="5.0173670053482056e-01" nType="0">
          <Node pos="l" depth="2" NCoef="0" IVar="-1" Cut="0.0000000000000000e+00" cType="1" res="-1.1957038659602404e-03" rms="4.7005522251129150e-01" purity="4.0340667963027954e-01" nType="-99"/>
          <Node pos="r" depth="2" NCoef="0" IVar="-1" Cut="0.0000000000000000e+00" cType="1" res="8.2217092858627439e-04" rms="4.6222603321075439e-01" purity="5.2482426166534424e-01" nType="-99"/>
        </Node>
      </Node>
    </BinaryTree>
    <BinaryTree type="DecisionTree" boostWeight="1.0000000000000000e+00" itree="712">
      <Node pos="s" depth="0" NCoef="0" IVar="2" Cut="5.0412541627883911e-01" cType="1" res="-6.1310506425797939e-03" rms="4.6574452519416809e-01" purity="4.8769515752792358e-01" nType="0">
        <Node pos="l" depth="1" NCoef="0" IVar="4" Cut="2.1603556815534830e-03" cType="1" res="3.0040536075830460e-02" rms="4.6401935815811157e-01" purity="4.3890842795372009e-01" nType="0">
          <Node pos="l" depth="2" NCoef="0" IVar="-1" Cut="0.0000000000000000e+00" cType="1" res="3.1086821109056473e-03" rms="4.6716675162315369e-01" purity="4.8688590526580811e-01" nType="-99"/>
          <Node pos="r" depth="2" NCoef="0" IVar="-1" Cut="0.0000000000000000e+00" cType="1" res="-1.1051893234252930e-03" rms="4.5218223333358765e-01" purity="3.1424388289451599e-01" nType="-99"/>
        </Node>
        <Node pos="r" depth="1" NCoef="0" IVar="4" Cut="2.9557980597019196e-03" cType="1" res="-1.9657703116536140e-02" rms="4.6566680073738098e-01" purity="5.0593936443328857e-01" nType="0">
          <Node pos="l" depth="2" NCoef="0" IVar="-1" Cut="0.0000000000000000e+00" cType="1" res="-1.7058940138667822e-03" rms="4.6533370018005371e-01" purity="5.1798897981643677e-01" nType="-99"/>
          <Node pos="r" depth="2" NCoef="0" IVar="-1" Cut="0.0000000000000000e+00" cType="1" res="1.2966245412826538e-03" rms="4.6554076671600342e-01" purity="4.3352442979812622e-01" nType="-99"/>
        </Node>
      </Node>
    </BinaryTree>
    <BinaryTree type="DecisionTree" boostWeight="1.0000000000000000e+00" itree="713">
      <Node pos="s" depth="0" NCoef="0" IVar="3" Cut="8.8947057723999023e-01" cType="1" res="-1.0724900290369987e-02" rms="4.6605476737022400e-01" purity="4.9163442850112915e-01" nType="0">
        <Node pos="l" depth="1" NCoef="0" IVar="2" Cut="6.0182988643646240e-01" cType="1" res="-4.9392022192478180e-02" rms="4.8084062337875366e-01" purity="4.8754701018333435e-01" nType="0">
          <Node pos="l" depth="2" NCoef="0" IVar="-1" Cut="0.0000000000000000e+00" cType="1" res="-4.3855476542375982e-04" rms="4.7062924504280090e-01" purity="4.6130946278572083e-01" nType="-99"/>
          <Node pos="r" depth="2" NCoef="0" IVar="-1" Cut="0.0000000000000000e+00" cType="1" res="-5.2911574020981789e-03" rms="4.8623931407928467e-01" purity="5.0853288173675537e-01" nType="-99"/>
        </Node>
        <Node pos="r" depth="1" NCoef="0" IVar="0" Cut="1.9147479534149170e-01" cType="1" res="2.4036250542849302e-03" rms="4.6018850803375244e-01" purity="4.9302223324775696e-01" nType="0">
          <Node pos="l" depth="2" NCoef="0" IVar="-1" Cut="0.0000000000000000e+00" cType="1" res="-3.3145357156172395e-04" rms="4.6385437250137329e-01" purity="4.7237831354141235e-01" nType="-99"/>
          <Node pos="r" depth="2" NCoef="0" IVar="-1" Cut="0.0000000000000000e+00" cType="1" res="4.9536577425897121e-03" rms="4.2044347524642944e-01" purity="6.7561227083206177e-01" nType="-99"/>
        </Node>
      </Node>
    </BinaryTree>
    <BinaryTree type="DecisionTree" boostWeight="1.0000000000000000e+00" itree="714">
      <Node pos="s" depth="0" NCoef="0" IVar="4" Cut="8.1067046266980469e-05" cType="1" res="-4.3731159530580044e-03" rms="4.6497622132301331e-01" purity="4.9390804767608643e-01" nType="0">
        <Node pos="l" depth="1" NCoef="0" IVar="2" Cut="6.1585110425949097e-01" cType="1" res="3.4632872790098190e-02" rms="4.2219513654708862e-01" purity="7.1098184585571289e-01" nType="0">
          <Node pos="l" depth="2" NCoef="0" IVar="-1" Cut="0.0000000000000000e+00" cType="1" res="-2.3841702204663306e-04" rms="4.5582547783851624e-01" purity="6.1275190114974976e-01" nType="-99"/>
          <Node pos="r" depth="2" NCoef="0" IVar="-1" Cut="0.0000000000000000e+00" cType="1" res="6.6640675067901611e-03" rms="3.8197079300880432e-01" purity="8.0901414155960083e-01" nType="-99"/>
        </Node>
        <Node pos="r" depth="1" NCoef="0" IVar="4" Cut="2.7123021427541971e-03" cType="1" res="-8.9522087946534157e-03" rms="4.6953052282333374e-01" purity="4.6842479705810547e-01" nType="0">
          <Node pos="l" depth="2" NCoef="0" IVar="-1" Cut="0.0000000000000000e+00" cType="1" res="-1.1018104851245880e-03" rms="4.6940442919731140e-01" purity="4.7635772824287415e-01" nType="-99"/>
          <Node pos="r" depth="2" NCoef="0" IVar="-1" Cut="0.0000000000000000e+00" cType="1" res="1.5941011952236295e-03" rms="4.6840679645538330e-01" purity="4.3605512380599976e-01" nType="-99"/>
        </Node>
      </Node>
    </BinaryTree>
    <BinaryTree type="DecisionTree" boostWeight="1.0000000000000000e+00" itree="715">
      <Node pos="s" depth="0" NCoef="0" IVar="1" Cut="2.4449532032012939e+00" cType="1" res="-2.3206297773867846e-03" rms="4.6249926090240479e-01" purity="4.9495339393615723e-01" nType="0">
        <Node pos="l" depth="1" NCoef="0" IVar="2" Cut="4.5054990053176880e-01" cType="1" res="2.4629023391753435e-03" rms="4.6681728959083557e-01" purity="5.1912683248519897e-01" nType="0">
          <Node pos="l" depth="2" NCoef="0" IVar="-1" Cut="0.0000000000000000e+00" cType="1" res="2.6092038024216890e-03" rms="4.7774899005889893e-01" purity="4.7311478853225708e-01" nType="-99"/>
          <Node pos="r" depth="2" NCoef="0" IVar="-1" Cut="0.0000000000000000e+00" cType="1" res="-2.7019140543416142e-04" rms="4.6461024880409241e-01" purity="5.2694809436798096e-01" nType="-99"/>
        </Node>
        <Node pos="r" depth="1" NCoef="0" IVar="-1" Cut="0.0000000000000000e+00" cType="1" res="-2.9787886887788773e-03" rms="4.1843843460083008e-01" purity="2.7391564846038818e-01" nType="-99"/>
      </Node>
    </BinaryTree>
    <BinaryTree type="DecisionTree" boostWeight="1.0000000000000000e+00" itree="716">
      <Node pos="s" depth="0" NCoef="0" IVar="2" Cut="8.2015311717987061e-01" cType="1" res="-4.7752056270837784e-03" rms="4.6619838476181030e-01" purity="4.9433764815330505e-01" nType="0">
        <Node pos="l" depth="1" NCoef="0" IVar="0" Cut="2.4831345304846764e-02" cType="1" res="6.1382894637063146e-04" rms="4.6520918607711792e-01" purity="4.8617246747016907e-01" nType="0">
          <Node pos="l" depth="2" NCoef="0" IVar="-1" Cut="0.0000000000000000e+00" cType="1" res="-2.6848567649722099e-03" rms="4.5353761315345764e-01" purity="3.6369529366493225e-01" nType="-99"/>
          <Node pos="r" depth="2" NCoef="0" IVar="-1" Cut="0.0000000000000000e+00" cType="1" res="4.0930890827439725e-04" rms="4.6632978320121765e-01" purity="5.0150030851364136e-01" nType="-99"/>
        </Node>
        <Node pos="r" depth="1" NCoef="0" IVar="-1" Cut="0.0000000000000000e+00" cType="1" res="-4.4804946519434452e-03" rms="4.7291022539138794e-01" purity="5.8420920372009277e-01" nType="-99"/>
      </Node>
    </BinaryTree>
    <BinaryTree type="DecisionTree" boostWeight="1.0000000000000000e+00" itree="717">
      <Node pos="s" depth="0" NCoef="0" IVar="1" Cut="2.3158967494964600e-01" cType="1" res="-1.2434845790266991e-02" rms="4.6726462244987488e-01" purity="4.8884204030036926e-01" nType="0">
        <Node pos="l" depth="1" NCoef="0" IVar="-1" Cut="0.0000000000000000e+00" cType="1" res="-4.3994677253067493e-03" rms="4.8684936761856079e-01" purity="5.2624666690826416e-01" nType="-99"/>
        <Node pos="r" depth="1" NCoef="0" IVar="4" Cut="3.1338052358478308e-03" cType="1" res="-8.2216532900929451e-03" rms="4.6550488471984863e-01" purity="4.8607164621353149e-01" nType="0">
          <Node pos="l" depth="2" NCoef="0" IVar="-1" Cut="0.0000000000000000e+00" cType="1" res="-1.6402389155700803e-04" rms="4.6756309270858765e-01" purity="5.0735914707183838e-01" nType="-99"/>
          <Node pos="r" depth="2" NCoef="0" IVar="-1" Cut="0.0000000000000000e+00" cType="1" res="-2.6675926055759192e-03" rms="4.4998961687088013e-01" purity="3.4640696644783020e-01" nType="-99"/>
        </Node>
      </Node>
    </BinaryTree>
    <BinaryTree type="DecisionTree" boostWeight="1.0000000000000000e+00" itree="718">
      <Node pos="s" depth="0" NCoef="0" IVar="6" Cut="3.4176056385040283e+00" cType="1" res="-1.2560519389808178e-02" rms="4.6330022811889648e-01" purity="4.9040150642395020e-01" nType="0">
        <Node pos="l" depth="1" NCoef="0" IVar="2" Cut="7.7219963073730469e-01" cType="1" res="-3.1068030744791031e-02" rms="4.6111857891082764e-01" purity="3.4126165509223938e-01" nType="0">
          <Node pos="l" depth="2" NCoef="0" IVar="-1" Cut="0.0000000000000000e+00" cType="1" res="-1.2579240137711167e-03" rms="4.5555058121681213e-01" purity="3.3137440681457520e-01" nType="-99"/>
          <Node pos="r" depth="2" NCoef="0" IVar="-1" Cut="0.0000000000000000e+00" cType="1" res="-5.5479793809354305e-03" rms="4.8908394575119019e-01" purity="4.0231758356094360e-01" nType="-99"/>
        </Node>
        <Node pos="r" depth="1" NCoef="0" IVar="0" Cut="2.9544178396463394e-02" cType="1" res="2.5536220055073500e-03" rms="4.6452760696411133e-01" purity="6.1219644546508789e-01" nType="0">
          <Node pos="l" depth="2" NCoef="0" IVar="-1" Cut="0.0000000000000000e+00" cType="1" res="3.7053967826068401e-03" rms="4.7275891900062561e-01" purity="5.7316112518310547e-01" nType="-99"/>
          <Node pos="r" depth="2" NCoef="0" IVar="-1" Cut="0.0000000000000000e+00" cType="1" res="-3.2226933399215341e-04" rms="4.6293154358863831e-01" purity="6.1726945638656616e-01" nType="-99"/>
        </Node>
      </Node>
    </BinaryTree>
    <BinaryTree type="DecisionTree" boostWeight="1.0000000000000000e+00" itree="719">
      <Node pos="s" depth="0" NCoef="0" IVar="2" Cut="7.3446440696716309e-01" cType="1" res="7.6587535440921783e-03" rms="4.6729645133018494e-01" purity="5.0604194402694702e-01" nType="0">
        <Node pos="l" depth="1" NCoef="0" IVar="1" Cut="1.0561459064483643e+00" cType="1" res="1.9786577671766281e-02" rms="4.6713900566101074e-01" purity="4.8522582650184631e-01" nType="0">
          <Node pos="l" depth="2" NCoef="0" IVar="-1" Cut="0.0000000000000000e+00" cType="1" res="1.1287539382465184e-04" rms="4.7185102105140686e-01" purity="5.2618753910064697e-01" nType="-99"/>
          <Node pos="r" depth="2" NCoef="0" IVar="-1" Cut="0.0000000000000000e+00" cType="1" res="2.3729109670966864e-03" rms="4.6178442239761353e-01" purity="4.4500893354415894e-01" nType="-99"/>
        </Node>
        <Node pos="r" depth="1" NCoef="0" IVar="5" Cut="9.1605694580078125e+02" cType="1" res="-3.7347819656133652e-02" rms="4.6512410044670105e-01" purity="5.8329081535339355e-01" nType="0">
          <Node pos="l" depth="2" NCoef="0" IVar="-1" Cut="0.0000000000000000e+00" cType="1" res="-4.1414583101868629e-03" rms="4.6495869755744934e-01" purity="5.4945009946823120e-01" nType="-99"/>
          <Node pos="r" depth="2" NCoef="0" IVar="-1" Cut="0.0000000000000000e+00" cType="1" res="1.8316737841814756e-03" rms="4.5971888303756714e-01" purity="6.7183464765548706e-01" nType="-99"/>
        </Node>
      </Node>
    </BinaryTree>
    <BinaryTree type="DecisionTree" boostWeight="1.0000000000000000e+00" itree="720">
      <Node pos="s" depth="0" NCoef="0" IVar="6" Cut="2.9959263801574707e+00" cType="1" res="1.3667769962921739e-03" rms="4.6712812781333923e-01" purity="5.0310850143432617e-01" nType="0">
        <Node pos="l" depth="1" NCoef="0" IVar="0" Cut="9.4799943268299103e-02" cType="1" res="2.1915163844823837e-02" rms="4.6661379933357239e-01" purity="3.6643368005752563e-01" nType="0">
          <Node pos="l" depth="2" NCoef="0" IVar="-1" Cut="0.0000000000000000e+00" cType="1" res="3.0460641719400883e-03" rms="4.6521511673927307e-01" purity="3.5804378986358643e-01" nType="-99"/>
          <Node pos="r" depth="2" NCoef="0" IVar="-1" Cut="0.0000000000000000e+00" cType="1" res="-6.4848363399505615e-04" rms="4.6655255556106567e-01" purity="3.7794250249862671e-01" nType="-99"/>
        </Node>
        <Node pos="r" depth="1" NCoef="0" IVar="4" Cut="2.6871184818446636e-03" cType="1" res="-8.9816404506564140e-03" rms="4.6704480051994324e-01" purity="5.7193952798843384e-01" nType="0">
          <Node pos="l" depth="2" NCoef="0" IVar="-1" Cut="0.0000000000000000e+00" cType="1" res="-1.1337948963046074e-03" rms="4.6719020605087280e-01" purity="5.7235640287399292e-01" nType="-99"/>
          <Node pos="r" depth="2" NCoef="0" IVar="-1" Cut="0.0000000000000000e+00" cType="1" res="3.2297072466462851e-03" rms="4.6091893315315247e-01" purity="5.6874734163284302e-01" nType="-99"/>
        </Node>
      </Node>
    </BinaryTree>
    <BinaryTree type="DecisionTree" boostWeight="1.0000000000000000e+00" itree="721">
      <Node pos="s" depth="0" NCoef="0" IVar="6" Cut="4.7843689918518066e+00" cType="1" res="1.1116742389276624e-03" rms="4.6641725301742554e-01" purity="5.0058418512344360e-01" nType="0">
        <Node pos="l" depth="1" NCoef="0" IVar="1" Cut="9.8199135065078735e-01" cType="1" res="1.1001118458807468e-02" rms="4.6862235665321350e-01" purity="4.5415967702865601e-01" nType="0">
          <Node pos="l" depth="2" NCoef="0" IVar="-1" Cut="0.0000000000000000e+00" cType="1" res="1.7836918123066425e-03" rms="4.7717413306236267e-01" purity="5.3102254867553711e-01" nType="-99"/>
          <Node pos="r" depth="2" NCoef="0" IVar="-1" Cut="0.0000000000000000e+00" cType="1" res="-3.2938231015577912e-04" rms="4.6004465222358704e-01" purity="3.8377502560615540e-01" nType="-99"/>
        </Node>
        <Node pos="r" depth="1" NCoef="0" IVar="3" Cut="9.8928803205490112e-01" cType="1" res="-3.3801570534706116e-02" rms="4.5683881640434265e-01" purity="6.6447925567626953e-01" nType="0">
          <Node pos="l" depth="2" NCoef="0" IVar="-1" Cut="0.0000000000000000e+00" cType="1" res="2.4193441495299339e-03" rms="4.2165312170982361e-01" purity="7.5338548421859741e-01" nType="-99"/>
          <Node pos="r" depth="2" NCoef="0" IVar="-1" Cut="0.0000000000000000e+00" cType="1" res="-4.5094769448041916e-03" rms="4.6941640973091125e-01" purity="6.2316596508026123e-01" nType="-99"/>
        </Node>
      </Node>
    </BinaryTree>
    <BinaryTree type="DecisionTree" boostWeight="1.0000000000000000e+00" itree="722">
      <Node pos="s" depth="0" NCoef="0" IVar="1" Cut="2.4914795160293579e-01" cType="1" res="-3.8305390626192093e-03" rms="4.6333432197570801e-01" purity="4.9752935767173767e-01" nType="0">
        <Node pos="l" depth="1" NCoef="0" IVar="-1" Cut="0.0000000000000000e+00" cType="1" res="-4.7535994090139866e-03" rms="4.5994675159454346e-01" purity="5.0703853368759155e-01" nType="-99"/>
        <Node pos="r" depth="1" NCoef="0" IVar="1" Cut="7.2183179855346680e-01" cType="1" res="2.5328835472464561e-03" rms="4.6309441328048706e-01" purity="4.9668899178504944e-01" nType="0">
          <Node pos="l" depth="2" NCoef="0" IVar="-1" Cut="0.0000000000000000e+00" cType="1" res="1.8148331437259912e-03" rms="4.5983377099037170e-01" purity="5.9415555000305176e-01" nType="-99"/>
          <Node pos="r" depth="2" NCoef="0" IVar="-1" Cut="0.0000000000000000e+00" cType="1" res="-4.7621215344406664e-04" rms="4.6403932571411133e-01" purity="4.5703041553497314e-01" nType="-99"/>
        </Node>
      </Node>
    </BinaryTree>
    <BinaryTree type="DecisionTree" boostWeight="1.0000000000000000e+00" itree="723">
      <Node pos="s" depth="0" NCoef="0" IVar="5" Cut="9.3536181640625000e+02" cType="1" res="6.9817439652979374e-03" rms="4.6453040838241577e-01" purity="5.0845474004745483e-01" nType="0">
        <Node pos="l" depth="1" NCoef="0" IVar="6" Cut="2.0299906730651855e+00" cType="1" res="1.4480359852313995e-02" rms="4.6121856570243835e-01" purity="4.9911770224571228e-01" nType="0">
          <Node pos="l" depth="2" NCoef="0" IVar="-1" Cut="0.0000000000000000e+00" cType="1" res="-1.6713412478566170e-03" rms="4.2832890152931213e-01" purity="2.5002756714820862e-01" nType="-99"/>
          <Node pos="r" depth="2" NCoef="0" IVar="-1" Cut="0.0000000000000000e+00" cType="1" res="1.2816445669159293e-03" rms="4.6528208255767822e-01" purity="5.3317767381668091e-01" nType="-99"/>
        </Node>
        <Node pos="r" depth="1" NCoef="0" IVar="4" Cut="1.5161270275712013e-03" cType="1" res="-2.0532110705971718e-02" rms="4.7547316551208496e-01" purity="5.4271423816680908e-01" nType="0">
          <Node pos="l" depth="2" NCoef="0" IVar="-1" Cut="0.0000000000000000e+00" cType="1" res="-2.9659538995474577e-03" rms="4.6992346644401550e-01" purity="5.6161552667617798e-01" nType="-99"/>
          <Node pos="r" depth="2" NCoef="0" IVar="-1" Cut="0.0000000000000000e+00" cType="1" res="7.9745933180674911e-04" rms="4.8116257786750793e-01" purity="5.1585698127746582e-01" nType="-99"/>
        </Node>
      </Node>
    </BinaryTree>
    <BinaryTree type="DecisionTree" boostWeight="1.0000000000000000e+00" itree="724">
      <Node pos="s" depth="0" NCoef="0" IVar="0" Cut="8.5345894098281860e-02" cType="1" res="1.2819848954677582e-02" rms="4.6092987060546875e-01" purity="5.1148051023483276e-01" nType="0">
        <Node pos="l" depth="1" NCoef="0" IVar="6" Cut="4.6634025573730469e+00" cType="1" res="-7.4784504249691963e-04" rms="4.6278327703475952e-01" purity="4.5358562469482422e-01" nType="0">
          <Node pos="l" depth="2" NCoef="0" IVar="-1" Cut="0.0000000000000000e+00" cType="1" res="-9.4757339684292674e-04" rms="4.6565377712249756e-01" purity="3.8169634342193604e-01" nType="-99"/>
          <Node pos="r" depth="2" NCoef="0" IVar="-1" Cut="0.0000000000000000e+00" cType="1" res="3.6500873975455761e-03" rms="4.4898471236228943e-01" purity="7.0140498876571655e-01" nType="-99"/>
        </Node>
        <Node pos="r" depth="1" NCoef="0" IVar="6" Cut="4.4411287307739258e+00" cType="1" res="2.8907876461744308e-02" rms="4.5820215344429016e-01" purity="5.8012992143630981e-01" nType="0">
          <Node pos="l" depth="2" NCoef="0" IVar="-1" Cut="0.0000000000000000e+00" cType="1" res="2.5051264092326164e-03" rms="4.7252833843231201e-01" purity="5.1452183723449707e-01" nType="-99"/>
          <Node pos="r" depth="2" NCoef="0" IVar="-1" Cut="0.0000000000000000e+00" cType="1" res="3.5044486867263913e-04" rms="4.2247632145881653e-01" purity="7.3064982891082764e-01" nType="-99"/>
        </Node>
      </Node>
    </BinaryTree>
    <BinaryTree type="DecisionTree" boostWeight="1.0000000000000000e+00" itree="725">
      <Node pos="s" depth="0" NCoef="0" IVar="3" Cut="6.4640396833419800e-01" cType="1" res="-5.2690389566123486e-03" rms="4.6478676795959473e-01" purity="4.9640449881553650e-01" nType="0">
        <Node pos="l" depth="1" NCoef="0" IVar="-1" Cut="0.0000000000000000e+00" cType="1" res="3.9934194646775723e-03" rms="4.6788296103477478e-01" purity="5.6803452968597412e-01" nType="-99"/>
        <Node pos="r" depth="1" NCoef="0" IVar="4" Cut="2.7263599913567305e-03" cType="1" res="-1.2180295772850513e-02" rms="4.6391957998275757e-01" purity="4.8885715007781982e-01" nType="0">
          <Node pos="l" depth="2" NCoef="0" IVar="-1" Cut="0.0000000000000000e+00" cType="1" res="-1.3869403628632426e-03" rms="4.6468272805213928e-01" purity="5.0253874063491821e-01" nType="-99"/>
          <Node pos="r" depth="2" NCoef="0" IVar="-1" Cut="0.0000000000000000e+00" cType="1" res="1.8584002973511815e-03" rms="4.5801657438278198e-01" purity="4.2598628997802734e-01" nType="-99"/>
        </Node>
      </Node>
    </BinaryTree>
    <BinaryTree type="DecisionTree" boostWeight="1.0000000000000000e+00" itree="726">
      <Node pos="s" depth="0" NCoef="0" IVar="2" Cut="4.9655178189277649e-01" cType="1" res="1.0232578963041306e-02" rms="4.6156755089759827e-01" purity="5.1291537284851074e-01" nType="0">
        <Node pos="l" depth="1" NCoef="0" IVar="2" Cut="4.4746759533882141e-01" cType="1" res="-1.4777394011616707e-02" rms="4.4835337996482849e-01" purity="3.9473426342010498e-01" nType="0">
          <Node pos="l" depth="2" NCoef="0" IVar="-1" Cut="0.0000000000000000e+00" cType="1" res="6.0975138330832124e-04" rms="4.5187017321586609e-01" purity="4.1293621063232422e-01" nType="-99"/>
          <Node pos="r" depth="2" NCoef="0" IVar="-1" Cut="0.0000000000000000e+00" cType="1" res="-3.2501022797077894e-03" rms="4.4002813100814819e-01" purity="3.6612865328788757e-01" nType="-99"/>
        </Node>
        <Node pos="r" depth="1" NCoef="0" IVar="2" Cut="5.2772784233093262e-01" cType="1" res="1.8949165940284729e-02" rms="4.6576946973800659e-01" purity="5.5410438776016235e-01" nType="0">
          <Node pos="l" depth="2" NCoef="0" IVar="-1" Cut="0.0000000000000000e+00" cType="1" res="5.8742333203554153e-03" rms="4.7631376981735229e-01" purity="5.4081362485885620e-01" nType="-99"/>
          <Node pos="r" depth="2" NCoef="0" IVar="-1" Cut="0.0000000000000000e+00" cType="1" res="6.9652462843805552e-04" rms="4.6381056308746338e-01" purity="5.5563765764236450e-01" nType="-99"/>
        </Node>
      </Node>
    </BinaryTree>
    <BinaryTree type="DecisionTree" boostWeight="1.0000000000000000e+00" itree="727">
      <Node pos="s" depth="0" NCoef="0" IVar="6" Cut="3.7204990386962891e+00" cType="1" res="-2.0320881158113480e-02" rms="4.6784681081771851e-01" purity="4.8194968700408936e-01" nType="0">
        <Node pos="l" depth="1" NCoef="0" IVar="3" Cut="1.8350518941879272e+00" cType="1" res="-6.7448629997670650e-03" rms="4.6716624498367310e-01" purity="3.8065925240516663e-01" nType="0">
          <Node pos="l" depth="2" NCoef="0" IVar="-1" Cut="0.0000000000000000e+00" cType="1" res="-8.5449335165321827e-04" rms="4.6969434618949890e-01" purity="3.9479863643646240e-01" nType="-99"/>
          <Node pos="r" depth="2" NCoef="0" IVar="-1" Cut="0.0000000000000000e+00" cType="1" res="1.6631954349577427e-03" rms="4.5524039864540100e-01" purity="3.2240164279937744e-01" nType="-99"/>
        </Node>
        <Node pos="r" depth="1" NCoef="0" IVar="3" Cut="1.2838933467864990e+00" cType="1" res="-3.5536240786314011e-02" rms="4.6814072132110596e-01" purity="5.9547114372253418e-01" nType="0">
          <Node pos="l" depth="2" NCoef="0" IVar="-1" Cut="0.0000000000000000e+00" cType="1" res="-8.4715825505554676e-04" rms="4.5286503434181213e-01" purity="6.5685307979583740e-01" nType="-99"/>
          <Node pos="r" depth="2" NCoef="0" IVar="-1" Cut="0.0000000000000000e+00" cType="1" res="-3.7948351819068193e-03" rms="4.8235213756561279e-01" purity="5.3134125471115112e-01" nType="-99"/>
        </Node>
      </Node>
    </BinaryTree>
    <BinaryTree type="DecisionTree" boostWeight="1.0000000000000000e+00" itree="728">
      <Node pos="s" depth="0" NCoef="0" IVar="5" Cut="7.9199438476562500e+02" cType="1" res="-5.2419013809412718e-04" rms="4.6390652656555176e-01" purity="5.0160068273544312e-01" nType="0">
        <Node pos="l" depth="1" NCoef="0" IVar="2" Cut="6.8826049566268921e-01" cType="1" res="-1.4106344431638718e-02" rms="4.6600681543350220e-01" purity="4.6526089310646057e-01" nType="0">
          <Node pos="l" depth="2" NCoef="0" IVar="-1" Cut="0.0000000000000000e+00" cType="1" res="9.9121780294808559e-06" rms="4.6487423777580261e-01" purity="4.3756276369094849e-01" nType="-99"/>
          <Node pos="r" depth="2" NCoef="0" IVar="-1" Cut="0.0000000000000000e+00" cType="1" res="-3.1572633888572454e-03" rms="4.6694302558898926e-01" purity="5.3104960918426514e-01" nType="-99"/>
        </Node>
        <Node pos="r" depth="1" NCoef="0" IVar="1" Cut="3.5087814927101135e-01" cType="1" res="2.3694003000855446e-02" rms="4.5914191007614136e-01" purity="5.6639784574508667e-01" nType="0">
          <Node pos="l" depth="2" NCoef="0" IVar="-1" Cut="0.0000000000000000e+00" cType="1" res="8.4456903859972954e-03" rms="3.9363303780555725e-01" purity="7.3180645704269409e-01" nType="-99"/>
          <Node pos="r" depth="2" NCoef="0" IVar="-1" Cut="0.0000000000000000e+00" cType="1" res="5.3756381385028362e-04" rms="4.6766397356987000e-01" purity="5.3821456432342529e-01" nType="-99"/>
        </Node>
      </Node>
    </BinaryTree>
    <BinaryTree type="DecisionTree" boostWeight="1.0000000000000000e+00" itree="729">
      <Node pos="s" depth="0" NCoef="0" IVar="3" Cut="1.1320402622222900e+00" cType="1" res="6.8881816696375608e-04" rms="4.6402242779731750e-01" purity="4.9890139698982239e-01" nType="0">
        <Node pos="l" depth="1" NCoef="0" IVar="3" Cut="5.7047003507614136e-01" cType="1" res="2.1202772855758667e-02" rms="4.5763409137725830e-01" purity="5.5343586206436157e-01" nType="0">
          <Node pos="l" depth="2" NCoef="0" IVar="-1" Cut="0.0000000000000000e+00" cType="1" res="-5.8437888510525227e-03" rms="4.7420579195022583e-01" purity="3.9928823709487915e-01" nType="-99"/>
          <Node pos="r" depth="2" NCoef="0" IVar="-1" Cut="0.0000000000000000e+00" cType="1" res="2.7941071894019842e-03" rms="4.5143985748291016e-01" purity="5.8006829023361206e-01" nType="-99"/>
        </Node>
        <Node pos="r" depth="1" NCoef="0" IVar="3" Cut="1.2786155939102173e+00" cType="1" res="-1.1481294408440590e-02" rms="4.6734577417373657e-01" purity="4.6654820442199707e-01" nType="0">
          <Node pos="l" depth="2" NCoef="0" IVar="-1" Cut="0.0000000000000000e+00" cType="1" res="-3.3253100700676441e-03" rms="4.6406793594360352e-01" purity="4.7208869457244873e-01" nType="-99"/>
          <Node pos="r" depth="2" NCoef="0" IVar="-1" Cut="0.0000000000000000e+00" cType="1" res="-2.0570031483657658e-04" rms="4.6753022074699402e-01" purity="4.6547684073448181e-01" nType="-99"/>
        </Node>
      </Node>
    </BinaryTree>
    <BinaryTree type="DecisionTree" boostWeight="1.0000000000000000e+00" itree="730">
      <Node pos="s" depth="0" NCoef="0" IVar="3" Cut="1.2074831724166870e+00" cType="1" res="-5.6627676822245121e-03" rms="4.6195903420448303e-01" purity="4.9375021457672119e-01" nType="0">
        <Node pos="l" depth="1" NCoef="0" IVar="3" Cut="8.6444056034088135e-01" cType="1" res="1.1710628867149353e-02" rms="4.6436274051666260e-01" purity="5.4970335960388184e-01" nType="0">
          <Node pos="l" depth="2" NCoef="0" IVar="-1" Cut="0.0000000000000000e+00" cType="1" res="-9.6252124058082700e-04" rms="4.6913436055183411e-01" purity="5.1341259479522705e-01" nType="-99"/>
          <Node pos="r" depth="2" NCoef="0" IVar="-1" Cut="0.0000000000000000e+00" cType="1" res="2.7056776452809572e-03" rms="4.5745286345481873e-01" purity="5.8855372667312622e-01" nType="-99"/>
        </Node>
        <Node pos="r" depth="1" NCoef="0" IVar="0" Cut="1.7381890118122101e-01" cType="1" res="-1.9877187907695770e-02" rms="4.5949470996856689e-01" purity="4.4797095656394958e-01" nType="0">
          <Node pos="l" depth="2" NCoef="0" IVar="-1" Cut="0.0000000000000000e+00" cType="1" res="-7.8020658111199737e-04" rms="4.5779761672019958e-01" purity="4.3653017282485962e-01" nType="-99"/>
          <Node pos="r" depth="2" NCoef="0" IVar="-1" Cut="0.0000000000000000e+00" cType="1" res="-4.2901257984340191e-03" rms="4.6719831228256226e-01" purity="5.1844596862792969e-01" nType="-99"/>
        </Node>
      </Node>
    </BinaryTree>
    <BinaryTree type="DecisionTree" boostWeight="1.0000000000000000e+00" itree="731">
      <Node pos="s" depth="0" NCoef="0" IVar="6" Cut="4.5962696075439453e+00" cType="1" res="-1.5735472552478313e-03" rms="4.6251833438873291e-01" purity="4.9930396676063538e-01" nType="0">
        <Node pos="l" depth="1" NCoef="0" IVar="0" Cut="1.3518574833869934e-01" cType="1" res="-1.1832234449684620e-02" rms="4.7239944338798523e-01" purity="4.2766302824020386e-01" nType="0">
          <Node pos="l" depth="2" NCoef="0" IVar="-1" Cut="0.0000000000000000e+00" cType="1" res="-6.6169137426186353e-05" rms="4.7215965390205383e-01" purity="4.1600173711776733e-01" nType="-99"/>
          <Node pos="r" depth="2" NCoef="0" IVar="-1" Cut="0.0000000000000000e+00" cType="1" res="-2.8994192834943533e-03" rms="4.7143405675888062e-01" purity="4.6650299429893494e-01" nType="-99"/>
        </Node>
        <Node pos="r" depth="1" NCoef="0" IVar="4" Cut="1.5924479521345347e-04" cType="1" res="2.8675207868218422e-02" rms="4.3064913153648376e-01" purity="7.1054422855377197e-01" nType="0">
          <Node pos="l" depth="2" NCoef="0" IVar="-1" Cut="0.0000000000000000e+00" cType="1" res="-1.6682432033121586e-03" rms="4.3661183118820190e-01" purity="7.0327615737915039e-01" nType="-99"/>
          <Node pos="r" depth="2" NCoef="0" IVar="-1" Cut="0.0000000000000000e+00" cType="1" res="4.0142228826880455e-03" rms="4.2476117610931396e-01" purity="7.1462738513946533e-01" nType="-99"/>
        </Node>
      </Node>
    </BinaryTree>
    <BinaryTree type="DecisionTree" boostWeight="1.0000000000000000e+00" itree="732">
      <Node pos="s" depth="0" NCoef="0" IVar="1" Cut="2.1913230419158936e+00" cType="1" res="7.2043905965983868e-03" rms="4.6365144848823547e-01" purity="5.0622922182083130e-01" nType="0">
        <Node pos="l" depth="1" NCoef="0" IVar="6" Cut="3.7316195964813232e+00" cType="1" res="1.5154429711401463e-02" rms="4.6829310059547424e-01" purity="5.3733497858047485e-01" nType="0">
          <Node pos="l" depth="2" NCoef="0" IVar="-1" Cut="0.0000000000000000e+00" cType="1" res="2.0147797185927629e-03" rms="4.7438383102416992e-01" purity="4.3817031383514404e-01" nType="-99"/>
          <Node pos="r" depth="2" NCoef="0" IVar="-1" Cut="0.0000000000000000e+00" cType="1" res="-3.1233057961799204e-04" rms="4.6065595746040344e-01" purity="6.4711040258407593e-01" nType="-99"/>
        </Node>
        <Node pos="r" depth="1" NCoef="0" IVar="5" Cut="6.5454553222656250e+02" cType="1" res="-4.7215145081281662e-02" rms="4.2657703161239624e-01" purity="2.9330396652221680e-01" nType="0">
          <Node pos="l" depth="2" NCoef="0" IVar="-1" Cut="0.0000000000000000e+00" cType="1" res="-1.2360798427835107e-03" rms="4.0984019637107849e-01" purity="2.8901830315589905e-01" nType="-99"/>
          <Node pos="r" depth="2" NCoef="0" IVar="-1" Cut="0.0000000000000000e+00" cType="1" res="-4.5991912484169006e-03" rms="4.4197040796279907e-01" purity="2.9797375202178955e-01" nType="-99"/>
        </Node>
      </Node>
    </BinaryTree>
    <BinaryTree type="DecisionTree" boostWeight="1.0000000000000000e+00" itree="733">
      <Node pos="s" depth="0" NCoef="0" IVar="4" Cut="3.3749658614397049e-03" cType="1" res="2.3328668903559446e-03" rms="4.6328818798065186e-01" purity="5.0107467174530029e-01" nType="0">
        <Node pos="l" depth="1" NCoef="0" IVar="6" Cut="1.7240874767303467e+00" cType="1" res="9.5441835001111031e-03" rms="4.6323040127754211e-01" purity="5.1747256517410278e-01" nType="0">
          <Node pos="l" depth="2" NCoef="0" IVar="-1" Cut="0.0000000000000000e+00" cType="1" res="-2.9488457366824150e-03" rms="4.2362701892852783e-01" purity="2.5094884634017944e-01" nType="-99"/>
          <Node pos="r" depth="2" NCoef="0" IVar="-1" Cut="0.0000000000000000e+00" cType="1" res="8.6260022362694144e-04" rms="4.6563106775283813e-01" purity="5.3599578142166138e-01" nType="-99"/>
        </Node>
        <Node pos="r" depth="1" NCoef="0" IVar="-1" Cut="0.0000000000000000e+00" cType="1" res="-4.3852198868989944e-03" rms="4.5657330751419067e-01" purity="3.2211896777153015e-01" nType="-99"/>
      </Node>
    </BinaryTree>
    <BinaryTree type="DecisionTree" boostWeight="1.0000000000000000e+00" itree="734">
      <Node pos="s" depth="0" NCoef="0" IVar="1" Cut="6.4666718244552612e-01" cType="1" res="1.8641930073499680e-03" rms="4.6453145146369934e-01" purity="4.9969935417175293e-01" nType="0">
        <Node pos="l" depth="1" NCoef="0" IVar="0" Cut="1.3087637722492218e-01" cType="1" res="3.3425044268369675e-02" rms="4.6209034323692322e-01" purity="6.0303759574890137e-01" nType="0">
          <Node pos="l" depth="2" NCoef="0" IVar="-1" Cut="0.0000000000000000e+00" cType="1" res="3.9189718663692474e-03" rms="4.5894598960876465e-01" purity="6.0048866271972656e-01" nType="-99"/>
          <Node pos="r" depth="2" NCoef="0" IVar="-1" Cut="0.0000000000000000e+00" cType="1" res="-1.7351612914353609e-03" rms="4.6381592750549316e-01" purity="6.0873603820800781e-01" nType="-99"/>
        </Node>
        <Node pos="r" depth="1" NCoef="0" IVar="4" Cut="4.7898854245431721e-04" cType="1" res="-1.1845879256725311e-02" rms="4.6492087841033936e-01" purity="4.5480906963348389e-01" nType="0">
          <Node pos="l" depth="2" NCoef="0" IVar="-1" Cut="0.0000000000000000e+00" cType="1" res="-2.4634760338813066e-03" rms="4.5794761180877686e-01" purity="5.4324954748153687e-01" nType="-99"/>
          <Node pos="r" depth="2" NCoef="0" IVar="-1" Cut="0.0000000000000000e+00" cType="1" res="-1.0619759996188805e-04" rms="4.6732610464096069e-01" purity="4.1910785436630249e-01" nType="-99"/>
        </Node>
      </Node>
    </BinaryTree>
    <BinaryTree type="DecisionTree" boostWeight="1.0000000000000000e+00" itree="735">
      <Node pos="s" depth="0" NCoef="0" IVar="0" Cut="1.5842953324317932e-01" cType="1" res="6.5499553456902504e-03" rms="4.6576729416847229e-01" purity="5.0345605611801147e-01" nType="0">
        <Node pos="l" depth="1" NCoef="0" IVar="4" Cut="1.1349355336278677e-03" cType="1" res="1.6011718660593033e-02" rms="4.6265941858291626e-01" purity="4.9332654476165771e-01" nType="0">
          <Node pos="l" depth="2" NCoef="0" IVar="-1" Cut="0.0000000000000000e+00" cType="1" res="2.4718940258026123e-03" rms="4.6153065562248230e-01" purity="5.8067613840103149e-01" nType="-99"/>
          <Node pos="r" depth="2" NCoef="0" IVar="-1" Cut="0.0000000000000000e+00" cType="1" res="-1.4558722614310682e-04" rms="4.6293056011199951e-01" purity="4.1300815343856812e-01" nType="-99"/>
        </Node>
        <Node pos="r" depth="1" NCoef="0" IVar="6" Cut="3.4886901378631592e+00" cType="1" res="-3.8002189248800278e-02" rms="4.7761821746826172e-01" purity="5.5115228891372681e-01" nType="0">
          <Node pos="l" depth="2" NCoef="0" IVar="-1" Cut="0.0000000000000000e+00" cType="1" res="2.3018968931864947e-05" rms="4.8474159836769104e-01" purity="4.5042130351066589e-01" nType="-99"/>
          <Node pos="r" depth="2" NCoef="0" IVar="-1" Cut="0.0000000000000000e+00" cType="1" res="-5.3382241167128086e-03" rms="4.6903869509696960e-01" purity="6.3655793666839600e-01" nType="-99"/>
        </Node>
      </Node>
    </BinaryTree>
    <BinaryTree type="DecisionTree" boostWeight="1.0000000000000000e+00" itree="736">
      <Node pos="s" depth="0" NCoef="0" IVar="1" Cut="2.6174170970916748e+00" cType="1" res="3.6031887866556644e-03" rms="4.6528589725494385e-01" purity="5.0664669275283813e-01" nType="0">
        <Node pos="l" depth="1" NCoef="0" IVar="5" Cut="5.9145117187500000e+02" cType="1" res="-2.4652242427691817e-04" rms="4.6622550487518311e-01" purity="5.1671880483627319e-01" nType="0">
          <Node pos="l" depth="2" NCoef="0" IVar="-1" Cut="0.0000000000000000e+00" cType="1" res="-1.2487568892538548e-03" rms="4.5918178558349609e-01" purity="4.2761826515197754e-01" nType="-99"/>
          <Node pos="r" depth="2" NCoef="0" IVar="-1" Cut="0.0000000000000000e+00" cType="1" res="5.2668945863842964e-04" rms="4.6901831030845642e-01" purity="5.5566132068634033e-01" nType="-99"/>
        </Node>
        <Node pos="r" depth="1" NCoef="0" IVar="-1" Cut="0.0000000000000000e+00" cType="1" res="3.7426722701638937e-03" rms="4.4938322901725769e-01" purity="3.7201195955276489e-01" nType="-99"/>
      </Node>
    </BinaryTree>
    <BinaryTree type="DecisionTree" boostWeight="1.0000000000000000e+00" itree="737">
      <Node pos="s" depth="0" NCoef="0" IVar="3" Cut="1.6004732847213745e+00" cType="1" res="-1.1995905078947544e-02" rms="4.6180105209350586e-01" purity="4.8505920171737671e-01" nType="0">
        <Node pos="l" depth="1" NCoef="0" IVar="3" Cut="1.1281861066818237e+00" cType="1" res="-2.4612231645733118e-03" rms="4.6398276090621948e-01" purity="5.2683657407760620e-01" nType="0">
          <Node pos="l" depth="2" NCoef="0" IVar="-1" Cut="0.0000000000000000e+00" cType="1" res="-1.1906177969649434e-03" rms="4.6370545029640198e-01" purity="5.1455795764923096e-01" nType="-99"/>
          <Node pos="r" depth="2" NCoef="0" IVar="-1" Cut="0.0000000000000000e+00" cType="1" res="1.1752191931009293e-03" rms="4.6351444721221924e-01" purity="5.4249078035354614e-01" nType="-99"/>
        </Node>
        <Node pos="r" depth="1" NCoef="0" IVar="1" Cut="2.0756378173828125e+00" cType="1" res="-3.3183082938194275e-02" rms="4.5620289444923401e-01" purity="3.9222502708435059e-01" nType="0">
          <Node pos="l" depth="2" NCoef="0" IVar="-1" Cut="0.0000000000000000e+00" cType="1" res="-2.6287422515451908e-03" rms="4.6240931749343872e-01" purity="4.1389316320419312e-01" nType="-99"/>
          <Node pos="r" depth="2" NCoef="0" IVar="-1" Cut="0.0000000000000000e+00" cType="1" res="4.2993124225176871e-04" rms="4.2864391207695007e-01" purity="3.0697077512741089e-01" nType="-99"/>
        </Node>
      </Node>
    </BinaryTree>
    <BinaryTree type="DecisionTree" boostWeight="1.0000000000000000e+00" itree="738">
      <Node pos="s" depth="0" NCoef="0" IVar="2" Cut="4.4057276844978333e-01" cType="1" res="1.0529690422117710e-02" rms="4.6557241678237915e-01" purity="5.1096379756927490e-01" nType="0">
        <Node pos="l" depth="1" NCoef="0" IVar="2" Cut="3.8454073667526245e-01" cType="1" res="-3.0875036492943764e-02" rms="4.4925874471664429e-01" purity="3.5824617743492126e-01" nType="0">
          <Node pos="l" depth="2" NCoef="0" IVar="-1" Cut="0.0000000000000000e+00" cType="1" res="1.2350541073828936e-03" rms="4.5074191689491272e-01" purity="3.8864976167678833e-01" nType="-99"/>
          <Node pos="r" depth="2" NCoef="0" IVar="-1" Cut="0.0000000000000000e+00" cType="1" res="-3.9796186611056328e-03" rms="4.4489577412605286e-01" purity="3.3697777986526489e-01" nType="-99"/>
        </Node>
        <Node pos="r" depth="1" NCoef="0" IVar="3" Cut="1.3814575672149658e+00" cType="1" res="1.7243137583136559e-02" rms="4.6781888604164124e-01" purity="5.3572571277618408e-01" nType="0">
          <Node pos="l" depth="2" NCoef="0" IVar="-1" Cut="0.0000000000000000e+00" cType="1" res="4.6092245611362159e-05" rms="4.6692571043968201e-01" purity="5.4916459321975708e-01" nType="-99"/>
          <Node pos="r" depth="2" NCoef="0" IVar="-1" Cut="0.0000000000000000e+00" cType="1" res="2.5471497792750597e-03" rms="4.6809765696525574e-01" purity="5.1765388250350952e-01" nType="-99"/>
        </Node>
      </Node>
    </BinaryTree>
    <BinaryTree type="DecisionTree" boostWeight="1.0000000000000000e+00" itree="739">
      <Node pos="s" depth="0" NCoef="0" IVar="2" Cut="7.0166140794754028e-01" cType="1" res="-7.1034855209290981e-03" rms="4.6542304754257202e-01" purity="4.9234727025032043e-01" nType="0">
        <Node pos="l" depth="1" NCoef="0" IVar="0" Cut="7.4174061417579651e-02" cType="1" res="4.3449448421597481e-03" rms="4.6623536944389343e-01" purity="4.6636483073234558e-01" nType="0">
          <Node pos="l" depth="2" NCoef="0" IVar="-1" Cut="0.0000000000000000e+00" cType="1" res="-9.7616872517392039e-04" rms="4.6452841162681580e-01" purity="4.1886651515960693e-01" nType="-99"/>
          <Node pos="r" depth="2" NCoef="0" IVar="-1" Cut="0.0000000000000000e+00" cType="1" res="1.9379027653485537e-03" rms="4.6713337302207947e-01" purity="5.2609527111053467e-01" nType="-99"/>
        </Node>
        <Node pos="r" depth="1" NCoef="0" IVar="6" Cut="4.0398559570312500e+00" cType="1" res="-3.7437643855810165e-02" rms="4.6189391613006592e-01" purity="5.6119132041931152e-01" nType="0">
          <Node pos="l" depth="2" NCoef="0" IVar="-1" Cut="0.0000000000000000e+00" cType="1" res="-3.7675548810511827e-03" rms="4.8228889703750610e-01" purity="4.3551921844482422e-01" nType="-99"/>
          <Node pos="r" depth="2" NCoef="0" IVar="-1" Cut="0.0000000000000000e+00" cType="1" res="4.3797932448796928e-04" rms="4.2567422986030579e-01" purity="7.5137728452682495e-01" nType="-99"/>
        </Node>
      </Node>
    </BinaryTree>
    <BinaryTree type="DecisionTree" boostWeight="1.0000000000000000e+00" itree="740">
      <Node pos="s" depth="0" NCoef="0" IVar="0" Cut="2.9420819133520126e-02" cType="1" res="-5.0336821004748344e-03" rms="4.6135190129280090e-01" purity="4.9842768907546997e-01" nType="0">
        <Node pos="l" depth="1" NCoef="0" IVar="3" Cut="1.1940078735351562e+00" cType="1" res="-5.5053804069757462e-02" rms="4.5611119270324707e-01" purity="3.6505910754203796e-01" nType="0">
          <Node pos="l" depth="2" NCoef="0" IVar="-1" Cut="0.0000000000000000e+00" cType="1" res="-5.8037647977471352e-03" rms="4.4900906085968018e-01" purity="3.5914942622184753e-01" nType="-99"/>
          <Node pos="r" depth="2" NCoef="0" IVar="-1" Cut="0.0000000000000000e+00" cType="1" res="-6.7381304688751698e-04" rms="4.5862257480621338e-01" purity="3.7082052230834961e-01" nType="-99"/>
        </Node>
        <Node pos="r" depth="1" NCoef="0" IVar="6" Cut="5.7616248130798340e+00" cType="1" res="2.2691043559461832e-03" rms="4.6165889501571655e-01" purity="5.1789909601211548e-01" nType="0">
          <Node pos="l" depth="2" NCoef="0" IVar="-1" Cut="0.0000000000000000e+00" cType="1" res="-1.6809903900139034e-04" rms="4.6735903620719910e-01" purity="4.9471670389175415e-01" nType="-99"/>
          <Node pos="r" depth="2" NCoef="0" IVar="-1" Cut="0.0000000000000000e+00" cType="1" res="6.5788063220679760e-03" rms="3.6821156740188599e-01" purity="8.3587449789047241e-01" nType="-99"/>
        </Node>
      </Node>
    </BinaryTree>
    <BinaryTree type="DecisionTree" boostWeight="1.0000000000000000e+00" itree="741">
      <Node pos="s" depth="0" NCoef="0" IVar="5" Cut="1.1544248046875000e+03" cType="1" res="1.0266917524859309e-03" rms="4.6628803014755249e-01" purity="5.0480210781097412e-01" nType="0">
        <Node pos="l" depth="1" NCoef="0" IVar="6" Cut="5.4418072700500488e+00" cType="1" res="7.3273251764476299e-03" rms="4.6406349539756775e-01" purity="5.0402081012725830e-01" nType="0">
          <Node pos="l" depth="2" NCoef="0" IVar="-1" Cut="0.0000000000000000e+00" cType="1" res="1.1618663120316342e-04" rms="4.7126200795173645e-01" purity="4.7129321098327637e-01" nType="-99"/>
          <Node pos="r" depth="2" NCoef="0" IVar="-1" Cut="0.0000000000000000e+00" cType="1" res="4.5528099872171879e-03" rms="3.9390018582344055e-01" purity="7.8465247154235840e-01" nType="-99"/>
        </Node>
        <Node pos="r" depth="1" NCoef="0" IVar="-1" Cut="0.0000000000000000e+00" cType="1" res="-3.5773860290646553e-03" rms="4.8250627517700195e-01" purity="5.1203387975692749e-01" nType="-99"/>
      </Node>
    </BinaryTree>
    <BinaryTree type="DecisionTree" boostWeight="1.0000000000000000e+00" itree="742">
      <Node pos="s" depth="0" NCoef="0" IVar="6" Cut="4.9330368041992188e+00" cType="1" res="1.5823395224288106e-03" rms="4.5869728922843933e-01" purity="5.0306034088134766e-01" nType="0">
        <Node pos="l" depth="1" NCoef="0" IVar="6" Cut="3.7260534763336182e+00" cType="1" res="-6.2088835984468460e-03" rms="4.6926209330558777e-01" purity="4.4463750720024109e-01" nType="0">
          <Node pos="l" depth="2" NCoef="0" IVar="-1" Cut="0.0000000000000000e+00" cType="1" res="2.4738247157074511e-04" rms="4.6509370207786560e-01" purity="3.8823747634887695e-01" nType="-99"/>
          <Node pos="r" depth="2" NCoef="0" IVar="-1" Cut="0.0000000000000000e+00" cType="1" res="-1.5458177076652646e-03" rms="4.7635069489479065e-01" purity="5.4982137680053711e-01" nType="-99"/>
        </Node>
        <Node pos="r" depth="1" NCoef="0" IVar="1" Cut="1.4000639915466309e+00" cType="1" res="3.4244868904352188e-02" rms="4.0985688567161560e-01" purity="7.4798178672790527e-01" nType="0">
          <Node pos="l" depth="2" NCoef="0" IVar="-1" Cut="0.0000000000000000e+00" cType="1" res="4.5535429380834103e-03" rms="3.9338564872741699e-01" purity="8.0613982677459717e-01" nType="-99"/>
          <Node pos="r" depth="2" NCoef="0" IVar="-1" Cut="0.0000000000000000e+00" cType="1" res="-5.0958635983988643e-04" rms="4.4682380557060242e-01" purity="5.9788691997528076e-01" nType="-99"/>
        </Node>
      </Node>
    </BinaryTree>
    <BinaryTree type="DecisionTree" boostWeight="1.0000000000000000e+00" itree="743">
      <Node pos="s" depth="0" NCoef="0" IVar="2" Cut="5.4496449232101440e-01" cType="1" res="1.5173013089224696e-03" rms="4.6059200167655945e-01" purity="5.0119584798812866e-01" nType="0">
        <Node pos="l" depth="1" NCoef="0" IVar="0" Cut="3.7991821765899658e-02" cType="1" res="-2.5860251858830452e-02" rms="4.6075901389122009e-01" purity="4.0209916234016418e-01" nType="0">
          <Node pos="l" depth="2" NCoef="0" IVar="-1" Cut="0.0000000000000000e+00" cType="1" res="-3.8614617660641670e-03" rms="4.5432874560356140e-01" purity="3.3725747466087341e-01" nType="-99"/>
          <Node pos="r" depth="2" NCoef="0" IVar="-1" Cut="0.0000000000000000e+00" cType="1" res="-7.5040072260890156e-05" rms="4.6318048238754272e-01" purity="4.4385620951652527e-01" nType="-99"/>
        </Node>
        <Node pos="r" depth="1" NCoef="0" IVar="5" Cut="1.0686256103515625e+03" cType="1" res="1.7168352380394936e-02" rms="4.5976468920707703e-01" purity="5.5784690380096436e-01" nType="0">
          <Node pos="l" depth="2" NCoef="0" IVar="-1" Cut="0.0000000000000000e+00" cType="1" res="5.2945635979995131e-04" rms="4.6109709143638611e-01" purity="5.4324907064437866e-01" nType="-99"/>
          <Node pos="r" depth="2" NCoef="0" IVar="-1" Cut="0.0000000000000000e+00" cType="1" res="5.2715721540153027e-03" rms="4.4572806358337402e-01" purity="6.5715181827545166e-01" nType="-99"/>
        </Node>
      </Node>
    </BinaryTree>
    <BinaryTree type="DecisionTree" boostWeight="1.0000000000000000e+00" itree="744">
      <Node pos="s" depth="0" NCoef="0" IVar="1" Cut="2.0825932919979095e-01" cType="1" res="-9.6204737201333046e-03" rms="4.6517187356948853e-01" purity="4.9142175912857056e-01" nType="0">
        <Node pos="l" depth="1" NCoef="0" IVar="-1" Cut="0.0000000000000000e+00" cType="1" res="4.1190213523805141e-03" rms="4.5190364122390747e-01" purity="6.3469284772872925e-01" nType="-99"/>
        <Node pos="r" depth="1" NCoef="0" IVar="2" Cut="6.9227701425552368e-01" cType="1" res="-1.4092869125306606e-02" rms="4.6564742922782898e-01" purity="4.8228242993354797e-01" nType="0">
          <Node pos="l" depth="2" NCoef="0" IVar="-1" Cut="0.0000000000000000e+00" cType="1" res="-1.5175143489614129e-03" rms="4.6813297271728516e-01" purity="4.3432649970054626e-01" nType="-99"/>
          <Node pos="r" depth="2" NCoef="0" IVar="-1" Cut="0.0000000000000000e+00" cType="1" res="8.2857959205284715e-04" rms="4.5831561088562012e-01" purity="6.0221868753433228e-01" nType="-99"/>
        </Node>
      </Node>
    </BinaryTree>
    <BinaryTree type="DecisionTree" boostWeight="1.0000000000000000e+00" itree="745">
      <Node pos="s" depth="0" NCoef="0" IVar="2" Cut="6.0108232498168945e-01" cType="1" res="1.8632848514243960e-03" rms="4.6502655744552612e-01" purity="4.9984750151634216e-01" nType="0">
        <Node pos="l" depth="1" NCoef="0" IVar="5" Cut="5.6534814453125000e+02" cType="1" res="1.6549808904528618e-02" rms="4.6580779552459717e-01" purity="4.4909566640853882e-01" nType="0">
          <Node pos="l" depth="2" NCoef="0" IVar="-1" Cut="0.0000000000000000e+00" cType="1" res="-1.2993011623620987e-03" rms="4.4405728578567505e-01" purity="3.3863028883934021e-01" nType="-99"/>
          <Node pos="r" depth="2" NCoef="0" IVar="-1" Cut="0.0000000000000000e+00" cType="1" res="1.9165837438777089e-03" rms="4.7306942939758301e-01" purity="4.9114891886711121e-01" nType="-99"/>
        </Node>
        <Node pos="r" depth="1" NCoef="0" IVar="3" Cut="8.4329915046691895e-01" cType="1" res="-1.2744648382067680e-02" rms="4.6378710865974426e-01" purity="5.5032783746719360e-01" nType="0">
          <Node pos="l" depth="2" NCoef="0" IVar="-1" Cut="0.0000000000000000e+00" cType="1" res="1.1554338270798326e-03" rms="4.7197592258453369e-01" purity="5.9560418128967285e-01" nType="-99"/>
          <Node pos="r" depth="2" NCoef="0" IVar="-1" Cut="0.0000000000000000e+00" cType="1" res="-1.4345609815791249e-03" rms="4.6081995964050293e-01" purity="5.3629982471466064e-01" nType="-99"/>
        </Node>
      </Node>
    </BinaryTree>
    <BinaryTree type="DecisionTree" boostWeight="1.0000000000000000e+00" itree="746">
      <Node pos="s" depth="0" NCoef="0" IVar="4" Cut="1.6167928697541356e-04" cType="1" res="7.3122177273035049e-03" rms="4.6752172708511353e-01" purity="5.0978988409042358e-01" nType="0">
        <Node pos="l" depth="1" NCoef="0" IVar="3" Cut="1.2298750877380371e+00" cType="1" res="-3.8931149989366531e-02" rms="4.5813041925430298e-01" purity="6.1667734384536743e-01" nType="0">
          <Node pos="l" depth="2" NCoef="0" IVar="-1" Cut="0.0000000000000000e+00" cType="1" res="-4.9167570978170261e-05" rms="4.4462138414382935e-01" purity="6.9817656278610229e-01" nType="-99"/>
          <Node pos="r" depth="2" NCoef="0" IVar="-1" Cut="0.0000000000000000e+00" cType="1" res="-4.9805692397058010e-03" rms="4.6684741973876953e-01" purity="5.4735285043716431e-01" nType="-99"/>
        </Node>
        <Node pos="r" depth="1" NCoef="0" IVar="0" Cut="4.1117332875728607e-02" cType="1" res="1.5831211581826210e-02" rms="4.6873393654823303e-01" purity="4.9009895324707031e-01" nType="0">
          <Node pos="l" depth="2" NCoef="0" IVar="-1" Cut="0.0000000000000000e+00" cType="1" res="-4.8595920088700950e-04" rms="4.6029099822044373e-01" purity="3.9825636148452759e-01" nType="-99"/>
          <Node pos="r" depth="2" NCoef="0" IVar="-1" Cut="0.0000000000000000e+00" cType="1" res="1.4482025289908051e-03" rms="4.7094082832336426e-01" purity="5.1685774326324463e-01" nType="-99"/>
        </Node>
      </Node>
    </BinaryTree>
    <BinaryTree type="DecisionTree" boostWeight="1.0000000000000000e+00" itree="747">
      <Node pos="s" depth="0" NCoef="0" IVar="6" Cut="5.8406205177307129e+00" cType="1" res="-3.1109349802136421e-03" rms="4.6461132168769836e-01" purity="4.9570980668067932e-01" nType="0">
        <Node pos="l" depth="1" NCoef="0" IVar="0" Cut="7.2018675506114960e-02" cType="1" res="-7.6645999215543270e-03" rms="4.7056078910827637e-01" purity="4.7368872165679932e-01" nType="0">
          <Node pos="l" depth="2" NCoef="0" IVar="-1" Cut="0.0000000000000000e+00" cType="1" res="4.9253064207732677e-04" rms="4.6998187899589539e-01" purity="4.4250947237014771e-01" nType="-99"/>
          <Node pos="r" depth="2" NCoef="0" IVar="-1" Cut="0.0000000000000000e+00" cType="1" res="-1.2849686900153756e-03" rms="4.7064715623855591e-01" purity="4.9911472201347351e-01" nType="-99"/>
        </Node>
        <Node pos="r" depth="1" NCoef="0" IVar="-1" Cut="0.0000000000000000e+00" cType="1" res="6.4186593517661095e-03" rms="3.5087513923645020e-01" purity="8.4130918979644775e-01" nType="-99"/>
      </Node>
    </BinaryTree>
    <BinaryTree type="DecisionTree" boostWeight="1.0000000000000000e+00" itree="748">
      <Node pos="s" depth="0" NCoef="0" IVar="1" Cut="4.7209227085113525e-01" cType="1" res="6.3973600044846535e-03" rms="4.6153834462165833e-01" purity="5.1039326190948486e-01" nType="0">
        <Node pos="l" depth="1" NCoef="0" IVar="2" Cut="5.6950086355209351e-01" cType="1" res="4.4092290103435516e-02" rms="4.5885467529296875e-01" purity="6.2543517351150513e-01" nType="0">
          <Node pos="l" depth="2" NCoef="0" IVar="-1" Cut="0.0000000000000000e+00" cType="1" res="-7.2987657040357590e-04" rms="4.6857726573944092e-01" purity="4.9763634800910950e-01" nType="-99"/>
          <Node pos="r" depth="2" NCoef="0" IVar="-1" Cut="0.0000000000000000e+00" cType="1" res="5.3477571345865726e-03" rms="4.5096904039382935e-01" purity="6.9197052717208862e-01" nType="-99"/>
        </Node>
        <Node pos="r" depth="1" NCoef="0" IVar="0" Cut="6.1117228120565414e-02" cType="1" res="-3.1367584597319365e-03" rms="4.6172729134559631e-01" purity="4.8129585385322571e-01" nType="0">
          <Node pos="l" depth="2" NCoef="0" IVar="-1" Cut="0.0000000000000000e+00" cType="1" res="1.3495963066816330e-03" rms="4.6262425184249878e-01" purity="4.5147734880447388e-01" nType="-99"/>
          <Node pos="r" depth="2" NCoef="0" IVar="-1" Cut="0.0000000000000000e+00" cType="1" res="-1.1799995554611087e-03" rms="4.6051323413848877e-01" purity="4.9989005923271179e-01" nType="-99"/>
        </Node>
      </Node>
    </BinaryTree>
    <BinaryTree type="DecisionTree" boostWeight="1.0000000000000000e+00" itree="749">
      <Node pos="s" depth="0" NCoef="0" IVar="2" Cut="6.6270524263381958e-01" cType="1" res="-4.7009363770484924e-03" rms="4.6355772018432617e-01" purity="4.9578785896301270e-01" nType="0">
        <Node pos="l" depth="1" NCoef="0" IVar="4" Cut="1.8918026471510530e-03" cType="1" res="-1.5169672667980194e-02" rms="4.6408239006996155e-01" purity="4.3413087725639343e-01" nType="0">
          <Node pos="l" depth="2" NCoef="0" IVar="-1" Cut="0.0000000000000000e+00" cType="1" res="1.8009857740253210e-04" rms="4.7395500540733337e-01" purity="4.9244588613510132e-01" nType="-99"/>
          <Node pos="r" depth="2" NCoef="0" IVar="-1" Cut="0.0000000000000000e+00" cType="1" res="-2.9531626496464014e-03" rms="4.4194272160530090e-01" purity="3.1968614459037781e-01" nType="-99"/>
        </Node>
        <Node pos="r" depth="1" NCoef="0" IVar="6" Cut="2.5565023422241211e+00" cType="1" res="1.3527851551771164e-02" rms="4.6207699179649353e-01" purity="6.0314875841140747e-01" nType="0">
          <Node pos="l" depth="2" NCoef="0" IVar="-1" Cut="0.0000000000000000e+00" cType="1" res="3.4313830547034740e-03" rms="4.8441541194915771e-01" purity="4.4220978021621704e-01" nType="-99"/>
          <Node pos="r" depth="2" NCoef="0" IVar="-1" Cut="0.0000000000000000e+00" cType="1" res="1.3996663619764149e-04" rms="4.5515567064285278e-01" purity="6.4673095941543579e-01" nType="-99"/>
        </Node>
      </Node>
    </BinaryTree>
    <BinaryTree type="DecisionTree" boostWeight="1.0000000000000000e+00" itree="750">
      <Node pos="s" depth="0" NCoef="0" IVar="1" Cut="9.8199135065078735e-01" cType="1" res="-6.0724988579750061e-03" rms="4.6489602327346802e-01" purity="4.9069151282310486e-01" nType="0">
        <Node pos="l" depth="1" NCoef="0" IVar="2" Cut="5.8246016502380371e-01" cType="1" res="7.7079529874026775e-03" rms="4.6935129165649414e-01" purity="5.6703668832778931e-01" nType="0">
          <Node pos="l" depth="2" NCoef="0" IVar="-1" Cut="0.0000000000000000e+00" cType="1" res="2.9646789189428091e-03" rms="4.7251936793327332e-01" purity="5.5162668228149414e-01" nType="-99"/>
          <Node pos="r" depth="2" NCoef="0" IVar="-1" Cut="0.0000000000000000e+00" cType="1" res="-1.1569558409973979e-03" rms="4.6561405062675476e-01" purity="5.7692718505859375e-01" nType="-99"/>
        </Node>
        <Node pos="r" depth="1" NCoef="0" IVar="6" Cut="5.4193911552429199e+00" cType="1" res="-1.9619395956397057e-02" rms="4.6007207036018372e-01" purity="4.1564026474952698e-01" nType="0">
          <Node pos="l" depth="2" NCoef="0" IVar="-1" Cut="0.0000000000000000e+00" cType="1" res="-7.6372048351913691e-04" rms="4.5736655592918396e-01" purity="3.9254283905029297e-01" nType="-99"/>
          <Node pos="r" depth="2" NCoef="0" IVar="-1" Cut="0.0000000000000000e+00" cType="1" res="-5.5562178604304790e-03" rms="4.7790625691413879e-01" purity="6.0917419195175171e-01" nType="-99"/>
        </Node>
      </Node>
    </BinaryTree>
    <BinaryTree type="DecisionTree" boostWeight="1.0000000000000000e+00" itree="751">
      <Node pos="s" depth="0" NCoef="0" IVar="0" Cut="1.2981136143207550e-01" cType="1" res="-3.4107512328773737e-03" rms="4.6314886212348938e-01" purity="4.9807888269424438e-01" nType="0">
        <Node pos="l" depth="1" NCoef="0" IVar="2" Cut="6.7096132040023804e-01" cType="1" res="-1.1142290197312832e-02" rms="4.6727457642555237e-01" purity="4.6306601166725159e-01" nType="0">
          <Node pos="l" depth="2" NCoef="0" IVar="-1" Cut="0.0000000000000000e+00" cType="1" res="-1.0456165182404220e-04" rms="4.6594783663749695e-01" purity="4.4090783596038818e-01" nType="-99"/>
          <Node pos="r" depth="2" NCoef="0" IVar="-1" Cut="0.0000000000000000e+00" cType="1" res="-2.6986275333911180e-03" rms="4.7020399570465088e-01" purity="5.3359848260879517e-01" nType="-99"/>
        </Node>
        <Node pos="r" depth="1" NCoef="0" IVar="4" Cut="2.0646292250603437e-03" cType="1" res="1.8717534840106964e-02" rms="4.5039933919906616e-01" purity="5.9828847646713257e-01" nType="0">
          <Node pos="l" depth="2" NCoef="0" IVar="-1" Cut="0.0000000000000000e+00" cType="1" res="2.9808660037815571e-03" rms="4.3668442964553833e-01" purity="6.6175585985183716e-01" nType="-99"/>
          <Node pos="r" depth="2" NCoef="0" IVar="-1" Cut="0.0000000000000000e+00" cType="1" res="-1.7757728928700089e-03" rms="4.7698935866355896e-01" purity="4.5156058669090271e-01" nType="-99"/>
        </Node>
      </Node>
    </BinaryTree>
    <BinaryTree type="DecisionTree" boostWeight="1.0000000000000000e+00" itree="752">
      <Node pos="s" depth="0" NCoef="0" IVar="5" Cut="1.0651715087890625e+03" cType="1" res="5.5507910437881947e-03" rms="4.6495082974433899e-01" purity="5.0885885953903198e-01" nType="0">
        <Node pos="l" depth="1" NCoef="0" IVar="2" Cut="7.9232174158096313e-01" cType="1" res="-3.7213071482256055e-04" rms="4.6566870808601379e-01" purity="4.9459797143936157e-01" nType="0">
          <Node pos="l" depth="2" NCoef="0" IVar="-1" Cut="0.0000000000000000e+00" cType="1" res="4.9748615128919482e-04" rms="4.6440196037292480e-01" purity="4.8207634687423706e-01" nType="-99"/>
          <Node pos="r" depth="2" NCoef="0" IVar="-1" Cut="0.0000000000000000e+00" cType="1" res="-4.0880986489355564e-03" rms="4.7047942876815796e-01" purity="5.8262449502944946e-01" nType="-99"/>
        </Node>
        <Node pos="r" depth="1" NCoef="0" IVar="4" Cut="1.4403035165742040e-03" cType="1" res="4.5419711619615555e-02" rms="4.5810097455978394e-01" purity="6.0485285520553589e-01" nType="0">
          <Node pos="l" depth="2" NCoef="0" IVar="-1" Cut="0.0000000000000000e+00" cType="1" res="6.0360310599207878e-03" rms="4.3139904737472534e-01" purity="6.9127744436264038e-01" nType="-99"/>
          <Node pos="r" depth="2" NCoef="0" IVar="-1" Cut="0.0000000000000000e+00" cType="1" res="-3.7829743814654648e-04" rms="4.8813629150390625e-01" purity="4.8468804359436035e-01" nType="-99"/>
        </Node>
      </Node>
    </BinaryTree>
    <BinaryTree type="DecisionTree" boostWeight="1.0000000000000000e+00" itree="753">
      <Node pos="s" depth="0" NCoef="0" IVar="5" Cut="8.3650378417968750e+02" cType="1" res="5.2402089349925518e-03" rms="4.6595573425292969e-01" purity="5.0659590959548950e-01" nType="0">
        <Node pos="l" depth="1" NCoef="0" IVar="2" Cut="7.1964108943939209e-01" cType="1" res="1.9046258181333542e-02" rms="4.6337369084358215e-01" purity="4.9897447228431702e-01" nType="0">
          <Node pos="l" depth="2" NCoef="0" IVar="-1" Cut="0.0000000000000000e+00" cType="1" res="6.4168160315603018e-04" rms="4.6472427248954773e-01" purity="4.6105822920799255e-01" nType="-99"/>
          <Node pos="r" depth="2" NCoef="0" IVar="-1" Cut="0.0000000000000000e+00" cType="1" res="3.4394271206110716e-03" rms="4.5735156536102295e-01" purity="6.2956982851028442e-01" nType="-99"/>
        </Node>
        <Node pos="r" depth="1" NCoef="0" IVar="1" Cut="9.6390128135681152e-01" cType="1" res="-2.6197442784905434e-02" rms="4.7027277946472168e-01" purity="5.2395057678222656e-01" nType="0">
          <Node pos="l" depth="2" NCoef="0" IVar="-1" Cut="0.0000000000000000e+00" cType="1" res="-3.3763709943741560e-03" rms="4.7060641646385193e-01" purity="5.4968017339706421e-01" nType="-99"/>
          <Node pos="r" depth="2" NCoef="0" IVar="-1" Cut="0.0000000000000000e+00" cType="1" res="1.8958031432703137e-04" rms="4.6815851330757141e-01" purity="4.9561858177185059e-01" nType="-99"/>
        </Node>
      </Node>
    </BinaryTree>
    <BinaryTree type="DecisionTree" boostWeight="1.0000000000000000e+00" itree="754">
      <Node pos="s" depth="0" NCoef="0" IVar="0" Cut="2.8092518448829651e-02" cType="1" res="4.7589866444468498e-03" rms="4.6581652760505676e-01" purity="5.0333189964294434e-01" nType="0">
        <Node pos="l" depth="1" NCoef="0" IVar="4" Cut="1.0676876408979297e-03" cType="1" res="4.1449163109064102e-02" rms="4.5980837941169739e-01" purity="4.6239629387855530e-01" nType="0">
          <Node pos="l" depth="2" NCoef="0" IVar="-1" Cut="0.0000000000000000e+00" cType="1" res="-1.6912772844079882e-04" rms="4.5668664574623108e-01" purity="4.7839215397834778e-01" nType="-99"/>
          <Node pos="r" depth="2" NCoef="0" IVar="-1" Cut="0.0000000000000000e+00" cType="1" res="5.2958177402615547e-03" rms="4.5884099602699280e-01" purity="4.4720515608787537e-01" nType="-99"/>
        </Node>
        <Node pos="r" depth="1" NCoef="0" IVar="5" Cut="4.7332049560546875e+02" cType="1" res="-2.7213958674110472e-04" rms="4.6640938520431519e-01" purity="5.0894516706466675e-01" nType="0">
          <Node pos="l" depth="2" NCoef="0" IVar="-1" Cut="0.0000000000000000e+00" cType="1" res="3.1303160358220339e-03" rms="4.5587822794914246e-01" purity="4.1601520776748657e-01" nType="-99"/>
          <Node pos="r" depth="2" NCoef="0" IVar="-1" Cut="0.0000000000000000e+00" cType="1" res="-3.9587295032106340e-04" rms="4.6735641360282898e-01" purity="5.2042090892791748e-01" nType="-99"/>
        </Node>
      </Node>
    </BinaryTree>
    <BinaryTree type="DecisionTree" boostWeight="1.0000000000000000e+00" itree="755">
      <Node pos="s" depth="0" NCoef="0" IVar="6" Cut="4.3078866004943848e+00" cType="1" res="-9.8514193668961525e-03" rms="4.6320542693138123e-01" purity="4.8825693130493164e-01" nType="0">
        <Node pos="l" depth="1" NCoef="0" IVar="4" Cut="3.2172661740332842e-03" cType="1" res="-2.0956147462129593e-02" rms="4.6822330355644226e-01" purity="4.0295198559761047e-01" nType="0">
          <Node pos="l" depth="2" NCoef="0" IVar="-1" Cut="0.0000000000000000e+00" cType="1" res="-1.6162333777174354e-03" rms="4.6736204624176025e-01" purity="4.0410402417182922e-01" nType="-99"/>
          <Node pos="r" depth="2" NCoef="0" IVar="-1" Cut="0.0000000000000000e+00" cType="1" res="1.0969318682327867e-03" rms="4.7194519639015198e-01" purity="3.9542374014854431e-01" nType="-99"/>
        </Node>
        <Node pos="r" depth="1" NCoef="0" IVar="1" Cut="1.7830916643142700e+00" cType="1" res="1.5597581863403320e-02" rms="4.5046418905258179e-01" purity="6.8375259637832642e-01" nType="0">
          <Node pos="l" depth="2" NCoef="0" IVar="-1" Cut="0.0000000000000000e+00" cType="1" res="1.4105415903031826e-04" rms="4.4555178284645081e-01" purity="6.9611388444900513e-01" nType="-99"/>
          <Node pos="r" depth="2" NCoef="0" IVar="-1" Cut="0.0000000000000000e+00" cType="1" res="5.1522590219974518e-03" rms="4.6778580546379089e-01" purity="6.2436610460281372e-01" nType="-99"/>
        </Node>
      </Node>
    </BinaryTree>
    <BinaryTree type="DecisionTree" boostWeight="1.0000000000000000e+00" itree="756">
      <Node pos="s" depth="0" NCoef="0" IVar="6" Cut="5.4544949531555176e+00" cType="1" res="-1.4491012552753091e-03" rms="4.6661344170570374e-01" purity="4.9604317545890808e-01" nType="0">
        <Node pos="l" depth="1" NCoef="0" IVar="5" Cut="1.1968854980468750e+03" cType="1" res="4.4588730670511723e-03" rms="4.6791121363639832e-01" purity="4.7459533810615540e-01" nType="0">
          <Node pos="l" depth="2" NCoef="0" IVar="-1" Cut="0.0000000000000000e+00" cType="1" res="6.4268929418176413e-04" rms="4.6509590744972229e-01" purity="4.7459444403648376e-01" nType="-99"/>
          <Node pos="r" depth="2" NCoef="0" IVar="-1" Cut="0.0000000000000000e+00" cType="1" res="-3.3003026619553566e-03" rms="4.9237588047981262e-01" purity="4.7460433840751648e-01" nType="-99"/>
        </Node>
        <Node pos="r" depth="1" NCoef="0" IVar="3" Cut="1.2444598674774170e+00" cType="1" res="-5.2605107426643372e-02" rms="4.5200389623641968e-01" purity="6.8175554275512695e-01" nType="0">
          <Node pos="l" depth="2" NCoef="0" IVar="-1" Cut="0.0000000000000000e+00" cType="1" res="-7.6105077750980854e-03" rms="4.3991726636886597e-01" purity="6.8768888711929321e-01" nType="-99"/>
          <Node pos="r" depth="2" NCoef="0" IVar="-1" Cut="0.0000000000000000e+00" cType="1" res="-1.2176031013950706e-03" rms="4.6149456501007080e-01" purity="6.7554444074630737e-01" nType="-99"/>
        </Node>
      </Node>
    </BinaryTree>
    <BinaryTree type="DecisionTree" boostWeight="1.0000000000000000e+00" itree="757">
      <Node pos="s" depth="0" NCoef="0" IVar="2" Cut="5.4090166091918945e-01" cType="1" res="7.9884566366672516e-03" rms="4.6050974726676941e-01" purity="5.0720000267028809e-01" nType="0">
        <Node pos="l" depth="1" NCoef="0" IVar="6" Cut="4.1668310165405273e+00" cType="1" res="-2.0642863586544991e-02" rms="4.5419421792030334e-01" purity="4.0614894032478333e-01" nType="0">
          <Node pos="l" depth="2" NCoef="0" IVar="-1" Cut="0.0000000000000000e+00" cType="1" res="-2.5349091738462448e-03" rms="4.4072261452674866e-01" purity="3.0441287159919739e-01" nType="-99"/>
          <Node pos="r" depth="2" NCoef="0" IVar="-1" Cut="0.0000000000000000e+00" cType="1" res="1.2480498990043998e-03" rms="4.7608458995819092e-01" purity="5.9894406795501709e-01" nType="-99"/>
        </Node>
        <Node pos="r" depth="1" NCoef="0" IVar="1" Cut="1.2999883890151978e+00" cType="1" res="2.4449003860354424e-02" rms="4.6330139040946960e-01" purity="5.6529563665390015e-01" nType="0">
          <Node pos="l" depth="2" NCoef="0" IVar="-1" Cut="0.0000000000000000e+00" cType="1" res="8.4195146337151527e-04" rms="4.6182653307914734e-01" purity="5.9091001749038696e-01" nType="-99"/>
          <Node pos="r" depth="2" NCoef="0" IVar="-1" Cut="0.0000000000000000e+00" cType="1" res="3.2983140554279089e-03" rms="4.6547654271125793e-01" purity="5.0781470537185669e-01" nType="-99"/>
        </Node>
      </Node>
    </BinaryTree>
    <BinaryTree type="DecisionTree" boostWeight="1.0000000000000000e+00" itree="758">
      <Node pos="s" depth="0" NCoef="0" IVar="1" Cut="2.6149437427520752e+00" cType="1" res="-2.1511672530323267e-03" rms="4.6381345391273499e-01" purity="4.9796816706657410e-01" nType="0">
        <Node pos="l" depth="1" NCoef="0" IVar="5" Cut="4.8348812866210938e+02" cType="1" res="-6.1726090498268604e-03" rms="4.6432510018348694e-01" purity="5.0939762592315674e-01" nType="0">
          <Node pos="l" depth="2" NCoef="0" IVar="-1" Cut="0.0000000000000000e+00" cType="1" res="-2.9833121225237846e-03" rms="4.4285067915916443e-01" purity="3.4243378043174744e-01" nType="-99"/>
          <Node pos="r" depth="2" NCoef="0" IVar="-1" Cut="0.0000000000000000e+00" cType="1" res="-4.0642917156219482e-05" rms="4.6681237220764160e-01" purity="5.3149807453155518e-01" nType="-99"/>
        </Node>
        <Node pos="r" depth="1" NCoef="0" IVar="-1" Cut="0.0000000000000000e+00" cType="1" res="3.1750022899359465e-03" rms="4.5456880331039429e-01" purity="3.5734152793884277e-01" nType="-99"/>
      </Node>
    </BinaryTree>
    <BinaryTree type="DecisionTree" boostWeight="1.0000000000000000e+00" itree="759">
      <Node pos="s" depth="0" NCoef="0" IVar="0" Cut="2.2653496265411377e-01" cType="1" res="9.1896153753623366e-04" rms="4.6378627419471741e-01" purity="5.0274860858917236e-01" nType="0">
        <Node pos="l" depth="1" NCoef="0" IVar="4" Cut="3.5389654804021120e-03" cType="1" res="4.3313526548445225e-03" rms="4.6376711130142212e-01" purity="4.9930778145790100e-01" nType="0">
          <Node pos="l" depth="2" NCoef="0" IVar="-1" Cut="0.0000000000000000e+00" cType="1" res="4.9925869097933173e-04" rms="4.6391066908836365e-01" purity="5.0932049751281738e-01" nType="-99"/>
          <Node pos="r" depth="2" NCoef="0" IVar="-1" Cut="0.0000000000000000e+00" cType="1" res="-2.6048319414258003e-03" rms="4.5900750160217285e-01" purity="3.5645109415054321e-01" nType="-99"/>
        </Node>
        <Node pos="r" depth="1" NCoef="0" IVar="-1" Cut="0.0000000000000000e+00" cType="1" res="-4.2914371006190777e-03" rms="4.5954713225364685e-01" purity="5.6674623489379883e-01" nType="-99"/>
      </Node>
    </BinaryTree>
    <BinaryTree type="DecisionTree" boostWeight="1.0000000000000000e+00" itree="760">
      <Node pos="s" depth="0" NCoef="0" IVar="0" Cut="1.9791460037231445e-01" cType="1" res="1.4198202639818192e-02" rms="4.6421295404434204e-01" purity="5.1316440105438232e-01" nType="0">
        <Node pos="l" depth="1" NCoef="0" IVar="3" Cut="9.5442640781402588e-01" cType="1" res="9.6301706507802010e-03" rms="4.6700036525726318e-01" purity="4.9726843833923340e-01" nType="0">
          <Node pos="l" depth="2" NCoef="0" IVar="-1" Cut="0.0000000000000000e+00" cType="1" res="1.7819692147895694e-03" rms="4.6513229608535767e-01" purity="5.4886496067047119e-01" nType="-99"/>
          <Node pos="r" depth="2" NCoef="0" IVar="-1" Cut="0.0000000000000000e+00" cType="1" res="1.5834695659577847e-04" rms="4.6755018830299377e-01" purity="4.7670909762382507e-01" nType="-99"/>
        </Node>
        <Node pos="r" depth="1" NCoef="0" IVar="-1" Cut="0.0000000000000000e+00" cType="1" res="4.6859793365001678e-03" rms="4.3009385466575623e-01" purity="6.8390905857086182e-01" nType="-99"/>
      </Node>
    </BinaryTree>
    <BinaryTree type="DecisionTree" boostWeight="1.0000000000000000e+00" itree="761">
      <Node pos="s" depth="0" NCoef="0" IVar="4" Cut="3.5927996505051851e-03" cType="1" res="-3.4674652852118015e-03" rms="4.6507167816162109e-01" purity="4.9434933066368103e-01" nType="0">
        <Node pos="l" depth="1" NCoef="0" IVar="2" Cut="5.7449173927307129e-01" cType="1" res="-8.9435745030641556e-03" rms="4.6421676874160767e-01" purity="4.9604469537734985e-01" nType="0">
          <Node pos="l" depth="2" NCoef="0" IVar="-1" Cut="0.0000000000000000e+00" cType="1" res="6.9545296719297767e-04" rms="4.6467906236648560e-01" purity="4.4099131226539612e-01" nType="-99"/>
          <Node pos="r" depth="2" NCoef="0" IVar="-1" Cut="0.0000000000000000e+00" cType="1" res="-1.5696662012487650e-03" rms="4.6328797936439514e-01" purity="5.3798782825469971e-01" nType="-99"/>
        </Node>
        <Node pos="r" depth="1" NCoef="0" IVar="-1" Cut="0.0000000000000000e+00" cType="1" res="4.8852232284843922e-03" rms="4.7012436389923096e-01" purity="4.6898677945137024e-01" nType="-99"/>
      </Node>
    </BinaryTree>
    <BinaryTree type="DecisionTree" boostWeight="1.0000000000000000e+00" itree="762">
      <Node pos="s" depth="0" NCoef="0" IVar="1" Cut="1.2850329875946045e+00" cType="1" res="8.4471106529235840e-03" rms="4.6581241488456726e-01" purity="5.1069951057434082e-01" nType="0">
        <Node pos="l" depth="1" NCoef="0" IVar="0" Cut="6.1668913811445236e-02" cType="1" res="-2.7114141266793013e-03" rms="4.6872833371162415e-01" purity="5.4764211177825928e-01" nType="0">
          <Node pos="l" depth="2" NCoef="0" IVar="-1" Cut="0.0000000000000000e+00" cType="1" res="1.8648228142410517e-03" rms="4.6686422824859619e-01" purity="5.3919148445129395e-01" nType="-99"/>
          <Node pos="r" depth="2" NCoef="0" IVar="-1" Cut="0.0000000000000000e+00" cType="1" res="-1.1435289634391665e-03" rms="4.6884965896606445e-01" purity="5.5157595872879028e-01" nType="-99"/>
        </Node>
        <Node pos="r" depth="1" NCoef="0" IVar="2" Cut="6.7005121707916260e-01" cType="1" res="2.8227364644408226e-02" rms="4.5993337035179138e-01" purity="4.4521290063858032e-01" nType="0">
          <Node pos="l" depth="2" NCoef="0" IVar="-1" Cut="0.0000000000000000e+00" cType="1" res="1.0318814311176538e-03" rms="4.6116125583648682e-01" purity="4.0214297175407410e-01" nType="-99"/>
          <Node pos="r" depth="2" NCoef="0" IVar="-1" Cut="0.0000000000000000e+00" cType="1" res="4.6577933244407177e-03" rms="4.5319670438766479e-01" purity="5.9475308656692505e-01" nType="-99"/>
        </Node>
      </Node>
    </BinaryTree>
    <BinaryTree type="DecisionTree" boostWeight="1.0000000000000000e+00" itree="763">
      <Node pos="s" depth="0" NCoef="0" IVar="2" Cut="6.5291583538055420e-01" cType="1" res="2.1504224278032780e-03" rms="4.6123933792114258e-01" purity="5.0256079435348511e-01" nType="0">
        <Node pos="l" depth="1" NCoef="0" IVar="3" Cut="1.3251504898071289e+00" cType="1" res="-1.0615725070238113e-02" rms="4.6293869614601135e-01" purity="4.4123640656471252e-01" nType="0">
          <Node pos="l" depth="2" NCoef="0" IVar="-1" Cut="0.0000000000000000e+00" cType="1" res="6.2963605159893632e-04" rms="4.6833813190460205e-01" purity="4.9891525506973267e-01" nType="-99"/>
          <Node pos="r" depth="2" NCoef="0" IVar="-1" Cut="0.0000000000000000e+00" cType="1" res="-1.8057322595268488e-03" rms="4.5701390504837036e-01" purity="3.8743868470191956e-01" nType="-99"/>
        </Node>
        <Node pos="r" depth="1" NCoef="0" IVar="0" Cut="1.5488751232624054e-01" cType="1" res="2.4066234007477760e-02" rms="4.5747733116149902e-01" purity="6.0783731937408447e-01" nType="0">
          <Node pos="l" depth="2" NCoef="0" IVar="-1" Cut="0.0000000000000000e+00" cType="1" res="5.0909828860312700e-04" rms="4.6501559019088745e-01" purity="5.6975513696670532e-01" nType="-99"/>
          <Node pos="r" depth="2" NCoef="0" IVar="-1" Cut="0.0000000000000000e+00" cType="1" res="4.1272747330367565e-03" rms="4.4059681892395020e-01" purity="6.8230533599853516e-01" nType="-99"/>
        </Node>
      </Node>
    </BinaryTree>
    <BinaryTree type="DecisionTree" boostWeight="1.0000000000000000e+00" itree="764">
      <Node pos="s" depth="0" NCoef="0" IVar="0" Cut="5.4468668997287750e-02" cType="1" res="-6.8114325404167175e-03" rms="4.6527028083801270e-01" purity="4.9678957462310791e-01" nType="0">
        <Node pos="l" depth="1" NCoef="0" IVar="5" Cut="9.1818939208984375e+02" cType="1" res="-3.6717083305120468e-02" rms="4.5924842357635498e-01" purity="4.0149375796318054e-01" nType="0">
          <Node pos="l" depth="2" NCoef="0" IVar="-1" Cut="0.0000000000000000e+00" cType="1" res="-3.5614492371678352e-03" rms="4.4782951474189758e-01" purity="3.4733811020851135e-01" nType="-99"/>
          <Node pos="r" depth="2" NCoef="0" IVar="-1" Cut="0.0000000000000000e+00" cType="1" res="2.3662604507990181e-04" rms="4.7692525386810303e-01" purity="5.0128072500228882e-01" nType="-99"/>
        </Node>
        <Node pos="r" depth="1" NCoef="0" IVar="6" Cut="3.1723475456237793e+00" cType="1" res="7.5112199410796165e-03" rms="4.6744978427886963e-01" purity="5.4242938756942749e-01" nType="0">
          <Node pos="l" depth="2" NCoef="0" IVar="-1" Cut="0.0000000000000000e+00" cType="1" res="1.8975378479808569e-03" rms="4.7158989310264587e-01" purity="4.1092467308044434e-01" nType="-99"/>
          <Node pos="r" depth="2" NCoef="0" IVar="-1" Cut="0.0000000000000000e+00" cType="1" res="-4.3007219210267067e-04" rms="4.6441584825515747e-01" purity="6.2057411670684814e-01" nType="-99"/>
        </Node>
      </Node>
    </BinaryTree>
    <BinaryTree type="DecisionTree" boostWeight="1.0000000000000000e+00" itree="765">
      <Node pos="s" depth="0" NCoef="0" IVar="5" Cut="7.9933715820312500e+02" cType="1" res="-5.5739586241543293e-03" rms="4.6348696947097778e-01" purity="4.9858155846595764e-01" nType="0">
        <Node pos="l" depth="1" NCoef="0" IVar="0" Cut="3.5465512424707413e-02" cType="1" res="-2.0741153508424759e-02" rms="4.5981225371360779e-01" purity="4.5555356144905090e-01" nType="0">
          <Node pos="l" depth="2" NCoef="0" IVar="-1" Cut="0.0000000000000000e+00" cType="1" res="-5.4908315651118755e-03" rms="4.2950245738029480e-01" purity="2.9225230216979980e-01" nType="-99"/>
          <Node pos="r" depth="2" NCoef="0" IVar="-1" Cut="0.0000000000000000e+00" cType="1" res="-7.0701766526326537e-04" rms="4.6302300691604614e-01" purity="4.7808086872100830e-01" nType="-99"/>
        </Node>
        <Node pos="r" depth="1" NCoef="0" IVar="5" Cut="8.7307122802734375e+02" cType="1" res="2.3773409426212311e-02" rms="4.6912544965744019e-01" purity="5.8183747529983521e-01" nType="0">
          <Node pos="l" depth="2" NCoef="0" IVar="-1" Cut="0.0000000000000000e+00" cType="1" res="4.9027083441615105e-03" rms="4.5061314105987549e-01" purity="6.2911748886108398e-01" nType="-99"/>
          <Node pos="r" depth="2" NCoef="0" IVar="-1" Cut="0.0000000000000000e+00" cType="1" res="6.3044083071872592e-04" rms="4.7354763746261597e-01" purity="5.6784182786941528e-01" nType="-99"/>
        </Node>
      </Node>
    </BinaryTree>
    <BinaryTree type="DecisionTree" boostWeight="1.0000000000000000e+00" itree="766">
      <Node pos="s" depth="0" NCoef="0" IVar="2" Cut="4.2466297745704651e-01" cType="1" res="-7.7058887109160423e-03" rms="4.6367236971855164e-01" purity="4.9522122740745544e-01" nType="0">
        <Node pos="l" depth="1" NCoef="0" IVar="3" Cut="1.3814227581024170e+00" cType="1" res="-4.1086811572313309e-02" rms="4.5414444804191589e-01" purity="3.5403633117675781e-01" nType="0">
          <Node pos="l" depth="2" NCoef="0" IVar="-1" Cut="0.0000000000000000e+00" cType="1" res="-1.4574272790923715e-04" rms="4.7737458348274231e-01" purity="4.3827611207962036e-01" nType="-99"/>
          <Node pos="r" depth="2" NCoef="0" IVar="-1" Cut="0.0000000000000000e+00" cType="1" res="-4.5885522849857807e-03" rms="4.2896261811256409e-01" purity="2.7755078673362732e-01" nType="-99"/>
        </Node>
        <Node pos="r" depth="1" NCoef="0" IVar="0" Cut="8.3748064935207367e-02" cType="1" res="-3.1951973214745522e-03" rms="4.6476104855537415e-01" purity="5.1429921388626099e-01" nType="0">
          <Node pos="l" depth="2" NCoef="0" IVar="-1" Cut="0.0000000000000000e+00" cType="1" res="1.0966295376420021e-03" rms="4.6039691567420959e-01" purity="4.9473568797111511e-01" nType="-99"/>
          <Node pos="r" depth="2" NCoef="0" IVar="-1" Cut="0.0000000000000000e+00" cType="1" res="-1.3183912960812449e-03" rms="4.6770024299621582e-01" purity="5.3061825037002563e-01" nType="-99"/>
        </Node>
      </Node>
    </BinaryTree>
    <BinaryTree type="DecisionTree" boostWeight="1.0000000000000000e+00" itree="767">
      <Node pos="s" depth="0" NCoef="0" IVar="4" Cut="2.2700277622789145e-03" cType="1" res="-9.5441788434982300e-03" rms="4.6379047632217407e-01" purity="4.9388253688812256e-01" nType="0">
        <Node pos="l" depth="1" NCoef="0" IVar="4" Cut="1.5993686392903328e-03" cType="1" res="-1.6544528305530548e-02" rms="4.6120306849479675e-01" purity="5.1858627796173096e-01" nType="0">
          <Node pos="l" depth="2" NCoef="0" IVar="-1" Cut="0.0000000000000000e+00" cType="1" res="-6.0677714645862579e-04" rms="4.6155840158462524e-01" purity="5.4652786254882812e-01" nType="-99"/>
          <Node pos="r" depth="2" NCoef="0" IVar="-1" Cut="0.0000000000000000e+00" cType="1" res="-3.0529662035405636e-03" rms="4.5803835988044739e-01" purity="3.9154297113418579e-01" nType="-99"/>
        </Node>
        <Node pos="r" depth="1" NCoef="0" IVar="4" Cut="2.8408297803252935e-03" cType="1" res="1.2287251651287079e-02" rms="4.7110089659690857e-01" purity="4.1684079170227051e-01" nType="0">
          <Node pos="l" depth="2" NCoef="0" IVar="-1" Cut="0.0000000000000000e+00" cType="1" res="3.9636888541281223e-03" rms="4.7819748520851135e-01" purity="4.8519137501716614e-01" nType="-99"/>
          <Node pos="r" depth="2" NCoef="0" IVar="-1" Cut="0.0000000000000000e+00" cType="1" res="-1.0934417368844151e-03" rms="4.6414408087730408e-01" purity="3.7605923414230347e-01" nType="-99"/>
        </Node>
      </Node>
    </BinaryTree>
    <BinaryTree type="DecisionTree" boostWeight="1.0000000000000000e+00" itree="768">
      <Node pos="s" depth="0" NCoef="0" IVar="1" Cut="1.6642776727676392e+00" cType="1" res="2.2526110988110304e-03" rms="4.6151262521743774e-01" purity="5.0105315446853638e-01" nType="0">
        <Node pos="l" depth="1" NCoef="0" IVar="0" Cut="1.5978242456912994e-01" cType="1" res="1.1542410589754581e-02" rms="4.6445405483245850e-01" purity="5.4500466585159302e-01" nType="0">
          <Node pos="l" depth="2" NCoef="0" IVar="-1" Cut="0.0000000000000000e+00" cType="1" res="1.2461366131901741e-03" rms="4.6606004238128662e-01" purity="5.3605407476425171e-01" nType="-99"/>
          <Node pos="r" depth="2" NCoef="0" IVar="-1" Cut="0.0000000000000000e+00" cType="1" res="-1.6276572132483125e-03" rms="4.5555987954139709e-01" purity="5.8486914634704590e-01" nType="-99"/>
        </Node>
        <Node pos="r" depth="1" NCoef="0" IVar="4" Cut="2.1283288951963186e-03" cType="1" res="-2.7487857267260551e-02" rms="4.5068120956420898e-01" purity="3.6034628748893738e-01" nType="0">
          <Node pos="l" depth="2" NCoef="0" IVar="-1" Cut="0.0000000000000000e+00" cType="1" res="-3.1699138344265521e-04" rms="4.6360966563224792e-01" purity="4.1602560877799988e-01" nType="-99"/>
          <Node pos="r" depth="2" NCoef="0" IVar="-1" Cut="0.0000000000000000e+00" cType="1" res="-4.9091898836195469e-03" rms="4.1342559456825256e-01" purity="2.2775608301162720e-01" nType="-99"/>
        </Node>
      </Node>
    </BinaryTree>
    <BinaryTree type="DecisionTree" boostWeight="1.0000000000000000e+00" itree="769">
      <Node pos="s" depth="0" NCoef="0" IVar="3" Cut="5.6284290552139282e-01" cType="1" res="8.6488359374925494e-04" rms="4.6192625164985657e-01" purity="5.0020688772201538e-01" nType="0">
        <Node pos="l" depth="1" NCoef="0" IVar="-1" Cut="0.0000000000000000e+00" cType="1" res="-3.7906898651272058e-03" rms="4.8276579380035400e-01" purity="4.5100849866867065e-01" nType="-99"/>
        <Node pos="r" depth="1" NCoef="0" IVar="2" Cut="5.7626777887344360e-01" cType="1" res="4.4316314160823822e-03" rms="4.6046462655067444e-01" purity="5.0298035144805908e-01" nType="0">
          <Node pos="l" depth="2" NCoef="0" IVar="-1" Cut="0.0000000000000000e+00" cType="1" res="-8.7621435523033142e-04" rms="4.6263384819030762e-01" purity="4.1157251596450806e-01" nType="-99"/>
          <Node pos="r" depth="2" NCoef="0" IVar="-1" Cut="0.0000000000000000e+00" cType="1" res="1.3174775522202253e-03" rms="4.5813786983489990e-01" purity="5.7704818248748779e-01" nType="-99"/>
        </Node>
      </Node>
    </BinaryTree>
    <BinaryTree type="DecisionTree" boostWeight="1.0000000000000000e+00" itree="770">
      <Node pos="s" depth="0" NCoef="0" IVar="4" Cut="2.2658519446849823e-03" cType="1" res="-6.1491848900914192e-03" rms="4.6658495068550110e-01" purity="4.9238049983978271e-01" nType="0">
        <Node pos="l" depth="1" NCoef="0" IVar="3" Cut="7.2547000646591187e-01" cType="1" res="-1.5604439191520214e-02" rms="4.6410506963729858e-01" purity="5.1475012302398682e-01" nType="0">
          <Node pos="l" depth="2" NCoef="0" IVar="-1" Cut="0.0000000000000000e+00" cType="1" res="-3.8162216078490019e-03" rms="4.7374886274337769e-01" purity="4.7656685113906860e-01" nType="-99"/>
          <Node pos="r" depth="2" NCoef="0" IVar="-1" Cut="0.0000000000000000e+00" cType="1" res="-4.6959525207057595e-04" rms="4.6180984377861023e-01" purity="5.2175420522689819e-01" nType="-99"/>
        </Node>
        <Node pos="r" depth="1" NCoef="0" IVar="2" Cut="6.5668082237243652e-01" cType="1" res="2.1481271833181381e-02" rms="4.7267466783523560e-01" purity="4.2701116204261780e-01" nType="0">
          <Node pos="l" depth="2" NCoef="0" IVar="-1" Cut="0.0000000000000000e+00" cType="1" res="2.6671348605304956e-03" rms="4.6817201375961304e-01" purity="4.1471952199935913e-01" nType="-99"/>
          <Node pos="r" depth="2" NCoef="0" IVar="-1" Cut="0.0000000000000000e+00" cType="1" res="-1.3304200256243348e-03" rms="4.7848635911941528e-01" purity="4.5148873329162598e-01" nType="-99"/>
        </Node>
      </Node>
    </BinaryTree>
    <BinaryTree type="DecisionTree" boostWeight="1.0000000000000000e+00" itree="771">
      <Node pos="s" depth="0" NCoef="0" IVar="1" Cut="2.5699338912963867e+00" cType="1" res="-8.2864947617053986e-03" rms="4.6311506628990173e-01" purity="4.9274641275405884e-01" nType="0">
        <Node pos="l" depth="1" NCoef="0" IVar="5" Cut="4.9477224731445312e+02" cType="1" res="-1.2877789326012135e-02" rms="4.6388316154479980e-01" purity="5.0183528661727905e-01" nType="0">
          <Node pos="l" depth="2" NCoef="0" IVar="-1" Cut="0.0000000000000000e+00" cType="1" res="-3.5205187741667032e-03" rms="4.5466154813766479e-01" purity="3.3839452266693115e-01" nType="-99"/>
          <Node pos="r" depth="2" NCoef="0" IVar="-1" Cut="0.0000000000000000e+00" cType="1" res="-4.1073566535487771e-04" rms="4.6481505036354065e-01" purity="5.2510356903076172e-01" nType="-99"/>
        </Node>
        <Node pos="r" depth="1" NCoef="0" IVar="-1" Cut="0.0000000000000000e+00" cType="1" res="3.8195929955691099e-03" rms="4.4745141267776489e-01" purity="3.6640986800193787e-01" nType="-99"/>
      </Node>
    </BinaryTree>
    <BinaryTree type="DecisionTree" boostWeight="1.0000000000000000e+00" itree="772">
      <Node pos="s" depth="0" NCoef="0" IVar="5" Cut="8.1396838378906250e+02" cType="1" res="1.2693663127720356e-02" rms="4.6040245890617371e-01" purity="5.1406222581863403e-01" nType="0">
        <Node pos="l" depth="1" NCoef="0" IVar="5" Cut="5.6716302490234375e+02" cType="1" res="2.2240675985813141e-02" rms="4.5828941464424133e-01" purity="4.9582192301750183e-01" nType="0">
          <Node pos="l" depth="2" NCoef="0" IVar="-1" Cut="0.0000000000000000e+00" cType="1" res="-1.9111861183773726e-04" rms="4.5531216263771057e-01" purity="4.0823239088058472e-01" nType="-99"/>
          <Node pos="r" depth="2" NCoef="0" IVar="-1" Cut="0.0000000000000000e+00" cType="1" res="2.6075318455696106e-03" rms="4.5951014757156372e-01" purity="5.5530065298080444e-01" nType="-99"/>
        </Node>
        <Node pos="r" depth="1" NCoef="0" IVar="3" Cut="1.6516778469085693e+00" cType="1" res="-5.3449869155883789e-03" rms="4.6383258700370789e-01" purity="5.4852628707885742e-01" nType="0">
          <Node pos="l" depth="2" NCoef="0" IVar="-1" Cut="0.0000000000000000e+00" cType="1" res="1.0331787634640932e-03" rms="4.6398797631263733e-01" purity="6.0021305084228516e-01" nType="-99"/>
          <Node pos="r" depth="2" NCoef="0" IVar="-1" Cut="0.0000000000000000e+00" cType="1" res="-3.9269523695111275e-03" rms="4.5796424150466919e-01" purity="3.9874622225761414e-01" nType="-99"/>
        </Node>
      </Node>
    </BinaryTree>
    <BinaryTree type="DecisionTree" boostWeight="1.0000000000000000e+00" itree="773">
      <Node pos="s" depth="0" NCoef="0" IVar="5" Cut="9.6667596435546875e+02" cType="1" res="1.4826784899923950e-04" rms="4.6406665444374084e-01" purity="5.0372254848480225e-01" nType="0">
        <Node pos="l" depth="1" NCoef="0" IVar="2" Cut="7.9215711355209351e-01" cType="1" res="1.0047230869531631e-02" rms="4.6258783340454102e-01" purity="5.0156658887863159e-01" nType="0">
          <Node pos="l" depth="2" NCoef="0" IVar="-1" Cut="0.0000000000000000e+00" cType="1" res="1.0485796956345439e-03" rms="4.6406921744346619e-01" purity="4.9011653661727905e-01" nType="-99"/>
          <Node pos="r" depth="2" NCoef="0" IVar="-1" Cut="0.0000000000000000e+00" cType="1" res="-2.4802919942885637e-03" rms="4.4872498512268066e-01" purity="5.8665508031845093e-01" nType="-99"/>
        </Node>
        <Node pos="r" depth="1" NCoef="0" IVar="5" Cut="1.1003226318359375e+03" cType="1" res="-4.0767729282379150e-02" rms="4.6791338920593262e-01" purity="5.1263403892517090e-01" nType="0">
          <Node pos="l" depth="2" NCoef="0" IVar="-1" Cut="0.0000000000000000e+00" cType="1" res="-4.7819227911531925e-03" rms="4.5894944667816162e-01" purity="4.5903998613357544e-01" nType="-99"/>
          <Node pos="r" depth="2" NCoef="0" IVar="-1" Cut="0.0000000000000000e+00" cType="1" res="-1.0479210177436471e-03" rms="4.7216126322746277e-01" purity="5.4806649684906006e-01" nType="-99"/>
        </Node>
      </Node>
    </BinaryTree>
    <BinaryTree type="DecisionTree" boostWeight="1.0000000000000000e+00" itree="774">
      <Node pos="s" depth="0" NCoef="0" IVar="0" Cut="5.0080366432666779e-02" cType="1" res="-3.2696954440325499e-03" rms="4.6569892764091492e-01" purity="4.9595269560813904e-01" nType="0">
        <Node pos="l" depth="1" NCoef="0" IVar="5" Cut="9.7123919677734375e+02" cType="1" res="-2.8136597946286201e-02" rms="4.6577998995780945e-01" purity="4.0453329682350159e-01" nType="0">
          <Node pos="l" depth="2" NCoef="0" IVar="-1" Cut="0.0000000000000000e+00" cType="1" res="-2.9233186505734921e-03" rms="4.5415368676185608e-01" purity="3.5593688488006592e-01" nType="-99"/>
          <Node pos="r" depth="2" NCoef="0" IVar="-1" Cut="0.0000000000000000e+00" cType="1" res="9.8347070161253214e-04" rms="4.8804005980491638e-01" purity="5.1378637552261353e-01" nType="-99"/>
        </Node>
        <Node pos="r" depth="1" NCoef="0" IVar="3" Cut="1.3792542219161987e+00" cType="1" res="7.5514661148190498e-03" rms="4.6524882316589355e-01" purity="5.3573507070541382e-01" nType="0">
          <Node pos="l" depth="2" NCoef="0" IVar="-1" Cut="0.0000000000000000e+00" cType="1" res="1.8528848886489868e-03" rms="4.6150097250938416e-01" purity="5.8763629198074341e-01" nType="-99"/>
          <Node pos="r" depth="2" NCoef="0" IVar="-1" Cut="0.0000000000000000e+00" cType="1" res="-1.0571107268333435e-03" rms="4.6867245435714722e-01" purity="4.7190606594085693e-01" nType="-99"/>
        </Node>
      </Node>
    </BinaryTree>
    <BinaryTree type="DecisionTree" boostWeight="1.0000000000000000e+00" itree="775">
      <Node pos="s" depth="0" NCoef="0" IVar="3" Cut="1.0364817380905151e+00" cType="1" res="-9.9434982985258102e-03" rms="4.6706196665763855e-01" purity="4.9113005399703979e-01" nType="0">
        <Node pos="l" depth="1" NCoef="0" IVar="6" Cut="4.4402356147766113e+00" cType="1" res="1.6796441748738289e-02" rms="4.7182816267013550e-01" purity="5.4897761344909668e-01" nType="0">
          <Node pos="l" depth="2" NCoef="0" IVar="-1" Cut="0.0000000000000000e+00" cType="1" res="2.4085068143904209e-03" rms="4.7905957698822021e-01" purity="4.9449592828750610e-01" nType="-99"/>
          <Node pos="r" depth="2" NCoef="0" IVar="-1" Cut="0.0000000000000000e+00" cType="1" res="-2.5162934325635433e-03" rms="4.5062491297721863e-01" purity="6.7451083660125732e-01" nType="-99"/>
        </Node>
        <Node pos="r" depth="1" NCoef="0" IVar="2" Cut="5.0891226530075073e-01" cType="1" res="-2.3619007319211960e-02" rms="4.6401035785675049e-01" purity="4.6154525876045227e-01" nType="0">
          <Node pos="l" depth="2" NCoef="0" IVar="-1" Cut="0.0000000000000000e+00" cType="1" res="2.1881617431063205e-04" rms="4.5224207639694214e-01" purity="4.0024879574775696e-01" nType="-99"/>
          <Node pos="r" depth="2" NCoef="0" IVar="-1" Cut="0.0000000000000000e+00" cType="1" res="-2.2142375819385052e-03" rms="4.6832162141799927e-01" purity="4.8682737350463867e-01" nType="-99"/>
        </Node>
      </Node>
    </BinaryTree>
    <BinaryTree type="DecisionTree" boostWeight="1.0000000000000000e+00" itree="776">
      <Node pos="s" depth="0" NCoef="0" IVar="1" Cut="6.1692845821380615e-01" cType="1" res="1.3145848643034697e-03" rms="4.6466264128684998e-01" purity="5.0270169973373413e-01" nType="0">
        <Node pos="l" depth="1" NCoef="0" IVar="6" Cut="5.1202688217163086e+00" cType="1" res="3.2802566885948181e-02" rms="4.5910546183586121e-01" purity="6.1480772495269775e-01" nType="0">
          <Node pos="l" depth="2" NCoef="0" IVar="-1" Cut="0.0000000000000000e+00" cType="1" res="2.9909254517406225e-03" rms="4.6790456771850586e-01" purity="5.8239358663558960e-01" nType="-99"/>
          <Node pos="r" depth="2" NCoef="0" IVar="-1" Cut="0.0000000000000000e+00" cType="1" res="-2.3811117280274630e-03" rms="4.1426447033882141e-01" purity="7.5367158651351929e-01" nType="-99"/>
        </Node>
        <Node pos="r" depth="1" NCoef="0" IVar="6" Cut="3.8259756565093994e+00" cType="1" res="-1.2252850458025932e-02" rms="4.6638184785842896e-01" purity="4.5439788699150085e-01" nType="0">
          <Node pos="l" depth="2" NCoef="0" IVar="-1" Cut="0.0000000000000000e+00" cType="1" res="2.3713565315119922e-04" rms="4.6281477808952332e-01" purity="3.6778101325035095e-01" nType="-99"/>
          <Node pos="r" depth="2" NCoef="0" IVar="-1" Cut="0.0000000000000000e+00" cType="1" res="-2.0980844274163246e-03" rms="4.7011229395866394e-01" purity="5.6541210412979126e-01" nType="-99"/>
        </Node>
      </Node>
    </BinaryTree>
    <BinaryTree type="DecisionTree" boostWeight="1.0000000000000000e+00" itree="777">
      <Node pos="s" depth="0" NCoef="0" IVar="1" Cut="2.3908166885375977e+00" cType="1" res="-3.5708481445908546e-03" rms="4.6578443050384521e-01" purity="4.9578019976615906e-01" nType="0">
        <Node pos="l" depth="1" NCoef="0" IVar="0" Cut="1.1359059810638428e-01" cType="1" res="1.5015738317742944e-03" rms="4.6902868151664734e-01" purity="5.1778233051300049e-01" nType="0">
          <Node pos="l" depth="2" NCoef="0" IVar="-1" Cut="0.0000000000000000e+00" cType="1" res="8.2466343883424997e-04" rms="4.7204160690307617e-01" purity="5.0030589103698730e-01" nType="-99"/>
          <Node pos="r" depth="2" NCoef="0" IVar="-1" Cut="0.0000000000000000e+00" cType="1" res="-1.4567822217941284e-03" rms="4.6208098530769348e-01" purity="5.5266034603118896e-01" nType="-99"/>
        </Node>
        <Node pos="r" depth="1" NCoef="0" IVar="-1" Cut="0.0000000000000000e+00" cType="1" res="-3.1603956595063210e-03" rms="4.3158707022666931e-01" purity="2.9104718565940857e-01" nType="-99"/>
      </Node>
    </BinaryTree>
    <BinaryTree type="DecisionTree" boostWeight="1.0000000000000000e+00" itree="778">
      <Node pos="s" depth="0" NCoef="0" IVar="2" Cut="6.3699930906295776e-01" cType="1" res="-1.9939360208809376e-03" rms="4.6287474036216736e-01" purity="5.0151449441909790e-01" nType="0">
        <Node pos="l" depth="1" NCoef="0" IVar="0" Cut="8.0374471843242645e-02" cType="1" res="1.0792199522256851e-02" rms="4.6217879652976990e-01" purity="4.5542642474174500e-01" nType="0">
          <Node pos="l" depth="2" NCoef="0" IVar="-1" Cut="0.0000000000000000e+00" cType="1" res="-1.7436905181966722e-04" rms="4.6369883418083191e-01" purity="4.2374312877655029e-01" nType="-99"/>
          <Node pos="r" depth="2" NCoef="0" IVar="-1" Cut="0.0000000000000000e+00" cType="1" res="2.2466219961643219e-03" rms="4.5840644836425781e-01" purity="5.1255965232849121e-01" nType="-99"/>
        </Node>
        <Node pos="r" depth="1" NCoef="0" IVar="3" Cut="1.3690904378890991e+00" cType="1" res="-1.9471572712063789e-02" rms="4.6325376629829407e-01" purity="5.6451314687728882e-01" nType="0">
          <Node pos="l" depth="2" NCoef="0" IVar="-1" Cut="0.0000000000000000e+00" cType="1" res="-5.7100452977465466e-05" rms="4.5212769508361816e-01" purity="6.0330682992935181e-01" nType="-99"/>
          <Node pos="r" depth="2" NCoef="0" IVar="-1" Cut="0.0000000000000000e+00" cType="1" res="-2.8943873476237059e-03" rms="4.7720098495483398e-01" purity="5.1008242368698120e-01" nType="-99"/>
        </Node>
      </Node>
    </BinaryTree>
    <BinaryTree type="DecisionTree" boostWeight="1.0000000000000000e+00" itree="779">
      <Node pos="s" depth="0" NCoef="0" IVar="4" Cut="1.9284981535747647e-03" cType="1" res="5.0778309814631939e-03" rms="4.6611520648002625e-01" purity="5.0676554441452026e-01" nType="0">
        <Node pos="l" depth="1" NCoef="0" IVar="0" Cut="1.9414351880550385e-01" cType="1" res="-9.7289457917213440e-03" rms="4.6486634016036987e-01" purity="5.3119784593582153e-01" nType="0">
          <Node pos="l" depth="2" NCoef="0" IVar="-1" Cut="0.0000000000000000e+00" cType="1" res="-9.3973132607061416e-05" rms="4.6382012963294983e-01" purity="5.2878749370574951e-01" nType="-99"/>
          <Node pos="r" depth="2" NCoef="0" IVar="-1" Cut="0.0000000000000000e+00" cType="1" res="-6.5830009989440441e-03" rms="4.6721801161766052e-01" purity="5.5504798889160156e-01" nType="-99"/>
        </Node>
        <Node pos="r" depth="1" NCoef="0" IVar="6" Cut="4.0879912376403809e+00" cType="1" res="3.8390934467315674e-02" rms="4.6720039844512939e-01" purity="4.5179638266563416e-01" nType="0">
          <Node pos="l" depth="2" NCoef="0" IVar="-1" Cut="0.0000000000000000e+00" cType="1" res="1.4831436565145850e-03" rms="4.7370696067810059e-01" purity="4.0128579735755920e-01" nType="-99"/>
          <Node pos="r" depth="2" NCoef="0" IVar="-1" Cut="0.0000000000000000e+00" cType="1" res="6.3676782883703709e-03" rms="4.3283376097679138e-01" purity="6.7101478576660156e-01" nType="-99"/>
        </Node>
      </Node>
    </BinaryTree>
    <BinaryTree type="DecisionTree" boostWeight="1.0000000000000000e+00" itree="780">
      <Node pos="s" depth="0" NCoef="0" IVar="3" Cut="8.8385832309722900e-01" cType="1" res="3.6259414628148079e-03" rms="4.6547222137451172e-01" purity="5.0438904762268066e-01" nType="0">
        <Node pos="l" depth="1" NCoef="0" IVar="1" Cut="1.5210849046707153e+00" cType="1" res="-4.2562954127788544e-02" rms="4.7284495830535889e-01" purity="4.8839014768600464e-01" nType="0">
          <Node pos="l" depth="2" NCoef="0" IVar="-1" Cut="0.0000000000000000e+00" cType="1" res="-3.7838253192603588e-03" rms="4.7435039281845093e-01" purity="5.0341755151748657e-01" nType="-99"/>
          <Node pos="r" depth="2" NCoef="0" IVar="-1" Cut="0.0000000000000000e+00" cType="1" res="1.2796105584129691e-03" rms="4.6201857924461365e-01" purity="4.3484041094779968e-01" nType="-99"/>
        </Node>
        <Node pos="r" depth="1" NCoef="0" IVar="6" Cut="2.7539887428283691e+00" cType="1" res="1.8804378807544708e-02" rms="4.6201685070991516e-01" purity="5.0964653491973877e-01" nType="0">
          <Node pos="l" depth="2" NCoef="0" IVar="-1" Cut="0.0000000000000000e+00" cType="1" res="-7.0876785321161151e-04" rms="4.5259624719619751e-01" purity="3.1437489390373230e-01" nType="-99"/>
          <Node pos="r" depth="2" NCoef="0" IVar="-1" Cut="0.0000000000000000e+00" cType="1" res="1.9710441119968891e-03" rms="4.6504104137420654e-01" purity="5.8388936519622803e-01" nType="-99"/>
        </Node>
      </Node>
    </BinaryTree>
    <BinaryTree type="DecisionTree" boostWeight="1.0000000000000000e+00" itree="781">
      <Node pos="s" depth="0" NCoef="0" IVar="6" Cut="3.5400567054748535e+00" cType="1" res="-7.4165998958051205e-03" rms="4.6924540400505066e-01" purity="4.9483487010002136e-01" nType="0">
        <Node pos="l" depth="1" NCoef="0" IVar="1" Cut="1.2765200138092041e+00" cType="1" res="1.4889767393469810e-02" rms="4.6961522102355957e-01" purity="3.9466521143913269e-01" nType="0">
          <Node pos="l" depth="2" NCoef="0" IVar="-1" Cut="0.0000000000000000e+00" cType="1" res="1.8427112372592092e-03" rms="4.8252230882644653e-01" purity="4.5213082432746887e-01" nType="-99"/>
          <Node pos="r" depth="2" NCoef="0" IVar="-1" Cut="0.0000000000000000e+00" cType="1" res="-7.1588170249015093e-04" rms="4.4576409459114075e-01" purity="2.9760324954986572e-01" nType="-99"/>
        </Node>
        <Node pos="r" depth="1" NCoef="0" IVar="4" Cut="3.8454466266557574e-04" cType="1" res="-2.8016800060868263e-02" rms="4.6796014904975891e-01" purity="5.8734273910522461e-01" nType="0">
          <Node pos="l" depth="2" NCoef="0" IVar="-1" Cut="0.0000000000000000e+00" cType="1" res="-3.8691144436597824e-03" rms="4.6530023217201233e-01" purity="6.2006330490112305e-01" nType="-99"/>
          <Node pos="r" depth="2" NCoef="0" IVar="-1" Cut="0.0000000000000000e+00" cType="1" res="-6.6851923475041986e-04" rms="4.6897482872009277e-01" purity="5.6502532958984375e-01" nType="-99"/>
        </Node>
      </Node>
    </BinaryTree>
    <BinaryTree type="DecisionTree" boostWeight="1.0000000000000000e+00" itree="782">
      <Node pos="s" depth="0" NCoef="0" IVar="1" Cut="2.0838448405265808e-01" cType="1" res="1.0833086445927620e-02" rms="4.5943692326545715e-01" purity="5.0477027893066406e-01" nType="0">
        <Node pos="l" depth="1" NCoef="0" IVar="-1" Cut="0.0000000000000000e+00" cType="1" res="6.8188840523362160e-03" rms="4.3510288000106812e-01" purity="6.9407224655151367e-01" nType="-99"/>
        <Node pos="r" depth="1" NCoef="0" IVar="4" Cut="2.0206391345709562e-03" cType="1" res="5.9420242905616760e-03" rms="4.6033811569213867e-01" purity="4.9377274513244629e-01" nType="0">
          <Node pos="l" depth="2" NCoef="0" IVar="-1" Cut="0.0000000000000000e+00" cType="1" res="1.2284328695386648e-03" rms="4.6163380146026611e-01" purity="5.4709166288375854e-01" nType="-99"/>
          <Node pos="r" depth="2" NCoef="0" IVar="-1" Cut="0.0000000000000000e+00" cType="1" res="-1.2379556428641081e-03" rms="4.5635756850242615e-01" purity="3.7857452034950256e-01" nType="-99"/>
        </Node>
      </Node>
    </BinaryTree>
    <BinaryTree type="DecisionTree" boostWeight="1.0000000000000000e+00" itree="783">
      <Node pos="s" depth="0" NCoef="0" IVar="3" Cut="1.9027760028839111e+00" cType="1" res="-4.7479155473411083e-03" rms="4.6345067024230957e-01" purity="4.9881181120872498e-01" nType="0">
        <Node pos="l" depth="1" NCoef="0" IVar="2" Cut="6.5693300962448120e-01" cType="1" res="1.5205674571916461e-03" rms="4.6481543779373169e-01" purity="5.2928823232650757e-01" nType="0">
          <Node pos="l" depth="2" NCoef="0" IVar="-1" Cut="0.0000000000000000e+00" cType="1" res="8.8152312673628330e-04" rms="4.6509596705436707e-01" purity="4.9347004294395447e-01" nType="-99"/>
          <Node pos="r" depth="2" NCoef="0" IVar="-1" Cut="0.0000000000000000e+00" cType="1" res="-1.1755716986954212e-03" rms="4.6375432610511780e-01" purity="5.8305209875106812e-01" nType="-99"/>
        </Node>
        <Node pos="r" depth="1" NCoef="0" IVar="1" Cut="8.9628577232360840e-01" cType="1" res="-3.6859694868326187e-02" rms="4.5504310727119446e-01" purity="3.4268912672996521e-01" nType="0">
          <Node pos="l" depth="2" NCoef="0" IVar="-1" Cut="0.0000000000000000e+00" cType="1" res="-4.6832207590341568e-03" rms="4.6865010261535645e-01" purity="3.8798519968986511e-01" nType="-99"/>
          <Node pos="r" depth="2" NCoef="0" IVar="-1" Cut="0.0000000000000000e+00" cType="1" res="-8.6449674563482404e-04" rms="4.4551861286163330e-01" purity="3.1718829274177551e-01" nType="-99"/>
        </Node>
      </Node>
    </BinaryTree>
    <BinaryTree type="DecisionTree" boostWeight="1.0000000000000000e+00" itree="784">
      <Node pos="s" depth="0" NCoef="0" IVar="2" Cut="6.1239117383956909e-01" cType="1" res="-4.9024680629372597e-03" rms="4.6153014898300171e-01" purity="4.9214380979537964e-01" nType="0">
        <Node pos="l" depth="1" NCoef="0" IVar="0" Cut="3.8600325584411621e-02" cType="1" res="-2.0118867978453636e-02" rms="4.5754942297935486e-01" purity="4.1745537519454956e-01" nType="0">
          <Node pos="l" depth="2" NCoef="0" IVar="-1" Cut="0.0000000000000000e+00" cType="1" res="-3.0965281184762716e-03" rms="4.4670253992080688e-01" purity="3.5244259238243103e-01" nType="-99"/>
          <Node pos="r" depth="2" NCoef="0" IVar="-1" Cut="0.0000000000000000e+00" cType="1" res="-3.3367783180437982e-04" rms="4.6183884143829346e-01" purity="4.4814264774322510e-01" nType="-99"/>
        </Node>
        <Node pos="r" depth="1" NCoef="0" IVar="5" Cut="8.4548260498046875e+02" cType="1" res="1.2355235405266285e-02" rms="4.6540200710296631e-01" purity="5.7685184478759766e-01" nType="0">
          <Node pos="l" depth="2" NCoef="0" IVar="-1" Cut="0.0000000000000000e+00" cType="1" res="-1.1540464765857905e-04" rms="4.6857833862304688e-01" purity="5.4503697156906128e-01" nType="-99"/>
          <Node pos="r" depth="2" NCoef="0" IVar="-1" Cut="0.0000000000000000e+00" cType="1" res="3.1185480765998363e-03" rms="4.5626389980316162e-01" purity="6.5066343545913696e-01" nType="-99"/>
        </Node>
      </Node>
    </BinaryTree>
    <BinaryTree type="DecisionTree" boostWeight="1.0000000000000000e+00" itree="785">
      <Node pos="s" depth="0" NCoef="0" IVar="3" Cut="2.2990574836730957e+00" cType="1" res="-1.0244156001135707e-03" rms="4.6335414052009583e-01" purity="5.0268673896789551e-01" nType="0">
        <Node pos="l" depth="1" NCoef="0" IVar="2" Cut="6.4885705709457397e-01" cType="1" res="3.3526567276567221e-03" rms="4.6760863065719604e-01" purity="5.2065515518188477e-01" nType="0">
          <Node pos="l" depth="2" NCoef="0" IVar="-1" Cut="0.0000000000000000e+00" cType="1" res="9.7821035888046026e-04" rms="4.7090378403663635e-01" purity="4.8291137814521790e-01" nType="-99"/>
          <Node pos="r" depth="2" NCoef="0" IVar="-1" Cut="0.0000000000000000e+00" cType="1" res="-1.0147194843739271e-03" rms="4.6195763349533081e-01" purity="5.7783526182174683e-01" nType="-99"/>
        </Node>
        <Node pos="r" depth="1" NCoef="0" IVar="-1" Cut="0.0000000000000000e+00" cType="1" res="-4.5355851761996746e-03" rms="3.8490203022956848e-01" purity="2.2317202389240265e-01" nType="-99"/>
      </Node>
    </BinaryTree>
    <BinaryTree type="DecisionTree" boostWeight="1.0000000000000000e+00" itree="786">
      <Node pos="s" depth="0" NCoef="0" IVar="4" Cut="3.6813109181821346e-03" cType="1" res="-2.0079028327018023e-03" rms="4.6135875582695007e-01" purity="5.0322258472442627e-01" nType="0">
        <Node pos="l" depth="1" NCoef="0" IVar="0" Cut="3.5630393773317337e-02" cType="1" res="1.7799299675971270e-03" rms="4.6289861202239990e-01" purity="5.1374375820159912e-01" nType="0">
          <Node pos="l" depth="2" NCoef="0" IVar="-1" Cut="0.0000000000000000e+00" cType="1" res="2.3598300758749247e-03" rms="4.4967317581176758e-01" purity="4.6652147173881531e-01" nType="-99"/>
          <Node pos="r" depth="2" NCoef="0" IVar="-1" Cut="0.0000000000000000e+00" cType="1" res="-3.6457664100453258e-04" rms="4.6534356474876404e-01" purity="5.2382892370223999e-01" nType="-99"/>
        </Node>
        <Node pos="r" depth="1" NCoef="0" IVar="-1" Cut="0.0000000000000000e+00" cType="1" res="-3.7573534063994884e-03" rms="4.3024867773056030e-01" purity="3.2900831103324890e-01" nType="-99"/>
      </Node>
    </BinaryTree>
    <BinaryTree type="DecisionTree" boostWeight="1.0000000000000000e+00" itree="787">
      <Node pos="s" depth="0" NCoef="0" IVar="4" Cut="2.5225211866199970e-03" cType="1" res="-1.1865744367241859e-02" rms="4.6278792619705200e-01" purity="4.8403453826904297e-01" nType="0">
        <Node pos="l" depth="1" NCoef="0" IVar="0" Cut="1.9564230740070343e-01" cType="1" res="6.8219279637560248e-04" rms="4.6533310413360596e-01" purity="5.2486360073089600e-01" nType="0">
          <Node pos="l" depth="2" NCoef="0" IVar="-1" Cut="0.0000000000000000e+00" cType="1" res="-3.3389672171324492e-04" rms="4.6786975860595703e-01" purity="5.0869274139404297e-01" nType="-99"/>
          <Node pos="r" depth="2" NCoef="0" IVar="-1" Cut="0.0000000000000000e+00" cType="1" res="4.3519795872271061e-03" rms="4.3437552452087402e-01" purity="6.8898963928222656e-01" nType="-99"/>
        </Node>
        <Node pos="r" depth="1" NCoef="0" IVar="3" Cut="1.3386104106903076e+00" cType="1" res="-5.3655013442039490e-02" rms="4.5170214772224426e-01" purity="3.4805861115455627e-01" nType="0">
          <Node pos="l" depth="2" NCoef="0" IVar="-1" Cut="0.0000000000000000e+00" cType="1" res="-4.5956880785524845e-03" rms="4.5449766516685486e-01" purity="3.4954127669334412e-01" nType="-99"/>
          <Node pos="r" depth="2" NCoef="0" IVar="-1" Cut="0.0000000000000000e+00" cType="1" res="-1.3136264169588685e-03" rms="4.4650629162788391e-01" purity="3.4638866782188416e-01" nType="-99"/>
        </Node>
      </Node>
    </BinaryTree>
    <BinaryTree type="DecisionTree" boostWeight="1.0000000000000000e+00" itree="788">
      <Node pos="s" depth="0" NCoef="0" IVar="4" Cut="7.2958623059093952e-04" cType="1" res="-8.3804186433553696e-03" rms="4.6521726250648499e-01" purity="4.9504825472831726e-01" nType="0">
        <Node pos="l" depth="1" NCoef="0" IVar="6" Cut="5.7376761436462402e+00" cType="1" res="-2.9231570661067963e-02" rms="4.6076762676239014e-01" purity="5.6604564189910889e-01" nType="0">
          <Node pos="l" depth="2" NCoef="0" IVar="-1" Cut="0.0000000000000000e+00" cType="1" res="-2.7294242754578590e-03" rms="4.7452378273010254e-01" purity="5.1429736614227295e-01" nType="-99"/>
          <Node pos="r" depth="2" NCoef="0" IVar="-1" Cut="0.0000000000000000e+00" cType="1" res="2.8986709658056498e-03" rms="3.8495576381683350e-01" purity="8.0681788921356201e-01" nType="-99"/>
        </Node>
        <Node pos="r" depth="1" NCoef="0" IVar="3" Cut="1.8428578376770020e+00" cType="1" res="5.0809886306524277e-03" rms="4.6757379174232483e-01" purity="4.4921270012855530e-01" nType="0">
          <Node pos="l" depth="2" NCoef="0" IVar="-1" Cut="0.0000000000000000e+00" cType="1" res="-3.7075814907439053e-04" rms="4.6699577569961548e-01" purity="4.6196284890174866e-01" nType="-99"/>
          <Node pos="r" depth="2" NCoef="0" IVar="-1" Cut="0.0000000000000000e+00" cType="1" res="3.4458613954484463e-03" rms="4.6704193949699402e-01" purity="3.9473250508308411e-01" nType="-99"/>
        </Node>
      </Node>
    </BinaryTree>
    <BinaryTree type="DecisionTree" boostWeight="1.0000000000000000e+00" itree="789">
      <Node pos="s" depth="0" NCoef="0" IVar="1" Cut="1.1951569318771362e+00" cType="1" res="5.8783683925867081e-03" rms="4.6265131235122681e-01" purity="5.0675010681152344e-01" nType="0">
        <Node pos="l" depth="1" NCoef="0" IVar="6" Cut="2.7169246673583984e+00" cType="1" res="2.2061072289943695e-02" rms="4.6586191654205322e-01" purity="5.7664257287979126e-01" nType="0">
          <Node pos="l" depth="2" NCoef="0" IVar="-1" Cut="0.0000000000000000e+00" cType="1" res="4.2692748829722404e-03" rms="4.7903579473495483e-01" purity="4.3775862455368042e-01" nType="-99"/>
          <Node pos="r" depth="2" NCoef="0" IVar="-1" Cut="0.0000000000000000e+00" cType="1" res="5.1961588906124234e-04" rms="4.6075889468193054e-01" purity="6.1982989311218262e-01" nType="-99"/>
        </Node>
        <Node pos="r" depth="1" NCoef="0" IVar="3" Cut="1.9825472831726074e+00" cType="1" res="-1.7393438145518303e-02" rms="4.5699131488800049e-01" purity="4.0624016523361206e-01" nType="0">
          <Node pos="l" depth="2" NCoef="0" IVar="-1" Cut="0.0000000000000000e+00" cType="1" res="-2.2907070524524897e-04" rms="4.6988132596015930e-01" purity="4.4812187552452087e-01" nType="-99"/>
          <Node pos="r" depth="2" NCoef="0" IVar="-1" Cut="0.0000000000000000e+00" cType="1" res="-4.8119393177330494e-03" rms="3.9336183667182922e-01" purity="2.3080411553382874e-01" nType="-99"/>
        </Node>
      </Node>
    </BinaryTree>
    <BinaryTree type="DecisionTree" boostWeight="1.0000000000000000e+00" itree="790">
      <Node pos="s" depth="0" NCoef="0" IVar="4" Cut="3.2992032356560230e-03" cType="1" res="1.0005894582718611e-03" rms="4.6606364846229553e-01" purity="5.0039696693420410e-01" nType="0">
        <Node pos="l" depth="1" NCoef="0" IVar="4" Cut="2.2171069867908955e-03" cType="1" res="-4.1251839138567448e-03" rms="4.6642175316810608e-01" purity="5.0552028417587280e-01" nType="0">
          <Node pos="l" depth="2" NCoef="0" IVar="-1" Cut="0.0000000000000000e+00" cType="1" res="2.7571289683692157e-04" rms="4.6716135740280151e-01" purity="5.3641217947006226e-01" nType="-99"/>
          <Node pos="r" depth="2" NCoef="0" IVar="-1" Cut="0.0000000000000000e+00" cType="1" res="-2.3406837135553360e-03" rms="4.6159124374389648e-01" purity="3.7387564778327942e-01" nType="-99"/>
        </Node>
        <Node pos="r" depth="1" NCoef="0" IVar="-1" Cut="0.0000000000000000e+00" cType="1" res="3.1909930985420942e-03" rms="4.5936867594718933e-01" purity="4.4935747981071472e-01" nType="-99"/>
      </Node>
    </BinaryTree>
    <BinaryTree type="DecisionTree" boostWeight="1.0000000000000000e+00" itree="791">
      <Node pos="s" depth="0" NCoef="0" IVar="3" Cut="7.2326433658599854e-01" cType="1" res="-6.0412213206291199e-03" rms="4.6518653631210327e-01" purity="4.9867770075798035e-01" nType="0">
        <Node pos="l" depth="1" NCoef="0" IVar="3" Cut="6.2690287828445435e-01" cType="1" res="-4.4181823730468750e-02" rms="4.7358614206314087e-01" purity="4.7583612799644470e-01" nType="0">
          <Node pos="l" depth="2" NCoef="0" IVar="-1" Cut="0.0000000000000000e+00" cType="1" res="-9.5137237804010510e-04" rms="4.7865846753120422e-01" purity="4.8727452754974365e-01" nType="-99"/>
          <Node pos="r" depth="2" NCoef="0" IVar="-1" Cut="0.0000000000000000e+00" cType="1" res="-4.9934783019125462e-03" rms="4.6436074376106262e-01" purity="4.6119207143783569e-01" nType="-99"/>
        </Node>
        <Node pos="r" depth="1" NCoef="0" IVar="4" Cut="2.9395634774118662e-03" cType="1" res="7.2847702540457249e-04" rms="4.6335178613662720e-01" purity="5.0273191928863525e-01" nType="0">
          <Node pos="l" depth="2" NCoef="0" IVar="-1" Cut="0.0000000000000000e+00" cType="1" res="5.7476648362353444e-04" rms="4.6392554044723511e-01" purity="5.2824836969375610e-01" nType="-99"/>
          <Node pos="r" depth="2" NCoef="0" IVar="-1" Cut="0.0000000000000000e+00" cType="1" res="-2.5562045630067587e-03" rms="4.5761194825172424e-01" purity="3.6043700575828552e-01" nType="-99"/>
        </Node>
      </Node>
    </BinaryTree>
    <BinaryTree type="DecisionTree" boostWeight="1.0000000000000000e+00" itree="792">
      <Node pos="s" depth="0" NCoef="0" IVar="0" Cut="9.3847684562206268e-02" cType="1" res="3.2853612210601568e-03" rms="4.6451151371002197e-01" purity="5.0748747587203979e-01" nType="0">
        <Node pos="l" depth="1" NCoef="0" IVar="6" Cut="4.6256580352783203e+00" cType="1" res="-1.1766927316784859e-02" rms="4.6363857388496399e-01" purity="4.5263341069221497e-01" nType="0">
          <Node pos="l" depth="2" NCoef="0" IVar="-1" Cut="0.0000000000000000e+00" cType="1" res="-1.8040785798802972e-03" rms="4.6678590774536133e-01" purity="3.7759688496589661e-01" nType="-99"/>
          <Node pos="r" depth="2" NCoef="0" IVar="-1" Cut="0.0000000000000000e+00" cType="1" res="3.3235906157642603e-03" rms="4.4853541254997253e-01" purity="6.9093120098114014e-01" nType="-99"/>
        </Node>
        <Node pos="r" depth="1" NCoef="0" IVar="5" Cut="6.3005932617187500e+02" cType="1" res="2.4317922070622444e-02" rms="4.6491301059722900e-01" purity="5.8413505554199219e-01" nType="0">
          <Node pos="l" depth="2" NCoef="0" IVar="-1" Cut="0.0000000000000000e+00" cType="1" res="3.0138683505356312e-03" rms="4.6846771240234375e-01" purity="5.4309225082397461e-01" nType="-99"/>
          <Node pos="r" depth="2" NCoef="0" IVar="-1" Cut="0.0000000000000000e+00" cType="1" res="2.2563805396202952e-04" rms="4.6041196584701538e-01" purity="6.2460637092590332e-01" nType="-99"/>
        </Node>
      </Node>
    </BinaryTree>
    <BinaryTree type="DecisionTree" boostWeight="1.0000000000000000e+00" itree="793">
      <Node pos="s" depth="0" NCoef="0" IVar="1" Cut="4.4220399856567383e-01" cType="1" res="1.1689287610352039e-02" rms="4.6283587813377380e-01" purity="5.1456797122955322e-01" nType="0">
        <Node pos="l" depth="1" NCoef="0" IVar="2" Cut="5.6152683496475220e-01" cType="1" res="-1.7049994319677353e-02" rms="4.6821758151054382e-01" purity="5.7328516244888306e-01" nType="0">
          <Node pos="l" depth="2" NCoef="0" IVar="-1" Cut="0.0000000000000000e+00" cType="1" res="-3.8379223551601171e-03" rms="4.7770804166793823e-01" purity="4.5906907320022583e-01" nType="-99"/>
          <Node pos="r" depth="2" NCoef="0" IVar="-1" Cut="0.0000000000000000e+00" cType="1" res="2.5947557878680527e-04" rms="4.6236819028854370e-01" purity="6.2487387657165527e-01" nType="-99"/>
        </Node>
        <Node pos="r" depth="1" NCoef="0" IVar="6" Cut="4.2878746986389160e+00" cType="1" res="1.8101040273904800e-02" rms="4.6138247847557068e-01" purity="5.0146818161010742e-01" nType="0">
          <Node pos="l" depth="2" NCoef="0" IVar="-1" Cut="0.0000000000000000e+00" cType="1" res="4.2610242962837219e-04" rms="4.6641719341278076e-01" purity="4.0821021795272827e-01" nType="-99"/>
          <Node pos="r" depth="2" NCoef="0" IVar="-1" Cut="0.0000000000000000e+00" cType="1" res="2.9360994230955839e-03" rms="4.5010051131248474e-01" purity="6.9126677513122559e-01" nType="-99"/>
        </Node>
      </Node>
    </BinaryTree>
    <BinaryTree type="DecisionTree" boostWeight="1.0000000000000000e+00" itree="794">
      <Node pos="s" depth="0" NCoef="0" IVar="0" Cut="1.5329477190971375e-01" cType="1" res="1.6664854483678937e-03" rms="4.6080181002616882e-01" purity="5.0373262166976929e-01" nType="0">
        <Node pos="l" depth="1" NCoef="0" IVar="0" Cut="3.1665842980146408e-02" cType="1" res="-3.7367215845733881e-03" rms="4.6371147036552429e-01" purity="4.7957718372344971e-01" nType="0">
          <Node pos="l" depth="2" NCoef="0" IVar="-1" Cut="0.0000000000000000e+00" cType="1" res="-1.7085723811760545e-03" rms="4.5106178522109985e-01" purity="3.8808006048202515e-01" nType="-99"/>
          <Node pos="r" depth="2" NCoef="0" IVar="-1" Cut="0.0000000000000000e+00" cType="1" res="8.9620101789478213e-05" rms="4.6620196104049683e-01" purity="4.9908328056335449e-01" nType="-99"/>
        </Node>
        <Node pos="r" depth="1" NCoef="0" IVar="3" Cut="1.4113000631332397e+00" cType="1" res="2.7725769206881523e-02" rms="4.4558343291282654e-01" purity="6.2023228406906128e-01" nType="0">
          <Node pos="l" depth="2" NCoef="0" IVar="-1" Cut="0.0000000000000000e+00" cType="1" res="4.1781798936426640e-03" rms="4.3144130706787109e-01" purity="6.6892731189727783e-01" nType="-99"/>
          <Node pos="r" depth="2" NCoef="0" IVar="-1" Cut="0.0000000000000000e+00" cType="1" res="-8.7632023496553302e-04" rms="4.6151453256607056e-01" purity="5.5207109451293945e-01" nType="-99"/>
        </Node>
      </Node>
    </BinaryTree>
    <BinaryTree type="DecisionTree" boostWeight="1.0000000000000000e+00" itree="795">
      <Node pos="s" depth="0" NCoef="0" IVar="5" Cut="4.7768338012695312e+02" cType="1" res="6.1181485652923584e-03" rms="4.6309939026832581e-01" purity="5.0514501333236694e-01" nType="0">
        <Node pos="l" depth="1" NCoef="0" IVar="-1" Cut="0.0000000000000000e+00" cType="1" res="-2.4686285760253668e-03" rms="4.5330816507339478e-01" purity="3.2983800768852234e-01" nType="-99"/>
        <Node pos="r" depth="1" NCoef="0" IVar="1" Cut="1.0263423919677734e+00" cType="1" res="1.1691419407725334e-02" rms="4.6397218108177185e-01" purity="5.2653437852859497e-01" nType="0">
          <Node pos="l" depth="2" NCoef="0" IVar="-1" Cut="0.0000000000000000e+00" cType="1" res="1.6487339744344354e-03" rms="4.6539077162742615e-01" purity="6.0027492046356201e-01" nType="-99"/>
          <Node pos="r" depth="2" NCoef="0" IVar="-1" Cut="0.0000000000000000e+00" cType="1" res="-2.2166085545904934e-04" rms="4.6184846758842468e-01" purity="4.4056275486946106e-01" nType="-99"/>
        </Node>
      </Node>
    </BinaryTree>
    <BinaryTree type="DecisionTree" boostWeight="1.0000000000000000e+00" itree="796">
      <Node pos="s" depth="0" NCoef="0" IVar="6" Cut="4.7811207771301270e+00" cType="1" res="8.8063590228557587e-03" rms="4.6136614680290222e-01" purity="5.1149469614028931e-01" nType="0">
        <Node pos="l" depth="1" NCoef="0" IVar="4" Cut="5.6750944349914789e-04" cType="1" res="1.6420653089880943e-02" rms="4.6691605448722839e-01" purity="4.6294569969177246e-01" nType="0">
          <Node pos="l" depth="2" NCoef="0" IVar="-1" Cut="0.0000000000000000e+00" cType="1" res="2.9844215605407953e-03" rms="4.6187561750411987e-01" purity="5.6647491455078125e-01" nType="-99"/>
          <Node pos="r" depth="2" NCoef="0" IVar="-1" Cut="0.0000000000000000e+00" cType="1" res="4.5167544158175588e-04" rms="4.6817806363105774e-01" purity="4.2947924137115479e-01" nType="-99"/>
        </Node>
        <Node pos="r" depth="1" NCoef="0" IVar="0" Cut="1.2955066561698914e-01" cType="1" res="-1.7762545496225357e-02" rms="4.4042459130287170e-01" purity="6.8089896440505981e-01" nType="0">
          <Node pos="l" depth="2" NCoef="0" IVar="-1" Cut="0.0000000000000000e+00" cType="1" res="-3.2855398021638393e-03" rms="4.6753641963005066e-01" purity="6.2245404720306396e-01" nType="-99"/>
          <Node pos="r" depth="2" NCoef="0" IVar="-1" Cut="0.0000000000000000e+00" cType="1" res="6.4492914825677872e-03" rms="3.4066537022590637e-01" purity="8.4444445371627808e-01" nType="-99"/>
        </Node>
      </Node>
    </BinaryTree>
    <BinaryTree type="DecisionTree" boostWeight="1.0000000000000000e+00" itree="797">
      <Node pos="s" depth="0" NCoef="0" IVar="2" Cut="4.9743339419364929e-01" cType="1" res="-1.5792195918038487e-03" rms="4.6034657955169678e-01" purity="4.9743378162384033e-01" nType="0">
        <Node pos="l" depth="1" NCoef="0" IVar="5" Cut="5.8469665527343750e+02" cType="1" res="3.0260562896728516e-02" rms="4.5986178517341614e-01" purity="4.4388079643249512e-01" nType="0">
          <Node pos="l" depth="2" NCoef="0" IVar="-1" Cut="0.0000000000000000e+00" cType="1" res="-1.1019043158739805e-03" rms="4.4233635067939758e-01" purity="3.2744383811950684e-01" nType="-99"/>
          <Node pos="r" depth="2" NCoef="0" IVar="-1" Cut="0.0000000000000000e+00" cType="1" res="3.3257112372666597e-03" rms="4.6629264950752258e-01" purity="4.9944505095481873e-01" nType="-99"/>
        </Node>
        <Node pos="r" depth="1" NCoef="0" IVar="6" Cut="4.2721939086914062e+00" cType="1" res="-1.2109784409403801e-02" rms="4.6002209186553955e-01" purity="5.1514571905136108e-01" nType="0">
          <Node pos="l" depth="2" NCoef="0" IVar="-1" Cut="0.0000000000000000e+00" cType="1" res="-1.3677173992618918e-03" rms="4.6885073184967041e-01" purity="4.1959431767463684e-01" nType="-99"/>
          <Node pos="r" depth="2" NCoef="0" IVar="-1" Cut="0.0000000000000000e+00" cType="1" res="7.4487738311290741e-04" rms="4.4074067473411560e-01" purity="7.0936965942382812e-01" nType="-99"/>
        </Node>
      </Node>
    </BinaryTree>
    <BinaryTree type="DecisionTree" boostWeight="1.0000000000000000e+00" itree="798">
      <Node pos="s" depth="0" NCoef="0" IVar="4" Cut="3.3239719923585653e-03" cType="1" res="-2.5029550306499004e-03" rms="4.6533402800559998e-01" purity="5.0416976213455200e-01" nType="0">
        <Node pos="l" depth="1" NCoef="0" IVar="2" Cut="7.5345247983932495e-01" cType="1" res="4.0155705064535141e-03" rms="4.6794128417968750e-01" purity="5.2140480279922485e-01" nType="0">
          <Node pos="l" depth="2" NCoef="0" IVar="-1" Cut="0.0000000000000000e+00" cType="1" res="6.7529082298278809e-04" rms="4.6986585855484009e-01" purity="5.0178354978561401e-01" nType="-99"/>
          <Node pos="r" depth="2" NCoef="0" IVar="-1" Cut="0.0000000000000000e+00" cType="1" res="-1.7760106129571795e-03" rms="4.5809668302536011e-01" purity="6.0925954580307007e-01" nType="-99"/>
        </Node>
        <Node pos="r" depth="1" NCoef="0" IVar="-1" Cut="0.0000000000000000e+00" cType="1" res="-3.9163911715149879e-03" rms="4.3288800120353699e-01" purity="3.3111035823822021e-01" nType="-99"/>
      </Node>
    </BinaryTree>
    <BinaryTree type="DecisionTree" boostWeight="1.0000000000000000e+00" itree="799">
      <Node pos="s" depth="0" NCoef="0" IVar="0" Cut="3.3852465450763702e-02" cType="1" res="-2.3270240053534508e-03" rms="4.6001830697059631e-01" purity="4.9774000048637390e-01" nType="0">
        <Node pos="l" depth="1" NCoef="0" IVar="1" Cut="1.6968201398849487e+00" cType="1" res="3.1091682612895966e-02" rms="4.5729389786720276e-01" purity="4.5157960057258606e-01" nType="0">
          <Node pos="l" depth="2" NCoef="0" IVar="-1" Cut="0.0000000000000000e+00" cType="1" res="3.8510223384946585e-03" rms="4.5734560489654541e-01" purity="5.2510476112365723e-01" nType="-99"/>
          <Node pos="r" depth="2" NCoef="0" IVar="-1" Cut="0.0000000000000000e+00" cType="1" res="-1.7221027519553900e-03" rms="4.5136868953704834e-01" purity="3.0514505505561829e-01" nType="-99"/>
        </Node>
        <Node pos="r" depth="1" NCoef="0" IVar="3" Cut="1.5692030191421509e+00" cType="1" res="-9.4019332900643349e-03" rms="4.6028190851211548e-01" purity="5.0751245021820068e-01" nType="0">
          <Node pos="l" depth="2" NCoef="0" IVar="-1" Cut="0.0000000000000000e+00" cType="1" res="-1.3178440276533365e-03" rms="4.5745825767517090e-01" purity="5.2853703498840332e-01" nType="-99"/>
          <Node pos="r" depth="2" NCoef="0" IVar="-1" Cut="0.0000000000000000e+00" cType="1" res="8.7734428234398365e-04" rms="4.6533405780792236e-01" purity="4.6305891871452332e-01" nType="-99"/>
        </Node>
      </Node>
    </BinaryTree>
    <BinaryTree type="DecisionTree" boostWeight="1.0000000000000000e+00" itree="800">
      <Node pos="s" depth="0" NCoef="0" IVar="4" Cut="3.2662609010003507e-04" cType="1" res="-1.2116338126361370e-02" rms="4.6157595515251160e-01" purity="4.8744130134582520e-01" nType="0">
        <Node pos="l" depth="1" NCoef="0" IVar="6" Cut="5.2815551757812500e+00" cType="1" res="-4.0058817714452744e-02" rms="4.5659857988357544e-01" purity="5.8144283294677734e-01" nType="0">
          <Node pos="l" depth="2" NCoef="0" IVar="-1" Cut="0.0000000000000000e+00" cType="1" res="-3.7943099159747362e-03" rms="4.7044670581817627e-01" purity="4.9695494771003723e-01" nType="-99"/>
          <Node pos="r" depth="2" NCoef="0" IVar="-1" Cut="0.0000000000000000e+00" cType="1" res="-3.1473155831918120e-04" rms="4.2487469315528870e-01" purity="7.5235980749130249e-01" nType="-99"/>
        </Node>
        <Node pos="r" depth="1" NCoef="0" IVar="4" Cut="5.5589753901585937e-04" cType="1" res="-2.9924907721579075e-03" rms="4.6282437443733215e-01" purity="4.5674774050712585e-01" nType="0">
          <Node pos="l" depth="2" NCoef="0" IVar="-1" Cut="0.0000000000000000e+00" cType="1" res="3.5096451174467802e-03" rms="4.6165278553962708e-01" purity="5.8911776542663574e-01" nType="-99"/>
          <Node pos="r" depth="2" NCoef="0" IVar="-1" Cut="0.0000000000000000e+00" cType="1" res="-5.4482108680531383e-04" rms="4.6256875991821289e-01" purity="4.4246932864189148e-01" nType="-99"/>
        </Node>
      </Node>
    </BinaryTree>
    <BinaryTree type="DecisionTree" boostWeight="1.0000000000000000e+00" itree="801">
      <Node pos="s" depth="0" NCoef="0" IVar="4" Cut="2.3930394672788680e-04" cType="1" res="3.2981359399855137e-03" rms="4.6210265159606934e-01" purity="5.0315326452255249e-01" nType="0">
        <Node pos="l" depth="1" NCoef="0" IVar="2" Cut="5.3846740722656250e-01" cType="1" res="5.1267039030790329e-02" rms="4.3168732523918152e-01" purity="6.8969780206680298e-01" nType="0">
          <Node pos="l" depth="2" NCoef="0" IVar="-1" Cut="0.0000000000000000e+00" cType="1" res="7.9155648127198219e-03" rms="4.2909890413284302e-01" purity="6.5660846233367920e-01" nType="-99"/>
          <Node pos="r" depth="2" NCoef="0" IVar="-1" Cut="0.0000000000000000e+00" cType="1" res="2.0297511946409941e-03" rms="4.3034979701042175e-01" purity="7.0489144325256348e-01" nType="-99"/>
        </Node>
        <Node pos="r" depth="1" NCoef="0" IVar="0" Cut="1.9641646742820740e-01" cType="1" res="-7.7342307195067406e-03" rms="4.6812412142753601e-01" purity="4.6024990081787109e-01" nType="0">
          <Node pos="l" depth="2" NCoef="0" IVar="-1" Cut="0.0000000000000000e+00" cType="1" res="-1.0695196397136897e-04" rms="4.6820497512817383e-01" purity="4.5529946684837341e-01" nType="-99"/>
          <Node pos="r" depth="2" NCoef="0" IVar="-1" Cut="0.0000000000000000e+00" cType="1" res="-4.1778506711125374e-03" rms="4.6301868557929993e-01" purity="5.0990664958953857e-01" nType="-99"/>
        </Node>
      </Node>
    </BinaryTree>
    <BinaryTree type="DecisionTree" boostWeight="1.0000000000000000e+00" itree="802">
      <Node pos="s" depth="0" NCoef="0" IVar="0" Cut="2.2384263575077057e-01" cType="1" res="7.8576589003205299e-03" rms="4.6440836787223816e-01" purity="5.1229929924011230e-01" nType="0">
        <Node pos="l" depth="1" NCoef="0" IVar="3" Cut="5.9055036306381226e-01" cType="1" res="4.2004655115306377e-03" rms="4.6532452106475830e-01" purity="5.0104290246963501e-01" nType="0">
          <Node pos="l" depth="2" NCoef="0" IVar="-1" Cut="0.0000000000000000e+00" cType="1" res="3.8600307889282703e-03" rms="4.7921669483184814e-01" purity="5.6072449684143066e-01" nType="-99"/>
          <Node pos="r" depth="2" NCoef="0" IVar="-1" Cut="0.0000000000000000e+00" cType="1" res="2.9902523237979040e-05" rms="4.6411663293838501e-01" purity="4.9691787362098694e-01" nType="-99"/>
        </Node>
        <Node pos="r" depth="1" NCoef="0" IVar="-1" Cut="0.0000000000000000e+00" cType="1" res="5.4408046416938305e-03" rms="4.4305306673049927e-01" purity="7.1049368381500244e-01" nType="-99"/>
      </Node>
    </BinaryTree>
    <BinaryTree type="DecisionTree" boostWeight="1.0000000000000000e+00" itree="803">
      <Node pos="s" depth="0" NCoef="0" IVar="1" Cut="2.2781884670257568e-01" cType="1" res="3.8789263926446438e-03" rms="4.6151736378669739e-01" purity="5.0504720211029053e-01" nType="0">
        <Node pos="l" depth="1" NCoef="0" IVar="-1" Cut="0.0000000000000000e+00" cType="1" res="-3.4379039425402880e-03" rms="4.5846164226531982e-01" purity="5.2297049760818481e-01" nType="-99"/>
        <Node pos="r" depth="1" NCoef="0" IVar="1" Cut="2.2262089252471924e+00" cType="1" res="8.4734326228499413e-03" rms="4.6144518256187439e-01" purity="5.0363236665725708e-01" nType="0">
          <Node pos="l" depth="2" NCoef="0" IVar="-1" Cut="0.0000000000000000e+00" cType="1" res="1.0154793271794915e-03" rms="4.6583667397499084e-01" purity="5.3259289264678955e-01" nType="-99"/>
          <Node pos="r" depth="2" NCoef="0" IVar="-1" Cut="0.0000000000000000e+00" cType="1" res="-2.5777071714401245e-03" rms="4.2675608396530151e-01" purity="3.0428802967071533e-01" nType="-99"/>
        </Node>
      </Node>
    </BinaryTree>
    <BinaryTree type="DecisionTree" boostWeight="1.0000000000000000e+00" itree="804">
      <Node pos="s" depth="0" NCoef="0" IVar="5" Cut="6.2177978515625000e+02" cType="1" res="-6.3770376145839691e-03" rms="4.6157410740852356e-01" purity="4.9335584044456482e-01" nType="0">
        <Node pos="l" depth="1" NCoef="0" IVar="2" Cut="6.4262712001800537e-01" cType="1" res="-2.8240827843546867e-02" rms="4.6021503210067749e-01" purity="4.0512278676033020e-01" nType="0">
          <Node pos="l" depth="2" NCoef="0" IVar="-1" Cut="0.0000000000000000e+00" cType="1" res="-4.4981349492445588e-04" rms="4.4998732209205627e-01" purity="3.7701678276062012e-01" nType="-99"/>
          <Node pos="r" depth="2" NCoef="0" IVar="-1" Cut="0.0000000000000000e+00" cType="1" res="-4.0084347128868103e-03" rms="4.7547003626823425e-01" purity="4.5486500859260559e-01" nType="-99"/>
        </Node>
        <Node pos="r" depth="1" NCoef="0" IVar="2" Cut="6.0616201162338257e-01" cType="1" res="6.9174859672784805e-03" rms="4.6189287304878235e-01" purity="5.4700696468353271e-01" nType="0">
          <Node pos="l" depth="2" NCoef="0" IVar="-1" Cut="0.0000000000000000e+00" cType="1" res="-9.0014381567016244e-04" rms="4.6917691826820374e-01" purity="4.6146044135093689e-01" nType="-99"/>
          <Node pos="r" depth="2" NCoef="0" IVar="-1" Cut="0.0000000000000000e+00" cType="1" res="1.9063231302425265e-03" rms="4.5374071598052979e-01" purity="6.2991863489151001e-01" nType="-99"/>
        </Node>
      </Node>
    </BinaryTree>
    <BinaryTree type="DecisionTree" boostWeight="1.0000000000000000e+00" itree="805">
      <Node pos="s" depth="0" NCoef="0" IVar="1" Cut="8.1495529413223267e-01" cType="1" res="-8.7900515645742416e-03" rms="4.6446573734283447e-01" purity="4.9271577596664429e-01" nType="0">
        <Node pos="l" depth="1" NCoef="0" IVar="3" Cut="1.7464872598648071e+00" cType="1" res="7.7338968403637409e-03" rms="4.6191594004631042e-01" purity="5.7863968610763550e-01" nType="0">
          <Node pos="l" depth="2" NCoef="0" IVar="-1" Cut="0.0000000000000000e+00" cType="1" res="1.3168733566999435e-03" rms="4.5881357789039612e-01" purity="6.0876446962356567e-01" nType="-99"/>
          <Node pos="r" depth="2" NCoef="0" IVar="-1" Cut="0.0000000000000000e+00" cType="1" res="-2.6175475213676691e-03" rms="4.7171083092689514e-01" purity="4.4838744401931763e-01" nType="-99"/>
        </Node>
        <Node pos="r" depth="1" NCoef="0" IVar="3" Cut="1.5115635395050049e+00" cType="1" res="-2.0069662481546402e-02" rms="4.6586182713508606e-01" purity="4.3406224250793457e-01" nType="0">
          <Node pos="l" depth="2" NCoef="0" IVar="-1" Cut="0.0000000000000000e+00" cType="1" res="-2.6406035758554935e-03" rms="4.6589618921279907e-01" purity="4.4493001699447632e-01" nType="-99"/>
          <Node pos="r" depth="2" NCoef="0" IVar="-1" Cut="0.0000000000000000e+00" cType="1" res="1.0046818060800433e-03" rms="4.6353945136070251e-01" purity="4.1700568795204163e-01" nType="-99"/>
        </Node>
      </Node>
    </BinaryTree>
    <BinaryTree type="DecisionTree" boostWeight="1.0000000000000000e+00" itree="806">
      <Node pos="s" depth="0" NCoef="0" IVar="3" Cut="1.5007271766662598e+00" cType="1" res="1.2213570298627019e-03" rms="4.6641296148300171e-01" purity="5.0528156757354736e-01" nType="0">
        <Node pos="l" depth="1" NCoef="0" IVar="0" Cut="1.5118284523487091e-01" cType="1" res="1.5625992789864540e-02" rms="4.6565896272659302e-01" purity="5.5349498987197876e-01" nType="0">
          <Node pos="l" depth="2" NCoef="0" IVar="-1" Cut="0.0000000000000000e+00" cType="1" res="2.8735713567584753e-04" rms="4.6817901730537415e-01" purity="5.2472227811813354e-01" nType="-99"/>
          <Node pos="r" depth="2" NCoef="0" IVar="-1" Cut="0.0000000000000000e+00" cType="1" res="4.9236309714615345e-03" rms="4.5083153247833252e-01" purity="6.8256270885467529e-01" nType="-99"/>
        </Node>
        <Node pos="r" depth="1" NCoef="0" IVar="6" Cut="2.4784548282623291e+00" cType="1" res="-2.4716865271329880e-02" rms="4.6664777398109436e-01" purity="4.1846439242362976e-01" nType="0">
          <Node pos="l" depth="2" NCoef="0" IVar="-1" Cut="0.0000000000000000e+00" cType="1" res="2.1668733097612858e-03" rms="4.4920888543128967e-01" purity="3.0351647734642029e-01" nType="-99"/>
          <Node pos="r" depth="2" NCoef="0" IVar="-1" Cut="0.0000000000000000e+00" cType="1" res="-2.4140714667737484e-03" rms="4.7007963061332703e-01" purity="4.4916379451751709e-01" nType="-99"/>
        </Node>
      </Node>
    </BinaryTree>
    <BinaryTree type="DecisionTree" boostWeight="1.0000000000000000e+00" itree="807">
      <Node pos="s" depth="0" NCoef="0" IVar="4" Cut="2.8579086065292358e-03" cType="1" res="-1.8002594879362732e-04" rms="4.6108046174049377e-01" purity="5.0110322237014771e-01" nType="0">
        <Node pos="l" depth="1" NCoef="0" IVar="0" Cut="5.4329250007867813e-02" cType="1" res="7.4484357610344887e-03" rms="4.5984056591987610e-01" purity="5.2770912647247314e-01" nType="0">
          <Node pos="l" depth="2" NCoef="0" IVar="-1" Cut="0.0000000000000000e+00" cType="1" res="-1.4175712130963802e-03" rms="4.6811968088150024e-01" purity="4.3429401516914368e-01" nType="-99"/>
          <Node pos="r" depth="2" NCoef="0" IVar="-1" Cut="0.0000000000000000e+00" cType="1" res="1.4991732314229012e-03" rms="4.5507436990737915e-01" purity="5.7275563478469849e-01" nType="-99"/>
        </Node>
        <Node pos="r" depth="1" NCoef="0" IVar="2" Cut="6.4464461803436279e-01" cType="1" res="-3.9827942848205566e-02" rms="4.6546250581741333e-01" purity="3.6282265186309814e-01" nType="0">
          <Node pos="l" depth="2" NCoef="0" IVar="-1" Cut="0.0000000000000000e+00" cType="1" res="-1.2881000293418765e-04" rms="4.5656064152717590e-01" purity="3.5791876912117004e-01" nType="-99"/>
          <Node pos="r" depth="2" NCoef="0" IVar="-1" Cut="0.0000000000000000e+00" cType="1" res="-5.8193486183881760e-03" rms="4.7340574860572815e-01" purity="3.7122613191604614e-01" nType="-99"/>
        </Node>
      </Node>
    </BinaryTree>
    <BinaryTree type="DecisionTree" boostWeight="1.0000000000000000e+00" itree="808">
      <Node pos="s" depth="0" NCoef="0" IVar="4" Cut="8.1400867202319205e-05" cType="1" res="3.5903058014810085e-03" rms="4.5914644002914429e-01" purity="5.0112396478652954e-01" nType="0">
        <Node pos="l" depth="1" NCoef="0" IVar="6" Cut="5.0759563446044922e+00" cType="1" res="5.0652354955673218e-02" rms="4.1468399763107300e-01" purity="7.3023569583892822e-01" nType="0">
          <Node pos="l" depth="2" NCoef="0" IVar="-1" Cut="0.0000000000000000e+00" cType="1" res="5.7452246546745300e-03" rms="4.2848318815231323e-01" purity="6.7224895954132080e-01" nType="-99"/>
          <Node pos="r" depth="2" NCoef="0" IVar="-1" Cut="0.0000000000000000e+00" cType="1" res="2.3819664493203163e-03" rms="3.9916318655014038e-01" purity="7.8701031208038330e-01" nType="-99"/>
        </Node>
        <Node pos="r" depth="1" NCoef="0" IVar="1" Cut="8.8128191232681274e-01" cType="1" res="-2.0288352388888597e-03" rms="4.6385169029235840e-01" purity="4.7376835346221924e-01" nType="0">
          <Node pos="l" depth="2" NCoef="0" IVar="-1" Cut="0.0000000000000000e+00" cType="1" res="8.2966260379180312e-04" rms="4.6606537699699402e-01" purity="5.5848330259323120e-01" nType="-99"/>
          <Node pos="r" depth="2" NCoef="0" IVar="-1" Cut="0.0000000000000000e+00" cType="1" res="-8.4007257828488946e-04" rms="4.6179974079132080e-01" purity="4.0812203288078308e-01" nType="-99"/>
        </Node>
      </Node>
    </BinaryTree>
    <BinaryTree type="DecisionTree" boostWeight="1.0000000000000000e+00" itree="809">
      <Node pos="s" depth="0" NCoef="0" IVar="0" Cut="2.4273581802845001e-02" cType="1" res="2.8489595279097557e-03" rms="4.6380880475044250e-01" purity="5.0336945056915283e-01" nType="0">
        <Node pos="l" depth="1" NCoef="0" IVar="-1" Cut="0.0000000000000000e+00" cType="1" res="-4.1752839460968971e-03" rms="4.5959672331809998e-01" purity="3.5140946507453918e-01" nType="-99"/>
        <Node pos="r" depth="1" NCoef="0" IVar="0" Cut="1.5895085036754608e-01" cType="1" res="1.0945758782327175e-02" rms="4.6357429027557373e-01" purity="5.2035200595855713e-01" nType="0">
          <Node pos="l" depth="2" NCoef="0" IVar="-1" Cut="0.0000000000000000e+00" cType="1" res="2.2525480017066002e-04" rms="4.6772795915603638e-01" purity="4.9409434199333191e-01" nType="-99"/>
          <Node pos="r" depth="2" NCoef="0" IVar="-1" Cut="0.0000000000000000e+00" cType="1" res="3.1155014876276255e-03" rms="4.4287139177322388e-01" purity="6.3845819234848022e-01" nType="-99"/>
        </Node>
      </Node>
    </BinaryTree>
    <BinaryTree type="DecisionTree" boostWeight="1.0000000000000000e+00" itree="810">
      <Node pos="s" depth="0" NCoef="0" IVar="5" Cut="1.1927271728515625e+03" cType="1" res="-3.7519659381359816e-03" rms="4.6811890602111816e-01" purity="4.9574497342109680e-01" nType="0">
        <Node pos="l" depth="1" NCoef="0" IVar="5" Cut="1.0442543945312500e+03" cType="1" res="2.5270907208323479e-03" rms="4.6546286344528198e-01" purity="4.9595934152603149e-01" nType="0">
          <Node pos="l" depth="2" NCoef="0" IVar="-1" Cut="0.0000000000000000e+00" cType="1" res="-1.8685686518438160e-04" rms="4.6581602096557617e-01" purity="4.8621881008148193e-01" nType="-99"/>
          <Node pos="r" depth="2" NCoef="0" IVar="-1" Cut="0.0000000000000000e+00" cType="1" res="5.5089509114623070e-03" rms="4.5295330882072449e-01" purity="6.3786679506301880e-01" nType="-99"/>
        </Node>
        <Node pos="r" depth="1" NCoef="0" IVar="-1" Cut="0.0000000000000000e+00" cType="1" res="-4.2023025453090668e-03" rms="4.8951318860054016e-01" purity="4.9359753727912903e-01" nType="-99"/>
      </Node>
    </BinaryTree>
    <BinaryTree type="DecisionTree" boostWeight="1.0000000000000000e+00" itree="811">
      <Node pos="s" depth="0" NCoef="0" IVar="3" Cut="6.0686630010604858e-01" cType="1" res="-6.9310571998357773e-03" rms="4.6581301093101501e-01" purity="4.9948456883430481e-01" nType="0">
        <Node pos="l" depth="1" NCoef="0" IVar="-1" Cut="0.0000000000000000e+00" cType="1" res="-4.0491372346878052e-03" rms="4.7683778405189514e-01" purity="4.5014634728431702e-01" nType="-99"/>
        <Node pos="r" depth="1" NCoef="0" IVar="4" Cut="2.6750557590276003e-03" cType="1" res="-1.8401519628241658e-03" rms="4.6451106667518616e-01" purity="5.0365656614303589e-01" nType="0">
          <Node pos="l" depth="2" NCoef="0" IVar="-1" Cut="0.0000000000000000e+00" cType="1" res="-5.6931696599349380e-04" rms="4.6426281332969666e-01" purity="5.1869338750839233e-01" nType="-99"/>
          <Node pos="r" depth="2" NCoef="0" IVar="-1" Cut="0.0000000000000000e+00" cType="1" res="1.8118937732651830e-03" rms="4.6435400843620300e-01" purity="4.3507665395736694e-01" nType="-99"/>
        </Node>
      </Node>
    </BinaryTree>
    <BinaryTree type="DecisionTree" boostWeight="1.0000000000000000e+00" itree="812">
      <Node pos="s" depth="0" NCoef="0" IVar="6" Cut="1.9339352846145630e+00" cType="1" res="4.2658080346882343e-03" rms="4.6284204721450806e-01" purity="5.0418990850448608e-01" nType="0">
        <Node pos="l" depth="1" NCoef="0" IVar="-1" Cut="0.0000000000000000e+00" cType="1" res="-2.6968768797814846e-03" rms="4.2012399435043335e-01" purity="2.4604471027851105e-01" nType="-99"/>
        <Node pos="r" depth="1" NCoef="0" IVar="5" Cut="1.1630976562500000e+03" cType="1" res="9.1148670762777328e-03" rms="4.6698698401451111e-01" purity="5.3221052885055542e-01" nType="0">
          <Node pos="l" depth="2" NCoef="0" IVar="-1" Cut="0.0000000000000000e+00" cType="1" res="9.4376679044216871e-04" rms="4.6539548039436340e-01" purity="5.3199082612991333e-01" nType="-99"/>
          <Node pos="r" depth="2" NCoef="0" IVar="-1" Cut="0.0000000000000000e+00" cType="1" res="-2.8240128885954618e-03" rms="4.7908288240432739e-01" purity="5.3440093994140625e-01" nType="-99"/>
        </Node>
      </Node>
    </BinaryTree>
    <BinaryTree type="DecisionTree" boostWeight="1.0000000000000000e+00" itree="813">
      <Node pos="s" depth="0" NCoef="0" IVar="3" Cut="1.5238767862319946e+00" cType="1" res="4.0362058207392693e-03" rms="4.5950487256050110e-01" purity="4.9989169836044312e-01" nType="0">
        <Node pos="l" depth="1" NCoef="0" IVar="4" Cut="8.1206311006098986e-04" cType="1" res="-7.3543158359825611e-03" rms="4.5996057987213135e-01" purity="5.2115100622177124e-01" nType="0">
          <Node pos="l" depth="2" NCoef="0" IVar="-1" Cut="0.0000000000000000e+00" cType="1" res="1.3601366663351655e-03" rms="4.4706591963768005e-01" purity="6.3336861133575439e-01" nType="-99"/>
          <Node pos="r" depth="2" NCoef="0" IVar="-1" Cut="0.0000000000000000e+00" cType="1" res="-1.4649966033175588e-03" rms="4.6731638908386230e-01" purity="4.4859910011291504e-01" nType="-99"/>
        </Node>
        <Node pos="r" depth="1" NCoef="0" IVar="2" Cut="5.2299213409423828e-01" cType="1" res="2.5228083133697510e-02" rms="4.5790252089500427e-01" purity="4.6033912897109985e-01" nType="0">
          <Node pos="l" depth="2" NCoef="0" IVar="-1" Cut="0.0000000000000000e+00" cType="1" res="-7.4819516157731414e-04" rms="4.4541487097740173e-01" purity="3.4690782427787781e-01" nType="-99"/>
          <Node pos="r" depth="2" NCoef="0" IVar="-1" Cut="0.0000000000000000e+00" cType="1" res="2.9526846483349800e-03" rms="4.6341505646705627e-01" purity="5.2328264713287354e-01" nType="-99"/>
        </Node>
      </Node>
    </BinaryTree>
    <BinaryTree type="DecisionTree" boostWeight="1.0000000000000000e+00" itree="814">
      <Node pos="s" depth="0" NCoef="0" IVar="4" Cut="1.7833614256232977e-03" cType="1" res="-2.8266236186027527e-03" rms="4.6838417649269104e-01" purity="5.0107657909393311e-01" nType="0">
        <Node pos="l" depth="1" NCoef="0" IVar="2" Cut="4.5098707079887390e-01" cType="1" res="-1.6658920794725418e-02" rms="4.6984580159187317e-01" purity="5.3624892234802246e-01" nType="0">
          <Node pos="l" depth="2" NCoef="0" IVar="-1" Cut="0.0000000000000000e+00" cType="1" res="2.7194006834179163e-03" rms="4.6897122263908386e-01" purity="4.8514747619628906e-01" nType="-99"/>
          <Node pos="r" depth="2" NCoef="0" IVar="-1" Cut="0.0000000000000000e+00" cType="1" res="-1.7913485644385219e-03" rms="4.6925100684165955e-01" purity="5.4496800899505615e-01" nType="-99"/>
        </Node>
        <Node pos="r" depth="1" NCoef="0" IVar="0" Cut="1.2442726641893387e-01" cType="1" res="2.2995058447122574e-02" rms="4.6454259753227234e-01" purity="4.3541806936264038e-01" nType="0">
          <Node pos="l" depth="2" NCoef="0" IVar="-1" Cut="0.0000000000000000e+00" cType="1" res="4.2356571066193283e-04" rms="4.6537825465202332e-01" purity="3.9393335580825806e-01" nType="-99"/>
          <Node pos="r" depth="2" NCoef="0" IVar="-1" Cut="0.0000000000000000e+00" cType="1" res="3.9601214230060577e-03" rms="4.5979958772659302e-01" purity="5.4247438907623291e-01" nType="-99"/>
        </Node>
      </Node>
    </BinaryTree>
    <BinaryTree type="DecisionTree" boostWeight="1.0000000000000000e+00" itree="815">
      <Node pos="s" depth="0" NCoef="0" IVar="5" Cut="1.0492584228515625e+03" cType="1" res="-1.4015937922522426e-03" rms="4.6500349044799805e-01" purity="4.9847847223281860e-01" nType="0">
        <Node pos="l" depth="1" NCoef="0" IVar="4" Cut="2.2392431274056435e-03" cType="1" res="-9.4405263662338257e-03" rms="4.6683123707771301e-01" purity="4.8116362094879150e-01" nType="0">
          <Node pos="l" depth="2" NCoef="0" IVar="-1" Cut="0.0000000000000000e+00" cType="1" res="-1.3854842400178313e-03" rms="4.6637681126594543e-01" purity="5.0317066907882690e-01" nType="-99"/>
          <Node pos="r" depth="2" NCoef="0" IVar="-1" Cut="0.0000000000000000e+00" cType="1" res="1.5370908658951521e-03" rms="4.6648690104484558e-01" purity="4.1584020853042603e-01" nType="-99"/>
        </Node>
        <Node pos="r" depth="1" NCoef="0" IVar="3" Cut="1.2771403789520264e+00" cType="1" res="4.6490073204040527e-02" rms="4.5100235939025879e-01" purity="6.0163104534149170e-01" nType="0">
          <Node pos="l" depth="2" NCoef="0" IVar="-1" Cut="0.0000000000000000e+00" cType="1" res="5.5593871511518955e-03" rms="4.3239757418632507e-01" purity="6.8073612451553345e-01" nType="-99"/>
          <Node pos="r" depth="2" NCoef="0" IVar="-1" Cut="0.0000000000000000e+00" cType="1" res="8.2640617620199919e-05" rms="4.7031304240226746e-01" purity="4.9865961074829102e-01" nType="-99"/>
        </Node>
      </Node>
    </BinaryTree>
    <BinaryTree type="DecisionTree" boostWeight="1.0000000000000000e+00" itree="816">
      <Node pos="s" depth="0" NCoef="0" IVar="3" Cut="2.2986502647399902e+00" cType="1" res="1.9033571006730199e-03" rms="4.6186113357543945e-01" purity="5.0457847118377686e-01" nType="0">
        <Node pos="l" depth="1" NCoef="0" IVar="3" Cut="1.3661407232284546e+00" cType="1" res="6.1619137413799763e-03" rms="4.6480759978294373e-01" purity="5.2172738313674927e-01" nType="0">
          <Node pos="l" depth="2" NCoef="0" IVar="-1" Cut="0.0000000000000000e+00" cType="1" res="-4.3827650370076299e-04" rms="4.6613511443138123e-01" purity="5.2809786796569824e-01" nType="-99"/>
          <Node pos="r" depth="2" NCoef="0" IVar="-1" Cut="0.0000000000000000e+00" cType="1" res="1.6230148030444980e-03" rms="4.6217036247253418e-01" purity="5.1228761672973633e-01" nType="-99"/>
        </Node>
        <Node pos="r" depth="1" NCoef="0" IVar="-1" Cut="0.0000000000000000e+00" cType="1" res="-4.1569080203771591e-03" rms="4.0754199028015137e-01" purity="2.3739269375801086e-01" nType="-99"/>
      </Node>
    </BinaryTree>
    <BinaryTree type="DecisionTree" boostWeight="1.0000000000000000e+00" itree="817">
      <Node pos="s" depth="0" NCoef="0" IVar="5" Cut="6.7469036865234375e+02" cType="1" res="-1.0044693481177092e-03" rms="4.6603381633758545e-01" purity="5.0046879053115845e-01" nType="0">
        <Node pos="l" depth="1" NCoef="0" IVar="5" Cut="6.1405450439453125e+02" cType="1" res="2.0922318100929260e-02" rms="4.6656304597854614e-01" purity="4.7304448485374451e-01" nType="0">
          <Node pos="l" depth="2" NCoef="0" IVar="-1" Cut="0.0000000000000000e+00" cType="1" res="6.6092697670683265e-04" rms="4.6622413396835327e-01" purity="4.4197174906730652e-01" nType="-99"/>
          <Node pos="r" depth="2" NCoef="0" IVar="-1" Cut="0.0000000000000000e+00" cType="1" res="3.6551661323755980e-03" rms="4.6602135896682739e-01" purity="5.7154989242553711e-01" nType="-99"/>
        </Node>
        <Node pos="r" depth="1" NCoef="0" IVar="0" Cut="7.8250132501125336e-02" cType="1" res="-1.9903808832168579e-02" rms="4.6474778652191162e-01" purity="5.2410656213760376e-01" nType="0">
          <Node pos="l" depth="2" NCoef="0" IVar="-1" Cut="0.0000000000000000e+00" cType="1" res="2.0083632261957973e-04" rms="4.6568602323532104e-01" purity="5.0122106075286865e-01" nType="-99"/>
          <Node pos="r" depth="2" NCoef="0" IVar="-1" Cut="0.0000000000000000e+00" cType="1" res="-3.4997297916561365e-03" rms="4.6136128902435303e-01" purity="5.5707561969757080e-01" nType="-99"/>
        </Node>
      </Node>
    </BinaryTree>
    <BinaryTree type="DecisionTree" boostWeight="1.0000000000000000e+00" itree="818">
      <Node pos="s" depth="0" NCoef="0" IVar="2" Cut="6.1812740564346313e-01" cType="1" res="3.0666573438793421e-03" rms="4.5785570144653320e-01" purity="4.9996623396873474e-01" nType="0">
        <Node pos="l" depth="1" NCoef="0" IVar="6" Cut="4.1347694396972656e+00" cType="1" res="-1.6400882974267006e-02" rms="4.6096405386924744e-01" purity="4.1915127635002136e-01" nType="0">
          <Node pos="l" depth="2" NCoef="0" IVar="-1" Cut="0.0000000000000000e+00" cType="1" res="-2.0105137955397367e-03" rms="4.5467093586921692e-01" purity="3.2291606068611145e-01" nType="-99"/>
          <Node pos="r" depth="2" NCoef="0" IVar="-1" Cut="0.0000000000000000e+00" cType="1" res="1.0784219484776258e-03" rms="4.7158578038215637e-01" purity="6.1181676387786865e-01" nType="-99"/>
        </Node>
        <Node pos="r" depth="1" NCoef="0" IVar="6" Cut="2.9851090908050537e+00" cType="1" res="2.5998279452323914e-02" rms="4.5309528708457947e-01" purity="5.9516155719757080e-01" nType="0">
          <Node pos="l" depth="2" NCoef="0" IVar="-1" Cut="0.0000000000000000e+00" cType="1" res="-5.6663650320842862e-04" rms="4.7598630189895630e-01" purity="3.9490759372711182e-01" nType="-99"/>
          <Node pos="r" depth="2" NCoef="0" IVar="-1" Cut="0.0000000000000000e+00" cType="1" res="3.2498070504516363e-03" rms="4.3920642137527466e-01" purity="7.0208626985549927e-01" nType="-99"/>
        </Node>
      </Node>
    </BinaryTree>
    <BinaryTree type="DecisionTree" boostWeight="1.0000000000000000e+00" itree="819">
      <Node pos="s" depth="0" NCoef="0" IVar="4" Cut="1.6052526189014316e-04" cType="1" res="-1.6588993370532990e-02" rms="4.6455064415931702e-01" purity="4.8123389482498169e-01" nType="0">
        <Node pos="l" depth="1" NCoef="0" IVar="5" Cut="6.4632025146484375e+02" cType="1" res="2.7808735147118568e-02" rms="4.2733976244926453e-01" purity="6.9476532936096191e-01" nType="0">
          <Node pos="l" depth="2" NCoef="0" IVar="-1" Cut="0.0000000000000000e+00" cType="1" res="6.6255023702979088e-03" rms="4.0435215830802917e-01" purity="7.0119673013687134e-01" nType="-99"/>
          <Node pos="r" depth="2" NCoef="0" IVar="-1" Cut="0.0000000000000000e+00" cType="1" res="-1.1357066687196493e-03" rms="4.3784198164939880e-01" purity="6.9028317928314209e-01" nType="-99"/>
        </Node>
        <Node pos="r" depth="1" NCoef="0" IVar="6" Cut="4.4863286018371582e+00" cType="1" res="-2.4528320878744125e-02" rms="4.7045356035232544e-01" purity="4.4304957985877991e-01" nType="0">
          <Node pos="l" depth="2" NCoef="0" IVar="-1" Cut="0.0000000000000000e+00" cType="1" res="-8.1077270442619920e-04" rms="4.6933612227439880e-01" purity="4.0443515777587891e-01" nType="-99"/>
          <Node pos="r" depth="2" NCoef="0" IVar="-1" Cut="0.0000000000000000e+00" cType="1" res="-4.4314875267446041e-03" rms="4.7227072715759277e-01" purity="5.8871579170227051e-01" nType="-99"/>
        </Node>
      </Node>
    </BinaryTree>
    <BinaryTree type="DecisionTree" boostWeight="1.0000000000000000e+00" itree="820">
      <Node pos="s" depth="0" NCoef="0" IVar="4" Cut="2.4060181749518961e-04" cType="1" res="-4.9775047227740288e-03" rms="4.6412125229835510e-01" purity="4.9701675772666931e-01" nType="0">
        <Node pos="l" depth="1" NCoef="0" IVar="6" Cut="5.7573804855346680e+00" cType="1" res="-3.7213645875453949e-02" rms="4.6085178852081299e-01" purity="6.0601419210433960e-01" nType="0">
          <Node pos="l" depth="2" NCoef="0" IVar="-1" Cut="0.0000000000000000e+00" cType="1" res="-1.4147338224574924e-03" rms="4.6166032552719116e-01" purity="5.7863986492156982e-01" nType="-99"/>
          <Node pos="r" depth="2" NCoef="0" IVar="-1" Cut="0.0000000000000000e+00" cType="1" res="-7.4411770328879356e-03" rms="4.5501160621643066e-01" purity="6.8367207050323486e-01" nType="-99"/>
        </Node>
        <Node pos="r" depth="1" NCoef="0" IVar="5" Cut="8.7220550537109375e+02" cType="1" res="3.6391732282936573e-03" rms="4.6461260318756104e-01" purity="4.6788185834884644e-01" nType="0">
          <Node pos="l" depth="2" NCoef="0" IVar="-1" Cut="0.0000000000000000e+00" cType="1" res="-3.9339542854577303e-04" rms="4.6155738830566406e-01" purity="4.3702882528305054e-01" nType="-99"/>
          <Node pos="r" depth="2" NCoef="0" IVar="-1" Cut="0.0000000000000000e+00" cType="1" res="2.0264387130737305e-03" rms="4.7203075885772705e-01" purity="5.5553126335144043e-01" nType="-99"/>
        </Node>
      </Node>
    </BinaryTree>
    <BinaryTree type="DecisionTree" boostWeight="1.0000000000000000e+00" itree="821">
      <Node pos="s" depth="0" NCoef="0" IVar="1" Cut="1.8177429437637329e+00" cType="1" res="-5.4628839716315269e-03" rms="4.6309661865234375e-01" purity="4.9950027465820312e-01" nType="0">
        <Node pos="l" depth="1" NCoef="0" IVar="6" Cut="2.7135434150695801e+00" cType="1" res="-1.4213949441909790e-02" rms="4.6370521187782288e-01" purity="5.2274787425994873e-01" nType="0">
          <Node pos="l" depth="2" NCoef="0" IVar="-1" Cut="0.0000000000000000e+00" cType="1" res="-2.8190489392727613e-03" rms="4.5341065526008606e-01" purity="3.0646628141403198e-01" nType="-99"/>
          <Node pos="r" depth="2" NCoef="0" IVar="-1" Cut="0.0000000000000000e+00" cType="1" res="-1.8852889479603618e-04" rms="4.6672597527503967e-01" purity="5.9851777553558350e-01" nType="-99"/>
        </Node>
        <Node pos="r" depth="1" NCoef="0" IVar="4" Cut="2.1595628932118416e-03" cType="1" res="3.2400619238615036e-02" rms="4.5853361487388611e-01" purity="3.9891424775123596e-01" nType="0">
          <Node pos="l" depth="2" NCoef="0" IVar="-1" Cut="0.0000000000000000e+00" cType="1" res="3.6694845184683800e-03" rms="4.7065550088882446e-01" purity="4.5889320969581604e-01" nType="-99"/>
          <Node pos="r" depth="2" NCoef="0" IVar="-1" Cut="0.0000000000000000e+00" cType="1" res="-1.2402781285345554e-03" rms="4.2617136240005493e-01" purity="2.6714542508125305e-01" nType="-99"/>
        </Node>
      </Node>
    </BinaryTree>
    <BinaryTree type="DecisionTree" boostWeight="1.0000000000000000e+00" itree="822">
      <Node pos="s" depth="0" NCoef="0" IVar="2" Cut="8.2907593250274658e-01" cType="1" res="2.9599424451589584e-03" rms="4.6176433563232422e-01" purity="5.0862258672714233e-01" nType="0">
        <Node pos="l" depth="1" NCoef="0" IVar="0" Cut="2.7211194857954979e-02" cType="1" res="-2.0751443225890398e-03" rms="4.6484521031379700e-01" purity="4.9111992120742798e-01" nType="0">
          <Node pos="l" depth="2" NCoef="0" IVar="-1" Cut="0.0000000000000000e+00" cType="1" res="2.2607550490647554e-03" rms="4.5575502514839172e-01" purity="4.3479961156845093e-01" nType="-99"/>
          <Node pos="r" depth="2" NCoef="0" IVar="-1" Cut="0.0000000000000000e+00" cType="1" res="-4.4674923992715776e-04" rms="4.6580117940902710e-01" purity="4.9850204586982727e-01" nType="-99"/>
        </Node>
        <Node pos="r" depth="1" NCoef="0" IVar="-1" Cut="0.0000000000000000e+00" cType="1" res="4.9841282889246941e-03" rms="4.1691777110099792e-01" purity="7.2462934255599976e-01" nType="-99"/>
      </Node>
    </BinaryTree>
    <BinaryTree type="DecisionTree" boostWeight="1.0000000000000000e+00" itree="823">
      <Node pos="s" depth="0" NCoef="0" IVar="1" Cut="1.1030108928680420e+00" cType="1" res="-6.0324701480567455e-03" rms="4.6379280090332031e-01" purity="4.9889865517616272e-01" nType="0">
        <Node pos="l" depth="1" NCoef="0" IVar="2" Cut="6.6404163837432861e-01" cType="1" res="-2.1944304928183556e-02" rms="4.6330913901329041e-01" purity="5.3884947299957275e-01" nType="0">
          <Node pos="l" depth="2" NCoef="0" IVar="-1" Cut="0.0000000000000000e+00" cType="1" res="-3.9806350832805037e-04" rms="4.6494448184967041e-01" purity="5.1307374238967896e-01" nType="-99"/>
          <Node pos="r" depth="2" NCoef="0" IVar="-1" Cut="0.0000000000000000e+00" cType="1" res="-2.8359915595501661e-03" rms="4.6044701337814331e-01" purity="5.7180279493331909e-01" nType="-99"/>
        </Node>
        <Node pos="r" depth="1" NCoef="0" IVar="5" Cut="9.5653442382812500e+02" cType="1" res="1.5357433818280697e-02" rms="4.6358239650726318e-01" purity="4.4519370794296265e-01" nType="0">
          <Node pos="l" depth="2" NCoef="0" IVar="-1" Cut="0.0000000000000000e+00" cType="1" res="-3.9563215977977961e-05" rms="4.5877322554588318e-01" purity="4.1770797967910767e-01" nType="-99"/>
          <Node pos="r" depth="2" NCoef="0" IVar="-1" Cut="0.0000000000000000e+00" cType="1" res="6.0704462230205536e-03" rms="4.7885724902153015e-01" purity="5.8048689365386963e-01" nType="-99"/>
        </Node>
      </Node>
    </BinaryTree>
    <BinaryTree type="DecisionTree" boostWeight="1.0000000000000000e+00" itree="824">
      <Node pos="s" depth="0" NCoef="0" IVar="6" Cut="2.7575020790100098e+00" cType="1" res="-5.3551220335066319e-03" rms="4.6347087621688843e-01" purity="4.9543106555938721e-01" nType="0">
        <Node pos="l" depth="1" NCoef="0" IVar="3" Cut="1.1693900823593140e+00" cType="1" res="-2.8895417228341103e-02" rms="4.4657087326049805e-01" purity="3.0196112394332886e-01" nType="0">
          <Node pos="l" depth="2" NCoef="0" IVar="-1" Cut="0.0000000000000000e+00" cType="1" res="4.2059493716806173e-04" rms="4.6891158819198608e-01" purity="3.6823311448097229e-01" nType="-99"/>
          <Node pos="r" depth="2" NCoef="0" IVar="-1" Cut="0.0000000000000000e+00" cType="1" res="-3.3280029892921448e-03" rms="4.3000859022140503e-01" purity="2.5929635763168335e-01" nType="-99"/>
        </Node>
        <Node pos="r" depth="1" NCoef="0" IVar="2" Cut="4.4930258393287659e-01" cType="1" res="3.5701522137969732e-03" rms="4.6941101551055908e-01" purity="5.6878495216369629e-01" nType="0">
          <Node pos="l" depth="2" NCoef="0" IVar="-1" Cut="0.0000000000000000e+00" cType="1" res="3.4651029855012894e-03" rms="4.7342371940612793e-01" purity="4.9910068511962891e-01" nType="-99"/>
          <Node pos="r" depth="2" NCoef="0" IVar="-1" Cut="0.0000000000000000e+00" cType="1" res="-3.9441316039301455e-04" rms="4.6803167462348938e-01" purity="5.8141410350799561e-01" nType="-99"/>
        </Node>
      </Node>
    </BinaryTree>
    <BinaryTree type="DecisionTree" boostWeight="1.0000000000000000e+00" itree="825">
      <Node pos="s" depth="0" NCoef="0" IVar="4" Cut="2.8799248393625021e-03" cType="1" res="-1.8840077100321651e-03" rms="4.6349930763244629e-01" purity="5.0018966197967529e-01" nType="0">
        <Node pos="l" depth="1" NCoef="0" IVar="4" Cut="2.4076448753476143e-03" cType="1" res="-7.2578107938170433e-03" rms="4.6204105019569397e-01" purity="5.1104193925857544e-01" nType="0">
          <Node pos="l" depth="2" NCoef="0" IVar="-1" Cut="0.0000000000000000e+00" cType="1" res="-1.6492507711518556e-04" rms="4.6303564310073853e-01" purity="5.2456426620483398e-01" nType="-99"/>
          <Node pos="r" depth="2" NCoef="0" IVar="-1" Cut="0.0000000000000000e+00" cType="1" res="-3.1972758006304502e-03" rms="4.4913637638092041e-01" purity="3.7499356269836426e-01" nType="-99"/>
        </Node>
        <Node pos="r" depth="1" NCoef="0" IVar="0" Cut="9.3348123133182526e-02" cType="1" res="2.9076868668198586e-02" rms="4.7061958909034729e-01" purity="4.3766492605209351e-01" nType="0">
          <Node pos="l" depth="2" NCoef="0" IVar="-1" Cut="0.0000000000000000e+00" cType="1" res="1.0317165288142860e-04" rms="4.6664044260978699e-01" purity="3.7665364146232605e-01" nType="-99"/>
          <Node pos="r" depth="2" NCoef="0" IVar="-1" Cut="0.0000000000000000e+00" cType="1" res="4.0512629784643650e-03" rms="4.7344031929969788e-01" purity="5.1995515823364258e-01" nType="-99"/>
        </Node>
      </Node>
    </BinaryTree>
    <BinaryTree type="DecisionTree" boostWeight="1.0000000000000000e+00" itree="826">
      <Node pos="s" depth="0" NCoef="0" IVar="4" Cut="2.3284992203116417e-03" cType="1" res="4.6745287254452705e-03" rms="4.6513184905052185e-01" purity="5.0847369432449341e-01" nType="0">
        <Node pos="l" depth="1" NCoef="0" IVar="4" Cut="1.0685262968763709e-03" cType="1" res="1.2778102420270443e-02" rms="4.6677321195602417e-01" purity="5.4755747318267822e-01" nType="0">
          <Node pos="l" depth="2" NCoef="0" IVar="-1" Cut="0.0000000000000000e+00" cType="1" res="-1.9891261763405055e-04" rms="4.6175011992454529e-01" purity="5.7380747795104980e-01" nType="-99"/>
          <Node pos="r" depth="2" NCoef="0" IVar="-1" Cut="0.0000000000000000e+00" cType="1" res="2.3947400040924549e-03" rms="4.7370594739913940e-01" purity="5.0499010086059570e-01" nType="-99"/>
        </Node>
        <Node pos="r" depth="1" NCoef="0" IVar="5" Cut="6.0186468505859375e+02" cType="1" res="-1.9727265462279320e-02" rms="4.5929130911827087e-01" purity="3.9078310132026672e-01" nType="0">
          <Node pos="l" depth="2" NCoef="0" IVar="-1" Cut="0.0000000000000000e+00" cType="1" res="-3.0155959539115429e-03" rms="4.3050676584243774e-01" purity="2.7785649895668030e-01" nType="-99"/>
          <Node pos="r" depth="2" NCoef="0" IVar="-1" Cut="0.0000000000000000e+00" cType="1" res="-2.5325728347525001e-04" rms="4.7278833389282227e-01" purity="4.4933015108108521e-01" nType="-99"/>
        </Node>
      </Node>
    </BinaryTree>
    <BinaryTree type="DecisionTree" boostWeight="1.0000000000000000e+00" itree="827">
      <Node pos="s" depth="0" NCoef="0" IVar="0" Cut="8.3584740757942200e-02" cType="1" res="1.2382479384541512e-02" rms="4.6522191166877747e-01" purity="5.1126283407211304e-01" nType="0">
        <Node pos="l" depth="1" NCoef="0" IVar="5" Cut="5.2201745605468750e+02" cType="1" res="-1.4684031484648585e-03" rms="4.6570613980293274e-01" purity="4.5581075549125671e-01" nType="0">
          <Node pos="l" depth="2" NCoef="0" IVar="-1" Cut="0.0000000000000000e+00" cType="1" res="4.7875489108264446e-03" rms="4.4475406408309937e-01" purity="3.7654623389244080e-01" nType="-99"/>
          <Node pos="r" depth="2" NCoef="0" IVar="-1" Cut="0.0000000000000000e+00" cType="1" res="-7.1954994928091764e-04" rms="4.6777281165122986e-01" purity="4.6721434593200684e-01" nType="-99"/>
        </Node>
        <Node pos="r" depth="1" NCoef="0" IVar="6" Cut="3.8129096031188965e+00" cType="1" res="2.8618041425943375e-02" rms="4.6412771940231323e-01" purity="5.7626205682754517e-01" nType="0">
          <Node pos="l" depth="2" NCoef="0" IVar="-1" Cut="0.0000000000000000e+00" cType="1" res="2.8724698349833488e-03" rms="4.8158621788024902e-01" purity="4.7761225700378418e-01" nType="-99"/>
          <Node pos="r" depth="2" NCoef="0" IVar="-1" Cut="0.0000000000000000e+00" cType="1" res="4.5010144822299480e-04" rms="4.4073566794395447e-01" purity="6.9716697931289673e-01" nType="-99"/>
        </Node>
      </Node>
    </BinaryTree>
    <BinaryTree type="DecisionTree" boostWeight="1.0000000000000000e+00" itree="828">
      <Node pos="s" depth="0" NCoef="0" IVar="6" Cut="5.1967005729675293e+00" cType="1" res="6.3309178221970797e-04" rms="4.6561449766159058e-01" purity="5.0209057331085205e-01" nType="0">
        <Node pos="l" depth="1" NCoef="0" IVar="4" Cut="3.9388699224218726e-04" cType="1" res="8.3743203431367874e-03" rms="4.6791166067123413e-01" purity="4.7018349170684814e-01" nType="0">
          <Node pos="l" depth="2" NCoef="0" IVar="-1" Cut="0.0000000000000000e+00" cType="1" res="-1.5593884745612741e-03" rms="4.6024346351623535e-01" purity="5.2438563108444214e-01" nType="-99"/>
          <Node pos="r" depth="2" NCoef="0" IVar="-1" Cut="0.0000000000000000e+00" cType="1" res="1.0448545217514038e-03" rms="4.6955922245979309e-01" purity="4.5577281713485718e-01" nType="-99"/>
        </Node>
        <Node pos="r" depth="1" NCoef="0" IVar="1" Cut="7.4837899208068848e-01" cType="1" res="-4.4136714190244675e-02" rms="4.4949305057525635e-01" purity="6.8661886453628540e-01" nType="0">
          <Node pos="l" depth="2" NCoef="0" IVar="-1" Cut="0.0000000000000000e+00" cType="1" res="-8.6910882964730263e-03" rms="4.5303738117218018e-01" purity="6.7974084615707397e-01" nType="-99"/>
          <Node pos="r" depth="2" NCoef="0" IVar="-1" Cut="0.0000000000000000e+00" cType="1" res="-7.5188284972682595e-04" rms="4.4383323192596436e-01" purity="6.9102412462234497e-01" nType="-99"/>
        </Node>
      </Node>
    </BinaryTree>
    <BinaryTree type="DecisionTree" boostWeight="1.0000000000000000e+00" itree="829">
      <Node pos="s" depth="0" NCoef="0" IVar="1" Cut="1.7125806808471680e+00" cType="1" res="-6.6185179166495800e-03" rms="4.6611705422401428e-01" purity="4.9448692798614502e-01" nType="0">
        <Node pos="l" depth="1" NCoef="0" IVar="3" Cut="1.8897008895874023e+00" cType="1" res="-1.6652600839734077e-02" rms="4.6656808257102966e-01" purity="5.1981091499328613e-01" nType="0">
          <Node pos="l" depth="2" NCoef="0" IVar="-1" Cut="0.0000000000000000e+00" cType="1" res="-6.6212331876158714e-04" rms="4.6844455599784851e-01" purity="5.4526835680007935e-01" nType="-99"/>
          <Node pos="r" depth="2" NCoef="0" IVar="-1" Cut="0.0000000000000000e+00" cType="1" res="-3.2397734466940165e-03" rms="4.5395860075950623e-01" purity="3.7353715300559998e-01" nType="-99"/>
        </Node>
        <Node pos="r" depth="1" NCoef="0" IVar="1" Cut="1.9486209154129028e+00" cType="1" res="2.8906201943755150e-02" rms="4.6277141571044922e-01" purity="4.0482968091964722e-01" nType="0">
          <Node pos="l" depth="2" NCoef="0" IVar="-1" Cut="0.0000000000000000e+00" cType="1" res="4.6585975214838982e-03" rms="4.9324899911880493e-01" purity="5.1707965135574341e-01" nType="-99"/>
          <Node pos="r" depth="2" NCoef="0" IVar="-1" Cut="0.0000000000000000e+00" cType="1" res="8.7491894373670220e-04" rms="4.5087328553199768e-01" purity="3.6657768487930298e-01" nType="-99"/>
        </Node>
      </Node>
    </BinaryTree>
    <BinaryTree type="DecisionTree" boostWeight="1.0000000000000000e+00" itree="830">
      <Node pos="s" depth="0" NCoef="0" IVar="5" Cut="9.5721539306640625e+02" cType="1" res="-3.1115119345486164e-03" rms="4.6244043111801147e-01" purity="4.9742686748504639e-01" nType="0">
        <Node pos="l" depth="1" NCoef="0" IVar="5" Cut="8.9064886474609375e+02" cType="1" res="1.8393773352727294e-03" rms="4.6085444092750549e-01" purity="4.8900970816612244e-01" nType="0">
          <Node pos="l" depth="2" NCoef="0" IVar="-1" Cut="0.0000000000000000e+00" cType="1" res="-2.2516318131238222e-04" rms="4.6197757124900818e-01" purity="4.8105299472808838e-01" nType="-99"/>
          <Node pos="r" depth="2" NCoef="0" IVar="-1" Cut="0.0000000000000000e+00" cType="1" res="5.2510621026158333e-03" rms="4.3786746263504028e-01" purity="6.0096818208694458e-01" nType="-99"/>
        </Node>
        <Node pos="r" depth="1" NCoef="0" IVar="3" Cut="1.5947223901748657e+00" cType="1" res="-2.3327536880970001e-02" rms="4.6831798553466797e-01" purity="5.3179669380187988e-01" nType="0">
          <Node pos="l" depth="2" NCoef="0" IVar="-1" Cut="0.0000000000000000e+00" cType="1" res="-6.5402284963056445e-04" rms="4.6285369992256165e-01" purity="5.7603645324707031e-01" nType="-99"/>
          <Node pos="r" depth="2" NCoef="0" IVar="-1" Cut="0.0000000000000000e+00" cType="1" res="-3.7215484771877527e-03" rms="4.8147290945053101e-01" purity="4.0613958239555359e-01" nType="-99"/>
        </Node>
      </Node>
    </BinaryTree>
    <BinaryTree type="DecisionTree" boostWeight="1.0000000000000000e+00" itree="831">
      <Node pos="s" depth="0" NCoef="0" IVar="3" Cut="7.0683336257934570e-01" cType="1" res="-2.2981697693467140e-03" rms="4.6226289868354797e-01" purity="4.9890595674514771e-01" nType="0">
        <Node pos="l" depth="1" NCoef="0" IVar="3" Cut="5.6253546476364136e-01" cType="1" res="3.9737485349178314e-02" rms="4.5705556869506836e-01" purity="5.5507671833038330e-01" nType="0">
          <Node pos="l" depth="2" NCoef="0" IVar="-1" Cut="0.0000000000000000e+00" cType="1" res="-3.1864776974543929e-04" rms="4.7054681181907654e-01" purity="4.8404020071029663e-01" nType="-99"/>
          <Node pos="r" depth="2" NCoef="0" IVar="-1" Cut="0.0000000000000000e+00" cType="1" res="4.7391341067850590e-03" rms="4.4478866457939148e-01" purity="6.0435891151428223e-01" nType="-99"/>
        </Node>
        <Node pos="r" depth="1" NCoef="0" IVar="1" Cut="2.2042105197906494e+00" cType="1" res="-8.6545208469033241e-03" rms="4.6271297335624695e-01" purity="4.9041220545768738e-01" nType="0">
          <Node pos="l" depth="2" NCoef="0" IVar="-1" Cut="0.0000000000000000e+00" cType="1" res="-6.6166503529530019e-05" rms="4.6597725152969360e-01" purity="5.2050143480300903e-01" nType="-99"/>
          <Node pos="r" depth="2" NCoef="0" IVar="-1" Cut="0.0000000000000000e+00" cType="1" res="-3.7734727375209332e-03" rms="4.3648731708526611e-01" purity="2.8675001859664917e-01" nType="-99"/>
        </Node>
      </Node>
    </BinaryTree>
    <BinaryTree type="DecisionTree" boostWeight="1.0000000000000000e+00" itree="832">
      <Node pos="s" depth="0" NCoef="0" IVar="3" Cut="1.8175679445266724e+00" cType="1" res="-7.1439431048929691e-03" rms="4.7093942761421204e-01" purity="4.9873182177543640e-01" nType="0">
        <Node pos="l" depth="1" NCoef="0" IVar="6" Cut="3.8217759132385254e+00" cType="1" res="-1.9917141646146774e-02" rms="4.7027787566184998e-01" purity="5.1105040311813354e-01" nType="0">
          <Node pos="l" depth="2" NCoef="0" IVar="-1" Cut="0.0000000000000000e+00" cType="1" res="-1.6269063053186983e-04" rms="4.7616335749626160e-01" purity="4.1866603493690491e-01" nType="-99"/>
          <Node pos="r" depth="2" NCoef="0" IVar="-1" Cut="0.0000000000000000e+00" cType="1" res="-2.7796807698905468e-03" rms="4.6227762103080750e-01" purity="6.2184405326843262e-01" nType="-99"/>
        </Node>
        <Node pos="r" depth="1" NCoef="0" IVar="4" Cut="9.1373693430796266e-04" cType="1" res="4.7094218432903290e-02" rms="4.6988657116889954e-01" purity="4.4642424583435059e-01" nType="0">
          <Node pos="l" depth="2" NCoef="0" IVar="-1" Cut="0.0000000000000000e+00" cType="1" res="2.7699011843651533e-04" rms="4.6743160486221313e-01" purity="4.5739468932151794e-01" nType="-99"/>
          <Node pos="r" depth="2" NCoef="0" IVar="-1" Cut="0.0000000000000000e+00" cType="1" res="5.3596128709614277e-03" rms="4.6900922060012817e-01" purity="4.3750736117362976e-01" nType="-99"/>
        </Node>
      </Node>
    </BinaryTree>
    <BinaryTree type="DecisionTree" boostWeight="1.0000000000000000e+00" itree="833">
      <Node pos="s" depth="0" NCoef="0" IVar="5" Cut="9.5298553466796875e+02" cType="1" res="-1.0026967152953148e-02" rms="4.6798637509346008e-01" purity="4.9304366111755371e-01" nType="0">
        <Node pos="l" depth="1" NCoef="0" IVar="6" Cut="5.7644867897033691e+00" cType="1" res="-1.8032247200608253e-02" rms="4.6625411510467529e-01" purity="4.7047758102416992e-01" nType="0">
          <Node pos="l" depth="2" NCoef="0" IVar="-1" Cut="0.0000000000000000e+00" cType="1" res="-6.8879034370183945e-04" rms="4.6538782119750977e-01" purity="4.5652759075164795e-01" nType="-99"/>
          <Node pos="r" depth="2" NCoef="0" IVar="-1" Cut="0.0000000000000000e+00" cType="1" res="-9.1396104544401169e-03" rms="4.6774777770042419e-01" purity="6.4895242452621460e-01" nType="-99"/>
        </Node>
        <Node pos="r" depth="1" NCoef="0" IVar="2" Cut="7.4089753627777100e-01" cType="1" res="2.1048681810498238e-02" rms="4.7336980700492859e-01" purity="5.8064293861389160e-01" nType="0">
          <Node pos="l" depth="2" NCoef="0" IVar="-1" Cut="0.0000000000000000e+00" cType="1" res="2.6264204643666744e-03" rms="4.7355541586875916e-01" purity="5.6680017709732056e-01" nType="-99"/>
          <Node pos="r" depth="2" NCoef="0" IVar="-1" Cut="0.0000000000000000e+00" cType="1" res="-2.5517563335597515e-03" rms="4.6811088919639587e-01" purity="6.2086790800094604e-01" nType="-99"/>
        </Node>
      </Node>
    </BinaryTree>
    <BinaryTree type="DecisionTree" boostWeight="1.0000000000000000e+00" itree="834">
      <Node pos="s" depth="0" NCoef="0" IVar="1" Cut="4.9311843514442444e-01" cType="1" res="1.0300565045326948e-03" rms="4.6591213345527649e-01" purity="4.9852195382118225e-01" nType="0">
        <Node pos="l" depth="1" NCoef="0" IVar="3" Cut="1.1840153932571411e+00" cType="1" res="-3.3865075558423996e-02" rms="4.6354958415031433e-01" purity="5.4348969459533691e-01" nType="0">
          <Node pos="l" depth="2" NCoef="0" IVar="-1" Cut="0.0000000000000000e+00" cType="1" res="-7.2525952418800443e-05" rms="4.6199169754981995e-01" purity="6.0437709093093872e-01" nType="-99"/>
          <Node pos="r" depth="2" NCoef="0" IVar="-1" Cut="0.0000000000000000e+00" cType="1" res="-3.9177234284579754e-03" rms="4.6305662393569946e-01" purity="4.9219411611557007e-01" nType="-99"/>
        </Node>
        <Node pos="r" depth="1" NCoef="0" IVar="5" Cut="5.5594384765625000e+02" cType="1" res="1.0790376923978329e-02" rms="4.6610349416732788e-01" purity="4.8594427108764648e-01" nType="0">
          <Node pos="l" depth="2" NCoef="0" IVar="-1" Cut="0.0000000000000000e+00" cType="1" res="3.5492957103997469e-03" rms="4.5918926596641541e-01" purity="4.4085359573364258e-01" nType="-99"/>
          <Node pos="r" depth="2" NCoef="0" IVar="-1" Cut="0.0000000000000000e+00" cType="1" res="-2.6624475140124559e-04" rms="4.6756944060325623e-01" purity="5.0169700384140015e-01" nType="-99"/>
        </Node>
      </Node>
    </BinaryTree>
    <BinaryTree type="DecisionTree" boostWeight="1.0000000000000000e+00" itree="835">
      <Node pos="s" depth="0" NCoef="0" IVar="5" Cut="5.8023345947265625e+02" cType="1" res="6.6491618053987622e-04" rms="4.6316501498222351e-01" purity="5.0050413608551025e-01" nType="0">
        <Node pos="l" depth="1" NCoef="0" IVar="1" Cut="1.7973197698593140e+00" cType="1" res="2.0957266911864281e-02" rms="4.6759861707687378e-01" purity="4.4597336649894714e-01" nType="0">
          <Node pos="l" depth="2" NCoef="0" IVar="-1" Cut="0.0000000000000000e+00" cType="1" res="4.0881845052354038e-04" rms="4.6882104873657227e-01" purity="4.6779498457908630e-01" nType="-99"/>
          <Node pos="r" depth="2" NCoef="0" IVar="-1" Cut="0.0000000000000000e+00" cType="1" res="4.7901733778417110e-03" rms="4.6042731404304504e-01" purity="3.7444916367530823e-01" nType="-99"/>
        </Node>
        <Node pos="r" depth="1" NCoef="0" IVar="1" Cut="1.8356621265411377e+00" cType="1" res="-7.4907764792442322e-03" rms="4.6111959218978882e-01" purity="5.2242058515548706e-01" nType="0">
          <Node pos="l" depth="2" NCoef="0" IVar="-1" Cut="0.0000000000000000e+00" cType="1" res="2.7529864382813685e-05" rms="4.6287834644317627e-01" purity="5.5858290195465088e-01" nType="-99"/>
          <Node pos="r" depth="2" NCoef="0" IVar="-1" Cut="0.0000000000000000e+00" cType="1" res="-2.7919709682464600e-03" rms="4.5039382576942444e-01" purity="3.4520676732063293e-01" nType="-99"/>
        </Node>
      </Node>
    </BinaryTree>
    <BinaryTree type="DecisionTree" boostWeight="1.0000000000000000e+00" itree="836">
      <Node pos="s" depth="0" NCoef="0" IVar="0" Cut="5.8535028249025345e-02" cType="1" res="-6.4837434329092503e-03" rms="4.6509504318237305e-01" purity="4.9626535177230835e-01" nType="0">
        <Node pos="l" depth="1" NCoef="0" IVar="2" Cut="5.5288654565811157e-01" cType="1" res="2.1042408421635628e-02" rms="4.6540355682373047e-01" purity="4.6169534325599670e-01" nType="0">
          <Node pos="l" depth="2" NCoef="0" IVar="-1" Cut="0.0000000000000000e+00" cType="1" res="9.1173817054368556e-05" rms="4.6182644367218018e-01" purity="4.0421044826507568e-01" nType="-99"/>
          <Node pos="r" depth="2" NCoef="0" IVar="-1" Cut="0.0000000000000000e+00" cType="1" res="3.7385602481663227e-03" rms="4.6973356604576111e-01" purity="5.6560873985290527e-01" nType="-99"/>
        </Node>
        <Node pos="r" depth="1" NCoef="0" IVar="5" Cut="1.0369162597656250e+03" cType="1" res="-2.1618278697133064e-02" rms="4.6423044800758362e-01" purity="5.1527279615402222e-01" nType="0">
          <Node pos="l" depth="2" NCoef="0" IVar="-1" Cut="0.0000000000000000e+00" cType="1" res="-9.8249572329223156e-04" rms="4.6235668659210205e-01" purity="5.1362591981887817e-01" nType="-99"/>
          <Node pos="r" depth="2" NCoef="0" IVar="-1" Cut="0.0000000000000000e+00" cType="1" res="-4.9530095420777798e-03" rms="4.7655269503593445e-01" purity="5.2957791090011597e-01" nType="-99"/>
        </Node>
      </Node>
    </BinaryTree>
    <BinaryTree type="DecisionTree" boostWeight="1.0000000000000000e+00" itree="837">
      <Node pos="s" depth="0" NCoef="0" IVar="1" Cut="2.0589677989482880e-01" cType="1" res="3.5663968883454800e-03" rms="4.6362969279289246e-01" purity="5.0536382198333740e-01" nType="0">
        <Node pos="l" depth="1" NCoef="0" IVar="-1" Cut="0.0000000000000000e+00" cType="1" res="5.5508101359009743e-03" rms="4.2400160431861877e-01" purity="6.6871494054794312e-01" nType="-99"/>
        <Node pos="r" depth="1" NCoef="0" IVar="6" Cut="4.7003722190856934e+00" cType="1" res="-1.0996978962793946e-03" rms="4.6553453803062439e-01" purity="4.9538773298263550e-01" nType="0">
          <Node pos="l" depth="2" NCoef="0" IVar="-1" Cut="0.0000000000000000e+00" cType="1" res="5.6389212841168046e-04" rms="4.6815171837806702e-01" purity="4.4678080081939697e-01" nType="-99"/>
          <Node pos="r" depth="2" NCoef="0" IVar="-1" Cut="0.0000000000000000e+00" cType="1" res="-2.5313820224255323e-03" rms="4.5527014136314392e-01" purity="6.5423071384429932e-01" nType="-99"/>
        </Node>
      </Node>
    </BinaryTree>
    <BinaryTree type="DecisionTree" boostWeight="1.0000000000000000e+00" itree="838">
      <Node pos="s" depth="0" NCoef="0" IVar="2" Cut="6.1911189556121826e-01" cType="1" res="-3.4854360274039209e-04" rms="4.6075946092605591e-01" purity="5.0332385301589966e-01" nType="0">
        <Node pos="l" depth="1" NCoef="0" IVar="5" Cut="1.0551352539062500e+03" cType="1" res="-1.5869924798607826e-02" rms="4.5987784862518311e-01" purity="4.2409637570381165e-01" nType="0">
          <Node pos="l" depth="2" NCoef="0" IVar="-1" Cut="0.0000000000000000e+00" cType="1" res="-4.8166650230996311e-04" rms="4.5717361569404602e-01" purity="4.2245078086853027e-01" nType="-99"/>
          <Node pos="r" depth="2" NCoef="0" IVar="-1" Cut="0.0000000000000000e+00" cType="1" res="-4.2711966671049595e-03" rms="4.7432017326354980e-01" purity="4.3546035885810852e-01" nType="-99"/>
        </Node>
        <Node pos="r" depth="1" NCoef="0" IVar="4" Cut="8.9820165885612369e-04" cType="1" res="1.8163686618208885e-02" rms="4.6112608909606934e-01" purity="5.9781777858734131e-01" nType="0">
          <Node pos="l" depth="2" NCoef="0" IVar="-1" Cut="0.0000000000000000e+00" cType="1" res="-1.5200237976387143e-03" rms="4.5290318131446838e-01" purity="6.3745331764221191e-01" nType="-99"/>
          <Node pos="r" depth="2" NCoef="0" IVar="-1" Cut="0.0000000000000000e+00" cType="1" res="3.2219316344708204e-03" rms="4.6545448899269104e-01" purity="5.6440567970275879e-01" nType="-99"/>
        </Node>
      </Node>
    </BinaryTree>
    <BinaryTree type="DecisionTree" boostWeight="1.0000000000000000e+00" itree="839">
      <Node pos="s" depth="0" NCoef="0" IVar="4" Cut="8.1066100392490625e-04" cType="1" res="3.3499114215373993e-04" rms="4.6034082770347595e-01" purity="4.9839413166046143e-01" nType="0">
        <Node pos="l" depth="1" NCoef="0" IVar="5" Cut="7.4518402099609375e+02" cType="1" res="2.1208243444561958e-02" rms="4.5488229393959045e-01" purity="6.0410326719284058e-01" nType="0">
          <Node pos="l" depth="2" NCoef="0" IVar="-1" Cut="0.0000000000000000e+00" cType="1" res="-3.6460435239860089e-06" rms="4.5958498120307922e-01" purity="5.4820853471755981e-01" nType="-99"/>
          <Node pos="r" depth="2" NCoef="0" IVar="-1" Cut="0.0000000000000000e+00" cType="1" res="3.5819844342768192e-03" rms="4.4709917902946472e-01" purity="6.7749965190887451e-01" nType="-99"/>
        </Node>
        <Node pos="r" depth="1" NCoef="0" IVar="2" Cut="4.3947535753250122e-01" cType="1" res="-1.4012186788022518e-02" rms="4.6351075172424316e-01" purity="4.2573532462120056e-01" nType="0">
          <Node pos="l" depth="2" NCoef="0" IVar="-1" Cut="0.0000000000000000e+00" cType="1" res="-4.1397865861654282e-03" rms="4.3100920319557190e-01" purity="2.7181902527809143e-01" nType="-99"/>
          <Node pos="r" depth="2" NCoef="0" IVar="-1" Cut="0.0000000000000000e+00" cType="1" res="-3.2570690382272005e-04" rms="4.6789431571960449e-01" purity="4.5025283098220825e-01" nType="-99"/>
        </Node>
      </Node>
    </BinaryTree>
    <BinaryTree type="DecisionTree" boostWeight="1.0000000000000000e+00" itree="840">
      <Node pos="s" depth="0" NCoef="0" IVar="1" Cut="6.1553502082824707e-01" cType="1" res="-2.7444621082395315e-03" rms="4.5998564362525940e-01" purity="4.9858289957046509e-01" nType="0">
        <Node pos="l" depth="1" NCoef="0" IVar="6" Cut="2.5078327655792236e+00" cType="1" res="2.2824721410870552e-02" rms="4.5285835862159729e-01" purity="6.0272145271301270e-01" nType="0">
          <Node pos="l" depth="2" NCoef="0" IVar="-1" Cut="0.0000000000000000e+00" cType="1" res="-1.6948765842244029e-03" rms="4.6303674578666687e-01" purity="3.5218721628189087e-01" nType="-99"/>
          <Node pos="r" depth="2" NCoef="0" IVar="-1" Cut="0.0000000000000000e+00" cType="1" res="2.6421356014907360e-03" rms="4.4892442226409912e-01" purity="6.7257672548294067e-01" nType="-99"/>
        </Node>
        <Node pos="r" depth="1" NCoef="0" IVar="2" Cut="7.9242432117462158e-01" cType="1" res="-1.2851182371377945e-02" rms="4.6238285303115845e-01" purity="4.5742011070251465e-01" nType="0">
          <Node pos="l" depth="2" NCoef="0" IVar="-1" Cut="0.0000000000000000e+00" cType="1" res="-1.2431232025846839e-03" rms="4.6387508511543274e-01" purity="4.3513658642768860e-01" nType="-99"/>
          <Node pos="r" depth="2" NCoef="0" IVar="-1" Cut="0.0000000000000000e+00" cType="1" res="4.4255345128476620e-03" rms="4.4008943438529968e-01" purity="6.8546426296234131e-01" nType="-99"/>
        </Node>
      </Node>
    </BinaryTree>
    <BinaryTree type="DecisionTree" boostWeight="1.0000000000000000e+00" itree="841">
      <Node pos="s" depth="0" NCoef="0" IVar="0" Cut="2.8108960017561913e-02" cType="1" res="-3.7676454521715641e-03" rms="4.6656599640846252e-01" purity="5.0029599666595459e-01" nType="0">
        <Node pos="l" depth="1" NCoef="0" IVar="3" Cut="1.1651906967163086e+00" cType="1" res="4.0277816355228424e-02" rms="4.5477467775344849e-01" purity="4.4163841009140015e-01" nType="0">
          <Node pos="l" depth="2" NCoef="0" IVar="-1" Cut="0.0000000000000000e+00" cType="1" res="6.5574506297707558e-03" rms="4.5961350202560425e-01" purity="5.4970049858093262e-01" nType="-99"/>
          <Node pos="r" depth="2" NCoef="0" IVar="-1" Cut="0.0000000000000000e+00" cType="1" res="-7.0340785896405578e-04" rms="4.4421878457069397e-01" purity="3.5155737400054932e-01" nType="-99"/>
        </Node>
        <Node pos="r" depth="1" NCoef="0" IVar="6" Cut="4.0926437377929688e+00" cType="1" res="-9.6052605658769608e-03" rms="4.6779531240463257e-01" purity="5.0807023048400879e-01" nType="0">
          <Node pos="l" depth="2" NCoef="0" IVar="-1" Cut="0.0000000000000000e+00" cType="1" res="1.0399024904472753e-04" rms="4.6998229622840881e-01" purity="4.2283704876899719e-01" nType="-99"/>
          <Node pos="r" depth="2" NCoef="0" IVar="-1" Cut="0.0000000000000000e+00" cType="1" res="-1.9752520602196455e-03" rms="4.6373081207275391e-01" purity="6.4358156919479370e-01" nType="-99"/>
        </Node>
      </Node>
    </BinaryTree>
    <BinaryTree type="DecisionTree" boostWeight="1.0000000000000000e+00" itree="842">
      <Node pos="s" depth="0" NCoef="0" IVar="5" Cut="1.3040285644531250e+03" cType="1" res="9.4230677932500839e-03" rms="4.6263557672500610e-01" purity="5.0924384593963623e-01" nType="0">
        <Node pos="l" depth="1" NCoef="0" IVar="0" Cut="4.1242852807044983e-02" cType="1" res="5.3778495639562607e-03" rms="4.6263521909713745e-01" purity="5.0242739915847778e-01" nType="0">
          <Node pos="l" depth="2" NCoef="0" IVar="-1" Cut="0.0000000000000000e+00" cType="1" res="-1.5356239164248109e-03" rms="4.5725983381271362e-01" purity="3.8460063934326172e-01" nType="-99"/>
          <Node pos="r" depth="2" NCoef="0" IVar="-1" Cut="0.0000000000000000e+00" cType="1" res="8.7746791541576385e-04" rms="4.6373149752616882e-01" purity="5.3377068042755127e-01" nType="-99"/>
        </Node>
        <Node pos="r" depth="1" NCoef="0" IVar="-1" Cut="0.0000000000000000e+00" cType="1" res="5.1494431681931019e-03" rms="4.5709222555160522e-01" purity="6.2627220153808594e-01" nType="-99"/>
      </Node>
    </BinaryTree>
    <BinaryTree type="DecisionTree" boostWeight="1.0000000000000000e+00" itree="843">
      <Node pos="s" depth="0" NCoef="0" IVar="2" Cut="7.6892215013504028e-01" cType="1" res="3.3042381983250380e-03" rms="4.6044868230819702e-01" purity="5.0120818614959717e-01" nType="0">
        <Node pos="l" depth="1" NCoef="0" IVar="3" Cut="2.1279549598693848e+00" cType="1" res="-1.8351633334532380e-03" rms="4.6382644772529602e-01" purity="4.7211509943008423e-01" nType="0">
          <Node pos="l" depth="2" NCoef="0" IVar="-1" Cut="0.0000000000000000e+00" cType="1" res="1.8546967476140708e-04" rms="4.6843001246452332e-01" purity="4.9446377158164978e-01" nType="-99"/>
          <Node pos="r" depth="2" NCoef="0" IVar="-1" Cut="0.0000000000000000e+00" cType="1" res="-2.7872063219547272e-03" rms="4.1884487867355347e-01" purity="2.7553313970565796e-01" nType="-99"/>
        </Node>
        <Node pos="r" depth="1" NCoef="0" IVar="0" Cut="9.8278209567070007e-02" cType="1" res="3.2112762331962585e-02" rms="4.3992620706558228e-01" purity="6.6428714990615845e-01" nType="0">
          <Node pos="l" depth="2" NCoef="0" IVar="-1" Cut="0.0000000000000000e+00" cType="1" res="-6.9856079062446952e-04" rms="4.6889856457710266e-01" purity="5.8963853120803833e-01" nType="-99"/>
          <Node pos="r" depth="2" NCoef="0" IVar="-1" Cut="0.0000000000000000e+00" cType="1" res="4.3540210463106632e-03" rms="4.1864478588104248e-01" purity="7.1088826656341553e-01" nType="-99"/>
        </Node>
      </Node>
    </BinaryTree>
    <BinaryTree type="DecisionTree" boostWeight="1.0000000000000000e+00" itree="844">
      <Node pos="s" depth="0" NCoef="0" IVar="0" Cut="5.7391420006752014e-02" cType="1" res="-7.2640813887119293e-03" rms="4.6731984615325928e-01" purity="4.9701705574989319e-01" nType="0">
        <Node pos="l" depth="1" NCoef="0" IVar="5" Cut="1.1797359619140625e+03" cType="1" res="-3.5272948443889618e-02" rms="4.6412986516952515e-01" purity="4.1179862618446350e-01" nType="0">
          <Node pos="l" depth="2" NCoef="0" IVar="-1" Cut="0.0000000000000000e+00" cType="1" res="-2.9004998505115509e-03" rms="4.5811909437179565e-01" purity="3.8338440656661987e-01" nType="-99"/>
          <Node pos="r" depth="2" NCoef="0" IVar="-1" Cut="0.0000000000000000e+00" cType="1" res="1.9064195221289992e-03" rms="4.9079784750938416e-01" purity="5.6832575798034668e-01" nType="-99"/>
        </Node>
        <Node pos="r" depth="1" NCoef="0" IVar="1" Cut="1.7638490200042725e+00" cType="1" res="7.5440597720444202e-03" rms="4.6832114458084106e-01" purity="5.4207158088684082e-01" nType="0">
          <Node pos="l" depth="2" NCoef="0" IVar="-1" Cut="0.0000000000000000e+00" cType="1" res="-1.5825161244720221e-04" rms="4.6362942457199097e-01" purity="5.5829536914825439e-01" nType="-99"/>
          <Node pos="r" depth="2" NCoef="0" IVar="-1" Cut="0.0000000000000000e+00" cType="1" res="3.4865203779190779e-03" rms="4.8716044425964355e-01" purity="4.6534746885299683e-01" nType="-99"/>
        </Node>
      </Node>
    </BinaryTree>
    <BinaryTree type="DecisionTree" boostWeight="1.0000000000000000e+00" itree="845">
      <Node pos="s" depth="0" NCoef="0" IVar="0" Cut="1.0621087253093719e-01" cType="1" res="-1.6333959065377712e-03" rms="4.6601054072380066e-01" purity="4.9747473001480103e-01" nType="0">
        <Node pos="l" depth="1" NCoef="0" IVar="3" Cut="8.7133073806762695e-01" cType="1" res="1.1357717216014862e-02" rms="4.6367022395133972e-01" purity="4.7322994470596313e-01" nType="0">
          <Node pos="l" depth="2" NCoef="0" IVar="-1" Cut="0.0000000000000000e+00" cType="1" res="-1.7461602110415697e-03" rms="4.6403002738952637e-01" purity="4.7097676992416382e-01" nType="-99"/>
          <Node pos="r" depth="2" NCoef="0" IVar="-1" Cut="0.0000000000000000e+00" cType="1" res="1.6163781983777881e-03" rms="4.6275460720062256e-01" purity="4.7398859262466431e-01" nType="-99"/>
        </Node>
        <Node pos="r" depth="1" NCoef="0" IVar="6" Cut="2.9333777427673340e+00" cType="1" res="-2.4425037205219269e-02" rms="4.6922001242637634e-01" purity="5.4000985622406006e-01" nType="0">
          <Node pos="l" depth="2" NCoef="0" IVar="-1" Cut="0.0000000000000000e+00" cType="1" res="7.2125100996345282e-04" rms="4.8074391484260559e-01" purity="4.0224036574363708e-01" nType="-99"/>
          <Node pos="r" depth="2" NCoef="0" IVar="-1" Cut="0.0000000000000000e+00" cType="1" res="-2.9129127506166697e-03" rms="4.6244436502456665e-01" purity="6.0731530189514160e-01" nType="-99"/>
        </Node>
      </Node>
    </BinaryTree>
    <BinaryTree type="DecisionTree" boostWeight="1.0000000000000000e+00" itree="846">
      <Node pos="s" depth="0" NCoef="0" IVar="0" Cut="2.2057545185089111e-01" cType="1" res="-7.3948141653090715e-04" rms="4.6383097767829895e-01" purity="5.0121271610260010e-01" nType="0">
        <Node pos="l" depth="1" NCoef="0" IVar="0" Cut="5.9082869440317154e-02" cType="1" res="-5.6958482600748539e-03" rms="4.6472841501235962e-01" purity="4.8905390501022339e-01" nType="0">
          <Node pos="l" depth="2" NCoef="0" IVar="-1" Cut="0.0000000000000000e+00" cType="1" res="1.0683027794584632e-03" rms="4.6382141113281250e-01" purity="4.5940232276916504e-01" nType="-99"/>
          <Node pos="r" depth="2" NCoef="0" IVar="-1" Cut="0.0000000000000000e+00" cType="1" res="-1.2565619545057416e-03" rms="4.6474418044090271e-01" purity="5.0719338655471802e-01" nType="-99"/>
        </Node>
        <Node pos="r" depth="1" NCoef="0" IVar="-1" Cut="0.0000000000000000e+00" cType="1" res="5.9278798289597034e-03" rms="4.4074839353561401e-01" purity="7.0210087299346924e-01" nType="-99"/>
      </Node>
    </BinaryTree>
    <BinaryTree type="DecisionTree" boostWeight="1.0000000000000000e+00" itree="847">
      <Node pos="s" depth="0" NCoef="0" IVar="3" Cut="2.1879911422729492e+00" cType="1" res="2.7104117907583714e-04" rms="4.6373811364173889e-01" purity="5.0101768970489502e-01" nType="0">
        <Node pos="l" depth="1" NCoef="0" IVar="0" Cut="7.7956177294254303e-02" cType="1" res="-4.5512183569371700e-03" rms="4.6463209390640259e-01" purity="5.1049816608428955e-01" nType="0">
          <Node pos="l" depth="2" NCoef="0" IVar="-1" Cut="0.0000000000000000e+00" cType="1" res="-1.1194475227966905e-03" rms="4.6743172407150269e-01" purity="4.5143699645996094e-01" nType="-99"/>
          <Node pos="r" depth="2" NCoef="0" IVar="-1" Cut="0.0000000000000000e+00" cType="1" res="5.5824115406721830e-04" rms="4.6159484982490540e-01" purity="5.6627064943313599e-01" nType="-99"/>
        </Node>
        <Node pos="r" depth="1" NCoef="0" IVar="-1" Cut="0.0000000000000000e+00" cType="1" res="4.3116235174238682e-03" rms="4.4759851694107056e-01" purity="3.7981191277503967e-01" nType="-99"/>
      </Node>
    </BinaryTree>
    <BinaryTree type="DecisionTree" boostWeight="1.0000000000000000e+00" itree="848">
      <Node pos="s" depth="0" NCoef="0" IVar="5" Cut="1.2374152832031250e+03" cType="1" res="-1.2016763910651207e-02" rms="4.6598440408706665e-01" purity="4.8750424385070801e-01" nType="0">
        <Node pos="l" depth="1" NCoef="0" IVar="4" Cut="3.5212463699281216e-03" cType="1" res="-8.3371484652161598e-03" rms="4.6429565548896790e-01" purity="4.8580601811408997e-01" nType="0">
          <Node pos="l" depth="2" NCoef="0" IVar="-1" Cut="0.0000000000000000e+00" cType="1" res="-3.5012545413337648e-04" rms="4.6428152918815613e-01" purity="4.9629157781600952e-01" nType="-99"/>
          <Node pos="r" depth="2" NCoef="0" IVar="-1" Cut="0.0000000000000000e+00" cType="1" res="-2.8192091267555952e-03" rms="4.6253576874732971e-01" purity="3.3798226714134216e-01" nType="-99"/>
        </Node>
        <Node pos="r" depth="1" NCoef="0" IVar="-1" Cut="0.0000000000000000e+00" cType="1" res="-3.6680807825177908e-03" rms="4.8473355174064636e-01" purity="5.0939315557479858e-01" nType="-99"/>
      </Node>
    </BinaryTree>
    <BinaryTree type="DecisionTree" boostWeight="1.0000000000000000e+00" itree="849">
      <Node pos="s" depth="0" NCoef="0" IVar="0" Cut="2.3021800816059113e-01" cType="1" res="-4.4135060161352158e-03" rms="4.6747297048568726e-01" purity="4.9978521466255188e-01" nType="0">
        <Node pos="l" depth="1" NCoef="0" IVar="2" Cut="3.8261878490447998e-01" cType="1" res="-2.3751068511046469e-04" rms="4.6665719151496887e-01" purity="4.9836689233779907e-01" nType="0">
          <Node pos="l" depth="2" NCoef="0" IVar="-1" Cut="0.0000000000000000e+00" cType="1" res="-4.1514276526868343e-03" rms="4.2082273960113525e-01" purity="2.9863891005516052e-01" nType="-99"/>
          <Node pos="r" depth="2" NCoef="0" IVar="-1" Cut="0.0000000000000000e+00" cType="1" res="2.9522436670958996e-04" rms="4.6947520971298218e-01" purity="5.1298677921295166e-01" nType="-99"/>
        </Node>
        <Node pos="r" depth="1" NCoef="0" IVar="-1" Cut="0.0000000000000000e+00" cType="1" res="-5.6064925156533718e-03" rms="4.7578582167625427e-01" purity="5.2654612064361572e-01" nType="-99"/>
      </Node>
    </BinaryTree>
    <BinaryTree type="DecisionTree" boostWeight="1.0000000000000000e+00" itree="850">
      <Node pos="s" depth="0" NCoef="0" IVar="5" Cut="1.0126425170898438e+03" cType="1" res="-9.8084600176662207e-04" rms="4.6457111835479736e-01" purity="4.9601987004280090e-01" nType="0">
        <Node pos="l" depth="1" NCoef="0" IVar="6" Cut="5.4820604324340820e+00" cType="1" res="-9.5847658812999725e-03" rms="4.6466097235679626e-01" purity="4.7458314895629883e-01" nType="0">
          <Node pos="l" depth="2" NCoef="0" IVar="-1" Cut="0.0000000000000000e+00" cType="1" res="-2.4224046501331031e-04" rms="4.6524095535278320e-01" purity="4.5349407196044922e-01" nType="-99"/>
          <Node pos="r" depth="2" NCoef="0" IVar="-1" Cut="0.0000000000000000e+00" cType="1" res="-4.9648280255496502e-03" rms="4.5585748553276062e-01" purity="6.6963905096054077e-01" nType="-99"/>
        </Node>
        <Node pos="r" depth="1" NCoef="0" IVar="5" Cut="1.3427200927734375e+03" cType="1" res="4.5629646629095078e-02" rms="4.6130284667015076e-01" purity="6.1215001344680786e-01" nType="0">
          <Node pos="l" depth="2" NCoef="0" IVar="-1" Cut="0.0000000000000000e+00" cType="1" res="4.6604578383266926e-03" rms="4.5344135165214539e-01" purity="6.3138592243194580e-01" nType="-99"/>
          <Node pos="r" depth="2" NCoef="0" IVar="-1" Cut="0.0000000000000000e+00" cType="1" res="-2.2027606610208750e-04" rms="4.7373723983764648e-01" purity="5.7155877351760864e-01" nType="-99"/>
        </Node>
      </Node>
    </BinaryTree>
    <BinaryTree type="DecisionTree" boostWeight="1.0000000000000000e+00" itree="851">
      <Node pos="s" depth="0" NCoef="0" IVar="5" Cut="5.3305023193359375e+02" cType="1" res="3.9218412712216377e-03" rms="4.6253028512001038e-01" purity="5.0554239749908447e-01" nType="0">
        <Node pos="l" depth="1" NCoef="0" IVar="1" Cut="6.2658864259719849e-01" cType="1" res="-2.6063412427902222e-02" rms="4.5139917731285095e-01" purity="3.8115191459655762e-01" nType="0">
          <Node pos="l" depth="2" NCoef="0" IVar="-1" Cut="0.0000000000000000e+00" cType="1" res="-4.0034777484834194e-03" rms="4.4876155257225037e-01" purity="4.2941030859947205e-01" nType="-99"/>
          <Node pos="r" depth="2" NCoef="0" IVar="-1" Cut="0.0000000000000000e+00" cType="1" res="-7.0444546872749925e-04" rms="4.5150178670883179e-01" purity="3.6245402693748474e-01" nType="-99"/>
        </Node>
        <Node pos="r" depth="1" NCoef="0" IVar="2" Cut="4.6843561530113220e-01" cType="1" res="1.1180085130035877e-02" rms="4.6489402651786804e-01" purity="5.3565245866775513e-01" nType="0">
          <Node pos="l" depth="2" NCoef="0" IVar="-1" Cut="0.0000000000000000e+00" cType="1" res="2.7747815474867821e-03" rms="4.6503877639770508e-01" purity="4.6599081158638000e-01" nType="-99"/>
          <Node pos="r" depth="2" NCoef="0" IVar="-1" Cut="0.0000000000000000e+00" cType="1" res="2.3997394600883126e-04" rms="4.6453770995140076e-01" purity="5.5188906192779541e-01" nType="-99"/>
        </Node>
      </Node>
    </BinaryTree>
    <BinaryTree type="DecisionTree" boostWeight="1.0000000000000000e+00" itree="852">
      <Node pos="s" depth="0" NCoef="0" IVar="0" Cut="9.1025806963443756e-02" cType="1" res="-1.8154518911615014e-03" rms="4.6926912665367126e-01" purity="4.9893870949745178e-01" nType="0">
        <Node pos="l" depth="1" NCoef="0" IVar="5" Cut="7.0187084960937500e+02" cType="1" res="2.3683633655309677e-02" rms="4.6725440025329590e-01" purity="4.8234274983406067e-01" nType="0">
          <Node pos="l" depth="2" NCoef="0" IVar="-1" Cut="0.0000000000000000e+00" cType="1" res="-4.1234554373659194e-04" rms="4.6213829517364502e-01" purity="3.8656243681907654e-01" nType="-99"/>
          <Node pos="r" depth="2" NCoef="0" IVar="-1" Cut="0.0000000000000000e+00" cType="1" res="2.9118021484464407e-03" rms="4.6966364979743958e-01" purity="5.5002170801162720e-01" nType="-99"/>
        </Node>
        <Node pos="r" depth="1" NCoef="0" IVar="3" Cut="1.5297920703887939e+00" cType="1" res="-3.3510744571685791e-02" rms="4.6983617544174194e-01" purity="5.1956743001937866e-01" nType="0">
          <Node pos="l" depth="2" NCoef="0" IVar="-1" Cut="0.0000000000000000e+00" cType="1" res="-8.8408624287694693e-04" rms="4.6740010380744934e-01" purity="5.6850588321685791e-01" nType="-99"/>
          <Node pos="r" depth="2" NCoef="0" IVar="-1" Cut="0.0000000000000000e+00" cType="1" res="-4.3253721669316292e-03" rms="4.7201827168464661e-01" purity="4.2640855908393860e-01" nType="-99"/>
        </Node>
      </Node>
    </BinaryTree>
    <BinaryTree type="DecisionTree" boostWeight="1.0000000000000000e+00" itree="853">
      <Node pos="s" depth="0" NCoef="0" IVar="2" Cut="4.4278317689895630e-01" cType="1" res="-1.3903179205954075e-04" rms="4.6003881096839905e-01" purity="5.0232374668121338e-01" nType="0">
        <Node pos="l" depth="1" NCoef="0" IVar="3" Cut="1.3556867837905884e+00" cType="1" res="-3.4434650093317032e-02" rms="4.4763934612274170e-01" purity="3.6388772726058960e-01" nType="0">
          <Node pos="l" depth="2" NCoef="0" IVar="-1" Cut="0.0000000000000000e+00" cType="1" res="2.2393742983695120e-04" rms="4.7098904848098755e-01" purity="4.5788842439651489e-01" nType="-99"/>
          <Node pos="r" depth="2" NCoef="0" IVar="-1" Cut="0.0000000000000000e+00" cType="1" res="-4.1775312274694443e-03" rms="4.2353656888008118e-01" purity="2.8218433260917664e-01" nType="-99"/>
        </Node>
        <Node pos="r" depth="1" NCoef="0" IVar="2" Cut="7.3371165990829468e-01" cType="1" res="5.9459474869072437e-03" rms="4.6193820238113403e-01" purity="5.2688604593276978e-01" nType="0">
          <Node pos="l" depth="2" NCoef="0" IVar="-1" Cut="0.0000000000000000e+00" cType="1" res="1.0675652883946896e-03" rms="4.6332308650016785e-01" purity="5.0143235921859741e-01" nType="-99"/>
          <Node pos="r" depth="2" NCoef="0" IVar="-1" Cut="0.0000000000000000e+00" cType="1" res="-1.6286489553749561e-03" rms="4.5671191811561584e-01" purity="5.9799444675445557e-01" nType="-99"/>
        </Node>
      </Node>
    </BinaryTree>
    <BinaryTree type="DecisionTree" boostWeight="1.0000000000000000e+00" itree="854">
      <Node pos="s" depth="0" NCoef="0" IVar="4" Cut="2.3480379022657871e-03" cType="1" res="2.0835483446717262e-03" rms="4.6510359644889832e-01" purity="5.0120085477828979e-01" nType="0">
        <Node pos="l" depth="1" NCoef="0" IVar="1" Cut="1.0583610534667969e+00" cType="1" res="-4.4065951369702816e-03" rms="4.6609330177307129e-01" purity="5.2275216579437256e-01" nType="0">
          <Node pos="l" depth="2" NCoef="0" IVar="-1" Cut="0.0000000000000000e+00" cType="1" res="-1.1750010307878256e-03" rms="4.6551701426506042e-01" purity="5.6325411796569824e-01" nType="-99"/>
          <Node pos="r" depth="2" NCoef="0" IVar="-1" Cut="0.0000000000000000e+00" cType="1" res="7.7542063081637025e-04" rms="4.6628689765930176e-01" purity="4.7260409593582153e-01" nType="-99"/>
        </Node>
        <Node pos="r" depth="1" NCoef="0" IVar="2" Cut="5.0947922468185425e-01" cType="1" res="2.2495292127132416e-02" rms="4.6138238906860352e-01" purity="4.3342131376266479e-01" nType="0">
          <Node pos="l" depth="2" NCoef="0" IVar="-1" Cut="0.0000000000000000e+00" cType="1" res="-1.3753923121839762e-03" rms="4.3426138162612915e-01" purity="2.9970633983612061e-01" nType="-99"/>
          <Node pos="r" depth="2" NCoef="0" IVar="-1" Cut="0.0000000000000000e+00" cType="1" res="2.5302856229245663e-03" rms="4.7118523716926575e-01" purity="4.9035844206809998e-01" nType="-99"/>
        </Node>
      </Node>
    </BinaryTree>
    <BinaryTree type="DecisionTree" boostWeight="1.0000000000000000e+00" itree="855">
      <Node pos="s" depth="0" NCoef="0" IVar="6" Cut="5.8490877151489258e+00" cType="1" res="-3.7312530912458897e-03" rms="4.6497407555580139e-01" purity="4.9780932068824768e-01" nType="0">
        <Node pos="l" depth="1" NCoef="0" IVar="2" Cut="3.9364129304885864e-01" cType="1" res="-8.0451285466551781e-03" rms="4.6987137198448181e-01" purity="4.7616064548492432e-01" nType="0">
          <Node pos="l" depth="2" NCoef="0" IVar="-1" Cut="0.0000000000000000e+00" cType="1" res="3.0629881657660007e-03" rms="4.6693238615989685e-01" purity="4.2079082131385803e-01" nType="-99"/>
          <Node pos="r" depth="2" NCoef="0" IVar="-1" Cut="0.0000000000000000e+00" cType="1" res="-7.8133982606232166e-04" rms="4.6982368826866150e-01" purity="4.8052203655242920e-01" nType="-99"/>
        </Node>
        <Node pos="r" depth="1" NCoef="0" IVar="-1" Cut="0.0000000000000000e+00" cType="1" res="5.7778740301728249e-03" rms="3.7723192572593689e-01" purity="8.2571828365325928e-01" nType="-99"/>
      </Node>
    </BinaryTree>
    <BinaryTree type="DecisionTree" boostWeight="1.0000000000000000e+00" itree="856">
      <Node pos="s" depth="0" NCoef="0" IVar="6" Cut="4.3913798332214355e+00" cType="1" res="1.2355928309261799e-02" rms="4.5791223645210266e-01" purity="5.1400512456893921e-01" nType="0">
        <Node pos="l" depth="1" NCoef="0" IVar="1" Cut="4.3767386674880981e-01" cType="1" res="-1.4962909044697881e-03" rms="4.6962213516235352e-01" purity="4.2751285433769226e-01" nType="0">
          <Node pos="l" depth="2" NCoef="0" IVar="-1" Cut="0.0000000000000000e+00" cType="1" res="-2.6258234865963459e-03" rms="4.8484742641448975e-01" purity="4.7108888626098633e-01" nType="-99"/>
          <Node pos="r" depth="2" NCoef="0" IVar="-1" Cut="0.0000000000000000e+00" cType="1" res="4.7703357995487750e-04" rms="4.6576854586601257e-01" purity="4.1814330220222473e-01" nType="-99"/>
        </Node>
        <Node pos="r" depth="1" NCoef="0" IVar="5" Cut="8.3245867919921875e+02" cType="1" res="4.5244812965393066e-02" rms="4.2703470587730408e-01" purity="7.1936106681823730e-01" nType="0">
          <Node pos="l" depth="2" NCoef="0" IVar="-1" Cut="0.0000000000000000e+00" cType="1" res="4.6024927869439125e-03" rms="4.2368921637535095e-01" purity="7.2393947839736938e-01" nType="-99"/>
          <Node pos="r" depth="2" NCoef="0" IVar="-1" Cut="0.0000000000000000e+00" cType="1" res="1.1154692620038986e-03" rms="4.3121650815010071e-01" purity="7.1121925115585327e-01" nType="-99"/>
        </Node>
      </Node>
    </BinaryTree>
    <BinaryTree type="DecisionTree" boostWeight="1.0000000000000000e+00" itree="857">
      <Node pos="s" depth="0" NCoef="0" IVar="2" Cut="7.5292259454727173e-01" cType="1" res="-6.8395417183637619e-03" rms="4.6402457356452942e-01" purity="4.9882549047470093e-01" nType="0">
        <Node pos="l" depth="1" NCoef="0" IVar="0" Cut="3.9819192141294479e-02" cType="1" res="-1.5491412952542305e-02" rms="4.6795517206192017e-01" purity="4.6171066164970398e-01" nType="0">
          <Node pos="l" depth="2" NCoef="0" IVar="-1" Cut="0.0000000000000000e+00" cType="1" res="1.2840250274166465e-03" rms="4.6448406577110291e-01" purity="4.3582120537757874e-01" nType="-99"/>
          <Node pos="r" depth="2" NCoef="0" IVar="-1" Cut="0.0000000000000000e+00" cType="1" res="-1.6622506082057953e-03" rms="4.6847724914550781e-01" purity="4.6989205479621887e-01" nType="-99"/>
        </Node>
        <Node pos="r" depth="1" NCoef="0" IVar="4" Cut="1.6237486852332950e-03" cType="1" res="3.3662449568510056e-02" rms="4.4292140007019043e-01" purity="6.7257130146026611e-01" nType="0">
          <Node pos="l" depth="2" NCoef="0" IVar="-1" Cut="0.0000000000000000e+00" cType="1" res="9.2206732369959354e-04" rms="4.3479704856872559e-01" purity="6.9897055625915527e-01" nType="-99"/>
          <Node pos="r" depth="2" NCoef="0" IVar="-1" Cut="0.0000000000000000e+00" cType="1" res="4.8463223502039909e-03" rms="4.5508453249931335e-01" purity="6.2226730585098267e-01" nType="-99"/>
        </Node>
      </Node>
    </BinaryTree>
    <BinaryTree type="DecisionTree" boostWeight="1.0000000000000000e+00" itree="858">
      <Node pos="s" depth="0" NCoef="0" IVar="0" Cut="2.0694276690483093e-01" cType="1" res="6.1001568101346493e-03" rms="4.6394249796867371e-01" purity="5.0532376766204834e-01" nType="0">
        <Node pos="l" depth="1" NCoef="0" IVar="3" Cut="1.7655112743377686e+00" cType="1" res="1.8349940655753016e-03" rms="4.6619394421577454e-01" purity="4.9150061607360840e-01" nType="0">
          <Node pos="l" depth="2" NCoef="0" IVar="-1" Cut="0.0000000000000000e+00" cType="1" res="-3.8512420724146068e-04" rms="4.6813634037971497e-01" purity="5.1387733221054077e-01" nType="-99"/>
          <Node pos="r" depth="2" NCoef="0" IVar="-1" Cut="0.0000000000000000e+00" cType="1" res="1.8259338103234768e-03" rms="4.5857572555541992e-01" purity="4.1587302088737488e-01" nType="-99"/>
        </Node>
        <Node pos="r" depth="1" NCoef="0" IVar="-1" Cut="0.0000000000000000e+00" cType="1" res="4.1759656742215157e-03" rms="4.3230828642845154e-01" purity="6.7328417301177979e-01" nType="-99"/>
      </Node>
    </BinaryTree>
    <BinaryTree type="DecisionTree" boostWeight="1.0000000000000000e+00" itree="859">
      <Node pos="s" depth="0" NCoef="0" IVar="1" Cut="1.7620226144790649e+00" cType="1" res="3.0195654835551977e-03" rms="4.6513238549232483e-01" purity="5.0821274518966675e-01" nType="0">
        <Node pos="l" depth="1" NCoef="0" IVar="1" Cut="6.1094444990158081e-01" cType="1" res="-5.0009032711386681e-03" rms="4.6706190705299377e-01" purity="5.3201508522033691e-01" nType="0">
          <Node pos="l" depth="2" NCoef="0" IVar="-1" Cut="0.0000000000000000e+00" cType="1" res="1.5748129226267338e-03" rms="4.5946705341339111e-01" purity="6.0290080308914185e-01" nType="-99"/>
          <Node pos="r" depth="2" NCoef="0" IVar="-1" Cut="0.0000000000000000e+00" cType="1" res="-1.3295302633196115e-03" rms="4.7051575779914856e-01" purity="4.9205118417739868e-01" nType="-99"/>
        </Node>
        <Node pos="r" depth="1" NCoef="0" IVar="5" Cut="5.6419042968750000e+02" cType="1" res="3.5101376473903656e-02" rms="4.5592409372329712e-01" purity="4.1300347447395325e-01" nType="0">
          <Node pos="l" depth="2" NCoef="0" IVar="-1" Cut="0.0000000000000000e+00" cType="1" res="-6.6899752710014582e-04" rms="4.2424723505973816e-01" purity="3.1199777126312256e-01" nType="-99"/>
          <Node pos="r" depth="2" NCoef="0" IVar="-1" Cut="0.0000000000000000e+00" cType="1" res="3.6614341661334038e-03" rms="4.6948024630546570e-01" purity="4.6406757831573486e-01" nType="-99"/>
        </Node>
      </Node>
    </BinaryTree>
    <BinaryTree type="DecisionTree" boostWeight="1.0000000000000000e+00" itree="860">
      <Node pos="s" depth="0" NCoef="0" IVar="1" Cut="7.3718428611755371e-01" cType="1" res="4.8459647223353386e-03" rms="4.6404710412025452e-01" purity="5.0459456443786621e-01" nType="0">
        <Node pos="l" depth="1" NCoef="0" IVar="4" Cut="1.6275229863822460e-03" cType="1" res="-1.7488434910774231e-02" rms="4.6526211500167847e-01" purity="5.5729281902313232e-01" nType="0">
          <Node pos="l" depth="2" NCoef="0" IVar="-1" Cut="0.0000000000000000e+00" cType="1" res="2.9767182422801852e-04" rms="4.5766738057136536e-01" purity="6.2739050388336182e-01" nType="-99"/>
          <Node pos="r" depth="2" NCoef="0" IVar="-1" Cut="0.0000000000000000e+00" cType="1" res="-3.1695361249148846e-03" rms="4.7568765282630920e-01" purity="4.3728786706924438e-01" nType="-99"/>
        </Node>
        <Node pos="r" depth="1" NCoef="0" IVar="5" Cut="8.4655493164062500e+02" cType="1" res="1.7735213041305542e-02" rms="4.6285426616668701e-01" purity="4.7418224811553955e-01" nType="0">
          <Node pos="l" depth="2" NCoef="0" IVar="-1" Cut="0.0000000000000000e+00" cType="1" res="2.7580210007727146e-04" rms="4.6327742934226990e-01" purity="4.4203609228134155e-01" nType="-99"/>
          <Node pos="r" depth="2" NCoef="0" IVar="-1" Cut="0.0000000000000000e+00" cType="1" res="3.4796905238181353e-03" rms="4.5982861518859863e-01" purity="5.5964505672454834e-01" nType="-99"/>
        </Node>
      </Node>
    </BinaryTree>
    <BinaryTree type="DecisionTree" boostWeight="1.0000000000000000e+00" itree="861">
      <Node pos="s" depth="0" NCoef="0" IVar="2" Cut="4.1206803917884827e-01" cType="1" res="-1.2528073042631149e-02" rms="4.6370589733123779e-01" purity="4.8835438489913940e-01" nType="0">
        <Node pos="l" depth="1" NCoef="0" IVar="-1" Cut="0.0000000000000000e+00" cType="1" res="-3.6947543267160654e-03" rms="4.3704277276992798e-01" purity="3.2520443201065063e-01" nType="-99"/>
        <Node pos="r" depth="1" NCoef="0" IVar="6" Cut="4.3412961959838867e+00" cType="1" res="-7.4730142951011658e-03" rms="4.6622404456138611e-01" purity="5.0603717565536499e-01" nType="0">
          <Node pos="l" depth="2" NCoef="0" IVar="-1" Cut="0.0000000000000000e+00" cType="1" res="-1.2641596840694547e-03" rms="4.7576332092285156e-01" purity="4.1501483321189880e-01" nType="-99"/>
          <Node pos="r" depth="2" NCoef="0" IVar="-1" Cut="0.0000000000000000e+00" cType="1" res="1.6695229569450021e-03" rms="4.4304195046424866e-01" purity="7.0658755302429199e-01" nType="-99"/>
        </Node>
      </Node>
    </BinaryTree>
    <BinaryTree type="DecisionTree" boostWeight="1.0000000000000000e+00" itree="862">
      <Node pos="s" depth="0" NCoef="0" IVar="1" Cut="2.5155457854270935e-01" cType="1" res="-4.3830708600580692e-03" rms="4.6447038650512695e-01" purity="4.9614191055297852e-01" nType="0">
        <Node pos="l" depth="1" NCoef="0" IVar="-1" Cut="0.0000000000000000e+00" cType="1" res="-4.6320520341396332e-03" rms="4.6110418438911438e-01" purity="5.1241385936737061e-01" nType="-99"/>
        <Node pos="r" depth="1" NCoef="0" IVar="2" Cut="7.0000398159027100e-01" cType="1" res="2.4805821012705564e-03" rms="4.6426141262054443e-01" purity="4.9448835849761963e-01" nType="0">
          <Node pos="l" depth="2" NCoef="0" IVar="-1" Cut="0.0000000000000000e+00" cType="1" res="-3.9320930955000222e-04" rms="4.6647047996520996e-01" purity="4.4876679778099060e-01" nType="-99"/>
          <Node pos="r" depth="2" NCoef="0" IVar="-1" Cut="0.0000000000000000e+00" cType="1" res="1.8733084434643388e-03" rms="4.5710802078247070e-01" purity="6.2282663583755493e-01" nType="-99"/>
        </Node>
      </Node>
    </BinaryTree>
    <BinaryTree type="DecisionTree" boostWeight="1.0000000000000000e+00" itree="863">
      <Node pos="s" depth="0" NCoef="0" IVar="2" Cut="7.9549998044967651e-01" cType="1" res="2.4397870583925396e-04" rms="4.6346139907836914e-01" purity="5.0061613321304321e-01" nType="0">
        <Node pos="l" depth="1" NCoef="0" IVar="5" Cut="8.3980334472656250e+02" cType="1" res="-7.3554757982492447e-03" rms="4.6593683958053589e-01" purity="4.7429540753364563e-01" nType="0">
          <Node pos="l" depth="2" NCoef="0" IVar="-1" Cut="0.0000000000000000e+00" cType="1" res="-1.1149649508297443e-03" rms="4.6292176842689514e-01" purity="4.4345751404762268e-01" nType="-99"/>
          <Node pos="r" depth="2" NCoef="0" IVar="-1" Cut="0.0000000000000000e+00" cType="1" res="1.0495806345716119e-03" rms="4.7201851010322571e-01" purity="5.4619169235229492e-01" nType="-99"/>
        </Node>
        <Node pos="r" depth="1" NCoef="0" IVar="4" Cut="9.2916155699640512e-04" cType="1" res="6.0059189796447754e-02" rms="4.3892544507980347e-01" purity="7.0778661966323853e-01" nType="0">
          <Node pos="l" depth="2" NCoef="0" IVar="-1" Cut="0.0000000000000000e+00" cType="1" res="5.6849961401894689e-04" rms="4.2221978306770325e-01" purity="7.2075700759887695e-01" nType="-99"/>
          <Node pos="r" depth="2" NCoef="0" IVar="-1" Cut="0.0000000000000000e+00" cType="1" res="7.4455062858760357e-03" rms="4.4800311326980591e-01" purity="6.9620263576507568e-01" nType="-99"/>
        </Node>
      </Node>
    </BinaryTree>
    <BinaryTree type="DecisionTree" boostWeight="1.0000000000000000e+00" itree="864">
      <Node pos="s" depth="0" NCoef="0" IVar="0" Cut="1.6671265661716461e-01" cType="1" res="4.6769645996391773e-03" rms="4.6481499075889587e-01" purity="5.0695770978927612e-01" nType="0">
        <Node pos="l" depth="1" NCoef="0" IVar="4" Cut="1.9432189874351025e-03" cType="1" res="-1.7148948973044753e-03" rms="4.6739724278450012e-01" purity="4.8487481474876404e-01" nType="0">
          <Node pos="l" depth="2" NCoef="0" IVar="-1" Cut="0.0000000000000000e+00" cType="1" res="5.8129295939579606e-04" rms="4.6617209911346436e-01" purity="5.3452688455581665e-01" nType="-99"/>
          <Node pos="r" depth="2" NCoef="0" IVar="-1" Cut="0.0000000000000000e+00" cType="1" res="-1.4312640996649861e-03" rms="4.6919262409210205e-01" purity="3.8018611073493958e-01" nType="-99"/>
        </Node>
        <Node pos="r" depth="1" NCoef="0" IVar="2" Cut="7.0179665088653564e-01" cType="1" res="4.3394926935434341e-02" rms="4.4690597057342529e-01" purity="6.4072239398956299e-01" nType="0">
          <Node pos="l" depth="2" NCoef="0" IVar="-1" Cut="0.0000000000000000e+00" cType="1" res="7.4912575073540211e-03" rms="4.3523156642913818e-01" purity="6.5211945772171021e-01" nType="-99"/>
          <Node pos="r" depth="2" NCoef="0" IVar="-1" Cut="0.0000000000000000e+00" cType="1" res="8.6174288298934698e-05" rms="4.4947677850723267e-01" purity="6.3321030139923096e-01" nType="-99"/>
        </Node>
      </Node>
    </BinaryTree>
    <BinaryTree type="DecisionTree" boostWeight="1.0000000000000000e+00" itree="865">
      <Node pos="s" depth="0" NCoef="0" IVar="4" Cut="3.0212174169719219e-03" cType="1" res="1.4304827200248837e-03" rms="4.6126791834831238e-01" purity="5.0582081079483032e-01" nType="0">
        <Node pos="l" depth="1" NCoef="0" IVar="3" Cut="2.0152647495269775e+00" cType="1" res="8.7999282404780388e-03" rms="4.6168842911720276e-01" purity="5.2848178148269653e-01" nType="0">
          <Node pos="l" depth="2" NCoef="0" IVar="-1" Cut="0.0000000000000000e+00" cType="1" res="7.3741022788453847e-05" rms="4.6240395307540894e-01" purity="5.4075485467910767e-01" nType="-99"/>
          <Node pos="r" depth="2" NCoef="0" IVar="-1" Cut="0.0000000000000000e+00" cType="1" res="4.7514517791569233e-03" rms="4.5138767361640930e-01" purity="4.3125426769256592e-01" nType="-99"/>
        </Node>
        <Node pos="r" depth="1" NCoef="0" IVar="5" Cut="6.7682745361328125e+02" cType="1" res="-4.1324619203805923e-02" rms="4.5647925138473511e-01" purity="3.7434944510459900e-01" nType="0">
          <Node pos="l" depth="2" NCoef="0" IVar="-1" Cut="0.0000000000000000e+00" cType="1" res="5.3881364874541759e-04" rms="4.5074352622032166e-01" purity="3.5789331793785095e-01" nType="-99"/>
          <Node pos="r" depth="2" NCoef="0" IVar="-1" Cut="0.0000000000000000e+00" cType="1" res="-4.8342375084757805e-03" rms="4.5694106817245483e-01" purity="3.8909620046615601e-01" nType="-99"/>
        </Node>
      </Node>
    </BinaryTree>
    <BinaryTree type="DecisionTree" boostWeight="1.0000000000000000e+00" itree="866">
      <Node pos="s" depth="0" NCoef="0" IVar="3" Cut="2.1932010650634766e+00" cType="1" res="-5.4685198701918125e-03" rms="4.6915844082832336e-01" purity="5.0050252676010132e-01" nType="0">
        <Node pos="l" depth="1" NCoef="0" IVar="4" Cut="1.6086169052869081e-03" cType="1" res="-1.1563786305487156e-02" rms="4.7017312049865723e-01" purity="5.0995105504989624e-01" nType="0">
          <Node pos="l" depth="2" NCoef="0" IVar="-1" Cut="0.0000000000000000e+00" cType="1" res="-1.8479895079508424e-03" rms="4.6964457631111145e-01" purity="5.4636240005493164e-01" nType="-99"/>
          <Node pos="r" depth="2" NCoef="0" IVar="-1" Cut="0.0000000000000000e+00" cType="1" res="9.1672147391363978e-04" rms="4.6983087062835693e-01" purity="4.4995835423469543e-01" nType="-99"/>
        </Node>
        <Node pos="r" depth="1" NCoef="0" IVar="-1" Cut="0.0000000000000000e+00" cType="1" res="5.1273847930133343e-03" rms="4.4854196906089783e-01" purity="3.7879696488380432e-01" nType="-99"/>
      </Node>
    </BinaryTree>
    <BinaryTree type="DecisionTree" boostWeight="1.0000000000000000e+00" itree="867">
      <Node pos="s" depth="0" NCoef="0" IVar="0" Cut="4.9907833337783813e-02" cType="1" res="-1.1312339920550585e-03" rms="4.6518269181251526e-01" purity="4.9986708164215088e-01" nType="0">
        <Node pos="l" depth="1" NCoef="0" IVar="1" Cut="1.1431232690811157e+00" cType="1" res="3.3096902072429657e-02" rms="4.7154366970062256e-01" purity="4.7073888778686523e-01" nType="0">
          <Node pos="l" depth="2" NCoef="0" IVar="-1" Cut="0.0000000000000000e+00" cType="1" res="-4.7842744970694184e-04" rms="4.7001901268959045e-01" purity="4.8903977870941162e-01" nType="-99"/>
          <Node pos="r" depth="2" NCoef="0" IVar="-1" Cut="0.0000000000000000e+00" cType="1" res="5.1766689866781235e-03" rms="4.6900093555450439e-01" purity="4.5014497637748718e-01" nType="-99"/>
        </Node>
        <Node pos="r" depth="1" NCoef="0" IVar="5" Cut="1.0618616943359375e+03" cType="1" res="-1.4640022069215775e-02" rms="4.6195065975189209e-01" purity="5.1136308908462524e-01" nType="0">
          <Node pos="l" depth="2" NCoef="0" IVar="-1" Cut="0.0000000000000000e+00" cType="1" res="-4.6436613774858415e-04" rms="4.5885697007179260e-01" purity="5.0948530435562134e-01" nType="-99"/>
          <Node pos="r" depth="2" NCoef="0" IVar="-1" Cut="0.0000000000000000e+00" cType="1" res="-5.0089834257960320e-03" rms="4.8285037279129028e-01" purity="5.2737814188003540e-01" nType="-99"/>
        </Node>
      </Node>
    </BinaryTree>
    <BinaryTree type="DecisionTree" boostWeight="1.0000000000000000e+00" itree="868">
      <Node pos="s" depth="0" NCoef="0" IVar="4" Cut="3.2662609010003507e-04" cType="1" res="-4.5121633447706699e-03" rms="4.6359857916831970e-01" purity="4.9613508582115173e-01" nType="0">
        <Node pos="l" depth="1" NCoef="0" IVar="1" Cut="4.7575411200523376e-01" cType="1" res="-3.2167337834835052e-02" rms="4.5111438632011414e-01" purity="5.9152883291244507e-01" nType="0">
          <Node pos="l" depth="2" NCoef="0" IVar="-1" Cut="0.0000000000000000e+00" cType="1" res="-6.7379674874246120e-03" rms="4.4160929322242737e-01" purity="6.0643947124481201e-01" nType="-99"/>
          <Node pos="r" depth="2" NCoef="0" IVar="-1" Cut="0.0000000000000000e+00" cType="1" res="-1.1122766882181168e-03" rms="4.5264685153961182e-01" purity="5.8707368373870850e-01" nType="-99"/>
        </Node>
        <Node pos="r" depth="1" NCoef="0" IVar="4" Cut="1.8526584608480334e-03" cType="1" res="4.4149099849164486e-03" rms="4.6720793843269348e-01" purity="4.6534201502799988e-01" nType="0">
          <Node pos="l" depth="2" NCoef="0" IVar="-1" Cut="0.0000000000000000e+00" cType="1" res="1.4572261134162545e-03" rms="4.7107186913490295e-01" purity="5.2200347185134888e-01" nType="-99"/>
          <Node pos="r" depth="2" NCoef="0" IVar="-1" Cut="0.0000000000000000e+00" cType="1" res="-1.0195041541010141e-03" rms="4.6175071597099304e-01" purity="3.9932134747505188e-01" nType="-99"/>
        </Node>
      </Node>
    </BinaryTree>
    <BinaryTree type="DecisionTree" boostWeight="1.0000000000000000e+00" itree="869">
      <Node pos="s" depth="0" NCoef="0" IVar="6" Cut="5.2721824645996094e+00" cType="1" res="6.7973481491208076e-03" rms="4.6254947781562805e-01" purity="5.0740629434585571e-01" nType="0">
        <Node pos="l" depth="1" NCoef="0" IVar="6" Cut="4.6578969955444336e+00" cType="1" res="1.2957708677276969e-03" rms="4.7035172581672668e-01" purity="4.6824371814727783e-01" nType="0">
          <Node pos="l" depth="2" NCoef="0" IVar="-1" Cut="0.0000000000000000e+00" cType="1" res="4.3401442235335708e-04" rms="4.7064593434333801e-01" purity="4.4731843471527100e-01" nType="-99"/>
          <Node pos="r" depth="2" NCoef="0" IVar="-1" Cut="0.0000000000000000e+00" cType="1" res="-2.5393585674464703e-03" rms="4.6656137704849243e-01" purity="6.0901445150375366e-01" nType="-99"/>
        </Node>
        <Node pos="r" depth="1" NCoef="0" IVar="1" Cut="1.0269082784652710e+00" cType="1" res="4.4227894395589828e-02" rms="4.0351396799087524e-01" purity="7.7385300397872925e-01" nType="0">
          <Node pos="l" depth="2" NCoef="0" IVar="-1" Cut="0.0000000000000000e+00" cType="1" res="1.3551096199080348e-03" rms="4.0522703528404236e-01" purity="7.8266215324401855e-01" nType="-99"/>
          <Node pos="r" depth="2" NCoef="0" IVar="-1" Cut="0.0000000000000000e+00" cType="1" res="6.6761253401637077e-03" rms="3.9743763208389282e-01" purity="7.6145273447036743e-01" nType="-99"/>
        </Node>
      </Node>
    </BinaryTree>
    <BinaryTree type="DecisionTree" boostWeight="1.0000000000000000e+00" itree="870">
      <Node pos="s" depth="0" NCoef="0" IVar="5" Cut="1.1718084716796875e+03" cType="1" res="7.5834412127733231e-03" rms="4.6087557077407837e-01" purity="5.0826185941696167e-01" nType="0">
        <Node pos="l" depth="1" NCoef="0" IVar="1" Cut="2.8568327426910400e-01" cType="1" res="1.3327167835086584e-03" rms="4.6012845635414124e-01" purity="4.9782502651214600e-01" nType="0">
          <Node pos="l" depth="2" NCoef="0" IVar="-1" Cut="0.0000000000000000e+00" cType="1" res="3.9153052493929863e-03" rms="4.4901934266090393e-01" purity="6.3920265436172485e-01" nType="-99"/>
          <Node pos="r" depth="2" NCoef="0" IVar="-1" Cut="0.0000000000000000e+00" cType="1" res="-2.9445282416418195e-04" rms="4.6091315150260925e-01" purity="4.8265027999877930e-01" nType="-99"/>
        </Node>
        <Node pos="r" depth="1" NCoef="0" IVar="-1" Cut="0.0000000000000000e+00" cType="1" res="4.8503740690648556e-03" rms="4.6362853050231934e-01" purity="6.1540609598159790e-01" nType="-99"/>
      </Node>
    </BinaryTree>
    <BinaryTree type="DecisionTree" boostWeight="1.0000000000000000e+00" itree="871">
      <Node pos="s" depth="0" NCoef="0" IVar="2" Cut="5.9685397148132324e-01" cType="1" res="-3.8510090671479702e-03" rms="4.6784052252769470e-01" purity="5.0178205966949463e-01" nType="0">
        <Node pos="l" depth="1" NCoef="0" IVar="4" Cut="1.7547566676512361e-03" cType="1" res="1.4880997128784657e-02" rms="4.6784332394599915e-01" purity="4.4999980926513672e-01" nType="0">
          <Node pos="l" depth="2" NCoef="0" IVar="-1" Cut="0.0000000000000000e+00" cType="1" res="2.6788536615640623e-06" rms="4.7066965699195862e-01" purity="4.7635897994041443e-01" nType="-99"/>
          <Node pos="r" depth="2" NCoef="0" IVar="-1" Cut="0.0000000000000000e+00" cType="1" res="2.5221991818398237e-03" rms="4.6190312504768372e-01" purity="4.0516829490661621e-01" nType="-99"/>
        </Node>
        <Node pos="r" depth="1" NCoef="0" IVar="4" Cut="3.9516421384178102e-04" cType="1" res="-2.1341266110539436e-02" rms="4.6716031432151794e-01" purity="5.5013161897659302e-01" nType="0">
          <Node pos="l" depth="2" NCoef="0" IVar="-1" Cut="0.0000000000000000e+00" cType="1" res="2.3167857434600592e-03" rms="4.2992037534713745e-01" purity="7.1220529079437256e-01" nType="-99"/>
          <Node pos="r" depth="2" NCoef="0" IVar="-1" Cut="0.0000000000000000e+00" cType="1" res="-2.4996793363243341e-03" rms="4.7962024807929993e-01" purity="4.8611477017402649e-01" nType="-99"/>
        </Node>
      </Node>
    </BinaryTree>
    <BinaryTree type="DecisionTree" boostWeight="1.0000000000000000e+00" itree="872">
      <Node pos="s" depth="0" NCoef="0" IVar="1" Cut="3.8059568405151367e-01" cType="1" res="2.4094586260616779e-03" rms="4.6782308816909790e-01" purity="5.0513839721679688e-01" nType="0">
        <Node pos="l" depth="1" NCoef="0" IVar="1" Cut="2.0288346707820892e-01" cType="1" res="-5.0401635468006134e-02" rms="4.7650671005249023e-01" purity="5.2951139211654663e-01" nType="0">
          <Node pos="l" depth="2" NCoef="0" IVar="-1" Cut="0.0000000000000000e+00" cType="1" res="7.1582495002076030e-04" rms="4.6820652484893799e-01" purity="6.0607200860977173e-01" nType="-99"/>
          <Node pos="r" depth="2" NCoef="0" IVar="-1" Cut="0.0000000000000000e+00" cType="1" res="-5.2684624679386616e-03" rms="4.7769010066986084e-01" purity="4.8814043402671814e-01" nType="-99"/>
        </Node>
        <Node pos="r" depth="1" NCoef="0" IVar="0" Cut="4.4269602745771408e-02" cType="1" res="1.2200587429106236e-02" rms="4.6553751826286316e-01" purity="5.0061964988708496e-01" nType="0">
          <Node pos="l" depth="2" NCoef="0" IVar="-1" Cut="0.0000000000000000e+00" cType="1" res="-1.5948192449286580e-03" rms="4.6316137909889221e-01" purity="3.9443686604499817e-01" nType="-99"/>
          <Node pos="r" depth="2" NCoef="0" IVar="-1" Cut="0.0000000000000000e+00" cType="1" res="1.6834972193464637e-03" rms="4.6561703085899353e-01" purity="5.3831142187118530e-01" nType="-99"/>
        </Node>
      </Node>
    </BinaryTree>
    <BinaryTree type="DecisionTree" boostWeight="1.0000000000000000e+00" itree="873">
      <Node pos="s" depth="0" NCoef="0" IVar="2" Cut="3.9704835414886475e-01" cType="1" res="3.7636540364474058e-03" rms="4.6684354543685913e-01" purity="5.0648635625839233e-01" nType="0">
        <Node pos="l" depth="1" NCoef="0" IVar="-1" Cut="0.0000000000000000e+00" cType="1" res="-2.9492834582924843e-03" rms="4.4183838367462158e-01" purity="3.3741739392280579e-01" nType="-99"/>
        <Node pos="r" depth="1" NCoef="0" IVar="1" Cut="2.6149437427520752e+00" cType="1" res="7.8913150355219841e-03" rms="4.6856650710105896e-01" purity="5.2017158269882202e-01" nType="0">
          <Node pos="l" depth="2" NCoef="0" IVar="-1" Cut="0.0000000000000000e+00" cType="1" res="2.0811505964957178e-04" rms="4.6882221102714539e-01" purity="5.2849411964416504e-01" nType="-99"/>
          <Node pos="r" depth="2" NCoef="0" IVar="-1" Cut="0.0000000000000000e+00" cType="1" res="5.4648509249091148e-03" rms="4.5863941311836243e-01" purity="3.9177560806274414e-01" nType="-99"/>
        </Node>
      </Node>
    </BinaryTree>
    <BinaryTree type="DecisionTree" boostWeight="1.0000000000000000e+00" itree="874">
      <Node pos="s" depth="0" NCoef="0" IVar="2" Cut="5.4538929462432861e-01" cType="1" res="2.3182082921266556e-02" rms="4.6055376529693604e-01" purity="5.2465665340423584e-01" nType="0">
        <Node pos="l" depth="1" NCoef="0" IVar="1" Cut="2.0449841022491455e+00" cType="1" res="3.6622627521865070e-04" rms="4.5782670378684998e-01" purity="4.1903465986251831e-01" nType="0">
          <Node pos="l" depth="2" NCoef="0" IVar="-1" Cut="0.0000000000000000e+00" cType="1" res="8.4030593279749155e-04" rms="4.6659779548645020e-01" purity="4.6522605419158936e-01" nType="-99"/>
          <Node pos="r" depth="2" NCoef="0" IVar="-1" Cut="0.0000000000000000e+00" cType="1" res="-2.8419014997780323e-03" rms="4.2456221580505371e-01" purity="2.6573786139488220e-01" nType="-99"/>
        </Node>
        <Node pos="r" depth="1" NCoef="0" IVar="3" Cut="1.8299127817153931e+00" cType="1" res="3.6410488188266754e-02" rms="4.6161136031150818e-01" purity="5.8589512109756470e-01" nType="0">
          <Node pos="l" depth="2" NCoef="0" IVar="-1" Cut="0.0000000000000000e+00" cType="1" res="1.9179570954293013e-03" rms="4.5866787433624268e-01" purity="5.9589195251464844e-01" nType="-99"/>
          <Node pos="r" depth="2" NCoef="0" IVar="-1" Cut="0.0000000000000000e+00" cType="1" res="5.2652345038950443e-03" rms="4.7482389211654663e-01" purity="5.3160429000854492e-01" nType="-99"/>
        </Node>
      </Node>
    </BinaryTree>
    <BinaryTree type="DecisionTree" boostWeight="1.0000000000000000e+00" itree="875">
      <Node pos="s" depth="0" NCoef="0" IVar="2" Cut="8.0271160602569580e-01" cType="1" res="5.7197624118998647e-04" rms="4.6722534298896790e-01" purity="5.0657653808593750e-01" nType="0">
        <Node pos="l" depth="1" NCoef="0" IVar="0" Cut="5.8721188455820084e-02" cType="1" res="6.9367764517664909e-03" rms="4.6863695979118347e-01" purity="4.9501806497573853e-01" nType="0">
          <Node pos="l" depth="2" NCoef="0" IVar="-1" Cut="0.0000000000000000e+00" cType="1" res="1.8746289424598217e-03" rms="4.7016966342926025e-01" purity="4.6507385373115540e-01" nType="-99"/>
          <Node pos="r" depth="2" NCoef="0" IVar="-1" Cut="0.0000000000000000e+00" cType="1" res="-4.4942868407815695e-04" rms="4.6714740991592407e-01" purity="5.1340043544769287e-01" nType="-99"/>
        </Node>
        <Node pos="r" depth="1" NCoef="0" IVar="6" Cut="3.8621766567230225e+00" cType="1" res="-5.1006536930799484e-02" rms="4.5233315229415894e-01" purity="6.0024267435073853e-01" nType="0">
          <Node pos="l" depth="2" NCoef="0" IVar="-1" Cut="0.0000000000000000e+00" cType="1" res="-5.9423563070595264e-03" rms="4.8562657833099365e-01" purity="4.4198304414749146e-01" nType="-99"/>
          <Node pos="r" depth="2" NCoef="0" IVar="-1" Cut="0.0000000000000000e+00" cType="1" res="4.2656139703467488e-04" rms="4.0377357602119446e-01" purity="7.8162682056427002e-01" nType="-99"/>
        </Node>
      </Node>
    </BinaryTree>
    <BinaryTree type="DecisionTree" boostWeight="1.0000000000000000e+00" itree="876">
      <Node pos="s" depth="0" NCoef="0" IVar="2" Cut="8.0398017168045044e-01" cType="1" res="2.4804463610053062e-03" rms="4.6084985136985779e-01" purity="5.0484466552734375e-01" nType="0">
        <Node pos="l" depth="1" NCoef="0" IVar="4" Cut="2.4321766977664083e-04" cType="1" res="-4.1673257946968079e-03" rms="4.6302491426467896e-01" purity="4.8181825876235962e-01" nType="0">
          <Node pos="l" depth="2" NCoef="0" IVar="-1" Cut="0.0000000000000000e+00" cType="1" res="2.6123449206352234e-03" rms="4.4686731696128845e-01" purity="6.6272300481796265e-01" nType="-99"/>
          <Node pos="r" depth="2" NCoef="0" IVar="-1" Cut="0.0000000000000000e+00" cType="1" res="-8.2591379759833217e-04" rms="4.6634724736213684e-01" purity="4.3827608227729797e-01" nType="-99"/>
        </Node>
        <Node pos="r" depth="1" NCoef="0" IVar="-1" Cut="0.0000000000000000e+00" cType="1" res="4.8468871973454952e-03" rms="4.3481051921844482e-01" purity="7.2219508886337280e-01" nType="-99"/>
      </Node>
    </BinaryTree>
    <BinaryTree type="DecisionTree" boostWeight="1.0000000000000000e+00" itree="877">
      <Node pos="s" depth="0" NCoef="0" IVar="3" Cut="6.7712658643722534e-01" cType="1" res="-8.5178818553686142e-03" rms="4.6151548624038696e-01" purity="4.9457788467407227e-01" nType="0">
        <Node pos="l" depth="1" NCoef="0" IVar="4" Cut="9.3292357632890344e-04" cType="1" res="2.3084992542862892e-02" rms="4.7297954559326172e-01" purity="5.4802465438842773e-01" nType="0">
          <Node pos="l" depth="2" NCoef="0" IVar="-1" Cut="0.0000000000000000e+00" cType="1" res="-3.1195268966257572e-03" rms="4.7038000822067261e-01" purity="5.6415152549743652e-01" nType="-99"/>
          <Node pos="r" depth="2" NCoef="0" IVar="-1" Cut="0.0000000000000000e+00" cType="1" res="4.8678275197744370e-03" rms="4.6811142563819885e-01" purity="5.3543460369110107e-01" nType="-99"/>
        </Node>
        <Node pos="r" depth="1" NCoef="0" IVar="3" Cut="1.3780161142349243e+00" cType="1" res="-1.2676609680056572e-02" rms="4.5982393622398376e-01" purity="4.8754465579986572e-01" nType="0">
          <Node pos="l" depth="2" NCoef="0" IVar="-1" Cut="0.0000000000000000e+00" cType="1" res="-1.5661808429285884e-03" rms="4.5809513330459595e-01" purity="5.1558876037597656e-01" nType="-99"/>
          <Node pos="r" depth="2" NCoef="0" IVar="-1" Cut="0.0000000000000000e+00" cType="1" res="-4.4277618144406006e-05" rms="4.6132150292396545e-01" purity="4.5820650458335876e-01" nType="-99"/>
        </Node>
      </Node>
    </BinaryTree>
    <BinaryTree type="DecisionTree" boostWeight="1.0000000000000000e+00" itree="878">
      <Node pos="s" depth="0" NCoef="0" IVar="5" Cut="1.3316892089843750e+03" cType="1" res="2.6710999663919210e-03" rms="4.6055662631988525e-01" purity="5.0350177288055420e-01" nType="0">
        <Node pos="l" depth="1" NCoef="0" IVar="1" Cut="2.3435554504394531e+00" cType="1" res="-1.4089194592088461e-03" rms="4.5977807044982910e-01" purity="4.9570134282112122e-01" nType="0">
          <Node pos="l" depth="2" NCoef="0" IVar="-1" Cut="0.0000000000000000e+00" cType="1" res="2.5625491980463266e-04" rms="4.6396011114120483e-01" purity="5.2104663848876953e-01" nType="-99"/>
          <Node pos="r" depth="2" NCoef="0" IVar="-1" Cut="0.0000000000000000e+00" cType="1" res="-2.9280616436153650e-03" rms="4.2076274752616882e-01" purity="2.8498631715774536e-01" nType="-99"/>
        </Node>
        <Node pos="r" depth="1" NCoef="0" IVar="-1" Cut="0.0000000000000000e+00" cType="1" res="4.9716457724571228e-03" rms="4.6827021241188049e-01" purity="6.4098930358886719e-01" nType="-99"/>
      </Node>
    </BinaryTree>
    <BinaryTree type="DecisionTree" boostWeight="1.0000000000000000e+00" itree="879">
      <Node pos="s" depth="0" NCoef="0" IVar="3" Cut="1.0628457069396973e+00" cType="1" res="1.1043321574106812e-03" rms="4.6458560228347778e-01" purity="5.0387221574783325e-01" nType="0">
        <Node pos="l" depth="1" NCoef="0" IVar="2" Cut="4.6568080782890320e-01" cType="1" res="-2.7069367468357086e-02" rms="4.6583431959152222e-01" purity="5.1181632280349731e-01" nType="0">
          <Node pos="l" depth="2" NCoef="0" IVar="-1" Cut="0.0000000000000000e+00" cType="1" res="-5.0817416049540043e-03" rms="4.5708012580871582e-01" purity="3.6954575777053833e-01" nType="-99"/>
          <Node pos="r" depth="2" NCoef="0" IVar="-1" Cut="0.0000000000000000e+00" cType="1" res="-9.5277855871245265e-04" rms="4.6676337718963623e-01" purity="5.4232692718505859e-01" nType="-99"/>
        </Node>
        <Node pos="r" depth="1" NCoef="0" IVar="0" Cut="1.8094973266124725e-01" cType="1" res="1.7357302829623222e-02" rms="4.6308475732803345e-01" purity="4.9928933382034302e-01" nType="0">
          <Node pos="l" depth="2" NCoef="0" IVar="-1" Cut="0.0000000000000000e+00" cType="1" res="1.7799917841330171e-03" rms="4.6268790960311890e-01" purity="4.9365249276161194e-01" nType="-99"/>
          <Node pos="r" depth="2" NCoef="0" IVar="-1" Cut="0.0000000000000000e+00" cType="1" res="-3.6667475942522287e-03" rms="4.5939075946807861e-01" purity="5.3939181566238403e-01" nType="-99"/>
        </Node>
      </Node>
    </BinaryTree>
    <BinaryTree type="DecisionTree" boostWeight="1.0000000000000000e+00" itree="880">
      <Node pos="s" depth="0" NCoef="0" IVar="6" Cut="2.7048537731170654e+00" cType="1" res="-1.6148323193192482e-02" rms="4.6733745932579041e-01" purity="4.8673719167709351e-01" nType="0">
        <Node pos="l" depth="1" NCoef="0" IVar="0" Cut="1.1017972975969315e-01" cType="1" res="1.6335416585206985e-02" rms="4.5509794354438782e-01" purity="3.4597977995872498e-01" nType="0">
          <Node pos="l" depth="2" NCoef="0" IVar="-1" Cut="0.0000000000000000e+00" cType="1" res="-7.1558420313522220e-04" rms="4.4050037860870361e-01" purity="2.9494175314903259e-01" nType="-99"/>
          <Node pos="r" depth="2" NCoef="0" IVar="-1" Cut="0.0000000000000000e+00" cType="1" res="4.6324892900884151e-03" rms="4.7894731163978577e-01" purity="4.5111304521560669e-01" nType="-99"/>
        </Node>
        <Node pos="r" depth="1" NCoef="0" IVar="2" Cut="7.9358547925949097e-01" cType="1" res="-2.7313610538840294e-02" rms="4.7095391154289246e-01" purity="5.3511822223663330e-01" nType="0">
          <Node pos="l" depth="2" NCoef="0" IVar="-1" Cut="0.0000000000000000e+00" cType="1" res="-1.3010078109800816e-03" rms="4.7135806083679199e-01" purity="5.2100664377212524e-01" nType="-99"/>
          <Node pos="r" depth="2" NCoef="0" IVar="-1" Cut="0.0000000000000000e+00" cType="1" res="-5.7160579599440098e-03" rms="4.6522429585456848e-01" purity="6.4013224840164185e-01" nType="-99"/>
        </Node>
      </Node>
    </BinaryTree>
    <BinaryTree type="DecisionTree" boostWeight="1.0000000000000000e+00" itree="881">
      <Node pos="s" depth="0" NCoef="0" IVar="5" Cut="5.2600958251953125e+02" cType="1" res="-5.6255562230944633e-04" rms="4.6565067768096924e-01" purity="5.0223046541213989e-01" nType="0">
        <Node pos="l" depth="1" NCoef="0" IVar="4" Cut="6.4672232838347554e-04" cType="1" res="2.9135640710592270e-02" rms="4.6298176050186157e-01" purity="4.2847895622253418e-01" nType="0">
          <Node pos="l" depth="2" NCoef="0" IVar="-1" Cut="0.0000000000000000e+00" cType="1" res="-1.6404509078711271e-03" rms="4.6504169702529907e-01" purity="4.6513599157333374e-01" nType="-99"/>
          <Node pos="r" depth="2" NCoef="0" IVar="-1" Cut="0.0000000000000000e+00" cType="1" res="4.0122610516846180e-03" rms="4.5894858241081238e-01" purity="4.0765178203582764e-01" nType="-99"/>
        </Node>
        <Node pos="r" depth="1" NCoef="0" IVar="3" Cut="6.2959998846054077e-01" cType="1" res="-7.2507020086050034e-03" rms="4.6598857641220093e-01" purity="5.1883953809738159e-01" nType="0">
          <Node pos="l" depth="2" NCoef="0" IVar="-1" Cut="0.0000000000000000e+00" cType="1" res="2.5038472376763821e-03" rms="4.7946220636367798e-01" purity="5.6395113468170166e-01" nType="-99"/>
          <Node pos="r" depth="2" NCoef="0" IVar="-1" Cut="0.0000000000000000e+00" cType="1" res="-7.7473378041759133e-04" rms="4.6429789066314697e-01" purity="5.1412022113800049e-01" nType="-99"/>
        </Node>
      </Node>
    </BinaryTree>
    <BinaryTree type="DecisionTree" boostWeight="1.0000000000000000e+00" itree="882">
      <Node pos="s" depth="0" NCoef="0" IVar="3" Cut="7.2547000646591187e-01" cType="1" res="-8.1684226170182228e-03" rms="4.6249315142631531e-01" purity="4.9481418728828430e-01" nType="0">
        <Node pos="l" depth="1" NCoef="0" IVar="0" Cut="8.3526216447353363e-02" cType="1" res="3.3529464155435562e-02" rms="4.5188581943511963e-01" purity="5.6090676784515381e-01" nType="0">
          <Node pos="l" depth="2" NCoef="0" IVar="-1" Cut="0.0000000000000000e+00" cType="1" res="-2.5200966047123075e-04" rms="4.6772244572639465e-01" purity="4.8606279492378235e-01" nType="-99"/>
          <Node pos="r" depth="2" NCoef="0" IVar="-1" Cut="0.0000000000000000e+00" cType="1" res="6.6547850146889687e-03" rms="4.1921734809875488e-01" purity="6.7793768644332886e-01" nType="-99"/>
        </Node>
        <Node pos="r" depth="1" NCoef="0" IVar="0" Cut="5.4130025207996368e-02" cType="1" res="-1.5407517552375793e-02" rms="4.6392834186553955e-01" purity="4.8333996534347534e-01" nType="0">
          <Node pos="l" depth="2" NCoef="0" IVar="-1" Cut="0.0000000000000000e+00" cType="1" res="8.3123543299734592e-04" rms="4.6564221382141113e-01" purity="4.4277691841125488e-01" nType="-99"/>
          <Node pos="r" depth="2" NCoef="0" IVar="-1" Cut="0.0000000000000000e+00" cType="1" res="-1.8025033641606569e-03" rms="4.6258026361465454e-01" purity="5.0149083137512207e-01" nType="-99"/>
        </Node>
      </Node>
    </BinaryTree>
    <BinaryTree type="DecisionTree" boostWeight="1.0000000000000000e+00" itree="883">
      <Node pos="s" depth="0" NCoef="0" IVar="2" Cut="4.2397093772888184e-01" cType="1" res="1.0083310771733522e-03" rms="4.6905323863029480e-01" purity="5.0666582584381104e-01" nType="0">
        <Node pos="l" depth="1" NCoef="0" IVar="2" Cut="3.8118311762809753e-01" cType="1" res="6.1993163079023361e-02" rms="4.7144636511802673e-01" purity="4.4988211989402771e-01" nType="0">
          <Node pos="l" depth="2" NCoef="0" IVar="-1" Cut="0.0000000000000000e+00" cType="1" res="3.3339350484311581e-03" rms="4.7966709733009338e-01" purity="4.3278962373733521e-01" nType="-99"/>
          <Node pos="r" depth="2" NCoef="0" IVar="-1" Cut="0.0000000000000000e+00" cType="1" res="4.7094305045902729e-03" rms="4.6281364560127258e-01" purity="4.6710368990898132e-01" nType="-99"/>
        </Node>
        <Node pos="r" depth="1" NCoef="0" IVar="6" Cut="2.1204478740692139e+00" cType="1" res="-6.0652852989733219e-03" rms="4.6826112270355225e-01" purity="5.1325219869613647e-01" nType="0">
          <Node pos="l" depth="2" NCoef="0" IVar="-1" Cut="0.0000000000000000e+00" cType="1" res="3.3361958339810371e-03" rms="4.6315693855285645e-01" purity="3.6062985658645630e-01" nType="-99"/>
          <Node pos="r" depth="2" NCoef="0" IVar="-1" Cut="0.0000000000000000e+00" cType="1" res="-9.0027949772775173e-04" rms="4.6844780445098877e-01" purity="5.3536987304687500e-01" nType="-99"/>
        </Node>
      </Node>
    </BinaryTree>
    <BinaryTree type="DecisionTree" boostWeight="1.0000000000000000e+00" itree="884">
      <Node pos="s" depth="0" NCoef="0" IVar="0" Cut="2.2574478760361671e-02" cType="1" res="2.9092852491885424e-03" rms="4.6281147003173828e-01" purity="5.0709939002990723e-01" nType="0">
        <Node pos="l" depth="1" NCoef="0" IVar="-1" Cut="0.0000000000000000e+00" cType="1" res="3.1022587791085243e-03" rms="4.5406737923622131e-01" purity="4.4829660654067993e-01" nType="-99"/>
        <Node pos="r" depth="1" NCoef="0" IVar="4" Cut="2.9957722872495651e-03" cType="1" res="-1.3115527108311653e-03" rms="4.6336996555328369e-01" purity="5.1245796680450439e-01" nType="0">
          <Node pos="l" depth="2" NCoef="0" IVar="-1" Cut="0.0000000000000000e+00" cType="1" res="2.3925726418383420e-04" rms="4.6395874023437500e-01" purity="5.3297895193099976e-01" nType="-99"/>
          <Node pos="r" depth="2" NCoef="0" IVar="-1" Cut="0.0000000000000000e+00" cType="1" res="-1.9006977090612054e-03" rms="4.5841121673583984e-01" purity="3.8306292891502380e-01" nType="-99"/>
        </Node>
      </Node>
    </BinaryTree>
    <BinaryTree type="DecisionTree" boostWeight="1.0000000000000000e+00" itree="885">
      <Node pos="s" depth="0" NCoef="0" IVar="6" Cut="2.6815423965454102e+00" cType="1" res="4.1213827207684517e-03" rms="4.6018481254577637e-01" purity="5.0804859399795532e-01" nType="0">
        <Node pos="l" depth="1" NCoef="0" IVar="5" Cut="7.2635400390625000e+02" cType="1" res="-2.8168443590402603e-02" rms="4.4706416130065918e-01" purity="3.0450934171676636e-01" nType="0">
          <Node pos="l" depth="2" NCoef="0" IVar="-1" Cut="0.0000000000000000e+00" cType="1" res="-3.2504154369235039e-03" rms="4.2376416921615601e-01" purity="2.4828512966632843e-01" nType="-99"/>
          <Node pos="r" depth="2" NCoef="0" IVar="-1" Cut="0.0000000000000000e+00" cType="1" res="5.1176105625927448e-04" rms="4.7871008515357971e-01" purity="3.9178875088691711e-01" nType="-99"/>
        </Node>
        <Node pos="r" depth="1" NCoef="0" IVar="1" Cut="1.8423281908035278e+00" cType="1" res="1.5642931684851646e-02" rms="4.6423345804214478e-01" purity="5.8067476749420166e-01" nType="0">
          <Node pos="l" depth="2" NCoef="0" IVar="-1" Cut="0.0000000000000000e+00" cType="1" res="1.6271806089207530e-03" rms="4.6067574620246887e-01" purity="6.2043368816375732e-01" nType="-99"/>
          <Node pos="r" depth="2" NCoef="0" IVar="-1" Cut="0.0000000000000000e+00" cType="1" res="-1.4877868816256523e-03" rms="4.7818022966384888e-01" purity="3.9804565906524658e-01" nType="-99"/>
        </Node>
      </Node>
    </BinaryTree>
    <BinaryTree type="DecisionTree" boostWeight="1.0000000000000000e+00" itree="886">
      <Node pos="s" depth="0" NCoef="0" IVar="2" Cut="5.4720842838287354e-01" cType="1" res="-6.1439676210284233e-03" rms="4.6808648109436035e-01" purity="4.9687796831130981e-01" nType="0">
        <Node pos="l" depth="1" NCoef="0" IVar="3" Cut="1.5149641036987305e+00" cType="1" res="9.2948824167251587e-03" rms="4.6687480807304382e-01" purity="4.3397769331932068e-01" nType="0">
          <Node pos="l" depth="2" NCoef="0" IVar="-1" Cut="0.0000000000000000e+00" cType="1" res="-5.1526073366403580e-04" rms="4.7032219171524048e-01" purity="4.6070000529289246e-01" nType="-99"/>
          <Node pos="r" depth="2" NCoef="0" IVar="-1" Cut="0.0000000000000000e+00" cType="1" res="2.2340351715683937e-03" rms="4.6081140637397766e-01" purity="3.9626809954643250e-01" nType="-99"/>
        </Node>
        <Node pos="r" depth="1" NCoef="0" IVar="2" Cut="6.4521306753158569e-01" cType="1" res="-1.5086859464645386e-02" rms="4.6855428814888000e-01" purity="5.3331273794174194e-01" nType="0">
          <Node pos="l" depth="2" NCoef="0" IVar="-1" Cut="0.0000000000000000e+00" cType="1" res="-2.2854248527437449e-03" rms="4.7496989369392395e-01" purity="4.6125906705856323e-01" nType="-99"/>
          <Node pos="r" depth="2" NCoef="0" IVar="-1" Cut="0.0000000000000000e+00" cType="1" res="-1.1874045594595373e-04" rms="4.6417462825775146e-01" purity="5.7629305124282837e-01" nType="-99"/>
        </Node>
      </Node>
    </BinaryTree>
    <BinaryTree type="DecisionTree" boostWeight="1.0000000000000000e+00" itree="887">
      <Node pos="s" depth="0" NCoef="0" IVar="0" Cut="1.5973770618438721e-01" cType="1" res="-1.4856614870950580e-03" rms="4.6337142586708069e-01" purity="4.9638468027114868e-01" nType="0">
        <Node pos="l" depth="1" NCoef="0" IVar="3" Cut="2.0710148811340332e+00" cType="1" res="-7.7496389858424664e-03" rms="4.6553775668144226e-01" purity="4.7170960903167725e-01" nType="0">
          <Node pos="l" depth="2" NCoef="0" IVar="-1" Cut="0.0000000000000000e+00" cType="1" res="-1.2916811101604253e-04" rms="4.6864083409309387e-01" purity="4.9564430117607117e-01" nType="-99"/>
          <Node pos="r" depth="2" NCoef="0" IVar="-1" Cut="0.0000000000000000e+00" cType="1" res="-3.2844513189047575e-03" rms="4.3761307001113892e-01" purity="2.8244483470916748e-01" nType="-99"/>
        </Node>
        <Node pos="r" depth="1" NCoef="0" IVar="4" Cut="7.0291612064465880e-04" cType="1" res="3.0614597722887993e-02" rms="4.5074298977851868e-01" purity="6.2283402681350708e-01" nType="0">
          <Node pos="l" depth="2" NCoef="0" IVar="-1" Cut="0.0000000000000000e+00" cType="1" res="-5.3980079246684909e-04" rms="4.4078156352043152e-01" purity="6.7769223451614380e-01" nType="-99"/>
          <Node pos="r" depth="2" NCoef="0" IVar="-1" Cut="0.0000000000000000e+00" cType="1" res="3.8633728399872780e-03" rms="4.5623350143432617e-01" purity="5.8007085323333740e-01" nType="-99"/>
        </Node>
      </Node>
    </BinaryTree>
    <BinaryTree type="DecisionTree" boostWeight="1.0000000000000000e+00" itree="888">
      <Node pos="s" depth="0" NCoef="0" IVar="4" Cut="3.4815741237252951e-03" cType="1" res="-7.4500232003629208e-03" rms="4.6236011385917664e-01" purity="4.9111434817314148e-01" nType="0">
        <Node pos="l" depth="1" NCoef="0" IVar="6" Cut="2.8343894481658936e+00" cType="1" res="-1.3249479234218597e-02" rms="4.6078985929489136e-01" purity="4.9332869052886963e-01" nType="0">
          <Node pos="l" depth="2" NCoef="0" IVar="-1" Cut="0.0000000000000000e+00" cType="1" res="-2.5971734430640936e-03" rms="4.4456273317337036e-01" purity="2.9780769348144531e-01" nType="-99"/>
          <Node pos="r" depth="2" NCoef="0" IVar="-1" Cut="0.0000000000000000e+00" cType="1" res="-1.0171718167839572e-04" rms="4.6676313877105713e-01" purity="5.7333463430404663e-01" nType="-99"/>
        </Node>
        <Node pos="r" depth="1" NCoef="0" IVar="-1" Cut="0.0000000000000000e+00" cType="1" res="4.2594503611326218e-03" rms="4.7583371400833130e-01" purity="4.6265965700149536e-01" nType="-99"/>
      </Node>
    </BinaryTree>
    <BinaryTree type="DecisionTree" boostWeight="1.0000000000000000e+00" itree="889">
      <Node pos="s" depth="0" NCoef="0" IVar="2" Cut="5.4172408580780029e-01" cType="1" res="1.1341447010636330e-02" rms="4.6236872673034668e-01" purity="5.1023268699645996e-01" nType="0">
        <Node pos="l" depth="1" NCoef="0" IVar="4" Cut="2.4332075554411858e-04" cType="1" res="-1.7204638570547104e-02" rms="4.5758515596389771e-01" purity="3.9794519543647766e-01" nType="0">
          <Node pos="l" depth="2" NCoef="0" IVar="-1" Cut="0.0000000000000000e+00" cType="1" res="3.2938683871179819e-03" rms="4.6106284856796265e-01" purity="6.0787552595138550e-01" nType="-99"/>
          <Node pos="r" depth="2" NCoef="0" IVar="-1" Cut="0.0000000000000000e+00" cType="1" res="-1.8599994946271181e-03" rms="4.5573776960372925e-01" purity="3.5459697246551514e-01" nType="-99"/>
        </Node>
        <Node pos="r" depth="1" NCoef="0" IVar="4" Cut="8.0824691394809633e-05" cType="1" res="2.6911405846476555e-02" rms="4.6421784162521362e-01" purity="5.7147800922393799e-01" nType="0">
          <Node pos="l" depth="2" NCoef="0" IVar="-1" Cut="0.0000000000000000e+00" cType="1" res="-2.6231063529849052e-03" rms="4.5526522397994995e-01" purity="6.9181019067764282e-01" nType="-99"/>
          <Node pos="r" depth="2" NCoef="0" IVar="-1" Cut="0.0000000000000000e+00" cType="1" res="2.1850930061191320e-03" rms="4.6480712294578552e-01" purity="5.5677264928817749e-01" nType="-99"/>
        </Node>
      </Node>
    </BinaryTree>
    <BinaryTree type="DecisionTree" boostWeight="1.0000000000000000e+00" itree="890">
      <Node pos="s" depth="0" NCoef="0" IVar="5" Cut="5.0616333007812500e+02" cType="1" res="3.0664298683404922e-03" rms="4.6389883756637573e-01" purity="5.0257551670074463e-01" nType="0">
        <Node pos="l" depth="1" NCoef="0" IVar="1" Cut="1.0456027984619141e+00" cType="1" res="-2.5477528572082520e-02" rms="4.4516429305076599e-01" purity="3.7096738815307617e-01" nType="0">
          <Node pos="l" depth="2" NCoef="0" IVar="-1" Cut="0.0000000000000000e+00" cType="1" res="1.6430346295237541e-03" rms="4.7111889719963074e-01" purity="4.7606524825096130e-01" nType="-99"/>
          <Node pos="r" depth="2" NCoef="0" IVar="-1" Cut="0.0000000000000000e+00" cType="1" res="-4.5568877831101418e-03" rms="4.1520139575004578e-01" purity="2.7671113610267639e-01" nType="-99"/>
        </Node>
        <Node pos="r" depth="1" NCoef="0" IVar="3" Cut="8.7247592210769653e-01" cType="1" res="8.1647029146552086e-03" rms="4.6698236465454102e-01" purity="5.2608215808868408e-01" nType="0">
          <Node pos="l" depth="2" NCoef="0" IVar="-1" Cut="0.0000000000000000e+00" cType="1" res="-8.7362551130354404e-04" rms="4.7199612855911255e-01" purity="5.3478664159774780e-01" nType="-99"/>
          <Node pos="r" depth="2" NCoef="0" IVar="-1" Cut="0.0000000000000000e+00" cType="1" res="9.3958718935027719e-04" rms="4.6531498432159424e-01" purity="5.2353572845458984e-01" nType="-99"/>
        </Node>
      </Node>
    </BinaryTree>
    <BinaryTree type="DecisionTree" boostWeight="1.0000000000000000e+00" itree="891">
      <Node pos="s" depth="0" NCoef="0" IVar="2" Cut="8.2203036546707153e-01" cType="1" res="-5.1075862720608711e-03" rms="4.6587285399436951e-01" purity="4.9239963293075562e-01" nType="0">
        <Node pos="l" depth="1" NCoef="0" IVar="1" Cut="1.9601511955261230e+00" cType="1" res="-9.3084536492824554e-03" rms="4.6881270408630371e-01" purity="4.7593978047370911e-01" nType="0">
          <Node pos="l" depth="2" NCoef="0" IVar="-1" Cut="0.0000000000000000e+00" cType="1" res="-1.0624965652823448e-03" rms="4.6953576803207397e-01" purity="4.9404031038284302e-01" nType="-99"/>
          <Node pos="r" depth="2" NCoef="0" IVar="-1" Cut="0.0000000000000000e+00" cType="1" res="1.9641038961708546e-03" rms="4.6313175559043884e-01" purity="3.8330504298210144e-01" nType="-99"/>
        </Node>
        <Node pos="r" depth="1" NCoef="0" IVar="-1" Cut="0.0000000000000000e+00" cType="1" res="3.7539261393249035e-03" rms="4.2250531911849976e-01" purity="7.0429849624633789e-01" nType="-99"/>
      </Node>
    </BinaryTree>
    <BinaryTree type="DecisionTree" boostWeight="1.0000000000000000e+00" itree="892">
      <Node pos="s" depth="0" NCoef="0" IVar="5" Cut="7.1732110595703125e+02" cType="1" res="-9.2251477763056755e-03" rms="4.6452835202217102e-01" purity="4.9357947707176208e-01" nType="0">
        <Node pos="l" depth="1" NCoef="0" IVar="5" Cut="6.3882678222656250e+02" cType="1" res="8.3775445818901062e-03" rms="4.6097776293754578e-01" purity="4.7332534193992615e-01" nType="0">
          <Node pos="l" depth="2" NCoef="0" IVar="-1" Cut="0.0000000000000000e+00" cType="1" res="-2.1579451276920736e-04" rms="4.6150475740432739e-01" purity="4.4147226214408875e-01" nType="-99"/>
          <Node pos="r" depth="2" NCoef="0" IVar="-1" Cut="0.0000000000000000e+00" cType="1" res="2.8171068988740444e-03" rms="4.5775672793388367e-01" purity="5.6553012132644653e-01" nType="-99"/>
        </Node>
        <Node pos="r" depth="1" NCoef="0" IVar="1" Cut="5.7077139616012573e-01" cType="1" res="-2.9452571645379066e-02" rms="4.6775791049003601e-01" purity="5.1685369014739990e-01" nType="0">
          <Node pos="l" depth="2" NCoef="0" IVar="-1" Cut="0.0000000000000000e+00" cType="1" res="2.4594276328571141e-04" rms="4.6476259827613831e-01" purity="6.1919081211090088e-01" nType="-99"/>
          <Node pos="r" depth="2" NCoef="0" IVar="-1" Cut="0.0000000000000000e+00" cType="1" res="-2.6542644482105970e-03" rms="4.6829903125762939e-01" purity="4.7576692700386047e-01" nType="-99"/>
        </Node>
      </Node>
    </BinaryTree>
    <BinaryTree type="DecisionTree" boostWeight="1.0000000000000000e+00" itree="893">
      <Node pos="s" depth="0" NCoef="0" IVar="3" Cut="1.9673081636428833e+00" cType="1" res="1.0192998888669536e-04" rms="4.6197599172592163e-01" purity="4.9557349085807800e-01" nType="0">
        <Node pos="l" depth="1" NCoef="0" IVar="3" Cut="1.4541262388229370e+00" cType="1" res="7.9750837758183479e-03" rms="4.6527355909347534e-01" purity="5.2553272247314453e-01" nType="0">
          <Node pos="l" depth="2" NCoef="0" IVar="-1" Cut="0.0000000000000000e+00" cType="1" res="-3.2606365857645869e-04" rms="4.6354857087135315e-01" purity="5.2393120527267456e-01" nType="-99"/>
          <Node pos="r" depth="2" NCoef="0" IVar="-1" Cut="0.0000000000000000e+00" cType="1" res="2.4627179373055696e-03" rms="4.6786165237426758e-01" purity="5.2924180030822754e-01" nType="-99"/>
        </Node>
        <Node pos="r" depth="1" NCoef="0" IVar="2" Cut="6.0775780677795410e-01" cType="1" res="-4.4353973120450974e-02" rms="4.4026175141334534e-01" purity="3.2640814781188965e-01" nType="0">
          <Node pos="l" depth="2" NCoef="0" IVar="-1" Cut="0.0000000000000000e+00" cType="1" res="-4.5462129637598991e-03" rms="4.1581803560256958e-01" purity="2.4854111671447754e-01" nType="-99"/>
          <Node pos="r" depth="2" NCoef="0" IVar="-1" Cut="0.0000000000000000e+00" cType="1" res="8.4359577158465981e-04" rms="4.7987779974937439e-01" purity="4.8108059167861938e-01" nType="-99"/>
        </Node>
      </Node>
    </BinaryTree>
    <BinaryTree type="DecisionTree" boostWeight="1.0000000000000000e+00" itree="894">
      <Node pos="s" depth="0" NCoef="0" IVar="3" Cut="1.5632555484771729e+00" cType="1" res="9.1317004989832640e-04" rms="4.6356081962585449e-01" purity="5.0985419750213623e-01" nType="0">
        <Node pos="l" depth="1" NCoef="0" IVar="1" Cut="9.3614953756332397e-01" cType="1" res="1.3596121221780777e-02" rms="4.6185091137886047e-01" purity="5.5188715457916260e-01" nType="0">
          <Node pos="l" depth="2" NCoef="0" IVar="-1" Cut="0.0000000000000000e+00" cType="1" res="2.5543048977851868e-03" rms="4.5197799801826477e-01" purity="6.3243317604064941e-01" nType="-99"/>
          <Node pos="r" depth="2" NCoef="0" IVar="-1" Cut="0.0000000000000000e+00" cType="1" res="-6.0738716274499893e-04" rms="4.7038105130195618e-01" purity="4.7121205925941467e-01" nType="-99"/>
        </Node>
        <Node pos="r" depth="1" NCoef="0" IVar="2" Cut="6.2366259098052979e-01" cType="1" res="-2.4465838447213173e-02" rms="4.6592816710472107e-01" purity="4.2574509978294373e-01" nType="0">
          <Node pos="l" depth="2" NCoef="0" IVar="-1" Cut="0.0000000000000000e+00" cType="1" res="6.1274814652279019e-04" rms="4.5964467525482178e-01" purity="3.9927592873573303e-01" nType="-99"/>
          <Node pos="r" depth="2" NCoef="0" IVar="-1" Cut="0.0000000000000000e+00" cType="1" res="-4.6785729937255383e-03" rms="4.7052475810050964e-01" purity="4.6485990285873413e-01" nType="-99"/>
        </Node>
      </Node>
    </BinaryTree>
    <BinaryTree type="DecisionTree" boostWeight="1.0000000000000000e+00" itree="895">
      <Node pos="s" depth="0" NCoef="0" IVar="3" Cut="1.2154135704040527e+00" cType="1" res="1.8885359168052673e-03" rms="4.6412396430969238e-01" purity="5.0079047679901123e-01" nType="0">
        <Node pos="l" depth="1" NCoef="0" IVar="0" Cut="7.7265411615371704e-02" cType="1" res="-1.7864227294921875e-02" rms="4.6703946590423584e-01" purity="5.1433724164962769e-01" nType="0">
          <Node pos="l" depth="2" NCoef="0" IVar="-1" Cut="0.0000000000000000e+00" cType="1" res="-2.2840795572847128e-03" rms="4.6934157609939575e-01" purity="4.5895606279373169e-01" nType="-99"/>
          <Node pos="r" depth="2" NCoef="0" IVar="-1" Cut="0.0000000000000000e+00" cType="1" res="1.5804091526661068e-04" rms="4.6380057930946350e-01" purity="5.7097768783569336e-01" nType="-99"/>
        </Node>
        <Node pos="r" depth="1" NCoef="0" IVar="1" Cut="2.0783956050872803e+00" cType="1" res="1.8011931329965591e-02" rms="4.6110370755195618e-01" purity="4.8973274230957031e-01" nType="0">
          <Node pos="l" depth="2" NCoef="0" IVar="-1" Cut="0.0000000000000000e+00" cType="1" res="3.6216335138306022e-04" rms="4.6017864346504211e-01" purity="5.0544226169586182e-01" nType="-99"/>
          <Node pos="r" depth="2" NCoef="0" IVar="-1" Cut="0.0000000000000000e+00" cType="1" res="5.2427486516535282e-03" rms="4.6090680360794067e-01" purity="4.1364142298698425e-01" nType="-99"/>
        </Node>
      </Node>
    </BinaryTree>
    <BinaryTree type="DecisionTree" boostWeight="1.0000000000000000e+00" itree="896">
      <Node pos="s" depth="0" NCoef="0" IVar="6" Cut="4.0967741012573242e+00" cType="1" res="-4.2388471774756908e-03" rms="4.6570178866386414e-01" purity="4.9918898940086365e-01" nType="0">
        <Node pos="l" depth="1" NCoef="0" IVar="4" Cut="3.1028741504997015e-03" cType="1" res="1.0186805389821529e-02" rms="4.6771395206451416e-01" purity="4.2021876573562622e-01" nType="0">
          <Node pos="l" depth="2" NCoef="0" IVar="-1" Cut="0.0000000000000000e+00" cType="1" res="1.3670603511855006e-03" rms="4.7182840108871460e-01" purity="4.4209223985671997e-01" nType="-99"/>
          <Node pos="r" depth="2" NCoef="0" IVar="-1" Cut="0.0000000000000000e+00" cType="1" res="-2.6004605460911989e-03" rms="4.4391977787017822e-01" purity="3.1779047846794128e-01" nType="-99"/>
        </Node>
        <Node pos="r" depth="1" NCoef="0" IVar="4" Cut="1.4226107159629464e-03" cType="1" res="-2.7931170538067818e-02" rms="4.6140041947364807e-01" purity="6.2888747453689575e-01" nType="0">
          <Node pos="l" depth="2" NCoef="0" IVar="-1" Cut="0.0000000000000000e+00" cType="1" res="-1.1022373801097274e-03" rms="4.5455214381217957e-01" purity="6.6296589374542236e-01" nType="-99"/>
          <Node pos="r" depth="2" NCoef="0" IVar="-1" Cut="0.0000000000000000e+00" cType="1" res="-3.9738607592880726e-03" rms="4.7962492704391479e-01" purity="5.2429443597793579e-01" nType="-99"/>
        </Node>
      </Node>
    </BinaryTree>
    <BinaryTree type="DecisionTree" boostWeight="1.0000000000000000e+00" itree="897">
      <Node pos="s" depth="0" NCoef="0" IVar="2" Cut="5.6812292337417603e-01" cType="1" res="6.1075184494256973e-03" rms="4.6200874447822571e-01" purity="5.1299428939819336e-01" nType="0">
        <Node pos="l" depth="1" NCoef="0" IVar="3" Cut="9.7096514701843262e-01" cType="1" res="-1.6633164137601852e-02" rms="4.5947641134262085e-01" purity="4.1415509581565857e-01" nType="0">
          <Node pos="l" depth="2" NCoef="0" IVar="-1" Cut="0.0000000000000000e+00" cType="1" res="-3.6264073569327593e-03" rms="4.7197979688644409e-01" purity="4.1108652949333191e-01" nType="-99"/>
          <Node pos="r" depth="2" NCoef="0" IVar="-1" Cut="0.0000000000000000e+00" cType="1" res="-2.9608568183903117e-06" rms="4.5351675152778625e-01" purity="4.1532635688781738e-01" nType="-99"/>
        </Node>
        <Node pos="r" depth="1" NCoef="0" IVar="2" Cut="6.0136389732360840e-01" cType="1" res="2.3272750899195671e-02" rms="4.6317216753959656e-01" purity="5.8760052919387817e-01" nType="0">
          <Node pos="l" depth="2" NCoef="0" IVar="-1" Cut="0.0000000000000000e+00" cType="1" res="4.6260044910013676e-03" rms="4.7715729475021362e-01" purity="5.5917084217071533e-01" nType="-99"/>
          <Node pos="r" depth="2" NCoef="0" IVar="-1" Cut="0.0000000000000000e+00" cType="1" res="1.0960800573229790e-03" rms="4.6056723594665527e-01" purity="5.9197705984115601e-01" nType="-99"/>
        </Node>
      </Node>
    </BinaryTree>
    <BinaryTree type="DecisionTree" boostWeight="1.0000000000000000e+00" itree="898">
      <Node pos="s" depth="0" NCoef="0" IVar="3" Cut="1.6582844257354736e+00" cType="1" res="-5.3599639795720577e-03" rms="4.6155342459678650e-01" purity="4.9697846174240112e-01" nType="0">
        <Node pos="l" depth="1" NCoef="0" IVar="1" Cut="1.3974349498748779e+00" cType="1" res="4.9047907814383507e-03" rms="4.6016314625740051e-01" purity="5.3819918632507324e-01" nType="0">
          <Node pos="l" depth="2" NCoef="0" IVar="-1" Cut="0.0000000000000000e+00" cType="1" res="1.0845845099538565e-03" rms="4.5736318826675415e-01" purity="5.8751380443572998e-01" nType="-99"/>
          <Node pos="r" depth="2" NCoef="0" IVar="-1" Cut="0.0000000000000000e+00" cType="1" res="-1.4153880765661597e-03" rms="4.6573221683502197e-01" purity="4.1803270578384399e-01" nType="-99"/>
        </Node>
        <Node pos="r" depth="1" NCoef="0" IVar="4" Cut="9.5781631534919143e-04" cType="1" res="-3.1278911978006363e-02" rms="4.6403592824935913e-01" purity="3.9289429783821106e-01" nType="0">
          <Node pos="l" depth="2" NCoef="0" IVar="-1" Cut="0.0000000000000000e+00" cType="1" res="-4.8003070987761021e-03" rms="4.7066128253936768e-01" purity="4.1300457715988159e-01" nType="-99"/>
          <Node pos="r" depth="2" NCoef="0" IVar="-1" Cut="0.0000000000000000e+00" cType="1" res="4.0830904617905617e-04" rms="4.5507106184959412e-01" purity="3.7639644742012024e-01" nType="-99"/>
        </Node>
      </Node>
    </BinaryTree>
    <BinaryTree type="DecisionTree" boostWeight="1.0000000000000000e+00" itree="899">
      <Node pos="s" depth="0" NCoef="0" IVar="5" Cut="7.3257128906250000e+02" cType="1" res="-8.1363143399357796e-03" rms="4.6201059222221375e-01" purity="4.9551081657409668e-01" nType="0">
        <Node pos="l" depth="1" NCoef="0" IVar="0" Cut="4.2364362627267838e-02" cType="1" res="7.8671677038073540e-03" rms="4.5787626504898071e-01" purity="4.7486642003059387e-01" nType="0">
          <Node pos="l" depth="2" NCoef="0" IVar="-1" Cut="0.0000000000000000e+00" cType="1" res="-4.0704016573727131e-03" rms="4.3704950809478760e-01" purity="2.9468023777008057e-01" nType="-99"/>
          <Node pos="r" depth="2" NCoef="0" IVar="-1" Cut="0.0000000000000000e+00" cType="1" res="1.3597223442047834e-03" rms="4.6024903655052185e-01" purity="5.0674521923065186e-01" nType="-99"/>
        </Node>
        <Node pos="r" depth="1" NCoef="0" IVar="0" Cut="1.3500292599201202e-01" cType="1" res="-2.8095429763197899e-02" rms="4.6634656190872192e-01" purity="5.2125787734985352e-01" nType="0">
          <Node pos="l" depth="2" NCoef="0" IVar="-1" Cut="0.0000000000000000e+00" cType="1" res="-9.2980009503662586e-04" rms="4.6484506130218506e-01" purity="5.1570367813110352e-01" nType="-99"/>
          <Node pos="r" depth="2" NCoef="0" IVar="-1" Cut="0.0000000000000000e+00" cType="1" res="-6.9819102063775063e-03" rms="4.6780854463577271e-01" purity="5.5177497863769531e-01" nType="-99"/>
        </Node>
      </Node>
    </BinaryTree>
    <BinaryTree type="DecisionTree" boostWeight="1.0000000000000000e+00" itree="900">
      <Node pos="s" depth="0" NCoef="0" IVar="5" Cut="7.8779888916015625e+02" cType="1" res="1.2295151129364967e-02" rms="4.6107238531112671e-01" purity="5.1202881336212158e-01" nType="0">
        <Node pos="l" depth="1" NCoef="0" IVar="3" Cut="1.3865891695022583e+00" cType="1" res="2.2922150790691376e-02" rms="4.6242371201515198e-01" purity="4.9392718076705933e-01" nType="0">
          <Node pos="l" depth="2" NCoef="0" IVar="-1" Cut="0.0000000000000000e+00" cType="1" res="4.7213947982527316e-04" rms="4.6495053172111511e-01" purity="5.0793761014938354e-01" nType="-99"/>
          <Node pos="r" depth="2" NCoef="0" IVar="-1" Cut="0.0000000000000000e+00" cType="1" res="2.6908537838608027e-03" rms="4.5875906944274902e-01" purity="4.7744414210319519e-01" nType="-99"/>
        </Node>
        <Node pos="r" depth="1" NCoef="0" IVar="6" Cut="4.1906104087829590e+00" cType="1" res="-5.5730589665472507e-03" rms="4.5823603868484497e-01" purity="5.4246485233306885e-01" nType="0">
          <Node pos="l" depth="2" NCoef="0" IVar="-1" Cut="0.0000000000000000e+00" cType="1" res="-1.6377270221710205e-03" rms="4.7505071759223938e-01" purity="4.3202123045921326e-01" nType="-99"/>
          <Node pos="r" depth="2" NCoef="0" IVar="-1" Cut="0.0000000000000000e+00" cType="1" res="2.0375002641230822e-03" rms="4.2947047948837280e-01" purity="7.0938038825988770e-01" nType="-99"/>
        </Node>
      </Node>
    </BinaryTree>
    <BinaryTree type="DecisionTree" boostWeight="1.0000000000000000e+00" itree="901">
      <Node pos="s" depth="0" NCoef="0" IVar="1" Cut="8.2847106456756592e-01" cType="1" res="-5.2232891321182251e-03" rms="4.6359258890151978e-01" purity="4.9891662597656250e-01" nType="0">
        <Node pos="l" depth="1" NCoef="0" IVar="0" Cut="1.3385148346424103e-01" cType="1" res="2.0420560613274574e-02" rms="4.5786470174789429e-01" purity="5.9540301561355591e-01" nType="0">
          <Node pos="l" depth="2" NCoef="0" IVar="-1" Cut="0.0000000000000000e+00" cType="1" res="2.6987227611243725e-03" rms="4.5973509550094604e-01" purity="5.9607762098312378e-01" nType="-99"/>
          <Node pos="r" depth="2" NCoef="0" IVar="-1" Cut="0.0000000000000000e+00" cType="1" res="-1.8214135197922587e-03" rms="4.5005205273628235e-01" purity="5.9385108947753906e-01" nType="-99"/>
        </Node>
        <Node pos="r" depth="1" NCoef="0" IVar="1" Cut="1.4542196989059448e+00" cType="1" res="-2.2573400288820267e-02" rms="4.6662953495979309e-01" purity="4.3363589048385620e-01" nType="0">
          <Node pos="l" depth="2" NCoef="0" IVar="-1" Cut="0.0000000000000000e+00" cType="1" res="-2.4819106329232454e-03" rms="4.6896341443061829e-01" purity="4.6397310495376587e-01" nType="-99"/>
          <Node pos="r" depth="2" NCoef="0" IVar="-1" Cut="0.0000000000000000e+00" cType="1" res="-2.0305260841269046e-04" rms="4.6339845657348633e-01" purity="4.0207177400588989e-01" nType="-99"/>
        </Node>
      </Node>
    </BinaryTree>
    <BinaryTree type="DecisionTree" boostWeight="1.0000000000000000e+00" itree="902">
      <Node pos="s" depth="0" NCoef="0" IVar="3" Cut="2.2394917011260986e+00" cType="1" res="3.9077466353774071e-03" rms="4.6296152472496033e-01" purity="5.0655424594879150e-01" nType="0">
        <Node pos="l" depth="1" NCoef="0" IVar="2" Cut="5.7487672567367554e-01" cType="1" res="9.3007115647196770e-03" rms="4.6602952480316162e-01" purity="5.2504432201385498e-01" nType="0">
          <Node pos="l" depth="2" NCoef="0" IVar="-1" Cut="0.0000000000000000e+00" cType="1" res="-6.3978240359574556e-04" rms="4.7015634179115295e-01" purity="4.3792498111724854e-01" nType="-99"/>
          <Node pos="r" depth="2" NCoef="0" IVar="-1" Cut="0.0000000000000000e+00" cType="1" res="1.5801461413502693e-03" rms="4.6247506141662598e-01" purity="5.8841353654861450e-01" nType="-99"/>
        </Node>
        <Node pos="r" depth="1" NCoef="0" IVar="-1" Cut="0.0000000000000000e+00" cType="1" res="-4.5309686101973057e-03" rms="4.0944570302963257e-01" purity="2.4430662393569946e-01" nType="-99"/>
      </Node>
    </BinaryTree>
    <BinaryTree type="DecisionTree" boostWeight="1.0000000000000000e+00" itree="903">
      <Node pos="s" depth="0" NCoef="0" IVar="6" Cut="3.9534022808074951e+00" cType="1" res="1.8417337909340858e-02" rms="4.6595916152000427e-01" purity="5.2307736873626709e-01" nType="0">
        <Node pos="l" depth="1" NCoef="0" IVar="3" Cut="1.0813540220260620e+00" cType="1" res="3.6697335541248322e-02" rms="4.7159212827682495e-01" purity="4.3723419308662415e-01" nType="0">
          <Node pos="l" depth="2" NCoef="0" IVar="-1" Cut="0.0000000000000000e+00" cType="1" res="4.2799334041774273e-03" rms="4.7782424092292786e-01" purity="4.9903738498687744e-01" nType="-99"/>
          <Node pos="r" depth="2" NCoef="0" IVar="-1" Cut="0.0000000000000000e+00" cType="1" res="1.2738448567688465e-03" rms="4.6751949191093445e-01" purity="4.0546706318855286e-01" nType="-99"/>
        </Node>
        <Node pos="r" depth="1" NCoef="0" IVar="4" Cut="3.1839526491239667e-04" cType="1" res="-6.7917555570602417e-03" rms="4.5687913894653320e-01" purity="6.4145964384078979e-01" nType="0">
          <Node pos="l" depth="2" NCoef="0" IVar="-1" Cut="0.0000000000000000e+00" cType="1" res="1.9432699773460627e-03" rms="4.3437370657920837e-01" purity="7.2593790292739868e-01" nType="-99"/>
          <Node pos="r" depth="2" NCoef="0" IVar="-1" Cut="0.0000000000000000e+00" cType="1" res="-1.6640044050291181e-03" rms="4.6941146254539490e-01" purity="5.8850902318954468e-01" nType="-99"/>
        </Node>
      </Node>
    </BinaryTree>
    <BinaryTree type="DecisionTree" boostWeight="1.0000000000000000e+00" itree="904">
      <Node pos="s" depth="0" NCoef="0" IVar="3" Cut="1.0527724027633667e+00" cType="1" res="-1.0728399502113461e-03" rms="4.6156319975852966e-01" purity="5.0035321712493896e-01" nType="0">
        <Node pos="l" depth="1" NCoef="0" IVar="6" Cut="4.3547110557556152e+00" cType="1" res="1.8847052007913589e-02" rms="4.5677092671394348e-01" purity="5.5619817972183228e-01" nType="0">
          <Node pos="l" depth="2" NCoef="0" IVar="-1" Cut="0.0000000000000000e+00" cType="1" res="-2.1407335225376301e-05" rms="4.7671923041343689e-01" purity="4.5916971564292908e-01" nType="-99"/>
          <Node pos="r" depth="2" NCoef="0" IVar="-1" Cut="0.0000000000000000e+00" cType="1" res="5.1532466895878315e-03" rms="4.0435442328453064e-01" purity="7.7705937623977661e-01" nType="-99"/>
        </Node>
        <Node pos="r" depth="1" NCoef="0" IVar="3" Cut="1.3574469089508057e+00" cType="1" res="-1.1394860222935677e-02" rms="4.6369048953056335e-01" purity="4.7141566872596741e-01" nType="0">
          <Node pos="l" depth="2" NCoef="0" IVar="-1" Cut="0.0000000000000000e+00" cType="1" res="-2.7713435702025890e-03" rms="4.6995130181312561e-01" purity="4.9408465623855591e-01" nType="-99"/>
          <Node pos="r" depth="2" NCoef="0" IVar="-1" Cut="0.0000000000000000e+00" cType="1" res="1.7044393462128937e-04" rms="4.6019431948661804e-01" purity="4.6139529347419739e-01" nType="-99"/>
        </Node>
      </Node>
    </BinaryTree>
    <BinaryTree type="DecisionTree" boostWeight="1.0000000000000000e+00" itree="905">
      <Node pos="s" depth="0" NCoef="0" IVar="6" Cut="4.0712380409240723e+00" cType="1" res="3.4545545931905508e-03" rms="4.6678695082664490e-01" purity="5.0517016649246216e-01" nType="0">
        <Node pos="l" depth="1" NCoef="0" IVar="3" Cut="1.3696261644363403e+00" cType="1" res="1.6042964532971382e-02" rms="4.7060707211494446e-01" purity="4.2329305410385132e-01" nType="0">
          <Node pos="l" depth="2" NCoef="0" IVar="-1" Cut="0.0000000000000000e+00" cType="1" res="1.7706662183627486e-03" rms="4.7607883810997009e-01" purity="4.6341222524642944e-01" nType="-99"/>
          <Node pos="r" depth="2" NCoef="0" IVar="-1" Cut="0.0000000000000000e+00" cType="1" res="6.8880217440892011e-05" rms="4.6353390812873840e-01" purity="3.7529391050338745e-01" nType="-99"/>
        </Node>
        <Node pos="r" depth="1" NCoef="0" IVar="0" Cut="4.1587132960557938e-02" cType="1" res="-1.7349980771541595e-02" rms="4.5964899659156799e-01" purity="6.4048629999160767e-01" nType="0">
          <Node pos="l" depth="2" NCoef="0" IVar="-1" Cut="0.0000000000000000e+00" cType="1" res="-4.0921950712800026e-03" rms="4.9083071947097778e-01" purity="5.0882440805435181e-01" nType="-99"/>
          <Node pos="r" depth="2" NCoef="0" IVar="-1" Cut="0.0000000000000000e+00" cType="1" res="-2.3758599127177149e-04" rms="4.4946840405464172e-01" purity="6.7756581306457520e-01" nType="-99"/>
        </Node>
      </Node>
    </BinaryTree>
    <BinaryTree type="DecisionTree" boostWeight="1.0000000000000000e+00" itree="906">
      <Node pos="s" depth="0" NCoef="0" IVar="6" Cut="4.5546746253967285e+00" cType="1" res="1.3045045780017972e-03" rms="4.6845808625221252e-01" purity="5.0540238618850708e-01" nType="0">
        <Node pos="l" depth="1" NCoef="0" IVar="5" Cut="1.1755068359375000e+03" cType="1" res="1.4627612195909023e-02" rms="4.7052407264709473e-01" purity="4.5119461417198181e-01" nType="0">
          <Node pos="l" depth="2" NCoef="0" IVar="-1" Cut="0.0000000000000000e+00" cType="1" res="5.6884292280301452e-04" rms="4.6938052773475647e-01" purity="4.3998220562934875e-01" nType="-99"/>
          <Node pos="r" depth="2" NCoef="0" IVar="-1" Cut="0.0000000000000000e+00" cType="1" res="4.7757849097251892e-03" rms="4.7930985689163208e-01" purity="5.8190870285034180e-01" nType="-99"/>
        </Node>
        <Node pos="r" depth="1" NCoef="0" IVar="4" Cut="1.4732466079294682e-03" cType="1" res="-3.3603817224502563e-02" rms="4.6117934584617615e-01" purity="6.4743399620056152e-01" nType="0">
          <Node pos="l" depth="2" NCoef="0" IVar="-1" Cut="0.0000000000000000e+00" cType="1" res="-3.4235711209475994e-03" rms="4.5829570293426514e-01" purity="6.4820247888565063e-01" nType="-99"/>
          <Node pos="r" depth="2" NCoef="0" IVar="-1" Cut="0.0000000000000000e+00" cType="1" res="1.5185346128419042e-03" rms="4.6949696540832520e-01" purity="6.4404422044754028e-01" nType="-99"/>
        </Node>
      </Node>
    </BinaryTree>
    <BinaryTree type="DecisionTree" boostWeight="1.0000000000000000e+00" itree="907">
      <Node pos="s" depth="0" NCoef="0" IVar="1" Cut="2.0153407752513885e-01" cType="1" res="-6.7152897827327251e-03" rms="4.6342337131500244e-01" purity="4.9679780006408691e-01" nType="0">
        <Node pos="l" depth="1" NCoef="0" IVar="-1" Cut="0.0000000000000000e+00" cType="1" res="-5.3574256598949432e-03" rms="4.7219458222389221e-01" purity="5.1069837808609009e-01" nType="-99"/>
        <Node pos="r" depth="1" NCoef="0" IVar="6" Cut="5.3334183692932129e+00" cType="1" res="-2.1079231519252062e-03" rms="4.6248736977577209e-01" purity="4.9596843123435974e-01" nType="0">
          <Node pos="l" depth="2" NCoef="0" IVar="-1" Cut="0.0000000000000000e+00" cType="1" res="-5.0617463421076536e-04" rms="4.6873381733894348e-01" purity="4.5881238579750061e-01" nType="-99"/>
          <Node pos="r" depth="2" NCoef="0" IVar="-1" Cut="0.0000000000000000e+00" cType="1" res="3.4222486428916454e-03" rms="4.1198968887329102e-01" purity="7.6428115367889404e-01" nType="-99"/>
        </Node>
      </Node>
    </BinaryTree>
    <BinaryTree type="DecisionTree" boostWeight="1.0000000000000000e+00" itree="908">
      <Node pos="s" depth="0" NCoef="0" IVar="5" Cut="6.7644604492187500e+02" cType="1" res="1.0289647616446018e-02" rms="4.6819481253623962e-01" purity="5.1466393470764160e-01" nType="0">
        <Node pos="l" depth="1" NCoef="0" IVar="4" Cut="1.6839635791257024e-03" cType="1" res="2.7193574234843254e-02" rms="4.6529740095138550e-01" purity="4.7887608408927917e-01" nType="0">
          <Node pos="l" depth="2" NCoef="0" IVar="-1" Cut="0.0000000000000000e+00" cType="1" res="7.5329758692532778e-04" rms="4.6539434790611267e-01" purity="5.1226651668548584e-01" nType="-99"/>
          <Node pos="r" depth="2" NCoef="0" IVar="-1" Cut="0.0000000000000000e+00" cType="1" res="3.3009538892656565e-03" rms="4.6404358744621277e-01" purity="4.2602288722991943e-01" nType="-99"/>
        </Node>
        <Node pos="r" depth="1" NCoef="0" IVar="6" Cut="4.7663798332214355e+00" cType="1" res="-4.3776319362223148e-03" rms="4.7020223736763000e-01" purity="5.4571658372879028e-01" nType="0">
          <Node pos="l" depth="2" NCoef="0" IVar="-1" Cut="0.0000000000000000e+00" cType="1" res="3.7764827720820904e-04" rms="4.7755348682403564e-01" purity="4.9730622768402100e-01" nType="-99"/>
          <Node pos="r" depth="2" NCoef="0" IVar="-1" Cut="0.0000000000000000e+00" cType="1" res="-2.7101417072117329e-03" rms="4.4720542430877686e-01" purity="6.8385428190231323e-01" nType="-99"/>
        </Node>
      </Node>
    </BinaryTree>
    <BinaryTree type="DecisionTree" boostWeight="1.0000000000000000e+00" itree="909">
      <Node pos="s" depth="0" NCoef="0" IVar="3" Cut="1.6191624402999878e+00" cType="1" res="-4.2181853204965591e-03" rms="4.5901370048522949e-01" purity="4.9322795867919922e-01" nType="0">
        <Node pos="l" depth="1" NCoef="0" IVar="5" Cut="1.1116916503906250e+03" cType="1" res="7.7540427446365356e-03" rms="4.5938864350318909e-01" purity="5.3702008724212646e-01" nType="0">
          <Node pos="l" depth="2" NCoef="0" IVar="-1" Cut="0.0000000000000000e+00" cType="1" res="1.0409213136881590e-03" rms="4.5565357804298401e-01" purity="5.3512012958526611e-01" nType="-99"/>
          <Node pos="r" depth="2" NCoef="0" IVar="-1" Cut="0.0000000000000000e+00" cType="1" res="-2.6656261179596186e-03" rms="4.7868362069129944e-01" purity="5.4870557785034180e-01" nType="-99"/>
        </Node>
        <Node pos="r" depth="1" NCoef="0" IVar="2" Cut="6.2150418758392334e-01" cType="1" res="-3.1831879168748856e-02" rms="4.5695319771766663e-01" purity="3.9222225546836853e-01" nType="0">
          <Node pos="l" depth="2" NCoef="0" IVar="-1" Cut="0.0000000000000000e+00" cType="1" res="-7.0007616886869073e-04" rms="4.4848084449768066e-01" purity="3.5859417915344238e-01" nType="-99"/>
          <Node pos="r" depth="2" NCoef="0" IVar="-1" Cut="0.0000000000000000e+00" cType="1" res="-4.0243207477033138e-03" rms="4.6902287006378174e-01" purity="4.4994708895683289e-01" nType="-99"/>
        </Node>
      </Node>
    </BinaryTree>
    <BinaryTree type="DecisionTree" boostWeight="1.0000000000000000e+00" itree="910">
      <Node pos="s" depth="0" NCoef="0" IVar="4" Cut="1.0403797496110201e-03" cType="1" res="-1.3149060308933258e-02" rms="4.6752178668975830e-01" purity="4.8674598336219788e-01" nType="0">
        <Node pos="l" depth="1" NCoef="0" IVar="5" Cut="8.3514788818359375e+02" cType="1" res="1.0585274547338486e-02" rms="4.6199172735214233e-01" purity="5.8772808313369751e-01" nType="0">
          <Node pos="l" depth="2" NCoef="0" IVar="-1" Cut="0.0000000000000000e+00" cType="1" res="1.8905382603406906e-03" rms="4.5646327733993530e-01" purity="5.8281427621841431e-01" nType="-99"/>
          <Node pos="r" depth="2" NCoef="0" IVar="-1" Cut="0.0000000000000000e+00" cType="1" res="-1.9184909760951996e-03" rms="4.7196963429450989e-01" purity="5.9878057241439819e-01" nType="-99"/>
        </Node>
        <Node pos="r" depth="1" NCoef="0" IVar="6" Cut="3.6909551620483398e+00" cType="1" res="-3.2674502581357956e-02" rms="4.7112700343132019e-01" purity="4.0367138385772705e-01" nType="0">
          <Node pos="l" depth="2" NCoef="0" IVar="-1" Cut="0.0000000000000000e+00" cType="1" res="-6.8543251836672425e-04" rms="4.6322256326675415e-01" purity="3.6278426647186279e-01" nType="-99"/>
          <Node pos="r" depth="2" NCoef="0" IVar="-1" Cut="0.0000000000000000e+00" cType="1" res="-4.5003206469118595e-03" rms="4.8439311981201172e-01" purity="4.9083366990089417e-01" nType="-99"/>
        </Node>
      </Node>
    </BinaryTree>
    <BinaryTree type="DecisionTree" boostWeight="1.0000000000000000e+00" itree="911">
      <Node pos="s" depth="0" NCoef="0" IVar="4" Cut="8.0468438682146370e-05" cType="1" res="-1.7135769128799438e-02" rms="4.6484646201133728e-01" purity="4.9159240722656250e-01" nType="0">
        <Node pos="l" depth="1" NCoef="0" IVar="1" Cut="9.6078705787658691e-01" cType="1" res="-6.3539631664752960e-02" rms="4.5336827635765076e-01" purity="6.3473629951477051e-01" nType="0">
          <Node pos="l" depth="2" NCoef="0" IVar="-1" Cut="0.0000000000000000e+00" cType="1" res="-4.2906898306682706e-04" rms="4.2269650101661682e-01" purity="7.3867636919021606e-01" nType="-99"/>
          <Node pos="r" depth="2" NCoef="0" IVar="-1" Cut="0.0000000000000000e+00" cType="1" res="-8.3437766879796982e-03" rms="4.7486114501953125e-01" purity="5.3091675043106079e-01" nType="-99"/>
        </Node>
        <Node pos="r" depth="1" NCoef="0" IVar="0" Cut="9.0330183506011963e-02" cType="1" res="-1.1278911493718624e-02" rms="4.6594676375389099e-01" purity="4.7352549433708191e-01" nType="0">
          <Node pos="l" depth="2" NCoef="0" IVar="-1" Cut="0.0000000000000000e+00" cType="1" res="-1.4708243543282151e-03" rms="4.6433365345001221e-01" purity="4.1784441471099854e-01" nType="-99"/>
          <Node pos="r" depth="2" NCoef="0" IVar="-1" Cut="0.0000000000000000e+00" cType="1" res="3.3998079015873373e-04" rms="4.6751689910888672e-01" purity="5.4584693908691406e-01" nType="-99"/>
        </Node>
      </Node>
    </BinaryTree>
    <BinaryTree type="DecisionTree" boostWeight="1.0000000000000000e+00" itree="912">
      <Node pos="s" depth="0" NCoef="0" IVar="5" Cut="1.2320015869140625e+03" cType="1" res="-1.6856904840096831e-03" rms="4.6366760134696960e-01" purity="4.9566718935966492e-01" nType="0">
        <Node pos="l" depth="1" NCoef="0" IVar="5" Cut="5.3562115478515625e+02" cType="1" res="-6.8387934006750584e-03" rms="4.6295887231826782e-01" purity="4.8501977324485779e-01" nType="0">
          <Node pos="l" depth="2" NCoef="0" IVar="-1" Cut="0.0000000000000000e+00" cType="1" res="-2.6752159465104342e-03" rms="4.4731640815734863e-01" purity="3.5864245891571045e-01" nType="-99"/>
          <Node pos="r" depth="2" NCoef="0" IVar="-1" Cut="0.0000000000000000e+00" cType="1" res="2.6553811039775610e-04" rms="4.6709030866622925e-01" purity="5.2369999885559082e-01" nType="-99"/>
        </Node>
        <Node pos="r" depth="1" NCoef="0" IVar="-1" Cut="0.0000000000000000e+00" cType="1" res="4.2228475213050842e-03" rms="4.6766108274459839e-01" purity="6.3112038373947144e-01" nType="-99"/>
      </Node>
    </BinaryTree>
    <BinaryTree type="DecisionTree" boostWeight="1.0000000000000000e+00" itree="913">
      <Node pos="s" depth="0" NCoef="0" IVar="2" Cut="6.4356142282485962e-01" cType="1" res="-4.7099608927965164e-03" rms="4.6335589885711670e-01" purity="4.9693489074707031e-01" nType="0">
        <Node pos="l" depth="1" NCoef="0" IVar="1" Cut="6.1907052993774414e-01" cType="1" res="-1.8986418843269348e-02" rms="4.6605971455574036e-01" purity="4.2601844668388367e-01" nType="0">
          <Node pos="l" depth="2" NCoef="0" IVar="-1" Cut="0.0000000000000000e+00" cType="1" res="-3.0083940364420414e-03" rms="4.7825595736503601e-01" purity="4.8471170663833618e-01" nType="-99"/>
          <Node pos="r" depth="2" NCoef="0" IVar="-1" Cut="0.0000000000000000e+00" cType="1" res="-5.4818741045892239e-04" rms="4.6155858039855957e-01" purity="4.0687930583953857e-01" nType="-99"/>
        </Node>
        <Node pos="r" depth="1" NCoef="0" IVar="3" Cut="1.1269208192825317e+00" cType="1" res="1.6495145857334137e-02" rms="4.5849072933197021e-01" purity="6.0226845741271973e-01" nType="0">
          <Node pos="l" depth="2" NCoef="0" IVar="-1" Cut="0.0000000000000000e+00" cType="1" res="-4.7212300705723464e-04" rms="4.5759174227714539e-01" purity="6.1043828725814819e-01" nType="-99"/>
          <Node pos="r" depth="2" NCoef="0" IVar="-1" Cut="0.0000000000000000e+00" cType="1" res="2.2642896510660648e-03" rms="4.5837447047233582e-01" purity="5.9591805934906006e-01" nType="-99"/>
        </Node>
      </Node>
    </BinaryTree>
    <BinaryTree type="DecisionTree" boostWeight="1.0000000000000000e+00" itree="914">
      <Node pos="s" depth="0" NCoef="0" IVar="3" Cut="7.9041802883148193e-01" cType="1" res="-2.6457773055881262e-03" rms="4.6452102065086365e-01" purity="5.0187271833419800e-01" nType="0">
        <Node pos="l" depth="1" NCoef="0" IVar="6" Cut="3.0138189792633057e+00" cType="1" res="-3.9953630417585373e-02" rms="4.7446629405021667e-01" purity="4.9048206210136414e-01" nType="0">
          <Node pos="l" depth="2" NCoef="0" IVar="-1" Cut="0.0000000000000000e+00" cType="1" res="9.4053091015666723e-04" rms="4.7856211662292480e-01" purity="3.7786567211151123e-01" nType="-99"/>
          <Node pos="r" depth="2" NCoef="0" IVar="-1" Cut="0.0000000000000000e+00" cType="1" res="-4.0675532072782516e-03" rms="4.7039347887039185e-01" purity="5.4256612062454224e-01" nType="-99"/>
        </Node>
        <Node pos="r" depth="1" NCoef="0" IVar="2" Cut="7.6948446035385132e-01" cType="1" res="6.2492629513144493e-03" rms="4.6167334914207458e-01" purity="5.0458848476409912e-01" nType="0">
          <Node pos="l" depth="2" NCoef="0" IVar="-1" Cut="0.0000000000000000e+00" cType="1" res="-7.0701666118111461e-05" rms="4.6481946110725403e-01" purity="4.7573658823966980e-01" nType="-99"/>
          <Node pos="r" depth="2" NCoef="0" IVar="-1" Cut="0.0000000000000000e+00" cType="1" res="3.7498648744076490e-03" rms="4.3939426541328430e-01" purity="6.8017494678497314e-01" nType="-99"/>
        </Node>
      </Node>
    </BinaryTree>
    <BinaryTree type="DecisionTree" boostWeight="1.0000000000000000e+00" itree="915">
      <Node pos="s" depth="0" NCoef="0" IVar="3" Cut="1.0857266187667847e+00" cType="1" res="-1.0512634180486202e-02" rms="4.6257355809211731e-01" purity="4.8949834704399109e-01" nType="0">
        <Node pos="l" depth="1" NCoef="0" IVar="5" Cut="6.9884783935546875e+02" cType="1" res="-3.1894017010927200e-02" rms="4.6292507648468018e-01" purity="5.0996649265289307e-01" nType="0">
          <Node pos="l" depth="2" NCoef="0" IVar="-1" Cut="0.0000000000000000e+00" cType="1" res="-3.4278079401701689e-03" rms="4.5254439115524292e-01" purity="4.2470926046371460e-01" nType="-99"/>
          <Node pos="r" depth="2" NCoef="0" IVar="-1" Cut="0.0000000000000000e+00" cType="1" res="-9.6082693198695779e-04" rms="4.6971893310546875e-01" purity="5.7307708263397217e-01" nType="-99"/>
        </Node>
        <Node pos="r" depth="1" NCoef="0" IVar="2" Cut="7.9401415586471558e-01" cType="1" res="2.1015277598053217e-03" rms="4.6190211176872253e-01" purity="4.7742295265197754e-01" nType="0">
          <Node pos="l" depth="2" NCoef="0" IVar="-1" Cut="0.0000000000000000e+00" cType="1" res="6.2893115682527423e-04" rms="4.6027708053588867e-01" purity="4.6613478660583496e-01" nType="-99"/>
          <Node pos="r" depth="2" NCoef="0" IVar="-1" Cut="0.0000000000000000e+00" cType="1" res="-4.5409891754388809e-03" rms="4.7055360674858093e-01" purity="5.7674378156661987e-01" nType="-99"/>
        </Node>
      </Node>
    </BinaryTree>
    <BinaryTree type="DecisionTree" boostWeight="1.0000000000000000e+00" itree="916">
      <Node pos="s" depth="0" NCoef="0" IVar="2" Cut="8.0509471893310547e-01" cType="1" res="-4.1839136974886060e-04" rms="4.6475982666015625e-01" purity="4.9963268637657166e-01" nType="0">
        <Node pos="l" depth="1" NCoef="0" IVar="4" Cut="6.4851361094042659e-04" cType="1" res="6.3130380585789680e-03" rms="4.6282985806465149e-01" purity="4.8782980442047119e-01" nType="0">
          <Node pos="l" depth="2" NCoef="0" IVar="-1" Cut="0.0000000000000000e+00" cType="1" res="1.9203487318009138e-03" rms="4.4858932495117188e-01" purity="6.0223019123077393e-01" nType="-99"/>
          <Node pos="r" depth="2" NCoef="0" IVar="-1" Cut="0.0000000000000000e+00" cType="1" res="-3.1627024873159826e-04" rms="4.7005191445350647e-01" purity="4.2514920234680176e-01" nType="-99"/>
        </Node>
        <Node pos="r" depth="1" NCoef="0" IVar="3" Cut="1.1450659036636353e+00" cType="1" res="-5.7395018637180328e-02" rms="4.7699555754661560e-01" purity="5.9953546524047852e-01" nType="0">
          <Node pos="l" depth="2" NCoef="0" IVar="-1" Cut="0.0000000000000000e+00" cType="1" res="-8.2697356119751930e-03" rms="4.7676399350166321e-01" purity="5.5370342731475830e-01" nType="-99"/>
          <Node pos="r" depth="2" NCoef="0" IVar="-1" Cut="0.0000000000000000e+00" cType="1" res="-1.4518531679641455e-04" rms="4.7051322460174561e-01" purity="6.4255654811859131e-01" nType="-99"/>
        </Node>
      </Node>
    </BinaryTree>
    <BinaryTree type="DecisionTree" boostWeight="1.0000000000000000e+00" itree="917">
      <Node pos="s" depth="0" NCoef="0" IVar="4" Cut="1.7833726014941931e-03" cType="1" res="2.0571218337863684e-03" rms="4.6305733919143677e-01" purity="5.0489586591720581e-01" nType="0">
        <Node pos="l" depth="1" NCoef="0" IVar="4" Cut="6.4311985624954104e-04" cType="1" res="1.2235982343554497e-02" rms="4.6273949742317200e-01" purity="5.6437307596206665e-01" nType="0">
          <Node pos="l" depth="2" NCoef="0" IVar="-1" Cut="0.0000000000000000e+00" cType="1" res="-5.5527559015899897e-04" rms="4.6005326509475708e-01" purity="5.9079891443252563e-01" nType="-99"/>
          <Node pos="r" depth="2" NCoef="0" IVar="-1" Cut="0.0000000000000000e+00" cType="1" res="2.3373092990368605e-03" rms="4.6479591727256775e-01" purity="5.3262168169021606e-01" nType="-99"/>
        </Node>
        <Node pos="r" depth="1" NCoef="0" IVar="1" Cut="4.2376804351806641e-01" cType="1" res="-1.5973186120390892e-02" rms="4.6307095885276794e-01" purity="3.9954099059104919e-01" nType="0">
          <Node pos="l" depth="2" NCoef="0" IVar="-1" Cut="0.0000000000000000e+00" cType="1" res="-4.2605157941579819e-03" rms="4.6715319156646729e-01" purity="4.2376890778541565e-01" nType="-99"/>
          <Node pos="r" depth="2" NCoef="0" IVar="-1" Cut="0.0000000000000000e+00" cType="1" res="-1.4845294936094433e-04" rms="4.6106857061386108e-01" purity="3.9417651295661926e-01" nType="-99"/>
        </Node>
      </Node>
    </BinaryTree>
    <BinaryTree type="DecisionTree" boostWeight="1.0000000000000000e+00" itree="918">
      <Node pos="s" depth="0" NCoef="0" IVar="6" Cut="4.1104059219360352e+00" cType="1" res="-3.8960848469287157e-03" rms="4.6581828594207764e-01" purity="4.9758234620094299e-01" nType="0">
        <Node pos="l" depth="1" NCoef="0" IVar="6" Cut="3.8795108795166016e+00" cType="1" res="-1.5281877480447292e-02" rms="4.7218853235244751e-01" purity="3.9774841070175171e-01" nType="0">
          <Node pos="l" depth="2" NCoef="0" IVar="-1" Cut="0.0000000000000000e+00" cType="1" res="-3.8546754512935877e-04" rms="4.6965178847312927e-01" purity="3.9183261990547180e-01" nType="-99"/>
          <Node pos="r" depth="2" NCoef="0" IVar="-1" Cut="0.0000000000000000e+00" cType="1" res="-5.3579676896333694e-03" rms="4.8687019944190979e-01" purity="4.4935730099678040e-01" nType="-99"/>
        </Node>
        <Node pos="r" depth="1" NCoef="0" IVar="1" Cut="5.1476681232452393e-01" cType="1" res="1.5194145031273365e-02" rms="4.5429748296737671e-01" purity="6.6497111320495605e-01" nType="0">
          <Node pos="l" depth="2" NCoef="0" IVar="-1" Cut="0.0000000000000000e+00" cType="1" res="-2.4263802915811539e-03" rms="4.5160415768623352e-01" purity="6.8722975254058838e-01" nType="-99"/>
          <Node pos="r" depth="2" NCoef="0" IVar="-1" Cut="0.0000000000000000e+00" cType="1" res="2.0614874083548784e-03" rms="4.5416015386581421e-01" purity="6.5776479244232178e-01" nType="-99"/>
        </Node>
      </Node>
    </BinaryTree>
    <BinaryTree type="DecisionTree" boostWeight="1.0000000000000000e+00" itree="919">
      <Node pos="s" depth="0" NCoef="0" IVar="3" Cut="1.8495054244995117e+00" cType="1" res="-1.2775329872965813e-02" rms="4.6392938494682312e-01" purity="4.8864799737930298e-01" nType="0">
        <Node pos="l" depth="1" NCoef="0" IVar="6" Cut="2.1002023220062256e+00" cType="1" res="-4.0144207887351513e-03" rms="4.6453475952148438e-01" purity="5.2387195825576782e-01" nType="0">
          <Node pos="l" depth="2" NCoef="0" IVar="-1" Cut="0.0000000000000000e+00" cType="1" res="-3.0261413194239140e-03" rms="4.3218007683753967e-01" purity="2.6230981945991516e-01" nType="-99"/>
          <Node pos="r" depth="2" NCoef="0" IVar="-1" Cut="0.0000000000000000e+00" cType="1" res="1.6193739429581910e-04" rms="4.6880850195884705e-01" purity="5.6279188394546509e-01" nType="-99"/>
        </Node>
        <Node pos="r" depth="1" NCoef="0" IVar="3" Cut="2.0454466342926025e+00" cType="1" res="-4.9310527741909027e-02" rms="4.5959946513175964e-01" purity="3.4175512194633484e-01" nType="0">
          <Node pos="l" depth="2" NCoef="0" IVar="-1" Cut="0.0000000000000000e+00" cType="1" res="-6.6693015396595001e-03" rms="4.6158739924430847e-01" purity="3.3982914686203003e-01" nType="-99"/>
          <Node pos="r" depth="2" NCoef="0" IVar="-1" Cut="0.0000000000000000e+00" cType="1" res="-1.7073552953661419e-05" rms="4.5186573266983032e-01" purity="3.4315329790115356e-01" nType="-99"/>
        </Node>
      </Node>
    </BinaryTree>
    <BinaryTree type="DecisionTree" boostWeight="1.0000000000000000e+00" itree="920">
      <Node pos="s" depth="0" NCoef="0" IVar="2" Cut="5.8053082227706909e-01" cType="1" res="1.2696310877799988e-03" rms="4.6427342295646667e-01" purity="5.0368541479110718e-01" nType="0">
        <Node pos="l" depth="1" NCoef="0" IVar="2" Cut="5.4778790473937988e-01" cType="1" res="1.9832668825984001e-02" rms="4.6060410141944885e-01" purity="4.4895708560943604e-01" nType="0">
          <Node pos="l" depth="2" NCoef="0" IVar="-1" Cut="0.0000000000000000e+00" cType="1" res="4.3426954653114080e-04" rms="4.5867878198623657e-01" purity="4.2584177851676941e-01" nType="-99"/>
          <Node pos="r" depth="2" NCoef="0" IVar="-1" Cut="0.0000000000000000e+00" cType="1" res="5.3788544610142708e-03" rms="4.6472761034965515e-01" purity="5.6065201759338379e-01" nType="-99"/>
        </Node>
        <Node pos="r" depth="1" NCoef="0" IVar="4" Cut="2.7796274516731501e-03" cType="1" res="-1.3674309477210045e-02" rms="4.6667027473449707e-01" purity="5.4774379730224609e-01" nType="0">
          <Node pos="l" depth="2" NCoef="0" IVar="-1" Cut="0.0000000000000000e+00" cType="1" res="-3.1858732108958066e-04" rms="4.6625280380249023e-01" purity="5.7689917087554932e-01" nType="-99"/>
          <Node pos="r" depth="2" NCoef="0" IVar="-1" Cut="0.0000000000000000e+00" cType="1" res="-3.5155385266989470e-03" rms="4.6607965230941772e-01" purity="3.9681270718574524e-01" nType="-99"/>
        </Node>
      </Node>
    </BinaryTree>
    <BinaryTree type="DecisionTree" boostWeight="1.0000000000000000e+00" itree="921">
      <Node pos="s" depth="0" NCoef="0" IVar="6" Cut="5.6880946159362793e+00" cType="1" res="-1.0172617621719837e-03" rms="4.6219253540039062e-01" purity="4.9957236647605896e-01" nType="0">
        <Node pos="l" depth="1" NCoef="0" IVar="1" Cut="1.1574506759643555e+00" cType="1" res="-5.5001946166157722e-03" rms="4.6722942590713501e-01" purity="4.7392213344573975e-01" nType="0">
          <Node pos="l" depth="2" NCoef="0" IVar="-1" Cut="0.0000000000000000e+00" cType="1" res="-1.1195513652637601e-03" rms="4.7139143943786621e-01" purity="5.1160585880279541e-01" nType="-99"/>
          <Node pos="r" depth="2" NCoef="0" IVar="-1" Cut="0.0000000000000000e+00" cType="1" res="8.1423454685136676e-04" rms="4.6031692624092102e-01" purity="4.1755351424217224e-01" nType="-99"/>
        </Node>
        <Node pos="r" depth="1" NCoef="0" IVar="-1" Cut="0.0000000000000000e+00" cType="1" res="4.9175759777426720e-03" rms="3.9272639155387878e-01" purity="8.0775099992752075e-01" nType="-99"/>
      </Node>
    </BinaryTree>
    <BinaryTree type="DecisionTree" boostWeight="1.0000000000000000e+00" itree="922">
      <Node pos="s" depth="0" NCoef="0" IVar="4" Cut="3.6105695180594921e-03" cType="1" res="4.4098780490458012e-03" rms="4.6283146739006042e-01" purity="5.0383871793746948e-01" nType="0">
        <Node pos="l" depth="1" NCoef="0" IVar="3" Cut="1.5947337150573730e+00" cType="1" res="-8.3048664964735508e-04" rms="4.6188646554946899e-01" purity="5.0468873977661133e-01" nType="0">
          <Node pos="l" depth="2" NCoef="0" IVar="-1" Cut="0.0000000000000000e+00" cType="1" res="6.4516591373831034e-04" rms="4.6465596556663513e-01" purity="5.5180370807647705e-01" nType="-99"/>
          <Node pos="r" depth="2" NCoef="0" IVar="-1" Cut="0.0000000000000000e+00" cType="1" res="-1.4914437197148800e-03" rms="4.5507898926734924e-01" purity="4.0400239825248718e-01" nType="-99"/>
        </Node>
        <Node pos="r" depth="1" NCoef="0" IVar="-1" Cut="0.0000000000000000e+00" cType="1" res="5.5528725497424603e-03" rms="4.6981567144393921e-01" purity="4.9027374386787415e-01" nType="-99"/>
      </Node>
    </BinaryTree>
    <BinaryTree type="DecisionTree" boostWeight="1.0000000000000000e+00" itree="923">
      <Node pos="s" depth="0" NCoef="0" IVar="3" Cut="8.8643026351928711e-01" cType="1" res="7.8985607251524925e-03" rms="4.6215185523033142e-01" purity="5.0962048768997192e-01" nType="0">
        <Node pos="l" depth="1" NCoef="0" IVar="3" Cut="7.8377532958984375e-01" cType="1" res="4.5785151422023773e-02" rms="4.5776033401489258e-01" purity="5.7260799407958984e-01" nType="0">
          <Node pos="l" depth="2" NCoef="0" IVar="-1" Cut="0.0000000000000000e+00" cType="1" res="1.7742408672347665e-03" rms="4.6223387122154236e-01" purity="5.5379915237426758e-01" nType="-99"/>
          <Node pos="r" depth="2" NCoef="0" IVar="-1" Cut="0.0000000000000000e+00" cType="1" res="7.2877602651715279e-03" rms="4.3865036964416504e-01" purity="6.3112556934356689e-01" nType="-99"/>
        </Node>
        <Node pos="r" depth="1" NCoef="0" IVar="0" Cut="3.7678968161344528e-02" cType="1" res="-3.6615899298340082e-03" rms="4.6286645531654358e-01" purity="4.9040138721466064e-01" nType="0">
          <Node pos="l" depth="2" NCoef="0" IVar="-1" Cut="0.0000000000000000e+00" cType="1" res="1.2237671762704849e-03" rms="4.6022233366966248e-01" purity="4.2548584938049316e-01" nType="-99"/>
          <Node pos="r" depth="2" NCoef="0" IVar="-1" Cut="0.0000000000000000e+00" cType="1" res="-5.5628595873713493e-04" rms="4.6327728033065796e-01" purity="5.0419175624847412e-01" nType="-99"/>
        </Node>
      </Node>
    </BinaryTree>
    <BinaryTree type="DecisionTree" boostWeight="1.0000000000000000e+00" itree="924">
      <Node pos="s" depth="0" NCoef="0" IVar="4" Cut="8.0934805737342685e-05" cType="1" res="2.6944710407406092e-03" rms="4.6223345398902893e-01" purity="5.0837177038192749e-01" nType="0">
        <Node pos="l" depth="1" NCoef="0" IVar="2" Cut="6.2730658054351807e-01" cType="1" res="5.4399736225605011e-02" rms="4.0843430161476135e-01" purity="7.5501650571823120e-01" nType="0">
          <Node pos="l" depth="2" NCoef="0" IVar="-1" Cut="0.0000000000000000e+00" cType="1" res="2.3498237133026123e-03" rms="4.5500746369361877e-01" purity="6.6709935665130615e-01" nType="-99"/>
          <Node pos="r" depth="2" NCoef="0" IVar="-1" Cut="0.0000000000000000e+00" cType="1" res="7.8069758601486683e-03" rms="3.5472363233566284e-01" purity="8.4243208169937134e-01" nType="-99"/>
        </Node>
        <Node pos="r" depth="1" NCoef="0" IVar="0" Cut="1.8707489967346191e-01" cType="1" res="-3.1406376510858536e-03" rms="4.6755769848823547e-01" purity="4.8053714632987976e-01" nType="0">
          <Node pos="l" depth="2" NCoef="0" IVar="-1" Cut="0.0000000000000000e+00" cType="1" res="7.8336233855225146e-05" rms="4.6724748611450195e-01" purity="4.7150000929832458e-01" nType="-99"/>
          <Node pos="r" depth="2" NCoef="0" IVar="-1" Cut="0.0000000000000000e+00" cType="1" res="-2.6689490769058466e-03" rms="4.6852391958236694e-01" purity="5.5817139148712158e-01" nType="-99"/>
        </Node>
      </Node>
    </BinaryTree>
    <BinaryTree type="DecisionTree" boostWeight="1.0000000000000000e+00" itree="925">
      <Node pos="s" depth="0" NCoef="0" IVar="2" Cut="4.7676876187324524e-01" cType="1" res="1.3369624502956867e-03" rms="4.6521005034446716e-01" purity="5.0415766239166260e-01" nType="0">
        <Node pos="l" depth="1" NCoef="0" IVar="3" Cut="1.1122978925704956e+00" cType="1" res="3.3795259892940521e-02" rms="4.5854631066322327e-01" purity="4.3999284505844116e-01" nType="0">
          <Node pos="l" depth="2" NCoef="0" IVar="-1" Cut="0.0000000000000000e+00" cType="1" res="-1.4094063080847263e-03" rms="4.4324475526809692e-01" purity="4.1706004738807678e-01" nType="-99"/>
          <Node pos="r" depth="2" NCoef="0" IVar="-1" Cut="0.0000000000000000e+00" cType="1" res="4.5323437079787254e-03" rms="4.6418109536170959e-01" purity="4.5382896065711975e-01" nType="-99"/>
        </Node>
        <Node pos="r" depth="1" NCoef="0" IVar="3" Cut="7.6341021060943604e-01" cType="1" res="-7.1147438138723373e-03" rms="4.6655920147895813e-01" purity="5.2086532115936279e-01" nType="0">
          <Node pos="l" depth="2" NCoef="0" IVar="-1" Cut="0.0000000000000000e+00" cType="1" res="2.2127409465610981e-03" rms="4.5539692044258118e-01" purity="5.7883971929550171e-01" nType="-99"/>
          <Node pos="r" depth="2" NCoef="0" IVar="-1" Cut="0.0000000000000000e+00" cType="1" res="-9.9490082357078791e-04" rms="4.6840664744377136e-01" purity="5.0885909795761108e-01" nType="-99"/>
        </Node>
      </Node>
    </BinaryTree>
    <BinaryTree type="DecisionTree" boostWeight="1.0000000000000000e+00" itree="926">
      <Node pos="s" depth="0" NCoef="0" IVar="4" Cut="1.9195405766367912e-03" cType="1" res="1.7345900414511561e-04" rms="4.6307989954948425e-01" purity="5.0469392538070679e-01" nType="0">
        <Node pos="l" depth="1" NCoef="0" IVar="1" Cut="1.8439474105834961e+00" cType="1" res="-1.3311077840626240e-02" rms="4.6206927299499512e-01" purity="5.3331708908081055e-01" nType="0">
          <Node pos="l" depth="2" NCoef="0" IVar="-1" Cut="0.0000000000000000e+00" cType="1" res="-2.2206838184501976e-04" rms="4.6389508247375488e-01" purity="5.7609879970550537e-01" nType="-99"/>
          <Node pos="r" depth="2" NCoef="0" IVar="-1" Cut="0.0000000000000000e+00" cType="1" res="-3.4980077762156725e-03" rms="4.5157963037490845e-01" purity="3.4898903965950012e-01" nType="-99"/>
        </Node>
        <Node pos="r" depth="1" NCoef="0" IVar="5" Cut="5.6435125732421875e+02" cType="1" res="2.8558621183037758e-02" rms="4.6392095088958740e-01" purity="4.4444167613983154e-01" nType="0">
          <Node pos="l" depth="2" NCoef="0" IVar="-1" Cut="0.0000000000000000e+00" cType="1" res="-8.6711754556745291e-04" rms="4.4445541501045227e-01" purity="3.1503060460090637e-01" nType="-99"/>
          <Node pos="r" depth="2" NCoef="0" IVar="-1" Cut="0.0000000000000000e+00" cType="1" res="2.6501729153096676e-03" rms="4.6969267725944519e-01" purity="4.9011284112930298e-01" nType="-99"/>
        </Node>
      </Node>
    </BinaryTree>
    <BinaryTree type="DecisionTree" boostWeight="1.0000000000000000e+00" itree="927">
      <Node pos="s" depth="0" NCoef="0" IVar="6" Cut="2.9346737861633301e+00" cType="1" res="-1.4530110638588667e-03" rms="4.6371847391128540e-01" purity="4.9759709835052490e-01" nType="0">
        <Node pos="l" depth="1" NCoef="0" IVar="4" Cut="2.1099261939525604e-03" cType="1" res="1.9680321216583252e-02" rms="4.6099668741226196e-01" purity="3.5871440172195435e-01" nType="0">
          <Node pos="l" depth="2" NCoef="0" IVar="-1" Cut="0.0000000000000000e+00" cType="1" res="-2.3383132065646350e-04" rms="4.5932900905609131e-01" purity="3.5265257954597473e-01" nType="-99"/>
          <Node pos="r" depth="2" NCoef="0" IVar="-1" Cut="0.0000000000000000e+00" cType="1" res="2.9858248308300972e-03" rms="4.6145519614219666e-01" purity="3.6564624309539795e-01" nType="-99"/>
        </Node>
        <Node pos="r" depth="1" NCoef="0" IVar="6" Cut="4.6324028968811035e+00" cType="1" res="-1.1393681168556213e-02" rms="4.6466097235679626e-01" purity="5.6292456388473511e-01" nType="0">
          <Node pos="l" depth="2" NCoef="0" IVar="-1" Cut="0.0000000000000000e+00" cType="1" res="-1.6307897167280316e-03" rms="4.8159471154212952e-01" purity="4.8157995939254761e-01" nType="-99"/>
          <Node pos="r" depth="2" NCoef="0" IVar="-1" Cut="0.0000000000000000e+00" cType="1" res="1.3695039087906480e-03" rms="4.3040162324905396e-01" purity="7.1195024251937866e-01" nType="-99"/>
        </Node>
      </Node>
    </BinaryTree>
    <BinaryTree type="DecisionTree" boostWeight="1.0000000000000000e+00" itree="928">
      <Node pos="s" depth="0" NCoef="0" IVar="4" Cut="2.7528742793947458e-03" cType="1" res="-9.6284709870815277e-03" rms="4.6429923176765442e-01" purity="4.9336132407188416e-01" nType="0">
        <Node pos="l" depth="1" NCoef="0" IVar="4" Cut="5.8661127695813775e-04" cType="1" res="-1.6617072746157646e-02" rms="4.6361815929412842e-01" purity="5.0382721424102783e-01" nType="0">
          <Node pos="l" depth="2" NCoef="0" IVar="-1" Cut="0.0000000000000000e+00" cType="1" res="2.3325825168285519e-04" rms="4.5574021339416504e-01" purity="6.0166698694229126e-01" nType="-99"/>
          <Node pos="r" depth="2" NCoef="0" IVar="-1" Cut="0.0000000000000000e+00" cType="1" res="-1.8131427932530642e-03" rms="4.6830707788467407e-01" purity="4.3887817859649658e-01" nType="-99"/>
        </Node>
        <Node pos="r" depth="1" NCoef="0" IVar="6" Cut="2.9208645820617676e+00" cType="1" res="2.3674922063946724e-02" rms="4.6609383821487427e-01" purity="4.4348719716072083e-01" nType="0">
          <Node pos="l" depth="2" NCoef="0" IVar="-1" Cut="0.0000000000000000e+00" cType="1" res="-1.0153562761843204e-03" rms="4.5111727714538574e-01" purity="3.1849768757820129e-01" nType="-99"/>
          <Node pos="r" depth="2" NCoef="0" IVar="-1" Cut="0.0000000000000000e+00" cType="1" res="4.0043503977358341e-03" rms="4.7775894403457642e-01" purity="5.7642501592636108e-01" nType="-99"/>
        </Node>
      </Node>
    </BinaryTree>
    <BinaryTree type="DecisionTree" boostWeight="1.0000000000000000e+00" itree="929">
      <Node pos="s" depth="0" NCoef="0" IVar="4" Cut="4.0540957706980407e-04" cType="1" res="1.1174285784363747e-02" rms="4.6414187550544739e-01" purity="5.1288849115371704e-01" nType="0">
        <Node pos="l" depth="1" NCoef="0" IVar="0" Cut="6.4241118729114532e-02" cType="1" res="-1.2576356530189514e-02" rms="4.5243132114410400e-01" purity="6.0545235872268677e-01" nType="0">
          <Node pos="l" depth="2" NCoef="0" IVar="-1" Cut="0.0000000000000000e+00" cType="1" res="2.3036892525851727e-03" rms="4.4909369945526123e-01" purity="5.9055423736572266e-01" nType="-99"/>
          <Node pos="r" depth="2" NCoef="0" IVar="-1" Cut="0.0000000000000000e+00" cType="1" res="-2.8316050302237272e-03" rms="4.5224213600158691e-01" purity="6.1366480588912964e-01" nType="-99"/>
        </Node>
        <Node pos="r" depth="1" NCoef="0" IVar="3" Cut="7.6502937078475952e-01" cType="1" res="2.0372485741972923e-02" rms="4.6827504038810730e-01" purity="4.7704011201858521e-01" nType="0">
          <Node pos="l" depth="2" NCoef="0" IVar="-1" Cut="0.0000000000000000e+00" cType="1" res="3.9375829510390759e-03" rms="4.7182473540306091e-01" purity="5.4362225532531738e-01" nType="-99"/>
          <Node pos="r" depth="2" NCoef="0" IVar="-1" Cut="0.0000000000000000e+00" cType="1" res="7.4494344880804420e-04" rms="4.6709319949150085e-01" purity="4.6351918578147888e-01" nType="-99"/>
        </Node>
      </Node>
    </BinaryTree>
    <BinaryTree type="DecisionTree" boostWeight="1.0000000000000000e+00" itree="930">
      <Node pos="s" depth="0" NCoef="0" IVar="6" Cut="3.9839181900024414e+00" cType="1" res="-8.1665692850947380e-03" rms="4.6570217609405518e-01" purity="4.9098122119903564e-01" nType="0">
        <Node pos="l" depth="1" NCoef="0" IVar="4" Cut="2.4412396305706352e-04" cType="1" res="4.9699973315000534e-03" rms="4.6780231595039368e-01" purity="4.0652588009834290e-01" nType="0">
          <Node pos="l" depth="2" NCoef="0" IVar="-1" Cut="0.0000000000000000e+00" cType="1" res="4.4772508554160595e-03" rms="4.5736259222030640e-01" purity="5.5556082725524902e-01" nType="-99"/>
          <Node pos="r" depth="2" NCoef="0" IVar="-1" Cut="0.0000000000000000e+00" cType="1" res="-1.2045566109009087e-04" rms="4.6843773126602173e-01" purity="3.8991677761077881e-01" nType="-99"/>
        </Node>
        <Node pos="r" depth="1" NCoef="0" IVar="6" Cut="4.3221092224121094e+00" cType="1" res="-2.8064798563718796e-02" rms="4.6179172396659851e-01" purity="6.1890751123428345e-01" nType="0">
          <Node pos="l" depth="2" NCoef="0" IVar="-1" Cut="0.0000000000000000e+00" cType="1" res="-5.6361095048487186e-03" rms="4.8731377720832825e-01" purity="4.6064612269401550e-01" nType="-99"/>
          <Node pos="r" depth="2" NCoef="0" IVar="-1" Cut="0.0000000000000000e+00" cType="1" res="-6.8247545277699828e-04" rms="4.5296737551689148e-01" purity="6.6073268651962280e-01" nType="-99"/>
        </Node>
      </Node>
    </BinaryTree>
    <BinaryTree type="DecisionTree" boostWeight="1.0000000000000000e+00" itree="931">
      <Node pos="s" depth="0" NCoef="0" IVar="1" Cut="2.3215331137180328e-01" cType="1" res="-3.2987515442073345e-03" rms="4.6330514550209045e-01" purity="5.0294548273086548e-01" nType="0">
        <Node pos="l" depth="1" NCoef="0" IVar="-1" Cut="0.0000000000000000e+00" cType="1" res="-4.1646044701337814e-03" rms="4.6123141050338745e-01" purity="5.1979017257690430e-01" nType="-99"/>
        <Node pos="r" depth="1" NCoef="0" IVar="3" Cut="8.7814098596572876e-01" cType="1" res="2.1277875639498234e-03" rms="4.6309706568717957e-01" purity="5.0145548582077026e-01" nType="0">
          <Node pos="l" depth="2" NCoef="0" IVar="-1" Cut="0.0000000000000000e+00" cType="1" res="-1.8964721821248531e-03" rms="4.5860752463340759e-01" purity="4.8905500769615173e-01" nType="-99"/>
          <Node pos="r" depth="2" NCoef="0" IVar="-1" Cut="0.0000000000000000e+00" cType="1" res="8.0161087680608034e-04" rms="4.6404519677162170e-01" purity="5.0537914037704468e-01" nType="-99"/>
        </Node>
      </Node>
    </BinaryTree>
    <BinaryTree type="DecisionTree" boostWeight="1.0000000000000000e+00" itree="932">
      <Node pos="s" depth="0" NCoef="0" IVar="1" Cut="9.4759768247604370e-01" cType="1" res="-4.5069600455462933e-03" rms="4.6669325232505798e-01" purity="4.9579405784606934e-01" nType="0">
        <Node pos="l" depth="1" NCoef="0" IVar="4" Cut="1.5823608555365354e-04" cType="1" res="-2.4822745472192764e-02" rms="4.7280773520469666e-01" purity="5.4076808691024780e-01" nType="0">
          <Node pos="l" depth="2" NCoef="0" IVar="-1" Cut="0.0000000000000000e+00" cType="1" res="2.1745294798165560e-03" rms="4.1778865456581116e-01" purity="7.4004155397415161e-01" nType="-99"/>
          <Node pos="r" depth="2" NCoef="0" IVar="-1" Cut="0.0000000000000000e+00" cType="1" res="-2.1036840043962002e-03" rms="4.8139420151710510e-01" purity="5.0528919696807861e-01" nType="-99"/>
        </Node>
        <Node pos="r" depth="1" NCoef="0" IVar="2" Cut="5.0584989786148071e-01" cType="1" res="1.5107032842934132e-02" rms="4.5986226201057434e-01" purity="4.5237359404563904e-01" nType="0">
          <Node pos="l" depth="2" NCoef="0" IVar="-1" Cut="0.0000000000000000e+00" cType="1" res="-6.3833402236923575e-04" rms="4.4912976026535034e-01" purity="3.5230988264083862e-01" nType="-99"/>
          <Node pos="r" depth="2" NCoef="0" IVar="-1" Cut="0.0000000000000000e+00" cType="1" res="1.8589781830087304e-03" rms="4.6503970026969910e-01" purity="5.0703799724578857e-01" nType="-99"/>
        </Node>
      </Node>
    </BinaryTree>
    <BinaryTree type="DecisionTree" boostWeight="1.0000000000000000e+00" itree="933">
      <Node pos="s" depth="0" NCoef="0" IVar="6" Cut="1.9397077560424805e+00" cType="1" res="3.5434903111308813e-03" rms="4.6545353531837463e-01" purity="5.0876581668853760e-01" nType="0">
        <Node pos="l" depth="1" NCoef="0" IVar="-1" Cut="0.0000000000000000e+00" cType="1" res="4.1245040483772755e-03" rms="4.6584588289260864e-01" purity="3.5122531652450562e-01" nType="-99"/>
        <Node pos="r" depth="1" NCoef="0" IVar="3" Cut="1.0754294395446777e+00" cType="1" res="-1.7692360561341047e-03" rms="4.6507263183593750e-01" purity="5.2405959367752075e-01" nType="0">
          <Node pos="l" depth="2" NCoef="0" IVar="-1" Cut="0.0000000000000000e+00" cType="1" res="-1.5311419265344739e-03" rms="4.6831604838371277e-01" purity="5.4669845104217529e-01" nType="-99"/>
          <Node pos="r" depth="2" NCoef="0" IVar="-1" Cut="0.0000000000000000e+00" cType="1" res="6.5449328394606709e-04" rms="4.6283769607543945e-01" purity="5.1163107156753540e-01" nType="-99"/>
        </Node>
      </Node>
    </BinaryTree>
    <BinaryTree type="DecisionTree" boostWeight="1.0000000000000000e+00" itree="934">
      <Node pos="s" depth="0" NCoef="0" IVar="0" Cut="6.0437094420194626e-02" cType="1" res="-4.4851684942841530e-03" rms="4.6208029985427856e-01" purity="4.9617883563041687e-01" nType="0">
        <Node pos="l" depth="1" NCoef="0" IVar="2" Cut="4.2717972397804260e-01" cType="1" res="-2.3419110104441643e-02" rms="4.5915928483009338e-01" purity="4.1660872101783752e-01" nType="0">
          <Node pos="l" depth="2" NCoef="0" IVar="-1" Cut="0.0000000000000000e+00" cType="1" res="1.1531198397278786e-03" rms="4.5236298441886902e-01" purity="3.9656555652618408e-01" nType="-99"/>
          <Node pos="r" depth="2" NCoef="0" IVar="-1" Cut="0.0000000000000000e+00" cType="1" res="-2.3689654190093279e-03" rms="4.6072828769683838e-01" purity="4.2416062951087952e-01" nType="-99"/>
        </Node>
        <Node pos="r" depth="1" NCoef="0" IVar="4" Cut="2.4412997299805284e-04" cType="1" res="7.0812813937664032e-03" rms="4.6347522735595703e-01" purity="5.4478698968887329e-01" nType="0">
          <Node pos="l" depth="2" NCoef="0" IVar="-1" Cut="0.0000000000000000e+00" cType="1" res="-1.8537924624979496e-03" rms="4.4613870978355408e-01" purity="6.4154297113418579e-01" nType="-99"/>
          <Node pos="r" depth="2" NCoef="0" IVar="-1" Cut="0.0000000000000000e+00" cType="1" res="9.8485790658742189e-04" rms="4.6770188212394714e-01" purity="5.1855307817459106e-01" nType="-99"/>
        </Node>
      </Node>
    </BinaryTree>
    <BinaryTree type="DecisionTree" boostWeight="1.0000000000000000e+00" itree="935">
      <Node pos="s" depth="0" NCoef="0" IVar="0" Cut="2.0129081606864929e-01" cType="1" res="-2.4945847690105438e-03" rms="4.6066015958786011e-01" purity="5.0185841321945190e-01" nType="0">
        <Node pos="l" depth="1" NCoef="0" IVar="4" Cut="2.3208493366837502e-03" cType="1" res="3.3485526219010353e-03" rms="4.5994105935096741e-01" purity="4.9650099873542786e-01" nType="0">
          <Node pos="l" depth="2" NCoef="0" IVar="-1" Cut="0.0000000000000000e+00" cType="1" res="9.1292598517611623e-04" rms="4.5991516113281250e-01" purity="5.3640455007553101e-01" nType="-99"/>
          <Node pos="r" depth="2" NCoef="0" IVar="-1" Cut="0.0000000000000000e+00" cType="1" res="-1.7460698727518320e-03" rms="4.5848700404167175e-01" purity="3.7272474169731140e-01" nType="-99"/>
        </Node>
        <Node pos="r" depth="1" NCoef="0" IVar="-1" Cut="0.0000000000000000e+00" cType="1" res="-4.2316410690546036e-03" rms="4.6373248100280762e-01" purity="5.5737400054931641e-01" nType="-99"/>
      </Node>
    </BinaryTree>
    <BinaryTree type="DecisionTree" boostWeight="1.0000000000000000e+00" itree="936">
      <Node pos="s" depth="0" NCoef="0" IVar="4" Cut="1.2804555008187890e-03" cType="1" res="-3.4496334847062826e-03" rms="4.6873128414154053e-01" purity="4.9923235177993774e-01" nType="0">
        <Node pos="l" depth="1" NCoef="0" IVar="0" Cut="1.6094419360160828e-01" cType="1" res="-2.0617865025997162e-02" rms="4.6608760952949524e-01" purity="5.4428988695144653e-01" nType="0">
          <Node pos="l" depth="2" NCoef="0" IVar="-1" Cut="0.0000000000000000e+00" cType="1" res="-5.2989885443821549e-04" rms="4.6475139260292053e-01" purity="5.4002410173416138e-01" nType="-99"/>
          <Node pos="r" depth="2" NCoef="0" IVar="-1" Cut="0.0000000000000000e+00" cType="1" res="-5.6876963935792446e-03" rms="4.6773928403854370e-01" purity="5.6474351882934570e-01" nType="-99"/>
        </Node>
        <Node pos="r" depth="1" NCoef="0" IVar="5" Cut="6.8581542968750000e+02" cType="1" res="1.7448795959353447e-02" rms="4.7108578681945801e-01" purity="4.4438505172729492e-01" nType="0">
          <Node pos="l" depth="2" NCoef="0" IVar="-1" Cut="0.0000000000000000e+00" cType="1" res="2.5490380357950926e-03" rms="4.6235105395317078e-01" purity="4.1628015041351318e-01" nType="-99"/>
          <Node pos="r" depth="2" NCoef="0" IVar="-1" Cut="0.0000000000000000e+00" cType="1" res="-2.5157188065350056e-04" rms="4.7845789790153503e-01" purity="4.7179225087165833e-01" nType="-99"/>
        </Node>
      </Node>
    </BinaryTree>
    <BinaryTree type="DecisionTree" boostWeight="1.0000000000000000e+00" itree="937">
      <Node pos="s" depth="0" NCoef="0" IVar="3" Cut="2.3103506565093994e+00" cType="1" res="-7.6425778679549694e-03" rms="4.6207755804061890e-01" purity="4.9328941106796265e-01" nType="0">
        <Node pos="l" depth="1" NCoef="0" IVar="2" Cut="6.4647108316421509e-01" cType="1" res="-4.9771121703088284e-03" rms="4.6580809354782104e-01" purity="5.0935846567153931e-01" nType="0">
          <Node pos="l" depth="2" NCoef="0" IVar="-1" Cut="0.0000000000000000e+00" cType="1" res="4.1240180144086480e-04" rms="4.6743264794349670e-01" purity="4.7223961353302002e-01" nType="-99"/>
          <Node pos="r" depth="2" NCoef="0" IVar="-1" Cut="0.0000000000000000e+00" cType="1" res="-1.4207435306161642e-03" rms="4.6297878026962280e-01" purity="5.6235826015472412e-01" nType="-99"/>
        </Node>
        <Node pos="r" depth="1" NCoef="0" IVar="-1" Cut="0.0000000000000000e+00" cType="1" res="-3.4410147927701473e-03" rms="3.9358663558959961e-01" purity="2.3058670759201050e-01" nType="-99"/>
      </Node>
    </BinaryTree>
    <BinaryTree type="DecisionTree" boostWeight="1.0000000000000000e+00" itree="938">
      <Node pos="s" depth="0" NCoef="0" IVar="6" Cut="5.1802597045898438e+00" cType="1" res="-1.3937454787082970e-04" rms="4.6244040131568909e-01" purity="5.0436085462570190e-01" nType="0">
        <Node pos="l" depth="1" NCoef="0" IVar="2" Cut="4.6093770861625671e-01" cType="1" res="-6.7792437039315701e-03" rms="4.7016915678977966e-01" purity="4.6012049913406372e-01" nType="0">
          <Node pos="l" depth="2" NCoef="0" IVar="-1" Cut="0.0000000000000000e+00" cType="1" res="-2.3589534685015678e-03" rms="4.5139068365097046e-01" purity="3.2593488693237305e-01" nType="-99"/>
          <Node pos="r" depth="2" NCoef="0" IVar="-1" Cut="0.0000000000000000e+00" cType="1" res="3.3146367059089243e-05" rms="4.7405791282653809e-01" purity="4.9081805348396301e-01" nType="-99"/>
        </Node>
        <Node pos="r" depth="1" NCoef="0" IVar="3" Cut="1.5036736726760864e+00" cType="1" res="3.8600474596023560e-02" rms="4.1235789656639099e-01" purity="7.6247805356979370e-01" nType="0">
          <Node pos="l" depth="2" NCoef="0" IVar="-1" Cut="0.0000000000000000e+00" cType="1" res="1.9966759718954563e-03" rms="4.0411847829818726e-01" purity="7.8220391273498535e-01" nType="-99"/>
          <Node pos="r" depth="2" NCoef="0" IVar="-1" Cut="0.0000000000000000e+00" cType="1" res="4.8725446686148643e-03" rms="4.2508959770202637e-01" purity="7.2746163606643677e-01" nType="-99"/>
        </Node>
      </Node>
    </BinaryTree>
    <BinaryTree type="DecisionTree" boostWeight="1.0000000000000000e+00" itree="939">
      <Node pos="s" depth="0" NCoef="0" IVar="0" Cut="7.2140455245971680e-02" cType="1" res="5.8054295368492603e-03" rms="4.6323233842849731e-01" purity="5.0807410478591919e-01" nType="0">
        <Node pos="l" depth="1" NCoef="0" IVar="6" Cut="4.9844770431518555e+00" cType="1" res="2.1493496373295784e-02" rms="4.6240693330764771e-01" purity="4.7039702534675598e-01" nType="0">
          <Node pos="l" depth="2" NCoef="0" IVar="-1" Cut="0.0000000000000000e+00" cType="1" res="1.9669043831527233e-03" rms="4.6377921104431152e-01" purity="4.3504521250724792e-01" nType="-99"/>
          <Node pos="r" depth="2" NCoef="0" IVar="-1" Cut="0.0000000000000000e+00" cType="1" res="-1.6384450718760490e-03" rms="4.5317679643630981e-01" purity="6.3598847389221191e-01" nType="-99"/>
        </Node>
        <Node pos="r" depth="1" NCoef="0" IVar="2" Cut="6.4265519380569458e-01" cType="1" res="-6.7436401732265949e-03" rms="4.6350944042205811e-01" purity="5.3821241855621338e-01" nType="0">
          <Node pos="l" depth="2" NCoef="0" IVar="-1" Cut="0.0000000000000000e+00" cType="1" res="-1.6253155190497637e-03" rms="4.6260726451873779e-01" purity="4.5673546195030212e-01" nType="-99"/>
          <Node pos="r" depth="2" NCoef="0" IVar="-1" Cut="0.0000000000000000e+00" cType="1" res="6.6750211408361793e-04" rms="4.6363317966461182e-01" purity="6.0681933164596558e-01" nType="-99"/>
        </Node>
      </Node>
    </BinaryTree>
    <BinaryTree type="DecisionTree" boostWeight="1.0000000000000000e+00" itree="940">
      <Node pos="s" depth="0" NCoef="0" IVar="3" Cut="7.6791167259216309e-01" cType="1" res="-1.1079325340688229e-03" rms="4.6419447660446167e-01" purity="5.0042366981506348e-01" nType="0">
        <Node pos="l" depth="1" NCoef="0" IVar="0" Cut="1.1736676096916199e-01" cType="1" res="-2.9630182310938835e-02" rms="4.6645793318748474e-01" purity="5.0134366750717163e-01" nType="0">
          <Node pos="l" depth="2" NCoef="0" IVar="-1" Cut="0.0000000000000000e+00" cType="1" res="-3.0836561927571893e-04" rms="4.6199846267700195e-01" purity="5.0389206409454346e-01" nType="-99"/>
          <Node pos="r" depth="2" NCoef="0" IVar="-1" Cut="0.0000000000000000e+00" cType="1" res="-5.9663369320333004e-03" rms="4.7181281447410583e-01" purity="4.9483802914619446e-01" nType="-99"/>
        </Node>
        <Node pos="r" depth="1" NCoef="0" IVar="0" Cut="1.2347182631492615e-01" cType="1" res="5.1365420222282410e-03" rms="4.6346330642700195e-01" purity="5.0022220611572266e-01" nType="0">
          <Node pos="l" depth="2" NCoef="0" IVar="-1" Cut="0.0000000000000000e+00" cType="1" res="-4.1586140287108719e-04" rms="4.6549662947654724e-01" purity="4.6063414216041565e-01" nType="-99"/>
          <Node pos="r" depth="2" NCoef="0" IVar="-1" Cut="0.0000000000000000e+00" cType="1" res="2.3962215054780245e-03" rms="4.5681545138359070e-01" purity="6.0221004486083984e-01" nType="-99"/>
        </Node>
      </Node>
    </BinaryTree>
    <BinaryTree type="DecisionTree" boostWeight="1.0000000000000000e+00" itree="941">
      <Node pos="s" depth="0" NCoef="0" IVar="6" Cut="1.9215363264083862e+00" cType="1" res="-7.6548177748918533e-03" rms="4.6141767501831055e-01" purity="4.9567344784736633e-01" nType="0">
        <Node pos="l" depth="1" NCoef="0" IVar="-1" Cut="0.0000000000000000e+00" cType="1" res="-3.6155458074063063e-03" rms="4.1711658239364624e-01" purity="2.3759573698043823e-01" nType="-99"/>
        <Node pos="r" depth="1" NCoef="0" IVar="2" Cut="7.0608550310134888e-01" cType="1" res="-2.4042061995714903e-03" rms="4.6584421396255493e-01" purity="5.2469903230667114e-01" nType="0">
          <Node pos="l" depth="2" NCoef="0" IVar="-1" Cut="0.0000000000000000e+00" cType="1" res="-6.5532117150723934e-04" rms="4.7086894512176514e-01" purity="4.7656556963920593e-01" nType="-99"/>
          <Node pos="r" depth="2" NCoef="0" IVar="-1" Cut="0.0000000000000000e+00" cType="1" res="1.4685619389638305e-03" rms="4.5048388838768005e-01" purity="6.6120135784149170e-01" nType="-99"/>
        </Node>
      </Node>
    </BinaryTree>
    <BinaryTree type="DecisionTree" boostWeight="1.0000000000000000e+00" itree="942">
      <Node pos="s" depth="0" NCoef="0" IVar="6" Cut="5.4321951866149902e+00" cType="1" res="-3.2774999272078276e-03" rms="4.6630766987800598e-01" purity="4.9731254577636719e-01" nType="0">
        <Node pos="l" depth="1" NCoef="0" IVar="6" Cut="4.2015724182128906e+00" cType="1" res="4.0636453777551651e-03" rms="4.6865865588188171e-01" purity="4.7444269061088562e-01" nType="0">
          <Node pos="l" depth="2" NCoef="0" IVar="-1" Cut="0.0000000000000000e+00" cType="1" res="-3.6658157478086650e-04" rms="4.7369140386581421e-01" purity="4.1060081124305725e-01" nType="-99"/>
          <Node pos="r" depth="2" NCoef="0" IVar="-1" Cut="0.0000000000000000e+00" cType="1" res="2.1720973309129477e-03" rms="4.5315989851951599e-01" purity="6.5237408876419067e-01" nType="-99"/>
        </Node>
        <Node pos="r" depth="1" NCoef="0" IVar="3" Cut="1.2081035375595093e+00" cType="1" res="-6.2077622860670090e-02" rms="4.4266003370285034e-01" purity="6.8049234151840210e-01" nType="0">
          <Node pos="l" depth="2" NCoef="0" IVar="-1" Cut="0.0000000000000000e+00" cType="1" res="-5.2295916248112917e-04" rms="4.0735858678817749e-01" purity="7.7151679992675781e-01" nType="-99"/>
          <Node pos="r" depth="2" NCoef="0" IVar="-1" Cut="0.0000000000000000e+00" cType="1" res="-8.4291612729430199e-03" rms="4.6610894799232483e-01" purity="5.9952622652053833e-01" nType="-99"/>
        </Node>
      </Node>
    </BinaryTree>
    <BinaryTree type="DecisionTree" boostWeight="1.0000000000000000e+00" itree="943">
      <Node pos="s" depth="0" NCoef="0" IVar="3" Cut="1.9474052190780640e+00" cType="1" res="-5.7577262632548809e-03" rms="4.6527075767517090e-01" purity="4.9351564049720764e-01" nType="0">
        <Node pos="l" depth="1" NCoef="0" IVar="2" Cut="8.1716090440750122e-01" cType="1" res="-1.2946384027600288e-02" rms="4.6712261438369751e-01" purity="5.0835210084915161e-01" nType="0">
          <Node pos="l" depth="2" NCoef="0" IVar="-1" Cut="0.0000000000000000e+00" cType="1" res="-4.4139154488220811e-04" rms="4.6658110618591309e-01" purity="4.9685749411582947e-01" nType="-99"/>
          <Node pos="r" depth="2" NCoef="0" IVar="-1" Cut="0.0000000000000000e+00" cType="1" res="-4.6122632920742035e-03" rms="4.6861845254898071e-01" purity="6.0832458734512329e-01" nType="-99"/>
        </Node>
        <Node pos="r" depth="1" NCoef="0" IVar="3" Cut="2.2701542377471924e+00" cType="1" res="3.9393454790115356e-02" rms="4.5085328817367554e-01" purity="4.0032902359962463e-01" nType="0">
          <Node pos="l" depth="2" NCoef="0" IVar="-1" Cut="0.0000000000000000e+00" cType="1" res="4.8482632264494896e-03" rms="4.5929586887359619e-01" purity="4.6836611628532410e-01" nType="-99"/>
          <Node pos="r" depth="2" NCoef="0" IVar="-1" Cut="0.0000000000000000e+00" cType="1" res="-7.2257692227140069e-04" rms="4.3282553553581238e-01" purity="2.9633027315139771e-01" nType="-99"/>
        </Node>
      </Node>
    </BinaryTree>
    <BinaryTree type="DecisionTree" boostWeight="1.0000000000000000e+00" itree="944">
      <Node pos="s" depth="0" NCoef="0" IVar="1" Cut="4.2008936405181885e-01" cType="1" res="5.6190295144915581e-03" rms="4.6326640248298645e-01" purity="5.0780618190765381e-01" nType="0">
        <Node pos="l" depth="1" NCoef="0" IVar="2" Cut="7.4051988124847412e-01" cType="1" res="4.5657563954591751e-02" rms="4.4435143470764160e-01" purity="6.2247765064239502e-01" nType="0">
          <Node pos="l" depth="2" NCoef="0" IVar="-1" Cut="0.0000000000000000e+00" cType="1" res="1.4044956769794226e-03" rms="4.5661693811416626e-01" purity="5.6624835729598999e-01" nType="-99"/>
          <Node pos="r" depth="2" NCoef="0" IVar="-1" Cut="0.0000000000000000e+00" cType="1" res="7.4709812179207802e-03" rms="4.1152471303939819e-01" purity="7.4546056985855103e-01" nType="-99"/>
        </Node>
        <Node pos="r" depth="1" NCoef="0" IVar="6" Cut="5.7815771102905273e+00" cType="1" res="-2.7761033270508051e-03" rms="4.6669989824295044e-01" purity="4.8376226425170898e-01" nType="0">
          <Node pos="l" depth="2" NCoef="0" IVar="-1" Cut="0.0000000000000000e+00" cType="1" res="-4.7051050933077931e-04" rms="4.7207921743392944e-01" purity="4.6025362610816956e-01" nType="-99"/>
          <Node pos="r" depth="2" NCoef="0" IVar="-1" Cut="0.0000000000000000e+00" cType="1" res="5.8516920544207096e-03" rms="3.7590557336807251e-01" purity="8.1743168830871582e-01" nType="-99"/>
        </Node>
      </Node>
    </BinaryTree>
    <BinaryTree type="DecisionTree" boostWeight="1.0000000000000000e+00" itree="945">
      <Node pos="s" depth="0" NCoef="0" IVar="5" Cut="1.3361715087890625e+03" cType="1" res="-1.1814430356025696e-02" rms="4.6619078516960144e-01" purity="4.8660284280776978e-01" nType="0">
        <Node pos="l" depth="1" NCoef="0" IVar="0" Cut="1.9002968072891235e-01" cType="1" res="-7.5457291677594185e-03" rms="4.6506458520889282e-01" purity="4.8690193891525269e-01" nType="0">
          <Node pos="l" depth="2" NCoef="0" IVar="-1" Cut="0.0000000000000000e+00" cType="1" res="-8.4234430687502027e-04" rms="4.6637672185897827e-01" purity="4.6744859218597412e-01" nType="-99"/>
          <Node pos="r" depth="2" NCoef="0" IVar="-1" Cut="0.0000000000000000e+00" cType="1" res="3.1630916055291891e-03" rms="4.4993755221366882e-01" purity="6.5982532501220703e-01" nType="-99"/>
        </Node>
        <Node pos="r" depth="1" NCoef="0" IVar="-1" Cut="0.0000000000000000e+00" cType="1" res="-5.3467433899641037e-03" rms="4.7947582602500916e-01" purity="4.8128375411033630e-01" nType="-99"/>
      </Node>
    </BinaryTree>
    <BinaryTree type="DecisionTree" boostWeight="1.0000000000000000e+00" itree="946">
      <Node pos="s" depth="0" NCoef="0" IVar="4" Cut="3.3987739589065313e-03" cType="1" res="4.6728197485208511e-03" rms="4.6682816743850708e-01" purity="5.0805491209030151e-01" nType="0">
        <Node pos="l" depth="1" NCoef="0" IVar="0" Cut="1.9937984645366669e-01" cType="1" res="7.5979885878041387e-04" rms="4.6569222211837769e-01" purity="5.1338601112365723e-01" nType="0">
          <Node pos="l" depth="2" NCoef="0" IVar="-1" Cut="0.0000000000000000e+00" cType="1" res="2.7337030041962862e-04" rms="4.6546581387519836e-01" purity="5.0481891632080078e-01" nType="-99"/>
          <Node pos="r" depth="2" NCoef="0" IVar="-1" Cut="0.0000000000000000e+00" cType="1" res="-2.4687065742909908e-03" rms="4.6652626991271973e-01" purity="6.0046231746673584e-01" nType="-99"/>
        </Node>
        <Node pos="r" depth="1" NCoef="0" IVar="-1" Cut="0.0000000000000000e+00" cType="1" res="3.1852610409259796e-03" rms="4.7745960950851440e-01" purity="4.4629693031311035e-01" nType="-99"/>
      </Node>
    </BinaryTree>
    <BinaryTree type="DecisionTree" boostWeight="1.0000000000000000e+00" itree="947">
      <Node pos="s" depth="0" NCoef="0" IVar="3" Cut="6.3547998666763306e-01" cType="1" res="-3.3122000750154257e-03" rms="4.6701997518539429e-01" purity="5.0043338537216187e-01" nType="0">
        <Node pos="l" depth="1" NCoef="0" IVar="-1" Cut="0.0000000000000000e+00" cType="1" res="3.5987887531518936e-03" rms="4.6381747722625732e-01" purity="5.6268221139907837e-01" nType="-99"/>
        <Node pos="r" depth="1" NCoef="0" IVar="6" Cut="2.2919178009033203e+00" cType="1" res="-8.9342165738344193e-03" rms="4.6692562103271484e-01" purity="4.9458673596382141e-01" nType="0">
          <Node pos="l" depth="2" NCoef="0" IVar="-1" Cut="0.0000000000000000e+00" cType="1" res="2.1000970155000687e-03" rms="4.5735895633697510e-01" purity="3.3398777246475220e-01" nType="-99"/>
          <Node pos="r" depth="2" NCoef="0" IVar="-1" Cut="0.0000000000000000e+00" cType="1" res="-1.0571987368166447e-03" rms="4.6835649013519287e-01" purity="5.2549064159393311e-01" nType="-99"/>
        </Node>
      </Node>
    </BinaryTree>
    <BinaryTree type="DecisionTree" boostWeight="1.0000000000000000e+00" itree="948">
      <Node pos="s" depth="0" NCoef="0" IVar="5" Cut="5.4750891113281250e+02" cType="1" res="2.7241476345807314e-03" rms="4.6728196740150452e-01" purity="5.0529581308364868e-01" nType="0">
        <Node pos="l" depth="1" NCoef="0" IVar="0" Cut="1.2382117658853531e-01" cType="1" res="3.5352662205696106e-02" rms="4.6433365345001221e-01" purity="4.3674263358116150e-01" nType="0">
          <Node pos="l" depth="2" NCoef="0" IVar="-1" Cut="0.0000000000000000e+00" cType="1" res="3.6667543463408947e-03" rms="4.5857784152030945e-01" purity="4.0053224563598633e-01" nType="-99"/>
          <Node pos="r" depth="2" NCoef="0" IVar="-1" Cut="0.0000000000000000e+00" cType="1" res="4.6972100972197950e-04" rms="4.7091376781463623e-01" purity="4.8764553666114807e-01" nType="-99"/>
        </Node>
        <Node pos="r" depth="1" NCoef="0" IVar="5" Cut="8.5183142089843750e+02" cType="1" res="-6.8427384831011295e-03" rms="4.6771156787872314e-01" purity="5.2539598941802979e-01" nType="0">
          <Node pos="l" depth="2" NCoef="0" IVar="-1" Cut="0.0000000000000000e+00" cType="1" res="-1.3509286800399423e-03" rms="4.6753472089767456e-01" purity="4.9655878543853760e-01" nType="-99"/>
          <Node pos="r" depth="2" NCoef="0" IVar="-1" Cut="0.0000000000000000e+00" cType="1" res="1.1839702492579818e-03" rms="4.6696794033050537e-01" purity="5.7526665925979614e-01" nType="-99"/>
        </Node>
      </Node>
    </BinaryTree>
    <BinaryTree type="DecisionTree" boostWeight="1.0000000000000000e+00" itree="949">
      <Node pos="s" depth="0" NCoef="0" IVar="5" Cut="5.4607995605468750e+02" cType="1" res="5.7669407688081264e-03" rms="4.6196836233139038e-01" purity="5.0187760591506958e-01" nType="0">
        <Node pos="l" depth="1" NCoef="0" IVar="3" Cut="1.6887885332107544e+00" cType="1" res="-2.5136802345514297e-02" rms="4.5131793618202209e-01" purity="3.8157105445861816e-01" nType="0">
          <Node pos="l" depth="2" NCoef="0" IVar="-1" Cut="0.0000000000000000e+00" cType="1" res="-2.9200175777077675e-03" rms="4.5316737890243530e-01" purity="3.8582703471183777e-01" nType="-99"/>
          <Node pos="r" depth="2" NCoef="0" IVar="-1" Cut="0.0000000000000000e+00" cType="1" res="1.9256703089922667e-03" rms="4.4225102663040161e-01" purity="3.7115490436553955e-01" nType="-99"/>
        </Node>
        <Node pos="r" depth="1" NCoef="0" IVar="0" Cut="5.6706793606281281e-02" cType="1" res="1.4940364286303520e-02" rms="4.6468746662139893e-01" purity="5.3758925199508667e-01" nType="0">
          <Node pos="l" depth="2" NCoef="0" IVar="-1" Cut="0.0000000000000000e+00" cType="1" res="-9.5611430879216641e-05" rms="4.6657806634902954e-01" purity="4.5692741870880127e-01" nType="-99"/>
          <Node pos="r" depth="2" NCoef="0" IVar="-1" Cut="0.0000000000000000e+00" cType="1" res="1.6963846283033490e-03" rms="4.6315848827362061e-01" purity="5.8943718671798706e-01" nType="-99"/>
        </Node>
      </Node>
    </BinaryTree>
    <BinaryTree type="DecisionTree" boostWeight="1.0000000000000000e+00" itree="950">
      <Node pos="s" depth="0" NCoef="0" IVar="4" Cut="2.8009973466396332e-03" cType="1" res="-1.0163264349102974e-02" rms="4.6209681034088135e-01" purity="4.8991242051124573e-01" nType="0">
        <Node pos="l" depth="1" NCoef="0" IVar="1" Cut="1.2792693376541138e+00" cType="1" res="-1.7469227313995361e-03" rms="4.6311825513839722e-01" purity="5.1830869913101196e-01" nType="0">
          <Node pos="l" depth="2" NCoef="0" IVar="-1" Cut="0.0000000000000000e+00" cType="1" res="-8.2317832857370377e-04" rms="4.6403676271438599e-01" purity="5.5535042285919189e-01" nType="-99"/>
          <Node pos="r" depth="2" NCoef="0" IVar="-1" Cut="0.0000000000000000e+00" cType="1" res="1.1298171011731029e-03" rms="4.6077781915664673e-01" purity="4.5046314597129822e-01" nType="-99"/>
        </Node>
        <Node pos="r" depth="1" NCoef="0" IVar="0" Cut="1.1663547158241272e-01" cType="1" res="-4.8812735825777054e-02" rms="4.5538395643234253e-01" purity="3.5951116681098938e-01" nType="0">
          <Node pos="l" depth="2" NCoef="0" IVar="-1" Cut="0.0000000000000000e+00" cType="1" res="-1.6729782801121473e-03" rms="4.5470118522644043e-01" purity="3.4858044981956482e-01" nType="-99"/>
          <Node pos="r" depth="2" NCoef="0" IVar="-1" Cut="0.0000000000000000e+00" cType="1" res="-5.2693835459649563e-03" rms="4.5374861359596252e-01" purity="3.8247051835060120e-01" nType="-99"/>
        </Node>
      </Node>
    </BinaryTree>
    <BinaryTree type="DecisionTree" boostWeight="1.0000000000000000e+00" itree="951">
      <Node pos="s" depth="0" NCoef="0" IVar="2" Cut="5.7718384265899658e-01" cType="1" res="-6.8169273436069489e-03" rms="4.6843653917312622e-01" purity="5.0143516063690186e-01" nType="0">
        <Node pos="l" depth="1" NCoef="0" IVar="3" Cut="1.3680676221847534e+00" cType="1" res="1.3435354456305504e-02" rms="4.6341392397880554e-01" purity="4.4437354803085327e-01" nType="0">
          <Node pos="l" depth="2" NCoef="0" IVar="-1" Cut="0.0000000000000000e+00" cType="1" res="2.3091228213161230e-03" rms="4.6541076898574829e-01" purity="5.0832253694534302e-01" nType="-99"/>
          <Node pos="r" depth="2" NCoef="0" IVar="-1" Cut="0.0000000000000000e+00" cType="1" res="-5.7348463451489806e-04" rms="4.6033099293708801e-01" purity="3.8192853331565857e-01" nType="-99"/>
        </Node>
        <Node pos="r" depth="1" NCoef="0" IVar="5" Cut="1.1948137207031250e+03" cType="1" res="-2.1992469206452370e-02" rms="4.7159540653228760e-01" purity="5.4419285058975220e-01" nType="0">
          <Node pos="l" depth="2" NCoef="0" IVar="-1" Cut="0.0000000000000000e+00" cType="1" res="-9.3016406754031777e-04" rms="4.6968555450439453e-01" purity="5.4925596714019775e-01" nType="-99"/>
          <Node pos="r" depth="2" NCoef="0" IVar="-1" Cut="0.0000000000000000e+00" cType="1" res="-5.7878294028341770e-03" rms="4.8271217942237854e-01" purity="4.9818956851959229e-01" nType="-99"/>
        </Node>
      </Node>
    </BinaryTree>
    <BinaryTree type="DecisionTree" boostWeight="1.0000000000000000e+00" itree="952">
      <Node pos="s" depth="0" NCoef="0" IVar="5" Cut="1.1031911621093750e+03" cType="1" res="-1.2131647206842899e-02" rms="4.6599242091178894e-01" purity="4.8756217956542969e-01" nType="0">
        <Node pos="l" depth="1" NCoef="0" IVar="1" Cut="3.7324208021163940e-01" cType="1" res="-5.0813038833439350e-03" rms="4.6299508213996887e-01" purity="4.8564067482948303e-01" nType="0">
          <Node pos="l" depth="2" NCoef="0" IVar="-1" Cut="0.0000000000000000e+00" cType="1" res="2.8440605383366346e-03" rms="4.5954483747482300e-01" purity="6.1894673109054565e-01" nType="-99"/>
          <Node pos="r" depth="2" NCoef="0" IVar="-1" Cut="0.0000000000000000e+00" cType="1" res="-8.0445420462638140e-04" rms="4.6310114860534668e-01" purity="4.6412625908851624e-01" nType="-99"/>
        </Node>
        <Node pos="r" depth="1" NCoef="0" IVar="0" Cut="5.5357012897729874e-02" cType="1" res="-6.2878601253032684e-02" rms="4.8400196433067322e-01" purity="5.0139290094375610e-01" nType="0">
          <Node pos="l" depth="2" NCoef="0" IVar="-1" Cut="0.0000000000000000e+00" cType="1" res="-9.5323950517922640e-04" rms="4.7677409648895264e-01" purity="5.0207734107971191e-01" nType="-99"/>
          <Node pos="r" depth="2" NCoef="0" IVar="-1" Cut="0.0000000000000000e+00" cType="1" res="-7.2382590733468533e-03" rms="4.8667687177658081e-01" purity="5.0060987472534180e-01" nType="-99"/>
        </Node>
      </Node>
    </BinaryTree>
    <BinaryTree type="DecisionTree" boostWeight="1.0000000000000000e+00" itree="953">
      <Node pos="s" depth="0" NCoef="0" IVar="3" Cut="6.1535185575485229e-01" cType="1" res="8.4854708984494209e-04" rms="4.6704241633415222e-01" purity="5.0506633520126343e-01" nType="0">
        <Node pos="l" depth="1" NCoef="0" IVar="-1" Cut="0.0000000000000000e+00" cType="1" res="-3.7397881969809532e-03" rms="4.8125946521759033e-01" purity="4.5410063862800598e-01" nType="-99"/>
        <Node pos="r" depth="1" NCoef="0" IVar="1" Cut="1.9658787250518799e+00" cType="1" res="6.0416604392230511e-03" rms="4.6545213460922241e-01" purity="5.0936013460159302e-01" nType="0">
          <Node pos="l" depth="2" NCoef="0" IVar="-1" Cut="0.0000000000000000e+00" cType="1" res="-4.5480428525479510e-05" rms="4.6682158112525940e-01" purity="5.3005200624465942e-01" nType="-99"/>
          <Node pos="r" depth="2" NCoef="0" IVar="-1" Cut="0.0000000000000000e+00" cType="1" res="2.7577595319598913e-03" rms="4.5657345652580261e-01" purity="4.0085464715957642e-01" nType="-99"/>
        </Node>
      </Node>
    </BinaryTree>
    <BinaryTree type="DecisionTree" boostWeight="1.0000000000000000e+00" itree="954">
      <Node pos="s" depth="0" NCoef="0" IVar="6" Cut="2.5713498592376709e+00" cType="1" res="-2.5400340091437101e-03" rms="4.7040021419525146e-01" purity="4.9845361709594727e-01" nType="0">
        <Node pos="l" depth="1" NCoef="0" IVar="4" Cut="2.6984992437064648e-03" cType="1" res="4.3101768940687180e-02" rms="4.6939143538475037e-01" purity="3.6281302571296692e-01" nType="0">
          <Node pos="l" depth="2" NCoef="0" IVar="-1" Cut="0.0000000000000000e+00" cType="1" res="1.4942921698093414e-03" rms="4.6157026290893555e-01" purity="3.5260987281799316e-01" nType="-99"/>
          <Node pos="r" depth="2" NCoef="0" IVar="-1" Cut="0.0000000000000000e+00" cType="1" res="5.6127444840967655e-03" rms="4.8227116465568542e-01" purity="3.8353899121284485e-01" nType="-99"/>
        </Node>
        <Node pos="r" depth="1" NCoef="0" IVar="1" Cut="7.2533071041107178e-01" cType="1" res="-1.5714909881353378e-02" rms="4.6986711025238037e-01" purity="5.3760743141174316e-01" nType="0">
          <Node pos="l" depth="2" NCoef="0" IVar="-1" Cut="0.0000000000000000e+00" cType="1" res="-2.9221929144114256e-03" rms="4.6972945332527161e-01" purity="5.7802033424377441e-01" nType="-99"/>
          <Node pos="r" depth="2" NCoef="0" IVar="-1" Cut="0.0000000000000000e+00" cType="1" res="1.0198582458542660e-04" rms="4.6909409761428833e-01" purity="5.1336699724197388e-01" nType="-99"/>
        </Node>
      </Node>
    </BinaryTree>
    <BinaryTree type="DecisionTree" boostWeight="1.0000000000000000e+00" itree="955">
      <Node pos="s" depth="0" NCoef="0" IVar="1" Cut="6.9705635309219360e-01" cType="1" res="-1.1530977208167315e-03" rms="4.6195632219314575e-01" purity="5.0058299303054810e-01" nType="0">
        <Node pos="l" depth="1" NCoef="0" IVar="3" Cut="1.1026823520660400e+00" cType="1" res="3.1854528933763504e-02" rms="4.6083259582519531e-01" purity="6.0415649414062500e-01" nType="0">
          <Node pos="l" depth="2" NCoef="0" IVar="-1" Cut="0.0000000000000000e+00" cType="1" res="4.2717410251498222e-03" rms="4.5089793205261230e-01" purity="6.5707445144653320e-01" nType="-99"/>
          <Node pos="r" depth="2" NCoef="0" IVar="-1" Cut="0.0000000000000000e+00" cType="1" res="8.6746999295428395e-04" rms="4.6629595756530762e-01" purity="5.6941932439804077e-01" nType="-99"/>
        </Node>
        <Node pos="r" depth="1" NCoef="0" IVar="2" Cut="5.1453518867492676e-01" cType="1" res="-1.8000317737460136e-02" rms="4.6161997318267822e-01" purity="4.4771867990493774e-01" nType="0">
          <Node pos="l" depth="2" NCoef="0" IVar="-1" Cut="0.0000000000000000e+00" cType="1" res="-3.0359150841832161e-03" rms="4.4208103418350220e-01" purity="3.2514378428459167e-01" nType="-99"/>
          <Node pos="r" depth="2" NCoef="0" IVar="-1" Cut="0.0000000000000000e+00" cType="1" res="-1.9337929552420974e-04" rms="4.6994528174400330e-01" purity="5.0635689496994019e-01" nType="-99"/>
        </Node>
      </Node>
    </BinaryTree>
    <BinaryTree type="DecisionTree" boostWeight="1.0000000000000000e+00" itree="956">
      <Node pos="s" depth="0" NCoef="0" IVar="1" Cut="6.5146654844284058e-01" cType="1" res="-2.4598231539130211e-03" rms="4.6376615762710571e-01" purity="4.9635922908782959e-01" nType="0">
        <Node pos="l" depth="1" NCoef="0" IVar="3" Cut="7.2454398870468140e-01" cType="1" res="-2.9581574723124504e-02" rms="4.6503603458404541e-01" purity="5.4498791694641113e-01" nType="0">
          <Node pos="l" depth="2" NCoef="0" IVar="-1" Cut="0.0000000000000000e+00" cType="1" res="2.1238513290882111e-03" rms="4.5513936877250671e-01" purity="6.1709785461425781e-01" nType="-99"/>
          <Node pos="r" depth="2" NCoef="0" IVar="-1" Cut="0.0000000000000000e+00" cType="1" res="-2.6818783953785896e-03" rms="4.6602883934974670e-01" purity="5.3073793649673462e-01" nType="-99"/>
        </Node>
        <Node pos="r" depth="1" NCoef="0" IVar="2" Cut="6.0511028766632080e-01" cType="1" res="1.0651556774973869e-02" rms="4.6258118748664856e-01" purity="4.7285082936286926e-01" nType="0">
          <Node pos="l" depth="2" NCoef="0" IVar="-1" Cut="0.0000000000000000e+00" cType="1" res="-7.4146181577816606e-04" rms="4.5849731564521790e-01" purity="3.9335548877716064e-01" nType="-99"/>
          <Node pos="r" depth="2" NCoef="0" IVar="-1" Cut="0.0000000000000000e+00" cType="1" res="2.6871291920542717e-03" rms="4.6628797054290771e-01" purity="5.7943564653396606e-01" nType="-99"/>
        </Node>
      </Node>
    </BinaryTree>
    <BinaryTree type="DecisionTree" boostWeight="1.0000000000000000e+00" itree="957">
      <Node pos="s" depth="0" NCoef="0" IVar="6" Cut="2.2408428192138672e+00" cType="1" res="-6.3041518442332745e-03" rms="4.6354195475578308e-01" purity="4.8969683051109314e-01" nType="0">
        <Node pos="l" depth="1" NCoef="0" IVar="2" Cut="6.1657649278640747e-01" cType="1" res="-3.4851040691137314e-02" rms="4.4155439734458923e-01" purity="2.6675084233283997e-01" nType="0">
          <Node pos="l" depth="2" NCoef="0" IVar="-1" Cut="0.0000000000000000e+00" cType="1" res="4.6945590293034911e-04" rms="4.3502035737037659e-01" purity="2.6024585962295532e-01" nType="-99"/>
          <Node pos="r" depth="2" NCoef="0" IVar="-1" Cut="0.0000000000000000e+00" cType="1" res="-4.8058209940791130e-03" rms="4.4416037201881409e-01" purity="2.7395516633987427e-01" nType="-99"/>
        </Node>
        <Node pos="r" depth="1" NCoef="0" IVar="5" Cut="6.8735736083984375e+02" cType="1" res="-8.6323049617931247e-04" rms="4.6741762757301331e-01" purity="5.3218942880630493e-01" nType="0">
          <Node pos="l" depth="2" NCoef="0" IVar="-1" Cut="0.0000000000000000e+00" cType="1" res="8.1213610246777534e-04" rms="4.6685495972633362e-01" purity="5.0235056877136230e-01" nType="-99"/>
          <Node pos="r" depth="2" NCoef="0" IVar="-1" Cut="0.0000000000000000e+00" cType="1" res="-8.1507646245881915e-04" rms="4.6758422255516052e-01" purity="5.5828499794006348e-01" nType="-99"/>
        </Node>
      </Node>
    </BinaryTree>
    <BinaryTree type="DecisionTree" boostWeight="1.0000000000000000e+00" itree="958">
      <Node pos="s" depth="0" NCoef="0" IVar="5" Cut="1.3192923583984375e+03" cType="1" res="-6.3949846662580967e-03" rms="4.6194064617156982e-01" purity="4.9151694774627686e-01" nType="0">
        <Node pos="l" depth="1" NCoef="0" IVar="3" Cut="2.1733582019805908e+00" cType="1" res="-1.1267687194049358e-02" rms="4.6180522441864014e-01" purity="4.8306709527969360e-01" nType="0">
          <Node pos="l" depth="2" NCoef="0" IVar="-1" Cut="0.0000000000000000e+00" cType="1" res="-9.8547118250280619e-04" rms="4.6309626102447510e-01" purity="4.9511051177978516e-01" nType="-99"/>
          <Node pos="r" depth="2" NCoef="0" IVar="-1" Cut="0.0000000000000000e+00" cType="1" res="2.4749774020165205e-03" rms="4.4442170858383179e-01" purity="3.4943911433219910e-01" nType="-99"/>
        </Node>
        <Node pos="r" depth="1" NCoef="0" IVar="-1" Cut="0.0000000000000000e+00" cType="1" res="5.2639292553067207e-03" rms="4.5581004023551941e-01" purity="6.4086699485778809e-01" nType="-99"/>
      </Node>
    </BinaryTree>
    <BinaryTree type="DecisionTree" boostWeight="1.0000000000000000e+00" itree="959">
      <Node pos="s" depth="0" NCoef="0" IVar="3" Cut="1.3243738412857056e+00" cType="1" res="1.1235464364290237e-02" rms="4.6826305985450745e-01" purity="5.1204854249954224e-01" nType="0">
        <Node pos="l" depth="1" NCoef="0" IVar="3" Cut="8.8494831323623657e-01" cType="1" res="-6.7729074507951736e-03" rms="4.6964570879936218e-01" purity="5.2846634387969971e-01" nType="0">
          <Node pos="l" depth="2" NCoef="0" IVar="-1" Cut="0.0000000000000000e+00" cType="1" res="1.1608370114117861e-03" rms="4.6621403098106384e-01" purity="5.5101126432418823e-01" nType="-99"/>
          <Node pos="r" depth="2" NCoef="0" IVar="-1" Cut="0.0000000000000000e+00" cType="1" res="-1.7281332984566689e-03" rms="4.7152501344680786e-01" purity="5.0964701175689697e-01" nType="-99"/>
        </Node>
        <Node pos="r" depth="1" NCoef="0" IVar="0" Cut="1.0830011218786240e-01" cType="1" res="3.0572185292840004e-02" rms="4.6599969267845154e-01" purity="4.9441969394683838e-01" nType="0">
          <Node pos="l" depth="2" NCoef="0" IVar="-1" Cut="0.0000000000000000e+00" cType="1" res="2.9644318856298923e-03" rms="4.6568149328231812e-01" purity="4.6986639499664307e-01" nType="-99"/>
          <Node pos="r" depth="2" NCoef="0" IVar="-1" Cut="0.0000000000000000e+00" cType="1" res="1.4691929391119629e-04" rms="4.6525770425796509e-01" purity="5.3960233926773071e-01" nType="-99"/>
        </Node>
      </Node>
    </BinaryTree>
    <BinaryTree type="DecisionTree" boostWeight="1.0000000000000000e+00" itree="960">
      <Node pos="s" depth="0" NCoef="0" IVar="3" Cut="2.0894248485565186e+00" cType="1" res="7.7267647720873356e-03" rms="4.6620965003967285e-01" purity="5.1070845127105713e-01" nType="0">
        <Node pos="l" depth="1" NCoef="0" IVar="3" Cut="1.8682718276977539e+00" cType="1" res="1.2361713685095310e-02" rms="4.7051686048507690e-01" purity="5.3498733043670654e-01" nType="0">
          <Node pos="l" depth="2" NCoef="0" IVar="-1" Cut="0.0000000000000000e+00" cType="1" res="5.1303120562806726e-04" rms="4.7010111808776855e-01" purity="5.3539586067199707e-01" nType="-99"/>
          <Node pos="r" depth="2" NCoef="0" IVar="-1" Cut="0.0000000000000000e+00" cType="1" res="3.9259903132915497e-03" rms="4.7232434153556824e-01" purity="5.3048330545425415e-01" nType="-99"/>
        </Node>
        <Node pos="r" depth="1" NCoef="0" IVar="-1" Cut="0.0000000000000000e+00" cType="1" res="-2.0166682079434395e-03" rms="4.2567774653434753e-01" purity="3.0367752909660339e-01" nType="-99"/>
      </Node>
    </BinaryTree>
    <BinaryTree type="DecisionTree" boostWeight="1.0000000000000000e+00" itree="961">
      <Node pos="s" depth="0" NCoef="0" IVar="0" Cut="9.6695818006992340e-02" cType="1" res="-9.5299044623970985e-03" rms="4.6401709318161011e-01" purity="4.9404710531234741e-01" nType="0">
        <Node pos="l" depth="1" NCoef="0" IVar="4" Cut="3.3196397125720978e-03" cType="1" res="5.8763762935996056e-03" rms="4.6115893125534058e-01" purity="4.6456977725028992e-01" nType="0">
          <Node pos="l" depth="2" NCoef="0" IVar="-1" Cut="0.0000000000000000e+00" cType="1" res="7.6952693052589893e-04" rms="4.6289348602294922e-01" purity="4.8017424345016479e-01" nType="-99"/>
          <Node pos="r" depth="2" NCoef="0" IVar="-1" Cut="0.0000000000000000e+00" cType="1" res="-2.9051068704575300e-03" rms="4.4098648428916931e-01" purity="3.2174262404441833e-01" nType="-99"/>
        </Node>
        <Node pos="r" depth="1" NCoef="0" IVar="2" Cut="7.1210867166519165e-01" cType="1" res="-3.1455971300601959e-02" rms="4.6717944741249084e-01" purity="5.3599894046783447e-01" nType="0">
          <Node pos="l" depth="2" NCoef="0" IVar="-1" Cut="0.0000000000000000e+00" cType="1" res="-3.3927394542843103e-03" rms="4.7472304105758667e-01" purity="4.7160956263542175e-01" nType="-99"/>
          <Node pos="r" depth="2" NCoef="0" IVar="-1" Cut="0.0000000000000000e+00" cType="1" res="1.7114848014898598e-04" rms="4.5396459102630615e-01" purity="6.2870162725448608e-01" nType="-99"/>
        </Node>
      </Node>
    </BinaryTree>
    <BinaryTree type="DecisionTree" boostWeight="1.0000000000000000e+00" itree="962">
      <Node pos="s" depth="0" NCoef="0" IVar="5" Cut="1.3035236816406250e+03" cType="1" res="2.1284699905663729e-03" rms="4.6439379453659058e-01" purity="5.0135284662246704e-01" nType="0">
        <Node pos="l" depth="1" NCoef="0" IVar="5" Cut="1.0902947998046875e+03" cType="1" res="7.9379091039299965e-03" rms="4.6212530136108398e-01" purity="5.0327473878860474e-01" nType="0">
          <Node pos="l" depth="2" NCoef="0" IVar="-1" Cut="0.0000000000000000e+00" cType="1" res="2.6658968999981880e-04" rms="4.6251767873764038e-01" purity="4.9336764216423035e-01" nType="-99"/>
          <Node pos="r" depth="2" NCoef="0" IVar="-1" Cut="0.0000000000000000e+00" cType="1" res="3.8726672064512968e-03" rms="4.5417636632919312e-01" purity="6.3119435310363770e-01" nType="-99"/>
        </Node>
        <Node pos="r" depth="1" NCoef="0" IVar="-1" Cut="0.0000000000000000e+00" cType="1" res="-4.9871364608407021e-03" rms="4.8867097496986389e-01" purity="4.7304654121398926e-01" nType="-99"/>
      </Node>
    </BinaryTree>
    <BinaryTree type="DecisionTree" boostWeight="1.0000000000000000e+00" itree="963">
      <Node pos="s" depth="0" NCoef="0" IVar="0" Cut="2.1342131495475769e-01" cType="1" res="-6.2393960542976856e-03" rms="4.6620664000511169e-01" purity="4.9594768881797791e-01" nType="0">
        <Node pos="l" depth="1" NCoef="0" IVar="2" Cut="8.3474069833755493e-01" cType="1" res="-2.1566669456660748e-03" rms="4.6542578935623169e-01" purity="4.9105283617973328e-01" nType="0">
          <Node pos="l" depth="2" NCoef="0" IVar="-1" Cut="0.0000000000000000e+00" cType="1" res="1.2188206892460585e-04" rms="4.6492725610733032e-01" purity="4.8446077108383179e-01" nType="-99"/>
          <Node pos="r" depth="2" NCoef="0" IVar="-1" Cut="0.0000000000000000e+00" cType="1" res="-4.5504788868129253e-03" rms="4.6857655048370361e-01" purity="5.9152966737747192e-01" nType="-99"/>
        </Node>
        <Node pos="r" depth="1" NCoef="0" IVar="-1" Cut="0.0000000000000000e+00" cType="1" res="-4.3090246617794037e-03" rms="4.7328126430511475e-01" purity="5.6373029947280884e-01" nType="-99"/>
      </Node>
    </BinaryTree>
    <BinaryTree type="DecisionTree" boostWeight="1.0000000000000000e+00" itree="964">
      <Node pos="s" depth="0" NCoef="0" IVar="5" Cut="1.0076655273437500e+03" cType="1" res="-5.6750928051769733e-03" rms="4.6303826570510864e-01" purity="4.9548089504241943e-01" nType="0">
        <Node pos="l" depth="1" NCoef="0" IVar="3" Cut="1.1179779767990112e+00" cType="1" res="-1.2553770095109940e-02" rms="4.6385371685028076e-01" purity="4.7547370195388794e-01" nType="0">
          <Node pos="l" depth="2" NCoef="0" IVar="-1" Cut="0.0000000000000000e+00" cType="1" res="-2.3276044521480799e-03" rms="4.6593609452247620e-01" purity="4.8198005557060242e-01" nType="-99"/>
          <Node pos="r" depth="2" NCoef="0" IVar="-1" Cut="0.0000000000000000e+00" cType="1" res="9.3940121587365866e-05" rms="4.6205428242683411e-01" purity="4.7166916728019714e-01" nType="-99"/>
        </Node>
        <Node pos="r" depth="1" NCoef="0" IVar="3" Cut="1.0763859748840332e+00" cType="1" res="2.9441583901643753e-02" rms="4.5724296569824219e-01" purity="5.9762078523635864e-01" nType="0">
          <Node pos="l" depth="2" NCoef="0" IVar="-1" Cut="0.0000000000000000e+00" cType="1" res="5.4453713819384575e-03" rms="4.4576084613800049e-01" purity="6.8263626098632812e-01" nType="-99"/>
          <Node pos="r" depth="2" NCoef="0" IVar="-1" Cut="0.0000000000000000e+00" cType="1" res="-1.0837065055966377e-03" rms="4.6290287375450134e-01" purity="5.1775240898132324e-01" nType="-99"/>
        </Node>
      </Node>
    </BinaryTree>
    <BinaryTree type="DecisionTree" boostWeight="1.0000000000000000e+00" itree="965">
      <Node pos="s" depth="0" NCoef="0" IVar="0" Cut="1.2677636742591858e-01" cType="1" res="-3.6974004469811916e-03" rms="4.6306073665618896e-01" purity="4.9734032154083252e-01" nType="0">
        <Node pos="l" depth="1" NCoef="0" IVar="1" Cut="1.5636327266693115e+00" cType="1" res="-1.4097505249083042e-02" rms="4.6483799815177917e-01" purity="4.6149843931198120e-01" nType="0">
          <Node pos="l" depth="2" NCoef="0" IVar="-1" Cut="0.0000000000000000e+00" cType="1" res="-3.2291054958477616e-04" rms="4.6910709142684937e-01" purity="5.0922715663909912e-01" nType="-99"/>
          <Node pos="r" depth="2" NCoef="0" IVar="-1" Cut="0.0000000000000000e+00" cType="1" res="-2.1980600431561470e-03" rms="4.5336681604385376e-01" purity="3.4366720914840698e-01" nType="-99"/>
        </Node>
        <Node pos="r" depth="1" NCoef="0" IVar="3" Cut="1.1001818180084229e+00" cType="1" res="2.7224890887737274e-02" rms="4.5633777976036072e-01" purity="6.0390764474868774e-01" nType="0">
          <Node pos="l" depth="2" NCoef="0" IVar="-1" Cut="0.0000000000000000e+00" cType="1" res="6.1753019690513611e-03" rms="4.2245677113533020e-01" purity="6.9130575656890869e-01" nType="-99"/>
          <Node pos="r" depth="2" NCoef="0" IVar="-1" Cut="0.0000000000000000e+00" cType="1" res="-1.9063569197896868e-04" rms="4.7050157189369202e-01" purity="5.5767065286636353e-01" nType="-99"/>
        </Node>
      </Node>
    </BinaryTree>
    <BinaryTree type="DecisionTree" boostWeight="1.0000000000000000e+00" itree="966">
      <Node pos="s" depth="0" NCoef="0" IVar="0" Cut="1.5981669723987579e-01" cType="1" res="-9.8634362220764160e-03" rms="4.6219784021377563e-01" purity="4.8902443051338196e-01" nType="0">
        <Node pos="l" depth="1" NCoef="0" IVar="1" Cut="4.8812168836593628e-01" cType="1" res="-7.7740306733176112e-04" rms="4.6135258674621582e-01" purity="4.7793349623680115e-01" nType="0">
          <Node pos="l" depth="2" NCoef="0" IVar="-1" Cut="0.0000000000000000e+00" cType="1" res="2.0425054244697094e-03" rms="4.6099558472633362e-01" purity="5.8641731739044189e-01" nType="-99"/>
          <Node pos="r" depth="2" NCoef="0" IVar="-1" Cut="0.0000000000000000e+00" cType="1" res="-5.7686498621478677e-04" rms="4.6107962727546692e-01" purity="4.4958469271659851e-01" nType="-99"/>
        </Node>
        <Node pos="r" depth="1" NCoef="0" IVar="4" Cut="1.6712676733732224e-03" cType="1" res="-5.4216645658016205e-02" rms="4.6375352144241333e-01" purity="5.4316419363021851e-01" nType="0">
          <Node pos="l" depth="2" NCoef="0" IVar="-1" Cut="0.0000000000000000e+00" cType="1" res="-2.3427058476954699e-03" rms="4.6199524402618408e-01" purity="6.2116599082946777e-01" nType="-99"/>
          <Node pos="r" depth="2" NCoef="0" IVar="-1" Cut="0.0000000000000000e+00" cType="1" res="-5.4228086955845356e-03" rms="4.6424695849418640e-01" purity="4.0057513117790222e-01" nType="-99"/>
        </Node>
      </Node>
    </BinaryTree>
    <BinaryTree type="DecisionTree" boostWeight="1.0000000000000000e+00" itree="967">
      <Node pos="s" depth="0" NCoef="0" IVar="2" Cut="8.4005337953567505e-01" cType="1" res="1.1870305752381682e-03" rms="4.6274510025978088e-01" purity="4.9816083908081055e-01" nType="0">
        <Node pos="l" depth="1" NCoef="0" IVar="0" Cut="1.8022997677326202e-01" cType="1" res="5.0405287183821201e-03" rms="4.6340993046760559e-01" purity="4.9068754911422729e-01" nType="0">
          <Node pos="l" depth="2" NCoef="0" IVar="-1" Cut="0.0000000000000000e+00" cType="1" res="-4.2948260670527816e-05" rms="4.6384724974632263e-01" purity="4.7462773323059082e-01" nType="-99"/>
          <Node pos="r" depth="2" NCoef="0" IVar="-1" Cut="0.0000000000000000e+00" cType="1" res="3.8833110593259335e-03" rms="4.5631930232048035e-01" purity="6.3399481773376465e-01" nType="-99"/>
        </Node>
        <Node pos="r" depth="1" NCoef="0" IVar="-1" Cut="0.0000000000000000e+00" cType="1" res="-3.6730936262756586e-03" rms="4.5006200671195984e-01" purity="6.0163229703903198e-01" nType="-99"/>
      </Node>
    </BinaryTree>
    <BinaryTree type="DecisionTree" boostWeight="1.0000000000000000e+00" itree="968">
      <Node pos="s" depth="0" NCoef="0" IVar="3" Cut="2.0587570667266846e+00" cType="1" res="1.5220216300804168e-04" rms="4.6465450525283813e-01" purity="4.9848139286041260e-01" nType="0">
        <Node pos="l" depth="1" NCoef="0" IVar="3" Cut="1.6502879858016968e+00" cType="1" res="8.1009175628423691e-03" rms="4.6913009881973267e-01" purity="5.2727478742599487e-01" nType="0">
          <Node pos="l" depth="2" NCoef="0" IVar="-1" Cut="0.0000000000000000e+00" cType="1" res="-1.6904028598219156e-04" rms="4.6591565012931824e-01" purity="5.2980434894561768e-01" nType="-99"/>
          <Node pos="r" depth="2" NCoef="0" IVar="-1" Cut="0.0000000000000000e+00" cType="1" res="3.6157320719212294e-03" rms="4.8050659894943237e-01" purity="5.1574444770812988e-01" nType="-99"/>
        </Node>
        <Node pos="r" depth="1" NCoef="0" IVar="2" Cut="5.3512370586395264e-01" cType="1" res="-5.9525519609451294e-02" rms="4.2484211921691895e-01" purity="2.8230458498001099e-01" nType="0">
          <Node pos="l" depth="2" NCoef="0" IVar="-1" Cut="0.0000000000000000e+00" cType="1" res="-7.5738606974482536e-03" rms="3.7356039881706238e-01" purity="1.7231515049934387e-01" nType="-99"/>
          <Node pos="r" depth="2" NCoef="0" IVar="-1" Cut="0.0000000000000000e+00" cType="1" res="3.1524250516667962e-04" rms="4.6438017487525940e-01" purity="3.9855968952178955e-01" nType="-99"/>
        </Node>
      </Node>
    </BinaryTree>
    <BinaryTree type="DecisionTree" boostWeight="1.0000000000000000e+00" itree="969">
      <Node pos="s" depth="0" NCoef="0" IVar="0" Cut="2.1796961128711700e-01" cType="1" res="1.4680556021630764e-02" rms="4.6442231535911560e-01" purity="5.1521790027618408e-01" nType="0">
        <Node pos="l" depth="1" NCoef="0" IVar="0" Cut="1.7196279764175415e-01" cType="1" res="1.8134685233235359e-02" rms="4.6347281336784363e-01" purity="5.1069593429565430e-01" nType="0">
          <Node pos="l" depth="2" NCoef="0" IVar="-1" Cut="0.0000000000000000e+00" cType="1" res="9.2149805277585983e-04" rms="4.6450015902519226e-01" purity="4.9903479218482971e-01" nType="-99"/>
          <Node pos="r" depth="2" NCoef="0" IVar="-1" Cut="0.0000000000000000e+00" cType="1" res="4.8310765996575356e-03" rms="4.4695591926574707e-01" purity="6.6249382495880127e-01" nType="-99"/>
        </Node>
        <Node pos="r" depth="1" NCoef="0" IVar="-1" Cut="0.0000000000000000e+00" cType="1" res="-2.9005885589867830e-03" rms="4.7613596916198730e-01" purity="5.8912509679794312e-01" nType="-99"/>
      </Node>
    </BinaryTree>
    <BinaryTree type="DecisionTree" boostWeight="1.0000000000000000e+00" itree="970">
      <Node pos="s" depth="0" NCoef="0" IVar="1" Cut="5.2015584707260132e-01" cType="1" res="-3.1579479109495878e-03" rms="4.6186062693595886e-01" purity="4.9441808462142944e-01" nType="0">
        <Node pos="l" depth="1" NCoef="0" IVar="0" Cut="6.3653044402599335e-02" cType="1" res="-4.5251585543155670e-02" rms="4.6291789412498474e-01" purity="5.3518658876419067e-01" nType="0">
          <Node pos="l" depth="2" NCoef="0" IVar="-1" Cut="0.0000000000000000e+00" cType="1" res="-5.7626906782388687e-03" rms="4.6154600381851196e-01" purity="4.3587368726730347e-01" nType="-99"/>
          <Node pos="r" depth="2" NCoef="0" IVar="-1" Cut="0.0000000000000000e+00" cType="1" res="-1.4684862690046430e-03" rms="4.6171906590461731e-01" purity="5.8271557092666626e-01" nType="-99"/>
        </Node>
        <Node pos="r" depth="1" NCoef="0" IVar="5" Cut="1.2279180908203125e+03" cType="1" res="9.9180750548839569e-03" rms="4.6074950695037842e-01" purity="4.8175370693206787e-01" nType="0">
          <Node pos="l" depth="2" NCoef="0" IVar="-1" Cut="0.0000000000000000e+00" cType="1" res="3.2261887099593878e-04" rms="4.6001401543617249e-01" purity="4.7098380327224731e-01" nType="-99"/>
          <Node pos="r" depth="2" NCoef="0" IVar="-1" Cut="0.0000000000000000e+00" cType="1" res="5.1264939829707146e-03" rms="4.6559602022171021e-01" purity="6.3208687305450439e-01" nType="-99"/>
        </Node>
      </Node>
    </BinaryTree>
    <BinaryTree type="DecisionTree" boostWeight="1.0000000000000000e+00" itree="971">
      <Node pos="s" depth="0" NCoef="0" IVar="6" Cut="1.7112057209014893e+00" cType="1" res="5.0237332470715046e-03" rms="4.6795818209648132e-01" purity="5.1023977994918823e-01" nType="0">
        <Node pos="l" depth="1" NCoef="0" IVar="-1" Cut="0.0000000000000000e+00" cType="1" res="3.6323918029665947e-03" rms="4.6268123388290405e-01" purity="3.4529218077659607e-01" nType="-99"/>
        <Node pos="r" depth="1" NCoef="0" IVar="2" Cut="5.4317992925643921e-01" cType="1" res="2.0929656457155943e-03" rms="4.6813055872917175e-01" purity="5.2055960893630981e-01" nType="0">
          <Node pos="l" depth="2" NCoef="0" IVar="-1" Cut="0.0000000000000000e+00" cType="1" res="1.1797257466241717e-03" rms="4.7152104973793030e-01" purity="4.5416021347045898e-01" nType="-99"/>
          <Node pos="r" depth="2" NCoef="0" IVar="-1" Cut="0.0000000000000000e+00" cType="1" res="-4.7065809485502541e-04" rms="4.6595615148544312e-01" purity="5.5781149864196777e-01" nType="-99"/>
        </Node>
      </Node>
    </BinaryTree>
    <BinaryTree type="DecisionTree" boostWeight="1.0000000000000000e+00" itree="972">
      <Node pos="s" depth="0" NCoef="0" IVar="0" Cut="2.2902362048625946e-01" cType="1" res="-1.0838468559086323e-02" rms="4.6404579281806946e-01" purity="4.9263751506805420e-01" nType="0">
        <Node pos="l" depth="1" NCoef="0" IVar="1" Cut="2.3158967494964600e-01" cType="1" res="-6.7071281373500824e-03" rms="4.6281811594963074e-01" purity="4.9040544033050537e-01" nType="0">
          <Node pos="l" depth="2" NCoef="0" IVar="-1" Cut="0.0000000000000000e+00" cType="1" res="3.7007844075560570e-03" rms="4.3795725703239441e-01" purity="6.2038296461105347e-01" nType="-99"/>
          <Node pos="r" depth="2" NCoef="0" IVar="-1" Cut="0.0000000000000000e+00" cType="1" res="-7.2874600300565362e-04" rms="4.6431457996368408e-01" purity="4.8053270578384399e-01" nType="-99"/>
        </Node>
        <Node pos="r" depth="1" NCoef="0" IVar="-1" Cut="0.0000000000000000e+00" cType="1" res="-5.7671158574521542e-03" rms="4.7958776354789734e-01" purity="5.3290748596191406e-01" nType="-99"/>
      </Node>
    </BinaryTree>
    <BinaryTree type="DecisionTree" boostWeight="1.0000000000000000e+00" itree="973">
      <Node pos="s" depth="0" NCoef="0" IVar="0" Cut="4.1368186473846436e-02" cType="1" res="-4.6276641078293324e-03" rms="4.6488696336746216e-01" purity="4.9685972929000854e-01" nType="0">
        <Node pos="l" depth="1" NCoef="0" IVar="6" Cut="4.0673532485961914e+00" cType="1" res="2.9550496488809586e-02" rms="4.6125036478042603e-01" purity="4.5677033066749573e-01" nType="0">
          <Node pos="l" depth="2" NCoef="0" IVar="-1" Cut="0.0000000000000000e+00" cType="1" res="2.2247841116040945e-04" rms="4.6371668577194214e-01" purity="3.4984594583511353e-01" nType="-99"/>
          <Node pos="r" depth="2" NCoef="0" IVar="-1" Cut="0.0000000000000000e+00" cType="1" res="4.6547623351216316e-03" rms="4.5382893085479736e-01" purity="6.3443219661712646e-01" nType="-99"/>
        </Node>
        <Node pos="r" depth="1" NCoef="0" IVar="5" Cut="5.5317590332031250e+02" cType="1" res="-1.3945364393293858e-02" rms="4.6543827652931213e-01" purity="5.0778889656066895e-01" nType="0">
          <Node pos="l" depth="2" NCoef="0" IVar="-1" Cut="0.0000000000000000e+00" cType="1" res="8.9426949853077531e-04" rms="4.5701414346694946e-01" purity="4.3548065423965454e-01" nType="-99"/>
          <Node pos="r" depth="2" NCoef="0" IVar="-1" Cut="0.0000000000000000e+00" cType="1" res="-1.5725209377706051e-03" rms="4.6811082959175110e-01" purity="5.3476887941360474e-01" nType="-99"/>
        </Node>
      </Node>
    </BinaryTree>
    <BinaryTree type="DecisionTree" boostWeight="1.0000000000000000e+00" itree="974">
      <Node pos="s" depth="0" NCoef="0" IVar="4" Cut="2.1970239467918873e-03" cType="1" res="-5.9815593995153904e-03" rms="4.6601235866546631e-01" purity="4.9476206302642822e-01" nType="0">
        <Node pos="l" depth="1" NCoef="0" IVar="3" Cut="1.4901574850082397e+00" cType="1" res="-1.6413109377026558e-02" rms="4.6683812141418457e-01" purity="5.1491689682006836e-01" nType="0">
          <Node pos="l" depth="2" NCoef="0" IVar="-1" Cut="0.0000000000000000e+00" cType="1" res="-1.9155192421749234e-03" rms="4.6348491311073303e-01" purity="5.3555810451507568e-01" nType="-99"/>
          <Node pos="r" depth="2" NCoef="0" IVar="-1" Cut="0.0000000000000000e+00" cType="1" res="3.7428125506266952e-04" rms="4.7178414463996887e-01" purity="4.7904169559478760e-01" nType="-99"/>
        </Node>
        <Node pos="r" depth="1" NCoef="0" IVar="6" Cut="4.0311441421508789e+00" cType="1" res="2.4316394701600075e-02" rms="4.6227276325225830e-01" purity="4.3622347712516785e-01" nType="0">
          <Node pos="l" depth="2" NCoef="0" IVar="-1" Cut="0.0000000000000000e+00" cType="1" res="4.1601527482271194e-04" rms="4.6676424145698547e-01" purity="3.7597897648811340e-01" nType="-99"/>
          <Node pos="r" depth="2" NCoef="0" IVar="-1" Cut="0.0000000000000000e+00" cType="1" res="6.2174741178750992e-03" rms="4.3654504418373108e-01" purity="6.8046563863754272e-01" nType="-99"/>
        </Node>
      </Node>
    </BinaryTree>
    <BinaryTree type="DecisionTree" boostWeight="1.0000000000000000e+00" itree="975">
      <Node pos="s" depth="0" NCoef="0" IVar="5" Cut="6.2690100097656250e+02" cType="1" res="-3.9942380972206593e-03" rms="4.6590784192085266e-01" purity="4.9751529097557068e-01" nType="0">
        <Node pos="l" depth="1" NCoef="0" IVar="5" Cut="5.7778314208984375e+02" cType="1" res="-1.9559588283300400e-02" rms="4.5920148491859436e-01" purity="4.1672095656394958e-01" nType="0">
          <Node pos="l" depth="2" NCoef="0" IVar="-1" Cut="0.0000000000000000e+00" cType="1" res="-3.3131550299003720e-04" rms="4.5725724101066589e-01" purity="4.0843054652214050e-01" nType="-99"/>
          <Node pos="r" depth="2" NCoef="0" IVar="-1" Cut="0.0000000000000000e+00" cType="1" res="-3.8971942849457264e-03" rms="4.6229729056358337e-01" purity="4.4209802150726318e-01" nType="-99"/>
        </Node>
        <Node pos="r" depth="1" NCoef="0" IVar="6" Cut="3.7614338397979736e+00" cType="1" res="5.7914471253752708e-03" rms="4.6981108188629150e-01" purity="5.4830932617187500e-01" nType="0">
          <Node pos="l" depth="2" NCoef="0" IVar="-1" Cut="0.0000000000000000e+00" cType="1" res="1.6796066192910075e-03" rms="4.8482027649879456e-01" purity="4.5578074455261230e-01" nType="-99"/>
          <Node pos="r" depth="2" NCoef="0" IVar="-1" Cut="0.0000000000000000e+00" cType="1" res="-1.0204297723248601e-03" rms="4.5415449142456055e-01" purity="6.3607341051101685e-01" nType="-99"/>
        </Node>
      </Node>
    </BinaryTree>
    <BinaryTree type="DecisionTree" boostWeight="1.0000000000000000e+00" itree="976">
      <Node pos="s" depth="0" NCoef="0" IVar="2" Cut="6.8837255239486694e-01" cType="1" res="-6.2162410467863083e-03" rms="4.6617850661277771e-01" purity="4.9608945846557617e-01" nType="0">
        <Node pos="l" depth="1" NCoef="0" IVar="6" Cut="5.4117941856384277e+00" cType="1" res="3.4412883687764406e-03" rms="4.6773424744606018e-01" purity="4.6304607391357422e-01" nType="0">
          <Node pos="l" depth="2" NCoef="0" IVar="-1" Cut="0.0000000000000000e+00" cType="1" res="5.6712719378992915e-04" rms="4.6728906035423279e-01" purity="4.3854877352714539e-01" nType="-99"/>
          <Node pos="r" depth="2" NCoef="0" IVar="-1" Cut="0.0000000000000000e+00" cType="1" res="-3.1118926126509905e-03" rms="4.6879434585571289e-01" purity="6.5636044740676880e-01" nType="-99"/>
        </Node>
        <Node pos="r" depth="1" NCoef="0" IVar="6" Cut="5.0005278587341309e+00" cType="1" res="-2.7912274003028870e-02" rms="4.6192866563796997e-01" purity="5.7032269239425659e-01" nType="0">
          <Node pos="l" depth="2" NCoef="0" IVar="-1" Cut="0.0000000000000000e+00" cType="1" res="-2.6965932920575142e-03" rms="4.8030441999435425e-01" purity="5.0641107559204102e-01" nType="-99"/>
          <Node pos="r" depth="2" NCoef="0" IVar="-1" Cut="0.0000000000000000e+00" cType="1" res="3.7651674356311560e-03" rms="3.7115344405174255e-01" purity="8.2976609468460083e-01" nType="-99"/>
        </Node>
      </Node>
    </BinaryTree>
    <BinaryTree type="DecisionTree" boostWeight="1.0000000000000000e+00" itree="977">
      <Node pos="s" depth="0" NCoef="0" IVar="5" Cut="1.0065881958007812e+03" cType="1" res="-1.6903126379474998e-03" rms="4.6115502715110779e-01" purity="4.9827656149864197e-01" nType="0">
        <Node pos="l" depth="1" NCoef="0" IVar="4" Cut="6.5098481718450785e-04" cType="1" res="5.3719189018011093e-03" rms="4.6007227897644043e-01" purity="4.9111500382423401e-01" nType="0">
          <Node pos="l" depth="2" NCoef="0" IVar="-1" Cut="0.0000000000000000e+00" cType="1" res="1.7402506200596690e-03" rms="4.4782403111457825e-01" purity="6.1101394891738892e-01" nType="-99"/>
          <Node pos="r" depth="2" NCoef="0" IVar="-1" Cut="0.0000000000000000e+00" cType="1" res="-3.2400779309682548e-04" rms="4.6634256839752197e-01" purity="4.2503288388252258e-01" nType="-99"/>
        </Node>
        <Node pos="r" depth="1" NCoef="0" IVar="4" Cut="1.0462107602506876e-03" cType="1" res="-3.5981036722660065e-02" rms="4.6485391259193420e-01" purity="5.3304964303970337e-01" nType="0">
          <Node pos="l" depth="2" NCoef="0" IVar="-1" Cut="0.0000000000000000e+00" cType="1" res="-5.0154272466897964e-03" rms="4.5107463002204895e-01" purity="5.5222851037979126e-01" nType="-99"/>
          <Node pos="r" depth="2" NCoef="0" IVar="-1" Cut="0.0000000000000000e+00" cType="1" res="-1.6283766308333725e-04" rms="4.7397741675376892e-01" purity="5.1643079519271851e-01" nType="-99"/>
        </Node>
      </Node>
    </BinaryTree>
    <BinaryTree type="DecisionTree" boostWeight="1.0000000000000000e+00" itree="978">
      <Node pos="s" depth="0" NCoef="0" IVar="3" Cut="1.2214608192443848e+00" cType="1" res="2.1041543222963810e-03" rms="4.6419343352317810e-01" purity="5.0480598211288452e-01" nType="0">
        <Node pos="l" depth="1" NCoef="0" IVar="6" Cut="3.0502657890319824e+00" cType="1" res="1.8798675388097763e-02" rms="4.5951998233795166e-01" purity="5.5766224861145020e-01" nType="0">
          <Node pos="l" depth="2" NCoef="0" IVar="-1" Cut="0.0000000000000000e+00" cType="1" res="-8.5231952834874392e-04" rms="4.7080400586128235e-01" purity="3.6958599090576172e-01" nType="-99"/>
          <Node pos="r" depth="2" NCoef="0" IVar="-1" Cut="0.0000000000000000e+00" cType="1" res="2.4208733811974525e-03" rms="4.5285561680793762e-01" purity="6.5205425024032593e-01" nType="-99"/>
        </Node>
        <Node pos="r" depth="1" NCoef="0" IVar="4" Cut="2.4130032397806644e-04" cType="1" res="-1.1062964797019958e-02" rms="4.6742612123489380e-01" purity="4.6311783790588379e-01" nType="0">
          <Node pos="l" depth="2" NCoef="0" IVar="-1" Cut="0.0000000000000000e+00" cType="1" res="-3.4511785488575697e-03" rms="4.5876517891883850e-01" purity="5.5875343084335327e-01" nType="-99"/>
          <Node pos="r" depth="2" NCoef="0" IVar="-1" Cut="0.0000000000000000e+00" cType="1" res="-4.7200079279718921e-05" rms="4.6917822957038879e-01" purity="4.3755856156349182e-01" nType="-99"/>
        </Node>
      </Node>
    </BinaryTree>
    <BinaryTree type="DecisionTree" boostWeight="1.0000000000000000e+00" itree="979">
      <Node pos="s" depth="0" NCoef="0" IVar="1" Cut="1.1334440708160400e+00" cType="1" res="-1.1440074071288109e-02" rms="4.6784183382987976e-01" purity="4.8582354187965393e-01" nType="0">
        <Node pos="l" depth="1" NCoef="0" IVar="3" Cut="7.6334810256958008e-01" cType="1" res="-2.1865041926503181e-02" rms="4.7327139973640442e-01" purity="5.2787303924560547e-01" nType="0">
          <Node pos="l" depth="2" NCoef="0" IVar="-1" Cut="0.0000000000000000e+00" cType="1" res="1.3427758822217584e-03" rms="4.5549601316452026e-01" purity="5.7655966281890869e-01" nType="-99"/>
          <Node pos="r" depth="2" NCoef="0" IVar="-1" Cut="0.0000000000000000e+00" cType="1" res="-2.0071088802069426e-03" rms="4.7664669156074524e-01" purity="5.1691919565200806e-01" nType="-99"/>
        </Node>
        <Node pos="r" depth="1" NCoef="0" IVar="1" Cut="1.8078131675720215e+00" cType="1" res="2.8657105285674334e-03" rms="4.5990231633186340e-01" purity="4.2812061309814453e-01" nType="0">
          <Node pos="l" depth="2" NCoef="0" IVar="-1" Cut="0.0000000000000000e+00" cType="1" res="1.5902428422123194e-03" rms="4.6442639827728271e-01" purity="5.0171267986297607e-01" nType="-99"/>
          <Node pos="r" depth="2" NCoef="0" IVar="-1" Cut="0.0000000000000000e+00" cType="1" res="-1.2852380750700831e-03" rms="4.5391413569450378e-01" purity="3.5035839676856995e-01" nType="-99"/>
        </Node>
      </Node>
    </BinaryTree>
    <BinaryTree type="DecisionTree" boostWeight="1.0000000000000000e+00" itree="980">
      <Node pos="s" depth="0" NCoef="0" IVar="2" Cut="4.6443474292755127e-01" cType="1" res="-6.1976304277777672e-03" rms="4.6562895178794861e-01" purity="4.9269133806228638e-01" nType="0">
        <Node pos="l" depth="1" NCoef="0" IVar="2" Cut="3.9711597561836243e-01" cType="1" res="2.2109625861048698e-02" rms="4.5456698536872864e-01" purity="4.2020416259765625e-01" nType="0">
          <Node pos="l" depth="2" NCoef="0" IVar="-1" Cut="0.0000000000000000e+00" cType="1" res="-2.1772277541458607e-03" rms="4.4286531209945679e-01" purity="3.4204149246215820e-01" nType="-99"/>
          <Node pos="r" depth="2" NCoef="0" IVar="-1" Cut="0.0000000000000000e+00" cType="1" res="3.9235735312104225e-03" rms="4.5824453234672546e-01" purity="4.7229442000389099e-01" nType="-99"/>
        </Node>
        <Node pos="r" depth="1" NCoef="0" IVar="2" Cut="6.7595094442367554e-01" cType="1" res="-1.2561359442770481e-02" rms="4.6784403920173645e-01" purity="5.0898706912994385e-01" nType="0">
          <Node pos="l" depth="2" NCoef="0" IVar="-1" Cut="0.0000000000000000e+00" cType="1" res="-1.4152777148410678e-03" rms="4.6895697712898254e-01" purity="4.5198655128479004e-01" nType="-99"/>
          <Node pos="r" depth="2" NCoef="0" IVar="-1" Cut="0.0000000000000000e+00" cType="1" res="2.1270502475090325e-04" rms="4.6572098135948181e-01" purity="5.9486711025238037e-01" nType="-99"/>
        </Node>
      </Node>
    </BinaryTree>
    <BinaryTree type="DecisionTree" boostWeight="1.0000000000000000e+00" itree="981">
      <Node pos="s" depth="0" NCoef="0" IVar="1" Cut="5.2604776620864868e-01" cType="1" res="-3.8736633723601699e-04" rms="4.6205767989158630e-01" purity="4.9930891394615173e-01" nType="0">
        <Node pos="l" depth="1" NCoef="0" IVar="4" Cut="1.0046721436083317e-03" cType="1" res="3.6135513335466385e-02" rms="4.6397584676742554e-01" purity="6.1044603586196899e-01" nType="0">
          <Node pos="l" depth="2" NCoef="0" IVar="-1" Cut="0.0000000000000000e+00" cType="1" res="1.9532266014721245e-04" rms="4.5238178968429565e-01" purity="6.4790481328964233e-01" nType="-99"/>
          <Node pos="r" depth="2" NCoef="0" IVar="-1" Cut="0.0000000000000000e+00" cType="1" res="4.0522334165871143e-03" rms="4.7168964147567749e-01" purity="5.7885813713073730e-01" nType="-99"/>
        </Node>
        <Node pos="r" depth="1" NCoef="0" IVar="0" Cut="2.6963444426655769e-02" cType="1" res="-1.1255687102675438e-02" rms="4.6092697978019714e-01" purity="4.6623721718788147e-01" nType="0">
          <Node pos="l" depth="2" NCoef="0" IVar="-1" Cut="0.0000000000000000e+00" cType="1" res="1.9836577121168375e-03" rms="4.6763700246810913e-01" purity="4.3206539750099182e-01" nType="-99"/>
          <Node pos="r" depth="2" NCoef="0" IVar="-1" Cut="0.0000000000000000e+00" cType="1" res="-1.0726454202085733e-03" rms="4.5972403883934021e-01" purity="4.7075971961021423e-01" nType="-99"/>
        </Node>
      </Node>
    </BinaryTree>
    <BinaryTree type="DecisionTree" boostWeight="1.0000000000000000e+00" itree="982">
      <Node pos="s" depth="0" NCoef="0" IVar="4" Cut="8.9819962158799171e-04" cType="1" res="-8.0925514921545982e-03" rms="4.6606960892677307e-01" purity="4.9758878350257874e-01" nType="0">
        <Node pos="l" depth="1" NCoef="0" IVar="2" Cut="4.7223168611526489e-01" cType="1" res="7.8956447541713715e-03" rms="4.6353253722190857e-01" purity="5.9717750549316406e-01" nType="0">
          <Node pos="l" depth="2" NCoef="0" IVar="-1" Cut="0.0000000000000000e+00" cType="1" res="3.4519636537879705e-03" rms="4.6630162000656128e-01" purity="5.5709367990493774e-01" nType="-99"/>
          <Node pos="r" depth="2" NCoef="0" IVar="-1" Cut="0.0000000000000000e+00" cType="1" res="-1.8202108913101256e-04" rms="4.6225675940513611e-01" purity="6.0649311542510986e-01" nType="-99"/>
        </Node>
        <Node pos="r" depth="1" NCoef="0" IVar="6" Cut="2.4792265892028809e+00" cType="1" res="-1.9886827096343040e-02" rms="4.6758213639259338e-01" purity="4.2412358522415161e-01" nType="0">
          <Node pos="l" depth="2" NCoef="0" IVar="-1" Cut="0.0000000000000000e+00" cType="1" res="-1.1213955986022484e-06" rms="4.4637343287467957e-01" purity="3.1027004122734070e-01" nType="-99"/>
          <Node pos="r" depth="2" NCoef="0" IVar="-1" Cut="0.0000000000000000e+00" cType="1" res="-1.6026669181883335e-03" rms="4.7534301877021790e-01" purity="4.6835762262344360e-01" nType="-99"/>
        </Node>
      </Node>
    </BinaryTree>
    <BinaryTree type="DecisionTree" boostWeight="1.0000000000000000e+00" itree="983">
      <Node pos="s" depth="0" NCoef="0" IVar="1" Cut="1.2692781686782837e+00" cType="1" res="9.9929398857057095e-04" rms="4.6172258257865906e-01" purity="4.9337607622146606e-01" nType="0">
        <Node pos="l" depth="1" NCoef="0" IVar="6" Cut="2.3325364589691162e+00" cType="1" res="1.4467666856944561e-02" rms="4.6479535102844238e-01" purity="5.5750042200088501e-01" nType="0">
          <Node pos="l" depth="2" NCoef="0" IVar="-1" Cut="0.0000000000000000e+00" cType="1" res="-1.2831186177209020e-03" rms="4.5362481474876404e-01" purity="3.1919714808464050e-01" nType="-99"/>
          <Node pos="r" depth="2" NCoef="0" IVar="-1" Cut="0.0000000000000000e+00" cType="1" res="1.4591924846172333e-03" rms="4.6681424975395203e-01" purity="6.0877186059951782e-01" nType="-99"/>
        </Node>
        <Node pos="r" depth="1" NCoef="0" IVar="5" Cut="8.3602673339843750e+02" cType="1" res="-2.1461391821503639e-02" rms="4.5566761493682861e-01" purity="3.8643839955329895e-01" nType="0">
          <Node pos="l" depth="2" NCoef="0" IVar="-1" Cut="0.0000000000000000e+00" cType="1" res="-6.5345002803951502e-04" rms="4.4754406809806824e-01" purity="3.7718567252159119e-01" nType="-99"/>
          <Node pos="r" depth="2" NCoef="0" IVar="-1" Cut="0.0000000000000000e+00" cType="1" res="-3.0147284269332886e-03" rms="4.7469633817672729e-01" purity="4.1023924946784973e-01" nType="-99"/>
        </Node>
      </Node>
    </BinaryTree>
    <BinaryTree type="DecisionTree" boostWeight="1.0000000000000000e+00" itree="984">
      <Node pos="s" depth="0" NCoef="0" IVar="0" Cut="1.2802143394947052e-01" cType="1" res="-5.3288473282009363e-04" rms="4.6877816319465637e-01" purity="5.0122350454330444e-01" nType="0">
        <Node pos="l" depth="1" NCoef="0" IVar="1" Cut="1.2621600627899170e+00" cType="1" res="1.3494590297341347e-02" rms="4.6878004074096680e-01" purity="4.8507151007652283e-01" nType="0">
          <Node pos="l" depth="2" NCoef="0" IVar="-1" Cut="0.0000000000000000e+00" cType="1" res="-9.1234229330439121e-05" rms="4.6813097596168518e-01" purity="5.1780879497528076e-01" nType="-99"/>
          <Node pos="r" depth="2" NCoef="0" IVar="-1" Cut="0.0000000000000000e+00" cType="1" res="2.2899899631738663e-03" rms="4.6885693073272705e-01" purity="4.3568614125251770e-01" nType="-99"/>
        </Node>
        <Node pos="r" depth="1" NCoef="0" IVar="2" Cut="8.0969530344009399e-01" cType="1" res="-3.7721119821071625e-02" rms="4.6673727035522461e-01" purity="5.4404401779174805e-01" nType="0">
          <Node pos="l" depth="2" NCoef="0" IVar="-1" Cut="0.0000000000000000e+00" cType="1" res="-1.5657125040888786e-03" rms="4.6485623717308044e-01" purity="5.3982049226760864e-01" nType="-99"/>
          <Node pos="r" depth="2" NCoef="0" IVar="-1" Cut="0.0000000000000000e+00" cType="1" res="-6.8666916340589523e-03" rms="4.7037971019744873e-01" purity="5.6273651123046875e-01" nType="-99"/>
        </Node>
      </Node>
    </BinaryTree>
    <BinaryTree type="DecisionTree" boostWeight="1.0000000000000000e+00" itree="985">
      <Node pos="s" depth="0" NCoef="0" IVar="0" Cut="2.1772694587707520e-01" cType="1" res="-3.9461096748709679e-03" rms="4.6590098738670349e-01" purity="4.9449133872985840e-01" nType="0">
        <Node pos="l" depth="1" NCoef="0" IVar="0" Cut="1.8178942799568176e-01" cType="1" res="-8.3219371736049652e-03" rms="4.6684846282005310e-01" purity="4.8408159613609314e-01" nType="0">
          <Node pos="l" depth="2" NCoef="0" IVar="-1" Cut="0.0000000000000000e+00" cType="1" res="-1.2393637734930962e-04" rms="4.6578410267829895e-01" purity="4.8443442583084106e-01" nType="-99"/>
          <Node pos="r" depth="2" NCoef="0" IVar="-1" Cut="0.0000000000000000e+00" cType="1" res="-7.7290530316531658e-03" rms="4.7133228182792664e-01" purity="4.7792738676071167e-01" nType="-99"/>
        </Node>
        <Node pos="r" depth="1" NCoef="0" IVar="-1" Cut="0.0000000000000000e+00" cType="1" res="5.1833684556186199e-03" rms="4.4294118881225586e-01" purity="6.7134946584701538e-01" nType="-99"/>
      </Node>
    </BinaryTree>
    <BinaryTree type="DecisionTree" boostWeight="1.0000000000000000e+00" itree="986">
      <Node pos="s" depth="0" NCoef="0" IVar="0" Cut="2.1121062338352203e-01" cType="1" res="4.5844414853490889e-04" rms="4.6584826707839966e-01" purity="5.0244784355163574e-01" nType="0">
        <Node pos="l" depth="1" NCoef="0" IVar="0" Cut="1.4597660303115845e-01" cType="1" res="4.7155530191957951e-03" rms="4.6468836069107056e-01" purity="4.9923971295356750e-01" nType="0">
          <Node pos="l" depth="2" NCoef="0" IVar="-1" Cut="0.0000000000000000e+00" cType="1" res="-7.8569391916971654e-05" rms="4.6563434600830078e-01" purity="4.8122015595436096e-01" nType="-99"/>
          <Node pos="r" depth="2" NCoef="0" IVar="-1" Cut="0.0000000000000000e+00" cType="1" res="2.9459688812494278e-03" rms="4.5676654577255249e-01" purity="6.1443859338760376e-01" nType="-99"/>
        </Node>
        <Node pos="r" depth="1" NCoef="0" IVar="-1" Cut="0.0000000000000000e+00" cType="1" res="-4.1036470793187618e-03" rms="4.7799384593963623e-01" purity="5.4828989505767822e-01" nType="-99"/>
      </Node>
    </BinaryTree>
    <BinaryTree type="DecisionTree" boostWeight="1.0000000000000000e+00" itree="987">
      <Node pos="s" depth="0" NCoef="0" IVar="2" Cut="5.2364957332611084e-01" cType="1" res="-1.5349989989772439e-03" rms="4.6317145228385925e-01" purity="5.0035691261291504e-01" nType="0">
        <Node pos="l" depth="1" NCoef="0" IVar="1" Cut="7.4769228696823120e-01" cType="1" res="-2.1967446431517601e-02" rms="4.5575433969497681e-01" purity="3.9863604307174683e-01" nType="0">
          <Node pos="l" depth="2" NCoef="0" IVar="-1" Cut="0.0000000000000000e+00" cType="1" res="1.8233766313642263e-03" rms="4.7173264622688293e-01" purity="5.4589974880218506e-01" nType="-99"/>
          <Node pos="r" depth="2" NCoef="0" IVar="-1" Cut="0.0000000000000000e+00" cType="1" res="-2.6225333567708731e-03" rms="4.4747227430343628e-01" purity="3.3867898583412170e-01" nType="-99"/>
        </Node>
        <Node pos="r" depth="1" NCoef="0" IVar="4" Cut="1.5851552598178387e-04" cType="1" res="7.8741284087300301e-03" rms="4.6624636650085449e-01" purity="5.4719930887222290e-01" nType="0">
          <Node pos="l" depth="2" NCoef="0" IVar="-1" Cut="0.0000000000000000e+00" cType="1" res="-2.9727269429713488e-03" rms="4.6156749129295349e-01" purity="6.6856271028518677e-01" nType="-99"/>
          <Node pos="r" depth="2" NCoef="0" IVar="-1" Cut="0.0000000000000000e+00" cType="1" res="1.0620275279507041e-03" rms="4.6667656302452087e-01" purity="5.2263081073760986e-01" nType="-99"/>
        </Node>
      </Node>
    </BinaryTree>
    <BinaryTree type="DecisionTree" boostWeight="1.0000000000000000e+00" itree="988">
      <Node pos="s" depth="0" NCoef="0" IVar="3" Cut="6.1943459510803223e-01" cType="1" res="-5.5071380920708179e-03" rms="4.6449074149131775e-01" purity="4.9617329239845276e-01" nType="0">
        <Node pos="l" depth="1" NCoef="0" IVar="-1" Cut="0.0000000000000000e+00" cType="1" res="4.9241282977163792e-03" rms="4.6095952391624451e-01" purity="5.9312874078750610e-01" nType="-99"/>
        <Node pos="r" depth="1" NCoef="0" IVar="1" Cut="3.9621549844741821e-01" cType="1" res="-1.2573864310979843e-02" rms="4.6412390470504761e-01" purity="4.8774817585945129e-01" nType="0">
          <Node pos="l" depth="2" NCoef="0" IVar="-1" Cut="0.0000000000000000e+00" cType="1" res="-4.0482655167579651e-03" rms="4.6581986546516418e-01" purity="5.1534986495971680e-01" nType="-99"/>
          <Node pos="r" depth="2" NCoef="0" IVar="-1" Cut="0.0000000000000000e+00" cType="1" res="-1.7115972877945751e-04" rms="4.6314281225204468e-01" purity="4.8245999217033386e-01" nType="-99"/>
        </Node>
      </Node>
    </BinaryTree>
    <BinaryTree type="DecisionTree" boostWeight="1.0000000000000000e+00" itree="989">
      <Node pos="s" depth="0" NCoef="0" IVar="0" Cut="1.7578554153442383e-01" cType="1" res="7.8086140565574169e-03" rms="4.6596091985702515e-01" purity="5.0719547271728516e-01" nType="0">
        <Node pos="l" depth="1" NCoef="0" IVar="4" Cut="2.0861069206148386e-03" cType="1" res="2.9789053369313478e-03" rms="4.6613144874572754e-01" purity="4.8714521527290344e-01" nType="0">
          <Node pos="l" depth="2" NCoef="0" IVar="-1" Cut="0.0000000000000000e+00" cType="1" res="8.3837140118703246e-04" rms="4.6733701229095459e-01" purity="5.3214383125305176e-01" nType="-99"/>
          <Node pos="r" depth="2" NCoef="0" IVar="-1" Cut="0.0000000000000000e+00" cType="1" res="-1.2227407423779368e-03" rms="4.6231865882873535e-01" purity="3.7777942419052124e-01" nType="-99"/>
        </Node>
        <Node pos="r" depth="1" NCoef="0" IVar="6" Cut="3.9735000133514404e+00" cType="1" res="4.0571857243776321e-02" rms="4.6347555518150330e-01" purity="6.4321029186248779e-01" nType="0">
          <Node pos="l" depth="2" NCoef="0" IVar="-1" Cut="0.0000000000000000e+00" cType="1" res="4.6390253119170666e-03" rms="4.8032009601593018e-01" purity="5.6993955373764038e-01" nType="-99"/>
          <Node pos="r" depth="2" NCoef="0" IVar="-1" Cut="0.0000000000000000e+00" cType="1" res="-1.6056023014243692e-04" rms="4.3765842914581299e-01" purity="7.3549163341522217e-01" nType="-99"/>
        </Node>
      </Node>
    </BinaryTree>
    <BinaryTree type="DecisionTree" boostWeight="1.0000000000000000e+00" itree="990">
      <Node pos="s" depth="0" NCoef="0" IVar="6" Cut="1.6840875148773193e+00" cType="1" res="2.8169513680040836e-03" rms="4.6306645870208740e-01" purity="5.0282543897628784e-01" nType="0">
        <Node pos="l" depth="1" NCoef="0" IVar="-1" Cut="0.0000000000000000e+00" cType="1" res="3.5802389029413462e-03" rms="4.6034452319145203e-01" purity="3.4490221738815308e-01" nType="-99"/>
        <Node pos="r" depth="1" NCoef="0" IVar="1" Cut="9.0776604413986206e-01" cType="1" res="-3.5225503961555660e-04" rms="4.6306565403938293e-01" purity="5.1310515403747559e-01" nType="0">
          <Node pos="l" depth="2" NCoef="0" IVar="-1" Cut="0.0000000000000000e+00" cType="1" res="-1.0697013931348920e-03" rms="4.6661475300788879e-01" purity="5.6403762102127075e-01" nType="-99"/>
          <Node pos="r" depth="2" NCoef="0" IVar="-1" Cut="0.0000000000000000e+00" cType="1" res="8.4217533003538847e-04" rms="4.5957717299461365e-01" purity="4.6972030401229858e-01" nType="-99"/>
        </Node>
      </Node>
    </BinaryTree>
    <BinaryTree type="DecisionTree" boostWeight="1.0000000000000000e+00" itree="991">
      <Node pos="s" depth="0" NCoef="0" IVar="2" Cut="6.1043292284011841e-01" cType="1" res="1.1421978473663330e-02" rms="4.6274715662002563e-01" purity="5.1191300153732300e-01" nType="0">
        <Node pos="l" depth="1" NCoef="0" IVar="4" Cut="2.4412306083831936e-04" cType="1" res="-7.5679100118577480e-03" rms="4.6666347980499268e-01" purity="4.2905271053314209e-01" nType="0">
          <Node pos="l" depth="2" NCoef="0" IVar="-1" Cut="0.0000000000000000e+00" cType="1" res="-3.7763332948088646e-03" rms="4.6698886156082153e-01" purity="5.2223587036132812e-01" nType="-99"/>
          <Node pos="r" depth="2" NCoef="0" IVar="-1" Cut="0.0000000000000000e+00" cType="1" res="2.9619887936860323e-04" rms="4.6575155854225159e-01" purity="4.0610915422439575e-01" nType="-99"/>
        </Node>
        <Node pos="r" depth="1" NCoef="0" IVar="0" Cut="5.4358303546905518e-02" cType="1" res="3.1967040151357651e-02" rms="4.5758581161499023e-01" purity="6.0155904293060303e-01" nType="0">
          <Node pos="l" depth="2" NCoef="0" IVar="-1" Cut="0.0000000000000000e+00" cType="1" res="-1.2627006508409977e-03" rms="4.6009442210197449e-01" purity="5.0935441255569458e-01" nType="-99"/>
          <Node pos="r" depth="2" NCoef="0" IVar="-1" Cut="0.0000000000000000e+00" cType="1" res="2.7986527420580387e-03" rms="4.5654618740081787e-01" purity="6.1755907535552979e-01" nType="-99"/>
        </Node>
      </Node>
    </BinaryTree>
    <BinaryTree type="DecisionTree" boostWeight="1.0000000000000000e+00" itree="992">
      <Node pos="s" depth="0" NCoef="0" IVar="3" Cut="8.2304471731185913e-01" cType="1" res="9.4059342518448830e-03" rms="4.6303540468215942e-01" purity="5.0923764705657959e-01" nType="0">
        <Node pos="l" depth="1" NCoef="0" IVar="4" Cut="1.0241062846034765e-03" cType="1" res="-3.4696470946073532e-02" rms="4.6896910667419434e-01" purity="4.9298506975173950e-01" nType="0">
          <Node pos="l" depth="2" NCoef="0" IVar="-1" Cut="0.0000000000000000e+00" cType="1" res="-1.3452983694151044e-04" rms="4.6950972080230713e-01" purity="5.9429448843002319e-01" nType="-99"/>
          <Node pos="r" depth="2" NCoef="0" IVar="-1" Cut="0.0000000000000000e+00" cType="1" res="-3.8529105950146914e-03" rms="4.6627560257911682e-01" purity="3.9518645405769348e-01" nType="-99"/>
        </Node>
        <Node pos="r" depth="1" NCoef="0" IVar="3" Cut="1.6533536911010742e+00" cType="1" res="2.0829364657402039e-02" rms="4.6079826354980469e-01" purity="5.1344740390777588e-01" nType="0">
          <Node pos="l" depth="2" NCoef="0" IVar="-1" Cut="0.0000000000000000e+00" cType="1" res="2.2347366902977228e-03" rms="4.6019065380096436e-01" purity="5.6471759080886841e-01" nType="-99"/>
          <Node pos="r" depth="2" NCoef="0" IVar="-1" Cut="0.0000000000000000e+00" cType="1" res="-1.4246205682866275e-04" rms="4.6102514863014221e-01" purity="4.1892209649085999e-01" nType="-99"/>
        </Node>
      </Node>
    </BinaryTree>
    <BinaryTree type="DecisionTree" boostWeight="1.0000000000000000e+00" itree="993">
      <Node pos="s" depth="0" NCoef="0" IVar="1" Cut="1.9670311212539673e+00" cType="1" res="3.0168141238391399e-03" rms="4.6426862478256226e-01" purity="5.0158685445785522e-01" nType="0">
        <Node pos="l" depth="1" NCoef="0" IVar="5" Cut="1.1784384765625000e+03" cType="1" res="-6.0157370753586292e-03" rms="4.6437504887580872e-01" purity="5.1946789026260376e-01" nType="0">
          <Node pos="l" depth="2" NCoef="0" IVar="-1" Cut="0.0000000000000000e+00" cType="1" res="4.8422548388771247e-06" rms="4.6147501468658447e-01" purity="5.1840162277221680e-01" nType="-99"/>
          <Node pos="r" depth="2" NCoef="0" IVar="-1" Cut="0.0000000000000000e+00" cType="1" res="-4.0414417162537575e-03" rms="4.8723492026329041e-01" purity="5.2956801652908325e-01" nType="-99"/>
        </Node>
        <Node pos="r" depth="1" NCoef="0" IVar="5" Cut="7.2064660644531250e+02" cType="1" res="4.8682227730751038e-02" rms="4.6102920174598694e-01" purity="4.1118672490119934e-01" nType="0">
          <Node pos="l" depth="2" NCoef="0" IVar="-1" Cut="0.0000000000000000e+00" cType="1" res="4.2747060069814324e-04" rms="4.4370621442794800e-01" purity="3.3645606040954590e-01" nType="-99"/>
          <Node pos="r" depth="2" NCoef="0" IVar="-1" Cut="0.0000000000000000e+00" cType="1" res="7.7906390652060509e-03" rms="4.7945001721382141e-01" purity="5.2742421627044678e-01" nType="-99"/>
        </Node>
      </Node>
    </BinaryTree>
    <BinaryTree type="DecisionTree" boostWeight="1.0000000000000000e+00" itree="994">
      <Node pos="s" depth="0" NCoef="0" IVar="1" Cut="4.4040068984031677e-01" cType="1" res="1.0012201964855194e-03" rms="4.6295732259750366e-01" purity="4.9657422304153442e-01" nType="0">
        <Node pos="l" depth="1" NCoef="0" IVar="5" Cut="8.3416027832031250e+02" cType="1" res="-3.2988343387842178e-02" rms="4.6332398056983948e-01" purity="5.4541969299316406e-01" nType="0">
          <Node pos="l" depth="2" NCoef="0" IVar="-1" Cut="0.0000000000000000e+00" cType="1" res="-4.0147933177649975e-03" rms="4.6504476666450500e-01" purity="4.8680534958839417e-01" nType="-99"/>
          <Node pos="r" depth="2" NCoef="0" IVar="-1" Cut="0.0000000000000000e+00" cType="1" res="2.1267842967063189e-03" rms="4.5321926474571228e-01" purity="6.6276919841766357e-01" nType="-99"/>
        </Node>
        <Node pos="r" depth="1" NCoef="0" IVar="0" Cut="1.8824568390846252e-01" cType="1" res="9.1196345165371895e-03" rms="4.6250027418136597e-01" purity="4.8490747809410095e-01" nType="0">
          <Node pos="l" depth="2" NCoef="0" IVar="-1" Cut="0.0000000000000000e+00" cType="1" res="8.8159641018137336e-04" rms="4.6165248751640320e-01" purity="4.7960925102233887e-01" nType="-99"/>
          <Node pos="r" depth="2" NCoef="0" IVar="-1" Cut="0.0000000000000000e+00" cType="1" res="-2.4643042124807835e-03" rms="4.6822994947433472e-01" purity="5.3738814592361450e-01" nType="-99"/>
        </Node>
      </Node>
    </BinaryTree>
    <BinaryTree type="DecisionTree" boostWeight="1.0000000000000000e+00" itree="995">
      <Node pos="s" depth="0" NCoef="0" IVar="5" Cut="5.1237896728515625e+02" cType="1" res="-7.5701945461332798e-03" rms="4.6438732743263245e-01" purity="4.9294918775558472e-01" nType="0">
        <Node pos="l" depth="1" NCoef="0" IVar="2" Cut="6.2058389186859131e-01" cType="1" res="-3.4956585615873337e-02" rms="4.5012655854225159e-01" purity="3.6706826090812683e-01" nType="0">
          <Node pos="l" depth="2" NCoef="0" IVar="-1" Cut="0.0000000000000000e+00" cType="1" res="-3.4561273641884327e-03" rms="4.3441149592399597e-01" purity="2.9158106446266174e-01" nType="-99"/>
          <Node pos="r" depth="2" NCoef="0" IVar="-1" Cut="0.0000000000000000e+00" cType="1" res="-5.3183187264949083e-04" rms="4.6881687641143799e-01" purity="4.6697613596916199e-01" nType="-99"/>
        </Node>
        <Node pos="r" depth="1" NCoef="0" IVar="1" Cut="3.7109565734863281e-01" cType="1" res="-2.0726870279759169e-03" rms="4.6700406074523926e-01" purity="5.1821839809417725e-01" nType="0">
          <Node pos="l" depth="2" NCoef="0" IVar="-1" Cut="0.0000000000000000e+00" cType="1" res="2.5445439387112856e-03" rms="4.4780263304710388e-01" purity="6.3967847824096680e-01" nType="-99"/>
          <Node pos="r" depth="2" NCoef="0" IVar="-1" Cut="0.0000000000000000e+00" cType="1" res="-5.6925049284473062e-04" rms="4.6997609734535217e-01" purity="4.9673044681549072e-01" nType="-99"/>
        </Node>
      </Node>
    </BinaryTree>
    <BinaryTree type="DecisionTree" boostWeight="1.0000000000000000e+00" itree="996">
      <Node pos="s" depth="0" NCoef="0" IVar="0" Cut="1.6775179654359818e-02" cType="1" res="-4.5314650051295757e-03" rms="4.6292895078659058e-01" purity="4.8982304334640503e-01" nType="0">
        <Node pos="l" depth="1" NCoef="0" IVar="-1" Cut="0.0000000000000000e+00" cType="1" res="-4.2377347126603127e-03" rms="4.6009930968284607e-01" purity="3.5022914409637451e-01" nType="-99"/>
        <Node pos="r" depth="1" NCoef="0" IVar="3" Cut="2.2268917560577393e+00" cType="1" res="-3.0906955362297595e-04" rms="4.6277159452438354e-01" purity="4.9843546748161316e-01" nType="0">
          <Node pos="l" depth="2" NCoef="0" IVar="-1" Cut="0.0000000000000000e+00" cType="1" res="-2.8507213573902845e-04" rms="4.6369802951812744e-01" purity="5.1010560989379883e-01" nType="-99"/>
          <Node pos="r" depth="2" NCoef="0" IVar="-1" Cut="0.0000000000000000e+00" cType="1" res="3.9411629550158978e-03" rms="4.4640722870826721e-01" purity="3.4133124351501465e-01" nType="-99"/>
        </Node>
      </Node>
    </BinaryTree>
    <BinaryTree type="DecisionTree" boostWeight="1.0000000000000000e+00" itree="997">
      <Node pos="s" depth="0" NCoef="0" IVar="6" Cut="2.8241453170776367e+00" cType="1" res="1.2656096369028091e-03" rms="4.6330669522285461e-01" purity="5.0497686862945557e-01" nType="0">
        <Node pos="l" depth="1" NCoef="0" IVar="1" Cut="5.2587091922760010e-01" cType="1" res="-2.2506311535835266e-02" rms="4.4817709922790527e-01" purity="3.1316497921943665e-01" nType="0">
          <Node pos="l" depth="2" NCoef="0" IVar="-1" Cut="0.0000000000000000e+00" cType="1" res="1.3548785354942083e-03" rms="4.8193171620368958e-01" purity="4.2597034573554993e-01" nType="-99"/>
          <Node pos="r" depth="2" NCoef="0" IVar="-1" Cut="0.0000000000000000e+00" cType="1" res="-2.3221098817884922e-03" rms="4.3655803799629211e-01" purity="2.7908074855804443e-01" nType="-99"/>
        </Node>
        <Node pos="r" depth="1" NCoef="0" IVar="3" Cut="1.1379554271697998e+00" cType="1" res="1.0823408141732216e-02" rms="4.6891272068023682e-01" purity="5.8209723234176636e-01" nType="0">
          <Node pos="l" depth="2" NCoef="0" IVar="-1" Cut="0.0000000000000000e+00" cType="1" res="-1.1111490894109011e-03" rms="4.7294363379478455e-01" purity="5.9107357263565063e-01" nType="-99"/>
          <Node pos="r" depth="2" NCoef="0" IVar="-1" Cut="0.0000000000000000e+00" cType="1" res="1.8986838404089212e-03" rms="4.6524688601493835e-01" purity="5.7604891061782837e-01" nType="-99"/>
        </Node>
      </Node>
    </BinaryTree>
    <BinaryTree type="DecisionTree" boostWeight="1.0000000000000000e+00" itree="998">
      <Node pos="s" depth="0" NCoef="0" IVar="1" Cut="4.6528950333595276e-01" cType="1" res="4.2037054663524032e-04" rms="4.6318405866622925e-01" purity="4.9860170483589172e-01" nType="0">
        <Node pos="l" depth="1" NCoef="0" IVar="5" Cut="8.8208972167968750e+02" cType="1" res="3.8866102695465088e-02" rms="4.5919036865234375e-01" purity="6.1345434188842773e-01" nType="0">
          <Node pos="l" depth="2" NCoef="0" IVar="-1" Cut="0.0000000000000000e+00" cType="1" res="4.6410090290009975e-03" rms="4.5277494192123413e-01" purity="6.2835329771041870e-01" nType="-99"/>
          <Node pos="r" depth="2" NCoef="0" IVar="-1" Cut="0.0000000000000000e+00" cType="1" res="-2.1124919876456261e-03" rms="4.6642518043518066e-01" purity="5.7824671268463135e-01" nType="-99"/>
        </Node>
        <Node pos="r" depth="1" NCoef="0" IVar="0" Cut="4.6934962272644043e-02" cType="1" res="-9.0593723580241203e-03" rms="4.6367385983467102e-01" purity="4.7028198838233948e-01" nType="0">
          <Node pos="l" depth="2" NCoef="0" IVar="-1" Cut="0.0000000000000000e+00" cType="1" res="-2.2555852774530649e-03" rms="4.6009069681167603e-01" purity="3.8269996643066406e-01" nType="-99"/>
          <Node pos="r" depth="2" NCoef="0" IVar="-1" Cut="0.0000000000000000e+00" cType="1" res="1.4964019646868110e-04" rms="4.6466335654258728e-01" purity="5.0637918710708618e-01" nType="-99"/>
        </Node>
      </Node>
    </BinaryTree>
    <BinaryTree type="DecisionTree" boostWeight="1.0000000000000000e+00" itree="999">
      <Node pos="s" depth="0" NCoef="0" IVar="6" Cut="3.7990653514862061e+00" cType="1" res="-2.4331281019840389e-04" rms="4.6071958541870117e-01" purity="5.0078278779983521e-01" nType="0">
        <Node pos="l" depth="1" NCoef="0" IVar="6" Cut="3.0864741802215576e+00" cType="1" res="-1.4616007916629314e-02" rms="4.6462023258209229e-01" purity="3.7799510359764099e-01" nType="0">
          <Node pos="l" depth="2" NCoef="0" IVar="-1" Cut="0.0000000000000000e+00" cType="1" res="2.6042712852358818e-04" rms="4.5856156945228577e-01" purity="3.5469293594360352e-01" nType="-99"/>
          <Node pos="r" depth="2" NCoef="0" IVar="-1" Cut="0.0000000000000000e+00" cType="1" res="-2.8330783825367689e-03" rms="4.7379133105278015e-01" purity="4.2177021503448486e-01" nType="-99"/>
        </Node>
        <Node pos="r" depth="1" NCoef="0" IVar="3" Cut="7.9094642400741577e-01" cType="1" res="1.7362102866172791e-02" rms="4.5527824759483337e-01" purity="6.5118795633316040e-01" nType="0">
          <Node pos="l" depth="2" NCoef="0" IVar="-1" Cut="0.0000000000000000e+00" cType="1" res="-2.3725349456071854e-03" rms="4.6914210915565491e-01" purity="6.1569547653198242e-01" nType="-99"/>
          <Node pos="r" depth="2" NCoef="0" IVar="-1" Cut="0.0000000000000000e+00" cType="1" res="2.0897826179862022e-03" rms="4.5092353224754333e-01" purity="6.5977239608764648e-01" nType="-99"/>
        </Node>
      </Node>
    </BinaryTree>
    <BinaryTree type="DecisionTree" boostWeight="1.0000000000000000e+00" itree="1000">
      <Node pos="s" depth="0" NCoef="0" IVar="2" Cut="8.1033587455749512e-01" cType="1" res="-7.3345680721104145e-03" rms="4.6502602100372314e-01" purity="4.9393856525421143e-01" nType="0">
        <Node pos="l" depth="1" NCoef="0" IVar="4" Cut="7.9886893217917532e-05" cType="1" res="-2.1392279304563999e-03" rms="4.6469730138778687e-01" purity="4.8189637064933777e-01" nType="0">
          <Node pos="l" depth="2" NCoef="0" IVar="-1" Cut="0.0000000000000000e+00" cType="1" res="-3.2081825193017721e-03" rms="4.5178133249282837e-01" purity="6.1179494857788086e-01" nType="-99"/>
          <Node pos="r" depth="2" NCoef="0" IVar="-1" Cut="0.0000000000000000e+00" cType="1" res="1.6727916954550892e-04" rms="4.6597608923912048e-01" purity="4.6644195914268494e-01" nType="-99"/>
        </Node>
        <Node pos="r" depth="1" NCoef="0" IVar="-1" Cut="0.0000000000000000e+00" cType="1" res="-4.0248837321996689e-03" rms="4.6526500582695007e-01" purity="6.0774809122085571e-01" nType="-99"/>
      </Node>
    </BinaryTree>
    <BinaryTree type="DecisionTree" boostWeight="1.0000000000000000e+00" itree="1001">
      <Node pos="s" depth="0" NCoef="0" IVar="0" Cut="5.1090404391288757e-02" cType="1" res="1.2195173185318708e-03" rms="4.7089073061943054e-01" purity="5.0216066837310791e-01" nType="0">
        <Node pos="l" depth="1" NCoef="0" IVar="3" Cut="9.5747226476669312e-01" cType="1" res="3.5951115190982819e-02" rms="4.6864864230155945e-01" purity="4.7181937098503113e-01" nType="0">
          <Node pos="l" depth="2" NCoef="0" IVar="-1" Cut="0.0000000000000000e+00" cType="1" res="4.8885671421885490e-03" rms="4.6767374873161316e-01" purity="5.4764676094055176e-01" nType="-99"/>
          <Node pos="r" depth="2" NCoef="0" IVar="-1" Cut="0.0000000000000000e+00" cType="1" res="1.1736812302842736e-03" rms="4.6801298856735229e-01" purity="4.3907153606414795e-01" nType="-99"/>
        </Node>
        <Node pos="r" depth="1" NCoef="0" IVar="3" Cut="8.2333350181579590e-01" cType="1" res="-1.3158558867871761e-02" rms="4.7106689214706421e-01" purity="5.1472127437591553e-01" nType="0">
          <Node pos="l" depth="2" NCoef="0" IVar="-1" Cut="0.0000000000000000e+00" cType="1" res="1.7704290803521872e-03" rms="4.6767234802246094e-01" purity="5.8571678400039673e-01" nType="-99"/>
          <Node pos="r" depth="2" NCoef="0" IVar="-1" Cut="0.0000000000000000e+00" cType="1" res="-1.3971658190712333e-03" rms="4.7134906053543091e-01" purity="4.9952858686447144e-01" nType="-99"/>
        </Node>
      </Node>
    </BinaryTree>
    <BinaryTree type="DecisionTree" boostWeight="1.0000000000000000e+00" itree="1002">
      <Node pos="s" depth="0" NCoef="0" IVar="0" Cut="1.7891116440296173e-01" cType="1" res="5.3420118056237698e-03" rms="4.6422934532165527e-01" purity="5.0597524642944336e-01" nType="0">
        <Node pos="l" depth="1" NCoef="0" IVar="2" Cut="7.7126801013946533e-01" cType="1" res="2.7539650909602642e-04" rms="4.6503251791000366e-01" purity="4.8734173178672791e-01" nType="0">
          <Node pos="l" depth="2" NCoef="0" IVar="-1" Cut="0.0000000000000000e+00" cType="1" res="3.2768803066574037e-04" rms="4.6496373414993286e-01" purity="4.7248584032058716e-01" nType="-99"/>
          <Node pos="r" depth="2" NCoef="0" IVar="-1" Cut="0.0000000000000000e+00" cType="1" res="-2.3175778333097696e-03" rms="4.6406131982803345e-01" purity="5.9085386991500854e-01" nType="-99"/>
        </Node>
        <Node pos="r" depth="1" NCoef="0" IVar="6" Cut="3.8950297832489014e+00" cType="1" res="4.3929494917392731e-02" rms="4.5622393488883972e-01" purity="6.4788848161697388e-01" nType="0">
          <Node pos="l" depth="2" NCoef="0" IVar="-1" Cut="0.0000000000000000e+00" cType="1" res="5.4428991861641407e-03" rms="4.7916746139526367e-01" purity="5.7694590091705322e-01" nType="-99"/>
          <Node pos="r" depth="2" NCoef="0" IVar="-1" Cut="0.0000000000000000e+00" cType="1" res="-4.2833870975300670e-04" rms="4.2243465781211853e-01" purity="7.3130303621292114e-01" nType="-99"/>
        </Node>
      </Node>
    </BinaryTree>
    <BinaryTree type="DecisionTree" boostWeight="1.0000000000000000e+00" itree="1003">
      <Node pos="s" depth="0" NCoef="0" IVar="0" Cut="1.2798883020877838e-01" cType="1" res="3.6365916021168232e-03" rms="4.6592885255813599e-01" purity="5.0726807117462158e-01" nType="0">
        <Node pos="l" depth="1" NCoef="0" IVar="4" Cut="7.2390149580314755e-04" cType="1" res="-7.4860863387584686e-03" rms="4.6622678637504578e-01" purity="4.6754011511802673e-01" nType="0">
          <Node pos="l" depth="2" NCoef="0" IVar="-1" Cut="0.0000000000000000e+00" cType="1" res="-1.6900163609534502e-03" rms="4.6929156780242920e-01" purity="5.3554821014404297e-01" nType="-99"/>
          <Node pos="r" depth="2" NCoef="0" IVar="-1" Cut="0.0000000000000000e+00" cType="1" res="2.3809311096556485e-04" rms="4.6392908692359924e-01" purity="4.2476412653923035e-01" nType="-99"/>
        </Node>
        <Node pos="r" depth="1" NCoef="0" IVar="6" Cut="2.9938924312591553e+00" cType="1" res="3.3687826246023178e-02" rms="4.6379086375236511e-01" purity="6.1460506916046143e-01" nType="0">
          <Node pos="l" depth="2" NCoef="0" IVar="-1" Cut="0.0000000000000000e+00" cType="1" res="5.3357551805675030e-03" rms="4.8285484313964844e-01" purity="4.9045950174331665e-01" nType="-99"/>
          <Node pos="r" depth="2" NCoef="0" IVar="-1" Cut="0.0000000000000000e+00" cType="1" res="6.9795630406588316e-04" rms="4.5267063379287720e-01" purity="6.7230820655822754e-01" nType="-99"/>
        </Node>
      </Node>
    </BinaryTree>
    <BinaryTree type="DecisionTree" boostWeight="1.0000000000000000e+00" itree="1004">
      <Node pos="s" depth="0" NCoef="0" IVar="0" Cut="1.3176423311233521e-01" cType="1" res="-1.1141563300043344e-03" rms="4.6470445394515991e-01" purity="4.9988359212875366e-01" nType="0">
        <Node pos="l" depth="1" NCoef="0" IVar="6" Cut="5.0404949188232422e+00" cType="1" res="-1.3449686579406261e-02" rms="4.6814438700675964e-01" purity="4.6262660622596741e-01" nType="0">
          <Node pos="l" depth="2" NCoef="0" IVar="-1" Cut="0.0000000000000000e+00" cType="1" res="-2.5675576762296259e-04" rms="4.6750304102897644e-01" purity="4.3087568879127502e-01" nType="-99"/>
          <Node pos="r" depth="2" NCoef="0" IVar="-1" Cut="0.0000000000000000e+00" cType="1" res="-4.2023444548249245e-03" rms="4.6859523653984070e-01" purity="6.2171036005020142e-01" nType="-99"/>
        </Node>
        <Node pos="r" depth="1" NCoef="0" IVar="0" Cut="1.6861943900585175e-01" cType="1" res="3.5739175975322723e-02" rms="4.5227256417274475e-01" purity="6.1119174957275391e-01" nType="0">
          <Node pos="l" depth="2" NCoef="0" IVar="-1" Cut="0.0000000000000000e+00" cType="1" res="4.4170292094349861e-03" rms="4.4830611348152161e-01" purity="6.1186939477920532e-01" nType="-99"/>
          <Node pos="r" depth="2" NCoef="0" IVar="-1" Cut="0.0000000000000000e+00" cType="1" res="8.9949439279735088e-04" rms="4.5409843325614929e-01" purity="6.1065554618835449e-01" nType="-99"/>
        </Node>
      </Node>
    </BinaryTree>
    <BinaryTree type="DecisionTree" boostWeight="1.0000000000000000e+00" itree="1005">
      <Node pos="s" depth="0" NCoef="0" IVar="5" Cut="9.8120794677734375e+02" cType="1" res="1.6921017086133361e-03" rms="4.6492984890937805e-01" purity="5.0312280654907227e-01" nType="0">
        <Node pos="l" depth="1" NCoef="0" IVar="3" Cut="1.6422897577285767e+00" cType="1" res="1.1273340322077274e-02" rms="4.6278035640716553e-01" purity="4.9825999140739441e-01" nType="0">
          <Node pos="l" depth="2" NCoef="0" IVar="-1" Cut="0.0000000000000000e+00" cType="1" res="1.7830472206696868e-03" rms="4.6515986323356628e-01" purity="5.4490172863006592e-01" nType="-99"/>
          <Node pos="r" depth="2" NCoef="0" IVar="-1" Cut="0.0000000000000000e+00" cType="1" res="-1.5920714940875769e-03" rms="4.5519754290580750e-01" purity="3.9191392064094543e-01" nType="-99"/>
        </Node>
        <Node pos="r" depth="1" NCoef="0" IVar="0" Cut="4.3717127293348312e-02" cType="1" res="-3.9197582751512527e-02" rms="4.7181168198585510e-01" purity="5.2387571334838867e-01" nType="0">
          <Node pos="l" depth="2" NCoef="0" IVar="-1" Cut="0.0000000000000000e+00" cType="1" res="-2.9504884150810540e-04" rms="4.7583016753196716e-01" purity="5.0023549795150757e-01" nType="-99"/>
          <Node pos="r" depth="2" NCoef="0" IVar="-1" Cut="0.0000000000000000e+00" cType="1" res="-4.1238819248974323e-03" rms="4.6739917993545532e-01" purity="5.4069370031356812e-01" nType="-99"/>
        </Node>
      </Node>
    </BinaryTree>
    <BinaryTree type="DecisionTree" boostWeight="1.0000000000000000e+00" itree="1006">
      <Node pos="s" depth="0" NCoef="0" IVar="4" Cut="1.8622442148625851e-03" cType="1" res="-1.7846705159172416e-03" rms="4.6069145202636719e-01" purity="4.9429494142532349e-01" nType="0">
        <Node pos="l" depth="1" NCoef="0" IVar="2" Cut="4.0590414404869080e-01" cType="1" res="-1.3874482363462448e-02" rms="4.5816829800605774e-01" purity="5.2318316698074341e-01" nType="0">
          <Node pos="l" depth="2" NCoef="0" IVar="-1" Cut="0.0000000000000000e+00" cType="1" res="-5.3997356444597244e-03" rms="4.2301031947135925e-01" purity="3.0683985352516174e-01" nType="-99"/>
          <Node pos="r" depth="2" NCoef="0" IVar="-1" Cut="0.0000000000000000e+00" cType="1" res="-4.5500375563278794e-04" rms="4.6073073148727417e-01" purity="5.4363435506820679e-01" nType="-99"/>
        </Node>
        <Node pos="r" depth="1" NCoef="0" IVar="6" Cut="4.3329916000366211e+00" cType="1" res="2.2387403994798660e-02" rms="4.6475315093994141e-01" purity="4.3653643131256104e-01" nType="0">
          <Node pos="l" depth="2" NCoef="0" IVar="-1" Cut="0.0000000000000000e+00" cType="1" res="7.4964162195101380e-04" rms="4.6682894229888916e-01" purity="3.9316469430923462e-01" nType="-99"/>
          <Node pos="r" depth="2" NCoef="0" IVar="-1" Cut="0.0000000000000000e+00" cType="1" res="4.9084187485277653e-03" rms="4.4920295476913452e-01" purity="6.7535048723220825e-01" nType="-99"/>
        </Node>
      </Node>
    </BinaryTree>
    <BinaryTree type="DecisionTree" boostWeight="1.0000000000000000e+00" itree="1007">
      <Node pos="s" depth="0" NCoef="0" IVar="0" Cut="2.2217924892902374e-01" cType="1" res="1.7798920162022114e-03" rms="4.6431106328964233e-01" purity="5.0065284967422485e-01" nType="0">
        <Node pos="l" depth="1" NCoef="0" IVar="3" Cut="7.0798587799072266e-01" cType="1" res="-2.3466108832508326e-03" rms="4.6569728851318359e-01" purity="4.9083244800567627e-01" nType="0">
          <Node pos="l" depth="2" NCoef="0" IVar="-1" Cut="0.0000000000000000e+00" cType="1" res="-2.8644117992371321e-03" rms="4.6727028489112854e-01" purity="4.7354325652122498e-01" nType="-99"/>
          <Node pos="r" depth="2" NCoef="0" IVar="-1" Cut="0.0000000000000000e+00" cType="1" res="3.1714921351522207e-04" rms="4.6503615379333496e-01" purity="4.9370667338371277e-01" nType="-99"/>
        </Node>
        <Node pos="r" depth="1" NCoef="0" IVar="-1" Cut="0.0000000000000000e+00" cType="1" res="4.8478408716619015e-03" rms="4.3585002422332764e-01" purity="6.5969067811965942e-01" nType="-99"/>
      </Node>
    </BinaryTree>
    <BinaryTree type="DecisionTree" boostWeight="1.0000000000000000e+00" itree="1008">
      <Node pos="s" depth="0" NCoef="0" IVar="2" Cut="7.9473990201950073e-01" cType="1" res="-1.5186593867838383e-02" rms="4.6647098660469055e-01" purity="4.8871394991874695e-01" nType="0">
        <Node pos="l" depth="1" NCoef="0" IVar="2" Cut="6.9595980644226074e-01" cType="1" res="-8.3616580814123154e-03" rms="4.6613672375679016e-01" purity="4.7303560376167297e-01" nType="0">
          <Node pos="l" depth="2" NCoef="0" IVar="-1" Cut="0.0000000000000000e+00" cType="1" res="-9.3774724518880248e-04" rms="4.6627616882324219e-01" purity="4.4575685262680054e-01" nType="-99"/>
          <Node pos="r" depth="2" NCoef="0" IVar="-1" Cut="0.0000000000000000e+00" cType="1" res="1.4050353784114122e-03" rms="4.6437349915504456e-01" purity="5.9202301502227783e-01" nType="-99"/>
        </Node>
        <Node pos="r" depth="1" NCoef="0" IVar="6" Cut="3.7233827114105225e+00" cType="1" res="-6.1282213777303696e-02" rms="4.6611297130584717e-01" purity="5.9460538625717163e-01" nType="0">
          <Node pos="l" depth="2" NCoef="0" IVar="-1" Cut="0.0000000000000000e+00" cType="1" res="-5.9206867590546608e-03" rms="4.9208244681358337e-01" purity="4.3942928314208984e-01" nType="-99"/>
          <Node pos="r" depth="2" NCoef="0" IVar="-1" Cut="0.0000000000000000e+00" cType="1" res="-1.9583548419177532e-03" rms="4.3673479557037354e-01" purity="7.4056440591812134e-01" nType="-99"/>
        </Node>
      </Node>
    </BinaryTree>
    <BinaryTree type="DecisionTree" boostWeight="1.0000000000000000e+00" itree="1009">
      <Node pos="s" depth="0" NCoef="0" IVar="6" Cut="5.5451297760009766e+00" cType="1" res="6.7683141678571701e-03" rms="4.6688652038574219e-01" purity="5.0491070747375488e-01" nType="0">
        <Node pos="l" depth="1" NCoef="0" IVar="1" Cut="1.1523015499114990e+00" cType="1" res="1.2076177634298801e-02" rms="4.6812677383422852e-01" purity="4.8521354794502258e-01" nType="0">
          <Node pos="l" depth="2" NCoef="0" IVar="-1" Cut="0.0000000000000000e+00" cType="1" res="1.4765838859602809e-03" rms="4.7173628211021423e-01" purity="5.4765647649765015e-01" nType="-99"/>
          <Node pos="r" depth="2" NCoef="0" IVar="-1" Cut="0.0000000000000000e+00" cType="1" res="-2.1853769430890679e-04" rms="4.6260282397270203e-01" purity="3.9825385808944702e-01" nType="-99"/>
        </Node>
        <Node pos="r" depth="1" NCoef="0" IVar="-1" Cut="0.0000000000000000e+00" cType="1" res="-3.4959667827934027e-03" rms="4.5196834206581116e-01" purity="6.9066572189331055e-01" nType="-99"/>
      </Node>
    </BinaryTree>
    <BinaryTree type="DecisionTree" boostWeight="1.0000000000000000e+00" itree="1010">
      <Node pos="s" depth="0" NCoef="0" IVar="0" Cut="2.7533711865544319e-02" cType="1" res="-5.9286677278578281e-03" rms="4.6299284696578979e-01" purity="4.9427655339241028e-01" nType="0">
        <Node pos="l" depth="1" NCoef="0" IVar="6" Cut="3.4801137447357178e+00" cType="1" res="-5.4861024022102356e-02" rms="4.5397168397903442e-01" purity="3.6228066682815552e-01" nType="0">
          <Node pos="l" depth="2" NCoef="0" IVar="-1" Cut="0.0000000000000000e+00" cType="1" res="-7.8219076385721564e-04" rms="4.4654276967048645e-01" purity="2.9935678839683533e-01" nType="-99"/>
          <Node pos="r" depth="2" NCoef="0" IVar="-1" Cut="0.0000000000000000e+00" cType="1" res="-5.1285661756992340e-03" rms="4.5700496435165405e-01" purity="4.1346624493598938e-01" nType="-99"/>
        </Node>
        <Node pos="r" depth="1" NCoef="0" IVar="5" Cut="5.6280822753906250e+02" cType="1" res="1.0056979954242706e-03" rms="4.6383967995643616e-01" purity="5.1298213005065918e-01" nType="0">
          <Node pos="l" depth="2" NCoef="0" IVar="-1" Cut="0.0000000000000000e+00" cType="1" res="-1.6437701415270567e-03" rms="4.6392676234245300e-01" purity="3.9602568745613098e-01" nType="-99"/>
          <Node pos="r" depth="2" NCoef="0" IVar="-1" Cut="0.0000000000000000e+00" cType="1" res="7.7338609844446182e-04" rms="4.6335399150848389e-01" purity="5.5934500694274902e-01" nType="-99"/>
        </Node>
      </Node>
    </BinaryTree>
    <BinaryTree type="DecisionTree" boostWeight="1.0000000000000000e+00" itree="1011">
      <Node pos="s" depth="0" NCoef="0" IVar="6" Cut="5.0041403770446777e+00" cType="1" res="-3.9985575713217258e-03" rms="4.6248456835746765e-01" purity="4.9649029970169067e-01" nType="0">
        <Node pos="l" depth="1" NCoef="0" IVar="4" Cut="8.0030913522932678e-05" cType="1" res="-1.1471432633697987e-02" rms="4.7018337249755859e-01" purity="4.4361975789070129e-01" nType="0">
          <Node pos="l" depth="2" NCoef="0" IVar="-1" Cut="0.0000000000000000e+00" cType="1" res="-4.7775288112461567e-03" rms="4.7836279869079590e-01" purity="5.2164179086685181e-01" nType="-99"/>
          <Node pos="r" depth="2" NCoef="0" IVar="-1" Cut="0.0000000000000000e+00" cType="1" res="-4.5278621837496758e-04" rms="4.6934780478477478e-01" purity="4.3830597400665283e-01" nType="-99"/>
        </Node>
        <Node pos="r" depth="1" NCoef="0" IVar="2" Cut="5.1998770236968994e-01" cType="1" res="3.1054383143782616e-02" rms="4.2275303602218628e-01" purity="7.4448949098587036e-01" nType="0">
          <Node pos="l" depth="2" NCoef="0" IVar="-1" Cut="0.0000000000000000e+00" cType="1" res="5.3932219743728638e-03" rms="4.4318115711212158e-01" purity="7.0637995004653931e-01" nType="-99"/>
          <Node pos="r" depth="2" NCoef="0" IVar="-1" Cut="0.0000000000000000e+00" cType="1" res="1.0805014753714204e-03" rms="4.1275027394294739e-01" purity="7.5993156433105469e-01" nType="-99"/>
        </Node>
      </Node>
    </BinaryTree>
    <BinaryTree type="DecisionTree" boostWeight="1.0000000000000000e+00" itree="1012">
      <Node pos="s" depth="0" NCoef="0" IVar="3" Cut="8.0315560102462769e-01" cType="1" res="-1.1427772231400013e-02" rms="4.6488741040229797e-01" purity="4.8386317491531372e-01" nType="0">
        <Node pos="l" depth="1" NCoef="0" IVar="0" Cut="7.4217192828655243e-02" cType="1" res="1.3276478275656700e-02" rms="4.7457855939865112e-01" purity="5.3208696842193604e-01" nType="0">
          <Node pos="l" depth="2" NCoef="0" IVar="-1" Cut="0.0000000000000000e+00" cType="1" res="2.4241504725068808e-03" rms="4.7527307271957397e-01" purity="5.2035856246948242e-01" nType="-99"/>
          <Node pos="r" depth="2" NCoef="0" IVar="-1" Cut="0.0000000000000000e+00" cType="1" res="-1.2371803168207407e-03" rms="4.7172549366950989e-01" purity="5.4682379961013794e-01" nType="-99"/>
        </Node>
        <Node pos="r" depth="1" NCoef="0" IVar="1" Cut="1.0566802024841309e+00" cType="1" res="-1.7032729461789131e-02" rms="4.6247678995132446e-01" purity="4.7292202711105347e-01" nType="0">
          <Node pos="l" depth="2" NCoef="0" IVar="-1" Cut="0.0000000000000000e+00" cType="1" res="-1.9100572681054473e-03" rms="4.7096031904220581e-01" purity="5.2258878946304321e-01" nType="-99"/>
          <Node pos="r" depth="2" NCoef="0" IVar="-1" Cut="0.0000000000000000e+00" cType="1" res="-2.1295312035363168e-04" rms="4.5280659198760986e-01" purity="4.1967844963073730e-01" nType="-99"/>
        </Node>
      </Node>
    </BinaryTree>
    <BinaryTree type="DecisionTree" boostWeight="1.0000000000000000e+00" itree="1013">
      <Node pos="s" depth="0" NCoef="0" IVar="4" Cut="2.6647576596587896e-03" cType="1" res="1.6027062665671110e-03" rms="4.6219003200531006e-01" purity="5.0103598833084106e-01" nType="0">
        <Node pos="l" depth="1" NCoef="0" IVar="0" Cut="1.1160579323768616e-01" cType="1" res="9.1576743870973587e-03" rms="4.6362021565437317e-01" purity="5.3129881620407104e-01" nType="0">
          <Node pos="l" depth="2" NCoef="0" IVar="-1" Cut="0.0000000000000000e+00" cType="1" res="1.2594246072694659e-03" rms="4.6709260344505310e-01" purity="5.0706791877746582e-01" nType="-99"/>
          <Node pos="r" depth="2" NCoef="0" IVar="-1" Cut="0.0000000000000000e+00" cType="1" res="-7.7807687921449542e-04" rms="4.5588079094886780e-01" purity="5.7991713285446167e-01" nType="-99"/>
        </Node>
        <Node pos="r" depth="1" NCoef="0" IVar="2" Cut="5.2773749828338623e-01" cType="1" res="-3.0812032520771027e-02" rms="4.5458003878593445e-01" purity="3.7119281291961670e-01" nType="0">
          <Node pos="l" depth="2" NCoef="0" IVar="-1" Cut="0.0000000000000000e+00" cType="1" res="8.0500525655224919e-04" rms="4.4006562232971191e-01" purity="3.3175295591354370e-01" nType="-99"/>
          <Node pos="r" depth="2" NCoef="0" IVar="-1" Cut="0.0000000000000000e+00" cType="1" res="-3.0270568095147610e-03" rms="4.6021419763565063e-01" purity="3.9131557941436768e-01" nType="-99"/>
        </Node>
      </Node>
    </BinaryTree>
    <BinaryTree type="DecisionTree" boostWeight="1.0000000000000000e+00" itree="1014">
      <Node pos="s" depth="0" NCoef="0" IVar="5" Cut="1.0038162231445312e+03" cType="1" res="8.4648290649056435e-03" rms="4.6339988708496094e-01" purity="5.0808471441268921e-01" nType="0">
        <Node pos="l" depth="1" NCoef="0" IVar="5" Cut="9.3323223876953125e+02" cType="1" res="1.6034422442317009e-03" rms="4.6156227588653564e-01" purity="4.9098217487335205e-01" nType="0">
          <Node pos="l" depth="2" NCoef="0" IVar="-1" Cut="0.0000000000000000e+00" cType="1" res="4.7167405136860907e-04" rms="4.6050944924354553e-01" purity="4.9354121088981628e-01" nType="-99"/>
          <Node pos="r" depth="2" NCoef="0" IVar="-1" Cut="0.0000000000000000e+00" cType="1" res="-5.0720120780169964e-03" rms="4.6866285800933838e-01" purity="4.5329955220222473e-01" nType="-99"/>
        </Node>
        <Node pos="r" depth="1" NCoef="0" IVar="4" Cut="1.3181947870180011e-03" cType="1" res="4.4585287570953369e-02" rms="4.7131183743476868e-01" purity="5.9811776876449585e-01" nType="0">
          <Node pos="l" depth="2" NCoef="0" IVar="-1" Cut="0.0000000000000000e+00" cType="1" res="8.7487063137814403e-04" rms="4.6844181418418884e-01" purity="6.2760549783706665e-01" nType="-99"/>
          <Node pos="r" depth="2" NCoef="0" IVar="-1" Cut="0.0000000000000000e+00" cType="1" res="5.0228168256580830e-03" rms="4.7190663218498230e-01" purity="5.6355416774749756e-01" nType="-99"/>
        </Node>
      </Node>
    </BinaryTree>
    <BinaryTree type="DecisionTree" boostWeight="1.0000000000000000e+00" itree="1015">
      <Node pos="s" depth="0" NCoef="0" IVar="3" Cut="1.1615731716156006e+00" cType="1" res="-1.2197500327602029e-03" rms="4.6091613173484802e-01" purity="4.9771723151206970e-01" nType="0">
        <Node pos="l" depth="1" NCoef="0" IVar="0" Cut="9.7486421465873718e-02" cType="1" res="2.7626851573586464e-02" rms="4.5879140496253967e-01" purity="5.6792938709259033e-01" nType="0">
          <Node pos="l" depth="2" NCoef="0" IVar="-1" Cut="0.0000000000000000e+00" cType="1" res="7.8280182788148522e-04" rms="4.6786493062973022e-01" purity="5.2150881290435791e-01" nType="-99"/>
          <Node pos="r" depth="2" NCoef="0" IVar="-1" Cut="0.0000000000000000e+00" cType="1" res="3.7760359700769186e-03" rms="4.4185280799865723e-01" purity="6.4629977941513062e-01" nType="-99"/>
        </Node>
        <Node pos="r" depth="1" NCoef="0" IVar="4" Cut="7.3490821523591876e-04" cType="1" res="-2.0947271957993507e-02" rms="4.6132615208625793e-01" purity="4.4970071315765381e-01" nType="0">
          <Node pos="l" depth="2" NCoef="0" IVar="-1" Cut="0.0000000000000000e+00" cType="1" res="-2.6983469724655151e-03" rms="4.6127176284790039e-01" purity="5.0857961177825928e-01" nType="-99"/>
          <Node pos="r" depth="2" NCoef="0" IVar="-1" Cut="0.0000000000000000e+00" cType="1" res="-5.2958185551688075e-04" rms="4.6092706918716431e-01" purity="4.1322493553161621e-01" nType="-99"/>
        </Node>
      </Node>
    </BinaryTree>
    <BinaryTree type="DecisionTree" boostWeight="1.0000000000000000e+00" itree="1016">
      <Node pos="s" depth="0" NCoef="0" IVar="4" Cut="1.5178446192294359e-03" cType="1" res="2.0575555972754955e-03" rms="4.6534413099288940e-01" purity="5.0207632780075073e-01" nType="0">
        <Node pos="l" depth="1" NCoef="0" IVar="6" Cut="3.7624907493591309e+00" cType="1" res="-1.3124953955411911e-02" rms="4.6564272046089172e-01" purity="5.4177755117416382e-01" nType="0">
          <Node pos="l" depth="2" NCoef="0" IVar="-1" Cut="0.0000000000000000e+00" cType="1" res="9.1790105216205120e-04" rms="4.7227904200553894e-01" purity="4.3403556942939758e-01" nType="-99"/>
          <Node pos="r" depth="2" NCoef="0" IVar="-1" Cut="0.0000000000000000e+00" cType="1" res="-2.2842234466224909e-03" rms="4.5991086959838867e-01" purity="6.1768382787704468e-01" nType="-99"/>
        </Node>
        <Node pos="r" depth="1" NCoef="0" IVar="2" Cut="4.6215692162513733e-01" cType="1" res="2.3975392803549767e-02" rms="4.6403735876083374e-01" purity="4.4476264715194702e-01" nType="0">
          <Node pos="l" depth="2" NCoef="0" IVar="-1" Cut="0.0000000000000000e+00" cType="1" res="5.8097196742892265e-03" rms="4.5212867856025696e-01" purity="4.0466073155403137e-01" nType="-99"/>
          <Node pos="r" depth="2" NCoef="0" IVar="-1" Cut="0.0000000000000000e+00" cType="1" res="6.1197817558422685e-04" rms="4.6551015973091125e-01" purity="4.5366486907005310e-01" nType="-99"/>
        </Node>
      </Node>
    </BinaryTree>
    <BinaryTree type="DecisionTree" boostWeight="1.0000000000000000e+00" itree="1017">
      <Node pos="s" depth="0" NCoef="0" IVar="1" Cut="6.2156707048416138e-01" cType="1" res="-8.6102914065122604e-03" rms="4.6168506145477295e-01" purity="4.9025872349739075e-01" nType="0">
        <Node pos="l" depth="1" NCoef="0" IVar="2" Cut="5.4672813415527344e-01" cType="1" res="1.5170319005846977e-02" rms="4.6018490195274353e-01" purity="5.9309250116348267e-01" nType="0">
          <Node pos="l" depth="2" NCoef="0" IVar="-1" Cut="0.0000000000000000e+00" cType="1" res="3.6951312795281410e-03" rms="4.6110063791275024e-01" purity="5.5720615386962891e-01" nType="-99"/>
          <Node pos="r" depth="2" NCoef="0" IVar="-1" Cut="0.0000000000000000e+00" cType="1" res="-7.6534204708877951e-05" rms="4.5879536867141724e-01" purity="6.0693496465682983e-01" nType="-99"/>
        </Node>
        <Node pos="r" depth="1" NCoef="0" IVar="5" Cut="8.8596765136718750e+02" cType="1" res="-1.7981879413127899e-02" rms="4.6193873882293701e-01" purity="4.4973343610763550e-01" nType="0">
          <Node pos="l" depth="2" NCoef="0" IVar="-1" Cut="0.0000000000000000e+00" cType="1" res="-3.9247854147106409e-04" rms="4.5722490549087524e-01" purity="4.4511228799819946e-01" nType="-99"/>
          <Node pos="r" depth="2" NCoef="0" IVar="-1" Cut="0.0000000000000000e+00" cType="1" res="-3.2700332812964916e-03" rms="4.7417458891868591e-01" purity="4.6377778053283691e-01" nType="-99"/>
        </Node>
      </Node>
    </BinaryTree>
    <BinaryTree type="DecisionTree" boostWeight="1.0000000000000000e+00" itree="1018">
      <Node pos="s" depth="0" NCoef="0" IVar="2" Cut="8.4399962425231934e-01" cType="1" res="1.8965870840474963e-03" rms="4.6329805254936218e-01" purity="5.0130337476730347e-01" nType="0">
        <Node pos="l" depth="1" NCoef="0" IVar="1" Cut="6.5540087223052979e-01" cType="1" res="-2.3369651753455400e-03" rms="4.6507593989372253e-01" purity="4.8800101876258850e-01" nType="0">
          <Node pos="l" depth="2" NCoef="0" IVar="-1" Cut="0.0000000000000000e+00" cType="1" res="-1.4782922808080912e-03" rms="4.6894213557243347e-01" purity="5.3944313526153564e-01" nType="-99"/>
          <Node pos="r" depth="2" NCoef="0" IVar="-1" Cut="0.0000000000000000e+00" cType="1" res="4.5379876974038780e-04" rms="4.6299335360527039e-01" purity="4.6453550457954407e-01" nType="-99"/>
        </Node>
        <Node pos="r" depth="1" NCoef="0" IVar="-1" Cut="0.0000000000000000e+00" cType="1" res="5.3842342458665371e-03" rms="4.2760351300239563e-01" purity="7.1720123291015625e-01" nType="-99"/>
      </Node>
    </BinaryTree>
    <BinaryTree type="DecisionTree" boostWeight="1.0000000000000000e+00" itree="1019">
      <Node pos="s" depth="0" NCoef="0" IVar="3" Cut="6.5579694509506226e-01" cType="1" res="-4.6349451877176762e-03" rms="4.6598818898200989e-01" purity="4.8898541927337646e-01" nType="0">
        <Node pos="l" depth="1" NCoef="0" IVar="-1" Cut="0.0000000000000000e+00" cType="1" res="2.5639538653194904e-03" rms="4.7602444887161255e-01" purity="5.6225895881652832e-01" nType="-99"/>
        <Node pos="r" depth="1" NCoef="0" IVar="5" Cut="1.2088696289062500e+03" cType="1" res="-9.4689792022109032e-03" rms="4.6462351083755493e-01" purity="4.8098191618919373e-01" nType="0">
          <Node pos="l" depth="2" NCoef="0" IVar="-1" Cut="0.0000000000000000e+00" cType="1" res="-1.5106661885511130e-04" rms="4.6279650926589966e-01" purity="4.8210999369621277e-01" nType="-99"/>
          <Node pos="r" depth="2" NCoef="0" IVar="-1" Cut="0.0000000000000000e+00" cType="1" res="-5.8632446452975273e-03" rms="4.7795227169990540e-01" purity="4.6713635325431824e-01" nType="-99"/>
        </Node>
      </Node>
    </BinaryTree>
    <BinaryTree type="DecisionTree" boostWeight="1.0000000000000000e+00" itree="1020">
      <Node pos="s" depth="0" NCoef="0" IVar="0" Cut="3.3918753266334534e-02" cType="1" res="8.6240991950035095e-03" rms="4.6376362442970276e-01" purity="5.1017510890960693e-01" nType="0">
        <Node pos="l" depth="1" NCoef="0" IVar="4" Cut="1.5405265148729086e-03" cType="1" res="4.7685723751783371e-02" rms="4.5565262436866760e-01" purity="4.5410382747650146e-01" nType="0">
          <Node pos="l" depth="2" NCoef="0" IVar="-1" Cut="0.0000000000000000e+00" cType="1" res="1.4301196206361055e-03" rms="4.4504511356353760e-01" purity="4.7685167193412781e-01" nType="-99"/>
          <Node pos="r" depth="2" NCoef="0" IVar="-1" Cut="0.0000000000000000e+00" cType="1" res="5.6189950555562973e-03" rms="4.6887484192848206e-01" purity="4.1900846362113953e-01" nType="-99"/>
        </Node>
        <Node pos="r" depth="1" NCoef="0" IVar="5" Cut="1.0728780517578125e+03" cType="1" res="1.3764627510681748e-03" rms="4.6489217877388000e-01" purity="5.2057874202728271e-01" nType="0">
          <Node pos="l" depth="2" NCoef="0" IVar="-1" Cut="0.0000000000000000e+00" cType="1" res="6.0057430528104305e-04" rms="4.6234831213951111e-01" purity="5.1831644773483276e-01" nType="-99"/>
          <Node pos="r" depth="2" NCoef="0" IVar="-1" Cut="0.0000000000000000e+00" cType="1" res="-4.0873805992305279e-03" rms="4.8043242096900940e-01" purity="5.3919166326522827e-01" nType="-99"/>
        </Node>
      </Node>
    </BinaryTree>
    <BinaryTree type="DecisionTree" boostWeight="1.0000000000000000e+00" itree="1021">
      <Node pos="s" depth="0" NCoef="0" IVar="6" Cut="4.7581491470336914e+00" cType="1" res="3.5891955485567451e-04" rms="4.6727550029754639e-01" purity="5.0199985504150391e-01" nType="0">
        <Node pos="l" depth="1" NCoef="0" IVar="2" Cut="7.8976058959960938e-01" cType="1" res="8.1243962049484253e-03" rms="4.7144383192062378e-01" purity="4.5330968499183655e-01" nType="0">
          <Node pos="l" depth="2" NCoef="0" IVar="-1" Cut="0.0000000000000000e+00" cType="1" res="9.2257786309346557e-04" rms="4.6851181983947754e-01" purity="4.4057247042655945e-01" nType="-99"/>
          <Node pos="r" depth="2" NCoef="0" IVar="-1" Cut="0.0000000000000000e+00" cType="1" res="-2.6878369972109795e-03" rms="4.8993012309074402e-01" purity="5.4864084720611572e-01" nType="-99"/>
        </Node>
        <Node pos="r" depth="1" NCoef="0" IVar="3" Cut="1.1716021299362183e+00" cType="1" res="-2.6454905048012733e-02" rms="4.5156183838844299e-01" purity="6.7012459039688110e-01" nType="0">
          <Node pos="l" depth="2" NCoef="0" IVar="-1" Cut="0.0000000000000000e+00" cType="1" res="1.3221729313954711e-03" rms="4.2074456810951233e-01" purity="7.4782794713973999e-01" nType="-99"/>
          <Node pos="r" depth="2" NCoef="0" IVar="-1" Cut="0.0000000000000000e+00" cType="1" res="-3.9845174178481102e-03" rms="4.7040486335754395e-01" purity="6.1335957050323486e-01" nType="-99"/>
        </Node>
      </Node>
    </BinaryTree>
    <BinaryTree type="DecisionTree" boostWeight="1.0000000000000000e+00" itree="1022">
      <Node pos="s" depth="0" NCoef="0" IVar="1" Cut="1.5893738269805908e+00" cType="1" res="9.5416052499786019e-04" rms="4.6568021178245544e-01" purity="5.0746560096740723e-01" nType="0">
        <Node pos="l" depth="1" NCoef="0" IVar="1" Cut="3.9480802416801453e-01" cType="1" res="-9.9495872855186462e-03" rms="4.6621587872505188e-01" purity="5.3202396631240845e-01" nType="0">
          <Node pos="l" depth="2" NCoef="0" IVar="-1" Cut="0.0000000000000000e+00" cType="1" res="1.3704312732443213e-03" rms="4.6160697937011719e-01" purity="6.1093777418136597e-01" nType="-99"/>
          <Node pos="r" depth="2" NCoef="0" IVar="-1" Cut="0.0000000000000000e+00" cType="1" res="-1.1469237506389618e-03" rms="4.6709519624710083e-01" purity="5.1127767562866211e-01" nType="-99"/>
        </Node>
        <Node pos="r" depth="1" NCoef="0" IVar="6" Cut="3.2232377529144287e+00" cType="1" res="3.5195633769035339e-02" rms="4.6232524514198303e-01" purity="4.3034383654594421e-01" nType="0">
          <Node pos="l" depth="2" NCoef="0" IVar="-1" Cut="0.0000000000000000e+00" cType="1" res="-5.8832281501963735e-04" rms="4.2900010943412781e-01" purity="2.6996067166328430e-01" nType="-99"/>
          <Node pos="r" depth="2" NCoef="0" IVar="-1" Cut="0.0000000000000000e+00" cType="1" res="4.1236905381083488e-03" rms="4.8229873180389404e-01" purity="5.4489952325820923e-01" nType="-99"/>
        </Node>
      </Node>
    </BinaryTree>
    <BinaryTree type="DecisionTree" boostWeight="1.0000000000000000e+00" itree="1023">
      <Node pos="s" depth="0" NCoef="0" IVar="2" Cut="3.9577856659889221e-01" cType="1" res="3.3987557981163263e-03" rms="4.6087673306465149e-01" purity="5.0626850128173828e-01" nType="0">
        <Node pos="l" depth="1" NCoef="0" IVar="-1" Cut="0.0000000000000000e+00" cType="1" res="-3.7028694059699774e-03" rms="4.3850940465927124e-01" purity="3.1169229745864868e-01" nType="-99"/>
        <Node pos="r" depth="1" NCoef="0" IVar="6" Cut="1.7844643592834473e+00" cType="1" res="8.2987956702709198e-03" rms="4.6221396327018738e-01" purity="5.2142196893692017e-01" nType="0">
          <Node pos="l" depth="2" NCoef="0" IVar="-1" Cut="0.0000000000000000e+00" cType="1" res="-3.6039268597960472e-03" rms="4.1980677843093872e-01" purity="2.4638210237026215e-01" nType="-99"/>
          <Node pos="r" depth="2" NCoef="0" IVar="-1" Cut="0.0000000000000000e+00" cType="1" res="8.5876806406304240e-04" rms="4.6505439281463623e-01" purity="5.4330098628997803e-01" nType="-99"/>
        </Node>
      </Node>
    </BinaryTree>
    <BinaryTree type="DecisionTree" boostWeight="1.0000000000000000e+00" itree="1024">
      <Node pos="s" depth="0" NCoef="0" IVar="0" Cut="7.5438752770423889e-02" cType="1" res="-1.0058757849037647e-02" rms="4.6615189313888550e-01" purity="4.9005153775215149e-01" nType="0">
        <Node pos="l" depth="1" NCoef="0" IVar="0" Cut="6.8081371486186981e-02" cType="1" res="8.3569586277008057e-03" rms="4.6241417527198792e-01" purity="4.5932173728942871e-01" nType="0">
          <Node pos="l" depth="2" NCoef="0" IVar="-1" Cut="0.0000000000000000e+00" cType="1" res="1.7348294932162389e-05" rms="4.6015113592147827e-01" purity="4.4714397192001343e-01" nType="-99"/>
          <Node pos="r" depth="2" NCoef="0" IVar="-1" Cut="0.0000000000000000e+00" cType="1" res="4.5681884512305260e-03" rms="4.7490030527114868e-01" purity="5.5310308933258057e-01" nType="-99"/>
        </Node>
        <Node pos="r" depth="1" NCoef="0" IVar="5" Cut="5.0842218017578125e+02" cType="1" res="-2.6363348588347435e-02" rms="4.6883293986320496e-01" purity="5.1725852489471436e-01" nType="0">
          <Node pos="l" depth="2" NCoef="0" IVar="-1" Cut="0.0000000000000000e+00" cType="1" res="8.2391459727659822e-04" rms="4.6527338027954102e-01" purity="4.4981071352958679e-01" nType="-99"/>
          <Node pos="r" depth="2" NCoef="0" IVar="-1" Cut="0.0000000000000000e+00" cType="1" res="-2.3676806595176458e-03" rms="4.6920651197433472e-01" purity="5.3462105989456177e-01" nType="-99"/>
        </Node>
      </Node>
    </BinaryTree>
    <BinaryTree type="DecisionTree" boostWeight="1.0000000000000000e+00" itree="1025">
      <Node pos="s" depth="0" NCoef="0" IVar="0" Cut="5.4632022976875305e-02" cType="1" res="-7.4667697772383690e-03" rms="4.6470576524734497e-01" purity="4.9252566695213318e-01" nType="0">
        <Node pos="l" depth="1" NCoef="0" IVar="6" Cut="4.9900002479553223e+00" cType="1" res="8.3491737022995949e-03" rms="4.6903371810913086e-01" purity="4.4848215579986572e-01" nType="0">
          <Node pos="l" depth="2" NCoef="0" IVar="-1" Cut="0.0000000000000000e+00" cType="1" res="1.5744409756734967e-03" rms="4.6735990047454834e-01" purity="4.1673722863197327e-01" nType="-99"/>
          <Node pos="r" depth="2" NCoef="0" IVar="-1" Cut="0.0000000000000000e+00" cType="1" res="-3.9917477406561375e-03" rms="4.6919488906860352e-01" purity="5.7884883880615234e-01" nType="-99"/>
        </Node>
        <Node pos="r" depth="1" NCoef="0" IVar="5" Cut="7.3927807617187500e+02" cType="1" res="-1.5146303921937943e-02" rms="4.6239462494850159e-01" purity="5.1391124725341797e-01" nType="0">
          <Node pos="l" depth="2" NCoef="0" IVar="-1" Cut="0.0000000000000000e+00" cType="1" res="-1.4041346730664372e-04" rms="4.5785737037658691e-01" purity="4.8878619074821472e-01" nType="-99"/>
          <Node pos="r" depth="2" NCoef="0" IVar="-1" Cut="0.0000000000000000e+00" cType="1" res="-2.4808009620755911e-03" rms="4.6954345703125000e-01" purity="5.5906814336776733e-01" nType="-99"/>
        </Node>
      </Node>
    </BinaryTree>
    <BinaryTree type="DecisionTree" boostWeight="1.0000000000000000e+00" itree="1026">
      <Node pos="s" depth="0" NCoef="0" IVar="1" Cut="1.1481009721755981e+00" cType="1" res="2.0556375384330750e-03" rms="4.6159124374389648e-01" purity="4.9907296895980835e-01" nType="0">
        <Node pos="l" depth="1" NCoef="0" IVar="0" Cut="7.8969806432723999e-02" cType="1" res="1.9569680094718933e-02" rms="4.6305438876152039e-01" purity="5.7230246067047119e-01" nType="0">
          <Node pos="l" depth="2" NCoef="0" IVar="-1" Cut="0.0000000000000000e+00" cType="1" res="-6.1465008184313774e-04" rms="4.6637278795242310e-01" purity="5.0122678279876709e-01" nType="-99"/>
          <Node pos="r" depth="2" NCoef="0" IVar="-1" Cut="0.0000000000000000e+00" cType="1" res="2.9248651117086411e-03" rms="4.5912045240402222e-01" purity="6.2805747985839844e-01" nType="-99"/>
        </Node>
        <Node pos="r" depth="1" NCoef="0" IVar="2" Cut="6.4826703071594238e-01" cType="1" res="-2.1741975098848343e-02" rms="4.5852491259574890e-01" purity="3.9957073330879211e-01" nType="0">
          <Node pos="l" depth="2" NCoef="0" IVar="-1" Cut="0.0000000000000000e+00" cType="1" res="-4.2168865911662579e-04" rms="4.5236578583717346e-01" purity="3.7575027346611023e-01" nType="-99"/>
          <Node pos="r" depth="2" NCoef="0" IVar="-1" Cut="0.0000000000000000e+00" cType="1" res="-3.5911449231207371e-03" rms="4.7141900658607483e-01" purity="4.5885974168777466e-01" nType="-99"/>
        </Node>
      </Node>
    </BinaryTree>
    <BinaryTree type="DecisionTree" boostWeight="1.0000000000000000e+00" itree="1027">
      <Node pos="s" depth="0" NCoef="0" IVar="3" Cut="7.2770023345947266e-01" cType="1" res="-1.3774369843304157e-02" rms="4.6391728520393372e-01" purity="4.8427459597587585e-01" nType="0">
        <Node pos="l" depth="1" NCoef="0" IVar="5" Cut="8.6109155273437500e+02" cType="1" res="-5.4931387305259705e-02" rms="4.7049051523208618e-01" purity="4.6861690282821655e-01" nType="0">
          <Node pos="l" depth="2" NCoef="0" IVar="-1" Cut="0.0000000000000000e+00" cType="1" res="-4.7429427504539490e-03" rms="4.6326118707656860e-01" purity="4.1781899333000183e-01" nType="-99"/>
          <Node pos="r" depth="2" NCoef="0" IVar="-1" Cut="0.0000000000000000e+00" cType="1" res="-1.0810262756422162e-03" rms="4.7981441020965576e-01" purity="5.5226135253906250e-01" nType="-99"/>
        </Node>
        <Node pos="r" depth="1" NCoef="0" IVar="2" Cut="4.8106423020362854e-01" cType="1" res="-6.8496228195726871e-03" rms="4.6244230866432190e-01" purity="4.8690906167030334e-01" nType="0">
          <Node pos="l" depth="2" NCoef="0" IVar="-1" Cut="0.0000000000000000e+00" cType="1" res="1.0753176175057888e-03" rms="4.6130946278572083e-01" purity="4.1637116670608521e-01" nType="-99"/>
          <Node pos="r" depth="2" NCoef="0" IVar="-1" Cut="0.0000000000000000e+00" cType="1" res="-8.5947412298992276e-04" rms="4.6254023909568787e-01" purity="5.0629442930221558e-01" nType="-99"/>
        </Node>
      </Node>
    </BinaryTree>
    <BinaryTree type="DecisionTree" boostWeight="1.0000000000000000e+00" itree="1028">
      <Node pos="s" depth="0" NCoef="0" IVar="0" Cut="2.0023110508918762e-01" cType="1" res="9.2088356614112854e-03" rms="4.6145871281623840e-01" purity="5.0676423311233521e-01" nType="0">
        <Node pos="l" depth="1" NCoef="0" IVar="0" Cut="1.4832556247711182e-01" cType="1" res="4.9438746646046638e-03" rms="4.6219554543495178e-01" purity="4.9233385920524597e-01" nType="0">
          <Node pos="l" depth="2" NCoef="0" IVar="-1" Cut="0.0000000000000000e+00" cType="1" res="6.7657674662768841e-04" rms="4.6182349324226379e-01" purity="4.8650878667831421e-01" nType="-99"/>
          <Node pos="r" depth="2" NCoef="0" IVar="-1" Cut="0.0000000000000000e+00" cType="1" res="-2.3360054474323988e-03" rms="4.6281567215919495e-01" purity="5.3461116552352905e-01" nType="-99"/>
        </Node>
        <Node pos="r" depth="1" NCoef="0" IVar="-1" Cut="0.0000000000000000e+00" cType="1" res="3.9311475120484829e-03" rms="4.5057404041290283e-01" purity="6.6602355241775513e-01" nType="-99"/>
      </Node>
    </BinaryTree>
    <BinaryTree type="DecisionTree" boostWeight="1.0000000000000000e+00" itree="1029">
      <Node pos="s" depth="0" NCoef="0" IVar="4" Cut="3.5606208257377148e-03" cType="1" res="-2.3137177340686321e-03" rms="4.6476706862449646e-01" purity="4.9452447891235352e-01" nType="0">
        <Node pos="l" depth="1" NCoef="0" IVar="5" Cut="5.0705233764648438e+02" cType="1" res="1.4112925855442882e-03" rms="4.6469035744667053e-01" purity="5.0433415174484253e-01" nType="0">
          <Node pos="l" depth="2" NCoef="0" IVar="-1" Cut="0.0000000000000000e+00" cType="1" res="2.1946276538074017e-03" rms="4.5403504371643066e-01" purity="4.2607668042182922e-01" nType="-99"/>
          <Node pos="r" depth="2" NCoef="0" IVar="-1" Cut="0.0000000000000000e+00" cType="1" res="-2.8996905894018710e-04" rms="4.6635240316390991e-01" purity="5.1851993799209595e-01" nType="-99"/>
        </Node>
        <Node pos="r" depth="1" NCoef="0" IVar="-1" Cut="0.0000000000000000e+00" cType="1" res="-3.1351817306131124e-03" rms="4.6251422166824341e-01" purity="3.5215631127357483e-01" nType="-99"/>
      </Node>
    </BinaryTree>
    <BinaryTree type="DecisionTree" boostWeight="1.0000000000000000e+00" itree="1030">
      <Node pos="s" depth="0" NCoef="0" IVar="0" Cut="1.0441584140062332e-01" cType="1" res="9.0526323765516281e-03" rms="4.6676021814346313e-01" purity="5.1108586788177490e-01" nType="0">
        <Node pos="l" depth="1" NCoef="0" IVar="0" Cut="1.7310434952378273e-02" cType="1" res="2.6970380917191505e-02" rms="4.6652054786682129e-01" purity="4.8928630352020264e-01" nType="0">
          <Node pos="l" depth="2" NCoef="0" IVar="-1" Cut="0.0000000000000000e+00" cType="1" res="-2.1424784790724516e-03" rms="4.4380438327789307e-01" purity="3.7924173474311829e-01" nType="-99"/>
          <Node pos="r" depth="2" NCoef="0" IVar="-1" Cut="0.0000000000000000e+00" cType="1" res="2.1244748495519161e-03" rms="4.6831607818603516e-01" purity="5.0053006410598755e-01" nType="-99"/>
        </Node>
        <Node pos="r" depth="1" NCoef="0" IVar="3" Cut="8.3832299709320068e-01" cType="1" res="-2.1191151812672615e-02" rms="4.6560293436050415e-01" purity="5.4788190126419067e-01" nType="0">
          <Node pos="l" depth="2" NCoef="0" IVar="-1" Cut="0.0000000000000000e+00" cType="1" res="1.6954708844423294e-03" rms="4.6365076303482056e-01" purity="6.3627433776855469e-01" nType="-99"/>
          <Node pos="r" depth="2" NCoef="0" IVar="-1" Cut="0.0000000000000000e+00" cType="1" res="-2.0331891719251871e-03" rms="4.6543052792549133e-01" purity="5.2776557207107544e-01" nType="-99"/>
        </Node>
      </Node>
    </BinaryTree>
    <BinaryTree type="DecisionTree" boostWeight="1.0000000000000000e+00" itree="1031">
      <Node pos="s" depth="0" NCoef="0" IVar="2" Cut="6.3699930906295776e-01" cType="1" res="7.5264251790940762e-03" rms="4.6002560853958130e-01" purity="5.1063317060470581e-01" nType="0">
        <Node pos="l" depth="1" NCoef="0" IVar="1" Cut="1.1814694404602051e+00" cType="1" res="-6.7851762287318707e-03" rms="4.6129816770553589e-01" purity="4.4309416413307190e-01" nType="0">
          <Node pos="l" depth="2" NCoef="0" IVar="-1" Cut="0.0000000000000000e+00" cType="1" res="9.4821315724402666e-04" rms="4.6532335877418518e-01" purity="5.1930397748947144e-01" nType="-99"/>
          <Node pos="r" depth="2" NCoef="0" IVar="-1" Cut="0.0000000000000000e+00" cType="1" res="-1.8348997691646218e-03" rms="4.5584219694137573e-01" purity="3.6236327886581421e-01" nType="-99"/>
        </Node>
        <Node pos="r" depth="1" NCoef="0" IVar="2" Cut="6.9500267505645752e-01" cType="1" res="2.8082083910703659e-02" rms="4.5740890502929688e-01" purity="6.0763907432556152e-01" nType="0">
          <Node pos="l" depth="2" NCoef="0" IVar="-1" Cut="0.0000000000000000e+00" cType="1" res="4.9022994935512543e-03" rms="4.5477271080017090e-01" purity="5.9752780199050903e-01" nType="-99"/>
          <Node pos="r" depth="2" NCoef="0" IVar="-1" Cut="0.0000000000000000e+00" cType="1" res="6.4145983196794987e-04" rms="4.5717018842697144e-01" purity="6.1181378364562988e-01" nType="-99"/>
        </Node>
      </Node>
    </BinaryTree>
    <BinaryTree type="DecisionTree" boostWeight="1.0000000000000000e+00" itree="1032">
      <Node pos="s" depth="0" NCoef="0" IVar="4" Cut="3.0563767068088055e-03" cType="1" res="-4.1915985639207065e-04" rms="4.6274539828300476e-01" purity="4.9980622529983521e-01" nType="0">
        <Node pos="l" depth="1" NCoef="0" IVar="0" Cut="9.4311870634555817e-02" cType="1" res="5.0831846892833710e-03" rms="4.6285846829414368e-01" purity="5.1815998554229736e-01" nType="0">
          <Node pos="l" depth="2" NCoef="0" IVar="-1" Cut="0.0000000000000000e+00" cType="1" res="1.1265320936217904e-03" rms="4.6568679809570312e-01" purity="4.8789256811141968e-01" nType="-99"/>
          <Node pos="r" depth="2" NCoef="0" IVar="-1" Cut="0.0000000000000000e+00" cType="1" res="-8.1460457295179367e-04" rms="4.5836046338081360e-01" purity="5.6010949611663818e-01" nType="-99"/>
        </Node>
        <Node pos="r" depth="1" NCoef="0" IVar="4" Cut="3.4814262762665749e-03" cType="1" res="-3.7605285644531250e-02" rms="4.6025922894477844e-01" purity="3.7576737999916077e-01" nType="0">
          <Node pos="l" depth="2" NCoef="0" IVar="-1" Cut="0.0000000000000000e+00" cType="1" res="-3.7090589758008718e-03" rms="4.5423600077629089e-01" purity="3.5475921630859375e-01" nType="-99"/>
          <Node pos="r" depth="2" NCoef="0" IVar="-1" Cut="0.0000000000000000e+00" cType="1" res="-9.3269988428801298e-04" rms="4.6397703886032104e-01" purity="3.9291673898696899e-01" nType="-99"/>
        </Node>
      </Node>
    </BinaryTree>
    <BinaryTree type="DecisionTree" boostWeight="1.0000000000000000e+00" itree="1033">
      <Node pos="s" depth="0" NCoef="0" IVar="2" Cut="3.9633786678314209e-01" cType="1" res="2.1802850533276796e-03" rms="4.6249175071716309e-01" purity="4.9873155355453491e-01" nType="0">
        <Node pos="l" depth="1" NCoef="0" IVar="-1" Cut="0.0000000000000000e+00" cType="1" res="3.9332960732281208e-03" rms="4.4933679699897766e-01" purity="4.2269948124885559e-01" nType="-99"/>
        <Node pos="r" depth="1" NCoef="0" IVar="2" Cut="4.8255312442779541e-01" cType="1" res="-2.0619977731257677e-03" rms="4.6320238709449768e-01" purity="5.0451499223709106e-01" nType="0">
          <Node pos="l" depth="2" NCoef="0" IVar="-1" Cut="0.0000000000000000e+00" cType="1" res="-2.4267772678285837e-03" rms="4.4372895359992981e-01" purity="3.7264633178710938e-01" nType="-99"/>
          <Node pos="r" depth="2" NCoef="0" IVar="-1" Cut="0.0000000000000000e+00" cType="1" res="3.7091918056830764e-04" rms="4.6664622426033020e-01" purity="5.3109818696975708e-01" nType="-99"/>
        </Node>
      </Node>
    </BinaryTree>
    <BinaryTree type="DecisionTree" boostWeight="1.0000000000000000e+00" itree="1034">
      <Node pos="s" depth="0" NCoef="0" IVar="0" Cut="7.1533538401126862e-02" cType="1" res="-5.1121989963576198e-04" rms="4.6609234809875488e-01" purity="4.9816980957984924e-01" nType="0">
        <Node pos="l" depth="1" NCoef="0" IVar="4" Cut="1.2805375736206770e-03" cType="1" res="1.5014105476438999e-02" rms="4.6733850240707397e-01" purity="4.6217158436775208e-01" nType="0">
          <Node pos="l" depth="2" NCoef="0" IVar="-1" Cut="0.0000000000000000e+00" cType="1" res="-6.7007268080487847e-04" rms="4.6897217631340027e-01" purity="4.9115636944770813e-01" nType="-99"/>
          <Node pos="r" depth="2" NCoef="0" IVar="-1" Cut="0.0000000000000000e+00" cType="1" res="2.7565218042582273e-03" rms="4.6366456151008606e-01" purity="4.2845934629440308e-01" nType="-99"/>
        </Node>
        <Node pos="r" depth="1" NCoef="0" IVar="4" Cut="2.5524108204990625e-03" cType="1" res="-1.3288754038512707e-02" rms="4.6467524766921997e-01" purity="5.2779674530029297e-01" nType="0">
          <Node pos="l" depth="2" NCoef="0" IVar="-1" Cut="0.0000000000000000e+00" cType="1" res="-7.4396557465661317e-05" rms="4.6483549475669861e-01" purity="5.6822729110717773e-01" nType="-99"/>
          <Node pos="r" depth="2" NCoef="0" IVar="-1" Cut="0.0000000000000000e+00" cType="1" res="-3.2852266449481249e-03" rms="4.6144956350326538e-01" purity="3.8241165876388550e-01" nType="-99"/>
        </Node>
      </Node>
    </BinaryTree>
    <BinaryTree type="DecisionTree" boostWeight="1.0000000000000000e+00" itree="1035">
      <Node pos="s" depth="0" NCoef="0" IVar="4" Cut="1.7147475155070424e-03" cType="1" res="6.3395877368748188e-03" rms="4.6148529648780823e-01" purity="5.0678795576095581e-01" nType="0">
        <Node pos="l" depth="1" NCoef="0" IVar="6" Cut="2.5270714759826660e+00" cType="1" res="1.6521463170647621e-02" rms="4.5581534504890442e-01" purity="5.5926817655563354e-01" nType="0">
          <Node pos="l" depth="2" NCoef="0" IVar="-1" Cut="0.0000000000000000e+00" cType="1" res="-2.2020982578396797e-03" rms="4.4412824511528015e-01" purity="2.9934948682785034e-01" nType="-99"/>
          <Node pos="r" depth="2" NCoef="0" IVar="-1" Cut="0.0000000000000000e+00" cType="1" res="1.6452508280053735e-03" rms="4.5707774162292480e-01" purity="5.9941720962524414e-01" nType="-99"/>
        </Node>
        <Node pos="r" depth="1" NCoef="0" IVar="4" Cut="1.9828076474368572e-03" cType="1" res="-1.1085296981036663e-02" rms="4.7051939368247986e-01" purity="4.1697528958320618e-01" nType="0">
          <Node pos="l" depth="2" NCoef="0" IVar="-1" Cut="0.0000000000000000e+00" cType="1" res="-5.4585752077400684e-03" rms="4.6110162138938904e-01" purity="3.6309772729873657e-01" nType="-99"/>
          <Node pos="r" depth="2" NCoef="0" IVar="-1" Cut="0.0000000000000000e+00" cType="1" res="1.9949839042965323e-04" rms="4.7075754404067993e-01" purity="4.2670932412147522e-01" nType="-99"/>
        </Node>
      </Node>
    </BinaryTree>
    <BinaryTree type="DecisionTree" boostWeight="1.0000000000000000e+00" itree="1036">
      <Node pos="s" depth="0" NCoef="0" IVar="6" Cut="3.7783727645874023e+00" cType="1" res="-3.2570979092270136e-03" rms="4.6318215131759644e-01" purity="4.9746811389923096e-01" nType="0">
        <Node pos="l" depth="1" NCoef="0" IVar="3" Cut="1.1138260364532471e+00" cType="1" res="-1.6073731705546379e-02" rms="4.6577623486518860e-01" purity="3.7470185756683350e-01" nType="0">
          <Node pos="l" depth="2" NCoef="0" IVar="-1" Cut="0.0000000000000000e+00" cType="1" res="-2.4183152709156275e-03" rms="4.6886172890663147e-01" purity="3.8238191604614258e-01" nType="-99"/>
          <Node pos="r" depth="2" NCoef="0" IVar="-1" Cut="0.0000000000000000e+00" cType="1" res="-1.1733215796994045e-04" rms="4.6340823173522949e-01" purity="3.7030780315399170e-01" nType="-99"/>
        </Node>
        <Node pos="r" depth="1" NCoef="0" IVar="4" Cut="2.3982480634003878e-03" cType="1" res="1.2097962200641632e-02" rms="4.5958465337753296e-01" purity="6.4454913139343262e-01" nType="0">
          <Node pos="l" depth="2" NCoef="0" IVar="-1" Cut="0.0000000000000000e+00" cType="1" res="7.4990450229961425e-05" rms="4.5778697729110718e-01" purity="6.4238965511322021e-01" nType="-99"/>
          <Node pos="r" depth="2" NCoef="0" IVar="-1" Cut="0.0000000000000000e+00" cType="1" res="5.8611365966498852e-03" rms="4.6456024050712585e-01" purity="6.6091108322143555e-01" nType="-99"/>
        </Node>
      </Node>
    </BinaryTree>
    <BinaryTree type="DecisionTree" boostWeight="1.0000000000000000e+00" itree="1037">
      <Node pos="s" depth="0" NCoef="0" IVar="5" Cut="1.2354572753906250e+03" cType="1" res="3.5298117436468601e-03" rms="4.6184384822845459e-01" purity="5.0453066825866699e-01" nType="0">
        <Node pos="l" depth="1" NCoef="0" IVar="2" Cut="7.1994173526763916e-01" cType="1" res="-2.4751536548137665e-03" rms="4.6185913681983948e-01" purity="4.9275091290473938e-01" nType="0">
          <Node pos="l" depth="2" NCoef="0" IVar="-1" Cut="0.0000000000000000e+00" cType="1" res="-7.6160777825862169e-04" rms="4.6362999081611633e-01" purity="4.4641005992889404e-01" nType="-99"/>
          <Node pos="r" depth="2" NCoef="0" IVar="-1" Cut="0.0000000000000000e+00" cType="1" res="1.9968624692410231e-03" rms="4.5481789112091064e-01" purity="6.4012211561203003e-01" nType="-99"/>
        </Node>
        <Node pos="r" depth="1" NCoef="0" IVar="-1" Cut="0.0000000000000000e+00" cType="1" res="5.9592234902083874e-03" rms="4.5330053567886353e-01" purity="6.6998034715652466e-01" nType="-99"/>
      </Node>
    </BinaryTree>
    <BinaryTree type="DecisionTree" boostWeight="1.0000000000000000e+00" itree="1038">
      <Node pos="s" depth="0" NCoef="0" IVar="6" Cut="2.9428503513336182e+00" cType="1" res="4.9805612070485950e-04" rms="4.6050289273262024e-01" purity="5.0079649686813354e-01" nType="0">
        <Node pos="l" depth="1" NCoef="0" IVar="2" Cut="6.8004554510116577e-01" cType="1" res="-2.4569833651185036e-02" rms="4.5307296514511108e-01" purity="3.1446677446365356e-01" nType="0">
          <Node pos="l" depth="2" NCoef="0" IVar="-1" Cut="0.0000000000000000e+00" cType="1" res="-9.0555520728230476e-05" rms="4.4637504220008850e-01" purity="2.9930117726325989e-01" nType="-99"/>
          <Node pos="r" depth="2" NCoef="0" IVar="-1" Cut="0.0000000000000000e+00" cType="1" res="-4.0786573663353920e-03" rms="4.6281129121780396e-01" purity="3.4525141119956970e-01" nType="-99"/>
        </Node>
        <Node pos="r" depth="1" NCoef="0" IVar="1" Cut="1.4171079397201538e+00" cType="1" res="1.2432226911187172e-02" rms="4.6352219581604004e-01" purity="5.8950316905975342e-01" nType="0">
          <Node pos="l" depth="2" NCoef="0" IVar="-1" Cut="0.0000000000000000e+00" cType="1" res="1.8240513745695353e-03" rms="4.5532149076461792e-01" purity="6.4891839027404785e-01" nType="-99"/>
          <Node pos="r" depth="2" NCoef="0" IVar="-1" Cut="0.0000000000000000e+00" cType="1" res="-1.1487766169011593e-03" rms="4.7971013188362122e-01" purity="4.5786020159721375e-01" nType="-99"/>
        </Node>
      </Node>
    </BinaryTree>
    <BinaryTree type="DecisionTree" boostWeight="1.0000000000000000e+00" itree="1039">
      <Node pos="s" depth="0" NCoef="0" IVar="4" Cut="2.0342813804745674e-03" cType="1" res="1.5015789540484548e-03" rms="4.6208757162094116e-01" purity="5.0307387113571167e-01" nType="0">
        <Node pos="l" depth="1" NCoef="0" IVar="4" Cut="1.6672704077791423e-04" cType="1" res="1.2296615168452263e-02" rms="4.6407148241996765e-01" purity="5.5052876472473145e-01" nType="0">
          <Node pos="l" depth="2" NCoef="0" IVar="-1" Cut="0.0000000000000000e+00" cType="1" res="-1.7072545597329736e-03" rms="4.5544141530990601e-01" purity="6.3377642631530762e-01" nType="-99"/>
          <Node pos="r" depth="2" NCoef="0" IVar="-1" Cut="0.0000000000000000e+00" cType="1" res="1.4889568556100130e-03" rms="4.6617734432220459e-01" purity="5.2465820312500000e-01" nType="-99"/>
        </Node>
        <Node pos="r" depth="1" NCoef="0" IVar="1" Cut="7.9993522167205811e-01" cType="1" res="-2.4082107469439507e-02" rms="4.5633277297019958e-01" purity="3.9060834050178528e-01" nType="0">
          <Node pos="l" depth="2" NCoef="0" IVar="-1" Cut="0.0000000000000000e+00" cType="1" res="5.3590693278238177e-04" rms="4.7399577498435974e-01" purity="4.9400597810745239e-01" nType="-99"/>
          <Node pos="r" depth="2" NCoef="0" IVar="-1" Cut="0.0000000000000000e+00" cType="1" res="-2.7891891077160835e-03" rms="4.4253247976303101e-01" purity="3.2045012712478638e-01" nType="-99"/>
        </Node>
      </Node>
    </BinaryTree>
    <BinaryTree type="DecisionTree" boostWeight="1.0000000000000000e+00" itree="1040">
      <Node pos="s" depth="0" NCoef="0" IVar="5" Cut="1.1648016357421875e+03" cType="1" res="-5.9335776604712009e-03" rms="4.6322318911552429e-01" purity="4.9183425307273865e-01" nType="0">
        <Node pos="l" depth="1" NCoef="0" IVar="6" Cut="2.7111198902130127e+00" cType="1" res="1.6879745526239276e-03" rms="4.6067553758621216e-01" purity="4.9191820621490479e-01" nType="0">
          <Node pos="l" depth="2" NCoef="0" IVar="-1" Cut="0.0000000000000000e+00" cType="1" res="-1.9875694997608662e-03" rms="4.4252949953079224e-01" purity="2.9089158773422241e-01" nType="-99"/>
          <Node pos="r" depth="2" NCoef="0" IVar="-1" Cut="0.0000000000000000e+00" cType="1" res="9.1594608966261148e-04" rms="4.6684220433235168e-01" purity="5.6904554367065430e-01" nType="-99"/>
        </Node>
        <Node pos="r" depth="1" NCoef="0" IVar="-1" Cut="0.0000000000000000e+00" cType="1" res="-4.5951316133141518e-03" rms="4.8021319508552551e-01" purity="4.9107348918914795e-01" nType="-99"/>
      </Node>
    </BinaryTree>
    <BinaryTree type="DecisionTree" boostWeight="1.0000000000000000e+00" itree="1041">
      <Node pos="s" depth="0" NCoef="0" IVar="4" Cut="1.1391977313905954e-03" cType="1" res="-9.3057025223970413e-03" rms="4.6393328905105591e-01" purity="4.8841324448585510e-01" nType="0">
        <Node pos="l" depth="1" NCoef="0" IVar="0" Cut="1.7375344038009644e-01" cType="1" res="1.3811643235385418e-02" rms="4.6042001247406006e-01" purity="5.8119100332260132e-01" nType="0">
          <Node pos="l" depth="2" NCoef="0" IVar="-1" Cut="0.0000000000000000e+00" cType="1" res="1.5420540003105998e-03" rms="4.6124842762947083e-01" purity="5.7272446155548096e-01" nType="-99"/>
          <Node pos="r" depth="2" NCoef="0" IVar="-1" Cut="0.0000000000000000e+00" cType="1" res="-2.6411830913275480e-03" rms="4.5282888412475586e-01" purity="6.2699109315872192e-01" nType="-99"/>
        </Node>
        <Node pos="r" depth="1" NCoef="0" IVar="6" Cut="3.9541335105895996e+00" cType="1" res="-3.1442709267139435e-02" rms="4.6619960665702820e-01" purity="3.9956986904144287e-01" nType="0">
          <Node pos="l" depth="2" NCoef="0" IVar="-1" Cut="0.0000000000000000e+00" cType="1" res="-1.1048256419599056e-03" rms="4.5804437994956970e-01" purity="3.5818660259246826e-01" nType="-99"/>
          <Node pos="r" depth="2" NCoef="0" IVar="-1" Cut="0.0000000000000000e+00" cType="1" res="-4.1411612182855606e-03" rms="4.8755037784576416e-01" purity="5.2206999063491821e-01" nType="-99"/>
        </Node>
      </Node>
    </BinaryTree>
    <BinaryTree type="DecisionTree" boostWeight="1.0000000000000000e+00" itree="1042">
      <Node pos="s" depth="0" NCoef="0" IVar="4" Cut="3.4989651758223772e-03" cType="1" res="4.5698089525103569e-03" rms="4.6598699688911438e-01" purity="5.1235276460647583e-01" nType="0">
        <Node pos="l" depth="1" NCoef="0" IVar="6" Cut="3.3334510326385498e+00" cType="1" res="3.5053575993515551e-04" rms="4.6584194898605347e-01" purity="5.1516443490982056e-01" nType="0">
          <Node pos="l" depth="2" NCoef="0" IVar="-1" Cut="0.0000000000000000e+00" cType="1" res="1.0814756387844682e-03" rms="4.7027152776718140e-01" purity="3.9352458715438843e-01" nType="-99"/>
          <Node pos="r" depth="2" NCoef="0" IVar="-1" Cut="0.0000000000000000e+00" cType="1" res="-7.0941104786470532e-04" rms="4.6254897117614746e-01" purity="5.9573096036911011e-01" nType="-99"/>
        </Node>
        <Node pos="r" depth="1" NCoef="0" IVar="-1" Cut="0.0000000000000000e+00" cType="1" res="4.1174273937940598e-03" rms="4.6371433138847351e-01" purity="4.7108384966850281e-01" nType="-99"/>
      </Node>
    </BinaryTree>
  </Weights>
</MethodSetup>
